{
  "version": "1.0",
  "truncation": null,
  "padding": null,
  "added_tokens": [
    {
      "id": 0,
      "content": "[UNK]",
      "single_word": false,
      "lstrip": false,
      "rstrip": false,
      "normalized": false,
      "special": true
    },
    {
      "id": 1,
      "content": "[PAD]",
      "single_word": false,
      "lstrip": false,
      "rstrip": false,
      "normalized": false,
      "special": true
    },
    {
      "id": 2,
      "content": "[CLS]",
      "single_word": false,
      "lstrip": false,
      "rstrip": false,
      "normalized": false,
      "special": true
    },
    {
      "id": 3,
      "content": "[SEP]",
      "single_word": false,
      "lstrip": false,
      "rstrip": false,
      "normalized": false,
      "special": true
    },
    {
      "id": 4,
      "content": "[MASK]",
      "single_word": false,
      "lstrip": false,
      "rstrip": false,
      "normalized": false,
      "special": true
    }
  ],
  "normalizer": null,
  "pre_tokenizer": {
    "type": "Whitespace"
  },
  "post_processor": null,
  "decoder": {
    "type": "WordPiece",
    "prefix": "##",
    "cleanup": true
  },
  "model": {
    "type": "WordPiece",
    "unk_token": "[UNK]",
    "continuing_subword_prefix": "##",
    "max_input_chars_per_word": 100,
    "vocab": {
      "[UNK]": 0,
      "[PAD]": 1,
      "[CLS]": 2,
      "[SEP]": 3,
      "[MASK]": 4,
      "!": 5,
      "&": 6,
      "'": 7,
      "(": 8,
      ")": 9,
      ",": 10,
      "-": 11,
      ".": 12,
      "/": 13,
      "0": 14,
      "1": 15,
      "2": 16,
      "3": 17,
      "4": 18,
      "5": 19,
      "6": 20,
      "7": 21,
      "8": 22,
      "9": 23,
      ":": 24,
      ";": 25,
      "?": 26,
      "A": 27,
      "B": 28,
      "C": 29,
      "D": 30,
      "E": 31,
      "F": 32,
      "G": 33,
      "H": 34,
      "I": 35,
      "J": 36,
      "K": 37,
      "L": 38,
      "M": 39,
      "N": 40,
      "O": 41,
      "P": 42,
      "Q": 43,
      "R": 44,
      "S": 45,
      "T": 46,
      "U": 47,
      "V": 48,
      "W": 49,
      "X": 50,
      "Y": 51,
      "Z": 52,
      "a": 53,
      "b": 54,
      "c": 55,
      "d": 56,
      "e": 57,
      "f": 58,
      "g": 59,
      "h": 60,
      "i": 61,
      "j": 62,
      "k": 63,
      "l": 64,
      "m": 65,
      "n": 66,
      "o": 67,
      "p": 68,
      "q": 69,
      "r": 70,
      "s": 71,
      "t": 72,
      "u": 73,
      "v": 74,
      "w": 75,
      "x": 76,
      "y": 77,
      "z": 78,
      "«": 79,
      "°": 80,
      "»": 81,
      "À": 82,
      "É": 83,
      "Ë": 84,
      "Ñ": 85,
      "Ò": 86,
      "Ó": 87,
      "à": 88,
      "â": 89,
      "ã": 90,
      "ç": 91,
      "è": 92,
      "é": 93,
      "ê": 94,
      "ë": 95,
      "î": 96,
      "ï": 97,
      "ñ": 98,
      "ó": 99,
      "ô": 100,
      "ù": 101,
      "û": 102,
      "ň": 103,
      "ŋ": 104,
      "œ": 105,
      "–": 106,
      "‘": 107,
      "“": 108,
      "”": 109,
      "…": 110,
      "##r": 111,
      "##a": 112,
      "##v": 113,
      "##t": 114,
      "##e": 115,
      "##w": 116,
      "##o": 117,
      "##n": 118,
      "##u": 119,
      "##k": 120,
      "##i": 121,
      "##y": 122,
      "##m": 123,
      "##p": 124,
      "##l": 125,
      "##s": 126,
      "##x": 127,
      "##c": 128,
      "##ï": 129,
      "##d": 130,
      "##b": 131,
      "##j": 132,
      "##g": 133,
      "##é": 134,
      "##f": 135,
      "##ë": 136,
      "##à": 137,
      "##ñ": 138,
      "##q": 139,
      "##ó": 140,
      "##î": 141,
      "##è": 142,
      "##h": 143,
      "##ô": 144,
      "##â": 145,
      "##8": 146,
      "##û": 147,
      "##0": 148,
      "##ŋ": 149,
      "##z": 150,
      "##ê": 151,
      "##ň": 152,
      "##)": 153,
      "##,": 154,
      "##ç": 155,
      "##9": 156,
      "##1": 157,
      "##4": 158,
      "##.": 159,
      "##ù": 160,
      "##ã": 161,
      "##œ": 162,
      "##6": 163,
      "##3": 164,
      "##A": 165,
      "##2": 166,
      "##5": 167,
      "##”": 168,
      "##B": 169,
      "##C": 170,
      "##«": 171,
      "##es": 172,
      "##aa": 173,
      "##on": 174,
      "##en": 175,
      "##an": 176,
      "de": 177,
      "##oo": 178,
      "##ou": 179,
      "##ai": 180,
      "##re": 181,
      "##er": 182,
      "##al": 183,
      "##ar": 184,
      "##am": 185,
      "la": 186,
      "##te": 187,
      "##is": 188,
      "ci": 189,
      "qu": 190,
      "##ur": 191,
      "##or": 192,
      "##ent": 193,
      "##ee": 194,
      "##oon": 195,
      "le": 196,
      "##kk": 197,
      "##ll": 198,
      "##in": 199,
      "##it": 200,
      "ma": 201,
      "##ait": 202,
      "##ée": 203,
      "en": 204,
      "les": 205,
      "##ir": 206,
      "un": 207,
      "##pp": 208,
      "et": 209,
      "##aan": 210,
      "##ti": 211,
      "du": 212,
      "##our": 213,
      "##ax": 214,
      "mu": 215,
      "des": 216,
      "ni": 217,
      "##ri": 218,
      "na": 219,
      "##le": 220,
      "##qu": 221,
      "di": 222,
      "ba": 223,
      "##ant": 224,
      "##ans": 225,
      "ko": 226,
      "##aay": 227,
      "##as": 228,
      "##om": 229,
      "##et": 230,
      "##el": 231,
      "au": 232,
      "se": 233,
      "##ul": 234,
      "bi": 235,
      "te": 236,
      "##ère": 237,
      "yi": 238,
      "il": 239,
      "##us": 240,
      "##ais": 241,
      "av": 242,
      "##ag": 243,
      "ne": 244,
      "ak": 245,
      "ng": 246,
      "##me": 247,
      "##gg": 248,
      "##ay": 249,
      "##st": 250,
      "##un": 251,
      "##és": 252,
      "par": 253,
      "##oom": 254,
      "lu": 255,
      "##de": 256,
      "##àn": 257,
      "ñu": 258,
      "##ce": 259,
      "##ën": 260,
      "dans": 261,
      "##que": 262,
      "qui": 263,
      "yu": 264,
      "##ol": 265,
      "##ous": 266,
      "##ch": 267,
      "que": 268,
      "mon": 269,
      "ét": 270,
      "bu": 271,
      "##ama": 272,
      "##em": 273,
      "ch": 274,
      "fa": 275,
      "##fri": 276,
      "une": 277,
      "##at": 278,
      "daan": 279,
      "##os": 280,
      "##ie": 281,
      "##au": 282,
      "##enn": 283,
      "##ab": 284,
      "re": 285,
      "##tre": 286,
      "Afri": 287,
      "##lu": 288,
      "su": 289,
      "son": 290,
      "est": 291,
      "##lle": 292,
      "seen": 293,
      "pas": 294,
      "ca": 295,
      "dé": 296,
      "##di": 297,
      "##ons": 298,
      "li": 299,
      "##aw": 300,
      "am": 301,
      "##um": 302,
      "in": 303,
      "gu": 304,
      "##res": 305,
      "##aar": 306,
      "je": 307,
      "##ale": 308,
      "##ro": 309,
      "pour": 310,
      "woon": 311,
      "mi": 312,
      "mb": 313,
      "##ux": 314,
      "dë": 315,
      "##out": 316,
      "sa": 317,
      "##dd": 318,
      "##ër": 319,
      "##and": 320,
      "si": 321,
      "##ox": 322,
      "##opp": 323,
      "nu": 324,
      "##ec": 325,
      "père": 326,
      "sama": 327,
      "##aient": 328,
      "sur": 329,
      "doon": 330,
      "##ain": 331,
      "da": 332,
      "##ra": 333,
      "pl": 334,
      "##si": 335,
      "com": 336,
      "##tu": 337,
      "Baay": 338,
      "##ouv": 339,
      "##end": 340,
      "##oi": 341,
      "##gu": 342,
      "##ot": 343,
      "##mp": 344,
      "##ge": 345,
      "ay": 346,
      "ce": 347,
      "##urs": 348,
      "leen": 349,
      "##ati": 350,
      "gi": 351,
      "ngi": 352,
      "Afrig": 353,
      "##ers": 354,
      "##épp": 355,
      "##aal": 356,
      "nd": 357,
      "##tt": 358,
      "##oy": 359,
      "##il": 360,
      "##ali": 361,
      "##ff": 362,
      "sax": 363,
      "##eek": 364,
      "an": 365,
      "con": 366,
      "##ub": 367,
      "##ment": 368,
      "##ort": 369,
      "##cc": 370,
      "##aat": 371,
      "##ens": 372,
      "vi": 373,
      "ar": 374,
      "##ré": 375,
      "##gal": 376,
      "était": 377,
      "mel": 378,
      "##éeg": 379,
      "Il": 380,
      "##ante": 381,
      "gis": 382,
      "##ne": 383,
      "##ñu": 384,
      "avait": 385,
      "avec": 386,
      "où": 387,
      "##mb": 388,
      "dem": 389,
      "##age": 390,
      "dëkk": 391,
      "ya": 392,
      "enf": 393,
      "##té": 394,
      "##ig": 395,
      "loo": 396,
      "mën": 397,
      "##én": 398,
      "naa": 399,
      "xam": 400,
      "##àkk": 401,
      "##se": 402,
      "ju": 403,
      "##ut": 404,
      "##ooy": 405,
      "gr": 406,
      "wax": 407,
      "##óor": 408,
      "me": 409,
      "##ci": 410,
      "##ette": 411,
      "ai": 412,
      "def": 413,
      "moom": 414,
      "on": 415,
      "nj": 416,
      "nous": 417,
      "pe": 418,
      "##rè": 419,
      "##ois": 420,
      "bë": 421,
      "##oir": 422,
      "##all": 423,
      "##ara": 424,
      "mère": 425,
      "##tes": 426,
      "Og": 427,
      "##ées": 428,
      "##aaw": 429,
      "##ook": 430,
      "##erre": 431,
      "##ard": 432,
      "##ants": 433,
      "fe": 434,
      "fu": 435,
      "it": 436,
      "##ang": 437,
      "plus": 438,
      "##nd": 439,
      "##iy": 440,
      "##aak": 441,
      "##eex": 442,
      "dal": 443,
      "ex": 444,
      "benn": 445,
      "##are": 446,
      "##one": 447,
      "fà": 448,
      "##ance": 449,
      "ils": 450,
      "jam": 451,
      "lui": 452,
      "ou": 453,
      "##ris": 454,
      "may": 455,
      "##rès": 456,
      "mais": 457,
      "so": 458,
      "jë": 459,
      "là": 460,
      "mé": 461,
      "mê": 462,
      "##aire": 463,
      "do": 464,
      "ri": 465,
      "ré": 466,
      "muy": 467,
      "ku": 468,
      "tu": 469,
      "sans": 470,
      "tax": 471,
      "##vi": 472,
      "##bu": 473,
      "léeg": 474,
      "yë": 475,
      "##aam": 476,
      "tout": 477,
      "##mm": 478,
      "##aax": 479,
      "##éew": 480,
      "comme": 481,
      "##oin": 482,
      "##ine": 483,
      "nekk": 484,
      "##ement": 485,
      "br": 486,
      "bopp": 487,
      "doo": 488,
      "at": 489,
      "ses": 490,
      "sol": 491,
      "war": 492,
      "##aaye": 493,
      "nga": 494,
      "sont": 495,
      "ces": 496,
      "cette": 497,
      "gën": 498,
      "vie": 499,
      "##mes": 500,
      "ra": 501,
      "##een": 502,
      "##éen": 503,
      "leurs": 504,
      "mas": 505,
      "##unu": 506,
      "##ation": 507,
      "boo": 508,
      "kër": 509,
      "##uis": 510,
      "##fa": 511,
      "##àng": 512,
      "doom": 513,
      "kenn": 514,
      "##ii": 515,
      "##ak": 516,
      "##ad": 517,
      "##lles": 518,
      "##amer": 519,
      "pay": 520,
      "##aab": 521,
      "##onn": 522,
      "##oute": 523,
      "##ité": 524,
      "Afrique": 525,
      "seeni": 526,
      "mbaa": 527,
      "même": 528,
      "Le": 529,
      "tr": 530,
      "##ve": 531,
      "##ku": 532,
      "##mps": 533,
      "tra": 534,
      "##ure": 535,
      "##àgg": 536,
      "##ages": 537,
      "cha": 538,
      "pays": 539,
      "jà": 540,
      "##tr": 541,
      "dev": 542,
      "nag": 543,
      "ab": 544,
      "mar": 545,
      "res": 546,
      "xel": 547,
      "être": 548,
      "##li": 549,
      "##ence": 550,
      "##ord": 551,
      "##alla": 552,
      "dara": 553,
      "réew": 554,
      "##bb": 555,
      "##eet": 556,
      "enfants": 557,
      "Les": 558,
      "Su": 559,
      "man": 560,
      "##ont": 561,
      "biir": 562,
      "rekk": 563,
      "grand": 564,
      "Je": 565,
      "La": 566,
      "app": 567,
      "gar": 568,
      "nit": 569,
      "##mi": 570,
      "aux": 571,
      "##che": 572,
      "for": 573,
      "lépp": 574,
      "pro": 575,
      "sam": 576,
      "##yaa": 577,
      "##ela": 578,
      "elle": 579,
      "moo": 580,
      "to": 581,
      "##ér": 582,
      "##aaj": 583,
      "mag": 584,
      "aut": 585,
      "##ànk": 586,
      "wu": 587,
      "éc": 588,
      "##ue": 589,
      "##les": 590,
      "##oup": 591,
      "##ina": 592,
      "teg": 593,
      "bés": 594,
      "fi": 595,
      "jour": 596,
      "yar": 597,
      "yaay": 598,
      "##ions": 599,
      "##éy": 600,
      "##eneen": 601,
      "##oor": 602,
      "##ist": 603,
      "##orp": 604,
      "temps": 605,
      "loolu": 606,
      "Ma": 607,
      "##wu": 608,
      "##àll": 609,
      "##eri": 610,
      "##omb": 611,
      "yiy": 612,
      "sunu": 613,
      "##ui": 614,
      "##ct": 615,
      "gén": 616,
      "ji": 617,
      "lon": 618,
      "saa": 619,
      "too": 620,
      "yoon": 621,
      "##uy": 622,
      "guerre": 623,
      "Ogos": 624,
      "yëg": 625,
      "jus": 626,
      "dex": 627,
      "##eel": 628,
      "##aine": 629,
      "Ogosaa": 630,
      "Li": 631,
      "as": 632,
      "dox": 633,
      "gone": 634,
      "walla": 635,
      "ñoom": 636,
      "##wul": 637,
      "##près": 638,
      "##éem": 639,
      "kow": 640,
      "koy": 641,
      "tey": 642,
      "##aux": 643,
      "lool": 644,
      "daldi": 645,
      "Waaye": 646,
      "cela": 647,
      "we": 648,
      "##jj": 649,
      "##aari": 650,
      "##anc": 651,
      "##ool": 652,
      "##kki": 653,
      "dafa": 654,
      "##ubaab": 655,
      "Ci": 656,
      "jur": 657,
      "met": 658,
      "ser": 659,
      "të": 660,
      "##ni": 661,
      "##ori": 662,
      "##ors": 663,
      "nat": 664,
      "##ànte": 665,
      "ñuy": 666,
      "monde": 667,
      "samay": 668,
      "ja": 669,
      "xare": 670,
      "##ter": 671,
      "##ug": 672,
      "##àtt": 673,
      "##orte": 674,
      "ndax": 675,
      "##igéen": 676,
      "yaram": 677,
      "Te": 678,
      "Tu": 679,
      "col": 680,
      "yeek": 681,
      "##ono": 682,
      "##ert": 683,
      "##tion": 684,
      "autre": 685,
      "##aiss": 686,
      "ngir": 687,
      "étaient": 688,
      "doole": 689,
      "##aka": 690,
      "all": 691,
      "car": 692,
      "souv": 693,
      "##ill": 694,
      "##ja": 695,
      "comp": 696,
      "fekk": 697,
      "trav": 698,
      "Ni": 699,
      "al": 700,
      "jigéen": 701,
      "lox": 702,
      "##eur": 703,
      "##id": 704,
      "##mis": 705,
      "##aas": 706,
      "ent": 707,
      "##able": 708,
      "pass": 709,
      "Tugal": 710,
      "fee": 711,
      "jó": 712,
      "koo": 713,
      "mes": 714,
      "pr": 715,
      "ter": 716,
      "tam": 717,
      "##ore": 718,
      "##uf": 719,
      "##ju": 720,
      "dell": 721,
      "leur": 722,
      "##its": 723,
      "##éey": 724,
      "##ett": 725,
      "dëgg": 726,
      "mal": 727,
      "per": 728,
      "yaa": 729,
      "yooy": 730,
      "àll": 731,
      "àdd": 732,
      "ànd": 733,
      "##kat": 734,
      "##ion": 735,
      "##ères": 736,
      "##êt": 737,
      "##itu": 738,
      "inst": 739,
      "##ttali": 740,
      "fàttali": 741,
      "Bans": 742,
      "après": 743,
      "cas": 744,
      "fait": 745,
      "pouv": 746,
      "##oja": 747,
      "##ng": 748,
      "ciy": 749,
      "enc": 750,
      "##ours": 751,
      "nañ": 752,
      "Ogoja": 753,
      "maison": 754,
      "garab": 755,
      "Al": 756,
      "Fr": 757,
      "acc": 758,
      "baax": 759,
      "fr": 760,
      "naan": 761,
      "ta": 762,
      "xar": 763,
      "ye": 764,
      "##op": 765,
      "##du": 766,
      "##ŋŋ": 767,
      "##ents": 768,
      "dul": 769,
      "amul": 770,
      "ont": 771,
      "nataal": 772,
      "19": 773,
      "fem": 774,
      "im": 775,
      "port": 776,
      "sous": 777,
      "wër": 778,
      "##ow": 779,
      "##nu": 780,
      "##ic": 781,
      "##ma": 782,
      "##ise": 783,
      "##enti": 784,
      "part": 785,
      "##ënd": 786,
      "##oppi": 787,
      "chaque": 788,
      "jàpp": 789,
      "yooyu": 790,
      "Bam": 791,
      "Tubaab": 792,
      "corp": 793,
      "hom": 794,
      "imp": 795,
      "moi": 796,
      "neex": 797,
      "tà": 798,
      "##ww": 799,
      "##okk": 800,
      "##par": 801,
      "##gn": 802,
      "##ane": 803,
      "##ande": 804,
      "##ari": 805,
      "##inn": 806,
      "##use": 807,
      "dégg": 808,
      "Am": 809,
      "Mon": 810,
      "daw": 811,
      "laa": 812,
      "seet": 813,
      "##tin": 814,
      "##ëkk": 815,
      "##ond": 816,
      "##anu": 817,
      "##agn": 818,
      "reg": 819,
      "##uma": 820,
      "mbir": 821,
      "##sion": 822,
      "ann": 823,
      "jamais": 824,
      "jamono": 825,
      "boobu": 826,
      "ress": 827,
      "jusqu": 828,
      "corps": 829,
      "En": 830,
      "Kamer": 831,
      "Mu": 832,
      "doute": 833,
      "loin": 834,
      "noon": 835,
      "pal": 836,
      "##ts": 837,
      "##oŋ": 838,
      "##oun": 839,
      "##tee": 840,
      "dund": 841,
      "##ques": 842,
      "##ggéey": 843,
      "##ànn": 844,
      "déc": 845,
      "ins": 846,
      "##ili": 847,
      "àddina": 848,
      "Kamerun": 849,
      "ginn": 850,
      "hau": 851,
      "jé": 852,
      "jaar": 853,
      "puis": 854,
      "ňu": 855,
      "##ule": 856,
      "##ille": 857,
      "##yi": 858,
      "##ces": 859,
      "##enir": 860,
      "##anam": 861,
      "bare": 862,
      "parl": 863,
      "dañ": 864,
      "##oire": 865,
      "vill": 866,
      "bët": 867,
      "bëgg": 868,
      "jóge": 869,
      "Bamend": 870,
      "aur": 871,
      "pos": 872,
      "##kaay": 873,
      "##iw": 874,
      "##ble": 875,
      "##amp": 876,
      "quel": 877,
      "avant": 878,
      "##cher": 879,
      "liggéey": 880,
      "##ameroun": 881,
      "Qu": 882,
      "ag": 883,
      "bà": 884,
      "coup": 885,
      "dis": 886,
      "màgg": 887,
      "ph": 888,
      "pré": 889,
      "wi": 890,
      "yën": 891,
      "ép": 892,
      "ñi": 893,
      "##ues": 894,
      "##ddi": 895,
      "##ëm": 896,
      "der": 897,
      "##riv": 898,
      "##dec": 899,
      "mont": 900,
      "che": 901,
      "faj": 902,
      "suuf": 903,
      "##ains": 904,
      "ndaw": 905,
      "médec": 906,
      "boppam": 907,
      "encore": 908,
      "Da": 909,
      "Mais": 910,
      "Nous": 911,
      "co": 912,
      "cô": 913,
      "day": 914,
      "fan": 915,
      "faire": 916,
      "ti": 917,
      "tànk": 918,
      "yaak": 919,
      "##ob": 920,
      "##uur": 921,
      "##ég": 922,
      "##óom": 923,
      "dee": 924,
      "deux": 925,
      "##ind": 926,
      "##iti": 927,
      "##ital": 928,
      "##tions": 929,
      "##omp": 930,
      "travers": 931,
      "années": 932,
      "cour": 933,
      "dou": 934,
      "fay": 935,
      "ga": 936,
      "mooy": 937,
      "non": 938,
      "pre": 939,
      "pet": 940,
      "sou": 941,
      "ñaari": 942,
      "##tte": 943,
      "##con": 944,
      "##cun": 945,
      "##ga": 946,
      "##alee": 947,
      "##ins": 948,
      "##leu": 949,
      "chos": 950,
      "daj": 951,
      "toog": 952,
      "Mb": 953,
      "Nd": 954,
      "aad": 955,
      "dont": 956,
      "four": 957,
      "joo": 958,
      "jot": 959,
      "or": 960,
      "sé": 961,
      "soo": 962,
      "tee": 963,
      "Ñu": 964,
      "##ate": 965,
      "##uw": 966,
      "##bar": 967,
      "##àdd": 968,
      "##gue": 969,
      "##oto": 970,
      "arm": 971,
      "loxo": 972,
      "tamit": 973,
      "ginnaaw": 974,
      "Cameroun": 975,
      "ad": 976,
      "maa": 977,
      "no": 978,
      "ret": 979,
      "terre": 980,
      "voy": 981,
      "way": 982,
      "waaye": 983,
      "yépp": 984,
      "##rit": 985,
      "##kt": 986,
      "##ññ": 987,
      "##ret": 988,
      "lañu": 989,
      "##uri": 990,
      "##oroom": 991,
      "dun": 992,
      "aus": 993,
      "aucun": 994,
      "biy": 995,
      "bien": 996,
      "daanaka": 997,
      "peu": 998,
      "fàww": 999,
      "doŋŋ": 1000,
      "rivi": 1001,
      "colon": 1002,
      "pouvait": 1003,
      "premi": 1004,
      "Nig": 1005,
      "Pour": 1006,
      "be": 1007,
      "bé": 1008,
      "ban": 1009,
      "emp": 1010,
      "fois": 1011,
      "gun": 1012,
      "lan": 1013,
      "rë": 1014,
      "tro": 1015,
      "topp": 1016,
      "très": 1017,
      "xol": 1018,
      "ñaar": 1019,
      "##vre": 1020,
      "##ver": 1021,
      "##pital": 1022,
      "##dre": 1023,
      "##ba": 1024,
      "##fi": 1025,
      "##enu": 1026,
      "##ente": 1027,
      "quand": 1028,
      "##llent": 1029,
      "##ches": 1030,
      "solo": 1031,
      "metti": 1032,
      "fàttaliku": 1033,
      "##ngale": 1034,
      "homme": 1035,
      "De": 1036,
      "bou": 1037,
      "fam": 1038,
      "fleu": 1039,
      "hab": 1040,
      "jàn": 1041,
      "kanam": 1042,
      "mer": 1043,
      "maam": 1044,
      "rés": 1045,
      "va": 1046,
      "vis": 1047,
      "wànte": 1048,
      "ñoo": 1049,
      "##ves": 1050,
      "##im": 1051,
      "##cul": 1052,
      "##bes": 1053,
      "##ël": 1054,
      "##àpp": 1055,
      "##anaa": 1056,
      "##éet": 1057,
      "##iri": 1058,
      "##antu": 1059,
      "##ass": 1060,
      "##emb": 1061,
      "nuy": 1062,
      "comm": 1063,
      "##ouve": 1064,
      "arriv": 1065,
      "Ils": 1066,
      "entend": 1067,
      "France": 1068,
      "regard": 1069,
      "médecin": 1070,
      "aussi": 1071,
      "Du": 1072,
      "Mó": 1073,
      "Nis": 1074,
      "Wànte": 1075,
      "bord": 1076,
      "fin": 1077,
      "gée": 1078,
      "góor": 1079,
      "her": 1080,
      "nir": 1081,
      "ob": 1082,
      "pu": 1083,
      "pi": 1084,
      "tous": 1085,
      "xe": 1086,
      "xal": 1087,
      "yó": 1088,
      "yàgg": 1089,
      "##we": 1090,
      "##ok": 1091,
      "##ét": 1092,
      "##aires": 1093,
      "##eryaa": 1094,
      "##lli": 1095,
      "semb": 1096,
      "été": 1097,
      "ans": 1098,
      "forêt": 1099,
      "autour": 1100,
      "##eria": 1101,
      "long": 1102,
      "noonu": 1103,
      "bày": 1104,
      "yaakaar": 1105,
      "),": 1106,
      "aff": 1107,
      "cou": 1108,
      "es": 1109,
      "eau": 1110,
      "fais": 1111,
      "gaal": 1112,
      "nan": 1113,
      "plu": 1114,
      "say": 1115,
      "tou": 1116,
      "tàng": 1117,
      "vo": 1118,
      "yem": 1119,
      "##éc": 1120,
      "##fe": 1121,
      "##onc": 1122,
      "##oolu": 1123,
      "##araa": 1124,
      "lañ": 1125,
      "##iss": 1126,
      "##ures": 1127,
      "dugg": 1128,
      "##agne": 1129,
      "ñuul": 1130,
      "##ieu": 1131,
      "##ieux": 1132,
      "rec": 1133,
      "suis": 1134,
      "sav": 1135,
      "nuit": 1136,
      "viol": 1137,
      "##anger": 1138,
      "jël": 1139,
      "rien": 1140,
      "toll": 1141,
      "souvi": 1142,
      "##ettali": 1143,
      "Nigeria": 1144,
      "Móris": 1145,
      "Bi": 1146,
      "bokk": 1147,
      "cons": 1148,
      "dés": 1149,
      "dóor": 1150,
      "faa": 1151,
      "hô": 1152,
      "jaay": 1153,
      "jox": 1154,
      "jeex": 1155,
      "nde": 1156,
      "néeg": 1157,
      "noir": 1158,
      "noppi": 1159,
      "pie": 1160,
      "rê": 1161,
      "rag": 1162,
      "rem": 1163,
      "sau": 1164,
      "vers": 1165,
      "wéy": 1166,
      "xon": 1167,
      "ñàkk": 1168,
      "##ac": 1169,
      "##ki": 1170,
      "##loo": 1171,
      "##dde": 1172,
      "##óol": 1173,
      "##ôt": 1174,
      "##oog": 1175,
      "entre": 1176,
      "##aanu": 1177,
      "##ourd": 1178,
      "mujj": 1179,
      "bay": 1180,
      "##ettes": 1181,
      "##elaw": 1182,
      "dég": 1183,
      "guddi": 1184,
      "mil": 1185,
      "##ture": 1186,
      "conn": 1187,
      "mënoon": 1188,
      "xamul": 1189,
      "jëm": 1190,
      "réy": 1191,
      "Bansoo": 1192,
      "Niseryaa": 1193,
      "souviens": 1194,
      "hôpital": 1195,
      ").": 1196,
      "Ak": 1197,
      "Ab": 1198,
      "Et": 1199,
      "Lu": 1200,
      "Loolu": 1201,
      "Xam": 1202,
      "Yàll": 1203,
      "bl": 1204,
      "bon": 1205,
      "bout": 1206,
      "far": 1207,
      "gàtt": 1208,
      "hum": 1209,
      "jàng": 1210,
      "murs": 1211,
      "nettali": 1212,
      "rou": 1213,
      "weex": 1214,
      "waaj": 1215,
      "ñax": 1216,
      "ñépp": 1217,
      "##ton": 1218,
      "##ngal": 1219,
      "##koo": 1220,
      "##pl": 1221,
      "##ére": 1222,
      "##àq": 1223,
      "##àcc": 1224,
      "##teer": 1225,
      "##tement": 1226,
      "dire": 1227,
      "diff": 1228,
      "##aise": 1229,
      "##ché": 1230,
      "lii": 1231,
      "lib": 1232,
      "##ouver": 1233,
      "##endant": 1234,
      "ang": 1235,
      "##aata": 1236,
      "##réb": 1237,
      "njëkk": 1238,
      "itam": 1239,
      "taxaw": 1240,
      "door": 1241,
      "doomi": 1242,
      "devant": 1243,
      "femme": 1244,
      "imag": 1245,
      "aurait": 1246,
      "quelque": 1247,
      "chose": 1248,
      "aadama": 1249,
      "fourmis": 1250,
      "jooju": 1251,
      "rivière": 1252,
      "##llentaan": 1253,
      "géej": 1254,
      "xalaat": 1255,
      "bàyyi": 1256,
      "pied": 1257,
      "xonq": 1258,
      "Au": 1259,
      "Ce": 1260,
      "Sama": 1261,
      "afri": 1262,
      "lors": 1263,
      "mom": 1264,
      "nun": 1265,
      "off": 1266,
      "sc": 1267,
      "xale": 1268,
      "yee": 1269,
      "».": 1270,
      "Àngale": 1271,
      "Àngal": 1272,
      "ëpp": 1273,
      "##rai": 1274,
      "##vent": 1275,
      "##lé": 1276,
      "##cé": 1277,
      "##dé": 1278,
      "##des": 1279,
      "##óot": 1280,
      "##aañ": 1281,
      "##aale": 1282,
      "##ong": 1283,
      "##orm": 1284,
      "##rict": 1285,
      "seul": 1286,
      "##ouse": 1287,
      "chem": 1288,
      "##dic": 1289,
      "inter": 1290,
      "dëkki": 1291,
      "peau": 1292,
      "bëj": 1293,
      "tuu": 1294,
      "tudd": 1295,
      "brû": 1296,
      "wees": 1297,
      "juróom": 1298,
      "souvenir": 1299,
      "dellu": 1300,
      "Banso": 1301,
      "case": 1302,
      "tàmb": 1303,
      "souff": 1304,
      "Ndax": 1305,
      "voyage": 1306,
      "béréb": 1307,
      "gunóor": 1308,
      "afric": 1309,
      "Àngalteer": 1310,
      "Ay": 1311,
      "Bu": 1312,
      "Daan": 1313,
      "Ku": 1314,
      "cr": 1315,
      "cro": 1316,
      "dan": 1317,
      "daal": 1318,
      "foo": 1319,
      "hui": 1320,
      "jo": 1321,
      "jant": 1322,
      "ki": 1323,
      "laaj": 1324,
      "main": 1325,
      "nouve": 1326,
      "occ": 1327,
      "po": 1328,
      "pres": 1329,
      "route": 1330,
      "sox": 1331,
      "sorte": 1332,
      "senti": 1333,
      "tour": 1334,
      "wet": 1335,
      "wut": 1336,
      "àgg": 1337,
      "âge": 1338,
      "ñë": 1339,
      "##rme": 1340,
      "##vant": 1341,
      "##uus": 1342,
      "##ke": 1343,
      "##ière": 1344,
      "##ici": 1345,
      "##ph": 1346,
      "##xe": 1347,
      "##ji": 1348,
      "##jourd": 1349,
      "##éri": 1350,
      "##fu": 1351,
      "lay": 1352,
      "##ores": 1353,
      "##ites": 1354,
      "##til": 1355,
      "##leil": 1356,
      "##omm": 1357,
      "seule": 1358,
      "tekk": 1359,
      "##uss": 1360,
      "avaient": 1361,
      "parti": 1362,
      "##ànd": 1363,
      "##enne": 1364,
      "amoon": 1365,
      "##umaa": 1366,
      "dañu": 1367,
      "contre": 1368,
      "arb": 1369,
      "enfant": 1370,
      "peut": 1371,
      "fukki": 1372,
      "sore": 1373,
      "soleil": 1374,
      "rép": 1375,
      "##try": 1376,
      "passé": 1377,
      "feebar": 1378,
      "term": 1379,
      "femmes": 1380,
      "village": 1381,
      "notre": 1382,
      "##ktoor": 1383,
      "dunyaa": 1384,
      "trop": 1385,
      "ñëw": 1386,
      "Fores": 1387,
      "House": 1388,
      "Ib": 1389,
      "Ng": 1390,
      "Un": 1391,
      "ac": 1392,
      "baa": 1393,
      "cet": 1394,
      "din": 1395,
      "dina": 1396,
      "dist": 1397,
      "fo": 1398,
      "fl": 1399,
      "fée": 1400,
      "mo": 1401,
      "mot": 1402,
      "moin": 1403,
      "ren": 1404,
      "rel": 1405,
      "sori": 1406,
      "tel": 1407,
      "ubb": 1408,
      "vent": 1409,
      "voi": 1410,
      "»,": 1411,
      "éch": 1412,
      "##af": 1413,
      "##tres": 1414,
      "##pe": 1415,
      "##be": 1416,
      "##goo": 1417,
      "##fois": 1418,
      "##àmb": 1419,
      "##çon": 1420,
      "##ãs": 1421,
      "##andi": 1422,
      "##urop": 1423,
      "##kkal": 1424,
      "##kkee": 1425,
      "##ing": 1426,
      "mat": 1427,
      "##éegu": 1428,
      "end": 1429,
      "##aane": 1430,
      "nañu": 1431,
      "##let": 1432,
      "bañ": 1433,
      "##ets": 1434,
      "sec": 1435,
      "##uses": 1436,
      "avoir": 1437,
      "neen": 1438,
      "ngay": 1439,
      "##ables": 1440,
      "gudd": 1441,
      "làrme": 1442,
      "mém": 1443,
      "doktoor": 1444,
      "tudde": 1445,
      "##budu": 1446,
      "devait": 1447,
      "génn": 1448,
      "yaatu": 1449,
      "seetlu": 1450,
      "Bamenda": 1451,
      "photo": 1452,
      "montagn": 1453,
      "armée": 1454,
      "coloni": 1455,
      "habit": 1456,
      "herbes": 1457,
      "violence": 1458,
      "faral": 1459,
      "tàmbalee": 1460,
      "Forestry": 1461,
      "Ca": 1462,
      "Kon": 1463,
      "Pe": 1464,
      "aw": 1465,
      "att": 1466,
      "bois": 1467,
      "camp": 1468,
      "doy": 1469,
      "eux": 1470,
      "eff": 1471,
      "fas": 1472,
      "gé": 1473,
      "gens": 1474,
      "gaaw": 1475,
      "gànn": 1476,
      "jou": 1477,
      "jard": 1478,
      "jéem": 1479,
      "kàdd": 1480,
      "moroom": 1481,
      "nee": 1482,
      "pris": 1483,
      "porte": 1484,
      "ru": 1485,
      "tur": 1486,
      "tàkk": 1487,
      "tang": 1488,
      "ven": 1489,
      "voir": 1490,
      "véc": 1491,
      "won": 1492,
      "wóor": 1493,
      "xaw": 1494,
      "ña": 1495,
      "##ap": 1496,
      "##aj": 1497,
      "##oque": 1498,
      "##uñu": 1499,
      "##été": 1500,
      "##ëgg": 1501,
      "##èg": 1502,
      "##anç": 1503,
      "##anche": 1504,
      "##anni": 1505,
      "##oot": 1506,
      "##ales": 1507,
      "##alité": 1508,
      "##amb": 1509,
      "ciel": 1510,
      "##eem": 1511,
      "leer": 1512,
      "##éere": 1513,
      "naq": 1514,
      "##ggi": 1515,
      "##cep": 1516,
      "yuy": 1517,
      "étr": 1518,
      "rev": 1519,
      "cap": 1520,
      "miir": 1521,
      "sil": 1522,
      "plaine": 1523,
      "##endre": 1524,
      "##ations": 1525,
      "ndox": 1526,
      "##iyaa": 1527,
      "taxoon": 1528,
      "sold": 1529,
      "boog": 1530,
      "chauss": 1531,
      "toit": 1532,
      "jours": 1533,
      "Mauri": 1534,
      "yeux": 1535,
      "dañoo": 1536,
      "villages": 1537,
      "Quand": 1538,
      "côté": 1539,
      "ndey": 1540,
      "Yàlla": 1541,
      "moment": 1542,
      "tuuti": 1543,
      "mémoire": 1544,
      "montagnes": 1545,
      "jardin": 1546,
      "Bés": 1547,
      "Elle": 1548,
      "Man": 1549,
      "bun": 1550,
      "cert": 1551,
      "eu": 1552,
      "gë": 1553,
      "gard": 1554,
      "heur": 1555,
      "is": 1556,
      "imm": 1557,
      "kil": 1558,
      "kili": 1559,
      "mort": 1560,
      "nom": 1561,
      "nos": 1562,
      "poin": 1563,
      "raw": 1564,
      "romb": 1565,
      "soppi": 1566,
      "tun": 1567,
      "tard": 1568,
      "vous": 1569,
      "vois": 1570,
      "woo": 1571,
      "yit": 1572,
      "yeneen": 1573,
      "##rait": 1574,
      "##añ": 1575,
      "##tés": 1576,
      "##eŋ": 1577,
      "##oc": 1578,
      "##nes": 1579,
      "##ite": 1580,
      "##ique": 1581,
      "##ler": 1582,
      "##fes": 1583,
      "##àr": 1584,
      "##àmm": 1585,
      "deme": 1586,
      "deret": 1587,
      "##erté": 1588,
      "##alle": 1589,
      "##eetu": 1590,
      "##itanni": 1591,
      "env": 1592,
      "entr": 1593,
      "##aana": 1594,
      "##tique": 1595,
      "##quel": 1596,
      "digg": 1597,
      "diiw": 1598,
      "aujourd": 1599,
      "avent": 1600,
      "avons": 1601,
      "new": 1602,
      "yuux": 1603,
      "char": 1604,
      "##atu": 1605,
      "##ats": 1606,
      "rep": 1607,
      "song": 1608,
      "inf": 1609,
      "indi": 1610,
      "guy": 1611,
      "##ression": 1612,
      "mii": 1613,
      "ngiy": 1614,
      "##ils": 1615,
      "arr": 1616,
      "##antee": 1617,
      "demee": 1618,
      "defar": 1619,
      "##ards": 1620,
      "fàtte": 1621,
      "sowu": 1622,
      "médic": 1623,
      "##mmi": 1624,
      "britanni": 1625,
      "atum": 1626,
      "trans": 1627,
      "xelam": 1628,
      "grands": 1629,
      "dexug": 1630,
      "takk": 1631,
      "##part": 1632,
      "parler": 1633,
      "Bamendaa": 1634,
      "màgget": 1635,
      "yëngu": 1636,
      "Dafa": 1637,
      "sauv": 1638,
      "mujjee": 1639,
      "liberté": 1640,
      "lorsque": 1641,
      "weesoo": 1642,
      "Maurice": 1643,
      "britannique": 1644,
      "Ch": 1645,
      "Moon": 1646,
      "Oues": 1647,
      "Une": 1648,
      "Xanaa": 1649,
      "baay": 1650,
      "baat": 1651,
      "dën": 1652,
      "donn": 1653,
      "emb": 1654,
      "fro": 1655,
      "fra": 1656,
      "fond": 1657,
      "gaa": 1658,
      "ker": 1659,
      "laiss": 1660,
      "lég": 1661,
      "maan": 1662,
      "nopp": 1663,
      "néegu": 1664,
      "sais": 1665,
      "sag": 1666,
      "tab": 1667,
      "xool": 1668,
      "yat": 1669,
      "##adi": 1670,
      "##taan": 1671,
      "##tant": 1672,
      "##eux": 1673,
      "##up": 1674,
      "##kati": 1675,
      "##min": 1676,
      "##lait": 1677,
      "##sé": 1678,
      "##ses": 1679,
      "##bbu": 1680,
      "##jours": 1681,
      "##àññ": 1682,
      "##ût": 1683,
      "##00": 1684,
      "##aill": 1685,
      "##aille": 1686,
      "##aloon": 1687,
      "##amaan": 1688,
      "##teur": 1689,
      "##kkali": 1690,
      "##inu": 1691,
      "##ines": 1692,
      "##axas": 1693,
      "dess": 1694,
      "nii": 1695,
      "##rière": 1696,
      "sedd": 1697,
      "avions": 1698,
      "##abar": 1699,
      "rey": 1700,
      "ref": 1701,
      "##roit": 1702,
      "##andéem": 1703,
      "##ectes": 1704,
      "##aines": 1705,
      "giy": 1706,
      "ndànk": 1707,
      "##ense": 1708,
      "ville": 1709,
      "enfance": 1710,
      "##téri": 1711,
      "judd": 1712,
      "grande": 1713,
      "mellentaan": 1714,
      "toutes": 1715,
      "appris": 1716,
      "##mière": 1717,
      "autor": 1718,
      "écl": 1719,
      "écout": 1720,
      "gént": 1721,
      "ass": 1722,
      "doxandéem": 1723,
      "aller": 1724,
      "carte": 1725,
      "delloo": 1726,
      "instant": 1727,
      "Frãs": 1728,
      "##icer": 1729,
      "impression": 1730,
      "dayo": 1731,
      "retour": 1732,
      "fleuves": 1733,
      "nirook": 1734,
      "esp": 1735,
      "nangu": 1736,
      "tollu": 1737,
      "connaiss": 1738,
      "angl": 1739,
      "scorp": 1740,
      "presque": 1741,
      "arbres": 1742,
      "vécu": 1743,
      "heures": 1744,
      "yuuxu": 1745,
      "Ouest": 1746,
      "Ang": 1747,
      "Fi": 1748,
      "Guy": 1749,
      "Guw": 1750,
      "Jam": 1751,
      "Maa": 1752,
      "Mën": 1753,
      "Muy": 1754,
      "Par": 1755,
      "Sans": 1756,
      "Tout": 1757,
      "Walla": 1758,
      "bâ": 1759,
      "beek": 1760,
      "bind": 1761,
      "cor": 1762,
      "cré": 1763,
      "dit": 1764,
      "dama": 1765,
      "fou": 1766,
      "fer": 1767,
      "goo": 1768,
      "he": 1769,
      "jan": 1770,
      "joor": 1771,
      "kes": 1772,
      "kar": 1773,
      "op": 1774,
      "pous": 1775,
      "pendant": 1776,
      "së": 1777,
      "sens": 1778,
      "soir": 1779,
      "sang": 1780,
      "séen": 1781,
      "tali": 1782,
      "tii": 1783,
      "teel": 1784,
      "tubaab": 1785,
      "wone": 1786,
      "xi": 1787,
      "xaar": 1788,
      "xéy": 1789,
      "él": 1790,
      "##ace": 1791,
      "##tal": 1792,
      "##nement": 1793,
      "##ide": 1794,
      "##cle": 1795,
      "##ître": 1796,
      "##çons": 1797,
      "##aate": 1798,
      "##onne": 1799,
      "##ange": 1800,
      "laque": 1801,
      "lekk": 1802,
      "##kkati": 1803,
      "##leur": 1804,
      "bas": 1805,
      "bate": 1806,
      "##antes": 1807,
      "##etti": 1808,
      "tere": 1809,
      "tefes": 1810,
      "avais": 1811,
      "##agg": 1812,
      "ngoon": 1813,
      "nguur": 1814,
      "##ung": 1815,
      "##deur": 1816,
      "chau": 1817,
      "Afric": 1818,
      "##lum": 1819,
      "dép": 1820,
      "déf": 1821,
      "miin": 1822,
      "sañ": 1823,
      "##ecc": 1824,
      "celle": 1825,
      "ceux": 1826,
      "##aliki": 1827,
      "anci": 1828,
      "connu": 1829,
      "dëkke": 1830,
      "fees": 1831,
      "##iyaan": 1832,
      "exp": 1833,
      "doit": 1834,
      "yëkkati": 1835,
      "raj": 1836,
      "doomu": 1837,
      "deven": 1838,
      "appar": 1839,
      "sunuy": 1840,
      "jiit": 1841,
      "saalum": 1842,
      "asamaan": 1843,
      "jafe": 1844,
      "##itude": 1845,
      "franç": 1846,
      "##maŋ": 1847,
      "partir": 1848,
      "insectes": 1849,
      "jéggi": 1850,
      "poste": 1851,
      "époque": 1852,
      "douce": 1853,
      "yóbbu": 1854,
      "semble": 1855,
      "faisait": 1856,
      "toujours": 1857,
      "déglu": 1858,
      "milieu": 1859,
      "kàddu": 1860,
      "silence": 1861,
      "Moonte": 1862,
      "frapp": 1863,
      "Guyane": 1864,
      "Guwiyaan": 1865,
      "googu": 1866,
      "kese": 1867,
      "laquelle": 1868,
      "Ar": 1869,
      "Cette": 1870,
      "Dans": 1871,
      "Europ": 1872,
      "Moo": 1873,
      "Mar": 1874,
      "Mas": 1875,
      "Nat": 1876,
      "Sa": 1877,
      "Si": 1878,
      "cris": 1879,
      "dàll": 1880,
      "gan": 1881,
      "ir": 1882,
      "jun": 1883,
      "kon": 1884,
      "kay": 1885,
      "lë": 1886,
      "lit": 1887,
      "laata": 1888,
      "mur": 1889,
      "mains": 1890,
      "në": 1891,
      "nes": 1892,
      "noo": 1893,
      "nanu": 1894,
      "pis": 1895,
      "sàn": 1896,
      "sàkk": 1897,
      "taw": 1898,
      "téy": 1899,
      "téere": 1900,
      "vrai": 1901,
      "xuus": 1902,
      "yab": 1903,
      "yére": 1904,
      "zone": 1905,
      "Ñàkk": 1906,
      "étions": 1907,
      "ñe": 1908,
      "ňaari": 1909,
      "##vé": 1910,
      "##th": 1911,
      "##ekk": 1912,
      "##wa": 1913,
      "##waan": 1914,
      "##ole": 1915,
      "##ute": 1916,
      "##uit": 1917,
      "##ka": 1918,
      "##kom": 1919,
      "##ies": 1920,
      "##mer": 1921,
      "##per": 1922,
      "##su": 1923,
      "##xi": 1924,
      "##cont": 1925,
      "##ët": 1926,
      "##ôle": 1927,
      "##reux": 1928,
      "##ame": 1929,
      "##temps": 1930,
      "##isi": 1931,
      "quit": 1932,
      "##inaire": 1933,
      "matin": 1934,
      "##iru": 1935,
      "##tière": 1936,
      "nature": 1937,
      "##lets": 1938,
      "bat": 1939,
      "##aayu": 1940,
      "yili": 1941,
      "##aisse": 1942,
      "ngelaw": 1943,
      "parce": 1944,
      "luy": 1945,
      "##chés": 1946,
      "##atul": 1947,
      "##oss": 1948,
      "rej": 1949,
      "sukk": 1950,
      "inc": 1951,
      "jeun": 1952,
      "plate": 1953,
      "##ouvert": 1954,
      "anim": 1955,
      "cont": 1956,
      "contin": 1957,
      "meloon": 1958,
      "gise": 1959,
      "moomu": 1960,
      "##iya": 1961,
      "exer": 1962,
      "làqu": 1963,
      "mêmes": 1964,
      "rég": 1965,
      "waroon": 1966,
      "masul": 1967,
      "marche": 1968,
      "réewi": 1969,
      "réewum": 1970,
      "force": 1971,
      "autres": 1972,
      "wuti": 1973,
      "serv": 1974,
      "passage": 1975,
      "perm": 1976,
      "install": 1977,
      "garabi": 1978,
      "accro": 1979,
      "accomp": 1980,
      "frère": 1981,
      "yegg": 1982,
      "hommes": 1983,
      "##teek": 1984,
      "haut": 1985,
      "puiss": 1986,
      "chev": 1987,
      "première": 1988,
      "famille": 1989,
      "fleuve": 1990,
      "xeer": 1991,
      "voit": 1992,
      "imagine": 1993,
      "pieds": 1994,
      "sentiment": 1995,
      "Ibo": 1996,
      "moins": 1997,
      "voix": 1998,
      "Peut": 1999,
      "kilom": 2000,
      "rawati": 2001,
      "entrée": 2002,
      "aventure": 2003,
      "tiim": 2004,
      "yilif": 2005,
      "Biyaa": 2006,
      "Cela": 2007,
      "In": 2008,
      "Kër": 2009,
      "Léeg": 2010,
      "Nj": 2011,
      "Off": 2012,
      "Puis": 2013,
      "Ri": 2014,
      "Saa": 2015,
      "Seen": 2016,
      "Tee": 2017,
      "Vi": 2018,
      "bee": 2019,
      "bari": 2020,
      "bànn": 2021,
      "boroom": 2022,
      "cu": 2023,
      "fen": 2024,
      "fit": 2025,
      "fii": 2026,
      "gal": 2027,
      "jub": 2028,
      "jii": 2029,
      "kaw": 2030,
      "kook": 2031,
      "lar": 2032,
      "leneen": 2033,
      "lënd": 2034,
      "manger": 2035,
      "neneen": 2036,
      "pen": 2037,
      "pir": 2038,
      "ple": 2039,
      "pens": 2040,
      "près": 2041,
      "rais": 2042,
      "rout": 2043,
      "rend": 2044,
      "soi": 2045,
      "tó": 2046,
      "th": 2047,
      "tas": 2048,
      "toute": 2049,
      "util": 2050,
      "yax": 2051,
      "yéem": 2052,
      "équ": 2053,
      "##rent": 2054,
      "##rés": 2055,
      "##tait": 2056,
      "##tout": 2057,
      "##tôt": 2058,
      "##ees": 2059,
      "##woo": 2060,
      "##og": 2061,
      "##ogue": 2062,
      "##kun": 2063,
      "##ire": 2064,
      "##mé": 2065,
      "##maañ": 2066,
      "##sent": 2067,
      "##cer": 2068,
      "##cour": 2069,
      "##ction": 2070,
      "##der": 2071,
      "##dée": 2072,
      "##bi": 2073,
      "##joo": 2074,
      "##faraa": 2075,
      "##óo": 2076,
      "##ène": 2077,
      "##ze": 2078,
      "##êtes": 2079,
      "##çu": 2080,
      "##œur": 2081,
      "##aatu": 2082,
      "##onk": 2083,
      "dekkali": 2084,
      "##aie": 2085,
      "##ail": 2086,
      "##eru": 2087,
      "##eere": 2088,
      "##ppu": 2089,
      "niy": 2090,
      "naka": 2091,
      "##quoi": 2092,
      "##asse": 2093,
      "bii": 2094,
      "##usi": 2095,
      "parfois": 2096,
      "lumière": 2097,
      "##chait": 2098,
      "chale": 2099,
      "façon": 2100,
      "sub": 2101,
      "déb": 2102,
      "lim": 2103,
      "amour": 2104,
      "guer": 2105,
      "##aaru": 2106,
      "##aaral": 2107,
      "jeu": 2108,
      "jege": 2109,
      "midi": 2110,
      "mbóot": 2111,
      "saf": 2112,
      "gii": 2113,
      "##rées": 2114,
      "##anteer": 2115,
      "gisu": 2116,
      "gisaat": 2117,
      "naaj": 2118,
      "meub": 2119,
      "feu": 2120,
      "soci": 2121,
      "jëf": 2122,
      "réer": 2123,
      "bras": 2124,
      "vieille": 2125,
      "rapp": 2126,
      "këram": 2127,
      "abord": 2128,
      "reste": 2129,
      "garçons": 2130,
      "forme": 2131,
      "wute": 2132,
      "ask": 2133,
      "compr": 2134,
      "Niis": 2135,
      "Almaŋ": 2136,
      "Almaañ": 2137,
      "ressent": 2138,
      "palanteer": 2139,
      "parlait": 2140,
      "disp": 2141,
      "derni": 2142,
      "aucune": 2143,
      "##okër": 2144,
      "crois": 2145,
      "foofu": 2146,
      "occup": 2147,
      "wetu": 2148,
      "partie": 2149,
      "##àndar": 2150,
      "dañuy": 2151,
      "accep": 2152,
      "féex": 2153,
      "ubbi": 2154,
      "gémmi": 2155,
      "tangor": 2156,
      "soldaar": 2157,
      "diggante": 2158,
      "froid": 2159,
      "dessus": 2160,
      "janook": 2161,
      "bateau": 2162,
      "téye": 2163,
      "Biyaafaraa": 2164,
      "Teewul": 2165,
      "bànneex": 2166,
      "lëndëm": 2167,
      "routes": 2168,
      "chaleur": 2169,
      "Aiya": 2170,
      "Com": 2171,
      "Dist": 2172,
      "Fa": 2173,
      "Gone": 2174,
      "Lépp": 2175,
      "Me": 2176,
      "Mok": 2177,
      "Non": 2178,
      "Noon": 2179,
      "Ou": 2180,
      "Obudu": 2181,
      "Son": 2182,
      "Sur": 2183,
      "Sunu": 2184,
      "Waaw": 2185,
      "ati": 2186,
      "ach": 2187,
      "bant": 2188,
      "boy": 2189,
      "cl": 2190,
      "cos": 2191,
      "dû": 2192,
      "daa": 2193,
      "daaw": 2194,
      "dàq": 2195,
      "elles": 2196,
      "go": 2197,
      "gouver": 2198,
      "jane": 2199,
      "jaxas": 2200,
      "kéem": 2201,
      "kàtt": 2202,
      "lal": 2203,
      "lun": 2204,
      "mour": 2205,
      "ndi": 2206,
      "nord": 2207,
      "naiss": 2208,
      "oub": 2209,
      "pou": 2210,
      "pat": 2211,
      "roi": 2212,
      "règ": 2213,
      "sen": 2214,
      "sor": 2215,
      "sour": 2216,
      "salle": 2217,
      "tar": 2218,
      "tés": 2219,
      "taal": 2220,
      "vu": 2221,
      "waa": 2222,
      "waar": 2223,
      "woy": 2224,
      "wow": 2225,
      "wënd": 2226,
      "xë": 2227,
      "xàmm": 2228,
      "yow": 2229,
      "Ñoom": 2230,
      "éle": 2231,
      "##ross": 2232,
      "##ade": 2233,
      "##act": 2234,
      "##vres": 2235,
      "##tul": 2236,
      "##waat": 2237,
      "##wuma": 2238,
      "##na": 2239,
      "##ner": 2240,
      "##née": 2241,
      "##ud": 2242,
      "##ier": 2243,
      "##pend": 2244,
      "##puis": 2245,
      "##ser": 2246,
      "##see": 2247,
      "##coup": 2248,
      "##dit": 2249,
      "##déet": 2250,
      "##jà": 2251,
      "##jets": 2252,
      "##jeŋ": 2253,
      "##ges": 2254,
      "##gré": 2255,
      "##fs": 2256,
      "##ëg": 2257,
      "##ès": 2258,
      "##ètres": 2259,
      "##heur": 2260,
      "##ňu": 2261,
      "##çait": 2262,
      "##ontu": 2263,
      "##enant": 2264,
      "##anti": 2265,
      "##ouch": 2266,
      "##reur": 2267,
      "##aloo": 2268,
      "##aleek": 2269,
      "##arde": 2270,
      "##amm": 2271,
      "##aments": 2272,
      "lakk": 2273,
      "##teel": 2274,
      "##teurs": 2275,
      "ciment": 2276,
      "##uru": 2277,
      "##urg": 2278,
      "##eef": 2279,
      "##eelu": 2280,
      "##iné": 2281,
      "##ince": 2282,
      "##insi": 2283,
      "max": 2284,
      "##éelu": 2285,
      "##éedéet": 2286,
      "##tiqu": 2287,
      "muur": 2288,
      "destin": 2289,
      "diis": 2290,
      "bawoo": 2291,
      "sew": 2292,
      "##àndi": 2293,
      "étais": 2294,
      "buy": 2295,
      "faut": 2296,
      "##ose": 2297,
      "##aucoup": 2298,
      "sui": 2299,
      "dénd": 2300,
      "liñ": 2301,
      "miy": 2302,
      "mbind": 2303,
      "sim": 2304,
      "simp": 2305,
      "surtout": 2306,
      "##sible": 2307,
      "##gues": 2308,
      "##otos": 2309,
      "##eeku": 2310,
      "conf": 2311,
      "const": 2312,
      "mënul": 2313,
      "juum": 2314,
      "njab": 2315,
      "njàmb": 2316,
      "feui": 2317,
      "exem": 2318,
      "jëkk": 2319,
      "làmp": 2320,
      "dog": 2321,
      "##vient": 2322,
      "##aamu": 2323,
      "##aaxaan": 2324,
      "gënoon": 2325,
      "vieux": 2326,
      "racon": 2327,
      "masu": 2328,
      "Legoo": 2329,
      "jàll": 2330,
      "marché": 2331,
      "##lic": 2332,
      "apport": 2333,
      "samp": 2334,
      "##oupe": 2335,
      "##uire": 2336,
      "##ctori": 2337,
      "weer": 2338,
      "servi": 2339,
      "Tey": 2340,
      "Nice": 2341,
      "loxoom": 2342,
      "##ablement": 2343,
      "feeñ": 2344,
      "prés": 2345,
      "Enjeŋ": 2346,
      "hautes": 2347,
      "hauts": 2348,
      "Quel": 2349,
      "màggat": 2350,
      "photos": 2351,
      "yëngal": 2352,
      "montagne": 2353,
      "fajkat": 2354,
      "Dañ": 2355,
      "coll": 2356,
      "côte": 2357,
      "fanaan": 2358,
      "petits": 2359,
      "choses": 2360,
      "bees": 2361,
      "rëbb": 2362,
      "visage": 2363,
      "commen": 2364,
      "arrivée": 2365,
      "longtemps": 2366,
      "couleur": 2367,
      "plutôt": 2368,
      "rêve": 2369,
      "ragal": 2370,
      "milit": 2371,
      "blanc": 2372,
      "africain": 2373,
      "nouveau": 2374,
      "chaussettes": 2375,
      "noms": 2376,
      "diiwaan": 2377,
      "arrê": 2378,
      "##anteek": 2379,
      "médicaments": 2380,
      "sauvages": 2381,
      "keroog": 2382,
      "##térieur": 2383,
      "autorité": 2384,
      "Jamono": 2385,
      "douceur": 2386,
      "Ñàkkul": 2387,
      "accompagn": 2388,
      "Victori": 2389,
      "cuir": 2390,
      "pirogue": 2391,
      "raison": 2392,
      "tóokër": 2393,
      "meubles": 2394,
      "société": 2395,
      "District": 2396,
      "gouvernement": 2397,
      "janeer": 2398,
      "wëndéelu": 2399,
      "xàmmee": 2400,
      "feuilles": 2401,
      "Legoos": 2402,
      "Victoria": 2403,
      "At": 2404,
      "Aro": 2405,
      "Ayaa": 2406,
      "Ayi": 2407,
      "Ba": 2408,
      "Bén": 2409,
      "Buur": 2410,
      "Dem": 2411,
      "Dès": 2412,
      "Déedéet": 2413,
      "Fà": 2414,
      "Foo": 2415,
      "Fekk": 2416,
      "Nga": 2417,
      "Réew": 2418,
      "Se": 2419,
      "Soo": 2420,
      "Yor": 2421,
      "bri": 2422,
      "beneen": 2423,
      "bett": 2424,
      "can": 2425,
      "cel": 2426,
      "cra": 2427,
      "cara": 2428,
      "cuis": 2429,
      "cours": 2430,
      "cœur": 2431,
      "dur": 2432,
      "dang": 2433,
      "dagg": 2434,
      "fow": 2435,
      "gl": 2436,
      "gor": 2437,
      "hist": 2438,
      "jag": 2439,
      "jum": 2440,
      "ke": 2441,
      "kan": 2442,
      "képp": 2443,
      "lopp": 2444,
      "lanu": 2445,
      "lieu": 2446,
      "lieux": 2447,
      "men": 2448,
      "mén": 2449,
      "mook": 2450,
      "maak": 2451,
      "màr": 2452,
      "màndar": 2453,
      "nus": 2454,
      "nelaw": 2455,
      "pom": 2456,
      "pol": 2457,
      "pén": 2458,
      "pënd": 2459,
      "raay": 2460,
      "sant": 2461,
      "tàn": 2462,
      "taax": 2463,
      "table": 2464,
      "tôle": 2465,
      "vag": 2466,
      "woto": 2467,
      "xob": 2468,
      "xanaa": 2469,
      "yenn": 2470,
      "yenu": 2471,
      "Óbudu": 2472,
      "év": 2473,
      "ém": 2474,
      "ñii": 2475,
      "ñetti": 2476,
      "##vait": 2477,
      "##edd": 2478,
      "##wi": 2479,
      "##niy": 2480,
      "##ume": 2481,
      "##ko": 2482,
      "##iers": 2483,
      "##illes": 2484,
      "##yee": 2485,
      "##ple": 2486,
      "##lè": 2487,
      "##lée": 2488,
      "##lus": 2489,
      "##sa": 2490,
      "##saan": 2491,
      "##cs": 2492,
      "##bout": 2493,
      "##bles": 2494,
      "##jaay": 2495,
      "##fal": 2496,
      "##feel": 2497,
      "##âte": 2498,
      "##est": 2499,
      "##estion": 2500,
      "##aare": 2501,
      "##ener": 2502,
      "depuis": 2503,
      "##erie": 2504,
      "##alu": 2505,
      "##allu": 2506,
      "##ares": 2507,
      "##ish": 2508,
      "##isme": 2509,
      "cir": 2510,
      "cin": 2511,
      "question": 2512,
      "##uraat": 2513,
      "##iner": 2514,
      "##itam": 2515,
      "##ités": 2516,
      "enn": 2517,
      "##tier": 2518,
      "mukk": 2519,
      "mucc": 2520,
      "##qué": 2521,
      "##etu": 2522,
      "étend": 2523,
      "buur": 2524,
      "##emble": 2525,
      "chang": 2526,
      "daanu": 2527,
      "sud": 2528,
      "sonal": 2529,
      "cause": 2530,
      "départ": 2531,
      "liy": 2532,
      "inv": 2533,
      "intérieur": 2534,
      "dëg": 2535,
      "##ërëm": 2536,
      "siiw": 2537,
      "nuages": 2538,
      "##ration": 2539,
      "##tukaay": 2540,
      "contr": 2541,
      "vivre": 2542,
      "##galu": 2543,
      "demoon": 2544,
      "##utoon": 2545,
      "peur": 2546,
      "##rète": 2547,
      "fey": 2548,
      "dalal": 2549,
      "exist": 2550,
      "tukki": 2551,
      "##ements": 2552,
      "solitude": 2553,
      "raf": 2554,
      "racont": 2555,
      "train": 2556,
      "jàmb": 2557,
      "devaient": 2558,
      "resp": 2559,
      "prov": 2560,
      "prop": 2561,
      "proche": 2562,
      "toj": 2563,
      "togg": 2564,
      "génne": 2565,
      "génér": 2566,
      "toogu": 2567,
      "doxe": 2568,
      "kowe": 2569,
      "##ances": 2570,
      "metit": 2571,
      "sera": 2572,
      "tëj": 2573,
      "dooley": 2574,
      "alk": 2575,
      "##ident": 2576,
      "prend": 2577,
      "malad": 2578,
      "Alors": 2579,
      "193": 2580,
      "image": 2581,
      "images": 2582,
      "jàppale": 2583,
      "Amaana": 2584,
      "dawal": 2585,
      "ressemb": 2586,
      "palmes": 2587,
      "décor": 2588,
      "ňuul": 2589,
      "baree": 2590,
      "quelques": 2591,
      "tiir": 2592,
      "##égte": 2593,
      "petit": 2594,
      "ord": 2595,
      "teewe": 2596,
      "admin": 2597,
      "premières": 2598,
      "beaucoup": 2599,
      "rëdd": 2600,
      "xolam": 2601,
      "jàngal": 2602,
      "regarder": 2603,
      "objets": 2604,
      "tàngaay": 2605,
      "savane": 2606,
      "noirs": 2607,
      "raglu": 2608,
      "blanche": 2609,
      "bonheur": 2610,
      "rouge": 2611,
      "différ": 2612,
      "diffici": 2613,
      "chemins": 2614,
      "Daanaka": 2615,
      "seulement": 2616,
      "termites": 2617,
      "district": 2618,
      "mots": 2619,
      "tels": 2620,
      "##andikoo": 2621,
      "##ingt": 2622,
      "##leterre": 2623,
      "làrmeb": 2624,
      "porteurs": 2625,
      "bunt": 2626,
      "isol": 2627,
      "immense": 2628,
      "kilif": 2629,
      "tund": 2630,
      "juddoo": 2631,
      "anglaise": 2632,
      "scorpion": 2633,
      "Angleterre": 2634,
      "heure": 2635,
      "poussi": 2636,
      "saalumu": 2637,
      "Nataal": 2638,
      "junniy": 2639,
      "sànni": 2640,
      "sukkuraat": 2641,
      "jeunes": 2642,
      "plateaux": 2643,
      "puissance": 2644,
      "cheval": 2645,
      "Officer": 2646,
      "gémmiñ": 2647,
      "Noonu": 2648,
      "kéemaane": 2649,
      "oubli": 2650,
      "seng": 2651,
      "simoŋ": 2652,
      "njaboot": 2653,
      "celui": 2654,
      "loppit": 2655,
      "administ": 2656,
      "difficile": 2657,
      "000": 2658,
      "Benn": 2659,
      "Dëgg": 2660,
      "Fii": 2661,
      "Ge": 2662,
      "Gu": 2663,
      "Gar": 2664,
      "Ki": 2665,
      "Kan": 2666,
      "Kor": 2667,
      "Lag": 2668,
      "Lenn": 2669,
      "Laata": 2670,
      "Nu": 2671,
      "Ngu": 2672,
      "Naka": 2673,
      "Port": 2674,
      "Plus": 2675,
      "Rax": 2676,
      "Wi": 2677,
      "Xare": 2678,
      "air": 2679,
      "ainsi": 2680,
      "bo": 2681,
      "bal": 2682,
      "bir": 2683,
      "baar": 2684,
      "cam": 2685,
      "cee": 2686,
      "coon": 2687,
      "cab": 2688,
      "cli": 2689,
      "dom": 2690,
      "doi": 2691,
      "déet": 2692,
      "donc": 2693,
      "fai": 2694,
      "fir": 2695,
      "fenn": 2696,
      "fut": 2697,
      "fall": 2698,
      "ger": 2699,
      "gol": 2700,
      "gàng": 2701,
      "gëm": 2702,
      "gàdd": 2703,
      "hama": 2704,
      "huit": 2705,
      "jàkk": 2706,
      "jënd": 2707,
      "kë": 2708,
      "kal": 2709,
      "kas": 2710,
      "lé": 2711,
      "lis": 2712,
      "lée": 2713,
      "làkk": 2714,
      "min": 2715,
      "mir": 2716,
      "mous": 2717,
      "moy": 2718,
      "maas": 2719,
      "mieux": 2720,
      "màndi": 2721,
      "noy": 2722,
      "néew": 2723,
      "nomb": 2724,
      "omb": 2725,
      "odeur": 2726,
      "pers": 2727,
      "ponk": 2728,
      "ry": 2729,
      "rage": 2730,
      "st": 2731,
      "sp": 2732,
      "sel": 2733,
      "sopp": 2734,
      "sot": 2735,
      "sort": 2736,
      "sanc": 2737,
      "sëkk": 2738,
      "tre": 2739,
      "tant": 2740,
      "tat": 2741,
      "tub": 2742,
      "tàgg": 2743,
      "tours": 2744,
      "tontu": 2745,
      "vas": 2746,
      "vol": 2747,
      "vingt": 2748,
      "wé": 2749,
      "wer": 2750,
      "wor": 2751,
      "wàcc": 2752,
      "xama": 2753,
      "xeet": 2754,
      "xeetu": 2755,
      "yée": 2756,
      "yéeg": 2757,
      "yàkk": 2758,
      "yéen": 2759,
      "yomb": 2760,
      "yokk": 2761,
      "Ñoo": 2762,
      "àpp": 2763,
      "àngale": 2764,
      "ñaaw": 2765,
      "ñiy": 2766,
      "ňax": 2767,
      "##rou": 2768,
      "##rais": 2769,
      "##app": 2770,
      "##vement": 2771,
      "##tée": 2772,
      "##ya": 2773,
      "##maa": 2774,
      "##men": 2775,
      "##mée": 2776,
      "##cre": 2777,
      "##cis": 2778,
      "##cur": 2779,
      "##cule": 2780,
      "##ds": 2781,
      "##gent": 2782,
      "##éens": 2783,
      "##fee": 2784,
      "##ňň": 2785,
      "##onoy": 2786,
      "##anis": 2787,
      "##anches": 2788,
      "del": 2789,
      "debout": 2790,
      "##oure": 2791,
      "##ailles": 2792,
      "##rer": 2793,
      "##erig": 2794,
      "##alement": 2795,
      "##amay": 2796,
      "cib": 2797,
      "##orool": 2798,
      "##eeñ": 2799,
      "lequel": 2800,
      "##kku": 2801,
      "##inay": 2802,
      "ens": 2803,
      "##tite": 2804,
      "##tive": 2805,
      "##tiques": 2806,
      "duma": 2807,
      "##axe": 2808,
      "dese": 2809,
      "nijaay": 2810,
      "##ric": 2811,
      "##quer": 2812,
      "kott": 2813,
      "##ase": 2814,
      "##asme": 2815,
      "##eté": 2816,
      "##etow": 2817,
      "telle": 2818,
      "tegu": 2819,
      "tekki": 2820,
      "ngóor": 2821,
      "##uni": 2822,
      "##ëntaan": 2823,
      "##quelles": 2824,
      "##oles": 2825,
      "##chée": 2826,
      "montre": 2827,
      "état": 2828,
      "buñ": 2829,
      "cher": 2830,
      "chasse": 2831,
      "fat": 2832,
      "##ieurs": 2833,
      "##ennes": 2834,
      "reçu": 2835,
      "suba": 2836,
      "démb": 2837,
      "déjà": 2838,
      "ami": 2839,
      "##ument": 2840,
      "ind": 2841,
      "indé": 2842,
      "##ress": 2843,
      "##role": 2844,
      "milli": 2845,
      "mbool": 2846,
      "##andis": 2847,
      "six": 2848,
      "sig": 2849,
      "doonte": 2850,
      "dakkal": 2851,
      "##raph": 2852,
      "comb": 2853,
      "##oign": 2854,
      "Afrigam": 2855,
      "##oyer": 2856,
      "cond": 2857,
      "vient": 2858,
      "arra": 2859,
      "##ñuy": 2860,
      "dëkku": 2861,
      "enfer": 2862,
      "naaxi": 2863,
      "waxtu": 2864,
      "waxtaan": 2865,
      "njaay": 2866,
      "njort": 2867,
      "njël": 2868,
      "petite": 2869,
      "##oirs": 2870,
      "##aawun": 2871,
      "full": 2872,
      "##angoo": 2873,
      "ext": 2874,
      "jambes": 2875,
      "ouv": 2876,
      "dolli": 2877,
      "réalité": 2878,
      "kuy": 2879,
      "##vions": 2880,
      "##aama": 2881,
      "vieill": 2882,
      "masoon": 2883,
      "masques": 2884,
      "booba": 2885,
      "##akaliki": 2886,
      "##veux": 2887,
      "##veill": 2888,
      "jàmm": 2889,
      "aband": 2890,
      "##bbe": 2891,
      "mani": 2892,
      "manière": 2893,
      "##miers": 2894,
      "prob": 2895,
      "prof": 2896,
      "##aaju": 2897,
      "tegoon": 2898,
      "##eries": 2899,
      "##uite": 2900,
      "longue": 2901,
      "mettre": 2902,
      "yaramu": 2903,
      "allem": 2904,
      "travail": 2905,
      "alc": 2906,
      "alors": 2907,
      "jóg": 2908,
      "terr": 2909,
      "territ": 2910,
      "dellusi": 2911,
      "dëggëntaan": 2912,
      "malgré": 2913,
      "nañoo": 2914,
      "fron": 2915,
      "191": 2916,
      "194": 2917,
      "196": 2918,
      "portes": 2919,
      "partout": 2920,
      "seetaan": 2921,
      "regarde": 2922,
      "ressens": 2923,
      "jékki": 2924,
      "jékkee": 2925,
      "agsi": 2926,
      "coups": 2927,
      "précé": 2928,
      "cheveux": 2929,
      "tiit": 2930,
      "traverser": 2931,
      "courir": 2932,
      "petorool": 2933,
      "dajale": 2934,
      "soosu": 2935,
      "teewul": 2936,
      "##ktor": 2937,
      "lañuy": 2938,
      "rivières": 2939,
      "Pourquoi": 2940,
      "gunge": 2941,
      "boue": 2942,
      "jànj": 2943,
      "jànq": 2944,
      "kanamu": 2945,
      "visages": 2946,
      "commence": 2947,
      "entendre": 2948,
      "yóbb": 2949,
      "reconn": 2950,
      "désert": 2951,
      "##óolu": 2952,
      "Abaak": 2953,
      "Abakaliki": 2954,
      "humaine": 2955,
      "njëkkee": 2956,
      "brûl": 2957,
      "africaine": 2958,
      "cru": 2959,
      "jotee": 2960,
      "occident": 2961,
      "rencon": 2962,
      "relig": 2963,
      "endroit": 2964,
      "colonial": 2965,
      "coloniale": 2966,
      "habitants": 2967,
      "gànnaar": 2968,
      "naqadi": 2969,
      "étrang": 2970,
      "étranger": 2971,
      "ndeysaan": 2972,
      "woowe": 2973,
      "##añse": 2974,
      "newoon": 2975,
      "dënnu": 2976,
      "maanaa": 2977,
      "sago": 2978,
      "éclat": 2979,
      "écouter": 2980,
      "bât": 2981,
      "opeere": 2982,
      "xib": 2983,
      "Africains": 2984,
      "français": 2985,
      "nëbb": 2986,
      "##thme": 2987,
      "rejoin": 2988,
      "région": 2989,
      "servir": 2990,
      "kawas": 2991,
      "large": 2992,
      "thé": 2993,
      "utilis": 2994,
      "début": 2995,
      "guerri": 2996,
      "ressentir": 2997,
      "derniers": 2998,
      "Comment": 2999,
      "Mellentaan": 3000,
      "goût": 3001,
      "mourir": 3002,
      "naissance": 3003,
      "xëcc": 3004,
      "##pendance": 3005,
      "simple": 3006,
      "exemple": 3007,
      "Ayijoo": 3008,
      "jumtukaay": 3009,
      "màrse": 3010,
      "ennem": 3011,
      "dëgër": 3012,
      "rafet": 3013,
      "maladie": 3014,
      "njabootam": 3015,
      "administra": 3016,
      "Geor": 3017,
      "Kano": 3018,
      "Lagos": 3019,
      "Wiktor": 3020,
      "fallait": 3021,
      "léeb": 3022,
      "rythme": 3023,
      "##etown": 3024,
      "indépendance": 3025,
      "milliers": 3026,
      "Ah": 3027,
      "All": 3028,
      "Ade": 3029,
      "Après": 3030,
      "Bë": 3031,
      "Ban": 3032,
      "Bab": 3033,
      "Bret": 3034,
      "Cross": 3035,
      "Di": 3036,
      "Dé": 3037,
      "Dama": 3038,
      "Est": 3039,
      "Ford": 3040,
      "Jur": 3041,
      "Kenn": 3042,
      "Là": 3043,
      "Moom": 3044,
      "Mooy": 3045,
      "Nit": 3046,
      "Nise": 3047,
      "Sor": 3048,
      "Sout": 3049,
      "aar": 3050,
      "ber": 3051,
      "bar": 3052,
      "bour": 3053,
      "bax": 3054,
      "bàn": 3055,
      "cent": 3056,
      "cous": 3057,
      "ceek": 3058,
      "cameroun": 3059,
      "caaxaan": 3060,
      "danu": 3061,
      "droit": 3062,
      "emm": 3063,
      "europ": 3064,
      "fé": 3065,
      "fet": 3066,
      "fépp": 3067,
      "fort": 3068,
      "feneen": 3069,
      "fallu": 3070,
      "gàn": 3071,
      "gox": 3072,
      "hé": 3073,
      "hor": 3074,
      "ign": 3075,
      "jànk": 3076,
      "kó": 3077,
      "kur": 3078,
      "kak": 3079,
      "kàll": 3080,
      "lor": 3081,
      "laine": 3082,
      "lamp": 3083,
      "mou": 3084,
      "nar": 3085,
      "nour": 3086,
      "pes": 3087,
      "pin": 3088,
      "pans": 3089,
      "pra": 3090,
      "pare": 3091,
      "pét": 3092,
      "ree": 3093,
      "ras": 3094,
      "rab": 3095,
      "ràkk": 3096,
      "romp": 3097,
      "rass": 3098,
      "rares": 3099,
      "sar": 3100,
      "see": 3101,
      "sait": 3102,
      "saal": 3103,
      "somb": 3104,
      "sànn": 3105,
      "sàpp": 3106,
      "sàcc": 3107,
      "sabar": 3108,
      "ten": 3109,
      "tan": 3110,
      "tus": 3111,
      "tër": 3112,
      "taab": 3113,
      "tomb": 3114,
      "taatu": 3115,
      "us": 3116,
      "ver": 3117,
      "vari": 3118,
      "veux": 3119,
      "waay": 3120,
      "waax": 3121,
      "wéet": 3122,
      "xur": 3123,
      "xeex": 3124,
      "xii": 3125,
      "xóot": 3126,
      "xërëm": 3127,
      "yaat": 3128,
      "yàpp": 3129,
      "àtte": 3130,
      "égal": 3131,
      "ñaw": 3132,
      "ňaar": 3133,
      "##ru": 3134,
      "##rs": 3135,
      "##ront": 3136,
      "##aî": 3137,
      "##ah": 3138,
      "##vés": 3139,
      "##to": 3140,
      "##tation": 3141,
      "##ey": 3142,
      "##elle": 3143,
      "##oll": 3144,
      "##ode": 3145,
      "##nn": 3146,
      "##nmaa": 3147,
      "##uve": 3148,
      "##ukaay": 3149,
      "##ia": 3150,
      "##iit": 3151,
      "##yst": 3152,
      "##mon": 3153,
      "##pir": 3154,
      "##pus": 3155,
      "##port": 3156,
      "##pare": 3157,
      "##lie": 3158,
      "##cax": 3159,
      "##dul": 3160,
      "##bul": 3161,
      "##bill": 3162,
      "##jo": 3163,
      "##gés": 3164,
      "##graph": 3165,
      "##getown": 3166,
      "##fin": 3167,
      "##firi": 3168,
      "##óox": 3169,
      "##óob": 3170,
      "##he": 3171,
      "##hamp": 3172,
      "##ête": 3173,
      "##œurs": 3174,
      "##aalu": 3175,
      "##onge": 3176,
      "##anch": 3177,
      "##angu": 3178,
      "devient": 3179,
      "##oole": 3180,
      "##isoŋ": 3181,
      "##oro": 3182,
      "##inée": 3183,
      "##indi": 3184,
      "##ition": 3185,
      "##éex": 3186,
      "##ppi": 3187,
      "##tic": 3188,
      "##axam": 3189,
      "niir": 3190,
      "nay": 3191,
      "naňu": 3192,
      "##quent": 3193,
      "diy": 3194,
      "dib": 3195,
      "dig": 3196,
      "dikk": 3197,
      "##etés": 3198,
      "biaf": 3199,
      "teq": 3200,
      "yii": 3201,
      "avanc": 3202,
      "##ager": 3203,
      "ngël": 3204,
      "##staawun": 3205,
      "parle": 3206,
      "parents": 3207,
      "parcour": 3208,
      "##chées": 3209,
      "buum": 3210,
      "chant": 3211,
      "chamb": 3212,
      "fati": 3213,
      "##att": 3214,
      "##atoo": 3215,
      "##auté": 3216,
      "##aumes": 3217,
      "reer": 3218,
      "Afrigu": 3219,
      "##lure": 3220,
      "suñ": 3221,
      "supp": 3222,
      "sonn": 3223,
      "caf": 3224,
      "caus": 3225,
      "déch": 3226,
      "dékku": 3227,
      "lire": 3228,
      "livre": 3229,
      "##umb": 3230,
      "int": 3231,
      "jekk": 3232,
      "pourrait": 3233,
      "mbedd": 3234,
      "mbégte": 3235,
      "##ddu": 3236,
      "##ands": 3237,
      "##andoo": 3238,
      "siy": 3239,
      "simis": 3240,
      "surga": 3241,
      "daŋ": 3242,
      "plain": 3243,
      "##sique": 3244,
      "##otoom": 3245,
      "##aali": 3246,
      "ndóol": 3247,
      "##oya": 3248,
      "##ilis": 3249,
      "anti": 3250,
      "melax": 3251,
      "dëkkoon": 3252,
      "enfonc": 3253,
      "##ign": 3254,
      "naaw": 3255,
      "xamu": 3256,
      "##sez": 3257,
      "waxt": 3258,
      "waxe": 3259,
      "waxi": 3260,
      "aigu": 3261,
      "ondul": 3262,
      "njàq": 3263,
      "peux": 3264,
      "##ooke": 3265,
      "exc": 3266,
      "extr": 3267,
      "##aree": 3268,
      "jamonoy": 3269,
      "ouest": 3270,
      "làq": 3271,
      "métier": 3272,
      "riir": 3273,
      "kukk": 3274,
      "brous": 3275,
      "waral": 3276,
      "warul": 3277,
      "raŋ": 3278,
      "masumaa": 3279,
      "boole": 3280,
      "Leer": 3281,
      "trente": 3282,
      "tronc": 3283,
      "chape": 3284,
      "devenu": 3285,
      "abri": 3286,
      "réewu": 3287,
      "##eetar": 3288,
      "grandes": 3289,
      "écrit": 3290,
      "journ": 3291,
      "##wuñu": 3292,
      "lonet": 3293,
      "juste": 3294,
      "dexi": 3295,
      "doxantu": 3296,
      "goney": 3297,
      "kowam": 3298,
      "weñ": 3299,
      "serait": 3300,
      "tëdd": 3301,
      "##nifi": 3302,
      "compte": 3303,
      "compris": 3304,
      "terri": 3305,
      "malade": 3306,
      "##ituel": 3307,
      "cases": 3308,
      "pouvaient": 3309,
      "porter": 3310,
      "neexul": 3311,
      "##ondes": 3312,
      "ressenti": 3313,
      "loint": 3314,
      "inspir": 3315,
      "bëggoon": 3316,
      "liggéeyu": 3317,
      "dispar": 3318,
      "derrière": 3319,
      "suufu": 3320,
      "cofeel": 3321,
      "tiis": 3322,
      "tànki": 3323,
      "##itières": 3324,
      "courant": 3325,
      "retr": 3326,
      "retrai": 3327,
      "premier": 3328,
      "Pourtant": 3329,
      "empl": 3330,
      "emport": 3331,
      "trois": 3332,
      "bouche": 3333,
      "famili": 3334,
      "résid": 3335,
      "visite": 3336,
      "##imité": 3337,
      "##cules": 3338,
      "commun": 3339,
      "entendu": 3340,
      "entends": 3341,
      "xew": 3342,
      "plupart": 3343,
      "volets": 3344,
      "savoir": 3345,
      "Biaf": 3346,
      "rêvé": 3347,
      "gàttal": 3348,
      "angois": 3349,
      "offici": 3350,
      "officer": 3351,
      "seuls": 3352,
      "chemise": 3353,
      "brûlure": 3354,
      "souffle": 3355,
      "jote": 3356,
      "maint": 3357,
      "poit": 3358,
      "sentiers": 3359,
      "wutkati": 3360,
      "particul": 3361,
      "termitières": 3362,
      "dinaa": 3363,
      "dinga": 3364,
      "féete": 3365,
      "moindre": 3366,
      "échapp": 3367,
      "photograph": 3368,
      "campement": 3369,
      "jouer": 3370,
      "tangori": 3371,
      "revenir": 3372,
      "chaussures": 3373,
      "buntu": 3374,
      "certaine": 3375,
      "gardé": 3376,
      "kilifa": 3377,
      "point": 3378,
      "soppiku": 3379,
      "envah": 3380,
      "diiwaanu": 3381,
      "infir": 3382,
      "guyy": 3383,
      "arrêt": 3384,
      "dënn": 3385,
      "laisser": 3386,
      "légère": 3387,
      "##session": 3388,
      "éclai": 3389,
      "assis": 3390,
      "connaissent": 3391,
      "scorpions": 3392,
      "karaw": 3393,
      "sës": 3394,
      "éloign": 3395,
      "teree": 3396,
      "nguurug": 3397,
      "devenus": 3398,
      "appartement": 3399,
      "française": 3400,
      "Europe": 3401,
      "ganes": 3402,
      "tawat": 3403,
      "ñeme": 3404,
      "contact": 3405,
      "continent": 3406,
      "làquji": 3407,
      "##kunle": 3408,
      "jëfandikoo": 3409,
      "accepter": 3410,
      "cosaan": 3411,
      "kàttan": 3412,
      "règle": 3413,
      "destination": 3414,
      "service": 3415,
      "collines": 3416,
      "militaires": 3417,
      "arrêté": 3418,
      "Sefiri": 3419,
      "Yorub": 3420,
      "cuisine": 3421,
      "gornmaa": 3422,
      "méng": 3423,
      "yenukat": 3424,
      "province": 3425,
      "alkol": 3426,
      "poussière": 3427,
      "loppitaanu": 3428,
      "Koros": 3429,
      "biral": 3430,
      "doivent": 3431,
      "hamacs": 3432,
      "kalaate": 3433,
      "moustiqu": 3434,
      "màndiŋ": 3435,
      "personne": 3436,
      "ponkal": 3437,
      "selon": 3438,
      "vaste": 3439,
      "werante": 3440,
      "yéeme": 3441,
      "yéene": 3442,
      "delsi": 3443,
      "alcool": 3444,
      "territoire": 3445,
      "frontière": 3446,
      "Abaakaliki": 3447,
      "xibaar": 3448,
      "rejoindre": 3449,
      "Georgetown": 3450,
      "Wiktoryaa": 3451,
      "Allem": 3452,
      "Adekunle": 3453,
      "Sorstaawun": 3454,
      "Southamp": 3455,
      "fetal": 3456,
      "gàncax": 3457,
      "kàllaama": 3458,
      "taabal": 3459,
      "ngëlén": 3460,
      "njàqare": 3461,
      "retraite": 3462,
      "Biafra": 3463,
      "Sefiriis": 3464,
      "Southampton": 3465,
      "Av": 3466,
      "BB": 3467,
      "Boo": 3468,
      "Bat": 3469,
      "Baw": 3470,
      "Bum": 3471,
      "Bër": 3472,
      "Brit": 3473,
      "Cal": 3474,
      "Col": 3475,
      "Cert": 3476,
      "Doon": 3477,
      "Daaw": 3478,
      "Fu": 3479,
      "Fou": 3480,
      "Far": 3481,
      "Góor": 3482,
      "Har": 3483,
      "Ij": 3484,
      "Joor": 3485,
      "Kal": 3486,
      "Kak": 3487,
      "Lool": 3488,
      "Lond": 3489,
      "Mal": 3490,
      "Mag": 3491,
      "May": 3492,
      "Nun": 3493,
      "Nkom": 3494,
      "On": 3495,
      "Où": 3496,
      "Pol": 3497,
      "Poor": 3498,
      "Pendant": 3499,
      "Saaw": 3500,
      "Xel": 3501,
      "Xaw": 3502,
      "Xale": 3503,
      "Xéy": 3504,
      "Yar": 3505,
      "Yées": 3506,
      "bes": 3507,
      "bomb": 3508,
      "bande": 3509,
      "bantu": 3510,
      "cer": 3511,
      "cal": 3512,
      "cri": 3513,
      "cul": 3514,
      "càkk": 3515,
      "canc": 3516,
      "couvert": 3517,
      "dr": 3518,
      "den": 3519,
      "dar": 3520,
      "dos": 3521,
      "dàng": 3522,
      "dóom": 3523,
      "donne": 3524,
      "dress": 3525,
      "fara": 3526,
      "faax": 3527,
      "fonc": 3528,
      "fût": 3529,
      "ges": 3530,
      "geek": 3531,
      "goya": 3532,
      "hut": 3533,
      "ici": 3534,
      "idée": 3535,
      "jee": 3536,
      "jër": 3537,
      "jooy": 3538,
      "jaaw": 3539,
      "jiy": 3540,
      "jaax": 3541,
      "kam": 3542,
      "kii": 3543,
      "lour": 3544,
      "lits": 3545,
      "lente": 3546,
      "mis": 3547,
      "mang": 3548,
      "màng": 3549,
      "màtt": 3550,
      "móob": 3551,
      "meetar": 3552,
      "nax": 3553,
      "nangoo": 3554,
      "opp": 3555,
      "ori": 3556,
      "pois": 3557,
      "priv": 3558,
      "pap": 3559,
      "ram": 3560,
      "roy": 3561,
      "ruis": 3562,
      "ràpp": 3563,
      "rong": 3564,
      "ràññ": 3565,
      "raxas": 3566,
      "rituel": 3567,
      "set": 3568,
      "sun": 3569,
      "sànk": 3570,
      "scul": 3571,
      "somm": 3572,
      "seetu": 3573,
      "soupe": 3574,
      "sœurs": 3575,
      "sooke": 3576,
      "tor": 3577,
      "tir": 3578,
      "tri": 3579,
      "tóor": 3580,
      "tàll": 3581,
      "taamu": 3582,
      "tandis": 3583,
      "tête": 3584,
      "vér": 3585,
      "vêt": 3586,
      "venu": 3587,
      "wa": 3588,
      "wal": 3589,
      "wiy": 3590,
      "wér": 3591,
      "wàll": 3592,
      "wóolu": 3593,
      "xu": 3594,
      "xul": 3595,
      "xat": 3596,
      "xot": 3597,
      "xetu": 3598,
      "yay": 3599,
      "yàll": 3600,
      "yàq": 3601,
      "yàcc": 3602,
      "Ét": 3603,
      "àtt": 3604,
      "ëmb": 3605,
      "île": 3606,
      "ňi": 3607,
      "ňàkk": 3608,
      "–,": 3609,
      "##rir": 3610,
      "##rine": 3611,
      "##rass": 3612,
      "##aŋ": 3613,
      "##aque": 3614,
      "##aître": 3615,
      "##vor": 3616,
      "##voir": 3617,
      "##tó": 3618,
      "##eer": 3619,
      "##euses": 3620,
      "##oñ": 3621,
      "##ote": 3622,
      "##och": 3623,
      "##otion": 3624,
      "##nie": 3625,
      "##naam": 3626,
      "##uñ": 3627,
      "##uku": 3628,
      "##kl": 3629,
      "##kook": 3630,
      "##ien": 3631,
      "##ile": 3632,
      "##iasme": 3633,
      "##yu": 3634,
      "##yoŋ": 3635,
      "##mait": 3636,
      "##mir": 3637,
      "##mant": 3638,
      "##met": 3639,
      "##mat": 3640,
      "##pè": 3641,
      "##pli": 3642,
      "##prète": 3643,
      "##la": 3644,
      "##lais": 3645,
      "##lés": 3646,
      "##lange": 3647,
      "##son": 3648,
      "##ximité": 3649,
      "##cti": 3650,
      "##cture": 3651,
      "##cteur": 3652,
      "##ïs": 3653,
      "##dent": 3654,
      "##bon": 3655,
      "##bas": 3656,
      "##gé": 3657,
      "##gin": 3658,
      "##gie": 3659,
      "##gation": 3660,
      "##gatu": 3661,
      "##éw": 3662,
      "##élu": 3663,
      "##éenne": 3664,
      "##ffri": 3665,
      "##fér": 3666,
      "##fic": 3667,
      "##fise": 3668,
      "##àt": 3669,
      "##àjj": 3670,
      "##ñse": 3671,
      "##ól": 3672,
      "##óoy": 3673,
      "##îtres": 3674,
      "##ème": 3675,
      "##ège": 3676,
      "##èvre": 3677,
      "##hous": 3678,
      "##hors": 3679,
      "##âcher": 3680,
      "##être": 3681,
      "##28": 3682,
      "##aaŋ": 3683,
      "##onte": 3684,
      "##ende": 3685,
      "##ences": 3686,
      "##anité": 3687,
      "dehors": 3688,
      "##ouill": 3689,
      "##alon": 3690,
      "##alul": 3691,
      "##amaa": 3692,
      "lax": 3693,
      "##iste": 3694,
      "##isation": 3695,
      "quin": 3696,
      "quoi": 3697,
      "##urés": 3698,
      "##ormis": 3699,
      "##entu": 3700,
      "##int": 3701,
      "##inam": 3702,
      "##inci": 3703,
      "##itaire": 3704,
      "maîtres": 3705,
      "lesquelles": 3706,
      "unique": 3707,
      "##ppe": 3708,
      "##aani": 3709,
      "##tiens": 3710,
      "##tifi": 3711,
      "dure": 3712,
      "dugal": 3713,
      "dunu": 3714,
      "mus": 3715,
      "desc": 3716,
      "niki": 3717,
      "naw": 3718,
      "naître": 3719,
      "##leen": 3720,
      "##quaient": 3721,
      "dix": 3722,
      "diir": 3723,
      "diine": 3724,
      "dijj": 3725,
      "baň": 3726,
      "batt": 3727,
      "##aaya": 3728,
      "auprès": 3729,
      "teer": 3730,
      "##usam": 3731,
      "ave": 3732,
      "avance": 3733,
      "parf": 3734,
      "parad": 3735,
      "luñ": 3736,
      "##deau": 3737,
      "##chent": 3738,
      "queue": 3739,
      "montr": 3740,
      "monter": 3741,
      "##amawa": 3742,
      "fab": 3743,
      "faute": 3744,
      "fauve": 3745,
      "##atori": 3746,
      "daaneel": 3747,
      "##osi": 3748,
      "##ieuse": 3749,
      "##ennent": 3750,
      "##abaar": 3751,
      "##trer": 3752,
      "sueur": 3753,
      "cacher": 3754,
      "dét": 3755,
      "dém": 3756,
      "déci": 3757,
      "débar": 3758,
      "##dio": 3759,
      "amis": 3760,
      "jeux": 3761,
      "pourra": 3762,
      "mbemb": 3763,
      "dëpp": 3764,
      "##andé": 3765,
      "sid": 3766,
      "sib": 3767,
      "sibb": 3768,
      "nuits": 3769,
      "##ecd": 3770,
      "surveill": 3771,
      "##ainte": 3772,
      "##ainement": 3773,
      "##rac": 3774,
      "##raord": 3775,
      "plan": 3776,
      "place": 3777,
      "##sions": 3778,
      "##tuñu": 3779,
      "##ends": 3780,
      "##oile": 3781,
      "ndab": 3782,
      "##ttes": 3783,
      "saxaaru": 3784,
      "anecd": 3785,
      "viv": 3786,
      "vide": 3787,
      "vivant": 3788,
      "art": 3789,
      "arrière": 3790,
      "##nelle": 3791,
      "yare": 3792,
      "mënatul": 3793,
      "mënees": 3794,
      "xame": 3795,
      "xamoon": 3796,
      "jull": 3797,
      "gros": 3798,
      "grandi": 3799,
      "##cier": 3800,
      "##cipl": 3801,
      "##ettee": 3802,
      "defe": 3803,
      "peine": 3804,
      "pexe": 3805,
      "bëti": 3806,
      "##oires": 3807,
      "##arades": 3808,
      "fekki": 3809,
      "fuir": 3810,
      "fureur": 3811,
      "plusieurs": 3812,
      "##ndeel": 3813,
      "exil": 3814,
      "ouver": 3815,
      "sow": 3816,
      "soit": 3817,
      "jëmm": 3818,
      "jëkkee": 3819,
      "mélange": 3820,
      "rire": 3821,
      "##bukun": 3822,
      "yëf": 3823,
      "nekkee": 3824,
      "bruit": 3825,
      "branches": 3826,
      "dootul": 3827,
      "gënee": 3828,
      "radio": 3829,
      "këru": 3830,
      "##uisait": 3831,
      "##ades": 3832,
      "##onni": 3833,
      "##onnement": 3834,
      "trés": 3835,
      "troupe": 3836,
      "##kuur": 3837,
      "trapè": 3838,
      "mari": 3839,
      "##eetul": 3840,
      "Sud": 3841,
      "Jeffri": 3842,
      "garde": 3843,
      "forte": 3844,
      "proximité": 3845,
      "école": 3846,
      "fippu": 3847,
      "fièvre": 3848,
      "##oorteel": 3849,
      "##ctri": 3850,
      "jiitu": 3851,
      "lonk": 3852,
      "longues": 3853,
      "toolu": 3854,
      "assi": 3855,
      "assez": 3856,
      "goneg": 3857,
      "weg": 3858,
      "##jjén": 3859,
      "##ancs": 3860,
      "juram": 3861,
      "##àttali": 3862,
      "colère": 3863,
      "autrefois": 3864,
      "allait": 3865,
      "allum": 3866,
      "cartes": 3867,
      "compagn": 3868,
      "Nikom": 3869,
      "alal": 3870,
      "alent": 3871,
      "##idjo": 3872,
      "entour": 3873,
      "entra": 3874,
      "enthous": 3875,
      "feeñu": 3876,
      "mesure": 3877,
      "pren": 3878,
      "princi": 3879,
      "tamb": 3880,
      "maladi": 3881,
      "perç": 3882,
      "perdre": 3883,
      "##êtres": 3884,
      "instants": 3885,
      "cass": 3886,
      "Alg": 3887,
      "taq": 3888,
      "xarit": 3889,
      "yeg": 3890,
      "##oph": 3891,
      "1928": 3892,
      "portait": 3893,
      "portant": 3894,
      "portale": 3895,
      "##icale": 3896,
      "jàppoon": 3897,
      "tàmm": 3898,
      "##wwi": 3899,
      "##gnons": 3900,
      "déggoo": 3901,
      "Amul": 3902,
      "Amerig": 3903,
      "année": 3904,
      "dundam": 3905,
      "découv": 3906,
      "décrit": 3907,
      "découver": 3908,
      "découvert": 3909,
      "jéeri": 3910,
      "aura": 3911,
      "aurais": 3912,
      "possible": 3913,
      "couper": 3914,
      "discipl": 3915,
      "màgge": 3916,
      "prépare": 3917,
      "préfér": 3918,
      "yëngatu": 3919,
      "épr": 3920,
      "chef": 3921,
      "chez": 3922,
      "médecine": 3923,
      "coh": 3924,
      "##indax": 3925,
      "##itié": 3926,
      "petites": 3927,
      "##const": 3928,
      "dajeek": 3929,
      "Mbaa": 3930,
      "Mbam": 3931,
      "Mbir": 3932,
      "Mbemb": 3933,
      "orage": 3934,
      "sépar": 3935,
      "séchée": 3936,
      "soof": 3937,
      "armées": 3938,
      "adoles": 3939,
      "dunde": 3940,
      "béjjén": 3941,
      "rëcc": 3942,
      "##fite": 3943,
      "réser": 3944,
      "vacc": 3945,
      "obsession": 3946,
      "##weeri": 3947,
      "affec": 3948,
      "affaire": 3949,
      "pluie": 3950,
      "yemale": 3951,
      "recomm": 3952,
      "consul": 3953,
      "jeexal": 3954,
      "ñàkkul": 3955,
      "mujje": 3956,
      "Aka": 3957,
      "##tements": 3958,
      "interprète": 3959,
      "juróomi": 3960,
      "dange": 3961,
      "nouvelles": 3962,
      "tourbill": 3963,
      "##kete": 3964,
      "##ièrement": 3965,
      "##ommé": 3966,
      "tekkaaral": 3967,
      "flam": 3968,
      "moder": 3969,
      "reli": 3970,
      "ventre": 3971,
      "endur": 3972,
      "secondes": 3973,
      "awsa": 3974,
      "gaawtu": 3975,
      "gànnaay": 3976,
      "prise": 3977,
      "venus": 3978,
      "naqar": 3979,
      "miirloo": 3980,
      "yeneeni": 3981,
      "##àrt": 3982,
      "diggu": 3983,
      "newee": 3984,
      "charme": 3985,
      "représ": 3986,
      "transf": 3987,
      "transport": 3988,
      "sauvage": 3989,
      "Chuku": 3990,
      "baayam": 3991,
      "donner": 3992,
      "donnait": 3993,
      "maanaam": 3994,
      "sagoom": 3995,
      "tabax": 3996,
      "refus": 3997,
      "écoutant": 3998,
      "anglais": 3999,
      "Anglais": 4000,
      "bâton": 4001,
      "foudre": 4002,
      "chaud": 4003,
      "ancien": 4004,
      "anciens": 4005,
      "rajaxe": 4006,
      "frappions": 4007,
      "Arkuur": 4008,
      "Européens": 4009,
      "crises": 4010,
      "lëmm": 4011,
      "pisé": 4012,
      "téereb": 4013,
      "vraiment": 4014,
      "##ëtaañ": 4015,
      "battre": 4016,
      "ngelawu": 4017,
      "animaux": 4018,
      "continu": 4019,
      "exercer": 4020,
      "voiture": 4021,
      "kilomet": 4022,
      "kilomètres": 4023,
      "fenêtre": 4024,
      "pension": 4025,
      "pensé": 4026,
      "yéemu": 4027,
      "équatori": 4028,
      "##court": 4029,
      "comprendre": 4030,
      "occupation": 4031,
      "Moka": 4032,
      "Mokaa": 4033,
      "jaxasoo": 4034,
      "raconte": 4035,
      "raconté": 4036,
      "apporté": 4037,
      "présent": 4038,
      "commencé": 4039,
      "accompagné": 4040,
      "Demer": 4041,
      "Fàww": 4042,
      "danga": 4043,
      "histoire": 4044,
      "màndarg": 4045,
      "santé": 4046,
      "vagues": 4047,
      "émotion": 4048,
      "étendue": 4049,
      "changé": 4050,
      "contraire": 4051,
      "raconter": 4052,
      "ordinaire": 4053,
      "kilifay": 4054,
      "oublier": 4055,
      "Guddi": 4056,
      "baaraam": 4057,
      "domes": 4058,
      "firndeel": 4059,
      "gàddaay": 4060,
      "noyyi": 4061,
      "ombre": 4062,
      "tremp": 4063,
      "tantôt": 4064,
      "tubay": 4065,
      "woroo": 4066,
      "ensemble": 4067,
      "extraord": 4068,
      "abandon": 4069,
      "probablement": 4070,
      "allemande": 4071,
      "jógee": 4072,
      "1948": 4073,
      "1968": 4074,
      "précédé": 4075,
      "##añseer": 4076,
      "bâtons": 4077,
      "guerriers": 4078,
      "ennemi": 4079,
      "Ahidjo": 4080,
      "Bëj": 4081,
      "Bany": 4082,
      "Bretagne": 4083,
      "bariy": 4084,
      "camerounais": 4085,
      "horreur": 4086,
      "kaki": 4087,
      "lorgnons": 4088,
      "pinces": 4089,
      "pétrole": 4090,
      "yàppu": 4091,
      "àttekat": 4092,
      "également": 4093,
      "chambre": 4094,
      "daŋar": 4095,
      "angoisse": 4096,
      "jotewul": 4097,
      "maintenant": 4098,
      "yéenekaay": 4099,
      "Avec": 4100,
      "BBC": 4101,
      "Bërëtaañ": 4102,
      "British": 4103,
      "Calabar": 4104,
      "Colon": 4105,
      "Harcourt": 4106,
      "Kalabaar": 4107,
      "Saawusam": 4108,
      "Yaram": 4109,
      "Yéesu": 4110,
      "dàngin": 4111,
      "dóomu": 4112,
      "hutte": 4113,
      "jërr": 4114,
      "kamyoŋ": 4115,
      "móobal": 4116,
      "royaumes": 4117,
      "ruisse": 4118,
      "sànke": 4119,
      "sculp": 4120,
      "vêtus": 4121,
      "États": 4122,
      "fauteu": 4123,
      "sibbiru": 4124,
      "Jeffries": 4125,
      "##oorteelu": 4126,
      "enthousiasme": 4127,
      "princip": 4128,
      "maladies": 4129,
      "discipline": 4130,
      "adolesc": 4131,
      "recommen": 4132,
      "extraordinaire": 4133,
      "Aw": 4134,
      "Ad": 4135,
      "Ag": 4136,
      "Aad": 4137,
      "Bar": 4138,
      "Bor": 4139,
      "Bari": 4140,
      "Ces": 4141,
      "Des": 4142,
      "Der": 4143,
      "Dur": 4144,
      "Dina": 4145,
      "Dëkk": 4146,
      "Duma": 4147,
      "Doole": 4148,
      "El": 4149,
      "Fili": 4150,
      "Ginn": 4151,
      "Grass": 4152,
      "Im": 4153,
      "Jo": 4154,
      "Jigéen": 4155,
      "Jiit": 4156,
      "Ko": 4157,
      "Ken": 4158,
      "Kab": 4159,
      "Kaw": 4160,
      "Kàtt": 4161,
      "Kari": 4162,
      "Laaj": 4163,
      "Mi": 4164,
      "Moi": 4165,
      "Maak": 4166,
      "Mill": 4167,
      "Nk": 4168,
      "Norm": 4169,
      "Pom": 4170,
      "Pari": 4171,
      "Pël": 4172,
      "Riw": 4173,
      "Ses": 4174,
      "Sin": 4175,
      "Sax": 4176,
      "Sooy": 4177,
      "Sori": 4178,
      "Tou": 4179,
      "Tàng": 4180,
      "Toog": 4181,
      "Voy": 4182,
      "W8": 4183,
      "Waa": 4184,
      "Wiyaa": 4185,
      "Yaak": 4186,
      "aj": 4187,
      "añ": 4188,
      "ara": 4189,
      "bre": 4190,
      "bor": 4191,
      "ble": 4192,
      "bale": 4193,
      "booy": 4194,
      "brè": 4195,
      "bég": 4196,
      "bleu": 4197,
      "baraa": 4198,
      "bànd": 4199,
      "baie": 4200,
      "caa": 4201,
      "cat": 4202,
      "cout": 4203,
      "coi": 4204,
      "cot": 4205,
      "call": 4206,
      "catu": 4207,
      "cuire": 4208,
      "dy": 4209,
      "dab": 4210,
      "dra": 4211,
      "déey": 4212,
      "damm": 4213,
      "dàt": 4214,
      "fë": 4215,
      "fur": 4216,
      "fent": 4217,
      "fus": 4218,
      "fés": 4219,
      "fol": 4220,
      "fum": 4221,
      "fil": 4222,
      "faat": 4223,
      "fré": 4224,
      "fig": 4225,
      "faak": 4226,
      "fomp": 4227,
      "fecc": 4228,
      "fêtes": 4229,
      "foyer": 4230,
      "gas": 4231,
      "genn": 4232,
      "gout": 4233,
      "gori": 4234,
      "géey": 4235,
      "gagn": 4236,
      "gét": 4237,
      "goog": 4238,
      "ha": 4239,
      "hi": 4240,
      "hy": 4241,
      "har": 4242,
      "hér": 4243,
      "haie": 4244,
      "ib": 4245,
      "iro": 4246,
      "jaa": 4247,
      "jar": 4248,
      "jet": 4249,
      "jaab": 4250,
      "jantu": 4251,
      "jabar": 4252,
      "jaaxaan": 4253,
      "ka": 4254,
      "kers": 4255,
      "kàrt": 4256,
      "lè": 4257,
      "laay": 4258,
      "lenn": 4259,
      "laam": 4260,
      "lëkk": 4261,
      "log": 4262,
      "më": 4263,
      "mand": 4264,
      "mouv": 4265,
      "màkk": 4266,
      "morte": 4267,
      "memb": 4268,
      "móol": 4269,
      "mètres": 4270,
      "myst": 4271,
      "mettee": 4272,
      "né": 4273,
      "noire": 4274,
      "norm": 4275,
      "nàññ": 4276,
      "nóox": 4277,
      "ore": 4278,
      "pé": 4279,
      "pâ": 4280,
      "por": 4281,
      "pant": 4282,
      "pel": 4283,
      "pën": 4284,
      "pil": 4285,
      "pàkk": 4286,
      "paak": 4287,
      "pop": 4288,
      "paille": 4289,
      "pól": 4290,
      "rà": 4291,
      "ris": 4292,
      "rent": 4293,
      "rée": 4294,
      "ray": 4295,
      "ropp": 4296,
      "reet": 4297,
      "rue": 4298,
      "rues": 4299,
      "rob": 4300,
      "sè": 4301,
      "sh": 4302,
      "sû": 4303,
      "sent": 4304,
      "sir": 4305,
      "som": 4306,
      "sus": 4307,
      "sos": 4308,
      "sab": 4309,
      "soup": 4310,
      "sàmm": 4311,
      "sangu": 4312,
      "sindax": 4313,
      "tent": 4314,
      "tom": 4315,
      "tën": 4316,
      "tama": 4317,
      "tend": 4318,
      "tot": 4319,
      "tig": 4320,
      "tén": 4321,
      "téen": 4322,
      "tanc": 4323,
      "turi": 4324,
      "taill": 4325,
      "ur": 4326,
      "ve": 4327,
      "vê": 4328,
      "vou": 4329,
      "var": 4330,
      "vend": 4331,
      "vall": 4332,
      "vue": 4333,
      "vaisse": 4334,
      "vrais": 4335,
      "wë": 4336,
      "wan": 4337,
      "wis": 4338,
      "wépp": 4339,
      "waas": 4340,
      "wecc": 4341,
      "wotoom": 4342,
      "waree": 4343,
      "xee": 4344,
      "xas": 4345,
      "xun": 4346,
      "xaal": 4347,
      "xàmb": 4348,
      "xaj": 4349,
      "xaaju": 4350,
      "xélu": 4351,
      "xosi": 4352,
      "yor": 4353,
      "yend": 4354,
      "Était": 4355,
      "Ña": 4356,
      "Ñaar": 4357,
      "àn": 4358,
      "âgés": 4359,
      "évi": 4360,
      "édu": 4361,
      "élé": 4362,
      "ëll": 4363,
      "ëtt": 4364,
      "ñooy": 4365,
      "ñeneen": 4366,
      "ñett": 4367,
      "ófise": 4368,
      "ňoom": 4369,
      "ňuy": 4370,
      "ňetti": 4371,
      "ŋaam": 4372,
      "ŋàññ": 4373,
      "ŋeeñ": 4374,
      "##rée": 4375,
      "##ras": 4376,
      "##ray": 4377,
      "##rat": 4378,
      "##rage": 4379,
      "##rits": 4380,
      "##rup": 4381,
      "##ruire": 4382,
      "##acc": 4383,
      "##aci": 4384,
      "##atee": 4385,
      "##vou": 4386,
      "##vée": 4387,
      "##vir": 4388,
      "##vers": 4389,
      "##tri": 4390,
      "##eti": 4391,
      "##ellent": 4392,
      "##waa": 4393,
      "##wol": 4394,
      "##waale": 4395,
      "##oit": 4396,
      "##nait": 4397,
      "##nel": 4398,
      "##uv": 4399,
      "##uk": 4400,
      "##kos": 4401,
      "##kali": 4402,
      "##kub": 4403,
      "##kool": 4404,
      "##iques": 4405,
      "##yyee": 4406,
      "##ysique": 4407,
      "##mall": 4408,
      "##maak": 4409,
      "##pel": 4410,
      "##pér": 4411,
      "##laa": 4412,
      "##lent": 4413,
      "##laay": 4414,
      "##leel": 4415,
      "##lanis": 4416,
      "##sant": 4417,
      "##sse": 4418,
      "##seri": 4419,
      "##xte": 4420,
      "##xante": 4421,
      "##cu": 4422,
      "##cl": 4423,
      "##cal": 4424,
      "##cce": 4425,
      "##cation": 4426,
      "##cles": 4427,
      "##dain": 4428,
      "##dér": 4429,
      "##bati": 4430,
      "##béen": 4431,
      "##bét": 4432,
      "##bales": 4433,
      "##jee": 4434,
      "##jaan": 4435,
      "##jet": 4436,
      "##jec": 4437,
      "##go": 4438,
      "##gi": 4439,
      "##gén": 4440,
      "##gine": 4441,
      "##gence": 4442,
      "##ganis": 4443,
      "##éer": 4444,
      "##ération": 4445,
      "##étrer": 4446,
      "##fant": 4447,
      "##ëpp": 4448,
      "##àqu": 4449,
      "##ète": 4450,
      "##ède": 4451,
      "##ècle": 4452,
      "##han": 4453,
      "##har": 4454,
      "##hara": 4455,
      "##âce": 4456,
      "##zar": 4457,
      "##ême": 4458,
      "##ňe": 4459,
      "##çaient": 4460,
      "##essible": 4461,
      "##espér": 4462,
      "##aati": 4463,
      "##enue": 4464,
      "##anes": 4465,
      "##angue": 4466,
      "##oowaan": 4467,
      "##oué": 4468,
      "##ouff": 4469,
      "##oubas": 4470,
      "##rel": 4471,
      "##reñ": 4472,
      "##era": 4473,
      "##erc": 4474,
      "##erres": 4475,
      "##ala": 4476,
      "##art": 4477,
      "##ami": 4478,
      "##amti": 4479,
      "laver": 4480,
      "latéri": 4481,
      "##ises": 4482,
      "##isés": 4483,
      "##isante": 4484,
      "civ": 4485,
      "ciw": 4486,
      "cig": 4487,
      "quar": 4488,
      "quat": 4489,
      "##orti": 4490,
      "##oration": 4491,
      "##entes": 4492,
      "##entent": 4493,
      "##eey": 4494,
      "lem": 4495,
      "leçon": 4496,
      "lecture": 4497,
      "lekool": 4498,
      "##llee": 4499,
      "##llement": 4500,
      "##inaa": 4501,
      "##inér": 4502,
      "##inture": 4503,
      "##iture": 4504,
      "mauv": 4505,
      "lesquel": 4506,
      "##irurg": 4507,
      "##aange": 4508,
      "##tie": 4509,
      "##tice": 4510,
      "##tiers": 4511,
      "##tivement": 4512,
      "duñu": 4513,
      "##ourn": 4514,
      "muus": 4515,
      "##rières": 4516,
      "##rices": 4517,
      "natt": 4518,
      "navi": 4519,
      "##leurs": 4520,
      "##qui": 4521,
      "##quante": 4522,
      "div": 4523,
      "##anté": 4524,
      "##ast": 4525,
      "##asi": 4526,
      "##eler": 4527,
      "##elds": 4528,
      "aube": 4529,
      "sep": 4530,
      "sell": 4531,
      "segg": 4532,
      "secon": 4533,
      "##ult": 4534,
      "##ulee": 4535,
      "##ustri": 4536,
      "##agé": 4537,
      "newu": 4538,
      "neuf": 4539,
      "ngeen": 4540,
      "##meur": 4541,
      "##melle": 4542,
      "##stu": 4543,
      "##sture": 4544,
      "##unoo": 4545,
      "paraiss": 4546,
      "luxe": 4547,
      "##dement": 4548,
      "##ànj": 4549,
      "##ànge": 4550,
      "##ceen": 4551,
      "##cevoir": 4552,
      "##ouses": 4553,
      "##chal": 4554,
      "##chant": 4555,
      "##chais": 4556,
      "##chide": 4557,
      "étu": 4558,
      "éth": 4559,
      "étant": 4560,
      "étouff": 4561,
      "chass": 4562,
      "changer": 4563,
      "choc": 4564,
      "chirurg": 4565,
      "faf": 4566,
      "faju": 4567,
      "##atur": 4568,
      "##atoon": 4569,
      "##ospital": 4570,
      "##aut": 4571,
      "red": 4572,
      "reti": 4573,
      "rele": 4574,
      "reconst": 4575,
      "##lub": 4576,
      "suy": 4577,
      "suite": 4578,
      "super": 4579,
      "sucre": 4580,
      "détr": 4581,
      "dénu": 4582,
      "##diens": 4583,
      "##onse": 4584,
      "##aww": 4585,
      "amer": 4586,
      "amal": 4587,
      "amutoon": 4588,
      "##uments": 4589,
      "##umba": 4590,
      "invent": 4591,
      "##resse": 4592,
      "jekkal": 4593,
      "##rop": 4594,
      "pourquoi": 4595,
      "miiri": 4596,
      "mbal": 4597,
      "mbagg": 4598,
      "dëj": 4599,
      "dëll": 4600,
      "dëddu": 4601,
      "##outon": 4602,
      "savions": 4603,
      "##ddoo": 4604,
      "sign": 4605,
      "siècle": 4606,
      "##oxu": 4607,
      "##ect": 4608,
      "survi": 4609,
      "daf": 4610,
      "dakk": 4611,
      "plage": 4612,
      "plac": 4613,
      "plaines": 4614,
      "plonge": 4615,
      "##sib": 4616,
      "##sive": 4617,
      "##simis": 4618,
      "comment": 4619,
      "##tug": 4620,
      "##tuaire": 4621,
      "##tuwul": 4622,
      "##ouvé": 4623,
      "ceinture": 4624,
      "ndaj": 4625,
      "##oyy": 4626,
      "##oyd": 4627,
      "##ild": 4628,
      "##ilèg": 4629,
      "##ffés": 4630,
      "##orts": 4631,
      "##ccëg": 4632,
      "##ensité": 4633,
      "vib": 4634,
      "viennent": 4635,
      "armes": 4636,
      "argent": 4637,
      "demi": 4638,
      "demul": 4639,
      "dëkkee": 4640,
      "dëkkub": 4641,
      "enfin": 4642,
      "##igne": 4643,
      "mënumaa": 4644,
      "mënutoon": 4645,
      "naak": 4646,
      "juges": 4647,
      "grat": 4648,
      "grise": 4649,
      "grâce": 4650,
      "waxoon": 4651,
      "waxamb": 4652,
      "meññ": 4653,
      "##cience": 4654,
      "aime": 4655,
      "aimer": 4656,
      "deful": 4657,
      "moomeelu": 4658,
      "oncles": 4659,
      "nju": 4660,
      "nji": 4661,
      "njënd": 4662,
      "njari": 4663,
      "njoowaan": 4664,
      "femelle": 4665,
      "itinér": 4666,
      "dalukaay": 4667,
      "exam": 4668,
      "exces": 4669,
      "expl": 4670,
      "excep": 4671,
      "outil": 4672,
      "maisons": 4673,
      "làpp": 4674,
      "làbbe": 4675,
      "mét": 4676,
      "mébét": 4677,
      "docteur": 4678,
      "rive": 4679,
      "tuut": 4680,
      "taxu": 4681,
      "yëgu": 4682,
      "yëge": 4683,
      "brindi": 4684,
      "atte": 4685,
      "cessé": 4686,
      "gënatee": 4687,
      "vieilles": 4688,
      "boot": 4689,
      "këruus": 4690,
      "doomam": 4691,
      "##adee": 4692,
      "##onné": 4693,
      "##onner": 4694,
      "##onnel": 4695,
      "##onnés": 4696,
      "trô": 4697,
      "trouve": 4698,
      "trace": 4699,
      "tradit": 4700,
      "##ureux": 4701,
      "##tru": 4702,
      "abs": 4703,
      "absent": 4704,
      "marque": 4705,
      "marqué": 4706,
      "marjaan": 4707,
      "resté": 4708,
      "##liers": 4709,
      "##bbal": 4710,
      "Suku": 4711,
      "mandi": 4712,
      "manies": 4713,
      "biiru": 4714,
      "appel": 4715,
      "appro": 4716,
      "apporte": 4717,
      "appellent": 4718,
      "garçon": 4719,
      "##mite": 4720,
      "##cheurs": 4721,
      "proie": 4722,
      "toits": 4723,
      "##érait": 4724,
      "wuteek": 4725,
      "écrou": 4726,
      "##oupes": 4727,
      "journée": 4728,
      "yaroo": 4729,
      "Mazar": 4730,
      "##wukaay": 4731,
      "génére": 4732,
      "longe": 4733,
      "saaf": 4734,
      "tool": 4735,
      "tooñ": 4736,
      "toogal": 4737,
      "yoonam": 4738,
      "yëgaat": 4739,
      "Liñ": 4740,
      "doxal": 4741,
      "wex": 4742,
      "##jje": 4743,
      "tëb": 4744,
      "tëri": 4745,
      "tëgg": 4746,
      "tëju": 4747,
      "tëwa": 4748,
      "natale": 4749,
      "jadd": 4750,
      "jafee": 4751,
      "##termin": 4752,
      "yarami": 4753,
      "Teg": 4754,
      "colons": 4755,
      "autrement": 4756,
      "allé": 4757,
      "allions": 4758,
      "caric": 4759,
      "carross": 4760,
      "##illés": 4761,
      "fekkoon": 4762,
      "fekksi": 4763,
      "travaill": 4764,
      "loxoy": 4765,
      "##aasu": 4766,
      "passer": 4767,
      "mess": 4768,
      "prom": 4769,
      "##ettait": 4770,
      "perd": 4771,
      "àddinay": 4772,
      "##katu": 4773,
      "##itudes": 4774,
      "instr": 4775,
      "instin": 4776,
      "fàttalikoo": 4777,
      "pouvais": 4778,
      "pouvoir": 4779,
      "Alseri": 4780,
      "accouch": 4781,
      "fru": 4782,
      "tapp": 4783,
      "taññ": 4784,
      "xarnu": 4785,
      "xaritam": 4786,
      "nataali": 4787,
      "195": 4788,
      "portent": 4789,
      "portrait": 4790,
      "partager": 4791,
      "jàppe": 4792,
      "impos": 4793,
      "impecc": 4794,
      "tàq": 4795,
      "tàyyee": 4796,
      "##gnés": 4797,
      "mbirum": 4798,
      "palais": 4799,
      "palaat": 4800,
      "palmiers": 4801,
      "décl": 4802,
      "ginnax": 4803,
      "jaarale": 4804,
      "bëtam": 4805,
      "agr": 4806,
      "agit": 4807,
      "disait": 4808,
      "physique": 4809,
      "préc": 4810,
      "yëngoo": 4811,
      "épaisse": 4812,
      "traverse": 4813,
      "courions": 4814,
      "doux": 4815,
      "douleur": 4816,
      "nonchal": 4817,
      "souliers": 4818,
      "##gade": 4819,
      "toogoon": 4820,
      "aada": 4821,
      "orages": 4822,
      "organis": 4823,
      "séq": 4824,
      "##ateur": 4825,
      "##uwe": 4826,
      "adul": 4827,
      "admir": 4828,
      "colonne": 4829,
      "colonisation": 4830,
      "Niger": 4831,
      "banaana": 4832,
      "banlie": 4833,
      "empire": 4834,
      "toppatoo": 4835,
      "Devant": 4836,
      "boug": 4837,
      "bouill": 4838,
      "fameuses": 4839,
      "kanami": 4840,
      "résign": 4841,
      "visi": 4842,
      "##assé": 4843,
      "arrivé": 4844,
      "arriver": 4845,
      "regardent": 4846,
      "géeju": 4847,
      "herbe": 4848,
      "obsé": 4849,
      "puits": 4850,
      "pierre": 4851,
      "piki": 4852,
      "piège": 4853,
      "pierres": 4854,
      "yónn": 4855,
      "yàggul": 4856,
      "semblait": 4857,
      "bàyy": 4858,
      "afflu": 4859,
      "affaires": 4860,
      "coucher": 4861,
      "ess": 4862,
      "faisaient": 4863,
      "saytu": 4864,
      "yemu": 4865,
      "tolloo": 4866,
      "tollook": 4867,
      "bokkoon": 4868,
      "bokkul": 4869,
      "conser": 4870,
      "consac": 4871,
      "désir": 4872,
      "désespér": 4873,
      "ndekete": 4874,
      "rêver": 4875,
      "remont": 4876,
      "rempl": 4877,
      "remonte": 4878,
      "Yàllaak": 4879,
      "bonne": 4880,
      "humanité": 4881,
      "jàngoro": 4882,
      "roule": 4883,
      "rouges": 4884,
      "weexaay": 4885,
      "libre": 4886,
      "imaginer": 4887,
      "Aujourd": 4888,
      "lorsqu": 4889,
      "moments": 4890,
      "offic": 4891,
      "yeew": 4892,
      "yeewu": 4893,
      "chemin": 4894,
      "interro": 4895,
      "tuddoon": 4896,
      "brûlait": 4897,
      "weesu": 4898,
      "souvenirs": 4899,
      "souffr": 4900,
      "Ndaxam": 4901,
      "voyageaient": 4902,
      "africaines": 4903,
      "croire": 4904,
      "danoo": 4905,
      "dankali": 4906,
      "joie": 4907,
      "laajoon": 4908,
      "posture": 4909,
      "soxal": 4910,
      "soxor": 4911,
      "soxna": 4912,
      "soxnaam": 4913,
      "##érie": 4914,
      "répond": 4915,
      "réponse": 4916,
      "tropicale": 4917,
      "Ibos": 4918,
      "Ngir": 4919,
      "Unis": 4920,
      "dinañ": 4921,
      "distance": 4922,
      "fowukaay": 4923,
      "flot": 4924,
      "moteur": 4925,
      "rendi": 4926,
      "échange": 4927,
      "secours": 4928,
      "génnaan": 4929,
      "campagne": 4930,
      "effec": 4931,
      "effray": 4932,
      "gànnaaru": 4933,
      "ruu": 4934,
      "ruqu": 4935,
      "rumeur": 4936,
      "turam": 4937,
      "tàkkal": 4938,
      "venait": 4939,
      "xawoon": 4940,
      "naqadee": 4941,
      "revanche": 4942,
      "capt": 4943,
      "capable": 4944,
      "soldaari": 4945,
      "gëstu": 4946,
      "poing": 4947,
      "pointe": 4948,
      "soppikoo": 4949,
      "woowu": 4950,
      "envir": 4951,
      "##quelée": 4952,
      "charge": 4953,
      "repas": 4954,
      "repris": 4955,
      "guyaab": 4956,
      "Chaque": 4957,
      "embouch": 4958,
      "kerceen": 4959,
      "noppal": 4960,
      "yatt": 4961,
      "reyante": 4962,
      "juddu": 4963,
      "retourner": 4964,
      "espoir": 4965,
      "connaissais": 4966,
      "connaissance": 4967,
      "Fields": 4968,
      "Fiild": 4969,
      "Mënoon": 4970,
      "Paris": 4971,
      "bindkat": 4972,
      "corde": 4973,
      "cornes": 4974,
      "créé": 4975,
      "sensations": 4976,
      "xiir": 4977,
      "##ungo": 4978,
      "chaude": 4979,
      "chauff": 4980,
      "expéri": 4981,
      "rajo": 4982,
      "rajoom": 4983,
      "Sahara": 4984,
      "crise": 4985,
      "dàlli": 4986,
      "iró": 4987,
      "junni": 4988,
      "lëpp": 4989,
      "pistes": 4990,
      "yaboo": 4991,
      "yérey": 4992,
      "ñeenti": 4993,
      "##contré": 4994,
      "##isible": 4995,
      "quitte": 4996,
      "quitté": 4997,
      "bataax": 4998,
      "incap": 4999,
      "jeune": 5000,
      "permet": 5001,
      "installé": 5002,
      "installer": 5003,
      "accrochés": 5004,
      "sentiments": 5005,
      "Indiens": 5006,
      "River": 5007,
      "Seeni": 5008,
      "fenêtres": 5009,
      "fitna": 5010,
      "galeries": 5011,
      "jubal": 5012,
      "plein": 5013,
      "pleins": 5014,
      "penser": 5015,
      "rendu": 5016,
      "soixante": 5017,
      "yaxeet": 5018,
      "##senterie": 5019,
      "##óobu": 5020,
      "##ppukaay": 5021,
      "subst": 5022,
      "subaak": 5023,
      "guerres": 5024,
      "rappelle": 5025,
      "askan": 5026,
      "askanu": 5027,
      "comprends": 5028,
      "dispens": 5029,
      "accepté": 5030,
      "achetés": 5031,
      "cosaanu": 5032,
      "daagu": 5033,
      "daawu": 5034,
      "lunk": 5035,
      "ndigg": 5036,
      "ndigalu": 5037,
      "électri": 5038,
      "suivi": 5039,
      "mbindeef": 5040,
      "njàmbaar": 5041,
      "##lication": 5042,
      "serviteurs": 5043,
      "présence": 5044,
      "Quelque": 5045,
      "Quelques": 5046,
      "militaire": 5047,
      "blancs": 5048,
      "Atum": 5049,
      "Bénoué": 5050,
      "Bénuwe": 5051,
      "Buuru": 5052,
      "Fàtte": 5053,
      "Réewi": 5054,
      "brill": 5055,
      "craquelée": 5056,
      "carav": 5057,
      "fowe": 5058,
      "histoires": 5059,
      "jagleel": 5060,
      "màndarga": 5061,
      "politi": 5062,
      "polici": 5063,
      "pénétrer": 5064,
      "tàngal": 5065,
      "xobi": 5066,
      "évén": 5067,
      "##âteaux": 5068,
      "cinq": 5069,
      "invisible": 5070,
      "existait": 5071,
      "racontait": 5072,
      "propre": 5073,
      "général": 5074,
      "générale": 5075,
      "ressemblait": 5076,
      "différent": 5077,
      "isolé": 5078,
      "jeunesse": 5079,
      "Garab": 5080,
      "Garaas": 5081,
      "camarades": 5082,
      "coono": 5083,
      "cabax": 5084,
      "clichés": 5085,
      "golf": 5086,
      "gàngiri": 5087,
      "gëmoon": 5088,
      "kask": 5089,
      "minus": 5090,
      "miroir": 5091,
      "maasaloo": 5092,
      "nombreux": 5093,
      "stat": 5094,
      "sotti": 5095,
      "sortir": 5096,
      "sanctuaire": 5097,
      "wékk": 5098,
      "xamatul": 5099,
      "##téef": 5100,
      "nijaayam": 5101,
      "chercheurs": 5102,
      "industri": 5103,
      "mbooloo": 5104,
      "signifi": 5105,
      "conduisait": 5106,
      "arrachait": 5107,
      "enferme": 5108,
      "njëlbéen": 5109,
      "fulla": 5110,
      "ouvert": 5111,
      "vieillards": 5112,
      "profon": 5113,
      "commencement": 5114,
      "yóbbaale": 5115,
      "rencontr": 5116,
      "Babungo": 5117,
      "Juróom": 5118,
      "Niseer": 5119,
      "baxa": 5120,
      "bànx": 5121,
      "européenne": 5122,
      "fédér": 5123,
      "jànkon": 5124,
      "lampe": 5125,
      "pessimis": 5126,
      "pratiqu": 5127,
      "ràkkaaju": 5128,
      "sombre": 5129,
      "variété": 5130,
      "waaxu": 5131,
      "##heureux": 5132,
      "biafrais": 5133,
      "teqaleek": 5134,
      "fatigue": 5135,
      "suppose": 5136,
      "cafards": 5137,
      "plaintes": 5138,
      "aiguille": 5139,
      "ondulée": 5140,
      "brousse": 5141,
      "troncs": 5142,
      "chapeaux": 5143,
      "terribles": 5144,
      "lointains": 5145,
      "disparu": 5146,
      "retrouver": 5147,
      "familier": 5148,
      "officiers": 5149,
      "poitrine": 5150,
      "particulièrement": 5151,
      "photographie": 5152,
      "infirmiers": 5153,
      "dënnam": 5154,
      "éclairs": 5155,
      "éloignement": 5156,
      "Yorubaa": 5157,
      "méngook": 5158,
      "moustiquaire": 5159,
      "Allemands": 5160,
      "Certains": 5161,
      "Kakaa": 5162,
      "Looloo": 5163,
      "Polisoŋ": 5164,
      "Xawma": 5165,
      "besoin": 5166,
      "cercle": 5167,
      "càkkeef": 5168,
      "denc": 5169,
      "fonction": 5170,
      "lentement": 5171,
      "mangé": 5172,
      "oppos": 5173,
      "origine": 5174,
      "privilèg": 5175,
      "ràññee": 5176,
      "tribales": 5177,
      "tàllal": 5178,
      "vérité": 5179,
      "wàllu": 5180,
      "##ïsme": 5181,
      "laxas": 5182,
      "parfai": 5183,
      "paradis": 5184,
      "montrent": 5185,
      "fabri": 5186,
      "décidé": 5187,
      "dëppook": 5188,
      "surveillance": 5189,
      "vivaient": 5190,
      "ouverte": 5191,
      "sowub": 5192,
      "jëmmu": 5193,
      "trésor": 5194,
      "assiette": 5195,
      "##àttaliku": 5196,
      "alentour": 5197,
      "entouré": 5198,
      "entraî": 5199,
      "tambours": 5200,
      "Algérie": 5201,
      "yegsi": 5202,
      "découverte": 5203,
      "éprouve": 5204,
      "vaccins": 5205,
      "moderne": 5206,
      "équatoriale": 5207,
      "Saawusamton": 5208,
      "sculptés": 5209,
      "fauteuils": 5210,
      "Adamawa": 5211,
      "Filipus": 5212,
      "Ginnaaw": 5213,
      "Riwër": 5214,
      "Yaakaar": 5215,
      "arachide": 5216,
      "bàndaas": 5217,
      "dysenterie": 5218,
      "fentaak": 5219,
      "fusils": 5220,
      "fréquent": 5221,
      "gorilles": 5222,
      "googoo": 5223,
      "lëkkale": 5224,
      "mëdd": 5225,
      "membres": 5226,
      "oreilles": 5227,
      "pantalon": 5228,
      "pënde": 5229,
      "popul": 5230,
      "roppël": 5231,
      "sèche": 5232,
      "ténia": 5233,
      "urgence": 5234,
      "varangue": 5235,
      "vaisselle": 5236,
      "xaalis": 5237,
      "éducation": 5238,
      "ëllëg": 5239,
      "##ruption": 5240,
      "latérite": 5241,
      "quatre": 5242,
      "lesquels": 5243,
      "seconde": 5244,
      "étouffante": 5245,
      "waxambaane": 5246,
      "outils": 5247,
      "vieillesse": 5248,
      "tradition": 5249,
      "Mazaruni": 5250,
      "caricatur": 5251,
      "banlieue": 5252,
      "résignation": 5253,
      "yónnee": 5254,
      "dankalikoo": 5255,
      "embouchure": 5256,
      "électrique": 5257,
      "privilèges": 5258,
      "300": 5259,
      "700": 5260,
      "As": 5261,
      "Aux": 5262,
      "Aff": 5263,
      "Acc": 5264,
      "And": 5265,
      "Avant": 5266,
      "Ana": 5267,
      "Ainsi": 5268,
      "Agade": 5269,
      "Bl": 5270,
      "Ben": 5271,
      "Ber": 5272,
      "Bro": 5273,
      "Bali": 5274,
      "Booy": 5275,
      "Bak": 5276,
      "Bokk": 5277,
      "Bok": 5278,
      "Baali": 5279,
      "Co": 5280,
      "Coon": 5281,
      "Cet": 5282,
      "Caw": 5283,
      "Cot": 5284,
      "Camer": 5285,
      "Corp": 5286,
      "Cong": 5287,
      "Do": 5288,
      "Dë": 5289,
      "Dan": 5290,
      "Dou": 5291,
      "Dis": 5292,
      "Daw": 5293,
      "Dara": 5294,
      "Dad": 5295,
      "Dion": 5296,
      "Duw": 5297,
      "Dieu": 5298,
      "Dog": 5299,
      "Er": 5300,
      "Ele": 5301,
      "Eend": 5302,
      "Enu": 5303,
      "Eke": 5304,
      "Fan": 5305,
      "Fépp": 5306,
      "Fara": 5307,
      "Foor": 5308,
      "Fung": 5309,
      "Fumba": 5310,
      "Fàttaliku": 5311,
      "Gl": 5312,
      "Ges": 5313,
      "Gis": 5314,
      "Gée": 5315,
      "Gun": 5316,
      "Gol": 5317,
      "Gén": 5318,
      "Gue": 5319,
      "Gëm": 5320,
      "Ganaa": 5321,
      "Gener": 5322,
      "Ghan": 5323,
      "Ho": 5324,
      "Hormis": 5325,
      "Hospital": 5326,
      "Idi": 5327,
      "Ici": 5328,
      "Ifite": 5329,
      "Ja": 5330,
      "Jé": 5331,
      "Jaay": 5332,
      "Jés": 5333,
      "Joy": 5334,
      "Jàpp": 5335,
      "Journ": 5336,
      "Jànge": 5337,
      "Kó": 5338,
      "Kir": 5339,
      "Kama": 5340,
      "Kaka": 5341,
      "Kili": 5342,
      "Kanam": 5343,
      "Kàdd": 5344,
      "Kantu": 5345,
      "Kwa": 5346,
      "Kish": 5347,
      "Kisoŋ": 5348,
      "Kentu": 5349,
      "Ll": 5350,
      "Lé": 5351,
      "Lan": 5352,
      "Las": 5353,
      "Lom": 5354,
      "Liy": 5355,
      "Luy": 5356,
      "Lug": 5357,
      "Luw": 5358,
      "Long": 5359,
      "Mf": 5360,
      "Mis": 5361,
      "Mem": 5362,
      "Màkk": 5363,
      "Mook": 5364,
      "Mii": 5365,
      "Màr": 5366,
      "Na": 5367,
      "No": 5368,
      "Ns": 5369,
      "Nde": 5370,
      "Nord": 5371,
      "Now": 5372,
      "Nettali": 5373,
      "Néegu": 5374,
      "Nekk": 5375,
      "Oku": 5376,
      "Obukun": 5377,
      "Ph": 5378,
      "Pet": 5379,
      "Pens": 5380,
      "Rid": 5381,
      "Sam": 5382,
      "Sau": 5383,
      "Sopp": 5384,
      "Seet": 5385,
      "Sung": 5386,
      "Sener": 5387,
      "Samay": 5388,
      "She": 5389,
      "Small": 5390,
      "Tam": 5391,
      "Tama": 5392,
      "Téere": 5393,
      "Tontu": 5394,
      "Tart": 5395,
      "V8": 5396,
      "Wax": 5397,
      "Wéet": 5398,
      "Wap": 5399,
      "Wute": 5400,
      "Yoon": 5401,
      "Yenn": 5402,
      "Yàkk": 5403,
      "Yàgg": 5404,
      "Yaali": 5405,
      "ast": 5406,
      "aak": 5407,
      "ali": 5408,
      "bai": 5409,
      "bis": 5410,
      "bin": 5411,
      "bol": 5412,
      "bépp": 5413,
      "bris": 5414,
      "bonn": 5415,
      "banam": 5416,
      "biti": 5417,
      "balle": 5418,
      "bêtes": 5419,
      "beru": 5420,
      "bóoy": 5421,
      "cé": 5422,
      "coo": 5423,
      "cax": 5424,
      "cay": 5425,
      "cër": 5426,
      "cëpp": 5427,
      "club": 5428,
      "coyy": 5429,
      "dag": 5430,
      "dale": 5431,
      "dand": 5432,
      "dort": 5433,
      "dois": 5434,
      "dàtt": 5435,
      "diri": 5436,
      "dorm": 5437,
      "damay": 5438,
      "er": 5439,
      "fri": 5440,
      "fine": 5441,
      "fiss": 5442,
      "foog": 5443,
      "fëgg": 5444,
      "fleurs": 5445,
      "gon": 5446,
      "gin": 5447,
      "gir": 5448,
      "gri": 5449,
      "gay": 5450,
      "gos": 5451,
      "gro": 5452,
      "gants": 5453,
      "gang": 5454,
      "geen": 5455,
      "gël": 5456,
      "gaañ": 5457,
      "gees": 5458,
      "gërëm": 5459,
      "geer": 5460,
      "hur": 5461,
      "has": 5462,
      "haine": 5463,
      "hori": 5464,
      "him": 5465,
      "hier": 5466,
      "hâte": 5467,
      "id": 5468,
      "ill": 5469,
      "ivres": 5470,
      "jal": 5471,
      "jën": 5472,
      "jéy": 5473,
      "jokk": 5474,
      "jomm": 5475,
      "jonni": 5476,
      "jaww": 5477,
      "kaay": 5478,
      "kat": 5479,
      "kaar": 5480,
      "kànk": 5481,
      "keneen": 5482,
      "kaka": 5483,
      "kaf": 5484,
      "kaaŋ": 5485,
      "keey": 5486,
      "lent": 5487,
      "lait": 5488,
      "lot": 5489,
      "laak": 5490,
      "laax": 5491,
      "lét": 5492,
      "lourd": 5493,
      "loc": 5494,
      "laisse": 5495,
      "lóox": 5496,
      "mà": 5497,
      "mor": 5498,
      "meek": 5499,
      "maaj": 5500,
      "mors": 5501,
      "mise": 5502,
      "menti": 5503,
      "mouton": 5504,
      "nen": 5505,
      "naay": 5506,
      "naat": 5507,
      "nob": 5508,
      "nànd": 5509,
      "noot": 5510,
      "nkom": 5511,
      "namm": 5512,
      "ode": 5513,
      "oise": 5514,
      "océ": 5515,
      "pë": 5516,
      "pà": 5517,
      "poo": 5518,
      "pent": 5519,
      "pax": 5520,
      "pus": 5521,
      "pun": 5522,
      "pau": 5523,
      "pain": 5524,
      "poi": 5525,
      "pati": 5526,
      "pont": 5527,
      "pid": 5528,
      "puur": 5529,
      "poto": 5530,
      "péri": 5531,
      "paj": 5532,
      "prière": 5533,
      "pense": 5534,
      "pët": 5535,
      "pric": 5536,
      "péex": 5537,
      "paci": 5538,
      "rè": 5539,
      "rai": 5540,
      "rom": 5541,
      "rus": 5542,
      "rois": 5543,
      "ràgg": 5544,
      "rëkk": 5545,
      "rond": 5546,
      "réere": 5547,
      "rendre": 5548,
      "rôle": 5549,
      "reelu": 5550,
      "raxe": 5551,
      "rangoo": 5552,
      "ratt": 5553,
      "sy": 5554,
      "sal": 5555,
      "sis": 5556,
      "sin": 5557,
      "saan": 5558,
      "seek": 5559,
      "sàng": 5560,
      "séy": 5561,
      "sing": 5562,
      "sóobu": 5563,
      "té": 5564,
      "tâ": 5565,
      "tit": 5566,
      "tag": 5567,
      "tooy": 5568,
      "tris": 5569,
      "tonn": 5570,
      "téem": 5571,
      "tente": 5572,
      "taraa": 5573,
      "tôt": 5574,
      "taille": 5575,
      "têtes": 5576,
      "toile": 5577,
      "toxu": 5578,
      "ul": 5579,
      "ub": 5580,
      "val": 5581,
      "vais": 5582,
      "vén": 5583,
      "verre": 5584,
      "vont": 5585,
      "vég": 5586,
      "vites": 5587,
      "vaut": 5588,
      "wà": 5589,
      "wall": 5590,
      "waaw": 5591,
      "ween": 5592,
      "wii": 5593,
      "waañ": 5594,
      "wallu": 5595,
      "wonni": 5596,
      "xo": 5597,
      "xó": 5598,
      "xoo": 5599,
      "xor": 5600,
      "xub": 5601,
      "xaaj": 5602,
      "xàll": 5603,
      "xalee": 5604,
      "xeeñ": 5605,
      "xoll": 5606,
      "xoole": 5607,
      "xumb": 5608,
      "xàjj": 5609,
      "yan": 5610,
      "yoo": 5611,
      "yàqu": 5612,
      "yànj": 5613,
      "zé": 5614,
      "Àdd": 5615,
      "Ànd": 5616,
      "Àbb": 5617,
      "Ës": 5618,
      "Ñi": 5619,
      "Ñépp": 5620,
      "àlle": 5621,
      "àjj": 5622,
      "éb": 5623,
      "éte": 5624,
      "évent": 5625,
      "éner": 5626,
      "égo": 5627,
      "êtres": 5628,
      "ëf": 5629,
      "ñé": 5630,
      "ñam": 5631,
      "ñor": 5632,
      "ñaan": 5633,
      "ñag": 5634,
      "ñeek": 5635,
      "ñall": 5636,
      "ñàng": 5637,
      "ñaata": 5638,
      "ñaare": 5639,
      "ótó": 5640,
      "ňe": 5641,
      "ňaw": 5642,
      "ŋun": 5643,
      "ŋuni": 5644,
      "ŋaaŋ": 5645,
      "œuf": 5646,
      "##ron": 5647,
      "##rant": 5648,
      "##rure": 5649,
      "##romp": 5650,
      "##raise": 5651,
      "##raines": 5652,
      "##ranch": 5653,
      "##az": 5654,
      "##aju": 5655,
      "##açait": 5656,
      "##vu": 5657,
      "##vré": 5658,
      "##vage": 5659,
      "##vins": 5660,
      "##too": 5661,
      "##tent": 5662,
      "##ttee": 5663,
      "##eu": 5664,
      "##ek": 5665,
      "##ex": 5666,
      "##eñ": 5667,
      "##euse": 5668,
      "##wal": 5669,
      "##wle": 5670,
      "##waal": 5671,
      "##wumaa": 5672,
      "##waare": 5673,
      "##oches": 5674,
      "##otiques": 5675,
      "##nk": 5676,
      "##np": 5677,
      "##naa": 5678,
      "##nés": 5679,
      "##nde": 5680,
      "##nées": 5681,
      "##utu": 5682,
      "##uil": 5683,
      "##uement": 5684,
      "##uves": 5685,
      "##ucu": 5686,
      "##kaa": 5687,
      "##kus": 5688,
      "##kwu": 5689,
      "##ient": 5690,
      "##ice": 5691,
      "##ige": 5692,
      "##imis": 5693,
      "##ières": 5694,
      "##ipe": 5695,
      "##ize": 5696,
      "##yaak": 5697,
      "##ynn": 5698,
      "##mans": 5699,
      "##mme": 5700,
      "##més": 5701,
      "##mité": 5702,
      "##maine": 5703,
      "##mond": 5704,
      "##manche": 5705,
      "##ps": 5706,
      "##pon": 5707,
      "##pou": 5708,
      "##pis": 5709,
      "##pain": 5710,
      "##ples": 5711,
      "##poor": 5712,
      "##peur": 5713,
      "##paaya": 5714,
      "##lam": 5715,
      "##lant": 5716,
      "##laient": 5717,
      "##look": 5718,
      "##laam": 5719,
      "##lét": 5720,
      "##lables": 5721,
      "##sam": 5722,
      "##sit": 5723,
      "##sée": 5724,
      "##sas": 5725,
      "##sés": 5726,
      "##sac": 5727,
      "##santes": 5728,
      "##sailles": 5729,
      "##co": 5730,
      "##cte": 5731,
      "##cri": 5732,
      "##cas": 5733,
      "##cus": 5734,
      "##cli": 5735,
      "##cits": 5736,
      "##cours": 5737,
      "##ctions": 5738,
      "##ckt": 5739,
      "##cils": 5740,
      "##don": 5741,
      "##daay": 5742,
      "##dante": 5743,
      "##boo": 5744,
      "##bou": 5745,
      "##bit": 5746,
      "##bari": 5747,
      "##jal": 5748,
      "##jor": 5749,
      "##jour": 5750,
      "##gaa": 5751,
      "##gers": 5752,
      "##gante": 5753,
      "##gne": 5754,
      "##gouill": 5755,
      "##gagé": 5756,
      "##graines": 5757,
      "##ément": 5758,
      "##éne": 5759,
      "##éci": 5760,
      "##émi": 5761,
      "##éeri": 5762,
      "##fon": 5763,
      "##fou": 5764,
      "##fait": 5765,
      "##ful": 5766,
      "##fay": 5767,
      "##fiti": 5768,
      "##flé": 5769,
      "##féex": 5770,
      "##ëx": 5771,
      "##ëf": 5772,
      "##ësu": 5773,
      "##qam": 5774,
      "##óf": 5775,
      "##ît": 5776,
      "##îtes": 5777,
      "##ètre": 5778,
      "##hn": 5779,
      "##hum": 5780,
      "##hot": 5781,
      "##hase": 5782,
      "##âtre": 5783,
      "##ûte": 5784,
      "##ûts": 5785,
      "##zz": 5786,
      "##zes": 5787,
      "##ňse": 5788,
      "##ňoŋ": 5789,
      "##çoit": 5790,
      "##esse": 5791,
      "##esses": 5792,
      "##aasi": 5793,
      "##onou": 5794,
      "##onom": 5795,
      "##enait": 5796,
      "##enge": 5797,
      "##enke": 5798,
      "##anpoor": 5799,
      "dere": 5800,
      "##oue": 5801,
      "##oux": 5802,
      "##ouci": 5803,
      "##oureux": 5804,
      "##aies": 5805,
      "##reŋ": 5806,
      "##reaux": 5807,
      "##reuse": 5808,
      "##rets": 5809,
      "##rewol": 5810,
      "##erge": 5811,
      "##alée": 5812,
      "##alet": 5813,
      "##alpel": 5814,
      "##aru": 5815,
      "##arin": 5816,
      "##arque": 5817,
      "##ardi": 5818,
      "##artal": 5819,
      "##arnée": 5820,
      "##arla": 5821,
      "##arnaa": 5822,
      "##amas": 5823,
      "##amants": 5824,
      "##amtee": 5825,
      "lac": 5826,
      "lab": 5827,
      "lavait": 5828,
      "##temaak": 5829,
      "##texte": 5830,
      "##isait": 5831,
      "##isant": 5832,
      "##isse": 5833,
      "##istes": 5834,
      "cit": 5835,
      "cime": 5836,
      "civi": 5837,
      "cités": 5838,
      "cirées": 5839,
      "##uram": 5840,
      "##urde": 5841,
      "##urne": 5842,
      "##orme": 5843,
      "##entôt": 5844,
      "##eew": 5845,
      "##oons": 5846,
      "##oonteek": 5847,
      "lever": 5848,
      "##kko": 5849,
      "##kkan": 5850,
      "##kkoor": 5851,
      "##kkalee": 5852,
      "##llule": 5853,
      "##llerie": 5854,
      "##ini": 5855,
      "##inés": 5856,
      "##inage": 5857,
      "##inois": 5858,
      "##ingue": 5859,
      "##itaient": 5860,
      "##itage": 5861,
      "##itig": 5862,
      "##itation": 5863,
      "##itue": 5864,
      "##itions": 5865,
      "##itables": 5866,
      "mach": 5867,
      "mauri": 5868,
      "major": 5869,
      "enser": 5870,
      "enlè": 5871,
      "enrou": 5872,
      "entiers": 5873,
      "engagé": 5874,
      "##ira": 5875,
      "##ires": 5876,
      "unis": 5877,
      "##ppus": 5878,
      "##ppati": 5879,
      "##tif": 5880,
      "##tières": 5881,
      "##tible": 5882,
      "##tigation": 5883,
      "##tionnel": 5884,
      "duŋŋ": 5885,
      "duñuy": 5886,
      "musique": 5887,
      "munie": 5888,
      "desoon": 5889,
      "deseetu": 5890,
      "destru": 5891,
      "nib": 5892,
      "nig": 5893,
      "niñ": 5894,
      "nite": 5895,
      "nids": 5896,
      "##rie": 5897,
      "##riň": 5898,
      "##rire": 5899,
      "##rill": 5900,
      "nace": 5901,
      "nation": 5902,
      "naju": 5903,
      "nations": 5904,
      "nabit": 5905,
      "##lexi": 5906,
      "##quait": 5907,
      "##qués": 5908,
      "##quetés": 5909,
      "diw": 5910,
      "digal": 5911,
      "dikkal": 5912,
      "dieux": 5913,
      "dimen": 5914,
      "dieu": 5915,
      "dimanche": 5916,
      "diamants": 5917,
      "bav": 5918,
      "bac": 5919,
      "bag": 5920,
      "bakkan": 5921,
      "kom": 5922,
      "kos": 5923,
      "koň": 5924,
      "komp": 5925,
      "koŋŋ": 5926,
      "##aayd": 5927,
      "##asis": 5928,
      "##asin": 5929,
      "##asion": 5930,
      "##els": 5931,
      "sey": 5932,
      "sex": 5933,
      "seins": 5934,
      "seuil": 5935,
      "##ulu": 5936,
      "##uloo": 5937,
      "##ulsion": 5938,
      "##ulmans": 5939,
      "bib": 5940,
      "biñ": 5941,
      "bidd": 5942,
      "bivou": 5943,
      "tegg": 5944,
      "telles": 5945,
      "teeri": 5946,
      "teppati": 5947,
      "yiñ": 5948,
      "##usaan": 5949,
      "##usion": 5950,
      "##uston": 5951,
      "##aises": 5952,
      "aval": 5953,
      "avenir": 5954,
      "##aguma": 5955,
      "nemm": 5956,
      "newul": 5957,
      "ngon": 5958,
      "ngat": 5959,
      "ngone": 5960,
      "ngunu": 5961,
      "ngoog": 5962,
      "##meub": 5963,
      "##ggu": 5964,
      "##ggar": 5965,
      "##ggante": 5966,
      "##une": 5967,
      "##ungoo": 5968,
      "paras": 5969,
      "parap": 5970,
      "parisi": 5971,
      "parpain": 5972,
      "parcours": 5973,
      "luci": 5974,
      "lutte": 5975,
      "##deaux": 5976,
      "##defon": 5977,
      "##cellerie": 5978,
      "##olir": 5979,
      "##olóol": 5980,
      "##olog": 5981,
      "##oussi": 5982,
      "##oussas": 5983,
      "##chir": 5984,
      "##chet": 5985,
      "##chem": 5986,
      "##chures": 5987,
      "mondi": 5988,
      "étro": 5989,
      "étage": 5990,
      "étince": 5991,
      "étoile": 5992,
      "but": 5993,
      "butée": 5994,
      "##amawaa": 5995,
      "cho": 5996,
      "chat": 5997,
      "choi": 5998,
      "chré": 5999,
      "chois": 6000,
      "champ": 6001,
      "chute": 6002,
      "chien": 6003,
      "châteaux": 6004,
      "faci": 6005,
      "favor": 6006,
      "##ates": 6007,
      "##osp": 6008,
      "##ieur": 6009,
      "##aud": 6010,
      "##abres": 6011,
      "recher": 6012,
      "recul": 6013,
      "revient": 6014,
      "recevoir": 6015,
      "rewle": 6016,
      "##luait": 6017,
      "##luies": 6018,
      "suff": 6019,
      "sulli": 6020,
      "summi": 6021,
      "suuk": 6022,
      "##llection": 6023,
      "passi": 6024,
      "passe": 6025,
      "passion": 6026,
      "caw": 6027,
      "caq": 6028,
      "caché": 6029,
      "cachais": 6030,
      "cadeaux": 6031,
      "dél": 6032,
      "détes": 6033,
      "dépl": 6034,
      "délic": 6035,
      "dévor": 6036,
      "détermin": 6037,
      "dénk": 6038,
      "##dicules": 6039,
      "liw": 6040,
      "lijj": 6041,
      "liise": 6042,
      "limite": 6043,
      "##awu": 6044,
      "##awoo": 6045,
      "##umes": 6046,
      "##umul": 6047,
      "##umand": 6048,
      "##umaal": 6049,
      "inn": 6050,
      "inté": 6051,
      "inacc": 6052,
      "injec": 6053,
      "inqui": 6054,
      "inex": 6055,
      "guid": 6056,
      "##alete": 6057,
      "##roces": 6058,
      "mill": 6059,
      "mienne": 6060,
      "migraines": 6061,
      "mbë": 6062,
      "mbax": 6063,
      "mbaar": 6064,
      "mbaam": 6065,
      "mbëgg": 6066,
      "mbañ": 6067,
      "mburu": 6068,
      "mbàjj": 6069,
      "mbartal": 6070,
      "dër": 6071,
      "dëmm": 6072,
      "##outait": 6073,
      "saň": 6074,
      "##andue": 6075,
      "##andiss": 6076,
      "sipp": 6077,
      "siens": 6078,
      "sippi": 6079,
      "##oxor": 6080,
      "surg": 6081,
      "dooni": 6082,
      "doonoon": 6083,
      "doonul": 6084,
      "##aincre": 6085,
      "date": 6086,
      "daju": 6087,
      "pli": 6088,
      "plant": 6089,
      "##sier": 6090,
      "##sibles": 6091,
      "##tume": 6092,
      "##endu": 6093,
      "##endes": 6094,
      "##gub": 6095,
      "##gués": 6096,
      "##oté": 6097,
      "##otes": 6098,
      "ayant": 6099,
      "celles": 6100,
      "cellule": 6101,
      "gilets": 6102,
      "##aalaa": 6103,
      "##aalee": 6104,
      "ndée": 6105,
      "ndomb": 6106,
      "ndéw": 6107,
      "ndoorteelu": 6108,
      "##tter": 6109,
      "##oyés": 6110,
      "##ilité": 6111,
      "##alikook": 6112,
      "##ffant": 6113,
      "##ffées": 6114,
      "ant": 6115,
      "anam": 6116,
      "conv": 6117,
      "congés": 6118,
      "##ments": 6119,
      "##ortir": 6120,
      "##ortés": 6121,
      "##ortance": 6122,
      "##ccu": 6123,
      "##aatle": 6124,
      "villes": 6125,
      "viande": 6126,
      "vivent": 6127,
      "vivres": 6128,
      "victi": 6129,
      "arg": 6130,
      "arch": 6131,
      "armi": 6132,
      "##rép": 6133,
      "##rément": 6134,
      "##rémon": 6135,
      "##galeek": 6136,
      "gisam": 6137,
      "giseek": 6138,
      "##mban": 6139,
      "##mbët": 6140,
      "demande": 6141,
      "dëkkoo": 6142,
      "dëkkam": 6143,
      "dëkkandoo": 6144,
      "##téen": 6145,
      "mënoo": 6146,
      "mënal": 6147,
      "mënut": 6148,
      "mënuma": 6149,
      "##énal": 6150,
      "juy": 6151,
      "jupe": 6152,
      "##utes": 6153,
      "##utation": 6154,
      "grouill": 6155,
      "waxantee": 6156,
      "##óoru": 6157,
      "mere": 6158,
      "meňň": 6159,
      "medaay": 6160,
      "##cien": 6161,
      "##cice": 6162,
      "##ciale": 6163,
      "aimé": 6164,
      "aimait": 6165,
      "defee": 6166,
      "defoon": 6167,
      "defare": 6168,
      "defanteek": 6169,
      "moomoo": 6170,
      "moomee": 6171,
      "moomoon": 6172,
      "oncle": 6173,
      "nja": 6174,
      "njub": 6175,
      "njaax": 6176,
      "njàng": 6177,
      "njàpp": 6178,
      "njiit": 6179,
      "pey": 6180,
      "peggu": 6181,
      "##rène": 6182,
      "bëm": 6183,
      "bëccëg": 6184,
      "##alles": 6185,
      "##araître": 6186,
      "##tesse": 6187,
      "Ogaar": 6188,
      "Ogil": 6189,
      "fexe": 6190,
      "fui": 6191,
      "fuñ": 6192,
      "fuuy": 6193,
      "fufu": 6194,
      "##angan": 6195,
      "dalu": 6196,
      "existe": 6197,
      "##arer": 6198,
      "##areg": 6199,
      "fàŋŋ": 6200,
      "fàttee": 6201,
      "jambe": 6202,
      "outre": 6203,
      "##rist": 6204,
      "soin": 6205,
      "sovi": 6206,
      "jëw": 6207,
      "jële": 6208,
      "jëli": 6209,
      "jëmbët": 6210,
      "làmb": 6211,
      "métal": 6212,
      "mêlé": 6213,
      "dof": 6214,
      "dogu": 6215,
      "rikk": 6216,
      "riiri": 6217,
      "rides": 6218,
      "rideau": 6219,
      "ridicules": 6220,
      "rédu": 6221,
      "réveill": 6222,
      "récits": 6223,
      "réccu": 6224,
      "tukk": 6225,
      "tués": 6226,
      "tukkee": 6227,
      "tuuru": 6228,
      "tuwaal": 6229,
      "tuumaal": 6230,
      "taxul": 6231,
      "taxumaa": 6232,
      "##vill": 6233,
      "léegi": 6234,
      "##mmee": 6235,
      "##ineux": 6236,
      "nekkinu": 6237,
      "brut": 6238,
      "bruy": 6239,
      "brume": 6240,
      "brandiss": 6241,
      "waru": 6242,
      "waraloon": 6243,
      "cesse": 6244,
      "gënaloon": 6245,
      "vieil": 6246,
      "rap": 6247,
      "rakk": 6248,
      "raff": 6249,
      "ravins": 6250,
      "raciale": 6251,
      "mask": 6252,
      "masin": 6253,
      "masuma": 6254,
      "massac": 6255,
      "##adé": 6256,
      "##adcas": 6257,
      "##onnu": 6258,
      "##onnait": 6259,
      "##onnée": 6260,
      "##onniers": 6261,
      "Lekk": 6262,
      "Leurs": 6263,
      "Leic": 6264,
      "trou": 6265,
      "trouv": 6266,
      "tromp": 6267,
      "troupes": 6268,
      "traces": 6269,
      "trappe": 6270,
      "chap": 6271,
      "chacun": 6272,
      "paysage": 6273,
      "mars": 6274,
      "march": 6275,
      "marcher": 6276,
      "marches": 6277,
      "maréc": 6278,
      "margouill": 6279,
      "restés": 6280,
      "réewam": 6281,
      "##bbi": 6282,
      "Suw": 6283,
      "Suñ": 6284,
      "manque": 6285,
      "manches": 6286,
      "manqué": 6287,
      "biiri": 6288,
      "Laper": 6289,
      "appr": 6290,
      "auxquelles": 6291,
      "formant": 6292,
      "léppam": 6293,
      "procur": 6294,
      "projet": 6295,
      "samag": 6296,
      "##érent": 6297,
      "##érés": 6298,
      "magie": 6299,
      "magasin": 6300,
      "auto": 6301,
      "autop": 6302,
      "autoch": 6303,
      "wuyu": 6304,
      "wujje": 6305,
      "wuutu": 6306,
      "écor": 6307,
      "économ": 6308,
      "écrire": 6309,
      "tegee": 6310,
      "tegtal": 6311,
      "filles": 6312,
      "##erik": 6313,
      "##ombrées": 6314,
      "##ctère": 6315,
      "jikko": 6316,
      "lonku": 6317,
      "yoonu": 6318,
      "yooni": 6319,
      "yëgoon": 6320,
      "jusque": 6321,
      "justement": 6322,
      "justifi": 6323,
      "justice": 6324,
      "dexu": 6325,
      "Lib": 6326,
      "Liggéey": 6327,
      "astemaak": 6328,
      "weň": 6329,
      "mettait": 6330,
      "serp": 6331,
      "serais": 6332,
      "seraient": 6333,
      "servant": 6334,
      "seringue": 6335,
      "tëw": 6336,
      "tëñ": 6337,
      "nataalu": 6338,
      "jafal": 6339,
      "yaramam": 6340,
      "Tuwaare": 6341,
      "colis": 6342,
      "##aissait": 6343,
      "allée": 6344,
      "allaient": 6345,
      "carab": 6346,
      "caraxam": 6347,
      "souvent": 6348,
      "##illée": 6349,
      "##illons": 6350,
      "compos": 6351,
      "compter": 6352,
      "complets": 6353,
      "complè": 6354,
      "travaux": 6355,
      "Niñ": 6356,
      "alaate": 6357,
      "alalu": 6358,
      "almet": 6359,
      "jigéeni": 6360,
      "##ides": 6361,
      "##idité": 6362,
      "##miss": 6363,
      "entoure": 6364,
      "passent": 6365,
      "passant": 6366,
      "passées": 6367,
      "feem": 6368,
      "feebari": 6369,
      "jóolóol": 6370,
      "prendre": 6371,
      "proue": 6372,
      "prosp": 6373,
      "terres": 6374,
      "##orer": 6375,
      "dellus": 6376,
      "##ettaient": 6377,
      "mala": 6378,
      "malheureux": 6379,
      "perte": 6380,
      "perdu": 6381,
      "peroŋ": 6382,
      "yooyoo": 6383,
      "àddinaa": 6384,
      "àndal": 6385,
      "##itué": 6386,
      "##ituer": 6387,
      "instru": 6388,
      "casque": 6389,
      "castes": 6390,
      "cassé": 6391,
      "encad": 6392,
      "encerc": 6393,
      "encombrées": 6394,
      "garabu": 6395,
      "Alasi": 6396,
      "accent": 6397,
      "tac": 6398,
      "taňň": 6399,
      "tapis": 6400,
      "xarat": 6401,
      "xaritu": 6402,
      "yell": 6403,
      "yewwi": 6404,
      "##duits": 6405,
      "##ŋŋati": 6406,
      "1900": 6407,
      "immeub": 6408,
      "wëraleek": 6409,
      "##icul": 6410,
      "partait": 6411,
      "partant": 6412,
      "impri": 6413,
      "impré": 6414,
      "importe": 6415,
      "impact": 6416,
      "importance": 6417,
      "neexoon": 6418,
      "neexaan": 6419,
      "tàbbal": 6420,
      "tàmme": 6421,
      "##parait": 6422,
      "##parti": 6423,
      "##parts": 6424,
      "##gné": 6425,
      "##gnes": 6426,
      "##gner": 6427,
      "##gnent": 6428,
      "##andeer": 6429,
      "##aria": 6430,
      "déggee": 6431,
      "déggaat": 6432,
      "Amin": 6433,
      "Monro": 6434,
      "laaf": 6435,
      "seetsi": 6436,
      "##ting": 6437,
      "regret": 6438,
      "mbiram": 6439,
      "ressemble": 6440,
      "Enfin": 6441,
      "noonam": 6442,
      "palabres": 6443,
      "dundale": 6444,
      "insur": 6445,
      "insurg": 6446,
      "insouci": 6447,
      "instigation": 6448,
      "##ilippus": 6449,
      "hauteur": 6450,
      "jaaram": 6451,
      "puisque": 6452,
      "##uleen": 6453,
      "barey": 6454,
      "parlé": 6455,
      "parlent": 6456,
      "parlaient": 6457,
      "bëggul": 6458,
      "jógeji": 6459,
      "Bamendaak": 6460,
      "poser": 6461,
      "posent": 6462,
      "posée": 6463,
      "##ampser": 6464,
      "liggéeye": 6465,
      "liggéeyal": 6466,
      "liggéeyam": 6467,
      "agon": 6468,
      "agir": 6469,
      "agents": 6470,
      "agsee": 6471,
      "agric": 6472,
      "agrément": 6473,
      "bàcc": 6474,
      "bàjj": 6475,
      "coupé": 6476,
      "coupée": 6477,
      "coupés": 6478,
      "discus": 6479,
      "prét": 6480,
      "précis": 6481,
      "deram": 6482,
      "montée": 6483,
      "chefs": 6484,
      "fajar": 6485,
      "ndawal": 6486,
      "médecins": 6487,
      "Daňu": 6488,
      "cockt": 6489,
      "collection": 6490,
      "côtière": 6491,
      "fanweeri": 6492,
      "tip": 6493,
      "timis": 6494,
      "tiital": 6495,
      "tànkam": 6496,
      "##obilis": 6497,
      "##óomam": 6498,
      "##indre": 6499,
      "##itiers": 6500,
      "traversé": 6501,
      "court": 6502,
      "courants": 6503,
      "doul": 6504,
      "douces": 6505,
      "douze": 6506,
      "daje": 6507,
      "dajul": 6508,
      "dajeel": 6509,
      "dajaloo": 6510,
      "Mbégte": 6511,
      "Ndox": 6512,
      "Ndoorteelu": 6513,
      "aadawoo": 6514,
      "joowu": 6515,
      "jotoon": 6516,
      "jotaan": 6517,
      "orte": 6518,
      "séjour": 6519,
      "soos": 6520,
      "soog": 6521,
      "teewu": 6522,
      "##atel": 6523,
      "##atement": 6524,
      "##uwaa": 6525,
      "armé": 6526,
      "armés": 6527,
      "adop": 6528,
      "adresse": 6529,
      "noŋŋ": 6530,
      "voyages": 6531,
      "##riture": 6532,
      "aussit": 6533,
      "bienfait": 6534,
      "peuvent": 6535,
      "peuples": 6536,
      "colonie": 6537,
      "premiers": 6538,
      "bey": 6539,
      "belle": 6540,
      "bekkoor": 6541,
      "empê": 6542,
      "empes": 6543,
      "emphase": 6544,
      "empoussi": 6545,
      "lanati": 6546,
      "lanuy": 6547,
      "lançait": 6548,
      "rëb": 6549,
      "rëddi": 6550,
      "trott": 6551,
      "xolu": 6552,
      "xolub": 6553,
      "##fiance": 6554,
      "bouffées": 6555,
      "habillés": 6556,
      "jànqu": 6557,
      "résist": 6558,
      "résult": 6559,
      "vaches": 6560,
      "vapeur": 6561,
      "##imu": 6562,
      "##asses": 6563,
      "##embler": 6564,
      "arrivent": 6565,
      "arrivait": 6566,
      "arrivant": 6567,
      "arrivaient": 6568,
      "entendait": 6569,
      "entendue": 6570,
      "regardant": 6571,
      "Niser": 6572,
      "niroo": 6573,
      "nirool": 6574,
      "niróo": 6575,
      "obst": 6576,
      "puud": 6577,
      "pij": 6578,
      "picc": 6579,
      "xereñ": 6580,
      "xalaate": 6581,
      "##weer": 6582,
      "##étation": 6583,
      "semblé": 6584,
      "sembler": 6585,
      "semblables": 6586,
      "forêts": 6587,
      "affront": 6588,
      "couchés": 6589,
      "esk": 6590,
      "escal": 6591,
      "faisant": 6592,
      "faisions": 6593,
      "toucher": 6594,
      "touché": 6595,
      "votre": 6596,
      "voûte": 6597,
      "yemul": 6598,
      "##écu": 6599,
      "##isses": 6600,
      "##issait": 6601,
      "##issement": 6602,
      "dugge": 6603,
      "recouv": 6604,
      "rectil": 6605,
      "recouvert": 6606,
      "savait": 6607,
      "savate": 6608,
      "jëlsi": 6609,
      "Bien": 6610,
      "conscience": 6611,
      "désord": 6612,
      "faatu": 6613,
      "faagaa": 6614,
      "jaayante": 6615,
      "joxoñ": 6616,
      "noires": 6617,
      "remparts": 6618,
      "sauf": 6619,
      "verser": 6620,
      "ñàkke": 6621,
      "##acé": 6622,
      "##acés": 6623,
      "bayaal": 6624,
      "déging": 6625,
      "guddig": 6626,
      "connus": 6627,
      "connue": 6628,
      "connaî": 6629,
      "jëmale": 6630,
      "Aboŋ": 6631,
      "Abong": 6632,
      "bloc": 6633,
      "humour": 6634,
      "humains": 6635,
      "humide": 6636,
      "humidité": 6637,
      "jàngale": 6638,
      "weexul": 6639,
      "##tones": 6640,
      "##pling": 6641,
      "direction": 6642,
      "difficul": 6643,
      "taxawaay": 6644,
      "imagin": 6645,
      "imaginé": 6646,
      "géejug": 6647,
      "bàyyima": 6648,
      "Ceux": 6649,
      "offrir": 6650,
      "scalpel": 6651,
      "yeey": 6652,
      "##ormais": 6653,
      "interdit": 6654,
      "tuutee": 6655,
      "tàmbali": 6656,
      "souffert": 6657,
      "soufflet": 6658,
      "soufflait": 6659,
      "souffrent": 6660,
      "voyageur": 6661,
      "gunóori": 6662,
      "Buñ": 6663,
      "Kup": 6664,
      "cry": 6665,
      "crainte": 6666,
      "dana": 6667,
      "jotu": 6668,
      "laajee": 6669,
      "nouvelle": 6670,
      "nouveaux": 6671,
      "pressent": 6672,
      "tournée": 6673,
      "wetam": 6674,
      "wutale": 6675,
      "wutali": 6676,
      "àggee": 6677,
      "##érieux": 6678,
      "arbre": 6679,
      "soree": 6680,
      "sorewul": 6681,
      "répandue": 6682,
      "réputation": 6683,
      "Ibad": 6684,
      "Ngom": 6685,
      "Ngelaw": 6686,
      "Ngonk": 6687,
      "active": 6688,
      "baatu": 6689,
      "baagante": 6690,
      "dinan": 6691,
      "dinay": 6692,
      "distances": 6693,
      "flamb": 6694,
      "mode": 6695,
      "moitié": 6696,
      "rencontré": 6697,
      "relations": 6698,
      "ubbil": 6699,
      "ventres": 6700,
      "voient": 6701,
      "échec": 6702,
      "##pees": 6703,
      "bañoon": 6704,
      "secrète": 6705,
      "secrets": 6706,
      "guddee": 6707,
      "atta": 6708,
      "attir": 6709,
      "attend": 6710,
      "attendre": 6711,
      "campements": 6712,
      "doyu": 6713,
      "doyal": 6714,
      "effet": 6715,
      "effaçait": 6716,
      "géants": 6717,
      "jouaient": 6718,
      "turbul": 6719,
      "tàkkusaan": 6720,
      "venaient": 6721,
      "vécue": 6722,
      "xawma": 6723,
      "ñaq": 6724,
      "##ègre": 6725,
      "##ootul": 6726,
      "leeroon": 6727,
      "étrange": 6728,
      "revenu": 6729,
      "ndeyam": 6730,
      "Manul": 6731,
      "certain": 6732,
      "certainement": 6733,
      "gëdd": 6734,
      "gëjee": 6735,
      "garden": 6736,
      "gardait": 6737,
      "gardée": 6738,
      "islam": 6739,
      "immensité": 6740,
      "kilot": 6741,
      "tundi": 6742,
      "tundu": 6743,
      "voisins": 6744,
      "voisinage": 6745,
      "news": 6746,
      "infranch": 6747,
      "inflexi": 6748,
      "indiff": 6749,
      "indiens": 6750,
      "defaraat": 6751,
      "médical": 6752,
      "médicale": 6753,
      "takku": 6754,
      "takkarnaa": 6755,
      "takkandeer": 6756,
      "màggetloo": 6757,
      "Christ": 6758,
      "donné": 6759,
      "froide": 6760,
      "laissé": 6761,
      "laissées": 6762,
      "légende": 6763,
      "légendes": 6764,
      "maandu": 6765,
      "noppalu": 6766,
      "saisir": 6767,
      "saisons": 6768,
      "tabe": 6769,
      "tabure": 6770,
      "taboure": 6771,
      "xoolee": 6772,
      "##ailler": 6773,
      "##ailleurs": 6774,
      "dessine": 6775,
      "refer": 6776,
      "refaire": 6777,
      "reflét": 6778,
      "autoritaire": 6779,
      "assommé": 6780,
      "delloosi": 6781,
      "esprits": 6782,
      "James": 6783,
      "Parfois": 6784,
      "bindoo": 6785,
      "corruption": 6786,
      "crépus": 6787,
      "foufou": 6788,
      "fermée": 6789,
      "here": 6790,
      "heat": 6791,
      "opération": 6792,
      "sëq": 6793,
      "sëppu": 6794,
      "sensation": 6795,
      "soirs": 6796,
      "sangoo": 6797,
      "sangles": 6798,
      "taliy": 6799,
      "élan": 6800,
      "bateaux": 6801,
      "##ungli": 6802,
      "African": 6803,
      "Africain": 6804,
      "dépay": 6805,
      "dépassé": 6806,
      "défil": 6807,
      "déform": 6808,
      "défense": 6809,
      "anciennes": 6810,
      "feesal": 6811,
      "explication": 6812,
      "yëkkatiy": 6813,
      "devenait": 6814,
      "devenue": 6815,
      "devenues": 6816,
      "apparition": 6817,
      "frappait": 6818,
      "frappant": 6819,
      "Marie": 6820,
      "Masur": 6821,
      "Masul": 6822,
      "Masuma": 6823,
      "Nataalu": 6824,
      "irrée": 6825,
      "kayitam": 6826,
      "litté": 6827,
      "muraille": 6828,
      "murailles": 6829,
      "nëb": 6830,
      "nesi": 6831,
      "nesil": 6832,
      "sànq": 6833,
      "tawféex": 6834,
      "vraie": 6835,
      "bataille": 6836,
      "sukkandikoo": 6837,
      "incl": 6838,
      "inconnu": 6839,
      "plateau": 6840,
      "animal": 6841,
      "exerce": 6842,
      "exercice": 6843,
      "régul": 6844,
      "régions": 6845,
      "servait": 6846,
      "servaient": 6847,
      "perman": 6848,
      "permangan": 6849,
      "installent": 6850,
      "installaient": 6851,
      "accroché": 6852,
      "accrochées": 6853,
      "accrochent": 6854,
      "accompagne": 6855,
      "yeggee": 6856,
      "chevaux": 6857,
      "kilomètre": 6858,
      "yilifoon": 6859,
      "Këru": 6860,
      "Këram": 6861,
      "Njort": 6862,
      "Rien": 6863,
      "Riis": 6864,
      "fitn": 6865,
      "fiiw": 6866,
      "jubb": 6867,
      "jubale": 6868,
      "jiite": 6869,
      "kawari": 6870,
      "larmes": 6871,
      "penku": 6872,
      "penkub": 6873,
      "pleine": 6874,
      "rendait": 6875,
      "the": 6876,
      "utilise": 6877,
      "équateur": 6878,
      "équipe": 6879,
      "##bienne": 6880,
      "##ails": 6881,
      "débord": 6882,
      "safaan": 6883,
      "safara": 6884,
      "giifal": 6885,
      "jëfandi": 6886,
      "rappeler": 6887,
      "wutewul": 6888,
      "askanam": 6889,
      "palanteeram": 6890,
      "dispañseer": 6891,
      "dernier": 6892,
      "féexlu": 6893,
      "Comme": 6894,
      "Sunuy": 6895,
      "boyeti": 6896,
      "classe": 6897,
      "clampser": 6898,
      "daagoo": 6899,
      "daawul": 6900,
      "dàqee": 6901,
      "jaxasook": 6902,
      "kàttanu": 6903,
      "lune": 6904,
      "lunettes": 6905,
      "naissent": 6906,
      "poules": 6907,
      "poudre": 6908,
      "patam": 6909,
      "pattes": 6910,
      "règne": 6911,
      "sorcellerie": 6912,
      "source": 6913,
      "sourcils": 6914,
      "woyantu": 6915,
      "élevés": 6916,
      "##ditions": 6917,
      "destinés": 6918,
      "suivant": 6919,
      "suivait": 6920,
      "mbindaan": 6921,
      "simples": 6922,
      "constr": 6923,
      "constate": 6924,
      "njàmbal": 6925,
      "njàmburam": 6926,
      "jëkkër": 6927,
      "làmpu": 6928,
      "làmpi": 6929,
      "dogook": 6930,
      "apportait": 6931,
      "sampu": 6932,
      "rëbbi": 6933,
      "rëbbiy": 6934,
      "commencer": 6935,
      "commençait": 6936,
      "arrêter": 6937,
      "gouvernements": 6938,
      "Fekkoon": 6939,
      "Yoroubas": 6940,
      "canal": 6941,
      "cannes": 6942,
      "crav": 6943,
      "caractère": 6944,
      "durant": 6945,
      "dangay": 6946,
      "glacé": 6947,
      "kepp": 6948,
      "keppukaay": 6949,
      "kerewol": 6950,
      "mené": 6951,
      "menace": 6952,
      "méngaleek": 6953,
      "pénc": 6954,
      "tànku": 6955,
      "taaxu": 6956,
      "tableau": 6957,
      "vaguement": 6958,
      "évit": 6959,
      "évoque": 6960,
      "circul": 6961,
      "circule": 6962,
      "cinquante": 6963,
      "étendait": 6964,
      "changement": 6965,
      "invente": 6966,
      "siiwoon": 6967,
      "contrainte": 6968,
      "feyu": 6969,
      "existence": 6970,
      "jàmbat": 6971,
      "jàmbure": 6972,
      "respons": 6973,
      "respire": 6974,
      "respect": 6975,
      "toje": 6976,
      "alkaati": 6977,
      "1938": 6978,
      "1939": 6979,
      "1932": 6980,
      "ressembler": 6981,
      "décorée": 6982,
      "décorés": 6983,
      "ordres": 6984,
      "tàngaayam": 6985,
      "heureux": 6986,
      "loppitaan": 6987,
      "Kiku": 6988,
      "Kipli": 6989,
      "Kipling": 6990,
      "Nguu": 6991,
      "Nguur": 6992,
      "Portale": 6993,
      "boq": 6994,
      "boîtes": 6995,
      "balaa": 6996,
      "baaraamu": 6997,
      "camion": 6998,
      "cabine": 6999,
      "climat": 7000,
      "faim": 7001,
      "faite": 7002,
      "firnde": 7003,
      "futur": 7004,
      "gerte": 7005,
      "golfe": 7006,
      "kasaw": 7007,
      "léz": 7008,
      "lislaam": 7009,
      "miroirs": 7010,
      "moytu": 7011,
      "nombre": 7012,
      "spéci": 7013,
      "treize": 7014,
      "tata": 7015,
      "tatay": 7016,
      "tatawu": 7017,
      "tàggat": 7018,
      "tàggook": 7019,
      "wéeru": 7020,
      "wàccee": 7021,
      "xamadi": 7022,
      "yàkkali": 7023,
      "yàkkamtee": 7024,
      "yombul": 7025,
      "ñaawtéef": 7026,
      "ensuite": 7027,
      "chercher": 7028,
      "fattu": 7029,
      "##roleum": 7030,
      "mbooleem": 7031,
      "combat": 7032,
      "njortoon": 7033,
      "fullaal": 7034,
      "manières": 7035,
      "manifes": 7036,
      "terrain": 7037,
      "1919": 7038,
      "1914": 7039,
      "1913": 7040,
      "1940": 7041,
      "1960": 7042,
      "tiitaange": 7043,
      "jànqi": 7044,
      "yóbboo": 7045,
      "reconnu": 7046,
      "reconnais": 7047,
      "reconnaître": 7048,
      "brûlantes": 7049,
      "cruauté": 7050,
      "occidentale": 7051,
      "occidentaux": 7052,
      "rencontre": 7053,
      "religion": 7054,
      "religieux": 7055,
      "étrangers": 7056,
      "étrangeté": 7057,
      "##añseeru": 7058,
      "écouterai": 7059,
      "opeeree": 7060,
      "opeerekat": 7061,
      "utilisait": 7062,
      "guerrières": 7063,
      "xëccoo": 7064,
      "ennemis": 7065,
      "administrateurs": 7066,
      "Babungoo": 7067,
      "Diggante": 7068,
      "Déjà": 7069,
      "berke": 7070,
      "bergers": 7071,
      "bourbou": 7072,
      "bànq": 7073,
      "centre": 7074,
      "centaines": 7075,
      "cousu": 7076,
      "européens": 7077,
      "héro": 7078,
      "héris": 7079,
      "igname": 7080,
      "kókkali": 7081,
      "kókkalee": 7082,
      "kurti": 7083,
      "lampes": 7084,
      "mouches": 7085,
      "naroon": 7086,
      "nourris": 7087,
      "nourriture": 7088,
      "pratique": 7089,
      "pareille": 7090,
      "pareils": 7091,
      "reew": 7092,
      "rasu": 7093,
      "rabi": 7094,
      "ràkkaaj": 7095,
      "rompre": 7096,
      "rassur": 7097,
      "sarwi": 7098,
      "seey": 7099,
      "seeti": 7100,
      "sombres": 7101,
      "sànneeku": 7102,
      "sàppi": 7103,
      "tenue": 7104,
      "usure": 7105,
      "vertic": 7106,
      "variole": 7107,
      "wéetaay": 7108,
      "xiif": 7109,
      "xiibon": 7110,
      "xërëmkat": 7111,
      "yaatoo": 7112,
      "yaatal": 7113,
      "##bules": 7114,
      "dibéer": 7115,
      "digaal": 7116,
      "biafraise": 7117,
      "avancée": 7118,
      "parcouru": 7119,
      "chantant": 7120,
      "cafko": 7121,
      "causé": 7122,
      "causer": 7123,
      "antip": 7124,
      "enfoncer": 7125,
      "naawantu": 7126,
      "waxtoom": 7127,
      "waxtaane": 7128,
      "excluait": 7129,
      "extrême": 7130,
      "broussailles": 7131,
      "chapeau": 7132,
      "journées": 7133,
      "journaux": 7134,
      "terrible": 7135,
      "lointaine": 7136,
      "inspiré": 7137,
      "disparaissait": 7138,
      "employés": 7139,
      "emporter": 7140,
      "résidence": 7141,
      "résidents": 7142,
      "communauté": 7143,
      "échappé": 7144,
      "échapper": 7145,
      "infirmière": 7146,
      "ganesi": 7147,
      "Yoruba": 7148,
      "méngale": 7149,
      "moustiquaires": 7150,
      "Allemagne": 7151,
      "gàncaxu": 7152,
      "njàqareg": 7153,
      "Booba": 7154,
      "Baterig": 7155,
      "Baterik": 7156,
      "Bawop": 7157,
      "Bawob": 7158,
      "Foulanis": 7159,
      "Foumban": 7160,
      "Farm": 7161,
      "Farãs": 7162,
      "Ijama": 7163,
      "Londar": 7164,
      "Londres": 7165,
      "Malgré": 7166,
      "Onits": 7167,
      "Xaley": 7168,
      "cancrel": 7169,
      "darab": 7170,
      "daraak": 7171,
      "dressaient": 7172,
      "faraňse": 7173,
      "geste": 7174,
      "gestes": 7175,
      "goyave": 7176,
      "jeeg": 7177,
      "jaawale": 7178,
      "jaaxal": 7179,
      "jaaxle": 7180,
      "lourdement": 7181,
      "poison": 7182,
      "papay": 7183,
      "papillons": 7184,
      "ramener": 7185,
      "ronger": 7186,
      "rituels": 7187,
      "sommets": 7188,
      "torches": 7189,
      "walbati": 7190,
      "xullee": 7191,
      "xultu": 7192,
      "xotti": 7193,
      "xottu": 7194,
      "yàlla": 7195,
      "yàllay": 7196,
      "àttan": 7197,
      "àttaaya": 7198,
      "ňàkkum": 7199,
      "##tónu": 7200,
      "##kly": 7201,
      "quinze": 7202,
      "maîtresses": 7203,
      "uniquement": 7204,
      "musulmans": 7205,
      "descendre": 7206,
      "nawetu": 7207,
      "teersi": 7208,
      "teerusi": 7209,
      "avez": 7210,
      "aveug": 7211,
      "démolir": 7212,
      "mbembe": 7213,
      "mbembé": 7214,
      "sida": 7215,
      "sidaa": 7216,
      "siboon": 7217,
      "anecdote": 7218,
      "jullit": 7219,
      "troupeau": 7220,
      "troupeaux": 7221,
      "trapèze": 7222,
      "trapèzes": 7223,
      "mariage": 7224,
      "allumette": 7225,
      "compagnie": 7226,
      "compagnons": 7227,
      "perçois": 7228,
      "cassure": 7229,
      "xaritoo": 7230,
      "préparer": 7231,
      "Mbembe": 7232,
      "Mbembé": 7233,
      "dangereux": 7234,
      "tourbillon": 7235,
      "flamme": 7236,
      "flammes": 7237,
      "endurci": 7238,
      "endurcis": 7239,
      "naqarlu": 7240,
      "représentent": 7241,
      "transform": 7242,
      "refusait": 7243,
      "continuent": 7244,
      "Demerara": 7245,
      "Demeraraa": 7246,
      "màndargay": 7247,
      "baaraami": 7248,
      "domestiques": 7249,
      "trempée": 7250,
      "Banyo": 7251,
      "Banyook": 7252,
      "Colonie": 7253,
      "ruisseau": 7254,
      "ruisseaux": 7255,
      "principes": 7256,
      "adolescence": 7257,
      "recommencer": 7258,
      "recommençait": 7259,
      "extraordinairement": 7260,
      "Agwu": 7261,
      "Aadamawaa": 7262,
      "Barcl": 7263,
      "Imitation": 7264,
      "John": 7265,
      "Kenya": 7266,
      "Kaburi": 7267,
      "Kàttan": 7268,
      "Miin": 7269,
      "Mills": 7270,
      "Normàndi": 7271,
      "Sinuwaa": 7272,
      "Saxaraa": 7273,
      "Touareg": 7274,
      "Tàngaay": 7275,
      "Voyage": 7276,
      "bref": 7277,
      "bleues": 7278,
      "baraag": 7279,
      "caagin": 7280,
      "coutume": 7281,
      "coiffés": 7282,
      "callweer": 7283,
      "draps": 7284,
      "dàttu": 7285,
      "fëlle": 7286,
      "fésal": 7287,
      "folkl": 7288,
      "filtre": 7289,
      "faatoo": 7290,
      "figé": 7291,
      "gouttière": 7292,
      "gagner": 7293,
      "hiver": 7294,
      "hygi": 7295,
      "harmon": 7296,
      "héritage": 7297,
      "ibo": 7298,
      "irokos": 7299,
      "jeter": 7300,
      "jaabante": 7301,
      "mandat": 7302,
      "mouvement": 7303,
      "màkkaani": 7304,
      "mystérieux": 7305,
      "pâtes": 7306,
      "porc": 7307,
      "pelouse": 7308,
      "paaka": 7309,
      "ràŋŋati": 7310,
      "réelle": 7311,
      "reetaan": 7312,
      "robes": 7313,
      "sûrs": 7314,
      "siraas": 7315,
      "sommes": 7316,
      "suspend": 7317,
      "soupir": 7318,
      "tombu": 7319,
      "tënk": 7320,
      "totale": 7321,
      "tigi": 7322,
      "taillée": 7323,
      "vêtu": 7324,
      "vallée": 7325,
      "wisit": 7326,
      "waaso": 7327,
      "xeej": 7328,
      "xund": 7329,
      "xàmbi": 7330,
      "yendoo": 7331,
      "àntuwul": 7332,
      "évid": 7333,
      "éléph": 7334,
      "ófisey": 7335,
      "##fantoo": 7336,
      "##amtiwuñu": 7337,
      "civilis": 7338,
      "quartier": 7339,
      "lemu": 7340,
      "mauvaise": 7341,
      "navigu": 7342,
      "sept": 7343,
      "chirurgien": 7344,
      "fajukaay": 7345,
      "retirer": 7346,
      "reconstruire": 7347,
      "détruire": 7348,
      "dénudée": 7349,
      "amertume": 7350,
      "inventé": 7351,
      "mbalit": 7352,
      "survivre": 7353,
      "plongeait": 7354,
      "##sibilité": 7355,
      "ndaje": 7356,
      "gratuite": 7357,
      "njariñ": 7358,
      "itinérant": 7359,
      "excessive": 7360,
      "exceptionnel": 7361,
      "làppto": 7362,
      "métall": 7363,
      "yëguñu": 7364,
      "brindille": 7365,
      "trônes": 7366,
      "absurde": 7367,
      "mandibules": 7368,
      "approche": 7369,
      "écrouler": 7370,
      "généreux": 7371,
      "carrossable": 7372,
      "messieurs": 7373,
      "perdue": 7374,
      "instrument": 7375,
      "accouchement": 7376,
      "fruitiers": 7377,
      "1954": 7378,
      "portraits": 7379,
      "impossibilité": 7380,
      "impeccablement": 7381,
      "déclar": 7382,
      "agrandis": 7383,
      "épaisseur": 7384,
      "nonchalante": 7385,
      "adulte": 7386,
      "admirable": 7387,
      "visible": 7388,
      "herbeuses": 7389,
      "pikiir": 7390,
      "bàyyeeku": 7391,
      "affluent": 7392,
      "essay": 7393,
      "conservé": 7394,
      "remonter": 7395,
      "officie": 7396,
      "souffrance": 7397,
      "effectivement": 7398,
      "effrayant": 7399,
      "ruuj": 7400,
      "captur": 7401,
      "poings": 7402,
      "xiiroon": 7403,
      "chauffeur": 7404,
      "expérience": 7405,
      "iróko": 7406,
      "bataaxal": 7407,
      "incapable": 7408,
      "dispensaire": 7409,
      "Fàttewuma": 7410,
      "caravane": 7411,
      "politique": 7412,
      "policiers": 7413,
      "événements": 7414,
      "Garabi": 7415,
      "minuscules": 7416,
      "statues": 7417,
      "signifiaient": 7418,
      "enfermement": 7419,
      "profondeur": 7420,
      "Juróomi": 7421,
      "jànkonteel": 7422,
      "pessimisme": 7423,
      "opposée": 7424,
      "parfaitement": 7425,
      "fentaakon": 7426,
      "fréquentaient": 7427,
      "population": 7428,
      "roppëlaan": 7429,
      "caricaturale": 7430,
      "Accra": 7431,
      "Blancs": 7432,
      "Broadcas": 7433,
      "Booyd": 7434,
      "Cawnp": 7435,
      "Cotonou": 7436,
      "Cameroons": 7437,
      "Corporation": 7438,
      "Congo": 7439,
      "Danoo": 7440,
      "Douala": 7441,
      "Disp": 7442,
      "Duwaalaa": 7443,
      "Ermen": 7444,
      "Enugu": 7445,
      "Farañse": 7446,
      "Fungom": 7447,
      "Fumbaŋ": 7448,
      "Fàttalikuwuma": 7449,
      "Glynn": 7450,
      "Gesam": 7451,
      "Géej": 7452,
      "Gunóor": 7453,
      "Guezz": 7454,
      "General": 7455,
      "Ghana": 7456,
      "Hoggar": 7457,
      "Jafe": 7458,
      "Jésus": 7459,
      "Joyce": 7460,
      "Journal": 7461,
      "Jàngewuma": 7462,
      "Kótónu": 7463,
      "Kiris": 7464,
      "Kamakus": 7465,
      "Kilifay": 7466,
      "Kàddu": 7467,
      "Kwaja": 7468,
      "Kishong": 7469,
      "Lloyd": 7470,
      "Longtemps": 7471,
      "Memf": 7472,
      "Màkkaanu": 7473,
      "Noël": 7474,
      "Nsungli": 7475,
      "Nowel": 7476,
      "Philippus": 7477,
      "Petroleum": 7478,
      "Pensées": 7479,
      "Sams": 7480,
      "Sauf": 7481,
      "Seneraal": 7482,
      "Shell": 7483,
      "Wéetaay": 7484,
      "Wapiri": 7485,
      "Yàkkamtiwuñu": 7486,
      "aakimu": 7487,
      "aliment": 7488,
      "baignés": 7489,
      "bindu": 7490,
      "bonnes": 7491,
      "cérémon": 7492,
      "dortoirs": 7493,
      "ginaar": 7494,
      "gangrène": 7495,
      "geestu": 7496,
      "hasard": 7497,
      "horiz": 7498,
      "ivresse": 7499,
      "jéyya": 7500,
      "jokkook": 7501,
      "jommal": 7502,
      "laiton": 7503,
      "lottal": 7504,
      "laaxira": 7505,
      "léthar": 7506,
      "lóoxóor": 7507,
      "morsures": 7508,
      "odeurs": 7509,
      "oiseaux": 7510,
      "océan": 7511,
      "pëti": 7512,
      "pàpaaya": 7513,
      "pentuur": 7514,
      "patients": 7515,
      "pidgin": 7516,
      "période": 7517,
      "prickly": 7518,
      "péexu": 7519,
      "pacifi": 7520,
      "règnent": 7521,
      "romans": 7522,
      "rangooñ": 7523,
      "ratta": 7524,
      "siso": 7525,
      "singes": 7526,
      "titre": 7527,
      "tristesse": 7528,
      "tonnerre": 7529,
      "téeméeri": 7530,
      "taraapees": 7531,
      "ulc": 7532,
      "végétation": 7533,
      "vitesse": 7534,
      "vautours": 7535,
      "wallay": 7536,
      "xocc": 7537,
      "xóll": 7538,
      "xorom": 7539,
      "zéb": 7540,
      "Àddinay": 7541,
      "Àbbaa": 7542,
      "Ësen": 7543,
      "ébène": 7544,
      "énergie": 7545,
      "ňeenti": 7546,
      "œufs": 7547,
      "##fitiiru": 7548,
      "deretu": 7549,
      "civile": 7550,
      "deseetuñu": 7551,
      "dimension": 7552,
      "ngato": 7553,
      "parapluies": 7554,
      "parpaing": 7555,
      "##defondi": 7556,
      "##ologie": 7557,
      "mondiale": 7558,
      "étincelle": 7559,
      "chatte": 7560,
      "choix": 7561,
      "chrétiens": 7562,
      "choisi": 7563,
      "facile": 7564,
      "favoris": 7565,
      "délicatement": 7566,
      "dévorant": 7567,
      "lijjanti": 7568,
      "inaccessible": 7569,
      "mbëggeel": 7570,
      "mbañeel": 7571,
      "ndéwénal": 7572,
      "victimes": 7573,
      "armiňoŋ": 7574,
      "mënuta": 7575,
      "njaaxum": 7576,
      "njiitlaay": 7577,
      "sovié": 7578,
      "massacre": 7579,
      "Leica": 7580,
      "marécages": 7581,
      "margouillats": 7582,
      "autochtones": 7583,
      "wuyuji": 7584,
      "Tuwaareg": 7585,
      "complètement": 7586,
      "alaateret": 7587,
      "instructions": 7588,
      "immeuble": 7589,
      "discussions": 7590,
      "cocktails": 7591,
      "aussitôt": 7592,
      "empoussiérés": 7593,
      "résultat": 7594,
      "niróotuñu": 7595,
      "puudar": 7596,
      "faagaagal": 7597,
      "connaît": 7598,
      "infranchiss": 7599,
      "inflexible": 7600,
      "takkarnaase": 7601,
      "tabourets": 7602,
      "crépuscule": 7603,
      "Kipliŋ": 7604,
      "bourbouille": 7605,
      "cancrelats": 7606,
      "walbatiku": 7607,
      "Barclay": 7608,
      "hygiène": 7609,
      "Broadcasting": 7610,
      "Cawnpore": 7611,
      "Guezzam": 7612,
      "!)": 7613,
      "',": 7614,
      "'«": 7615,
      ".)": 7616,
      ".”": 7617,
      "4e": 7618,
      "60": 7619,
      "90": 7620,
      "?,": 7621,
      "?”": 7622,
      "Aa": 7623,
      "Aur": 7624,
      "Ara": 7625,
      "Aut": 7626,
      "Abb": 7627,
      "Ache": 7628,
      "Ama": 7629,
      "Aba": 7630,
      "Aim": 7631,
      "Asee": 7632,
      "Br": 7633,
      "Be": 7634,
      "Bà": 7635,
      "Bir": 7636,
      "Box": 7637,
      "Boy": 7638,
      "Bii": 7639,
      "Beneen": 7640,
      "Buy": 7641,
      "Bool": 7642,
      "Bind": 7643,
      "Bàmb": 7644,
      "Bëgg": 7645,
      "Boot": 7646,
      "Beŋ": 7647,
      "Baatu": 7648,
      "Bares": 7649,
      "Baxam": 7650,
      "Bóoy": 7651,
      "Bala": 7652,
      "Bouton": 7653,
      "Boyd": 7654,
      "Boches": 7655,
      "Con": 7656,
      "Car": 7657,
      "Cas": 7658,
      "Cig": 7659,
      "Ciy": 7660,
      "Coppi": 7661,
      "Càdd": 7662,
      "Cast": 7663,
      "Cucu": 7664,
      "Don": 7665,
      "Dee": 7666,
      "Dun": 7667,
      "Dés": 7668,
      "Doom": 7669,
      "Dën": 7670,
      "Doy": 7671,
      "Dang": 7672,
      "Dunu": 7673,
      "Dii": 7674,
      "Danu": 7675,
      "Dong": 7676,
      "Dóo": 7677,
      "Dëg": 7678,
      "Damay": 7679,
      "Dinay": 7680,
      "Dàt": 7681,
      "Damaa": 7682,
      "Dinaa": 7683,
      "Daud": 7684,
      "Elles": 7685,
      "Eug": 7686,
      "Eng": 7687,
      "Eñse": 7688,
      "Ekos": 7689,
      "Esse": 7690,
      "Fe": 7691,
      "Fo": 7692,
      "Fre": 7693,
      "Fin": 7694,
      "Fir": 7695,
      "Fais": 7696,
      "Fenn": 7697,
      "Fort": 7698,
      "Fow": 7699,
      "Fomp": 7700,
      "Faj": 7701,
      "Face": 7702,
      "Fecc": 7703,
      "Gaa": 7704,
      "Gan": 7705,
      "Gul": 7706,
      "Gau": 7707,
      "Gox": 7708,
      "Gaal": 7709,
      "Gard": 7710,
      "Gine": 7711,
      "Gàng": 7712,
      "Gise": 7713,
      "Ganu": 7714,
      "Gànn": 7715,
      "Gàdd": 7716,
      "Góol": 7717,
      "Gide": 7718,
      "Gole": 7719,
      "Gest": 7720,
      "Gól": 7721,
      "Ha": 7722,
      "Hom": 7723,
      "Hagg": 7724,
      "Huston": 7725,
      "It": 7726,
      "Ill": 7727,
      "Ise": 7728,
      "Ital": 7729,
      "Ji": 7730,
      "Jë": 7731,
      "Jon": 7732,
      "Jant": 7733,
      "Jul": 7734,
      "Jons": 7735,
      "Jum": 7736,
      "Jox": 7737,
      "Jouv": 7738,
      "Jot": 7739,
      "Jooy": 7740,
      "Jeex": 7741,
      "Jàng": 7742,
      "Joŋ": 7743,
      "Jose": 7744,
      "Jaww": 7745,
      "Koo": 7746,
      "Ker": 7747,
      "Kers": 7748,
      "Kaaw": 7749,
      "Kook": 7750,
      "Kii": 7751,
      "Kuy": 7752,
      "Kaas": 7753,
      "Kuw": 7754,
      "Kanaa": 7755,
      "Keŋ": 7756,
      "Kóo": 7757,
      "Keeñ": 7758,
      "Kwol": 7759,
      "Keñ": 7760,
      "Kumand": 7761,
      "Loo": 7762,
      "Lou": 7763,
      "Lee": 7764,
      "Looy": 7765,
      "Loin": 7766,
      "Lii": 7767,
      "Lord": 7768,
      "Lui": 7769,
      "Lors": 7770,
      "Làpp": 7771,
      "Lëpp": 7772,
      "Mr": 7773,
      "Mons": 7774,
      "Maw": 7775,
      "Maar": 7776,
      "Mig": 7777,
      "Mois": 7778,
      "Moin": 7779,
      "Mak": 7780,
      "Maas": 7781,
      "Mili": 7782,
      "Mandi": 7783,
      "Même": 7784,
      "Maria": 7785,
      "Nt": 7786,
      "Ny": 7787,
      "Nb": 7788,
      "Nes": 7789,
      "Nte": 7790,
      "Nee": 7791,
      "Nti": 7792,
      "Nag": 7793,
      "Ndi": 7794,
      "Naat": 7795,
      "Ngal": 7796,
      "Nàkk": 7797,
      "Nuy": 7798,
      "Nju": 7799,
      "Nji": 7800,
      "Namm": 7801,
      "Noirs": 7802,
      "Ow": 7803,
      "Ob": 7804,
      "Occ": 7805,
      "Oui": 7806,
      "Oju": 7807,
      "Pë": 7808,
      "Pen": 7809,
      "Pan": 7810,
      "Pre": 7811,
      "Pis": 7812,
      "Pas": 7813,
      "Père": 7814,
      "Plu": 7815,
      "Pont": 7816,
      "Panam": 7817,
      "Puur": 7818,
      "Pég": 7819,
      "Paj": 7820,
      "Pecc": 7821,
      "Re": 7822,
      "Ru": 7823,
      "Rë": 7824,
      "Ren": 7825,
      "Roo": 7826,
      "Rou": 7827,
      "Ris": 7828,
      "Rag": 7829,
      "Riy": 7830,
      "Romb": 7831,
      "Rokk": 7832,
      "Ruus": 7833,
      "Raj": 7834,
      "Roque": 7835,
      "Rud": 7836,
      "Reew": 7837,
      "Raayd": 7838,
      "Sc": 7839,
      "Sen": 7840,
      "Sou": 7841,
      "Ser": 7842,
      "Sel": 7843,
      "Sàn": 7844,
      "Sol": 7845,
      "Sous": 7846,
      "Sox": 7847,
      "Sain": 7848,
      "Sot": 7849,
      "Sil": 7850,
      "Sén": 7851,
      "Sii": 7852,
      "Sors": 7853,
      "Sow": 7854,
      "Soppi": 7855,
      "Sok": 7856,
      "Sañ": 7857,
      "Sangu": 7858,
      "Sende": 7859,
      "Sindax": 7860,
      "Scal": 7861,
      "Sësu": 7862,
      "Shot": 7863,
      "Sulu": 7864,
      "To": 7865,
      "Tl": 7866,
      "Të": 7867,
      "Tó": 7868,
      "Tan": 7869,
      "Tal": 7870,
      "Tur": 7871,
      "Tax": 7872,
      "Tel": 7873,
      "Tus": 7874,
      "Tab": 7875,
      "Taw": 7876,
      "Tali": 7877,
      "Tub": 7878,
      "Terre": 7879,
      "Tang": 7880,
      "Toute": 7881,
      "Tont": 7882,
      "Tool": 7883,
      "Tim": 7884,
      "Toolu": 7885,
      "Tàmb": 7886,
      "Tañ": 7887,
      "Tàmm": 7888,
      "Tumb": 7889,
      "Taali": 7890,
      "Timis": 7891,
      "Uni": 7892,
      "Uru": 7893,
      "Ver": 7894,
      "Vous": 7895,
      "Vers": 7896,
      "Vingt": 7897,
      "We": 7898,
      "Wu": 7899,
      "Won": 7900,
      "Wer": 7901,
      "Wet": 7902,
      "Way": 7903,
      "Wil": 7904,
      "Will": 7905,
      "Wiya": 7906,
      "Waxam": 7907,
      "Wotoom": 7908,
      "Wanté": 7909,
      "Xe": 7910,
      "Xal": 7911,
      "Xama": 7912,
      "Xaaj": 7913,
      "Xaj": 7914,
      "Xeetu": 7915,
      "Xetu": 7916,
      "Xumb": 7917,
      "Xaju": 7918,
      "Ye": 7919,
      "Yi": 7920,
      "Yó": 7921,
      "Yee": 7922,
      "Yem": 7923,
      "Yang": 7924,
      "Yére": 7925,
      "Yëg": 7926,
      "Yedd": 7927,
      "Yaŋ": 7928,
      "Yóobu": 7929,
      "Yëf": 7930,
      "Yuston": 7931,
      "Zou": 7932,
      "Zind": 7933,
      "aa": 7934,
      "aî": 7935,
      "aň": 7936,
      "ait": 7937,
      "aas": 7938,
      "agg": 7939,
      "alu": 7940,
      "aci": 7941,
      "awu": 7942,
      "awe": 7943,
      "apl": 7944,
      "axe": 7945,
      "aji": 7946,
      "aéri": 7947,
      "aper": 7948,
      "ajoo": 7949,
      "afin": 7950,
      "acier": 7951,
      "bœ": 7952,
      "bul": 7953,
      "bën": 7954,
      "bos": 7955,
      "bro": 7956,
      "bër": 7957,
      "band": 7958,
      "bec": 7959,
      "bra": 7960,
      "baal": 7961,
      "bén": 7962,
      "bàkk": 7963,
      "baak": 7964,
      "baab": 7965,
      "boute": 7966,
      "bànk": 7967,
      "bles": 7968,
      "bêt": 7969,
      "banu": 7970,
      "boire": 7971,
      "bains": 7972,
      "bóom": 7973,
      "bamb": 7974,
      "bandé": 7975,
      "brac": 7976,
      "bancs": 7977,
      "bouses": 7978,
      "benke": 7979,
      "bitig": 7980,
      "balles": 7981,
      "cre": 7982,
      "cle": 7983,
      "cau": 7984,
      "cale": 7985,
      "couv": 7986,
      "cub": 7987,
      "cort": 7988,
      "caax": 7989,
      "coute": 7990,
      "cord": 7991,
      "céy": 7992,
      "cors": 7993,
      "centi": 7994,
      "cokk": 7995,
      "coun": 7996,
      "céc": 7997,
      "couver": 7998,
      "corm": 7999,
      "canni": 8000,
      "càmm": 8001,
      "calle": 8002,
      "caill": 8003,
      "creux": 8004,
      "caisse": 8005,
      "cœurs": 8006,
      "coxor": 8007,
      "dî": 8008,
      "dor": 8009,
      "dol": 8010,
      "dat": 8011,
      "daar": 8012,
      "dout": 8013,
      "dot": 8014,
      "durs": 8015,
      "déeg": 8016,
      "dooy": 8017,
      "dard": 8018,
      "danger": 8019,
      "déegu": 8020,
      "dame": 8021,
      "déedéet": 8022,
      "damaa": 8023,
      "densité": 8024,
      "eut": 8025,
      "ect": 8026,
      "fî": 8027,
      "fâ": 8028,
      "fal": 8029,
      "fant": 8030,
      "fàn": 8031,
      "fale": 8032,
      "foi": 8033,
      "faal": 8034,
      "feek": 8035,
      "frè": 8036,
      "fiy": 8037,
      "fris": 8038,
      "font": 8039,
      "faari": 8040,
      "fett": 8041,
      "fitu": 8042,
      "fànn": 8043,
      "foto": 8044,
      "furi": 8045,
      "firi": 8046,
      "fóot": 8047,
      "fomm": 8048,
      "fuss": 8049,
      "fils": 8050,
      "fonk": 8051,
      "furu": 8052,
      "fument": 8053,
      "fotoom": 8054,
      "fûts": 8055,
      "faayd": 8056,
      "gh": 8057,
      "gê": 8058,
      "gen": 8059,
      "gre": 8060,
      "gee": 8061,
      "gom": 8062,
      "gaar": 8063,
      "gale": 8064,
      "gain": 8065,
      "gra": 8066,
      "gend": 8067,
      "gépp": 8068,
      "gàkk": 8069,
      "géew": 8070,
      "gane": 8071,
      "gond": 8072,
      "ganu": 8073,
      "gàpp": 8074,
      "gamb": 8075,
      "gaana": 8076,
      "gàññ": 8077,
      "gaines": 8078,
      "game": 8079,
      "gedd": 8080,
      "gâte": 8081,
      "geetar": 8082,
      "grac": 8083,
      "gumba": 8084,
      "gâteaux": 8085,
      "geñ": 8086,
      "góomam": 8087,
      "hu": 8088,
      "hant": 8089,
      "hos": 8090,
      "hale": 8091,
      "hub": 8092,
      "hors": 8093,
      "hété": 8094,
      "hanche": 8095,
      "hame": 8096,
      "hume": 8097,
      "happ": 8098,
      "holl": 8099,
      "hanté": 8100,
      "hospital": 8101,
      "houx": 8102,
      "halée": 8103,
      "idé": 8104,
      "ident": 8105,
      "jée": 8106,
      "jaan": 8107,
      "jab": 8108,
      "jépp": 8109,
      "joy": 8110,
      "jali": 8111,
      "jeek": 8112,
      "jad": 8113,
      "jonn": 8114,
      "jaloo": 8115,
      "jaamu": 8116,
      "jaare": 8117,
      "jeté": 8118,
      "kw": 8119,
      "kor": 8120,
      "kën": 8121,
      "kem": 8122,
      "keek": 8123,
      "kort": 8124,
      "kare": 8125,
      "kaab": 8126,
      "kors": 8127,
      "kaas": 8128,
      "kamp": 8129,
      "kàcc": 8130,
      "kap": 8131,
      "keem": 8132,
      "kañ": 8133,
      "kekk": 8134,
      "kees": 8135,
      "kaani": 8136,
      "kañseer": 8137,
      "kaasi": 8138,
      "ly": 8139,
      "lai": 8140,
      "lin": 8141,
      "laal": 8142,
      "lali": 8143,
      "leek": 8144,
      "lang": 8145,
      "lone": 8146,
      "làng": 8147,
      "laab": 8148,
      "lord": 8149,
      "lànk": 8150,
      "lanc": 8151,
      "lop": 8152,
      "lëm": 8153,
      "lines": 8154,
      "lame": 8155,
      "leere": 8156,
      "laamu": 8157,
      "lances": 8158,
      "lâcher": 8159,
      "lende": 8160,
      "lenge": 8161,
      "leew": 8162,
      "my": 8163,
      "mai": 8164,
      "mee": 8165,
      "moon": 8166,
      "mit": 8167,
      "mans": 8168,
      "màn": 8169,
      "mol": 8170,
      "mër": 8171,
      "mali": 8172,
      "mens": 8173,
      "mante": 8174,
      "mois": 8175,
      "mord": 8176,
      "morp": 8177,
      "meri": 8178,
      "mokk": 8179,
      "màcc": 8180,
      "minu": 8181,
      "mines": 8182,
      "mène": 8183,
      "mouch": 8184,
      "miné": 8185,
      "mailles": 8186,
      "móolu": 8187,
      "mâcher": 8188,
      "malles": 8189,
      "mobilis": 8190,
      "nn": 8191,
      "nœ": 8192,
      "née": 8193,
      "naar": 8194,
      "nàkk": 8195,
      "nooy": 8196,
      "nette": 8197,
      "noor": 8198,
      "nàpp": 8199,
      "nàcc": 8200,
      "nommé": 8201,
      "noté": 8202,
      "nègre": 8203,
      "ok": 8204,
      "ol": 8205,
      "os": 8206,
      "ora": 8207,
      "oisi": 8208,
      "oto": 8209,
      "osse": 8210,
      "oasis": 8211,
      "pè": 8212,
      "pê": 8213,
      "pan": 8214,
      "pai": 8215,
      "pur": 8216,
      "pul": 8217,
      "pag": 8218,
      "për": 8219,
      "pne": 8220,
      "paire": 8221,
      "paiss": 8222,
      "paas": 8223,
      "péey": 8224,
      "pains": 8225,
      "pente": 8226,
      "pures": 8227,
      "pagne": 8228,
      "pût": 8229,
      "pince": 8230,
      "pâte": 8231,
      "poign": 8232,
      "paxam": 8233,
      "paumes": 8234,
      "pandé": 8235,
      "pàttali": 8236,
      "pitié": 8237,
      "prières": 8238,
      "pàttaliku": 8239,
      "ró": 8240,
      "rô": 8241,
      "raa": 8242,
      "ron": 8243,
      "roo": 8244,
      "rax": 8245,
      "ros": 8246,
      "rand": 8247,
      "rot": 8248,
      "rig": 8249,
      "rang": 8250,
      "ryaa": 8251,
      "ruy": 8252,
      "ranc": 8253,
      "ruse": 8254,
      "rendant": 8255,
      "russ": 8256,
      "rations": 8257,
      "reere": 8258,
      "ramm": 8259,
      "rose": 8260,
      "roñ": 8261,
      "roch": 8262,
      "roches": 8263,
      "ritue": 8264,
      "rires": 8265,
      "san": 8266,
      "saay": 8267,
      "sul": 8268,
      "sque": 8269,
      "sat": 8270,
      "stre": 8271,
      "saw": 8272,
      "sale": 8273,
      "sout": 8274,
      "sër": 8275,
      "sand": 8276,
      "stu": 8277,
      "sté": 8278,
      "sóor": 8279,
      "sci": 8280,
      "sois": 8281,
      "saak": 8282,
      "saab": 8283,
      "sages": 8284,
      "sér": 8285,
      "sàtt": 8286,
      "situ": 8287,
      "ség": 8288,
      "siti": 8289,
      "santu": 8290,
      "sàq": 8291,
      "sëgg": 8292,
      "saill": 8293,
      "sinu": 8294,
      "sœur": 8295,
      "seere": 8296,
      "sàndar": 8297,
      "santi": 8298,
      "syst": 8299,
      "sóob": 8300,
      "séex": 8301,
      "salon": 8302,
      "scier": 8303,
      "sàrt": 8304,
      "small": 8305,
      "sàqu": 8306,
      "stru": 8307,
      "sóf": 8308,
      "sparti": 8309,
      "ty": 8310,
      "taa": 8311,
      "tal": 8312,
      "tin": 8313,
      "tol": 8314,
      "tch": 8315,
      "taaw": 8316,
      "taire": 8317,
      "taam": 8318,
      "tont": 8319,
      "torp": 8320,
      "tors": 8321,
      "tane": 8322,
      "tili": 8323,
      "tenir": 8324,
      "tenu": 8325,
      "tendant": 8326,
      "trict": 8327,
      "tables": 8328,
      "tendre": 8329,
      "tantes": 8330,
      "taaral": 8331,
      "tàndar": 8332,
      "tenant": 8333,
      "tress": 8334,
      "tooke": 8335,
      "téw": 8336,
      "tettee": 8337,
      "taasu": 8338,
      "tumul": 8339,
      "trép": 8340,
      "tasses": 8341,
      "upp": 8342,
      "uti": 8343,
      "uré": 8344,
      "use": 8345,
      "usé": 8346,
      "uppukaay": 8347,
      "vr": 8348,
      "vé": 8349,
      "ves": 8350,
      "van": 8351,
      "vit": 8352,
      "vir": 8353,
      "vom": 8354,
      "vul": 8355,
      "vos": 8356,
      "vaine": 8357,
      "vert": 8358,
      "venir": 8359,
      "vente": 8360,
      "viri": 8361,
      "véri": 8362,
      "vété": 8363,
      "vainement": 8364,
      "vaincre": 8365,
      "wo": 8366,
      "wur": 8367,
      "wit": 8368,
      "wel": 8369,
      "wag": 8370,
      "wat": 8371,
      "wot": 8372,
      "week": 8373,
      "wén": 8374,
      "ware": 8375,
      "wure": 8376,
      "wël": 8377,
      "wóol": 8378,
      "wàññ": 8379,
      "wiya": 8380,
      "waleek": 8381,
      "west": 8382,
      "wóomam": 8383,
      "xer": 8384,
      "xom": 8385,
      "xet": 8386,
      "xay": 8387,
      "xoom": 8388,
      "xàn": 8389,
      "xum": 8390,
      "xër": 8391,
      "xaat": 8392,
      "xén": 8393,
      "xara": 8394,
      "xad": 8395,
      "xàtt": 8396,
      "xëm": 8397,
      "xuur": 8398,
      "xoroom": 8399,
      "xoolu": 8400,
      "xañ": 8401,
      "xóo": 8402,
      "xànj": 8403,
      "xaju": 8404,
      "yal": 8405,
      "yur": 8406,
      "yom": 8407,
      "yër": 8408,
      "yàtt": 8409,
      "yore": 8410,
      "yànd": 8411,
      "yéw": 8412,
      "zin": 8413,
      "°,": 8414,
      "Àll": 8415,
      "Àlli": 8416,
      "Éc": 8417,
      "Étant": 8418,
      "Ñon": 8419,
      "Ñam": 8420,
      "Ñax": 8421,
      "Ñooy": 8422,
      "Ñii": 8423,
      "Ñuy": 8424,
      "Ñaare": 8425,
      "Òbukun": 8426,
      "Ów": 8427,
      "Ód": 8428,
      "Óg": 8429,
      "Ósu": 8430,
      "Ófise": 8431,
      "Óbukun": 8432,
      "Órel": 8433,
      "àngal": 8434,
      "âg": 8435,
      "âme": 8436,
      "ère": 8437,
      "éme": 8438,
      "épar": 8439,
      "émer": 8440,
      "étie": 8441,
      "éruption": 8442,
      "émiss": 8443,
      "êtes": 8444,
      "ëfe": 8445,
      "ëwal": 8446,
      "ñaa": 8447,
      "ñee": 8448,
      "ñoon": 8449,
      "ñem": 8450,
      "ñenn": 8451,
      "ñook": 8452,
      "ñore": 8453,
      "ñàdd": 8454,
      "ñamb": 8455,
      "ñoñ": 8456,
      "ñànge": 8457,
      "ñoyy": 8458,
      "ñulu": 8459,
      "ñoxor": 8460,
      "óku": 8461,
      "ôte": 8462,
      "ôter": 8463,
      "ôtait": 8464,
      "ňa": 8465,
      "ňoo": 8466,
      "ňun": 8467,
      "ňooy": 8468,
      "ňaaw": 8469,
      "ňiy": 8470,
      "ňeneen": 8471,
      "ňaas": 8472,
      "ňenti": 8473,
      "ňàmb": 8474,
      "ňaare": 8475,
      "ňey": 8476,
      "ŋa": 8477,
      "ŋar": 8478,
      "ŋacc": 8479,
      "œu": 8480,
      "…)": 8481,
      "##ry": 8482,
      "##raa": 8483,
      "##ren": 8484,
      "##rans": 8485,
      "##run": 8486,
      "##raient": 8487,
      "##rut": 8488,
      "##raire": 8489,
      "##rité": 8490,
      "##rue": 8491,
      "##rêt": 8492,
      "##rures": 8493,
      "##rables": 8494,
      "##rales": 8495,
      "##rines": 8496,
      "##rinaire": 8497,
      "##rhum": 8498,
      "##aç": 8499,
      "##aff": 8500,
      "##ache": 8501,
      "##aces": 8502,
      "##acon": 8503,
      "##avou": 8504,
      "##açaient": 8505,
      "##aïsme": 8506,
      "##vy": 8507,
      "##vet": 8508,
      "##vel": 8509,
      "##vère": 8510,
      "##vais": 8511,
      "##vén": 8512,
      "##vette": 8513,
      "##vées": 8514,
      "##venir": 8515,
      "##venu": 8516,
      "##vrait": 8517,
      "##visi": 8518,
      "##vrés": 8519,
      "##vités": 8520,
      "##veté": 8521,
      "##voyer": 8522,
      "##veries": 8523,
      "##vieuse": 8524,
      "##venue": 8525,
      "##vitables": 8526,
      "##visses": 8527,
      "##ten": 8528,
      "##tam": 8529,
      "##toon": 8530,
      "##ttre": 8531,
      "##taient": 8532,
      "##toy": 8533,
      "##tuma": 8534,
      "##tures": 8535,
      "##tèg": 8536,
      "##titude": 8537,
      "##tisme": 8538,
      "##tades": 8539,
      "##eg": 8540,
      "##eau": 8541,
      "##eurs": 8542,
      "##elles": 8543,
      "##eku": 8544,
      "##eill": 8545,
      "##eddi": 8546,
      "##etions": 8547,
      "##ewaan": 8548,
      "##waak": 8549,
      "##waas": 8550,
      "##woŋ": 8551,
      "##wiyaa": 8552,
      "##waayu": 8553,
      "##waatu": 8554,
      "##waguma": 8555,
      "##oï": 8556,
      "##of": 8557,
      "##oî": 8558,
      "##oû": 8559,
      "##oti": 8560,
      "##otu": 8561,
      "##off": 8562,
      "##oci": 8563,
      "##oad": 8564,
      "##oité": 8565,
      "##odes": 8566,
      "##otique": 8567,
      "##oût": 8568,
      "##ogues": 8569,
      "##ogalu": 8570,
      "##oquaient": 8571,
      "##otements": 8572,
      "##né": 8573,
      "##nent": 8574,
      "##nee": 8575,
      "##nir": 8576,
      "##naan": 8577,
      "##nant": 8578,
      "##nas": 8579,
      "##net": 8580,
      "##naient": 8581,
      "##nois": 8582,
      "##nook": 8583,
      "##nation": 8584,
      "##nité": 8585,
      "##neem": 8586,
      "##nommé": 8587,
      "##uň": 8588,
      "##uée": 8589,
      "##upp": 8590,
      "##uch": 8591,
      "##uées": 8592,
      "##udeur": 8593,
      "##uvés": 8594,
      "##uňe": 8595,
      "##uadé": 8596,
      "##kan": 8597,
      "##kam": 8598,
      "##kor": 8599,
      "##koon": 8600,
      "##kit": 8601,
      "##kul": 8602,
      "##koom": 8603,
      "##ksi": 8604,
      "##kooy": 8605,
      "##kiy": 8606,
      "##kaam": 8607,
      "##kàll": 8608,
      "##kid": 8609,
      "##karaa": 8610,
      "##kloo": 8611,
      "##kteer": 8612,
      "##kànd": 8613,
      "##kyst": 8614,
      "##konte": 8615,
      "##karla": 8616,
      "##kinois": 8617,
      "##ib": 8618,
      "##ié": 8619,
      "##ian": 8620,
      "##ial": 8621,
      "##iam": 8622,
      "##ior": 8623,
      "##ias": 8624,
      "##ime": 8625,
      "##iés": 8626,
      "##ium": 8627,
      "##ionn": 8628,
      "##ikat": 8629,
      "##ifi": 8630,
      "##ifu": 8631,
      "##ienne": 8632,
      "##ième": 8633,
      "##ivers": 8634,
      "##iami": 8635,
      "##iquetés": 8636,
      "##ivrait": 8637,
      "##ikaam": 8638,
      "##ye": 8639,
      "##yy": 8640,
      "##yd": 8641,
      "##yg": 8642,
      "##yll": 8643,
      "##yait": 8644,
      "##yaay": 8645,
      "##yus": 8646,
      "##yaar": 8647,
      "##yook": 8648,
      "##yard": 8649,
      "##yaam": 8650,
      "##yad": 8651,
      "##yles": 8652,
      "##yaanu": 8653,
      "##yph": 8654,
      "##yeŋ": 8655,
      "##yards": 8656,
      "##ycle": 8657,
      "##yeetul": 8658,
      "##yboo": 8659,
      "##mou": 8660,
      "##maan": 8661,
      "##mais": 8662,
      "##mos": 8663,
      "##mie": 8664,
      "##main": 8665,
      "##maal": 8666,
      "##mment": 8667,
      "##mées": 8668,
      "##mure": 8669,
      "##mont": 8670,
      "##meri": 8671,
      "##meel": 8672,
      "##mori": 8673,
      "##mili": 8674,
      "##mente": 8675,
      "##mètres": 8676,
      "##móoy": 8677,
      "##mettait": 8678,
      "##mineux": 8679,
      "##pi": 8680,
      "##pé": 8681,
      "##pre": 8682,
      "##pri": 8683,
      "##pas": 8684,
      "##pés": 8685,
      "##pau": 8686,
      "##pons": 8687,
      "##put": 8688,
      "##para": 8689,
      "##ptes": 8690,
      "##porte": 8691,
      "##penti": 8692,
      "##pille": 8693,
      "##ptions": 8694,
      "##poc": 8695,
      "##preux": 8696,
      "##pect": 8697,
      "##pailleurs": 8698,
      "##pren": 8699,
      "##paces": 8700,
      "##lk": 8701,
      "##ls": 8702,
      "##lee": 8703,
      "##lit": 8704,
      "##lti": 8705,
      "##lous": 8706,
      "##law": 8707,
      "##land": 8708,
      "##lot": 8709,
      "##lante": 8710,
      "##lig": 8711,
      "##looy": 8712,
      "##lées": 8713,
      "##lance": 8714,
      "##lanc": 8715,
      "##lande": 8716,
      "##laf": 8717,
      "##leem": 8718,
      "##lmaŋ": 8719,
      "##lamm": 8720,
      "##lablement": 8721,
      "##lish": 8722,
      "##lasme": 8723,
      "##lhar": 8724,
      "##lacés": 8725,
      "##lailler": 8726,
      "##sar": 8727,
      "##sin": 8728,
      "##sais": 8729,
      "##sie": 8730,
      "##seek": 8731,
      "##sante": 8732,
      "##saam": 8733,
      "##sement": 8734,
      "##sité": 8735,
      "##soire": 8736,
      "##sëm": 8737,
      "##sures": 8738,
      "##sàmb": 8739,
      "##seem": 8740,
      "##sectes": 8741,
      "##scur": 8742,
      "##xtre": 8743,
      "##xue": 8744,
      "##xeel": 8745,
      "##xion": 8746,
      "##xic": 8747,
      "##xantu": 8748,
      "##cen": 8749,
      "##can": 8750,
      "##cée": 8751,
      "##cat": 8752,
      "##cie": 8753,
      "##cro": 8754,
      "##cré": 8755,
      "##cté": 8756,
      "##cut": 8757,
      "##cine": 8758,
      "##cad": 8759,
      "##cure": 8760,
      "##cui": 8761,
      "##core": 8762,
      "##cop": 8763,
      "##cise": 8764,
      "##comp": 8765,
      "##cieux": 8766,
      "##cade": 8767,
      "##cteurs": 8768,
      "##clée": 8769,
      "##cités": 8770,
      "##ctive": 8771,
      "##cieuse": 8772,
      "##carades": 8773,
      "##coph": 8774,
      "##cuments": 8775,
      "##cycle": 8776,
      "##ïe": 8777,
      "##ïst": 8778,
      "##ïde": 8779,
      "##ïque": 8780,
      "##ïve": 8781,
      "##daa": 8782,
      "##den": 8783,
      "##dus": 8784,
      "##dés": 8785,
      "##dres": 8786,
      "##deek": 8787,
      "##dré": 8788,
      "##dants": 8789,
      "##daam": 8790,
      "##dité": 8791,
      "##deel": 8792,
      "##daari": 8793,
      "##dool": 8794,
      "##dju": 8795,
      "##dits": 8796,
      "##dac": 8797,
      "##dales": 8798,
      "##drait": 8799,
      "##deelu": 8800,
      "##donné": 8801,
      "##drales": 8802,
      "##bé": 8803,
      "##ban": 8804,
      "##bre": 8805,
      "##bal": 8806,
      "##bis": 8807,
      "##bax": 8808,
      "##bres": 8809,
      "##but": 8810,
      "##book": 8811,
      "##biy": 8812,
      "##bare": 8813,
      "##bages": 8814,
      "##blé": 8815,
      "##bites": 8816,
      "##bets": 8817,
      "##binu": 8818,
      "##bide": 8819,
      "##burg": 8820,
      "##jes": 8821,
      "##jaa": 8822,
      "##jou": 8823,
      "##jam": 8824,
      "##joon": 8825,
      "##jom": 8826,
      "##jus": 8827,
      "##jum": 8828,
      "##jook": 8829,
      "##jaam": 8830,
      "##jaas": 8831,
      "##gè": 8832,
      "##gh": 8833,
      "##gre": 8834,
      "##ger": 8835,
      "##gar": 8836,
      "##gee": 8837,
      "##gul": 8838,
      "##goom": 8839,
      "##gos": 8840,
      "##gaw": 8841,
      "##got": 8842,
      "##gles": 8843,
      "##gaas": 8844,
      "##gts": 8845,
      "##gànn": 8846,
      "##gob": 8847,
      "##gique": 8848,
      "##gkati": 8849,
      "##gantes": 8850,
      "##grés": 8851,
      "##gnifi": 8852,
      "##grat": 8853,
      "##éa": 8854,
      "##éq": 8855,
      "##éol": 8856,
      "##éra": 8857,
      "##étu": 8858,
      "##égal": 8859,
      "##émb": 8860,
      "##éité": 8861,
      "##éma": 8862,
      "##épar": 8863,
      "##évre": 8864,
      "##édic": 8865,
      "##éph": 8866,
      "##éeem": 8867,
      "##éder": 8868,
      "##écules": 8869,
      "##éditions": 8870,
      "##évitables": 8871,
      "##émori": 8872,
      "##édrales": 8873,
      "##foo": 8874,
      "##fam": 8875,
      "##fle": 8876,
      "##fand": 8877,
      "##fec": 8878,
      "##fort": 8879,
      "##ftin": 8880,
      "##fables": 8881,
      "##feelu": 8882,
      "##flée": 8883,
      "##flus": 8884,
      "##flaay": 8885,
      "##forts": 8886,
      "##féq": 8887,
      "##ëre": 8888,
      "##ëer": 8889,
      "##ëro": 8890,
      "##ëter": 8891,
      "##ëxe": 8892,
      "##ëxi": 8893,
      "##ëfee": 8894,
      "##ëtuñu": 8895,
      "##ëbiy": 8896,
      "##ñoo": 8897,
      "##ñent": 8898,
      "##ñet": 8899,
      "##ñooy": 8900,
      "##ñook": 8901,
      "##ñeer": 8902,
      "##ñenke": 8903,
      "##qal": 8904,
      "##qar": 8905,
      "##qati": 8906,
      "##qët": 8907,
      "##óon": 8908,
      "##óow": 8909,
      "##ókoo": 8910,
      "##óyad": 8911,
      "##óbinu": 8912,
      "##îne": 8913,
      "##èle": 8914,
      "##ève": 8915,
      "##èces": 8916,
      "##èdes": 8917,
      "##ènement": 8918,
      "##èrent": 8919,
      "##ègues": 8920,
      "##èvement": 8921,
      "##èbres": 8922,
      "##ha": 8923,
      "##hon": 8924,
      "##hou": 8925,
      "##his": 8926,
      "##hme": 8927,
      "##hab": 8928,
      "##hil": 8929,
      "##hine": 8930,
      "##hic": 8931,
      "##hass": 8932,
      "##hréb": 8933,
      "##hmé": 8934,
      "##hera": 8935,
      "##hamas": 8936,
      "##hior": 8937,
      "##hyd": 8938,
      "##hédrales": 8939,
      "##ât": 8940,
      "##âti": 8941,
      "##âne": 8942,
      "##ânes": 8943,
      "##ûter": 8944,
      "##ŋu": 8945,
      "##ŋas": 8946,
      "##ŋtin": 8947,
      "##zin": 8948,
      "##zia": 8949,
      "##zias": 8950,
      "##êch": 8951,
      "##êtu": 8952,
      "##êté": 8953,
      "##ňi": 8954,
      "##ňoo": 8955,
      "##ňsi": 8956,
      "##ňàng": 8957,
      "##çant": 8958,
      "##çus": 8959,
      "##Almaŋ": 8960,
      "##esali": 8961,
      "##esbu": 8962,
      "##esser": 8963,
      "##estible": 8964,
      "##essoire": 8965,
      "##aag": 8966,
      "##aaaw": 8967,
      "##aatee": 8968,
      "##ones": 8969,
      "##once": 8970,
      "##onté": 8971,
      "##onvi": 8972,
      "##ondu": 8973,
      "##onique": 8974,
      "##onze": 8975,
      "##ondement": 8976,
      "##onflée": 8977,
      "##onzin": 8978,
      "##eni": 8979,
      "##ené": 8980,
      "##enus": 8981,
      "##enais": 8982,
      "##ensi": 8983,
      "##enable": 8984,
      "##ensible": 8985,
      "##engalu": 8986,
      "##enades": 8987,
      "##ensive": 8988,
      "##encieuse": 8989,
      "##ana": 8990,
      "##anqu": 8991,
      "##anie": 8992,
      "##anaam": 8993,
      "##ancher": 8994,
      "##anaane": 8995,
      "##aniers": 8996,
      "##ankaa": 8997,
      "##anjal": 8998,
      "dekki": 8999,
      "devions": 9000,
      "##oore": 9001,
      "##oowul": 9002,
      "##ouc": 9003,
      "##ouer": 9004,
      "##ouette": 9005,
      "##oucher": 9006,
      "##oudre": 9007,
      "##ouba": 9008,
      "##ouché": 9009,
      "##oulé": 9010,
      "##ouler": 9011,
      "##oumés": 9012,
      "##ouïe": 9013,
      "##air": 9014,
      "##aillent": 9015,
      "##ailli": 9016,
      "##aitements": 9017,
      "##airières": 9018,
      "##airie": 9019,
      "##rey": 9020,
      "##reem": 9021,
      "##reurs": 9022,
      "##reuses": 9023,
      "##rection": 9024,
      "##retter": 9025,
      "##revisses": 9026,
      "##reeku": 9027,
      "##reuvés": 9028,
      "##erri": 9029,
      "##erle": 9030,
      "##ersi": 9031,
      "##erci": 9032,
      "##erara": 9033,
      "##erine": 9034,
      "##ernel": 9035,
      "##eresses": 9036,
      "##alaat": 9037,
      "##alook": 9038,
      "##aline": 9039,
      "##alung": 9040,
      "##alogue": 9041,
      "##alud": 9042,
      "##altation": 9043,
      "##algie": 9044,
      "##alistes": 9045,
      "##alankaa": 9046,
      "##arte": 9047,
      "##aris": 9048,
      "##aroon": 9049,
      "##aray": 9050,
      "##arch": 9051,
      "##arante": 9052,
      "##arants": 9053,
      "##armes": 9054,
      "##arma": 9055,
      "##artés": 9056,
      "##arnement": 9057,
      "##araayu": 9058,
      "##ariné": 9059,
      "##arqué": 9060,
      "##armée": 9061,
      "##arquer": 9062,
      "##arrage": 9063,
      "##arlaa": 9064,
      "##arlook": 9065,
      "##amoo": 9066,
      "##ament": 9067,
      "##amne": 9068,
      "##amaak": 9069,
      "##amaanu": 9070,
      "late": 9071,
      "laqu": 9072,
      "lave": 9073,
      "lattes": 9074,
      "##tekk": 9075,
      "##telu": 9076,
      "##temp": 9077,
      "##temb": 9078,
      "##tewoo": 9079,
      "##tection": 9080,
      "##isu": 9081,
      "##isé": 9082,
      "##isée": 9083,
      "##isté": 9084,
      "##isants": 9085,
      "##isone": 9086,
      "##isions": 9087,
      "##istique": 9088,
      "##isode": 9089,
      "##iskit": 9090,
      "##iscut": 9091,
      "cire": 9092,
      "cicat": 9093,
      "quai": 9094,
      "quant": 9095,
      "qualité": 9096,
      "quoti": 9097,
      "##uris": 9098,
      "##urait": 9099,
      "##urée": 9100,
      "##urtre": 9101,
      "##urung": 9102,
      "##urément": 9103,
      "##oral": 9104,
      "##orit": 9105,
      "##orant": 9106,
      "##orans": 9107,
      "##orais": 9108,
      "##orat": 9109,
      "##orain": 9110,
      "##oraal": 9111,
      "##oroy": 9112,
      "##orment": 9113,
      "##orable": 9114,
      "##ortive": 9115,
      "##orieuse": 9116,
      "##orisante": 9117,
      "##oramas": 9118,
      "##enté": 9119,
      "##entation": 9120,
      "##ention": 9121,
      "##entrices": 9122,
      "##eed": 9123,
      "##eele": 9124,
      "##eefi": 9125,
      "##eeji": 9126,
      "##oonteel": 9127,
      "##oonjaay": 9128,
      "lees": 9129,
      "lett": 9130,
      "lelli": 9131,
      "leçons": 9132,
      "levé": 9133,
      "levés": 9134,
      "lellee": 9135,
      "levées": 9136,
      "lettre": 9137,
      "lecteurs": 9138,
      "##kke": 9139,
      "##kkoo": 9140,
      "##kkat": 9141,
      "##kkiy": 9142,
      "##kkug": 9143,
      "##kkuus": 9144,
      "##llu": 9145,
      "##ller": 9146,
      "##llage": 9147,
      "##llets": 9148,
      "##lleem": 9149,
      "##lléité": 9150,
      "##inte": 9151,
      "##inaan": 9152,
      "##inant": 9153,
      "##inais": 9154,
      "##inie": 9155,
      "##inum": 9156,
      "##inale": 9157,
      "##intes": 9158,
      "##inaam": 9159,
      "##inement": 9160,
      "##initi": 9161,
      "##ineem": 9162,
      "##inique": 9163,
      "##incer": 9164,
      "##inier": 9165,
      "##ineries": 9166,
      "##ingués": 9167,
      "##indefondi": 9168,
      "##itée": 9169,
      "##itus": 9170,
      "##itise": 9171,
      "##itose": 9172,
      "##itaawun": 9173,
      "##iturne": 9174,
      "##ithmé": 9175,
      "maux": 9176,
      "matu": 9177,
      "macc": 9178,
      "matr": 9179,
      "mater": 9180,
      "matéri": 9181,
      "maître": 9182,
      "maud": 9183,
      "mareñ": 9184,
      "matières": 9185,
      "##aits": 9186,
      "##aitait": 9187,
      "##éeful": 9188,
      "enri": 9189,
      "ence": 9190,
      "ench": 9191,
      "enrac": 9192,
      "enrhum": 9193,
      "enkyst": 9194,
      "enivrait": 9195,
      "enlacés": 9196,
      "##irait": 9197,
      "##iraay": 9198,
      "##irées": 9199,
      "##iraas": 9200,
      "##irables": 9201,
      "##irats": 9202,
      "##irka": 9203,
      "##irmer": 9204,
      "##irituel": 9205,
      "##irpé": 9206,
      "##irlande": 9207,
      "univers": 9208,
      "##pper": 9209,
      "##ppaaj": 9210,
      "##ppuy": 9211,
      "##ppop": 9212,
      "##ppét": 9213,
      "##pparu": 9214,
      "etaas": 9215,
      "##aanee": 9216,
      "##aangoom": 9217,
      "##aanesbu": 9218,
      "##ties": 9219,
      "##tient": 9220,
      "##tich": 9221,
      "##tige": 9222,
      "##tices": 9223,
      "##tives": 9224,
      "##tivant": 9225,
      "##tifs": 9226,
      "##timité": 9227,
      "##tivités": 9228,
      "##tipés": 9229,
      "duñ": 9230,
      "duuf": 9231,
      "dugalu": 9232,
      "dumaa": 9233,
      "durer": 9234,
      "dugub": 9235,
      "duvet": 9236,
      "dumóoy": 9237,
      "dukkat": 9238,
      "##ouru": 9239,
      "##ources": 9240,
      "##ourvu": 9241,
      "##axu": 9242,
      "##axit": 9243,
      "##axlaf": 9244,
      "musi": 9245,
      "muse": 9246,
      "muusi": 9247,
      "muuñ": 9248,
      "musib": 9249,
      "muucu": 9250,
      "mutisme": 9251,
      "muuň": 9252,
      "multi": 9253,
      "deseetul": 9254,
      "niwaak": 9255,
      "##ril": 9256,
      "##ries": 9257,
      "##rite": 9258,
      "##rime": 9259,
      "##rions": 9260,
      "##ribu": 9261,
      "##rive": 9262,
      "##riété": 9263,
      "##rident": 9264,
      "##riades": 9265,
      "##riotes": 9266,
      "##ripper": 9267,
      "naň": 9268,
      "nacre": 9269,
      "nappe": 9270,
      "navir": 9271,
      "nasse": 9272,
      "naît": 9273,
      "napas": 9274,
      "nasar": 9275,
      "naïve": 9276,
      "nappaaj": 9277,
      "##lez": 9278,
      "##lever": 9279,
      "##lexe": 9280,
      "##leuses": 9281,
      "##lettes": 9282,
      "##lelaw": 9283,
      "##quant": 9284,
      "##quette": 9285,
      "##quées": 9286,
      "##quants": 9287,
      "##quence": 9288,
      "##quets": 9289,
      "##quiers": 9290,
      "##quiner": 9291,
      "##quineries": 9292,
      "dite": 9293,
      "dilu": 9294,
      "diale": 9295,
      "dimb": 9296,
      "diagn": 9297,
      "dikkee": 9298,
      "dibi": 9299,
      "dicti": 9300,
      "digub": 9301,
      "dignes": 9302,
      "dialogue": 9303,
      "diineem": 9304,
      "baŋ": 9305,
      "base": 9306,
      "baci": 9307,
      "##antal": 9308,
      "##antur": 9309,
      "##ansons": 9310,
      "kol": 9311,
      "koñ": 9312,
      "koll": 9313,
      "komb": 9314,
      "komm": 9315,
      "##aayi": 9316,
      "##aayum": 9317,
      "##asaa": 9318,
      "##astre": 9319,
      "##asques": 9320,
      "##astique": 9321,
      "##asinu": 9322,
      "##ashior": 9323,
      "##omad": 9324,
      "##ompar": 9325,
      "##omane": 9326,
      "##eta": 9327,
      "##eter": 9328,
      "##etul": 9329,
      "##etté": 9330,
      "##etées": 9331,
      "##elu": 9332,
      "##elot": 9333,
      "##elière": 9334,
      "aust": 9335,
      "aubes": 9336,
      "auquel": 9337,
      "auteur": 9338,
      "aupara": 9339,
      "audac": 9340,
      "seme": 9341,
      "sekki": 9342,
      "sexe": 9343,
      "sewaan": 9344,
      "semé": 9345,
      "semée": 9346,
      "semaine": 9347,
      "##ulaire": 9348,
      "##ulsée": 9349,
      "biis": 9350,
      "bile": 9351,
      "biiw": 9352,
      "bientôt": 9353,
      "bilhar": 9354,
      "bicycle": 9355,
      "bidaa": 9356,
      "tech": 9357,
      "temp": 9358,
      "teenu": 9359,
      "teggi": 9360,
      "teppi": 9361,
      "tellement": 9362,
      "teeni": 9363,
      "yiw": 9364,
      "##usal": 9365,
      "##uste": 9366,
      "##usait": 9367,
      "##usaient": 9368,
      "##ustes": 9369,
      "##usions": 9370,
      "##aisir": 9371,
      "##aisie": 9372,
      "avanç": 9373,
      "avenue": 9374,
      "avènement": 9375,
      "##agu": 9376,
      "##agent": 9377,
      "##agul": 9378,
      "##agère": 9379,
      "##agni": 9380,
      "##agères": 9381,
      "##agique": 9382,
      "##agerie": 9383,
      "##agile": 9384,
      "nez": 9385,
      "nees": 9386,
      "newwi": 9387,
      "neige": 9388,
      "ngalla": 9389,
      "ngaana": 9390,
      "nganjal": 9391,
      "nglelaw": 9392,
      "##meurs": 9393,
      "##ggee": 9394,
      "##ggali": 9395,
      "##ggatu": 9396,
      "##ayait": 9397,
      "##ston": 9398,
      "##stitu": 9399,
      "##strait": 9400,
      "##stitions": 9401,
      "##strue": 9402,
      "##stache": 9403,
      "##stalgie": 9404,
      "##unis": 9405,
      "##unité": 9406,
      "##uneem": 9407,
      "##ésirables": 9408,
      "paru": 9409,
      "parent": 9410,
      "paroi": 9411,
      "parois": 9412,
      "parli": 9413,
      "partions": 9414,
      "parvient": 9415,
      "parcs": 9416,
      "paraî": 9417,
      "paraître": 9418,
      "parchem": 9419,
      "paraff": 9420,
      "parvenu": 9421,
      "pardonné": 9422,
      "paresser": 9423,
      "luisante": 9424,
      "luisant": 9425,
      "lutter": 9426,
      "lumineux": 9427,
      "luxue": 9428,
      "luqati": 9429,
      "luisants": 9430,
      "##dez": 9431,
      "##deux": 9432,
      "##demment": 9433,
      "##àngal": 9434,
      "ñukk": 9435,
      "##ceau": 9436,
      "##celle": 9437,
      "##cevais": 9438,
      "danser": 9439,
      "dansaient": 9440,
      "dansées": 9441,
      "##queurs": 9442,
      "##quevill": 9443,
      "##queib": 9444,
      "quicon": 9445,
      "yuñ": 9446,
      "##olu": 9447,
[...]
