{
  "version": "1.0",
  "truncation": null,
  "padding": {
    "strategy": "BatchLongest",
    "direction": "Right",
    "pad_to_multiple_of": null,
    "pad_id": 0,
    "pad_type_id": 0,
    "pad_token": "[PAD]"
  },
  "added_tokens": [
    {
      "id": 0,
      "content": "<|endoftext|>",
      "single_word": false,
      "lstrip": false,
      "rstrip": false,
      "normalized": false,
      "special": true
    },
    {
      "id": 1,
      "content": "<|translateto|>",
      "single_word": false,
      "lstrip": false,
      "rstrip": false,
      "normalized": false,
      "special": true
    },
    {
      "id": 2,
      "content": "<|pad|>",
      "single_word": false,
      "lstrip": false,
      "rstrip": false,
      "normalized": false,
      "special": true
    }
  ],
  "normalizer": null,
  "pre_tokenizer": {
    "type": "ByteLevel",
    "add_prefix_space": false,
    "trim_offsets": true,
    "use_regex": true
  },
  "post_processor": null,
  "decoder": {
    "type": "ByteLevel",
    "add_prefix_space": true,
    "trim_offsets": true,
    "use_regex": true
  },
  "model": {
    "type": "BPE",
    "dropout": null,
    "unk_token": null,
    "continuing_subword_prefix": null,
    "end_of_word_suffix": null,
    "fuse_unk": false,
    "byte_fallback": false,
    "vocab": {
      "<|endoftext|>": 0,
      "<|translateto|>": 1,
      "<|pad|>": 2,
      "!": 3,
      "&": 4,
      "'": 5,
      "(": 6,
      ")": 7,
      ",": 8,
      "-": 9,
      ".": 10,
      "/": 11,
      "0": 12,
      "1": 13,
      "2": 14,
      "3": 15,
      "4": 16,
      "5": 17,
      "6": 18,
      "7": 19,
      "8": 20,
      "9": 21,
      ":": 22,
      ";": 23,
      "?": 24,
      "A": 25,
      "B": 26,
      "C": 27,
      "D": 28,
      "E": 29,
      "F": 30,
      "G": 31,
      "H": 32,
      "I": 33,
      "J": 34,
      "K": 35,
      "L": 36,
      "M": 37,
      "N": 38,
      "O": 39,
      "P": 40,
      "Q": 41,
      "R": 42,
      "S": 43,
      "T": 44,
      "U": 45,
      "V": 46,
      "W": 47,
      "X": 48,
      "Y": 49,
      "Z": 50,
      "a": 51,
      "b": 52,
      "c": 53,
      "d": 54,
      "e": 55,
      "f": 56,
      "g": 57,
      "h": 58,
      "i": 59,
      "j": 60,
      "k": 61,
      "l": 62,
      "m": 63,
      "n": 64,
      "o": 65,
      "p": 66,
      "q": 67,
      "r": 68,
      "s": 69,
      "t": 70,
      "u": 71,
      "v": 72,
      "w": 73,
      "x": 74,
      "y": 75,
      "z": 76,
      "¢": 77,
      "£": 78,
      "§": 79,
      "¨": 80,
      "©": 81,
      "ª": 82,
      "«": 83,
      "®": 84,
      "¯": 85,
      "°": 86,
      "±": 87,
      "³": 88,
      "´": 89,
      "¹": 90,
      "»": 91,
      "Â": 92,
      "Ã": 93,
      "Å": 94,
      "â": 95,
      "Ġ": 96,
      "Ģ": 97,
      "Ī": 98,
      "ī": 99,
      "ĭ": 100,
      "ĳ": 101,
      "Ĵ": 102,
      "ĵ": 103,
      "ĺ": 104,
      "ľ": 105,
      "Ŀ": 106,
      "ł": 107,
      "Ġd": 108,
      "Ġl": 109,
      "Ġm": 110,
      "Ã©": 111,
      "es": 112,
      "Ġn": 113,
      "Ġs": 114,
      "en": 115,
      "aa": 116,
      "on": 117,
      "Ġc": 118,
      "Ġa": 119,
      "Ġb": 120,
      "Ġp": 121,
      "an": 122,
      "Ġde": 123,
      "re": 124,
      "Ġt": 125,
      "Ãł": 126,
      "ou": 127,
      "ai": 128,
      "Ġy": 129,
      "oo": 130,
      "er": 131,
      "Ġf": 132,
      "Ġj": 133,
      "qu": 134,
      "al": 135,
      "ar": 136,
      "Ã«": 137,
      "am": 138,
      "Ġg": 139,
      "Ġla": 140,
      "et": 141,
      "Ã±": 142,
      "Ġk": 143,
      "Ġw": 144,
      "un": 145,
      "ri": 146,
      "te": 147,
      "in": 148,
      "ent": 149,
      "Ġci": 150,
      "Ġqu": 151,
      "ur": 152,
      "is": 153,
      "il": 154,
      "oon": 155,
      "or": 156,
      "Ġle": 157,
      "kk": 158,
      "ee": 159,
      "it": 160,
      "ĠÃł": 161,
      "Ġma": 162,
      "Ġr": 163,
      "le": 164,
      "Ã¨": 165,
      "el": 166,
      "ĠÃ±": 167,
      "ait": 168,
      "Ġx": 169,
      "Ġles": 170,
      "Ã©e": 171,
      "Ġv": 172,
      "pp": 173,
      "Ġet": 174,
      "aan": 175,
      "ir": 176,
      "at": 177,
      "ax": 178,
      "Ġmu": 179,
      "Ġni": 180,
      "our": 181,
      "Ġdes": 182,
      "ant": 183,
      "as": 184,
      "ul": 185,
      "Ġdi": 186,
      "ans": 187,
      "aay": 188,
      "om": 189,
      "Ġse": 190,
      "Ġko": 191,
      "ag": 192,
      "Ġun": 193,
      "Ġba": 194,
      "Ġen": 195,
      "ĠB": 196,
      "Ġdu": 197,
      "us": 198,
      "Ã¨re": 199,
      "Ġbi": 200,
      "ĠA": 201,
      "Ġte": 202,
      "Ġyi": 203,
      "ais": 204,
      "Ġne": 205,
      "Ã©t": 206,
      "Ġak": 207,
      "Ġau": 208,
      "Ġng": 209,
      "gg": 210,
      "Ġna": 211,
      "Ã³": 212,
      "me": 213,
      "ol": 214,
      "ay": 215,
      "au": 216,
      "ion": 217,
      "ĠM": 218,
      "Ã©s": 219,
      "de": 220,
      "ce": 221,
      "Ġpar": 222,
      "oom": 223,
      "Ġre": 224,
      "Ġav": 225,
      "Ãłn": 226,
      "Ġlu": 227,
      "ont": 228,
      "ĠÃ±u": 229,
      "est": 230,
      "Ã«n": 231,
      "Ġdans": 232,
      "Ġqui": 233,
      "Ġyu": 234,
      "ous": 235,
      "ch": 236,
      "em": 237,
      "ĠN": 238,
      "eu": 239,
      "lu": 240,
      "que": 241,
      "Ġque": 242,
      "Ġbu": 243,
      "fri": 244,
      "Ġch": 245,
      "Ãª": 246,
      "ab": 247,
      "ama": 248,
      "os": 249,
      "Ġdaan": 250,
      "ĠL": 251,
      "enn": 252,
      "ĠÂ": 253,
      "di": 254,
      "Ġil": 255,
      "Ġli": 256,
      "Ġmon": 257,
      "Ġfa": 258,
      "ĠS": 259,
      "Ġseen": 260,
      "ti": 261,
      "Ġpas": 262,
      "Ġsu": 263,
      "Ġca": 264,
      "Ġh": 265,
      "ĠdÃ©": 266,
      "ĠD": 267,
      "aw": 268,
      "Åĭ": 269,
      "aar": 270,
      "um": 271,
      "ll": 272,
      "Ġgu": 273,
      "res": 274,
      "Ġ:": 275,
      "im": 276,
      "ot": 277,
      "ale": 278,
      "Ġpour": 279,
      "out": 280,
      "Ġune": 281,
      "ĠT": 282,
      "Ġwoon": 283,
      "Ġam": 284,
      "Ġmb": 285,
      "ro": 286,
      "ĠAfri": 287,
      "dd": 288,
      "Ã«r": 289,
      "opp": 290,
      "and": 291,
      "Ã«kk": 292,
      "ox": 293,
      "ĠK": 294,
      "Ġsa": 295,
      "ec": 296,
      "Ġnu": 297,
      "ie": 298,
      "Ġsama": 299,
      "ouv": 300,
      "aient": 301,
      "Ġje": 302,
      "ĠÃ©t": 303,
      "Ġsur": 304,
      "ain": 305,
      "Ġo": 306,
      "Ġdoon": 307,
      "ĠÃ": 308,
      "Ġda": 309,
      "ĠpÃ¨re": 310,
      "Ġpl": 311,
      "ig": 312,
      "end": 313,
      "Ġcom": 314,
      "ĠBaay": 315,
      "Ġtr": 316,
      "ĠC": 317,
      "tre": 318,
      "aat": 319,
      "ĠF": 320,
      "Ġmi": 321,
      "ÅĪ": 322,
      "Ġay": 323,
      "urs": 324,
      "ĠAfrig": 325,
      "Ġleen": 326,
      "Ġson": 327,
      "ge": 328,
      "ers": 329,
      "Ġngi": 330,
      "Ġgi": 331,
      "Ġin": 332,
      "Ã©pp": 333,
      "aal": 334,
      "gu": 335,
      "oy": 336,
      "oi": 337,
      "se": 338,
      "ali": 339,
      "ĠW": 340,
      "Ġmel": 341,
      "av": 342,
      "ff": 343,
      "Ġnd": 344,
      "Ġsax": 345,
      "ub": 346,
      "ort": 347,
      "eek": 348,
      "elle": 349,
      "Ġ?": 350,
      "Ġsi": 351,
      "cc": 352,
      "gal": 353,
      "tt": 354,
      "ens": 355,
      "Ġi": 356,
      "les": 357,
      "Ã¹": 358,
      "Ã©eg": 359,
      "ĠÃ©": 360,
      "ĠÂ»": 361,
      "Il": 362,
      "ps": 363,
      "Ġso": 364,
      "ante": 365,
      "Ã±u": 366,
      "ĠÂ«": 367,
      "rÃ©": 368,
      "Ġdem": 369,
      "Ġavec": 370,
      "ment": 371,
      "Ã©n": 372,
      "Ġya": 373,
      "age": 374,
      "ions": 375,
      "eux": 376,
      "tu": 377,
      "ĠdÃ«kk": 378,
      "ex": 379,
      "si": 380,
      "ĠO": 381,
      "ĠmÃ«n": 382,
      "onn": 383,
      "Ġxam": 384,
      "ĠG": 385,
      "Ġest": 386,
      "Ġloo": 387,
      "Ãłkk": 388,
      "Ġce": 389,
      "Ġnaa": 390,
      "ooy": 391,
      "ĠoÃ¹": 392,
      "ons": 393,
      "all": 394,
      "ette": 395,
      "ci": 396,
      "ĠbÃ«": 397,
      "Ġwax": 398,
      "Ġan": 399,
      "ang": 400,
      "Ġdef": 401,
      "ois": 402,
      "tÃ©": 403,
      "Ġmoom": 404,
      "Ġgr": 405,
      "Ã³or": 406,
      "Ġju": 407,
      "Ġnous": 408,
      "erre": 409,
      "ara": 410,
      "Ġgis": 411,
      "tes": 412,
      "aaw": 413,
      "ard": 414,
      "bu": 415,
      "Ã©es": 416,
      "Ġnj": 417,
      "ook": 418,
      "ants": 419,
      "iy": 420,
      "aak": 421,
      "Ġavait": 422,
      "Ġit": 423,
      "Ã¨s": 424,
      "Ġplus": 425,
      "eex": 426,
      "are": 427,
      "Ġri": 428,
      "Ġdal": 429,
      "Ġenf": 430,
      "ne": 431,
      "ance": 432,
      "ill": 433,
      "ĠJ": 434,
      "Ãłtt": 435,
      "ris": 436,
      "Ã´": 437,
      "âĢ": 438,
      "one": 439,
      "mb": 440,
      "oir": 441,
      "Ġjam": 442,
      "Ġfu": 443,
      "Ġmay": 444,
      "ĠrÃ©": 445,
      "Ġlui": 446,
      "mi": 447,
      "Ġmais": 448,
      "ĠÅĪ": 449,
      "Ġme": 450,
      "Ġbenn": 451,
      "aire": 452,
      "ĠâĢ": 453,
      "Ġvi": 454,
      "ation": 455,
      "Ġmuy": 456,
      "ĠOg": 457,
      "Ġku": 458,
      "Ġsans": 459,
      "Ġtax": 460,
      "aax": 461,
      "Ġar": 462,
      "Ġtu": 463,
      "Ġtout": 464,
      "Ã©ew": 465,
      "eau": 466,
      "oin": 467,
      "ĠmÃ¨re": 468,
      "une": 469,
      "unu": 470,
      "Ġnekk": 471,
      "Ġcomme": 472,
      "ra": 473,
      "Ã§": 474,
      "Ġsol": 475,
      "aam": 476,
      "Ġbopp": 477,
      "ement": 478,
      "ĠâĢĵ": 479,
      "ct": 480,
      "Ġdoo": 481,
      "Ġses": 482,
      "Ġsont": 483,
      "aaye": 484,
      "Ġnga": 485,
      "een": 486,
      "pr": 487,
      "Ġdo": 488,
      "ĠgÃ«n": 489,
      "Ġwu": 490,
      "Ġwar": 491,
      "mes": 492,
      "ux": 493,
      "ĠmÃª": 494,
      "Ã©en": 495,
      "ess": 496,
      "Ġcette": 497,
      "Ġleurs": 498,
      "Ġmas": 499,
      "ĠÃĳ": 500,
      "fa": 501,
      "uis": 502,
      "Ġou": 503,
      "ĠmÃ©": 504,
      "Ġboo": 505,
      "Ãłng": 506,
      "ekk": 507,
      "nd": 508,
      "Ġdoom": 509,
      "Ġdev": 510,
      "ĠjÃ«": 511,
      "amer": 512,
      "Ġkenn": 513,
      "ord": 514,
      "Ġces": 515,
      "Ã«g": 516,
      "ĠkÃ«r": 517,
      "ine": 518,
      "ati": 519,
      "ak": 520,
      "ĠlÃł": 521,
      "Ġat": 522,
      "Ġpay": 523,
      "Ġra": 524,
      "ĠSu": 525,
      "ku": 526,
      "ĠX": 527,
      "aab": 528,
      "oute": 529,
      "Ãªtre": 530,
      "Ġmbaa": 531,
      "mps": 532,
      "ĠP": 533,
      "Ġseeni": 534,
      "Ġpays": 535,
      "li": 536,
      "st": 537,
      "Ġex": 538,
      "Ãłgg": 539,
      "Ãłll": 540,
      "Ġvie": 541,
      "ages": 542,
      "Ġcha": 543,
      "Ġnat": 544,
      "Ġnag": 545,
      "Ġcou": 546,
      "Ġmar": 547,
      "ence": 548,
      "alla": 549,
      "Ġdara": 550,
      "Ãłpp": 551,
      "Ġxel": 552,
      "Ġils": 553,
      "ii": 554,
      "Ġdun": 555,
      "Ġman": 556,
      "Ġcel": 557,
      "Ã«gg": 558,
      "Ã©tait": 559,
      "Ġrekk": 560,
      "che": 561,
      "Ġgrand": 562,
      "ĠY": 563,
      "Ġnit": 564,
      "Ġbr": 565,
      "Ġgar": 566,
      "omb": 567,
      "ĠÃ©tait": 568,
      "vi": 569,
      "yaa": 570,
      "ĠlÃ©pp": 571,
      "Ġsam": 572,
      "Ġpr": 573,
      "eur": 574,
      "Ġmoo": 575,
      "aaj": 576,
      "Ġcol": 577,
      "Ġfor": 578,
      "ĠrÃ©ew": 579,
      "Ġbiir": 580,
      "Ãłnk": 581,
      "Ġenfants": 582,
      "ĠmÃªme": 583,
      "eer": 584,
      "ve": 585,
      "Ġ(": 586,
      "Ġpro": 587,
      "ina": 588,
      "ili": 589,
      "Ġmag": 590,
      "Ġteg": 591,
      "Les": 592,
      "ori": 593,
      "wu": 594,
      "Ã©y": 595,
      "eneen": 596,
      "Ġyaay": 597,
      "oor": 598,
      "Ġjour": 599,
      "ist": 600,
      "Ġtemps": 601,
      "Ġaux": 602,
      "Ġloolu": 603,
      "ure": 604,
      "Ġent": 605,
      "ĠbÃ©s": 606,
      "Ġyar": 607,
      "Ġyiy": 608,
      "Ġlon": 609,
      "Ã©r": 610,
      "Ġsunu": 611,
      "ille": 612,
      "itÃ©": 613,
      "Afri": 614,
      "ees": 615,
      "Ã¢": 616,
      "Ġtoo": 617,
      "Ġyoon": 618,
      "ĠgÃ©n": 619,
      "Ġguerre": 620,
      "ĠOgos": 621,
      "uy": 622,
      "Ã»": 623,
      "ond": 624,
      "Ġcor": 625,
      "Ġji": 626,
      "eel": 627,
      "aut": 628,
      "aine": 629,
      "ĠÃĢ": 630,
      "ĠOgosaa": 631,
      "ni": 632,
      "wul": 633,
      "Ġim": 634,
      "Ġdox": 635,
      "Ã©c": 636,
      "Ġdex": 637,
      "eri": 638,
      "Ġjus": 639,
      "Ġgone": 640,
      "Ġwalla": 641,
      "rit": 642,
      "Ã©em": 643,
      "Ġkoy": 644,
      "ĠTu": 645,
      "Ġlool": 646,
      "Ġdaldi": 647,
      "prÃ¨s": 648,
      "jj": 649,
      "lle": 650,
      "ĠE": 651,
      "aari": 652,
      "Ġcont": 653,
      "anc": 654,
      "ĠyÃ«g": 655,
      "ool": 656,
      "Ġfi": 657,
      "Ġfekk": 658,
      "orte": 659,
      "ĠÃ±oom": 660,
      "aiss": 661,
      "ĠLi": 662,
      "Ġdafa": 663,
      "ĠWaaye": 664,
      "ubaab": 665,
      "Ġcela": 666,
      "ad": 667,
      "id": 668,
      "ja": 669,
      "Ġmont": 670,
      "Ġser": 671,
      "ĠfÃł": 672,
      "Ãłnte": 673,
      "ĠÃ±uy": 674,
      "Ġmonde": 675,
      "Ġpass": 676,
      "ĠCi": 677,
      "Ġsamay": 678,
      "Ġas": 679,
      "erm": 680,
      "ett": 681,
      "ors": 682,
      "igÃ©en": 683,
      "Ġndax": 684,
      "Afrique": 685,
      "bb": 686,
      "ue": 687,
      "ono": 688,
      "Ġab": 689,
      "Ġyeek": 690,
      "ert": 691,
      "ils": 692,
      "Ġkow": 693,
      "Ġtey": 694,
      "Ġngir": 695,
      "emb": 696,
      "Ãªt": 697,
      "Ãłttali": 698,
      "aka": 699,
      "Ġyaram": 700,
      "ĠTugal": 701,
      "ic": 702,
      "ju": 703,
      "Ġsouv": 704,
      "aas": 705,
      "Ġcar": 706,
      "Ġtrav": 707,
      "Ġdoole": 708,
      "lÃ©eg": 709,
      "mm": 710,
      "op": 711,
      "ui": 712,
      "ĠR": 713,
      "Ġlox": 714,
      "Ġapp": 715,
      "Ġpeu": 716,
      "ĠjigÃ©en": 717,
      "Ġseet": 718,
      "aux": 719,
      "able": 720,
      "ĠTe": 721,
      "ow": 722,
      "ore": 723,
      "oit": 724,
      "uf": 725,
      "ug": 726,
      "ut": 727,
      "Ġmal": 728,
      "ĠtÃ«": 729,
      "Ġja": 730,
      "ĠjÃ³": 731,
      "Ġkoo": 732,
      "ents": 733,
      "Ġleur": 734,
      "Ã¨res": 735,
      "Ġxare": 736,
      "Ã©ey": 737,
      "Je": 738,
      "La": 739,
      "kat": 740,
      "ng": 741,
      "Ġmet": 742,
      "Ġyooy": 743,
      "ĠfÃłttali": 744,
      "kki": 745,
      "ĠÃłdd": 746,
      "ĠÃłnd": 747,
      "Ġaut": 748,
      "ĠNi": 749,
      "..": 750,
      "19": 751,
      "Ġsaa": 752,
      "Ġcas": 753,
      "Ġal": 754,
      "Ġpouv": 755,
      "Ġtam": 756,
      "Ġfait": 757,
      "Ġfem": 758,
      "Ġciy": 759,
      "ours": 760,
      "ĠnaÃ±": 761,
      "Ġamul": 762,
      "Ġmaison": 763,
      "Ġgarab": 764,
      "nes": 765,
      "oja": 766,
      "par": 767,
      "Ġdul": 768,
      "Ġmes": 769,
      "Ġnaan": 770,
      "Ġsou": 771,
      "Ġbaax": 772,
      "Ġport": 773,
      "Ãłmb": 774,
      "Ġfr": 775,
      "Ġfee": 776,
      "Ġxar": 777,
      "ĠBans": 778,
      "Ġpart": 779,
      "ÅĭÅĭ": 780,
      "Ġnataal": 781,
      "pt": 782,
      "Ã®": 783,
      "Ġ19": 784,
      "Ġsous": 785,
      "ĠjÃłpp": 786,
      "ĠwÃ«r": 787,
      "ind": 788,
      "inn": 789,
      "itu": 790,
      "Ġenc": 791,
      "use": 792,
      "Ã«nd": 793,
      "oppi": 794,
      "ĠFr": 795,
      "Ġchaque": 796,
      "Ġyooyu": 797,
      "ma": 798,
      "okk": 799,
      "ww": 800,
      "Ġ;": 801,
      "ĠlÃ©eg": 802,
      "Ġmoi": 803,
      "Ġneex": 804,
      "ande": 805,
      "ari": 806,
      "ĠdÃ©gg": 807,
      "aÃ±": 808,
      "nÃ©es": 809,
      "ob": 810,
      "Ġdaw": 811,
      "ĠdÃ«gg": 812,
      "Ġlaa": 813,
      "Ġpos": 814,
      "anu": 815,
      "its": 816,
      "Ġress": 817,
      "ĠAm": 818,
      "Ġreg": 819,
      "ĠdÃ©c": 820,
      "uma": 821,
      "Ġmbir": 822,
      "ĠÃ©c": 823,
      "Ġjamais": 824,
      "Ġjamono": 825,
      "Ġboobu": 826,
      "Ġcorps": 827,
      "Ġjusqu": 828,
      "ac": 829,
      "oÅĭ": 830,
      "ÃĢ": 831,
      "ĠÃ«": 832,
      "Ġdoute": 833,
      "Ġloin": 834,
      "Ġnoon": 835,
      "Ġpal": 836,
      "Ġpet": 837,
      "ques": 838,
      "ĠBam": 839,
      "ggÃ©ey": 840,
      "ĠMu": 841,
      "Ġparl": 842,
      "Ãłnn": 843,
      "emp": 844,
      "ĠTubaab": 845,
      "ĠKamer": 846,
      "Ġdund": 847,
      "ĠÃłddina": 848,
      "ĠKamerun": 849,
      "yy": 850,
      "ĠI": 851,
      "enir": 852,
      "Ġconn": 853,
      "Ġacc": 854,
      "Ġpuis": 855,
      "anam": 856,
      "oun": 857,
      "tee": 858,
      "ins": 859,
      "ĠÃłll": 860,
      "elles": 861,
      "Ġvill": 862,
      "ĠdaÃ±": 863,
      "oire": 864,
      "ĠbÃ«gg": 865,
      "ĠÅĪu": 866,
      "ĠjÃ³ge": 867,
      "Le": 868,
      "du": 869,
      "fi": 870,
      "kaay": 871,
      "mis": 872,
      "ĠaprÃ¨s": 873,
      "Ġginn": 874,
      "Ġquel": 875,
      "cher": 876,
      "ĠliggÃ©ey": 877,
      "ĠbÃ«t": 878,
      "ameroun": 879,
      "Qu": 880,
      "ddi": 881,
      "iw": 882,
      "men": 883,
      "tr": 884,
      "ĠÃªtre": 885,
      "Ġdis": 886,
      "ĠmÃłgg": 887,
      "Ã©g": 888,
      "Ġcon": 889,
      "Ġph": 890,
      "ret": 891,
      "Ġta": 892,
      "Ã«m": 893,
      "Ġwi": 894,
      "riv": 895,
      "leu": 896,
      "ĠÃ±i": 897,
      "ĠAl": 898,
      "dec": 899,
      "Ġfaj": 900,
      "Ġsuuf": 901,
      "ĠÃ©taient": 902,
      "ains": 903,
      "Ġcomp": 904,
      "aatu": 905,
      "Ġboppam": 906,
      "ĠmÃ©dec": 907,
      "Ġencore": 908,
      "ĠBamend": 909,
      "ule": 910,
      "Ġont": 911,
      "aad": 912,
      "Ġper": 913,
      "Ġdee": 914,
      "Ġder": 915,
      "Ġti": 916,
      "Ġyaak": 917,
      "Ġfan": 918,
      "Ġfaire": 919,
      "Ġjaar": 920,
      "Ġjot": 921,
      "ital": 922,
      "omp": 923,
      "omme": 924,
      "Ġbare": 925,
      "Ã³om": 926,
      "Ġche": 927,
      "Ġins": 928,
      "Ġndaw": 929,
      "Ġtravers": 930,
      "ga": 931,
      "ĠH": 932,
      "Ġday": 933,
      "Ġmooy": 934,
      "enu": 935,
      "ĠcÃ´": 936,
      "ĠbÃł": 937,
      "Ġpre": 938,
      "ĠprÃ©": 939,
      "ĠtÃłnk": 940,
      "Ãłdd": 941,
      "ĠyÃ«n": 942,
      "Ġfay": 943,
      "alee": 944,
      "Ġmat": 945,
      "ĠÃ±aari": 946,
      "ass": 947,
      "ĠMa": 948,
      "ĠNis": 949,
      "Ġchos": 950,
      "oto": 951,
      "Ġdaj": 952,
      "ĠannÃ©es": 953,
      "Ġtoog": 954,
      "Mon": 955,
      "ate": 956,
      "bar": 957,
      "eet": 958,
      "fu": 959,
      "ok": 960,
      "uw": 961,
      "Ġon": 962,
      "Ġelle": 963,
      "Ġdou": 964,
      "Ġdont": 965,
      "Ġnon": 966,
      "Ġsoo": 967,
      "Ġcons": 968,
      "Ġaus": 969,
      "ane": 970,
      "Ġtee": 971,
      "Ġfour": 972,
      "Ġjoo": 973,
      "Ġga": 974,
      "ets": 975,
      "Ġxol": 976,
      "Ġautre": 977,
      "ĠMb": 978,
      "Ġavant": 979,
      "ĠNd": 980,
      "ĠÃĳu": 981,
      "Ġloxo": 982,
      "Ġtamit": 983,
      "Nous": 984,
      "Ou": 985,
      "ces": 986,
      "loo": 987,
      "lent": 988,
      "na": 989,
      "tte": 990,
      "Ġdeux": 991,
      "Ġterre": 992,
      "ĠyÃ©pp": 993,
      "ĠjÃ©": 994,
      "Ã«l": 995,
      "ĠlaÃ±u": 996,
      "Ġway": 997,
      "Ġwaaye": 998,
      "oroom": 999,
      "Ġvoy": 1000,
      "Ġbiy": 1001,
      "Ġbien": 1002,
      "Ġdaanaka": 1003,
      "ĠCameroun": 1004,
      "Ġrivi": 1005,
      "ĠdoÅĭÅĭ": 1006,
      "ĠfÃłww": 1007,
      "Ġpouvait": 1008,
      "Ġginnaaw": 1009,
      "Ġpremi": 1010,
      "ba": 1011,
      "ble": 1012,
      "dre": 1013,
      "iers": 1014,
      "kt": 1015,
      "pital": 1016,
      "uur": 1017,
      "vre": 1018,
      "Ġlan": 1019,
      "Ġmaa": 1020,
      "ĠsÃ©": 1021,
      "Ġdel": 1022,
      "Ġtopp": 1023,
      "Ãłmm": 1024,
      "Ġfois": 1025,
      "Ġjur": 1026,
      "Ġgun": 1027,
      "Ġquand": 1028,
      "ise": 1029,
      "ĠAy": 1030,
      "Ġrec": 1031,
      "ches": 1032,
      "ĠNig": 1033,
      "ress": 1034,
      "Ġsav": 1035,
      "ĠtrÃ¨s": 1036,
      "ffic": 1037,
      "ĠOgoja": 1038,
      "Ġsolo": 1039,
      "Ġmontag": 1040,
      "ngale": 1041,
      "ĠfÃłttaliku": 1042,
      "Ġregard": 1043,
      "Mais": 1044,
      "app": 1045,
      "bes": 1046,
      "iÃ¨re": 1047,
      "Ġmer": 1048,
      "esp": 1049,
      "Ġag": 1050,
      "ĠbÃ©": 1051,
      "Ġbou": 1052,
      "Ġpu": 1053,
      "anaa": 1054,
      "Ġter": 1055,
      "Ãłq": 1056,
      "Ġyaa": 1057,
      "Ġfam": 1058,
      "Ġfleu": 1059,
      "ĠjÃłn": 1060,
      "ĠwÃłnte": 1061,
      "ĠrÃ«": 1062,
      "ĠrÃ©s": 1063,
      "ĠÃ±oo": 1064,
      "ĠÃ±aar": 1065,
      "Ġvis": 1066,
      "antu": 1067,
      "ĠLe": 1068,
      "imp": 1069,
      "Ġnuy": 1070,
      "ign": 1071,
      "Ġinst": 1072,
      "gue": 1073,
      "Ils": 1074,
      "ĠbÃ«j": 1075,
      "Ġcoup": 1076,
      "ĠFrance": 1077,
      "ĠmÃ©decin": 1078,
      "Ġaussi": 1079,
      "bi": 1080,
      "iens": 1081,
      "ter": 1082,
      "ves": 1083,
      "Ã©et": 1084,
      "Ġsc": 1085,
      "ente": 1086,
      "Ġall": 1087,
      "Ġdell": 1088,
      "Ġtol": 1089,
      "Ġtous": 1090,
      "aill": 1091,
      "aires": 1092,
      "ĠyÃ³": 1093,
      "Ġfin": 1094,
      "arm": 1095,
      "amp": 1096,
      "ettes": 1097,
      "illes": 1098,
      "Ġxal": 1099,
      "Ġva": 1100,
      "Ġsemb": 1101,
      "Ġauc": 1102,
      "ĠMÃ³": 1103,
      "ĠAfrique": 1104,
      "ouver": 1105,
      "ĠWÃłnte": 1106,
      "Ġans": 1107,
      "Ġcolon": 1108,
      "ĠforÃªt": 1109,
      "Ġlong": 1110,
      "eria": 1111,
      "Ġautour": 1112,
      "Ġnoonu": 1113,
      "Ġyaakaar": 1114,
      "ĠbÃłyy": 1115,
      "ĠNiser": 1116,
      "),": 1117,
      "cont": 1118,
      "ey": 1119,
      "ite": 1120,
      "jur": 1121,
      "ki": 1122,
      "Ġmaam": 1123,
      "Ã©p": 1124,
      "Ã©ri": 1125,
      "Ġnir": 1126,
      "Ġsay": 1127,
      "Ġaur": 1128,
      "Ġban": 1129,
      "Ġbord": 1130,
      "Ġtou": 1131,
      "Ġtro": 1132,
      "ĠtÃłng": 1133,
      "Ġyem": 1134,
      "ĠyÃłgg": 1135,
      "oolu": 1136,
      "Ġfais": 1137,
      "Ġgaal": 1138,
      "ĠlaÃ±": 1139,
      "ures": 1140,
      "iss": 1141,
      "ile": 1142,
      "iti": 1143,
      "Ġdugg": 1144,
      "ĠÃ±uul": 1145,
      "Ġsuis": 1146,
      "ĠDu": 1147,
      "Ġnuit": 1148,
      "endre": 1149,
      "anger": 1150,
      "Ã´t": 1151,
      "Ġviol": 1152,
      "ĠjÃ«l": 1153,
      "ettali": 1154,
      "Ġmetti": 1155,
      "ĠNigeria": 1156,
      "ĠMÃ³ris": 1157,
      "af": 1158,
      "dde": 1159,
      "mÃ¨re": 1160,
      "nu": 1161,
      "uÃ±u": 1162,
      "ver": 1163,
      "Åĵ": 1164,
      "Ġ!": 1165,
      "ĠdÃ©s": 1166,
      "ĠdÃ³or": 1167,
      "Ġnan": 1168,
      "Ġnoir": 1169,
      "Ġnoppi": 1170,
      "Ġsent": 1171,
      "Ġbokk": 1172,
      "Ġpi": 1173,
      "Ġplu": 1174,
      "Ãłcc": 1175,
      "oog": 1176,
      "Ġjan": 1177,
      "Ġjaay": 1178,
      "Ġjox": 1179,
      "Ġjeex": 1180,
      "araa": 1181,
      "ĠwÃ©y": 1182,
      "Ġrag": 1183,
      "ĠrÃª": 1184,
      "elaw": 1185,
      "ĠÃ±Ãłkk": 1186,
      "Ġxon": 1187,
      "Ġvers": 1188,
      "aanu": 1189,
      "Ġmujj": 1190,
      "ourd": 1191,
      "Ġbay": 1192,
      "Ã³ol": 1193,
      "Ã³ot": 1194,
      "Ġhab": 1195,
      "ĠdÃ©g": 1196,
      "ĠDa": 1197,
      "Ġguddi": 1198,
      "ĠÃ©tÃ©": 1199,
      "ĠmÃ«noon": 1200,
      "Ġxamul": 1201,
      "Ġrien": 1202,
      "Ã´pital": 1203,
      "ĠrÃ©y": 1204,
      "ĠjÃ«m": 1205,
      "ĠXam": 1206,
      "ilif": 1207,
      "Ġimp": 1208,
      "Ġsouviens": 1209,
      "ĠBansoo": 1210,
      "ĠNiseryaa": 1211,
      ").": 1212,
      "00": 1213,
      "En": 1214,
      "Pour": 1215,
      "ap": 1216,
      "adi": 1217,
      "koo": 1218,
      "lan": 1219,
      "mp": 1220,
      "ngal": 1221,
      "ry": 1222,
      "Ġmurs": 1223,
      "Ã©re": 1224,
      "ĠnÃ©eg": 1225,
      "Ġnettali": 1226,
      "Ġsau": 1227,
      "enf": 1228,
      "aale": 1229,
      "Ġbout": 1230,
      "Ġpie": 1231,
      "Ġfar": 1232,
      "ĠgÃ³or": 1233,
      "ĠgÃłtt": 1234,
      "Ã±Ã±": 1235,
      "Ġweex": 1236,
      "Ġwaaj": 1237,
      "teer": 1238,
      "tement": 1239,
      "ing": 1240,
      "orp": 1241,
      "Ġru": 1242,
      "Ġrou": 1243,
      "ĠÃ±Ã©pp": 1244,
      "Ã©ej": 1245,
      "Ġsec": 1246,
      "uss": 1247,
      "ĠAk": 1248,
      "aise": 1249,
      "chÃ©": 1250,
      "ĠLu": 1251,
      "ĠLoolu": 1252,
      "Ġlib": 1253,
      "Ġlii": 1254,
      "Ġhaut": 1255,
      "otre": 1256,
      "endant": 1257,
      "aata": 1258,
      "rÃ©b": 1259,
      "ĠnjÃ«kk": 1260,
      "Ġitam": 1261,
      "Ġtaxaw": 1262,
      "Ġdoor": 1263,
      "Ġdoomi": 1264,
      "Ġdevant": 1265,
      "...": 1266,
      "Ġfemme": 1267,
      "Ġquelque": 1268,
      "aadama": 1269,
      "Ġchose": 1270,
      "Ġfourmis": 1271,
      "Ġjooju": 1272,
      "Ouest": 1273,
      "lentaan": 1274,
      "ĠriviÃ¨re": 1275,
      "Ġxalaat": 1276,
      "Ġxonq": 1277,
      "ds": 1278,
      "des": 1279,
      "je": 1280,
      "oc": 1281,
      "vent": 1282,
      "ĠV": 1283,
      "Ġub": 1284,
      "Ġemp": 1285,
      "Ġlors": 1286,
      "Ġmom": 1287,
      "Ã©d": 1288,
      "Ã©m": 1289,
      "Ġnun": 1290,
      "aaÃ±": 1291,
      "aalu": 1292,
      "onc": 1293,
      "ong": 1294,
      "Ġcour": 1295,
      "Ġad": 1296,
      "Ġafri": 1297,
      "Ġpeau": 1298,
      "Ġto": 1299,
      "Ġtoit": 1300,
      "ĠtÃłmb": 1301,
      "Ġyee": 1302,
      "Ġfaa": 1303,
      "Ġwet": 1304,
      "Ġwees": 1305,
      "rict": 1306,
      "inu": 1307,
      "orm": 1308,
      "Ġxale": 1309,
      "att": 1310,
      "Ġdire": 1311,
      "Ġseul": 1312,
      "agn": 1313,
      "ouse": 1314,
      "Ġchem": 1315,
      "dic": 1316,
      "ĠSama": 1317,
      "avait": 1318,
      "ĠÂ».": 1319,
      "ĠdÃ«kki": 1320,
      "ĠJe": 1321,
      "Ġarriv": 1322,
      "Ãłlla": 1323,
      "ĠbrÃ»": 1324,
      "ĠÃĢngale": 1325,
      "ĠÃĢngal": 1326,
      "Ġsouvenir": 1327,
      "Ġcase": 1328,
      "Ġsouff": 1329,
      "ĠÃ«pp": 1330,
      "Ġchev": 1331,
      "ĠNdax": 1332,
      "Ġvoyage": 1333,
      "Ġdellu": 1334,
      "ĠjurÃ³om": 1335,
      "Ġafric": 1336,
      "ĠÃĢngalteer": 1337,
      "Au": 1338,
      "Un": 1339,
      "fe": 1340,
      "hui": 1341,
      "hÃ´pital": 1342,
      "ji": 1343,
      "jourd": 1344,
      "ler": 1345,
      "oque": 1346,
      "rait": 1347,
      "rme": 1348,
      "uus": 1349,
      "ĠÅĭ": 1350,
      "Ġdan": 1351,
      "ĠdÃ«": 1352,
      "Ġdaal": 1353,
      "Ġdonn": 1354,
      "Ġmain": 1355,
      "Ġnouv": 1356,
      "Ġnotre": 1357,
      "Ġsox": 1358,
      "Ġsorte": 1359,
      "Ġcr": 1360,
      "Ġcro": 1361,
      "andi": 1362,
      "Ġterm": 1363,
      "oup": 1364,
      "Ġye": 1365,
      "Ġfoo": 1366,
      "Ġfeu": 1367,
      "ĠjÃłng": 1368,
      "Ã«w": 1369,
      "Ġlay": 1370,
      "enti": 1371,
      "ites": 1372,
      "ĠÃłgg": 1373,
      "Ġroute": 1374,
      "leil": 1375,
      "Ã¨g": 1376,
      "ĠÃ±Ã«w": 1377,
      "Ã©ex": 1378,
      "Ġseule": 1379,
      "ĠBi": 1380,
      "ĠBu": 1381,
      "autre": 1382,
      "dey": 1383,
      "Ġparti": 1384,
      "Ãłnd": 1385,
      "ĠLa": 1386,
      "enne": 1387,
      "Ġhomme": 1388,
      "ĠDaan": 1389,
      "umaa": 1390,
      "Ġamoon": 1391,
      "ĠKu": 1392,
      "Ġob": 1393,
      "ĠdaÃ±u": 1394,
      "Ġmii": 1395,
      "Ġsore": 1396,
      "Ġsoleil": 1397,
      "ĠrÃ©p": 1398,
      "Ġtudd": 1399,
      "Ġwut": 1400,
      "Ġdunyaa": 1401,
      "Ġentre": 1402,
      "Ġcontre": 1403,
      "ĠpassÃ©": 1404,
      "ĠBanso": 1405,
      "Ġvillage": 1406,
      "ĠbÃ©rÃ©b": 1407,
      "ĠbÃłyyi": 1408,
      "Ġtrop": 1409,
      "bo": 1410,
      "bles": 1411,
      "fois": 1412,
      "goo": 1413,
      "ier": 1414,
      "ique": 1415,
      "kanam": 1416,
      "lÃ©": 1417,
      "uti": 1418,
      "vant": 1419,
      "we": 1420,
      "£s": 1421,
      "Ã£s": 1422,
      "Ġdin": 1423,
      "Ġdina": 1424,
      "Ġdist": 1425,
      "Ġlaaj": 1426,
      "Ġmot": 1427,
      "Ġmoin": 1428,
      "Ġcet": 1429,
      "Ġbon": 1430,
      "reux": 1431,
      "Ġtel": 1432,
      "Ġtour": 1433,
      "Ġyaatu": 1434,
      "erbes": 1435,
      "Ã«s": 1436,
      "Ġki": 1437,
      "rir": 1438,
      "inst": 1439,
      "orest": 1440,
      "Ġren": 1441,
      "elu": 1442,
      "Ã©egu": 1443,
      "Ġvent": 1444,
      "aane": 1445,
      "atu": 1446,
      "ations": 1447,
      "ĠbaÃ±": 1448,
      "uses": 1449,
      "Ġneen": 1450,
      "Ã©tÃ©": 1451,
      "Ġngay": 1452,
      "ĠnaÃ±u": 1453,
      "ĠNg": 1454,
      "ables": 1455,
      "Ġgudd": 1456,
      "ĠForest": 1457,
      "oix": 1458,
      "ĠÃ©p": 1459,
      "ĠÂ»,": 1460,
      "ture": 1461,
      "iyaa": 1462,
      "Ġarb": 1463,
      "Ġtudde": 1464,
      "Ã§on": 1465,
      "Ġdokt": 1466,
      "ĠmÃ©m": 1467,
      "Ġdevait": 1468,
      "ĠlÃłrme": 1469,
      "ĠgÃ©nn": 1470,
      "Ġpeut": 1471,
      "Ġseetlu": 1472,
      "Ġfemmes": 1473,
      "part": 1474,
      "Ġphoto": 1475,
      "Ġtakk": 1476,
      "ĠHouse": 1477,
      "ĠgunÃ³or": 1478,
      "armÃ©e": 1479,
      "Ġcoloni": 1480,
      "Ġaurait": 1481,
      "Ġviolence": 1482,
      "Ġfaral": 1483,
      "ĠtÃłmbalee": 1484,
      "ĠForestry": 1485,
      "Ġdoktoor": 1486,
      "Ce": 1487,
      "Et": 1488,
      "ace": 1489,
      "be": 1490,
      "eff": 1491,
      "gis": 1492,
      "lÃł": 1493,
      "let": 1494,
      "lanc": 1495,
      "ote": 1496,
      "ode": 1497,
      "Ġeu": 1498,
      "Ġdoy": 1499,
      "Ġmoroom": 1500,
      "Ġnom": 1501,
      "Ġnos": 1502,
      "Ġsil": 1503,
      "Ġaw": 1504,
      "Ġbois": 1505,
      "Ġporte": 1506,
      "anÃ§": 1507,
      "anni": 1508,
      "Ġtur": 1509,
      "ĠtÃłkk": 1510,
      "Ġtang": 1511,
      "ĠyÃ«": 1512,
      "oot": 1513,
      "erc": 1514,
      "Ġfas": 1515,
      "Ġjou": 1516,
      "Ġjard": 1517,
      "ĠjÃ©em": 1518,
      "quel": 1519,
      "ales": 1520,
      "alitÃ©": 1521,
      "amb": 1522,
      "Ġgens": 1523,
      "Ġgaaw": 1524,
      "etti": 1525,
      "ĠkÃłdd": 1526,
      "Ġwon": 1527,
      "ĠwÃ³or": 1528,
      "rice": 1529,
      "Ġciel": 1530,
      "Ġleer": 1531,
      "eem": 1532,
      "Ġxaw": 1533,
      "Ã©ere": 1534,
      "Ġvr": 1535,
      "Ġvoir": 1536,
      "ĠvÃ©c": 1537,
      "Ã©taient": 1538,
      "ggi": 1539,
      "Ġnaq": 1540,
      "ĠMau": 1541,
      "Ġret": 1542,
      "Ġrev": 1543,
      "Ġyuy": 1544,
      "imag": 1545,
      "ĠKon": 1546,
      "ĠÃĵ": 1547,
      "Ġplaine": 1548,
      "Ġcomm": 1549,
      "ĠCa": 1550,
      "Ġmiir": 1551,
      "Ġndox": 1552,
      "Ġsowu": 1553,
      "tÃ©ri": 1554,
      "budu": 1555,
      "Ġtaxoon": 1556,
      "Ġsold": 1557,
      "ction": 1558,
      "Ġboog": 1559,
      "Ġchauss": 1560,
      "Ġjours": 1561,
      "Ã»t": 1562,
      "Ġvillages": 1563,
      "ĠdaÃ±oo": 1564,
      "Quand": 1565,
      "ĠBamenda": 1566,
      "Ġmontagnes": 1567,
      "Ġmoment": 1568,
      "ĠmÃ©moire": 1569,
      "Ġjardin": 1570,
      "aj": 1571,
      "ek": 1572,
      "ew": 1573,
      "nÃ©e": 1574,
      "ph": 1575,
      "rent": 1576,
      "uit": 1577,
      "Ġz": 1578,
      "Ġmort": 1579,
      "Ġnee": 1580,
      "Ġsim": 1581,
      "Ġsoppi": 1582,
      "Ġcert": 1583,
      "Ġcamp": 1584,
      "Ġbun": 1585,
      "Ġbrit": 1586,
      "Ġbind": 1587,
      "Ġpri": 1588,
      "Ġpres": 1589,
      "Ġpens": 1590,
      "Ġpoin": 1591,
      "Ġdeme": 1592,
      "Ġtun": 1593,
      "Ġtard": 1594,
      "Ãłr": 1595,
      "Ġyit": 1596,
      "Ġyeux": 1597,
      "Ġyeneen": 1598,
      "ertÃ©": 1599,
      "Ġfo": 1600,
      "alle": 1601,
      "arg": 1602,
      "Ġgard": 1603,
      "Ġkil": 1604,
      "Ġwoo": 1605,
      "Ġraw": 1606,
      "Ġromb": 1607,
      "ĠÃ±a": 1608,
      "Ġxeet": 1609,
      "Ġven": 1610,
      "Ġvois": 1611,
      "aana": 1612,
      "ats": 1613,
      "atul": 1614,
      "Ġdigg": 1615,
      "Ġdiiw": 1616,
      "ommes": 1617,
      "ĠBÃ©s": 1618,
      "ĠAb": 1619,
      "Ġnew": 1620,
      "ĠMan": 1621,
      "Ġrem": 1622,
      "Ġavaient": 1623,
      "Ġyuux": 1624,
      "Ġheur": 1625,
      "ĠdÃ©p": 1626,
      "ouvert": 1627,
      "ĠÃ©tr": 1628,
      "endu": 1629,
      "Ġtrans": 1630,
      "Ġsong": 1631,
      "Ġngiy": 1632,
      "Ġsori": 1633,
      "Ġdemee": 1634,
      "Ġdefar": 1635,
      "ards": 1636,
      "ĠmÃ©dic": 1637,
      "Ġatum": 1638,
      "Ġxelam": 1639,
      "Ġgrands": 1640,
      "Ġdexug": 1641,
      "ĠEn": 1642,
      "ĠfÃłtte": 1643,
      "Ġfeebar": 1644,
      "Ġparler": 1645,
      "ĠmÃłgget": 1646,
      "ĠcÃ´tÃ©": 1647,
      "ression": 1648,
      "Ġtollu": 1649,
      "Ġaucun": 1650,
      "Ġmujjee": 1651,
      "ĠDafa": 1652,
      "Ġsauv": 1653,
      "ĠlibertÃ©": 1654,
      "Ġlorsque": 1655,
      "Ġweesoo": 1656,
      "annique": 1657,
      "ĠMaurice": 1658,
      "Ġbritannique": 1659,
      "Og": 1660,
      "Une": 1661,
      "bbu": 1662,
      "cul": 1663,
      "iri": 1664,
      "ici": 1665,
      "jours": 1666,
      "kati": 1667,
      "lait": 1668,
      "og": 1669,
      "saalu": 1670,
      "ton": 1671,
      "taan": 1672,
      "tant": 1673,
      "Ġeff": 1674,
      "ĠdÃ©t": 1675,
      "ĠdÃ«n": 1676,
      "Ġlaiss": 1677,
      "ĠlÃ©g": 1678,
      "Ġmaan": 1679,
      "este": 1680,
      "Ġnopp": 1681,
      "Ġndey": 1682,
      "Ġsag": 1683,
      "Ġsais": 1684,
      "Ġsens": 1685,
      "Ġaff": 1686,
      "Ġatt": 1687,
      "Ġbaa": 1688,
      "Ġbri": 1689,
      "Ġbaay": 1690,
      "Ġderet": 1691,
      "Ġtab": 1692,
      "ÃłÃ±Ã±": 1693,
      "aille": 1694,
      "Ġfl": 1695,
      "Ġfat": 1696,
      "Ġfro": 1697,
      "Ġfra": 1698,
      "Ġfond": 1699,
      "ĠjÃ«kk": 1700,
      "aloon": 1701,
      "amaan": 1702,
      "Ġgaa": 1703,
      "Ġlaqu": 1704,
      "Ġker": 1705,
      "Ġwe": 1706,
      "urop": 1707,
      "oonte": 1708,
      "org": 1709,
      "kkali": 1710,
      "ĠÃ±ax": 1711,
      "Ġxool": 1712,
      "Ġvol": 1713,
      "Ġville": 1714,
      "axas": 1715,
      "Ġnii": 1716,
      "omm": 1717,
      "Ġsedd": 1718,
      "agne": 1719,
      "Ġtekk": 1720,
      "Ġaujourd": 1721,
      "ionn": 1722,
      "Ġref": 1723,
      "Ġrey": 1724,
      "Ãªme": 1725,
      "abar": 1726,
      "oss": 1727,
      "Ġcap": 1728,
      "Ġhau": 1729,
      "roit": 1730,
      "andÃ©em": 1731,
      "ectes": 1732,
      "aines": 1733,
      "ĠFi": 1734,
      "Ġgiy": 1735,
      "Ġmellentaan": 1736,
      "onne": 1737,
      "Ġgrande": 1738,
      "Ġjudd": 1739,
      "miÃ¨re": 1740,
      "Ġtoutes": 1741,
      "ĠXanaa": 1742,
      "ĠgÃ©nt": 1743,
      "ĠdoxandÃ©em": 1744,
      "Ġcarte": 1745,
      "Ġconnaiss": 1746,
      "ĠBamendaa": 1747,
      "fficer": 1748,
      "Ġfleuves": 1749,
      "Ġscorp": 1750,
      "Ġdelloo": 1751,
      "Ġnirook": 1752,
      "Ġhabit": 1753,
      "ĠvÃ©cu": 1754,
      "Ġretour": 1755,
      "Ġpresque": 1756,
      "Ġyuuxu": 1757,
      "Ġheures": 1758,
      "Ogoja": 1759,
      "saalum": 1760,
      "Tout": 1761,
      "ah": 1762,
      "fes": 1763,
      "gl": 1764,
      "of": 1765,
      "pe": 1766,
      "rÃ©e": 1767,
      "tÃ©s": 1768,
      "vir": 1769,
      "Ġir": 1770,
      "ĠIl": 1771,
      "Ġdit": 1772,
      "Ġdama": 1773,
      "ĠmÃ©t": 1774,
      "Ġmili": 1775,
      "ese": 1776,
      "ĠnÃ©egu": 1777,
      "Ġsang": 1778,
      "ĠsÃ©en": 1779,
      "aate": 1780,
      "Ġcelle": 1781,
      "ĠcrÃ©": 1782,
      "Ġceux": 1783,
      "Ġac": 1784,
      "Ġbaat": 1785,
      "Ġbeek": 1786,
      "ĠbÃ¢": 1787,
      "Ġpous": 1788,
      "Ġpendant": 1789,
      "rer": 1790,
      "Ġtali": 1791,
      "Ġteel": 1792,
      "aie": 1793,
      "ĠyÃ«kk": 1794,
      "oogu": 1795,
      "Ġfou": 1796,
      "Ġfees": 1797,
      "Ã«t": 1798,
      "ĠgÃ©ej": 1799,
      "Ġgoogu": 1800,
      "Ġkar": 1801,
      "Ġkese": 1802,
      "Ġwone": 1803,
      "ung": 1804,
      "ines": 1805,
      "urg": 1806,
      "ilis": 1807,
      "kkal": 1808,
      "leur": 1809,
      "Ã¨ne": 1810,
      "Ġxi": 1811,
      "Ġxaar": 1812,
      "ĠxÃ©y": 1813,
      "anti": 1814,
      "antes": 1815,
      "asse": 1816,
      "ull": 1817,
      "agg": 1818,
      "Ġbate": 1819,
      "Ġend": 1820,
      "Ġtere": 1821,
      "Ġtefes": 1822,
      "Ġngoon": 1823,
      "Ġnguur": 1824,
      "ĠMaa": 1825,
      "ĠMÃ«n": 1826,
      "ĠMuy": 1827,
      "ĠMoonte": 1828,
      "Ġrel": 1829,
      "Ġavions": 1830,
      "Ġavons": 1831,
      "eut": 1832,
      "Ġchar": 1833,
      "Ġchau": 1834,
      "Ġhum": 1835,
      "ĠdÃ©f": 1836,
      "ĠDe": 1837,
      "ecc": 1838,
      "ĠÃ¢": 1839,
      "igu": 1840,
      "Ġmiin": 1841,
      "aliki": 1842,
      "ĠWalla": 1843,
      "ccu": 1844,
      "Ġsoir": 1845,
      "ĠdÃ«kke": 1846,
      "ĠGuy": 1847,
      "ĠGuw": 1848,
      "iyaan": 1849,
      "Ġenfant": 1850,
      "ĠJam": 1851,
      "ĠrÃ©g": 1852,
      "Ġtuuti": 1853,
      "Ã§ons": 1854,
      "Ġdoit": 1855,
      "Ġdoomu": 1856,
      "Ġraj": 1857,
      "Ġracont": 1858,
      "ĠSud": 1859,
      "ĠYÃłlla": 1860,
      "Ġsunuy": 1861,
      "Ġjiit": 1862,
      "llem": 1863,
      "Ġasamaan": 1864,
      "Ġappris": 1865,
      "ĠfranÃ§": 1866,
      "Ġpartir": 1867,
      "Ã®tre": 1868,
      "itude": 1869,
      "ĠFrÃ£s": 1870,
      "maÅĭ": 1871,
      "Ġposte": 1872,
      "ĠIbo": 1873,
      "Ġconnu": 1874,
      "Ġpuiss": 1875,
      "Ġdayo": 1876,
      "ĠyÃ«ngu": 1877,
      "Ġdouce": 1878,
      "ĠjÃ©ggi": 1879,
      "ĠyÃ³bbu": 1880,
      "Ġsemble": 1881,
      "Ġfaisait": 1882,
      "Ġnangu": 1883,
      "ĠdÃ©glu": 1884,
      "Ġarbres": 1885,
      "Ġsilence": 1886,
      "ĠkÃłddu": 1887,
      "Ġfrapp": 1888,
      "Ġlaquelle": 1889,
      "Ġmilieu": 1890,
      "ĠGuyane": 1891,
      "ĠGuwiyaan": 1892,
      "De": 1893,
      "Dans": 1894,
      "Elle": 1895,
      "Si": 1896,
      "act": 1897,
      "gÃłnn": 1898,
      "ies": 1899,
      "ide": 1900,
      "jaay": 1901,
      "ka": 1902,
      "kom": 1903,
      "lo": 1904,
      "nement": 1905,
      "ole": 1906,
      "sa": 1907,
      "tin": 1908,
      "tres": 1909,
      "wa": 1910,
      "woo": 1911,
      "Ã¯": 1912,
      "Ġlit": 1913,
      "Ġlaata": 1914,
      "Ġmou": 1915,
      "Ġmur": 1916,
      "Ġmeu": 1917,
      "Ġmains": 1918,
      "Ġnoo": 1919,
      "ĠnÃ«": 1920,
      "Ġnanu": 1921,
      "ĠsÃłn": 1922,
      "ĠsÃłkk": 1923,
      "onte": 1924,
      "Ġai": 1925,
      "Ġbat": 1926,
      "Ġpis": 1927,
      "Ġpris": 1928,
      "Ġperm": 1929,
      "ĠtÃ©y": 1930,
      "ĠtÃ©ere": 1931,
      "ail": 1932,
      "Ġyab": 1933,
      "Ġyilif": 1934,
      "ĠyÃ©re": 1935,
      "Ġfii": 1936,
      "ĠfÃ©ex": 1937,
      "Ġjant": 1938,
      "Ġjoor": 1939,
      "Ġgan": 1940,
      "ĠgÃ©m": 1941,
      "Ġkon": 1942,
      "Ġkay": 1943,
      "riÃ¨re": 1944,
      "temps": 1945,
      "enture": 1946,
      "Ġquit": 1947,
      "isme": 1948,
      "Ġlekk": 1949,
      "kkee": 1950,
      "ĠrÃ¨g": 1951,
      "Ã¨te": 1952,
      "ĠÃ±e": 1953,
      "Ġxeer": 1954,
      "Ġxuus": 1955,
      "Ġvous": 1956,
      "Ġvoit": 1957,
      "Ġvoix": 1958,
      "iru": 1959,
      "Ġngelaw": 1960,
      "ĠMoo": 1961,
      "ĠMar": 1962,
      "ĠMas": 1963,
      "cept": 1964,
      "Ġparce": 1965,
      "Ġrej": 1966,
      "Ġretr": 1967,
      "Ġluy": 1968,
      "chÃ©s": 1969,
      "ĠNat": 1970,
      "ĠNord": 1971,
      "Ãªtes": 1972,
      "Ġsukk": 1973,
      "Ġhommes": 1974,
      "iment": 1975,
      "Ġplate": 1976,
      "ends": 1977,
      "Ġinc": 1978,
      "Ġindi": 1979,
      "Ġinter": 1980,
      "Ġmeloon": 1981,
      "avais": 1982,
      "ĠÃ©ch": 1983,
      "Ġangl": 1984,
      "Ġmoomu": 1985,
      "Ġgise": 1986,
      "iya": 1987,
      "Ã´le": 1988,
      "Ġarm": 1989,
      "eaux": 1990,
      "Ġwuti": 1991,
      "Ġwaroon": 1992,
      "Ġmasul": 1993,
      "ĠÃĳÃłkk": 1994,
      "ĠlÃłqu": 1995,
      "Ġnature": 1996,
      "Ġmarche": 1997,
      "Ġforce": 1998,
      "ĠrÃ©ewi": 1999,
      "ĠrÃ©ewum": 2000,
      "Ġpassage": 2001,
      "Ġmaladi": 2002,
      "Ġgarabi": 2003,
      "ĠfrÃ¨re": 2004,
      "Ġaccro": 2005,
      "teek": 2006,
      "Ġdisp": 2007,
      "Ġtiim": 2008,
      "ĠprÃ©c": 2009,
      "Ġmatin": 2010,
      "ĠpremiÃ¨re": 2011,
      "Ġfamille": 2012,
      "Ġfleuve": 2013,
      "Ġtoujours": 2014,
      "Ġpieds": 2015,
      "Ġyegg": 2016,
      "Ġmoins": 2017,
      "imagine": 2018,
      "Ġzone": 2019,
      "Ġkilom": 2020,
      "Ġrawati": 2021,
      "gÃłnnaar": 2022,
      "aur": 2023,
      "aff": 2024,
      "acc": 2025,
      "bli": 2026,
      "dess": 2027,
      "ere": 2028,
      "fee": 2029,
      "faraa": 2030,
      "hum": 2031,
      "herbes": 2032,
      "ible": 2033,
      "joo": 2034,
      "ke": 2035,
      "kun": 2036,
      "lus": 2037,
      "min": 2038,
      "maaÃ±": 2039,
      "mÃªme": 2040,
      "ogue": 2041,
      "pl": 2042,
      "tal": 2043,
      "tout": 2044,
      "tÃ´t": 2045,
      "uri": 2046,
      "vÃ©": 2047,
      "vait": 2048,
      "waan": 2049,
      "ze": 2050,
      "Ġeux": 2051,
      "Ġesp": 2052,
      "ĠdÃłll": 2053,
      "Ġleneen": 2054,
      "ĠlÃ«nd": 2055,
      "Ġmanger": 2056,
      "Ġneneen": 2057,
      "Ġsel": 2058,
      "eng": 2059,
      "onk": 2060,
      "Ġcl": 2061,
      "Ġcu": 2062,
      "Ġbee": 2063,
      "ĠbÃłnn": 2064,
      "Ġboroom": 2065,
      "Ġpe": 2066,
      "Ġpo": 2067,
      "Ġple": 2068,
      "Ġpir": 2069,
      "Ġdekkali": 2070,
      "Ġth": 2071,
      "ĠtÃł": 2072,
      "Ġtas": 2073,
      "ĠtÃ³": 2074,
      "Ġtaw": 2075,
      "Ġtoute": 2076,
      "air": 2077,
      "Ġyat": 2078,
      "Ġyax": 2079,
      "ĠyÃ©em": 2080,
      "Ġfen": 2081,
      "Ġfit": 2082,
      "Ġfau": 2083,
      "Ġjo": 2084,
      "Ġjeu": 2085,
      "Ġjub": 2086,
      "quoi": 2087,
      "allu": 2088,
      "Ã«pp": 2089,
      "ame": 2090,
      "amour": 2091,
      "ĠgÃ«": 2092,
      "Ġkaw": 2093,
      "Ġkook": 2094,
      "Ġkanam": 2095,
      "Ġweer": 2096,
      "teur": 2097,
      "inÃ©": 2098,
      "inaire": 2099,
      "ilit": 2100,
      "eewul": 2101,
      "Ġrais": 2102,
      "Ġrest": 2103,
      "Ġrout": 2104,
      "Ġreste": 2105,
      "ela": 2106,
      "Ġniy": 2107,
      "Ġdiff": 2108,
      "Ġdiffic": 2109,
      "aayu": 2110,
      "ĠBiyaa": 2111,
      "usi": 2112,
      "Ġbii": 2113,
      "Ġnaka": 2114,
      "Ġparfois": 2115,
      "Ġrep": 2116,
      "ĠlumiÃ¨re": 2117,
      "chait": 2118,
      "Ġchale": 2119,
      "ĠLÃ©eg": 2120,
      "Ġlim": 2121,
      "ĠfaÃ§on": 2122,
      "ĠSaa": 2123,
      "ĠSeen": 2124,
      "aaral": 2125,
      "Ġguer": 2126,
      "ĠTeewul": 2127,
      "ĠmbÃ³ot": 2128,
      "ĠKÃ«r": 2129,
      "Ġsaf": 2130,
      "ect": 2131,
      "Ġjege": 2132,
      "ĠÃ©tions": 2133,
      "Ġoff": 2134,
      "endue": 2135,
      "Ġcompr": 2136,
      "Ġgii": 2137,
      "oyy": 2138,
      "avoir": 2139,
      "Ġsoci": 2140,
      "anteer": 2141,
      "rÃ©es": 2142,
      "Ġnaaj": 2143,
      "Ġanci": 2144,
      "Ġgisaat": 2145,
      "but": 2146,
      "Ġenfance": 2147,
      "ĠrÃ©er": 2148,
      "ĠÅĪaari": 2149,
      "Ã§u": 2150,
      "Ġwute": 2151,
      "ĠmÃªmes": 2152,
      "Ġdeven": 2153,
      "ĠjÃ«f": 2154,
      "ĠkÃ«ram": 2155,
      "Ġrapp": 2156,
      "Ġvieille": 2157,
      "Ġbras": 2158,
      "ĠgarÃ§ons": 2159,
      "ombre": 2160,
      "ĠprÃ¨s": 2161,
      "Ã¢ge": 2162,
      "Ġass": 2163,
      "ĠNiis": 2164,
      "Ġressent": 2165,
      "Ġressemb": 2166,
      "Ġpalanteer": 2167,
      "Ġparlait": 2168,
      "Ġaccomp": 2169,
      "ĠAlmaÅĭ": 2170,
      "ĠAlmaaÃ±": 2171,
      "Ġderni": 2172,
      "Ġinsectes": 2173,
      "fukki": 2174,
      "okÃ«r": 2175,
      "Ġsoos": 2176,
      "Åĵur": 2177,
      "Ġjanook": 2178,
      "Ġubbi": 2179,
      "Ġwetu": 2180,
      "Ġcrois": 2181,
      "Ġfoofu": 2182,
      "Ġpartie": 2183,
      "ĠdaÃ±uy": 2184,
      "Ġtangor": 2185,
      "Ġsoldaar": 2186,
      "Ġdiggante": 2187,
      "Ġfroid": 2188,
      "ĠyÃ«kkati": 2189,
      "Ġbateau": 2190,
      "ccup": 2191,
      "ĠgÃ©mmi": 2192,
      "dessus": 2193,
      "ĠlÃ«ndÃ«m": 2194,
      "ĠbÃłnneex": 2195,
      "Ġroutes": 2196,
      "ĠBiyaafaraa": 2197,
      "Ġchaleur": 2198,
      "Al": 2199,
      "Peut": 2200,
      "Sans": 2201,
      "bas": 2202,
      "cour": 2203,
      "coup": 2204,
      "der": 2205,
      "dÃ©et": 2206,
      "fs": 2207,
      "grÃ©": 2208,
      "heur": 2209,
      "ien": 2210,
      "ient": 2211,
      "ict": 2212,
      "jÃł": 2213,
      "jets": 2214,
      "lÃ¨": 2215,
      "mer": 2216,
      "oÃ»t": 2217,
      "puis": 2218,
      "ru": 2219,
      "rÃªt": 2220,
      "ross": 2221,
      "ukaay": 2222,
      "vres": 2223,
      "waat": 2224,
      "wuma": 2225,
      "Ġis": 2226,
      "Ġut": 2227,
      "Ġdaa": 2228,
      "Ġdaaw": 2229,
      "ĠdÃ»": 2230,
      "Ġlal": 2231,
      "Ġlar": 2232,
      "Ġmill": 2233,
      "Ġmilit": 2234,
      "Ã©elu": 2235,
      "Ġndi": 2236,
      "Ġnaiss": 2237,
      "Ġsor": 2238,
      "Ġsimp": 2239,
      "Ġsalle": 2240,
      "onde": 2241,
      "Ġcos": 2242,
      "Ġcond": 2243,
      "Ġati": 2244,
      "Ġaim": 2245,
      "Ġbant": 2246,
      "Ġboy": 2247,
      "Ġbeau": 2248,
      "Ġbees": 2249,
      "Ġbari": 2250,
      "Ġblan": 2251,
      "Ġblanc": 2252,
      "Ġpou": 2253,
      "reur": 2254,
      "Ġtar": 2255,
      "Ġtubaab": 2256,
      "aite": 2257,
      "Ġyow": 2258,
      "Ġfaut": 2259,
      "ĠjÃłll": 2260,
      "Ġjii": 2261,
      "Ġjaxas": 2262,
      "quÃ©": 2263,
      "alc": 2264,
      "alu": 2265,
      "aloo": 2266,
      "aleek": 2267,
      "arde": 2268,
      "Ã«cc": 2269,
      "amm": 2270,
      "aments": 2271,
      "Ġlakk": 2272,
      "ĠkÃłtt": 2273,
      "ĠkÃ©em": 2274,
      "Ġwaa": 2275,
      "Ġwaar": 2276,
      "Ġwoy": 2277,
      "Ġwow": 2278,
      "ĠwÃ«nd": 2279,
      "rise": 2280,
      "teurs": 2281,
      "entrÃ©e": 2282,
      "Ġciment": 2283,
      "uru": 2284,
      "oonu": 2285,
      "eef": 2286,
      "Ġmax": 2287,
      "Ġroi": 2288,
      "Ã¨tres": 2289,
      "ĠxÃłmm": 2290,
      "Ã©edÃ©et": 2291,
      "Ġvu": 2292,
      "Ġmuur": 2293,
      "Ġdestin": 2294,
      "Ġdiis": 2295,
      "Ġsew": 2296,
      "Ġbawoo": 2297,
      "Ġens": 2298,
      "Ã©tais": 2299,
      "ĠMok": 2300,
      "Ãłndi": 2301,
      "ĠNj": 2302,
      "Ġbuy": 2303,
      "abord": 2304,
      "ose": 2305,
      "ĠLÃ©pp": 2306,
      "ĠliÃ±": 2307,
      "ĠSunu": 2308,
      "Ġsub": 2309,
      "Ġsui": 2310,
      "ĠhÃ©": 2311,
      "ĠdÃ©nd": 2312,
      "ĠDist": 2313,
      "ĠDaÃ±": 2314,
      "Ġguy": 2315,
      "otos": 2316,
      "Ġmbind": 2317,
      "ĠsaÃ±": 2318,
      "Ġsurtout": 2319,
      "Ġcommen": 2320,
      "ĠFa": 2321,
      "Ġmiy": 2322,
      "ÅĪu": 2323,
      "Ġinf": 2324,
      "ĠWaaw": 2325,
      "ĠndÃłnk": 2326,
      "eeku": 2327,
      "anteek": 2328,
      "exe": 2329,
      "ĠmÃ«nul": 2330,
      "ĠGone": 2331,
      "aller": 2332,
      "Ġanim": 2333,
      "Ġjuum": 2334,
      "Ġnjab": 2335,
      "ĠnjÃłmb": 2336,
      "midi": 2337,
      "Ġvieux": 2338,
      "aaxaan": 2339,
      "Ã§ait": 2340,
      "aamu": 2341,
      "ĠgÃ«noon": 2342,
      "Ġmasu": 2343,
      "ĠÃĳoom": 2344,
      "ordinaire": 2345,
      "ĠlÃłmp": 2346,
      "Ġraf": 2347,
      "lic": 2348,
      "Ġexp": 2349,
      "Ġcouleur": 2350,
      "ĠmarchÃ©": 2351,
      "Ġsamp": 2352,
      "ĠprÃ©s": 2353,
      "Ġforme": 2354,
      "oria": 2355,
      "oritÃ©": 2356,
      "ĠgÃ©nÃ©r": 2357,
      "ident": 2358,
      "Ġservi": 2359,
      "uire": 2360,
      "Ġloxoom": 2361,
      "ablement": 2362,
      "ĠTey": 2363,
      "nglet": 2364,
      "ĠNice": 2365,
      "ĠfeeÃ±": 2366,
      "ĠÃ©cl": 2367,
      "ĠÃ©cout": 2368,
      "Quel": 2369,
      "ĠmÃłggat": 2370,
      "Ġconf": 2371,
      "Ġphotos": 2372,
      "Ġfajkat": 2373,
      "Ġfanaan": 2374,
      "ĠcÃ´te": 2375,
      "ĠyÃ«ngal": 2376,
      "Ġchoses": 2377,
      "Ġmontagne": 2378,
      "ĠrÃ«bb": 2379,
      "Ġvisage": 2380,
      "ĠLegoo": 2381,
      "Ġaucune": 2382,
      "Ġlongtemps": 2383,
      "Ġjaneer": 2384,
      "Ġragal": 2385,
      "ĠrÃªve": 2386,
      "Ġhauts": 2387,
      "jeÅĭ": 2388,
      "ĠVict": 2389,
      "Ġafricain": 2390,
      "Ġnouveau": 2391,
      "Ġfeuilles": 2392,
      "Ġrencont": 2393,
      "gisu": 2394,
      "Ġnoms": 2395,
      "Ġvrai": 2396,
      "tÃ©rieur": 2397,
      "Ġchaussettes": 2398,
      "Ġdiiwaan": 2399,
      "ĠmÃ©dicaments": 2400,
      "ĠEnjeÅĭ": 2401,
      "Ġsauvages": 2402,
      "Ġkeroog": 2403,
      "Ġhautes": 2404,
      "ĠJamono": 2405,
      "Ġdouceur": 2406,
      "Ġmeubles": 2407,
      "ĠtÃ©ye": 2408,
      "ĠÃĳÃłkkul": 2409,
      "Ġcuir": 2410,
      "Ġpirogue": 2411,
      "ĠtÃ³okÃ«r": 2412,
      "Ġraison": 2413,
      "ĠsociÃ©tÃ©": 2414,
      "ĠwÃ«ndÃ©elu": 2415,
      "ĠxÃłmmee": 2416,
      "ĠDistrict": 2417,
      "ngleterre": 2418,
      "ĠLegoos": 2419,
      "ĠVictoria": 2420,
      "Angleterre": 2421,
      "Cette": 2422,
      "Ma": 2423,
      "Sur": 2424,
      "ade": 2425,
      "aprÃ¨s": 2426,
      "bout": 2427,
      "cs": 2428,
      "cre": 2429,
      "edd": 2430,
      "fal": 2431,
      "hme": 2432,
      "homme": 2433,
      "ire": 2434,
      "jant": 2435,
      "maa": 2436,
      "ner": 2437,
      "niy": 2438,
      "oh": 2439,
      "oÃ¹": 2440,
      "per": 2441,
      "pir": 2442,
      "rÃ©s": 2443,
      "sent": 2444,
      "thme": 2445,
      "xi": 2446,
      "Ġor": 2447,
      "īt": 2448,
      "Ġdur": 2449,
      "Ġdang": 2450,
      "ĠdÃ«g": 2451,
      "ĠdÃłq": 2452,
      "Ġdagg": 2453,
      "Ġlopp": 2454,
      "Ġlanu": 2455,
      "Ġmen": 2456,
      "Ġmous": 2457,
      "ĠmÃ©n": 2458,
      "Ġmook": 2459,
      "Ġmaak": 2460,
      "ĠmÃłnd": 2461,
      "ĠmÃłr": 2462,
      "esc": 2463,
      "Ġnus": 2464,
      "Ġnelaw": 2465,
      "Ġst": 2466,
      "Ġsant": 2467,
      "Ġsig": 2468,
      "Ġseng": 2469,
      "enant": 2470,
      "aare": 2471,
      "Ġcan": 2472,
      "Ġcam": 2473,
      "Ġcris": 2474,
      "Ġcuis": 2475,
      "Ġcours": 2476,
      "ĠcÅĵur": 2477,
      "Ġach": 2478,
      "Ġber": 2479,
      "Ġbas": 2480,
      "Ġbeneen": 2481,
      "Ġbett": 2482,
      "Ġpen": 2483,
      "Ġpom": 2484,
      "Ġpol": 2485,
      "ĠpÃ©n": 2486,
      "Ġpeur": 2487,
      "ĠpÃ«nd": 2488,
      "ange": 2489,
      "anche": 2490,
      "Ġdepuis": 2491,
      "ĠtÃłn": 2492,
      "Ġtont": 2493,
      "Ġtelle": 2494,
      "Ġtable": 2495,
      "ĠtÃ´le": 2496,
      "ouch": 2497,
      "Ġyenn": 2498,
      "Ġyenu": 2499,
      "Ġfow": 2500,
      "Ġfey": 2501,
      "Ġjum": 2502,
      "ares": 2503,
      "Ġgl": 2504,
      "Ġgal": 2505,
      "Ġgouver": 2506,
      "ĠgoÃ»t": 2507,
      "ete": 2508,
      "eti": 2509,
      "etu": 2510,
      "Ġkan": 2511,
      "ĠkÃ©pp": 2512,
      "Ġkilif": 2513,
      "Ġwoto": 2514,
      "uni": 2515,
      "unes": 2516,
      "unniy": 2517,
      "inc": 2518,
      "iner": 2519,
      "inent": 2520,
      "insi": 2521,
      "intÃ©rieur": 2522,
      "Ġcir": 2523,
      "Ġquest": 2524,
      "uraat": 2525,
      "ish": 2526,
      "eere": 2527,
      "Ġraay": 2528,
      "Ġresp": 2529,
      "ĠÃ±ii": 2530,
      "Ġxob": 2531,
      "Ġxanaa": 2532,
      "Ġvag": 2533,
      "Ġmukk": 2534,
      "Ġmucc": 2535,
      "Ġenv": 2536,
      "ĠBÃ©n": 2537,
      "ĠBuur": 2538,
      "ĠAt": 2539,
      "ĠAyaa": 2540,
      "aisse": 2541,
      "ĠMon": 2542,
      "ĠNga": 2543,
      "ĠNoonu": 2544,
      "eue": 2545,
      "Ġbuur": 2546,
      "Ġchang": 2547,
      "abri": 2548,
      "Ġdaanu": 2549,
      "Ġliy": 2550,
      "Ġlieu": 2551,
      "Ġlieux": 2552,
      "ĠSoo": 2553,
      "tiir": 2554,
      "Ġcause": 2555,
      "ĠdÃ©part": 2556,
      "ĠDi": 2557,
      "ĠDem": 2558,
      "ĠDÃ©edÃ©et": 2559,
      "ĠAfric": 2560,
      "Ã«rÃ«m": 2561,
      "ĠKi": 2562,
      "Ġnuages": 2563,
      "Ġjeunes": 2564,
      "Ġop": 2565,
      "endait": 2566,
      "endance": 2567,
      "Ġtrain": 2568,
      "ĠCh": 2569,
      "ĠFÃł": 2570,
      "ĠFoo": 2571,
      "ĠFekk": 2572,
      "Ġsonal": 2573,
      "Ġind": 2574,
      "aali": 2575,
      "gues": 2576,
      "aventure": 2577,
      "Ġsiiw": 2578,
      "ccident": 2579,
      "galu": 2580,
      "ĠÃ©le": 2581,
      "Ġdemoon": 2582,
      "tukaay": 2583,
      "sible": 2584,
      "ĠOfficer": 2585,
      "Ġdalal": 2586,
      "Ġfukki": 2587,
      "Ġvivre": 2588,
      "Ġtukki": 2589,
      "Ġsolitude": 2590,
      "ements": 2591,
      "Ġdog": 2592,
      "Ġdevaient": 2593,
      "Ġdevenu": 2594,
      "Ġchap": 2595,
      "Ġcelui": 2596,
      "ĠYor": 2597,
      "Ġprend": 2598,
      "Ġprop": 2599,
      "Ġprov": 2600,
      "Ġproche": 2601,
      "Ã¢te": 2602,
      "Ġtoogu": 2603,
      "ĠgÃ©nne": 2604,
      "autoritÃ©": 2605,
      "Ġimages": 2606,
      "Ġimmen": 2607,
      "Ġdoxe": 2608,
      "Ġcontr": 2609,
      "ances": 2610,
      "Ġsera": 2611,
      "Ġask": 2612,
      "Ġkowe": 2613,
      "ĠRi": 2614,
      "ĠRÃ©ew": 2615,
      "Ġapport": 2616,
      "ĠtÃ«j": 2617,
      "Ġjafe": 2618,
      "Ġmetit": 2619,
      "Ġcass": 2620,
      "Ġalk": 2621,
      "Ġfront": 2622,
      "Ġxarit": 2623,
      "Ġ193": 2624,
      "ĠjÃłppale": 2625,
      "Ġdawal": 2626,
      "ĠAmaana": 2627,
      "ĠdÃ©cor": 2628,
      "Ġpalmes": 2629,
      "Ġpetit": 2630,
      "Ġpetits": 2631,
      "ĠÅĪuul": 2632,
      "Ġquelques": 2633,
      "Ã©gte": 2634,
      "Ġteewe": 2635,
      "Ġxolam": 2636,
      "ĠpremiÃ¨res": 2637,
      "ĠAyi": 2638,
      "Ġsavane": 2639,
      "Ġregarder": 2640,
      "ĠjÃłngal": 2641,
      "ĠrÃ«dd": 2642,
      "impression": 2643,
      "Ġaller": 2644,
      "ouverte": 2645,
      "ĠtÃłngaay": 2646,
      "Ġnoirs": 2647,
      "Ġsentiment": 2648,
      "ĠplutÃ´t": 2649,
      "Ġraglu": 2650,
      "Ġpied": 2651,
      "ingt": 2652,
      "Ġrouge": 2653,
      "Ġtogg": 2654,
      "Ġchemins": 2655,
      "Ġcheval": 2656,
      "andikoo": 2657,
      "Ġtermites": 2658,
      "Ġseulement": 2659,
      "ĠDaanaka": 2660,
      "Ġobs": 2661,
      "Ġdistrict": 2662,
      "Ġmots": 2663,
      "Ġbonheur": 2664,
      "Ġtels": 2665,
      "instant": 2666,
      "ĠlÃłrmeb": 2667,
      "Ġporteurs": 2668,
      "ĠÃĵbudu": 2669,
      "ĠsimoÅĭ": 2670,
      "Ġbunt": 2671,
      "Ġtund": 2672,
      "urope": 2673,
      "Ġjuddoo": 2674,
      "Ġscorpion": 2675,
      "saalumu": 2676,
      "ĠÃ¢ge": 2677,
      "Ġpuissance": 2678,
      "ĠsÃłnni": 2679,
      "Ġsukkuraat": 2680,
      "Ġplateaux": 2681,
      "Ġanglaise": 2682,
      "minist": 2683,
      "ĠdiffÃ©r": 2684,
      "Ġoffici": 2685,
      "Ġaccompagn": 2686,
      "ĠgÃ©mmiÃ±": 2687,
      "Ġbeaucoup": 2688,
      "Ġblanche": 2689,
      "ĠkÃ©emaane": 2690,
      "Ġnjaboot": 2691,
      "Ġloppit": 2692,
      "Ġgouvernement": 2693,
      "Ġquestion": 2694,
      "Ġimmense": 2695,
      "Cela": 2696,
      "DÃ¨s": 2697,
      "Par": 2698,
      "Puis": 2699,
      "Plus": 2700,
      "Sa": 2701,
      "aci": 2702,
      "benn": 2703,
      "cle": 2704,
      "dÃ©e": 2705,
      "dol": 2706,
      "dÃ«gg": 2707,
      "ges": 2708,
      "gin": 2709,
      "heu": 2710,
      "iques": 2711,
      "ikt": 2712,
      "jÃ©": 2713,
      "ko": 2714,
      "lÃ©e": 2715,
      "lines": 2716,
      "pÃ¨re": 2717,
      "port": 2718,
      "rou": 2719,
      "ront": 2720,
      "rÃª": 2721,
      "see": 2722,
      "saan": 2723,
      "tra": 2724,
      "ud": 2725,
      "ume": 2726,
      "vement": 2727,
      "weer": 2728,
      "xe": 2729,
      "ya": 2730,
      "ythme": 2731,
      "ĠÃ³": 2732,
      "Ġemb": 2733,
      "ĠIls": 2734,
      "Ġ00": 2735,
      "Ġdom": 2736,
      "ĠlÃ«": 2737,
      "Ġlis": 2738,
      "ĠlÃ©e": 2739,
      "ĠlÃłkk": 2740,
      "Ġmo": 2741,
      "Ġmir": 2742,
      "Ġmoy": 2743,
      "Ġmaas": 2744,
      "ĠmÃłndi": 2745,
      "Ã©er": 2746,
      "Ã©ens": 2747,
      "ĠnÃ©ew": 2748,
      "Ġnoyy": 2749,
      "Ġsp": 2750,
      "Ġsour": 2751,
      "Ġsot": 2752,
      "Ġsopp": 2753,
      "ĠsÃ«kk": 2754,
      "Ġsort": 2755,
      "Ġsanc": 2756,
      "ĠsÃ«s": 2757,
      "enc": 2758,
      "ener": 2759,
      "onoy": 2760,
      "Ġcin": 2761,
      "Ġcent": 2762,
      "Ġcoon": 2763,
      "Ġcee": 2764,
      "Ġcab": 2765,
      "Ġcof": 2766,
      "Ġallem": 2767,
      "Ġbal": 2768,
      "Ġbar": 2769,
      "Ġbir": 2770,
      "Ġbaar": 2771,
      "Ġpin": 2772,
      "Ġpat": 2773,
      "ĠpÃ©t": 2774,
      "Ġpers": 2775,
      "Ġponk": 2776,
      "ano": 2777,
      "angu": 2778,
      "Ġdebout": 2779,
      "Ġtre": 2780,
      "Ġtat": 2781,
      "Ġtant": 2782,
      "Ġtub": 2783,
      "Ġtaax": 2784,
      "ĠtÃłgg": 2785,
      "Ġtours": 2786,
      "ĠyÃ©eg": 2787,
      "ĠyÃłkk": 2788,
      "ĠyÃ©en": 2789,
      "Ġyokk": 2790,
      "oole": 2791,
      "erig": 2792,
      "Ġfer": 2793,
      "Ġfir": 2794,
      "Ġfenn": 2795,
      "Ġfall": 2796,
      "Ġfull": 2797,
      "Ġjag": 2798,
      "ĠjÃłkk": 2799,
      "ĠjÃ«nd": 2800,
      "ĠjÃłmm": 2801,
      "Ġjunniy": 2802,
      "quer": 2803,
      "quent": 2804,
      "quelles": 2805,
      "alement": 2806,
      "art": 2807,
      "Ã«dd": 2808,
      "amay": 2809,
      "Ġgor": 2810,
      "Ġgol": 2811,
      "ĠgÃłng": 2812,
      "ĠgÃ«m": 2813,
      "ĠgÃłdd": 2814,
      "etÃ©": 2815,
      "etow": 2816,
      "Ã±ax": 2817,
      "Ġkal": 2818,
      "Ġkili": 2819,
      "Ġwer": 2820,
      "Ġwor": 2821,
      "ĠwÃłcc": 2822,
      "inay": 2823,
      "Ġcib": 2824,
      "orool": 2825,
      "Ġlequel": 2826,
      "kku": 2827,
      "eeÃ±": 2828,
      "eelu": 2829,
      "ition": 2830,
      "ĠÃłpp": 2831,
      "ĠÃłngale": 2832,
      "Ġrage": 2833,
      "Ġrythme": 2834,
      "ell": 2835,
      "ellentaan": 2836,
      "ĠÃ±aaw": 2837,
      "ĠÃ±iy": 2838,
      "ĠxÃ«cc": 2839,
      "Ã©eme": 2840,
      "Ġvas": 2841,
      "Ġvingt": 2842,
      "Ġdese": 2843,
      "ase": 2844,
      "asme": 2845,
      "ules": 2846,
      "Ġdig": 2847,
      "omment": 2848,
      "Ġkott": 2849,
      "ager": 2850,
      "agos": 2851,
      "ĠBa": 2852,
      "ĠBenn": 2853,
      "Ġduma": 2854,
      "Ġtegu": 2855,
      "Ġtekki": 2856,
      "ĠngÃ³or": 2857,
      "ĠMellentaan": 2858,
      "ĠreÃ§u": 2859,
      "Ġavoir": 2860,
      "Ã«ntaan": 2861,
      "chÃ©e": 2862,
      "ĠNu": 2863,
      "ĠNgu": 2864,
      "ĠNaka": 2865,
      "ĠbuÃ±": 2866,
      "Ġcher": 2867,
      "Ġchasse": 2868,
      "ĠLenn": 2869,
      "ĠLaata": 2870,
      "ĠLagos": 2871,
      "ennes": 2872,
      "tique": 2873,
      "Ġsuba": 2874,
      "Ġhama": 2875,
      "Ġhist": 2876,
      "Ġherbes": 2877,
      "Ġhuit": 2878,
      "ĠdÃ©et": 2879,
      "ĠdÃ©mb": 2880,
      "ĠdÃ©jÃł": 2881,
      "ĠDÃ«gg": 2882,
      "ument": 2883,
      "image": 2884,
      "Ġmbool": 2885,
      "role": 2886,
      "andis": 2887,
      "ĠKor": 2888,
      "ĠKano": 2889,
      "ieurs": 2890,
      "ouve": 2891,
      "Ġdoonte": 2892,
      "Ġdakkal": 2893,
      "Ġplan": 2894,
      "Ġcomb": 2895,
      "Ġtroup": 2896,
      "ĠFii": 2897,
      "Ġmieux": 2898,
      "ÅĪÅĪ": 2899,
      "ĠAfrigam": 2900,
      "Ġint": 2901,
      "oyer": 2902,
      "oivent": 2903,
      "seer": 2904,
      "ĠWikt": 2905,
      "Ġsix": 2906,
      "ĠÃ©qu": 2907,
      "Ã±uy": 2908,
      "ĠdÃ«kku": 2909,
      "exist": 2910,
      "ĠObudu": 2911,
      "ĠGe": 2912,
      "ĠGu": 2913,
      "ĠGar": 2914,
      "Ġwaxtu": 2915,
      "Ġwaxtaan": 2916,
      "angoo": 2917,
      "aawun": 2918,
      "ĠnjÃ«l": 2919,
      "aree": 2920,
      "oirs": 2921,
      "Ġjambes": 2922,
      "ĠrÃ©alitÃ©": 2923,
      "miers": 2924,
      "Ġvient": 2925,
      "Ġkuy": 2926,
      "raph": 2927,
      "aama": 2928,
      "Ġmasoon": 2929,
      "Ġmasques": 2930,
      "ĠÃĳoo": 2931,
      "Ġoubli": 2932,
      "Ġbooba": 2933,
      "akaliki": 2934,
      "ĠXare": 2935,
      "ĠPort": 2936,
      "Ġexemp": 2937,
      "Ġvieill": 2938,
      "Ġcoups": 2939,
      "Ġcourir": 2940,
      "Ġmani": 2941,
      "ĠmaniÃ¨re": 2942,
      "aaju": 2943,
      "veill": 2944,
      "Ġprob": 2945,
      "Ġprof": 2946,
      "Ġtegoon": 2947,
      "Ġlongue": 2948,
      "autres": 2949,
      "eries": 2950,
      "Ġmontre": 2951,
      "Ġservir": 2952,
      "bbe": 2953,
      "Ãªtres": 2954,
      "Ġyaramu": 2955,
      "Ġtravail": 2956,
      "Ġdooley": 2957,
      "uite": 2958,
      "ĠRax": 2959,
      "Ġseetaan": 2960,
      "utoon": 2961,
      "ĠmalgrÃ©": 2962,
      "ĠjÃ³g": 2963,
      "Ġmettre": 2964,
      "ĠnaÃ±oo": 2965,
      "Ġportes": 2966,
      "Ġpartout": 2967,
      "Ġ194": 2968,
      "Ġ196": 2969,
      "aÃ±Ã±": 2970,
      "aÃ±seer": 2971,
      "ĠdÃ«ggÃ«ntaan": 2972,
      "Ġressens": 2973,
      "Ġregarde": 2974,
      "Ġpetite": 2975,
      "Ġpetorool": 2976,
      "ĠIn": 2977,
      "Ġtiit": 2978,
      "Ġtraverser": 2979,
      "Ġdajale": 2980,
      "Ġteewul": 2981,
      "ĠjÃ©kkee": 2982,
      "ĠlaÃ±uy": 2983,
      "ĠriviÃ¨res": 2984,
      "Ġgunge": 2985,
      "Ġreconn": 2986,
      "Ġagsi": 2987,
      "Ġboue": 2988,
      "Ġterrit": 2989,
      "ĠjÃłnj": 2990,
      "ĠjÃłnq": 2991,
      "Ġvisages": 2992,
      "Ġdellusi": 2993,
      "ailles": 2994,
      "ĠyÃ³bb": 2995,
      "Ã©pendance": 2996,
      "ĠdÃ©sert": 2997,
      "Ã³olu": 2998,
      "ĠnjÃ«kkee": 2999,
      "Ġubb": 3000,
      "Ġadminist": 3001,
      "ĠbrÃ»l": 3002,
      "Ġcheveux": 3003,
      "Ġafricaine": 3004,
      "Ġcru": 3005,
      "Ġobjets": 3006,
      "ĠÃ©poque": 3007,
      "Ġcolonial": 3008,
      "Ġcoloniale": 3009,
      "odeur": 3010,
      "Ġnaqadi": 3011,
      "Ġcommence": 3012,
      "Ġpoint": 3013,
      "Ġwoowe": 3014,
      "Ġxeetu": 3015,
      "ĠAbaak": 3016,
      "Ġnewoon": 3017,
      "ĠÃ©tranger": 3018,
      "ĠdÃ«nnu": 3019,
      "Ġmaanaa": 3020,
      "Ġndeysaan": 3021,
      "Ġsago": 3022,
      "Ġhabitants": 3023,
      "ĠbÃ¢t": 3024,
      "Ġpoussi": 3025,
      "Ġxib": 3026,
      "Ġrelig": 3027,
      "Ġhumaine": 3028,
      "ĠrÃ©gion": 3029,
      "ĠfranÃ§ais": 3030,
      "Ġmourir": 3031,
      "ĠnÃ«bb": 3032,
      "ĠÃ±eme": 3033,
      "Ġrejoin": 3034,
      "ĠNataal": 3035,
      "Ġmaladie": 3036,
      "ĠprÃ©cÃ©d": 3037,
      "ĠthÃ©": 3038,
      "Ġjotee": 3039,
      "Ġkawas": 3040,
      "Ġdifficile": 3041,
      "Ġguerri": 3042,
      "Ġressentir": 3043,
      "Ġderniers": 3044,
      "Ġsoosu": 3045,
      "Alors": 3046,
      "Ġlarge": 3047,
      "Ġmilliers": 3048,
      "Ġnaissance": 3049,
      "Ġsimple": 3050,
      "Ġcommenc": 3051,
      "Ġrafet": 3052,
      "ĠdÃ«gÃ«r": 3053,
      "ĠmÃłrse": 3054,
      "Ġjumtukaay": 3055,
      "Ġvagu": 3056,
      "ĠAfricains": 3057,
      "Ġopeere": 3058,
      "ĠAyijoo": 3059,
      "Ġnjabootam": 3060,
      "dolli": 3061,
      "jÃ©kki": 3062,
      "Ġ000": 3063,
      "ĠlÃ©eb": 3064,
      "Ġfallait": 3065,
      "etown": 3066,
      "ĠWiktor": 3067,
      "Ar": 3068,
      "Ch": 3069,
      "Comment": 3070,
      "Non": 3071,
      "Son": 3072,
      "aÃ®": 3073,
      "bill": 3074,
      "cax": 3075,
      "cule": 3076,
      "dÃ©": 3077,
      "epp": 3078,
      "efi": 3079,
      "euses": 3080,
      "fin": 3081,
      "gn": 3082,
      "gÃ©e": 3083,
      "gÃ©s": 3084,
      "gÃ©ej": 3085,
      "graph": 3086,
      "ham": 3087,
      "ia": 3088,
      "iit": 3089,
      "jo": 3090,
      "la": 3091,
      "llu": 3092,
      "look": 3093,
      "met": 3094,
      "mens": 3095,
      "nn": 3096,
      "nmaa": 3097,
      "occup": 3098,
      "pus": 3099,
      "pare": 3100,
      "rass": 3101,
      "tul": 3102,
      "ute": 3103,
      "vis": 3104,
      "vit": 3105,
      "vÃ©s": 3106,
      "vaient": 3107,
      "wi": 3108,
      "Ġus": 3109,
      "Ġaar": 3110,
      "Ġond": 3111,
      "Ġaad": 3112,
      "Ġdanu": 3113,
      "Ġdonc": 3114,
      "Ġdroit": 3115,
      "Ġdoivent": 3116,
      "ĠlÃ©": 3117,
      "Ġlun": 3118,
      "Ġlaine": 3119,
      "Ġlamp": 3120,
      "Ġmin": 3121,
      "Ã©ch": 3122,
      "Ġno": 3123,
      "Ġnes": 3124,
      "Ġnar": 3125,
      "Ġnour": 3126,
      "Ġsar": 3127,
      "Ġsait": 3128,
      "ĠsÃłpp": 3129,
      "ĠsÃłnn": 3130,
      "ĠsÃłcc": 3131,
      "Ġsabar": 3132,
      "enue": 3133,
      "onie": 3134,
      "onge": 3135,
      "Ġcous": 3136,
      "Ġceek": 3137,
      "Ġcra": 3138,
      "Ġcameroun": 3139,
      "Ġcaaxaan": 3140,
      "Ġainsi": 3141,
      "Ġbo": 3142,
      "Ġbax": 3143,
      "ĠbÃłn": 3144,
      "Ġbleu": 3145,
      "Ġpans": 3146,
      "Ġpeux": 3147,
      "Ġpare": 3148,
      "Ġpoit": 3149,
      "Ġtan": 3150,
      "Ġtus": 3151,
      "Ġtaab": 3152,
      "Ġtomb": 3153,
      "Ġtaatu": 3154,
      "Ãłjj": 3155,
      "Ġyaat": 3156,
      "ĠyÃłpp": 3157,
      "ĠyÃ©eme": 3158,
      "Ġfet": 3159,
      "Ġfol": 3160,
      "ĠfÃ©pp": 3161,
      "Ġfort": 3162,
      "Ġfeneen": 3163,
      "Ġferm": 3164,
      "ĠfÃ©et": 3165,
      "ĠfÃ»t": 3166,
      "Ġfallu": 3167,
      "ĠjÃłnk": 3168,
      "Ġjote": 3169,
      "aram": 3170,
      "arti": 3171,
      "arriv": 3172,
      "artement": 3173,
      "Ġger": 3174,
      "ĠgÃłn": 3175,
      "Ġgox": 3176,
      "ĠgÃłnn": 3177,
      "etÃ©s": 3178,
      "Ġkas": 3179,
      "ĠkÃ³": 3180,
      "Ġkak": 3181,
      "ĠkÃłll": 3182,
      "Ġwaax": 3183,
      "ĠwÃ©et": 3184,
      "riis": 3185,
      "rions": 3186,
      "tekk": 3187,
      "inf": 3188,
      "int": 3189,
      "inÃ©e": 3190,
      "ince": 3191,
      "inter": 3192,
      "entends": 3193,
      "Ġciv": 3194,
      "urÃ©s": 3195,
      "isi": 3196,
      "isoÅĭ": 3197,
      "oro": 3198,
      "orst": 3199,
      "ormis": 3200,
      "eey": 3201,
      "ĠÃłtte": 3202,
      "Ġrab": 3203,
      "ĠrÃłkk": 3204,
      "Ġrass": 3205,
      "Ġrares": 3206,
      "leen": 3207,
      "ĠÃ±aw": 3208,
      "Ġxur": 3209,
      "Ġxeex": 3210,
      "Ġxii": 3211,
      "ĠxÃ«rÃ«m": 3212,
      "Ã©ef": 3213,
      "Ġvo": 3214,
      "Ġveux": 3215,
      "Ġvari": 3216,
      "Ġvenu": 3217,
      "atoo": 3218,
      "axe": 3219,
      "axam": 3220,
      "Ġniir": 3221,
      "Ġnijaay": 3222,
      "ast": 3223,
      "ulli": 3224,
      "Ġdiy": 3225,
      "Ġdikk": 3226,
      "Ġenn": 3227,
      "ĠBab": 3228,
      "ĠBret": 3229,
      "Ġbiaf": 3230,
      "ĠAr": 3231,
      "ĠAde": 3232,
      "ĠAiya": 3233,
      "Ġteq": 3234,
      "Ġyii": 3235,
      "Ã©th": 3236,
      "ĠngÃ«l": 3237,
      "Ġnay": 3238,
      "ĠnaÅĪu": 3239,
      "Ã³o": 3240,
      "Ã³ox": 3241,
      "Ã³ob": 3242,
      "aumes": 3243,
      "ĠMais": 3244,
      "ĠMoom": 3245,
      "ĠMooy": 3246,
      "Ġparle": 3247,
      "Ġreer": 3248,
      "chent": 3249,
      "chÃ©es": 3250,
      "ĠNit": 3251,
      "lure": 3252,
      "Ġbuum": 3253,
      "Ġchant": 3254,
      "Ġchamb": 3255,
      "Ãªte": 3256,
      "ĠLes": 3257,
      "ĠLeer": 3258,
      "Ġlire": 3259,
      "Ġlivre": 3260,
      "ĠSout": 3261,
      "ĠSefi": 3262,
      "ĠSorst": 3263,
      "tip": 3264,
      "tiqu": 3265,
      "tive": 3266,
      "ĠsuÃ±": 3267,
      "Ġsupp": 3268,
      "Ġcaf": 3269,
      "Ġcaus": 3270,
      "ĠdÃ©ch": 3271,
      "ĠdÃ©but": 3272,
      "ĠdÃ©kku": 3273,
      "ĠDama": 3274,
      "aaru": 3275,
      "Ġguyy": 3276,
      "imitÃ©": 3277,
      "otoom": 3278,
      "Ġpourrait": 3279,
      "outer": 3280,
      "Ġami": 3281,
      "Ġmbedd": 3282,
      "ĠmbÃ©gte": 3283,
      "ands": 3284,
      "andoo": 3285,
      "ĠKenn": 3286,
      "Ġjekk": 3287,
      "Ġsurga": 3288,
      "Ġofficer": 3289,
      "ĠÃīt": 3290,
      "ĠdaÅĭ": 3291,
      "Ġplain": 3292,
      "Ġtrente": 3293,
      "Ġtronc": 3294,
      "ĠCross": 3295,
      "ĠFord": 3296,
      "ĠAfrigu": 3297,
      "Ġsonn": 3298,
      "sez": 3299,
      "Ġmelax": 3300,
      "ave": 3301,
      "avant": 3302,
      "ĠndÃ³ol": 3303,
      "Ġsiy": 3304,
      "ĠÃ©gal": 3305,
      "antee": 3306,
      "tuel": 3307,
      "ĠdÃ«kkoon": 3308,
      "exp": 3309,
      "sique": 3310,
      "Ġnaaxi": 3311,
      "Ġwaxe": 3312,
      "Ġwaxi": 3313,
      "Ġwaxt": 3314,
      "Ġnjaay": 3315,
      "Ġnjort": 3316,
      "ĠnjÃłq": 3317,
      "ooke": 3318,
      "Ġriir": 3319,
      "ĠJur": 3320,
      "âĢĿ": 3321,
      "Ġjamonoy": 3322,
      "ĠÅĪaar": 3323,
      "ĠâĢľ": 3324,
      "Ġkukk": 3325,
      "Ġarra": 3326,
      "ĠarrÃª": 3327,
      "Ġwaral": 3328,
      "Ġwarul": 3329,
      "ession": 3330,
      "Ġmasumaa": 3331,
      "Ġboole": 3332,
      "Ġdevient": 3333,
      "ĠlÃłq": 3334,
      "ĠPar": 3335,
      "ĠPour": 3336,
      "Ġexc": 3337,
      "Ġgrandes": 3338,
      "Ġbrous": 3339,
      "Ġprati": 3340,
      "europ": 3341,
      "Ġcollines": 3342,
      "ĠrÃ©ewu": 3343,
      "wuÃ±u": 3344,
      "oorte": 3345,
      "Ġentendu": 3346,
      "Ġlonet": 3347,
      "ondes": 3348,
      "nifi": 3349,
      "Ġdoxantu": 3350,
      "Ġdexi": 3351,
      "Ġjuste": 3352,
      "Ġgoney": 3353,
      "Ġcontact": 3354,
      "Ġcontinent": 3355,
      "ades": 3356,
      "Ġserait": 3357,
      "ettait": 3358,
      "Ġkowam": 3359,
      "emble": 3360,
      "Ġmalade": 3361,
      "ĠtÃ«dd": 3362,
      "ngl": 3363,
      "Ġauto": 3364,
      "Ġcases": 3365,
      "Ġalors": 3366,
      "Ġpouvaient": 3367,
      "Ġporter": 3368,
      "pton": 3369,
      "indÃ©pendance": 3370,
      "Ġneexul": 3371,
      "Ġressenti": 3372,
      "ĠÃ©crit": 3373,
      "Ġloint": 3374,
      "ĠbÃ«ggoon": 3375,
      "ĠliggÃ©eyu": 3376,
      "Ġdispar": 3377,
      "Ġsuufu": 3378,
      "Ġcompte": 3379,
      "Ġcompris": 3380,
      "ĠderriÃ¨re": 3381,
      "Ġtiis": 3382,
      "Ġbaree": 3383,
      "ĠtÃłnki": 3384,
      "Ġpremier": 3385,
      "Ġdelsi": 3386,
      "Ġsavoir": 3387,
      "Ġbouche": 3388,
      "Ġterri": 3389,
      "Ġfamili": 3390,
      "ĠrÃ©sid": 3391,
      "Ġvisite": 3392,
      "Ġinstant": 3393,
      "Ã©poque": 3394,
      "itiÃ¨res": 3395,
      "afra": 3396,
      "Åĵurs": 3397,
      "Ġsentiers": 3398,
      "Ġplupart": 3399,
      "ĠrÃªvÃ©": 3400,
      "Ġimpression": 3401,
      "Pourtant": 3402,
      "enfant": 3403,
      "ĠgÃłttal": 3404,
      "Ġcourant": 3405,
      "Ġtoj": 3406,
      "Ġseuls": 3407,
      "Ġchemise": 3408,
      "ĠarrivÃ©e": 3409,
      "ĠbrÃ»lure": 3410,
      "Ġsouffle": 3411,
      "Ġmaint": 3412,
      "ĠtermitiÃ¨res": 3413,
      "ĠBiafra": 3414,
      "Ġparticul": 3415,
      "Ġwutkati": 3416,
      "Ġdinaa": 3417,
      "Ġdinga": 3418,
      "Ġmoindre": 3419,
      "Ġphotograph": 3420,
      "Ġtangori": 3421,
      "Ġjouer": 3422,
      "Ġrevenir": 3423,
      "Ġcommun": 3424,
      "Ġchaussures": 3425,
      "Ġsimis": 3426,
      "Ġsoppiku": 3427,
      "Ġcertaine": 3428,
      "Ġcampement": 3429,
      "Ġbuntu": 3430,
      "ĠgardÃ©": 3431,
      "Ġdiiwaanu": 3432,
      "ĠÃ©trang": 3433,
      "ĠdÃ«nn": 3434,
      "Ġlaisser": 3435,
      "ĠlÃ©gÃ¨re": 3436,
      "ĠweÃ±": 3437,
      "orgetown": 3438,
      "Ġvolets": 3439,
      "Ġconnaissent": 3440,
      "Ġscorpions": 3441,
      "ĠmÃ©tier": 3442,
      "Ġkaraw": 3443,
      "Ġteree": 3444,
      "Ġnguurug": 3445,
      "ĠfranÃ§aise": 3446,
      "loign": 3447,
      "Ã¯s": 3448,
      "Ġganes": 3449,
      "ĠrÃ¨gle": 3450,
      "cepter": 3451,
      "Ġretraite": 3452,
      "ĠÃ©chapp": 3453,
      "ĠlÃłquji": 3454,
      "kunle": 3455,
      "Ġselon": 3456,
      "Ġdevenus": 3457,
      "ĠjÃ«fandikoo": 3458,
      "Ġassis": 3459,
      "court": 3460,
      "Ġisol": 3461,
      "Ġutilis": 3462,
      "Ġmilitaires": 3463,
      "Ġcosaan": 3464,
      "alcool": 3465,
      "ĠkÃłttan": 3466,
      "Ġdestination": 3467,
      "Ġservice": 3468,
      "Ġmoustiqu": 3469,
      "ĠmÃ©ng": 3470,
      "Ġcuisine": 3471,
      "Ġtontu": 3472,
      "Ġyenukat": 3473,
      "ĠYorub": 3474,
      "Ġprovince": 3475,
      "Ġalkol": 3476,
      "ĠfrontiÃ¨re": 3477,
      "Ġloppitaanu": 3478,
      "ĠmÃłndiÅĭ": 3479,
      "Ġcofeel": 3480,
      "Ġbiral": 3481,
      "Ġpersonne": 3482,
      "Ġponkal": 3483,
      "ĠyÃ©ene": 3484,
      "Ġgornmaa": 3485,
      "Ġkalaate": 3486,
      "Ġkilifa": 3487,
      "Ġwerante": 3488,
      "Ġvaste": 3489,
      "Ġhamacs": 3490,
      "ĠKoros": 3491,
      "ĠGeorgetown": 3492,
      "Ġterritoire": 3493,
      "ĠAbaakaliki": 3494,
      "ĠpoussiÃ¨re": 3495,
      "Ġxibaar": 3496,
      "Ġrejoindre": 3497,
      "ĠWiktoryaa": 3498,
      "hampton": 3499,
      "Ġondul": 3500,
      "Ġtaabal": 3501,
      "Ġfetal": 3502,
      "ĠfÃ©ete": 3503,
      "ĠgÃłncax": 3504,
      "ĠkÃłllaama": 3505,
      "tekkaaral": 3506,
      "Ġbiafr": 3507,
      "ĠAdekunle": 3508,
      "ĠngÃ«lÃ©n": 3509,
      "ĠSouthampton": 3510,
      "ĠSefiriis": 3511,
      "ĠSorstaawun": 3512,
      "ĠnjÃłqare": 3513,
      "ĠarrÃªtÃ©": 3514,
      "'s": 3515,
      "28": 3516,
      "Ab": 3517,
      "BC": 3518,
      "OÃ¹": 3519,
      "Pendant": 3520,
      "aque": 3521,
      "aÅĭ": 3522,
      "aÃ®tre": 3523,
      "bon": 3524,
      "bos": 3525,
      "cu": 3526,
      "cun": 3527,
      "cles": 3528,
      "cture": 3529,
      "conte": 3530,
      "cteur": 3531,
      "eÅĭ": 3532,
      "ffri": 3533,
      "fÃ©r": 3534,
      "fise": 3535,
      "gÃ©": 3536,
      "gation": 3537,
      "gatu": 3538,
      "hy": 3539,
      "hous": 3540,
      "hab": 3541,
      "hid": 3542,
      "hors": 3543,
      "iasme": 3544,
      "jekk": 3545,
      "kl": 3546,
      "kook": 3547,
      "kow": 3548,
      "kete": 3549,
      "lit": 3550,
      "loy": 3551,
      "mÃ©": 3552,
      "mir": 3553,
      "mbu": 3554,
      "nons": 3555,
      "nci": 3556,
      "naam": 3557,
      "oÃ±": 3558,
      "ras": 3559,
      "ray": 3560,
      "rance": 3561,
      "ration": 3562,
      "rÃ©ew": 3563,
      "son": 3564,
      "ta": 3565,
      "tÃ³": 3566,
      "taal": 3567,
      "uk": 3568,
      "uÃ±": 3569,
      "uku": 3570,
      "vec": 3571,
      "vÃ©n": 3572,
      "voir": 3573,
      "xare": 3574,
      "ximitÃ©": 3575,
      "yoÅĭ": 3576,
      "Ġ2": 3577,
      "Ġout": 3578,
      "ĠUn": 3579,
      "Ġeurop": 3580,
      "Ġdr": 3581,
      "Ġdar": 3582,
      "Ġdos": 3583,
      "ĠdÃłtt": 3584,
      "Ġdunu": 3585,
      "ĠdÃłng": 3586,
      "ĠdÃ³om": 3587,
      "Ġdress": 3588,
      "Ġlour": 3589,
      "Ġlits": 3590,
      "Ġlente": 3591,
      "Ġlorg": 3592,
      "Ġmy": 3593,
      "Ġmis": 3594,
      "Ġmang": 3595,
      "ĠmÃłtt": 3596,
      "ĠmÃłng": 3597,
      "ĠmÃ³ob": 3598,
      "Ã©b": 3599,
      "Ã©w": 3600,
      "Ã©lu": 3601,
      "Ã©enne": 3602,
      "Ġnax": 3603,
      "Ġnomb": 3604,
      "Ġnangoo": 3605,
      "Ġset": 3606,
      "Ġsun": 3607,
      "Ġsaal": 3608,
      "ĠsÃłnk": 3609,
      "Ġsomm": 3610,
      "Ġsooke": 3611,
      "ĠsÅĵurs": 3612,
      "ende": 3613,
      "ences": 3614,
      "aaÅĭ": 3615,
      "Ġcri": 3616,
      "Ġcul": 3617,
      "ĠcÃłkk": 3618,
      "Ġcara": 3619,
      "Ġcli": 3620,
      "Ġcanc": 3621,
      "Ġcerc": 3622,
      "Ġcouvert": 3623,
      "Ġcoh": 3624,
      "Ġaigu": 3625,
      "Ġbes": 3626,
      "Ġbour": 3627,
      "Ġbomb": 3628,
      "Ġbande": 3629,
      "Ġbantu": 3630,
      "Ġbatt": 3631,
      "Ġpil": 3632,
      "Ġpois": 3633,
      "Ġpriv": 3634,
      "Ġpap": 3635,
      "Ġpexe": 3636,
      "any": 3637,
      "anitÃ©": 3638,
      "anches": 3639,
      "Ġtri": 3640,
      "Ġtor": 3641,
      "Ġtir": 3642,
      "ĠtÃ©s": 3643,
      "ĠtÃ«r": 3644,
      "ĠtÃłll": 3645,
      "ĠtÃłmm": 3646,
      "Ġtaamu": 3647,
      "Ġtandis": 3648,
      "ĠtÃªte": 3649,
      "Ãłllu": 3650,
      "oure": 3651,
      "ouill": 3652,
      "aim": 3653,
      "Ġyay": 3654,
      "Ġyomb": 3655,
      "ĠyÃłq": 3656,
      "ern": 3657,
      "erres": 3658,
      "erie": 3659,
      "Ġfon": 3660,
      "Ġfil": 3661,
      "Ġfaax": 3662,
      "ĠjÃł": 3663,
      "Ġjee": 3664,
      "ĠjÃ«r": 3665,
      "Ġjeux": 3666,
      "Ġjooy": 3667,
      "Ġjaaw": 3668,
      "Ġjiy": 3669,
      "Ġjaax": 3670,
      "ĠjÃłmb": 3671,
      "qui": 3672,
      "quaient": 3673,
      "alon": 3674,
      "alam": 3675,
      "alul": 3676,
      "alab": 3677,
      "alabar": 3678,
      "arrÃªt": 3679,
      "arcourt": 3680,
      "Ã«f": 3681,
      "Ã«ri": 3682,
      "ami": 3683,
      "amaa": 3684,
      "amyoÅĭ": 3685,
      "ĠgÃ©": 3686,
      "Ġgoy": 3687,
      "Ġgeek": 3688,
      "ĠgÃ«s": 3689,
      "Ġlax": 3690,
      "etar": 3691,
      "Ã±se": 3692,
      "Ġkur": 3693,
      "Ġkii": 3694,
      "Ġkepp": 3695,
      "ĠkamyoÅĭ": 3696,
      "Ġwal": 3697,
      "Ġwaay": 3698,
      "Ġwiy": 3699,
      "ĠwÃ©r": 3700,
      "ĠwÃ³olu": 3701,
      "rique": 3702,
      "rine": 3703,
      "riture": 3704,
      "teu": 3705,
      "tey": 3706,
      "inam": 3707,
      "indi": 3708,
      "entu": 3709,
      "Ġquin": 3710,
      "Ġquoi": 3711,
      "Ġqueue": 3712,
      "iste": 3713,
      "ilitÃ©": 3714,
      "orage": 3715,
      "orreur": 3716,
      "itions": 3717,
      "ĠÃłtt": 3718,
      "ĠmaÃ®": 3719,
      "Ġram": 3720,
      "Ġras": 3721,
      "Ġroy": 3722,
      "Ġruis": 3723,
      "ĠrÃłpp": 3724,
      "Ġromp": 3725,
      "Ġrong": 3726,
      "ĠrÃłÃ±Ã±": 3727,
      "Ġraxas": 3728,
      "Ã¨me": 3729,
      "Ã¨ge": 3730,
      "Ã¨che": 3731,
      "Ã¨vre": 3732,
      "ĠÃ±etti": 3733,
      "Ġxat": 3734,
      "Ġxul": 3735,
      "Ġxot": 3736,
      "Ġxetu": 3737,
      "Ġlesquelles": 3738,
      "ĠvÃªt": 3739,
      "ĠvÃ©ri": 3740,
      "ppi": 3741,
      "ppu": 3742,
      "aani": 3743,
      "atur": 3744,
      "atori": 3745,
      "Ġmus": 3746,
      "Ġdesc": 3747,
      "uls": 3748,
      "ulpt": 3749,
      "Ġdib": 3750,
      "Ġdix": 3751,
      "Ġdiir": 3752,
      "Ġdiine": 3753,
      "Ġdijj": 3754,
      "aaya": 3755,
      "ommen": 3756,
      "ĠbaÅĪ": 3757,
      "ĠBoo": 3758,
      "ĠBat": 3759,
      "ĠBaw": 3760,
      "ĠBum": 3761,
      "ĠBÃ«r": 3762,
      "ĠBBC": 3763,
      "ĠBany": 3764,
      "Ġdure": 3765,
      "Ġdugal": 3766,
      "usam": 3767,
      "ĠAro": 3768,
      "ĠAllem": 3769,
      "ĠAngl": 3770,
      "ĠauprÃ¨s": 3771,
      "Ġnaw": 3772,
      "ĠnaÃ®tre": 3773,
      "Ã³oy": 3774,
      "olesc": 3775,
      "autÃ©": 3776,
      "ĠMag": 3777,
      "ĠMay": 3778,
      "deau": 3779,
      "deux": 3780,
      "dekete": 3781,
      "cep": 3782,
      "Ġparf": 3783,
      "Ġparents": 3784,
      "Ġrepr": 3785,
      "Ġreli": 3786,
      "Ġremp": 3787,
      "ĠluÃ±": 3788,
      "emi": 3789,
      "emmen": 3790,
      "ĠNun": 3791,
      "ĠNkom": 3792,
      "aband": 3793,
      "amawa": 3794,
      "osi": 3795,
      "Ġdaaneel": 3796,
      "ĠLond": 3797,
      "ĠLool": 3798,
      "ennent": 3799,
      "dio": 3800,
      "ĠSaaw": 3801,
      "tiÃ¨re": 3802,
      "tifi": 3803,
      "Ġsueur": 3804,
      "Ġcacher": 3805,
      "Ġheu": 3806,
      "Ġhut": 3807,
      "ĠdÃ©bar": 3808,
      "ĠDoon": 3809,
      "ĠDÃ«kk": 3810,
      "ĠDaaw": 3811,
      "umb": 3812,
      "lles": 3813,
      "resse": 3814,
      "otion": 3815,
      "Ġpourra": 3816,
      "Ġmbemb": 3817,
      "andÃ©": 3818,
      "ĠKak": 3819,
      "ĠKalab": 3820,
      "ecd": 3821,
      "Ġnuits": 3822,
      "ĠÃ©tu": 3823,
      "Ġsurveill": 3824,
      "ainte": 3825,
      "ainement": 3826,
      "Ġoccup": 3827,
      "Ġoccident": 3828,
      "Ġplace": 3829,
      "ige": 3830,
      "igne": 3831,
      "ĠtrÃ©s": 3832,
      "Ġtrad": 3833,
      "Ġtrap": 3834,
      "ĠCol": 3835,
      "ĠCalabar": 3836,
      "ĠFu": 3837,
      "ĠFou": 3838,
      "ÅĪax": 3839,
      "Ġndab": 3840,
      "Ġsaxaaru": 3841,
      "Ġsib": 3842,
      "Ġsid": 3843,
      "Ġsibb": 3844,
      "ĠÃ©pr": 3845,
      "Ġsow": 3846,
      "Ġsoit": 3847,
      "Ġyare": 3848,
      "ĠmÃ«nees": 3849,
      "ĠmÃ«natul": 3850,
      "onni": 3851,
      "Ġxame": 3852,
      "Ġxamu": 3853,
      "Ġxamoon": 3854,
      "Ġnaaw": 3855,
      "ettee": 3856,
      "cipl": 3857,
      "ĠbÃ«ti": 3858,
      "Ġanecd": 3859,
      "angois": 3860,
      "Ġdefe": 3861,
      "Ġgros": 3862,
      "Ġgrandi": 3863,
      "arades": 3864,
      "bukun": 3865,
      "Ã©esu": 3866,
      "Ġplusieurs": 3867,
      "Ġrire": 3868,
      "Ġrituel": 3869,
      "illÃ©s": 3870,
      "ĠJoor": 3871,
      "oires": 3872,
      "Ġfut": 3873,
      "Ġfuir": 3874,
      "Ġfureur": 3875,
      "ĠÅĪi": 3876,
      "ĠÅĪÃłkk": 3877,
      "Ġmeetar": 3878,
      "Ġvide": 3879,
      "Ġvivant": 3880,
      "Ġnekkee": 3881,
      "ĠâĢĵ,": 3882,
      "ctions": 3883,
      "Ġdootul": 3884,
      "prÃ¨te": 3885,
      "ĠgÃ«nee": 3886,
      "uisait": 3887,
      "ĠmÃ©lan": 3888,
      "ndÃłnk": 3889,
      "ndeel": 3890,
      "ĠjÃ«mm": 3891,
      "ĠkÃ«ru": 3892,
      "Ġraconte": 3893,
      "Ġradio": 3894,
      "kuur": 3895,
      "ĠXel": 3896,
      "ĠXaw": 3897,
      "ĠXale": 3898,
      "ĠXÃ©y": 3899,
      "ĠPol": 3900,
      "ĠPoor": 3901,
      "Ġexil": 3902,
      "Ġextr": 3903,
      "Ġextra": 3904,
      "Ġdunde": 3905,
      "ĠYaram": 3906,
      "Ġbruit": 3907,
      "Ġbranches": 3908,
      "Ġgarde": 3909,
      "Ġpren": 3910,
      "ĠcolÃ¨re": 3911,
      "Ġforte": 3912,
      "ĠproximitÃ©": 3913,
      "orit": 3914,
      "Ġentour": 3915,
      "Ġentendre": 3916,
      "Ġlonk": 3917,
      "Ġlongues": 3918,
      "Afric": 3919,
      "Ã¢cher": 3920,
      "Ġtoolu": 3921,
      "Ġjiitu": 3922,
      "Ġimag": 3923,
      "Ã©cl": 3924,
      "Ã©couter": 3925,
      "Ġgoneg": 3926,
      "ritish": 3927,
      "jjÃ©n": 3928,
      "ĠEt": 3929,
      "ĠEurope": 3930,
      "Ġcontinu": 3931,
      "ĠfiÃ¨vre": 3932,
      "Ġfippu": 3933,
      "Ġfekki": 3934,
      "jafe": 3935,
      "Ġmonter": 3936,
      "Ġassi": 3937,
      "Ġassez": 3938,
      "icale": 3939,
      "Ġcartes": 3940,
      "Ġtravaill": 3941,
      "Ġpeup": 3942,
      "Ġseetu": 3943,
      "Ġautres": 3944,
      "Ġalent": 3945,
      "Ġallu": 3946,
      "Ġtamb": 3947,
      "Ġmesure": 3948,
      "Ġsoupe": 3949,
      "Ġportait": 3950,
      "Ġportant": 3951,
      "Ġportale": 3952,
      "ĠfeeÃ±u": 3953,
      "Ġ191": 3954,
      "Ġ1928": 3955,
      "ĠjÃłppoon": 3956,
      "indax": 3957,
      "innaaw": 3958,
      "wwi": 3959,
      "ĠdÃ©ggoo": 3960,
      "Ġpossible": 3961,
      "ĠAmul": 3962,
      "ĠAmerig": 3963,
      "ĠdÃ©couv": 3964,
      "ĠdÃ©crit": 3965,
      "ĠdÃ©couvert": 3966,
      "Ġpetites": 3967,
      "Ġdundam": 3968,
      "ĠIj": 3969,
      "fite": 3970,
      "tru": 3971,
      "Ġdiscipl": 3972,
      "ĠmÃłgge": 3973,
      "rets": 3974,
      "Ġtaq": 3975,
      "ĠAlg": 3976,
      "Ġcompagn": 3977,
      "ĠmÃ©decine": 3978,
      "ĠperÃ§": 3979,
      "Ġperdre": 3980,
      "Ġchez": 3981,
      "Ġinspir": 3982,
      "ĠHarcourt": 3983,
      "ĠprÃ©pare": 3984,
      "ĠprÃ©fÃ©r": 3985,
      "ĠyÃ«ngatu": 3986,
      "ĠNiseer": 3987,
      "Ġdajeek": 3988,
      "Ġsoof": 3989,
      "Ġconsul": 3990,
      "ĠMbaa": 3991,
      "ĠMbam": 3992,
      "ĠMbir": 3993,
      "ĠMbemb": 3994,
      "ĠjÃ©eri": 3995,
      "ĠsÃ©par": 3996,
      "ĠsÃ©chÃ©e": 3997,
      "Ġrecommen": 3998,
      "iÃ¨rement": 3999,
      "ĠbÃ©jjÃ©n": 4000,
      "Ġterr": 4001,
      "ĠrÃ«cc": 4002,
      "ĠrÃ©ser": 4003,
      "Ġinstall": 4004,
      "Ġinstants": 4005,
      "Ġcouper": 4006,
      "Ġsculpt": 4007,
      "Ġallait": 4008,
      "Ġvacc": 4009,
      "Ġcolonis": 4010,
      "juram": 4011,
      "Ġtrois": 4012,
      "Ġyemale": 4013,
      "Ġpluie": 4014,
      "Ġjeexal": 4015,
      "ĠÃ±Ãłkkul": 4016,
      "Ġmujje": 4017,
      "enfants": 4018,
      "tements": 4019,
      "Ġsecondes": 4020,
      "ĠAka": 4021,
      "Ġemport": 4022,
      "ĠJeffri": 4023,
      "ĠjurÃ³omi": 4024,
      "Ġdange": 4025,
      "ĠdÃ«pp": 4026,
      "Ġdonne": 4027,
      "Ġdonner": 4028,
      "Ġdonnait": 4029,
      "Ġnouvelles": 4030,
      "Ġyeg": 4031,
      "ĠrÃ©pond": 4032,
      "Ġtourbill": 4033,
      "Ġventre": 4034,
      "Ġawsa": 4035,
      "ĠyÃ«f": 4036,
      "ercer": 4037,
      "Ġgaawtu": 4038,
      "Ġnaqar": 4039,
      "Ġmiirloo": 4040,
      "Ġprise": 4041,
      "Ġprinci": 4042,
      "ĠpensÃ©": 4043,
      "Ġpension": 4044,
      "Ãłrt": 4045,
      "Ġyeneeni": 4046,
      "argent": 4047,
      "Ġvenus": 4048,
      "Ġdiggu": 4049,
      "Ġnewee": 4050,
      "Ġtransf": 4051,
      "Ġtransport": 4052,
      "Ġsauvage": 4053,
      "Ġmaanaam": 4054,
      "Ġsagoom": 4055,
      "Ġbrill": 4056,
      "Ġbaayam": 4057,
      "Ġtabax": 4058,
      "Ġflam": 4059,
      "ĠjÃ«kkee": 4060,
      "Ġweg": 4061,
      "uropÃ©ens": 4062,
      "ionnelle": 4063,
      "Ġrefus": 4064,
      "ĠbÃ¢ton": 4065,
      "Ġpouss": 4066,
      "Ġfoudre": 4067,
      "Ã«taaÃ±": 4068,
      "Ġendur": 4069,
      "Ġendroit": 4070,
      "Ġcharme": 4071,
      "Ġchaud": 4072,
      "ĠracontÃ©": 4073,
      "Ġraconter": 4074,
      "Ġfrappions": 4075,
      "Ġbattre": 4076,
      "ĠpisÃ©": 4077,
      "ĠtÃ©ereb": 4078,
      "Ġvoiture": 4079,
      "Ġngelawu": 4080,
      "ĠarmÃ©es": 4081,
      "Ġmaladies": 4082,
      "Ġkilomet": 4083,
      "ĠkilomÃ¨tres": 4084,
      "gÃłnnaaru": 4085,
      "humanitÃ©": 4086,
      "Ġpeine": 4087,
      "Ġtawat": 4088,
      "ĠyÃ©emu": 4089,
      "ĠfenÃªtre": 4090,
      "Ġfauve": 4091,
      "Ġfauteu": 4092,
      "Ġkanamu": 4093,
      "Ġcomprendre": 4094,
      "Ġjaxasoo": 4095,
      "Ġensemble": 4096,
      "ĠMoka": 4097,
      "ĠMokaa": 4098,
      "ĠprÃ©sent": 4099,
      "ĠÃ©clat": 4100,
      "ĠÃ©coutant": 4101,
      "Ġvraiment": 4102,
      "Ġdanga": 4103,
      "ĠmÃłndarg": 4104,
      "ĠsantÃ©": 4105,
      "Ġcrises": 4106,
      "ĠpÃ©nÃ©t": 4107,
      "Ġkilifay": 4108,
      "Ġenvah": 4109,
      "ĠchangÃ©": 4110,
      "ĠDemer": 4111,
      "ĠChuku": 4112,
      "ĠFÃłww": 4113,
      "ĠÃ©lect": 4114,
      "Ġcontraire": 4115,
      "ĠapportÃ©": 4116,
      "ĠaccompagnÃ©": 4117,
      "weeri": 4118,
      "Ġdomest": 4119,
      "ĠlÃ«mm": 4120,
      "Ġmoder": 4121,
      "Ġnoyyi": 4122,
      "Ġallemande": 4123,
      "Ġbariy": 4124,
      "Ġpinces": 4125,
      "ĠpÃ©trole": 4126,
      "Ġtremp": 4127,
      "ĠtantÃ´t": 4128,
      "Ġtubay": 4129,
      "Ġfirndeel": 4130,
      "ĠgÃłddaay": 4131,
      "Ġworoo": 4132,
      "ĠÃ©quatori": 4133,
      "ĠGuddi": 4134,
      "Ġoublier": 4135,
      "Ġexemple": 4136,
      "Ġprobablement": 4137,
      "ĠjÃ³gee": 4138,
      "Ġ1948": 4139,
      "Ġ1968": 4140,
      "ĠbÃ¢tons": 4141,
      "ĠprÃ©cÃ©dÃ©": 4142,
      "Ġguerriers": 4143,
      "ĠcommencÃ©": 4144,
      "Ġvagues": 4145,
      "gÃ©eju": 4146,
      "occupation": 4147,
      "Ġcamerounais": 4148,
      "ĠyÃłppu": 4149,
      "Ġjotewul": 4150,
      "ĠgÃłnnaay": 4151,
      "Ġkaki": 4152,
      "ĠÃłttekat": 4153,
      "ĠBretagne": 4154,
      "Ġchambre": 4155,
      "ĠÃītats": 4156,
      "ĠdaÅĭar": 4157,
      "ĠÃ©galement": 4158,
      "ĠPourquoi": 4159,
      "oorteelu": 4160,
      "Ġmaintenant": 4161,
      "ĠyÃ©enekaay": 4162,
      "housiasme": 4163,
      "hidjo": 4164,
      "ĠdÃłngin": 4165,
      "ĠdÃ³omu": 4166,
      "Ġlourde": 4167,
      "Ġlorgnons": 4168,
      "ĠsÃłnke": 4169,
      "ĠjÃ«rr": 4170,
      "Ġroyaumes": 4171,
      "Ġruisse": 4172,
      "ĠvÃªtus": 4173,
      "ĠBÃ«rÃ«taaÃ±": 4174,
      "ĠAnglais": 4175,
      "ĠreprÃ©s": 4176,
      "abandon": 4177,
      "ĠSaawusam": 4178,
      "Ġhutte": 4179,
      "ĠKalabaar": 4180,
      "ĠtrapÃ¨": 4181,
      "Ġsibbiru": 4182,
      "angoisse": 4183,
      "ĠmÃ©lange": 4184,
      "Ġextraordinaire": 4185,
      "Ġdiscipline": 4186,
      "ĠJeffries": 4187,
      "Ġprincip": 4188,
      "Ad": 4189,
      "Aro": 4190,
      "AprÃ¨s": 4191,
      "Aiya": 4192,
      "Avec": 4193,
      "Cert": 4194,
      "DÃ©": 4195,
      "Des": 4196,
      "Europe": 4197,
      "EuropÃ©ens": 4198,
      "Im": 4199,
      "In": 4200,
      "LÃł": 4201,
      "Mal": 4202,
      "YÃłlla": 4203,
      "aous": 4204,
      "atee": 4205,
      "ban": 4206,
      "bou": 4207,
      "bul": 4208,
      "bÃ©t": 4209,
      "bare": 4210,
      "bÃ©en": 4211,
      "bord": 4212,
      "bati": 4213,
      "bari": 4214,
      "bales": 4215,
      "cl": 4216,
      "cer": 4217,
      "car": 4218,
      "cis": 4219,
      "cce": 4220,
      "cation": 4221,
      "dit": 4222,
      "dÃ«kk": 4223,
      "dain": 4224,
      "euse": 4225,
      "eenti": 4226,
      "fant": 4227,
      "fic": 4228,
      "gi": 4229,
      "gie": 4230,
      "hi": 4231,
      "horreur": 4232,
      "iÃ©": 4233,
      "iqu": 4234,
      "iin": 4235,
      "iÃ¨res": 4236,
      "jet": 4237,
      "jun": 4238,
      "jee": 4239,
      "jaan": 4240,
      "jaar": 4241,
      "jec": 4242,
      "kali": 4243,
      "kub": 4244,
      "kool": 4245,
      "laay": 4246,
      "lÃ©s": 4247,
      "laam": 4248,
      "leel": 4249,
      "lac": 4250,
      "lets": 4251,
      "mall": 4252,
      "mmi": 4253,
      "metti": 4254,
      "nal": 4255,
      "nent": 4256,
      "nait": 4257,
      "ntu": 4258,
      "ndey": 4259,
      "ogg": 4260,
      "oti": 4261,
      "oris": 4262,
      "pel": 4263,
      "pas": 4264,
      "pore": 4265,
      "rat": 4266,
      "rÃ©t": 4267,
      "rati": 4268,
      "rÃ¨te": 4269,
      "seri": 4270,
      "saÃ±": 4271,
      "to": 4272,
      "tam": 4273,
      "tri": 4274,
      "tat": 4275,
      "tubaab": 4276,
      "taÃ±Ã±": 4277,
      "tÃ©ef": 4278,
      "uv": 4279,
      "upp": 4280,
      "vÃ©e": 4281,
      "vous": 4282,
      "vers": 4283,
      "waa": 4284,
      "wol": 4285,
      "xam": 4286,
      "xte": 4287,
      "xew": 4288,
      "yu": 4289,
      "yee": 4290,
      "yÃ«g": 4291,
      "ysent": 4292,
      "ysique": 4293,
      "zar": 4294,
      "Ġ6": 4295,
      "Ġopp": 4296,
      "Ġouv": 4297,
      "Ġelles": 4298,
      "ĠQu": 4299,
      "Ġouvert": 4300,
      "Ġorg": 4301,
      "Ġordinaire": 4302,
      "Ġouverte": 4303,
      "Ġdab": 4304,
      "Ġdra": 4305,
      "ĠdÃ©ey": 4306,
      "Ġdamm": 4307,
      "Ġdenc": 4308,
      "Ġdysent": 4309,
      "ĠlÃ¨": 4310,
      "Ġlaay": 4311,
      "Ġlenn": 4312,
      "ĠlÃ«kk": 4313,
      "Ġlog": 4314,
      "Ġmand": 4315,
      "Ġmouv": 4316,
      "ĠmÃłkk": 4317,
      "Ġmess": 4318,
      "Ġmorte": 4319,
      "Ġmemb": 4320,
      "ĠmÃ³ol": 4321,
      "Ġmote": 4322,
      "ĠmÃ¨tres": 4323,
      "ĠmÃ«dd": 4324,
      "Ġmettee": 4325,
      "Ã©kk": 4326,
      "Ã©du": 4327,
      "esse": 4328,
      "essible": 4329,
      "Ġnoire": 4330,
      "Ġnorm": 4331,
      "ĠnÃłÃ±Ã±": 4332,
      "Ġndekete": 4333,
      "Ġsh": 4334,
      "Ġsy": 4335,
      "Ġsir": 4336,
      "Ġsus": 4337,
      "Ġsab": 4338,
      "Ġsos": 4339,
      "Ġsoi": 4340,
      "ĠsÃ»": 4341,
      "Ġsoix": 4342,
      "Ġsombre": 4343,
      "Ġsangu": 4344,
      "ĠsÃ¨che": 4345,
      "Ġsindax": 4346,
      "env": 4347,
      "ense": 4348,
      "aati": 4349,
      "aasi": 4350,
      "onf": 4351,
      "onse": 4352,
      "Ġcaa": 4353,
      "Ġcal": 4354,
      "Ġcat": 4355,
      "Ġcot": 4356,
      "Ġcout": 4357,
      "Ġcoi": 4358,
      "Ġcall": 4359,
      "Ġcess": 4360,
      "Ġcatu": 4361,
      "Ġcrise": 4362,
      "Ġcuire": 4363,
      "ĠaÃ±": 4364,
      "Ġbre": 4365,
      "Ġbor": 4366,
      "Ġbale": 4367,
      "Ġbooy": 4368,
      "ĠbÃ©g": 4369,
      "ĠbÃłnd": 4370,
      "Ġbonne": 4371,
      "Ġbaie": 4372,
      "Ġpel": 4373,
      "Ġpant": 4374,
      "ĠpÃ³": 4375,
      "ĠpÃ«n": 4376,
      "ĠpÃłkk": 4377,
      "Ġpaak": 4378,
      "Ġpess": 4379,
      "ĠpÃ¢": 4380,
      "Ġpop": 4381,
      "Ġpaille": 4382,
      "ana": 4383,
      "anes": 4384,
      "anis": 4385,
      "anch": 4386,
      "anim": 4387,
      "angue": 4388,
      "rel": 4389,
      "reilles": 4390,
      "Ġtent": 4391,
      "Ġtom": 4392,
      "ĠtÃ«n": 4393,
      "Ġtama": 4394,
      "Ġtot": 4395,
      "Ġtig": 4396,
      "Ġtaal": 4397,
      "ĠtÃ©n": 4398,
      "ĠtÃ©en": 4399,
      "ĠtÃ«gg": 4400,
      "Ġtanc": 4401,
      "ĠtÃłq": 4402,
      "Ġtaill": 4403,
      "Ãłqu": 4404,
      "ouÃ©": 4405,
      "ouff": 4406,
      "oubas": 4407,
      "aide": 4408,
      "Ġyor": 4409,
      "Ġyom": 4410,
      "ĠyÃłcc": 4411,
      "Ġyatt": 4412,
      "oowaan": 4413,
      "era": 4414,
      "erme": 4415,
      "erci": 4416,
      "erbe": 4417,
      "Ġfent": 4418,
      "Ġfur": 4419,
      "Ġfus": 4420,
      "ĠfÃ©s": 4421,
      "Ġfum": 4422,
      "Ġfig": 4423,
      "Ġfaat": 4424,
      "ĠfrÃ©": 4425,
      "Ġfara": 4426,
      "Ġfaak": 4427,
      "Ġfomp": 4428,
      "ĠfÃ©d": 4429,
      "Ġfecc": 4430,
      "ĠfÃªtes": 4431,
      "Ġfabri": 4432,
      "Ġfoyer": 4433,
      "Ġjar": 4434,
      "Ġjet": 4435,
      "Ġjaab": 4436,
      "Ġjabar": 4437,
      "Ġjull": 4438,
      "Ġjaaxaan": 4439,
      "quait": 4440,
      "quante": 4441,
      "ala": 4442,
      "alpel": 4443,
      "aru": 4444,
      "arga": 4445,
      "arangue": 4446,
      "Ã«x": 4447,
      "amti": 4448,
      "Ġge": 4449,
      "Ġgri": 4450,
      "Ġgil": 4451,
      "Ġgas": 4452,
      "ĠgÃ©t": 4453,
      "Ġgenn": 4454,
      "Ġgout": 4455,
      "Ġgori": 4456,
      "ĠgÃ©ey": 4457,
      "Ġgoog": 4458,
      "Ġgagn": 4459,
      "Ġgrise": 4460,
      "Ġlaver": 4461,
      "ĠlatÃ©ri": 4462,
      "etul": 4463,
      "Ã±etti": 4464,
      "Ġkaf": 4465,
      "ĠkÃłrt": 4466,
      "Ġwan": 4467,
      "Ġwis": 4468,
      "ĠwÃ©pp": 4469,
      "Ġwex": 4470,
      "Ġwaas": 4471,
      "Ġwecc": 4472,
      "ĠwÃ©er": 4473,
      "Ġwaree": 4474,
      "Ġwotoom": 4475,
      "ĠwÃ©kk": 4476,
      "unoo": 4477,
      "ric": 4478,
      "rire": 4479,
      "rices": 4480,
      "tem": 4481,
      "inaa": 4482,
      "inÃ©r": 4483,
      "inture": 4484,
      "entes": 4485,
      "entre": 4486,
      "entent": 4487,
      "enthousiasme": 4488,
      "Ġcig": 4489,
      "Ġciw": 4490,
      "Ġquat": 4491,
      "Ġquarti": 4492,
      "ild": 4493,
      "ilÃ¨g": 4494,
      "orant": 4495,
      "orme": 4496,
      "oration": 4497,
      "Ġlem": 4498,
      "ĠleÃ§on": 4499,
      "Ġlecture": 4500,
      "Ġlekool": 4501,
      "itam": 4502,
      "itÃ©s": 4503,
      "ĠÃłntu": 4504,
      "Ġmauv": 4505,
      "ĠrÃł": 4506,
      "Ġrent": 4507,
      "Ġrom": 4508,
      "Ġropp": 4509,
      "Ġrob": 4510,
      "Ġrendu": 4511,
      "lex": 4512,
      "leurs": 4513,
      "Ã¨de": 4514,
      "Ã¨cle": 4515,
      "eler": 4516,
      "ellent": 4517,
      "elds": 4518,
      "ĠÃ±ooy": 4519,
      "ĠÃ±eneen": 4520,
      "ĠÃ±ett": 4521,
      "Ġxun": 4522,
      "Ġxas": 4523,
      "ĠxÃ³": 4524,
      "Ġxaal": 4525,
      "ĠxÃłmb": 4526,
      "ĠxÃ³ot": 4527,
      "Ġxaj": 4528,
      "Ġxew": 4529,
      "Ġxaaju": 4530,
      "ĠxÃ©lu": 4531,
      "Ġlesquel": 4532,
      "Ġvou": 4533,
      "Ġver": 4534,
      "ĠvÃª": 4535,
      "Ġvall": 4536,
      "Ġvaiss": 4537,
      "Ġvue": 4538,
      "Ġvarangue": 4539,
      "ppe": 4540,
      "aange": 4541,
      "irurg": 4542,
      "irmiers": 4543,
      "atte": 4544,
      "atoon": 4545,
      "atiy": 4546,
      "Ġmuus": 4547,
      "Ġniki": 4548,
      "Ġdess": 4549,
      "Ġdeseet": 4550,
      "antÃ©": 4551,
      "asi": 4552,
      "ulee": 4553,
      "Ġsem": 4554,
      "Ġsegg": 4555,
      "agÃ©": 4556,
      "Ġbac": 4557,
      "Ġenvir": 4558,
      "ĠBar": 4559,
      "ĠBor": 4560,
      "ĠBari": 4561,
      "ĠduÃ±u": 4562,
      "ustri": 4563,
      "Ġbiiri": 4564,
      "ĠAg": 4565,
      "ĠAw": 4566,
      "ĠAad": 4567,
      "ĠAhidjo": 4568,
      "Ġnewu": 4569,
      "Ġneuf": 4570,
      "Ã©tat": 4571,
      "Ã©tendue": 4572,
      "Ġngeen": 4573,
      "Ã³ori": 4574,
      "meur": 4575,
      "old": 4576,
      "aube": 4577,
      "ĠMaak": 4578,
      "ĠMill": 4579,
      "ceen": 4580,
      "cevoir": 4581,
      "Ġparc": 4582,
      "Ġparaiss": 4583,
      "Ġparad": 4584,
      "Ġparcour": 4585,
      "Ġred": 4586,
      "Ġree": 4587,
      "Ġreet": 4588,
      "Ġrele": 4589,
      "Ġreti": 4590,
      "Ġrevi": 4591,
      "Ġavance": 4592,
      "Ġavanc": 4593,
      "Ġaventure": 4594,
      "Ãłnge": 4595,
      "Ġluis": 4596,
      "Ġluxe": 4597,
      "estu": 4598,
      "ouses": 4599,
      "chal": 4600,
      "chant": 4601,
      "chais": 4602,
      "chettes": 4603,
      "chide": 4604,
      "ĠNk": 4605,
      "ĠNon": 4606,
      "ĠNous": 4607,
      "ĠNorm": 4608,
      "lub": 4609,
      "Ġchass": 4610,
      "Ġchanger": 4611,
      "Ġchoc": 4612,
      "Ġchirurg": 4613,
      "ost": 4614,
      "ospital": 4615,
      "ĠLaaj": 4616,
      "dib": 4617,
      "diens": 4618,
      "Ġfaf": 4619,
      "Ġfaju": 4620,
      "ĠSh": 4621,
      "ĠSon": 4622,
      "ĠSin": 4623,
      "ĠSax": 4624,
      "ĠSans": 4625,
      "ĠSooy": 4626,
      "ĠSori": 4627,
      "ĠSah": 4628,
      "tic": 4629,
      "tice": 4630,
      "tivement": 4631,
      "Ġsuy": 4632,
      "Ġsuite": 4633,
      "Ġsucre": 4634,
      "ĠhÃ´pital": 4635,
      "Ġhaie": 4636,
      "ĠdÃ©m": 4637,
      "ĠdÃ©v": 4638,
      "ĠdÃ©ci": 4639,
      "ĠdÃ©nu": 4640,
      "ĠDer": 4641,
      "ĠDina": 4642,
      "ĠDuma": 4643,
      "ĠDoole": 4644,
      "aww": 4645,
      "uments": 4646,
      "umba": 4647,
      "llÃ«g": 4648,
      "imis": 4649,
      "iments": 4650,
      "ots": 4651,
      "ott": 4652,
      "otte": 4653,
      "Ġpourquoi": 4654,
      "outon": 4655,
      "ĠTou": 4656,
      "ĠTont": 4657,
      "ĠTÃłng": 4658,
      "ĠToog": 4659,
      "Ġamal": 4660,
      "Ġamis": 4661,
      "Ġamutoon": 4662,
      "Ġmbal": 4663,
      "Ġmbagg": 4664,
      "ddu": 4665,
      "ddoo": 4666,
      "oxu": 4667,
      "ĠKo": 4668,
      "ĠKÃ³": 4669,
      "ĠKab": 4670,
      "ĠKaw": 4671,
      "ĠKÃłtt": 4672,
      "ĠKari": 4673,
      "ieuse": 4674,
      "ouvÃ©": 4675,
      "Ġjeune": 4676,
      "ĠÃ©tat": 4677,
      "ĠÃ©tant": 4678,
      "ĠÃ©touff": 4679,
      "Ġsurvi": 4680,
      "Ġoreilles": 4681,
      "Ġdaf": 4682,
      "Ġdakk": 4683,
      "Ġplage": 4684,
      "Ġplac": 4685,
      "Ġplaines": 4686,
      "Ġplonge": 4687,
      "igue": 4688,
      "Ġcomment": 4689,
      "Ġcompt": 4690,
      "ĠtrÃ´": 4691,
      "Ġtrac": 4692,
      "Ġtrace": 4693,
      "Ġtrouve": 4694,
      "ĠCette": 4695,
      "ĠCela": 4696,
      "ĠFili": 4697,
      "ÅĪe": 4698,
      "Ġinvent": 4699,
      "Ġinvis": 4700,
      "ĠWaa": 4701,
      "ĠWiyaa": 4702,
      "avaient": 4703,
      "ffÃ©s": 4704,
      "orts": 4705,
      "Ġici": 4706,
      "ĠidÃ©e": 4707,
      "ĠÃ©vi": 4708,
      "ĠÃ©loign": 4709,
      "Ġsoign": 4710,
      "rÃ©m": 4711,
      "Ġdemi": 4712,
      "Ġdemul": 4713,
      "tug": 4714,
      "tuaire": 4715,
      "tuuti": 4716,
      "ĠdÃ«kkee": 4717,
      "ĠdÃ«kkub": 4718,
      "sib": 4719,
      "ĠmÃ«numaa": 4720,
      "ĠmÃ«nutoon": 4721,
      "onnÃ©s": 4722,
      "onnement": 4723,
      "Ġxamatul": 4724,
      "ĠGÃ³or": 4725,
      "ĠGrass": 4726,
      "ĠGinnaaw": 4727,
      "Ġceinture": 4728,
      "Ġnaak": 4729,
      "cien": 4730,
      "cier": 4731,
      "cieux": 4732,
      "cience": 4733,
      "Ġwaxoon": 4734,
      "Ġwaxamb": 4735,
      "Ġdeful": 4736,
      "oisi": 4737,
      "Ġmoomeelu": 4738,
      "Ġgrat": 4739,
      "ĠgrÃ¢": 4740,
      "Ġjuges": 4741,
      "arachide": 4742,
      "Ġnju": 4743,
      "ĠnjÃ«nd": 4744,
      "Ġnjari": 4745,
      "Ġnjoowaan": 4746,
      "aakaar": 4747,
      "Ġris": 4748,
      "Ġrive": 4749,
      "Ġridic": 4750,
      "Ġdalukaay": 4751,
      "Ġenfin": 4752,
      "ĠJigÃ©en": 4753,
      "ĠJoh": 4754,
      "ĠJiit": 4755,
      "riss": 4756,
      "mite": 4757,
      "Ġmaisons": 4758,
      "ĠÅĪoom": 4759,
      "ĠÅĪuy": 4760,
      "ĠmeÃ±Ã±": 4761,
      "Ġvib": 4762,
      "Ġvivaient": 4763,
      "Ġviennent": 4764,
      "Ġtaxu": 4765,
      "Ġarmes": 4766,
      "ĠarriÃ¨re": 4767,
      "ĠarrÃªt": 4768,
      "Ġtuu": 4769,
      "Ġturi": 4770,
      "rac": 4771,
      "raÃ®": 4772,
      "Ã§aient": 4773,
      "Ġdocteur": 4774,
      "ĠgÃ«natee": 4775,
      "Ġwuteek": 4776,
      "ĠÃĳa": 4777,
      "ĠÃĳaar": 4778,
      "ĠmÃ©bÃ©t": 4779,
      "Ġboot": 4780,
      "Ġdoomam": 4781,
      "ĠkÃ«ruus": 4782,
      "ĠlÃłpp": 4783,
      "ĠraÅĭ": 4784,
      "ĠSuku": 4785,
      "ĠPom": 4786,
      "ĠPuis": 4787,
      "ĠPari": 4788,
      "ĠPÃ«l": 4789,
      "liers": 4790,
      "lieue": 4791,
      "Ġexam": 4792,
      "Ġexces": 4793,
      "Ãłllaak": 4794,
      "Ġvieilles": 4795,
      "Ġnatt": 4796,
      "Ġnatale": 4797,
      "Ġcoucher": 4798,
      "Ġcourions": 4799,
      "Ġmari": 4800,
      "Ġmarque": 4801,
      "ĠmarquÃ©": 4802,
      "Ġmarjaan": 4803,
      "Ġmanies": 4804,
      "cheurs": 4805,
      "ĠYÃ©esu": 4806,
      "ĠYaakaar": 4807,
      "ĠYÃłllaak": 4808,
      "ĠgarÃ§on": 4809,
      "Ġprom": 4810,
      "Ġcolons": 4811,
      "Ġcolonne": 4812,
      "Ġbiiru": 4813,
      "Ġproc": 4814,
      "Ġproie": 4815,
      "wukaay": 4816,
      "ĠjournÃ©e": 4817,
      "istait": 4818,
      "Ġyaroo": 4819,
      "Ġlonge": 4820,
      "Ã©rait": 4821,
      "Ġtool": 4822,
      "ĠtooÃ±": 4823,
      "Ġtoogal": 4824,
      "Ġyoonam": 4825,
      "ĠgÃ©nÃ©re": 4826,
      "Ġcorde": 4827,
      "Ġcornes": 4828,
      "Ġimm": 4829,
      "Ġdoxal": 4830,
      "jje": 4831,
      "ĠEl": 4832,
      "ĠEst": 4833,
      "ĠElle": 4834,
      "ĠyÃ«gaat": 4835,
      "Ġfekkoon": 4836,
      "Ġfekksi": 4837,
      "ĠLiÃ±": 4838,
      "ada": 4839,
      "adee": 4840,
      "Ġmontrent": 4841,
      "Ġpasser": 4842,
      "ermin": 4843,
      "bbal": 4844,
      "Ġabs": 4845,
      "Ġabsent": 4846,
      "embouch": 4847,
      "Ãłttaliku": 4848,
      "Ġyarami": 4849,
      "icatur": 4850,
      "aasu": 4851,
      "Ġcarav": 4852,
      "Ġcarross": 4853,
      "Ġcaricatur": 4854,
      "oph": 4855,
      "opÃ©r": 4856,
      "ĠRiw": 4857,
      "Ġloxoy": 4858,
      "Ġapporte": 4859,
      "Ġappartement": 4860,
      "ĠTeg": 4861,
      "ĠtÃ«b": 4862,
      "ĠtÃ«ri": 4863,
      "ĠtÃ«ju": 4864,
      "ĠtÃ«wa": 4865,
      "Ġjadd": 4866,
      "Ġjafee": 4867,
      "katu": 4868,
      "ĠfÃłttalikoo": 4869,
      "ĠÃłddinay": 4870,
      "ĠNikom": 4871,
      "Ġsaaf": 4872,
      "Ġalal": 4873,
      "Ġpouvais": 4874,
      "Ġpouvoir": 4875,
      "Ġfemelle": 4876,
      "nesi": 4877,
      "Ġsouliers": 4878,
      "Ġportent": 4879,
      "Ġportrait": 4880,
      "Ġxarnu": 4881,
      "Ġpartager": 4882,
      "Ġnataali": 4883,
      "ption": 4884,
      "Ġ195": 4885,
      "ĠjÃłppe": 4886,
      "itudes": 4887,
      "Ġposs": 4888,
      "Ġposture": 4889,
      "ĠdÃ©cl": 4890,
      "ĠdÃ©couverte": 4891,
      "Ġmbirum": 4892,
      "ĠÃ«tt": 4893,
      "ĠÃ«mb": 4894,
      "ĠÃ«llÃ«g": 4895,
      "Ġpalais": 4896,
      "Ġpalaat": 4897,
      "Ġpalmiers": 4898,
      "empire": 4899,
      "yyee": 4900,
      "Ġginnax": 4901,
      "ĠbÃ«tam": 4902,
      "truire": 4903,
      "Ġdisait": 4904,
      "Ġconc": 4905,
      "Ġphysique": 4906,
      "Ġtapp": 4907,
      "ĠAlseri": 4908,
      "Ġperd": 4909,
      "Ġjaarale": 4910,
      "Ġchef": 4911,
      "Ġtraverse": 4912,
      "gade": 4913,
      "ĠyÃ«ngoo": 4914,
      "assÃ©": 4915,
      "ĠMazar": 4916,
      "Ġtoogoon": 4917,
      "ateur": 4918,
      "uwe": 4919,
      "Ġoncles": 4920,
      "Ġdoux": 4921,
      "Ġdouleur": 4922,
      "Ġnonchal": 4923,
      "Ġconser": 4924,
      "Ġconsac": 4925,
      "Ġautrement": 4926,
      "ĠsÃ©q": 4927,
      "Ġtoppatoo": 4928,
      "Ġrecons": 4929,
      "ĠNiger": 4930,
      "Ġsavions": 4931,
      "Ġregardent": 4932,
      "espÃ©r": 4933,
      "Ġboug": 4934,
      "Ġbouill": 4935,
      "Ġpuits": 4936,
      "Ġfameuses": 4937,
      "ĠrÃ©sign": 4938,
      "ĠallÃ©": 4939,
      "Ġtolloo": 4940,
      "Ġtollook": 4941,
      "ĠyÃ³nn": 4942,
      "Ġsemblait": 4943,
      "ouvertes": 4944,
      "Ã©ph": 4945,
      "Ã©rie": 4946,
      "Ġsaytu": 4947,
      "Ġbanlieue": 4948,
      "Ġyemu": 4949,
      "ĠyÃłggul": 4950,
      "Ġfaisaient": 4951,
      "Åĵuf": 4952,
      "ĠdÃ©sir": 4953,
      "ĠdÃ©sespÃ©r": 4954,
      "Ġsentiments": 4955,
      "Ġbokkoon": 4956,
      "Ġbokkul": 4957,
      "Ġpierre": 4958,
      "Ġpiki": 4959,
      "Ġpierres": 4960,
      "ĠpiÃ¨ge": 4961,
      "ĠrÃªver": 4962,
      "Ġimpecc": 4963,
      "lanis": 4964,
      "enfance": 4965,
      "enfonc": 4966,
      "Ġweexaay": 4967,
      "Ġruu": 4968,
      "Ġrues": 4969,
      "Ġruqu": 4970,
      "Ġrumeur": 4971,
      "Ġroule": 4972,
      "Ġrouges": 4973,
      "Ġsecours": 4974,
      "Ġseconde": 4975,
      "Ġlibre": 4976,
      "ĠVoy": 4977,
      "Ġlorsqu": 4978,
      "Ġmoments": 4979,
      "Ã©motion": 4980,
      "Ġadul": 4981,
      "Ġtoits": 4982,
      "Ġyeew": 4983,
      "Ġyeewu": 4984,
      "Ġweesu": 4985,
      "atta": 4986,
      "Ġchemin": 4987,
      "ĠarrivÃ©": 4988,
      "ĠbrÃ»lait": 4989,
      "Ġsouvenirs": 4990,
      "ĠNdaxam": 4991,
      "Ġvoyageaient": 4992,
      "Ġafricaines": 4993,
      "Aujourd": 4994,
      "Unis": 4995,
      "ĠÅĭaam": 4996,
      "ĠÅĭÃłÃ±Ã±": 4997,
      "ĠÅĭeeÃ±": 4998,
      "Ġdanoo": 4999,
      "Ġdankali": 5000,
      "ĠdÃ«j": 5001,
      "ĠdÃ«ll": 5002,
      "Ġsoxal": 5003,
      "Ġsoxor": 5004,
      "Ġsoxna": 5005,
      "Ġsoxnaam": 5006,
      "Ġcroire": 5007,
      "Ġmiiri": 5008,
      "ĠrÃ©ponse": 5009,
      "Ġtropicale": 5010,
      "kanami": 5011,
      "ĠdinaÃ±": 5012,
      "Ġdistance": 5013,
      "Ġlaajoon": 5014,
      "install": 5015,
      "installer": 5016,
      "Ġrendi": 5017,
      "ĠNgir": 5018,
      "ĠgÃ©nnaan": 5019,
      "lancs": 5020,
      "Ġturam": 5021,
      "ĠtÃłkkal": 5022,
      "ĠyÃ«ge": 5023,
      "ĠyÃ«gu": 5024,
      "quelÃ©e": 5025,
      "Ġxawoon": 5026,
      "Ġvrais": 5027,
      "Ġnaqadee": 5028,
      "Ġrevanche": 5029,
      "Ġsoldaari": 5030,
      "Ġsoppikoo": 5031,
      "Ġcampagne": 5032,
      "Ġbindkat": 5033,
      "Ġpenser": 5034,
      "Ġpoing": 5035,
      "Ġpointe": 5036,
      "Ġfowukaay": 5037,
      "Ġwoowu": 5038,
      "Ġvenait": 5039,
      "ĠAbakaliki": 5040,
      "Ġremont": 5041,
      "Ġremonte": 5042,
      "Ġeffec": 5043,
      "Ġeffray": 5044,
      "Ġnoppal": 5045,
      "Ġsensations": 5046,
      "Ġafflu": 5047,
      "Ġaffect": 5048,
      "Ġbrind": 5049,
      "Ġfatigue": 5050,
      "Ġkerceen": 5051,
      "ommÃ©": 5052,
      "Ġreyante": 5053,
      "Ġcapable": 5054,
      "ĠFiild": 5055,
      "ĠFields": 5056,
      "Ġjuddu": 5057,
      "Ġconnaissais": 5058,
      "Ġconnaissance": 5059,
      "Ġretourner": 5060,
      "ĠirÃ³": 5061,
      "ĠirrÃ©": 5062,
      "ĠcrÃ©Ã©": 5063,
      "Ġaccepter": 5064,
      "Ġaccep": 5065,
      "ungo": 5066,
      "urgence": 5067,
      "Ġxiir": 5068,
      "ĠMÃ«noon": 5069,
      "Ġcharge": 5070,
      "Ġchaude": 5071,
      "Ġchauff": 5072,
      "ĠÃ¢gÃ©s": 5073,
      "Ġrajo": 5074,
      "Ġrajoom": 5075,
      "Ġrajaxe": 5076,
      "Ġracontait": 5077,
      "Devant": 5078,
      "Ġbataax": 5079,
      "Ġpistes": 5080,
      "Ġpermet": 5081,
      "Ġyaboo": 5082,
      "ĠyÃ©rey": 5083,
      "Ġquitte": 5084,
      "ĠquittÃ©": 5085,
      "Ġretrouver": 5086,
      "Ġincap": 5087,
      "Ġanglais": 5088,
      "ĠaccrochÃ©s": 5089,
      "Ġdispens": 5090,
      "ĠdispaÃ±seer": 5091,
      "aura": 5092,
      "aurait": 5093,
      "affaire": 5094,
      "feebar": 5095,
      "ĠdÃłlli": 5096,
      "Ġplein": 5097,
      "Ġpleins": 5098,
      "ĠtÃłyyee": 5099,
      "airs": 5100,
      "Ġyaxeet": 5101,
      "ĠfenÃªtres": 5102,
      "Ġfitna": 5103,
      "Ġjoie": 5104,
      "Ġjubal": 5105,
      "ĠrestÃ©": 5106,
      "Ġrepas": 5107,
      "ĠSeeni": 5108,
      "Ġguerres": 5109,
      "Ġcomprends": 5110,
      "Ġancien": 5111,
      "Ġanciens": 5112,
      "Ġrappelle": 5113,
      "Ġressemblait": 5114,
      "ruption": 5115,
      "ukaayam": 5116,
      "Ġutil": 5117,
      "Ġdaagu": 5118,
      "Ġdaawu": 5119,
      "Ġmilitaire": 5120,
      "Ġndigg": 5121,
      "Ġndigalu": 5122,
      "Ġcosaanu": 5123,
      "Ġconduisait": 5124,
      "Ġaimer": 5125,
      "Ġblancs": 5126,
      "Ġsubaak": 5127,
      "Ġsubst": 5128,
      "Ġsuivi": 5129,
      "ĠhÃ©rit": 5130,
      "Ġguyaab": 5131,
      "Ġmbindeef": 5132,
      "Ġanimaux": 5133,
      "ĠnjÃłmbaar": 5134,
      "lication": 5135,
      "ĠprÃ©sence": 5136,
      "ĠgÃ©nÃ©ral": 5137,
      "ĠgÃ©nÃ©rale": 5138,
      "Ġserviteurs": 5139,
      "Quelque": 5140,
      "Quelques": 5141,
      "Ġorages": 5142,
      "ĠmÃłndarga": 5143,
      "Ġstatu": 5144,
      "Ġsignifi": 5145,
      "Ġcanal": 5146,
      "Ġcamarades": 5147,
      "ĠachetÃ©s": 5148,
      "Ġpoliti": 5149,
      "Ġpolici": 5150,
      "ĠtÃłngal": 5151,
      "Ġfowe": 5152,
      "Ġgaleries": 5153,
      "Ġxobi": 5154,
      "ĠBÃ©nouÃ©": 5155,
      "ĠBÃ©nuwe": 5156,
      "ĠBuuru": 5157,
      "ĠAtum": 5158,
      "Ġjeunesse": 5159,
      "ĠFÃłtte": 5160,
      "Ġindustri": 5161,
      "Ġchapeaux": 5162,
      "Ġpropre": 5163,
      "Ã¢teaux": 5164,
      "Ġaskan": 5165,
      "Ġaskanu": 5166,
      "ĠRiver": 5167,
      "ĠRÃ©ewi": 5168,
      "Ġxaritam": 5169,
      "ĠobsÃ©d": 5170,
      "Ġobsession": 5171,
      "ĠdiffÃ©rent": 5172,
      "Ġofficiers": 5173,
      "heure": 5174,
      "heureux": 5175,
      "rouler": 5176,
      "ĠÃ³fise": 5177,
      "Ġmiroir": 5178,
      "Ġmoytu": 5179,
      "Ġmaasaloo": 5180,
      "Ġsotti": 5181,
      "Ġsortir": 5182,
      "Ġsanctuaire": 5183,
      "Ġcinq": 5184,
      "Ġcoono": 5185,
      "Ġcabax": 5186,
      "Ġfulla": 5187,
      "Ġjagleel": 5188,
      "Ġgolf": 5189,
      "ĠgÃłngiri": 5190,
      "ĠgÃ«moon": 5191,
      "Ġchercheurs": 5192,
      "Ġhistoire": 5193,
      "Ġhistoires": 5194,
      "Ġmbooloo": 5195,
      "ĠGarab": 5196,
      "ĠGaraas": 5197,
      "ĠnjÃ«lbÃ©en": 5198,
      "Ġvieillards": 5199,
      "Ġprofonde": 5200,
      "ĠIndiens": 5201,
      "ĠyÃ³bbaale": 5202,
      "Ġadministra": 5203,
      "Ġadministrati": 5204,
      "Ġcommencement": 5205,
      "Arkuur": 5206,
      "Chaque": 5207,
      "Ġaada": 5208,
      "Ġlampe": 5209,
      "Ġminus": 5210,
      "ĠcraquelÃ©e": 5211,
      "Ġbaxa": 5212,
      "ĠbÃłnx": 5213,
      "Ġpoitrine": 5214,
      "arrivÃ©e": 5215,
      "Ġkask": 5216,
      "Ġwaaxu": 5217,
      "ĠrÃłkkaaju": 5218,
      "ĠvariÃ©tÃ©": 5219,
      "ĠBabungo": 5220,
      "Ġteqaleek": 5221,
      "Ã³obu": 5222,
      "Ġsuppose": 5223,
      "Ġcafards": 5224,
      "Ġplaintes": 5225,
      "Ġtroncs": 5226,
      "ĠJurÃ³om": 5227,
      "ĠParis": 5228,
      "Ġbrousse": 5229,
      "Ġlointains": 5230,
      "Ġdisparu": 5231,
      "Ġterribles": 5232,
      "Ġfamilier": 5233,
      "ĠparticuliÃ¨rement": 5234,
      "Ġphotographie": 5235,
      "ĠdÃ«nnam": 5236,
      "Ã¯sme": 5237,
      "ĠisolÃ©": 5238,
      "Ġmoustiquaire": 5239,
      "ĠmÃ©ngook": 5240,
      "ĠYorubaa": 5241,
      "ĠondulÃ©e": 5242,
      "Ġbiafrais": 5243,
      "Abakaliki": 5244,
      "Ġlentement": 5245,
      "ĠmangÃ©": 5246,
      "ĠmÃ³obal": 5247,
      "Ã©wÃ©n": 5248,
      "Ġnombreux": 5249,
      "ĠcÃłkkeef": 5250,
      "ĠclichÃ©s": 5251,
      "Ġcercle": 5252,
      "Ġbesoin": 5253,
      "ĠprivilÃ¨g": 5254,
      "Ġtribales": 5255,
      "ĠtÃłllal": 5256,
      "Ġfonction": 5257,
      "ĠjÃłmbu": 5258,
      "ĠgÃ«stu": 5259,
      "Ġlaxas": 5260,
      "ĠrÃłÃ±Ã±ee": 5261,
      "ĠvÃ©ritÃ©": 5262,
      "ĠAllemands": 5263,
      "ĠLooloo": 5264,
      "ĠKakaa": 5265,
      "Ġsurveillance": 5266,
      "ĠtrÃ©sor": 5267,
      "ĠÃ©prouve": 5268,
      "Ġsowub": 5269,
      "ĠjÃ«mmu": 5270,
      "ĠXawma": 5271,
      "ĠPolisoÅĭ": 5272,
      "oritaire": 5273,
      "ĠentourÃ©": 5274,
      "Ġassiette": 5275,
      "Ġalentour": 5276,
      "Ġallum": 5277,
      "Ġtambours": 5278,
      "ĠAlgÃ©rie": 5279,
      "ĠinstallÃ©": 5280,
      "ĠsculptÃ©s": 5281,
      "Ġvaccins": 5282,
      "Ġcolonisation": 5283,
      "ĠdÃ«ppook": 5284,
      "Ġyegsi": 5285,
      "Ġfauteuils": 5286,
      "ĠpÃ©nÃ©trer": 5287,
      "ĠÃ©lectrique": 5288,
      "Ġmoderne": 5289,
      "ĠÃ©quatoriale": 5290,
      "ĠSaawusamton": 5291,
      "Adamawa": 5292,
      "junni": 5293,
      "Ġorganis": 5294,
      "Ġdysenterie": 5295,
      "ĠlÃ«kkale": 5296,
      "Ġmembres": 5297,
      "Ġmoteur": 5298,
      "Ã©ducation": 5299,
      "ĠsÃ»r": 5300,
      "Ġsoixante": 5301,
      "ĠcessÃ©": 5302,
      "ĠbÃłndaas": 5303,
      "Ġpantalon": 5304,
      "ĠpÃ«nde": 5305,
      "Ġpessim": 5306,
      "Ġpopul": 5307,
      "ĠtÃ©nia": 5308,
      "Ġfentaak": 5309,
      "Ġfusils": 5310,
      "ĠfrÃ©quent": 5311,
      "ĠfÃ©dÃ©r": 5312,
      "Ġgorilles": 5313,
      "Ġgoogoo": 5314,
      "ĠlatÃ©rite": 5315,
      "Ġquatre": 5316,
      "ĠroppÃ«l": 5317,
      "Ġxaalis": 5318,
      "Ġlesquels": 5319,
      "Ġvaisselle": 5320,
      "ĠSahara": 5321,
      "ĠdÃ©cidÃ©": 5322,
      "ĠÃ©touffante": 5323,
      "ĠFilipus": 5324,
      "Ġinvisible": 5325,
      "Ġwaxambaane": 5326,
      "ĠgrÃ¢ce": 5327,
      "Ġexcessi": 5328,
      "Ġvieillesse": 5329,
      "embouchure": 5330,
      "ĠRiwÃ«r": 5331,
      "ĠMazaruni": 5332,
      "ĠrÃ©signation": 5333,
      "ĠyÃ³nnee": 5334,
      "Ġdankalikoo": 5335,
      "ĠacceptÃ©": 5336,
      "ĠprivilÃ¨ges": 5337,
      "300": 5338,
      "700": 5339,
      "Aff": 5340,
      "Aux": 5341,
      "Avant": 5342,
      "Ainsi": 5343,
      "Bam": 5344,
      "Baay": 5345,
      "Bien": 5346,
      "British": 5347,
      "Ces": 5348,
      "Comme": 5349,
      "Est": 5350,
      "France": 5351,
      "Hormis": 5352,
      "Ici": 5353,
      "Ifite": 5354,
      "Long": 5355,
      "Moi": 5356,
      "Ni": 5357,
      "On": 5358,
      "Rien": 5359,
      "Ses": 5360,
      "Tubaab": 5361,
      "az": 5362,
      "aju": 5363,
      "aje": 5364,
      "aÃ§ait": 5365,
      "bÃ©": 5366,
      "boo": 5367,
      "bit": 5368,
      "bres": 5369,
      "bad": 5370,
      "cri": 5371,
      "cte": 5372,
      "cel": 5373,
      "cti": 5374,
      "celle": 5375,
      "cli": 5376,
      "cils": 5377,
      "cits": 5378,
      "cile": 5379,
      "cuss": 5380,
      "cast": 5381,
      "ckl": 5382,
      "do": 5383,
      "don": 5384,
      "dent": 5385,
      "daay": 5386,
      "eg": 5387,
      "eat": 5388,
      "fo": 5389,
      "fon": 5390,
      "fou": 5391,
      "foo": 5392,
      "fait": 5393,
      "fest": 5394,
      "fiti": 5395,
      "fÃ©ex": 5396,
      "go": 5397,
      "gaa": 5398,
      "gent": 5399,
      "gers": 5400,
      "gles": 5401,
      "gante": 5402,
      "gÃ©n": 5403,
      "gÃ³or": 5404,
      "gine": 5405,
      "gÃ«l": 5406,
      "gouill": 5407,
      "gagÃ©": 5408,
      "hili": 5409,
      "hase": 5410,
      "hana": 5411,
      "ice": 5412,
      "ieux": 5413,
      "ibles": 5414,
      "ize": 5415,
      "ivres": 5416,
      "jal": 5417,
      "jour": 5418,
      "jag": 5419,
      "jus": 5420,
      "jÃłng": 5421,
      "jantu": 5422,
      "kaa": 5423,
      "kus": 5424,
      "kÃ«r": 5425,
      "ly": 5426,
      "laa": 5427,
      "lam": 5428,
      "lant": 5429,
      "land": 5430,
      "lie": 5431,
      "lÃ©es": 5432,
      "laire": 5433,
      "loc": 5434,
      "lables": 5435,
      "lÃ«pp": 5436,
      "lÃ©ph": 5437,
      "mant": 5438,
      "mans": 5439,
      "mme": 5440,
      "mont": 5441,
      "maam": 5442,
      "mond": 5443,
      "manche": 5444,
      "nj": 5445,
      "nk": 5446,
      "naa": 5447,
      "non": 5448,
      "nir": 5449,
      "nÃ©s": 5450,
      "nde": 5451,
      "naux": 5452,
      "nits": 5453,
      "npore": 5454,
      "occ": 5455,
      "oÃ»": 5456,
      "oÃ«l": 5457,
      "oches": 5458,
      "oile": 5459,
      "occident": 5460,
      "pon": 5461,
      "pou": 5462,
      "pÃ«": 5463,
      "pis": 5464,
      "pol": 5465,
      "pain": 5466,
      "pli": 5467,
      "peur": 5468,
      "poor": 5469,
      "pees": 5470,
      "paÃ±seer": 5471,
      "paaya": 5472,
      "qam": 5473,
      "rant": 5474,
      "raient": 5475,
      "rage": 5476,
      "rure": 5477,
      "rmen": 5478,
      "romp": 5479,
      "raines": 5480,
      "rÃ¨ne": 5481,
      "ruire": 5482,
      "rument": 5483,
      "randis": 5484,
      "ranch": 5485,
      "sen": 5486,
      "ser": 5487,
      "sit": 5488,
      "sas": 5489,
      "sori": 5490,
      "sac": 5491,
      "stÃ©ri": 5492,
      "sung": 5493,
      "santes": 5494,
      "sailles": 5495,
      "too": 5496,
      "tti": 5497,
      "tÃ³or": 5498,
      "tation": 5499,
      "tad": 5500,
      "ttee": 5501,
      "tate": 5502,
      "tress": 5503,
      "uil": 5504,
      "ude": 5505,
      "utu": 5506,
      "uits": 5507,
      "ucu": 5508,
      "vu": 5509,
      "vou": 5510,
      "vrÃ©": 5511,
      "vage": 5512,
      "vions": 5513,
      "vente": 5514,
      "voque": 5515,
      "vigu": 5516,
      "voris": 5517,
      "wal": 5518,
      "war": 5519,
      "wle": 5520,
      "waal": 5521,
      "waale": 5522,
      "wumaa": 5523,
      "waare": 5524,
      "xu": 5525,
      "xÃ³ot": 5526,
      "yÃ«n": 5527,
      "yaak": 5528,
      "zz": 5529,
      "zes": 5530,
      "®le": 5531,
      "Â«": 5532,
      "Ãīt": 5533,
      "Ġ1": 5534,
      "Ġ3": 5535,
      "ĠZ": 5536,
      "Ġe": 5537,
      "Ġes": 5538,
      "Ġaak": 5539,
      "Ġeau": 5540,
      "Ġess": 5541,
      "Ġord": 5542,
      "Ġomb": 5543,
      "Ġorte": 5544,
      "ĠUne": 5545,
      "Ġesc": 5546,
      "ĠÃªtres": 5547,
      "Ġemmen": 5548,
      "Ġupp": 5549,
      "ĠÅĵuf": 5550,
      "Ġ700": 5551,
      "ĭsen": 5552,
      "Ġdag": 5553,
      "Ġdale": 5554,
      "ĠdÃ«r": 5555,
      "Ġdand": 5556,
      "Ġdort": 5557,
      "Ġdois": 5558,
      "Ġdorm": 5559,
      "Ġdamay": 5560,
      "Ġlent": 5561,
      "Ġlait": 5562,
      "Ġlot": 5563,
      "Ġlaak": 5564,
      "Ġlaax": 5565,
      "Ġlaam": 5566,
      "Ġlourd": 5567,
      "Ġloc": 5568,
      "ĠlÃ«pp": 5569,
      "Ġlaisse": 5570,
      "ĠlÃ©th": 5571,
      "ĠlÃ³ox": 5572,
      "ĠmÃł": 5573,
      "Ġmun": 5574,
      "Ġmor": 5575,
      "Ġmour": 5576,
      "Ġmol": 5577,
      "Ġmig": 5578,
      "Ġmeek": 5579,
      "Ġmaaj": 5580,
      "Ġmors": 5581,
      "Ġmoit": 5582,
      "Ġmise": 5583,
      "Ġminu": 5584,
      "Ġmode": 5585,
      "Ġmettait": 5586,
      "Ġmouton": 5587,
      "Ã©an": 5588,
      "Ã©qu": 5589,
      "Ã©di": 5590,
      "Ã©ment": 5591,
      "Ã©mb": 5592,
      "Ã©mi": 5593,
      "Ã©eri": 5594,
      "Ã©vit": 5595,
      "Ã©loign": 5596,
      "Ã©rÃ©m": 5597,
      "esam": 5598,
      "ĠnÃ©": 5599,
      "Ġnen": 5600,
      "Ġnaay": 5601,
      "Ġnaat": 5602,
      "Ġnation": 5603,
      "Ġnob": 5604,
      "ĠnÃłnd": 5605,
      "Ġnoot": 5606,
      "Ġnkom": 5607,
      "Ġnombre": 5608,
      "Ġnamm": 5609,
      "ĠnÃ³ox": 5610,
      "Ġsal": 5611,
      "ĠsÃ«": 5612,
      "Ġsin": 5613,
      "Ġsis": 5614,
      "Ġsaan": 5615,
      "Ġseek": 5616,
      "ĠsÃłng": 5617,
      "Ġsomb": 5618,
      "ĠsÃ©y": 5619,
      "ĠsÃ©c": 5620,
      "ĠsÃłmm": 5621,
      "Ġsign": 5622,
      "Ġsing": 5623,
      "Ġsommes": 5624,
      "ĠsÃ«pp": 5625,
      "Ġseey": 5626,
      "Ġsulli": 5627,
      "ĠsÃ³obu": 5628,
      "eni": 5629,
      "enait": 5630,
      "enke": 5631,
      "enya": 5632,
      "aami": 5633,
      "onou": 5634,
      "onis": 5635,
      "onom": 5636,
      "oneem": 5637,
      "onies": 5638,
      "Ġcoo": 5639,
      "Ġcax": 5640,
      "Ġcay": 5641,
      "Ġcau": 5642,
      "ĠcÃ«r": 5643,
      "Ġcry": 5644,
      "Ġcoc": 5645,
      "ĠcÃ«pp": 5646,
      "Ġcoyy": 5647,
      "Ġclub": 5648,
      "ĠcÃ©rÃ©m": 5649,
      "Ġair": 5650,
      "Ġbai": 5651,
      "Ġbis": 5652,
      "Ġbit": 5653,
      "Ġbag": 5654,
      "Ġbol": 5655,
      "ĠbÃ©pp": 5656,
      "Ġbelle": 5657,
      "Ġbonn": 5658,
      "Ġbris": 5659,
      "Ġbekk": 5660,
      "Ġbanam": 5661,
      "Ġbaatu": 5662,
      "Ġbey": 5663,
      "Ġbaraa": 5664,
      "Ġballe": 5665,
      "ĠbÃªtes": 5666,
      "ĠbÃ³oy": 5667,
      "Ġbloc": 5668,
      "ĠpÃ©": 5669,
      "ĠpÃł": 5670,
      "Ġpoo": 5671,
      "Ġpun": 5672,
      "Ġpent": 5673,
      "Ġpor": 5674,
      "Ġpax": 5675,
      "Ġpus": 5676,
      "Ġpau": 5677,
      "Ġpont": 5678,
      "Ġpain": 5679,
      "Ġpati": 5680,
      "Ġpid": 5681,
      "Ġpress": 5682,
      "Ġpey": 5683,
      "ĠpÃ©ri": 5684,
      "ĠpÃ©ex": 5685,
      "Ġpaj": 5686,
      "ĠpÃ«t": 5687,
      "Ġpaci": 5688,
      "anoo": 5689,
      "annÃ©e": 5690,
      "anpoor": 5691,
      "Ġdere": 5692,
      "Ġdehors": 5693,
      "reaux": 5694,
      "reuse": 5695,
      "reuses": 5696,
      "ĠtÃ©": 5697,
      "Ġtit": 5698,
      "Ġtag": 5699,
      "Ġtonn": 5700,
      "Ġtooy": 5701,
      "ĠtÃ³or": 5702,
      "Ġtris": 5703,
      "ĠtÃ¢": 5704,
      "Ġtac": 5705,
      "Ġtelles": 5706,
      "Ġtente": 5707,
      "ĠtÃ´t": 5708,
      "Ġtaraa": 5709,
      "Ġtaille": 5710,
      "ĠtÃªtes": 5711,
      "Ġtenue": 5712,
      "Ġtimis": 5713,
      "Ġtoxu": 5714,
      "Ãłtti": 5715,
      "oue": 5716,
      "oux": 5717,
      "ouer": 5718,
      "ouci": 5719,
      "oureux": 5720,
      "ourets": 5721,
      "ouala": 5722,
      "aies": 5723,
      "airi": 5724,
      "aitement": 5725,
      "Ġyan": 5726,
      "Ġyoo": 5727,
      "ĠyÃłn": 5728,
      "Ġyend": 5729,
      "ĠyÃłll": 5730,
      "ĠyÃłlla": 5731,
      "ĠyÃłqu": 5732,
      "erb": 5733,
      "erce": 5734,
      "erusi": 5735,
      "ĠfÃ«": 5736,
      "Ġfri": 5737,
      "Ġfine": 5738,
      "ĠfÃ«gg": 5739,
      "Ġfaatu": 5740,
      "Ġfilles": 5741,
      "Ġfiss": 5742,
      "Ġfoog": 5743,
      "Ġfaite": 5744,
      "Ġfexe": 5745,
      "Ġfaim": 5746,
      "Ġfleurs": 5747,
      "Ġjaa": 5748,
      "Ġjal": 5749,
      "ĠjÃ«n": 5750,
      "ĠjÃ©y": 5751,
      "Ġjokk": 5752,
      "Ġjomm": 5753,
      "Ġjulli": 5754,
      "Ġjaww": 5755,
      "quÃ©s": 5756,
      "alet": 5757,
      "alÃ©e": 5758,
      "alaient": 5759,
      "aliment": 5760,
      "arin": 5761,
      "arque": 5762,
      "arma": 5763,
      "arÃ£s": 5764,
      "arnÃ©e": 5765,
      "artal": 5766,
      "arition": 5767,
      "arla": 5768,
      "arnaa": 5769,
      "Ã«re": 5770,
      "Ã«fee": 5771,
      "Ã«cce": 5772,
      "ams": 5773,
      "amas": 5774,
      "amps": 5775,
      "amants": 5776,
      "amtee": 5777,
      "Ġgir": 5778,
      "Ġgay": 5779,
      "Ġgest": 5780,
      "Ġgang": 5781,
      "Ġgants": 5782,
      "Ġgris": 5783,
      "Ġgeen": 5784,
      "Ġgeer": 5785,
      "ĠgÃ«l": 5786,
      "ĠgaaÃ±": 5787,
      "Ġgeste": 5788,
      "ĠgÃ«rÃ«m": 5789,
      "Ġlab": 5790,
      "Ġlac": 5791,
      "Ġlavait": 5792,
      "etrole": 5793,
      "Ġka": 5794,
      "Ġkat": 5795,
      "Ġkaay": 5796,
      "Ġkom": 5797,
      "Ġkaar": 5798,
      "Ġkers": 5799,
      "Ġkeneen": 5800,
      "Ġkaka": 5801,
      "Ġkomp": 5802,
      "Ġkere": 5803,
      "Ġkeey": 5804,
      "ĠkaaÅĭ": 5805,
      "ĠkÃ«ri": 5806,
      "Ġwa": 5807,
      "ĠwÃł": 5808,
      "Ġwall": 5809,
      "Ġwaaw": 5810,
      "Ġween": 5811,
      "Ġwii": 5812,
      "ĠwaaÃ±": 5813,
      "Ġwallu": 5814,
      "ĠwÃłllu": 5815,
      "Ġwonni": 5816,
      "unÃ³or": 5817,
      "ungoo": 5818,
      "rill": 5819,
      "texte": 5820,
      "inÃ©s": 5821,
      "inage": 5822,
      "inois": 5823,
      "ingue": 5824,
      "entendre": 5825,
      "entraÃ®": 5826,
      "ĠcitÃ©s": 5827,
      "ĠcirÃ©es": 5828,
      "Ġcitad": 5829,
      "uram": 5830,
      "urant": 5831,
      "urde": 5832,
      "urne": 5833,
      "ises": 5834,
      "isol": 5835,
      "isse": 5836,
      "isions": 5837,
      "istes": 5838,
      "islam": 5839,
      "ispaÃ±seer": 5840,
      "oone": 5841,
      "oons": 5842,
      "oonteek": 5843,
      "orom": 5844,
      "orti": 5845,
      "orge": 5846,
      "Ġlell": 5847,
      "Ġlever": 5848,
      "kko": 5849,
      "kkan": 5850,
      "kkalee": 5851,
      "eej": 5852,
      "itÃ©e": 5853,
      "itation": 5854,
      "iture": 5855,
      "ĠÃłjj": 5856,
      "ĠÃłlle": 5857,
      "Ġmauri": 5858,
      "Ġrus": 5859,
      "Ġray": 5860,
      "ĠrÃ«kk": 5861,
      "Ġrend": 5862,
      "Ġrav": 5863,
      "Ġrois": 5864,
      "ĠrÃłgg": 5865,
      "Ġrond": 5866,
      "Ġrue": 5867,
      "Ġrendre": 5868,
      "ĠrÃ©ere": 5869,
      "ĠrÃ´le": 5870,
      "Ġrendait": 5871,
      "Ġrangoo": 5872,
      "Ġraxe": 5873,
      "Ġratta": 5874,
      "lection": 5875,
      "Ã¨tre": 5876,
      "Ã¨ve": 5877,
      "els": 5878,
      "ĠÃ±Ã©": 5879,
      "ĠÃ±am": 5880,
      "ĠÃ±or": 5881,
      "ĠÃ±aan": 5882,
      "ĠÃ±ag": 5883,
      "ĠÃ±eek": 5884,
      "ĠÃ±all": 5885,
      "ĠÃ±Ãłng": 5886,
      "ĠÃ±aata": 5887,
      "ĠÃ±aare": 5888,
      "Ġxe": 5889,
      "Ġxoo": 5890,
      "ĠxÃłn": 5891,
      "Ġxama": 5892,
      "Ġxub": 5893,
      "ĠxÃłll": 5894,
      "Ġxaaj": 5895,
      "Ġxalee": 5896,
      "Ġxull": 5897,
      "Ġxere": 5898,
      "Ġxoole": 5899,
      "ĠxeeÃ±": 5900,
      "ĠxÃłjj": 5901,
      "Ġxosi": 5902,
      "Ġxumb": 5903,
      "Ġxocc": 5904,
      "Ġxorom": 5905,
      "Ġxeej": 5906,
      "Ġve": 5907,
      "ĠvÃ©": 5908,
      "Ġvais": 5909,
      "Ġvont": 5910,
      "Ġvend": 5911,
      "Ġvoi": 5912,
      "ĠvÃ©n": 5913,
      "Ġverre": 5914,
      "Ġvaut": 5915,
      "ĠvÃ©g": 5916,
      "Ġvilles": 5917,
      "Ġvotre": 5918,
      "Ġvites": 5919,
      "ppus": 5920,
      "ppati": 5921,
      "ira": 5922,
      "irmiÃ¨re": 5923,
      "ato": 5924,
      "ates": 5925,
      "ature": 5926,
      "Ġmusique": 5927,
      "Ġnib": 5928,
      "Ġnig": 5929,
      "ĠniÃ±": 5930,
      "Ġnite": 5931,
      "Ġnids": 5932,
      "ournal": 5933,
      "Ġdesoon": 5934,
      "Ġdestru": 5935,
      "asin": 5936,
      "asis": 5937,
      "asard": 5938,
      "ulc": 5939,
      "ulu": 5940,
      "uloo": 5941,
      "ultat": 5942,
      "ulmans": 5943,
      "Ġdiv": 5944,
      "Ġdiw": 5945,
      "Ġdiri": 5946,
      "Ġdieu": 5947,
      "Ġdigal": 5948,
      "Ġdieux": 5949,
      "Ġdikkal": 5950,
      "Ġdimens": 5951,
      "Ġdimanche": 5952,
      "Ġdiamants": 5953,
      "aayd": 5954,
      "ome": 5955,
      "Ġsey": 5956,
      "Ġsept": 5957,
      "Ġseins": 5958,
      "Ġseuil": 5959,
      "Ġkos": 5960,
      "ĠkoÅĪ": 5961,
      "ĠkoÅĭÅĭ": 5962,
      "agit": 5963,
      "agrÃ©": 5964,
      "aguma": 5965,
      "Ġunis": 5966,
      "Ġuniqu": 5967,
      "Ġbav": 5968,
      "Ġbakkan": 5969,
      "ĠenlÃ¨": 5970,
      "ĠengagÃ©": 5971,
      "ĠBen": 5972,
      "ĠBÃł": 5973,
      "ĠBro": 5974,
      "ĠBoy": 5975,
      "ĠBali": 5976,
      "ĠBooy": 5977,
      "ĠBak": 5978,
      "ĠBokk": 5979,
      "ĠBok": 5980,
      "ĠBaali": 5981,
      "ĠBritish": 5982,
      "ĠBlancs": 5983,
      "ĠduÅĭÅĭ": 5984,
      "ĠduÃ±uy": 5985,
      "usaan": 5986,
      "uston": 5987,
      "ĠbiÃ±": 5988,
      "Ġbidd": 5989,
      "Ġbivou": 5990,
      "ĠAs": 5991,
      "ĠAcc": 5992,
      "ĠAnd": 5993,
      "ĠAprÃ¨s": 5994,
      "ĠAna": 5995,
      "Ġtegg": 5996,
      "Ġteers": 5997,
      "Ġteeri": 5998,
      "Ġteerusi": 5999,
      "Ġteppati": 6000,
      "ĠyiÃ±": 6001,
      "aises": 6002,
      "Ġnewul": 6003,
      "Ġnemm": 6004,
      "Ã©tr": 6005,
      "Ã©tation": 6006,
      "Ã©tique": 6007,
      "Ã©tendait": 6008,
      "Ġngone": 6009,
      "Ġngunu": 6010,
      "Ġngoog": 6011,
      "Ġngato": 6012,
      "ggu": 6013,
      "ggante": 6014,
      "Ġnaju": 6015,
      "Ġnabit": 6016,
      "Ġnavigu": 6017,
      "Ã³f": 6018,
      "meub": 6019,
      "olir": 6020,
      "olÃ³ol": 6021,
      "ays": 6022,
      "aud": 6023,
      "auf": 6024,
      "aucun": 6025,
      "ĠMis": 6026,
      "ĠMem": 6027,
      "ĠMÃłkk": 6028,
      "ĠMook": 6029,
      "ĠMii": 6030,
      "ĠMÃłr": 6031,
      "ĠMiin": 6032,
      "Ã©sus": 6033,
      "dex": 6034,
      "deurs": 6035,
      "deaux": 6036,
      "dehors": 6037,
      "defon": 6038,
      "Ġparas": 6039,
      "Ġparap": 6040,
      "Ġparisi": 6041,
      "Ġparpain": 6042,
      "Ġrect": 6043,
      "Ġremis": 6044,
      "Ġrecher": 6045,
      "Ġreelu": 6046,
      "Ġreew": 6047,
      "Ġrecevoir": 6048,
      "Ġrewle": 6049,
      "Ġavent": 6050,
      "Ġaveu": 6051,
      "Ġluci": 6052,
      "Ġlutte": 6053,
      "oussi": 6054,
      "chet": 6055,
      "chir": 6056,
      "chem": 6057,
      "chers": 6058,
      "chette": 6059,
      "chures": 6060,
      "chton": 6061,
      "emis": 6062,
      "ĠNa": 6063,
      "ĠNekk": 6064,
      "ĠNow": 6065,
      "ĠNettali": 6066,
      "ĠNÃ©egu": 6067,
      "ĠNoÃ«l": 6068,
      "ĠNsung": 6069,
      "lule": 6070,
      "luait": 6071,
      "luies": 6072,
      "lutÃ´t": 6073,
      "Ġbut": 6074,
      "frir": 6075,
      "Ġcho": 6076,
      "Ġchu": 6077,
      "Ġchamp": 6078,
      "Ġchoix": 6079,
      "Ġchien": 6080,
      "Ġchute": 6081,
      "ĠchrÃ©t": 6082,
      "Ġchatte": 6083,
      "Ġchoisi": 6084,
      "ĠchÃ¢teaux": 6085,
      "abres": 6086,
      "amaÅĭ": 6087,
      "amawaa": 6088,
      "amakus": 6089,
      "osÃ©e": 6090,
      "osse": 6091,
      "ossib": 6092,
      "ĠLÃ©": 6093,
      "ĠLan": 6094,
      "ĠLÃł": 6095,
      "ĠLiy": 6096,
      "ĠLekk": 6097,
      "ĠLuy": 6098,
      "ĠLug": 6099,
      "ĠLuw": 6100,
      "ĠLloy": 6101,
      "ennemi": 6102,
      "die": 6103,
      "diale": 6104,
      "Ġillus": 6105,
      "Ġlig": 6106,
      "Ġliw": 6107,
      "Ġlijj": 6108,
      "Ġliise": 6109,
      "Ġlimite": 6110,
      "Ġmondiale": 6111,
      "Ġfacile": 6112,
      "Ġfavoris": 6113,
      "ĠSc": 6114,
      "ĠSopp": 6115,
      "ĠSeet": 6116,
      "ĠSung": 6117,
      "ĠSener": 6118,
      "ĠSamay": 6119,
      "ĠSmall": 6120,
      "ĠSams": 6121,
      "tie": 6122,
      "tim": 6123,
      "tiens": 6124,
      "tigation": 6125,
      "Ġpasse": 6126,
      "Ġsuff": 6127,
      "Ġsuper": 6128,
      "Ġsuuk": 6129,
      "Ġsummi": 6130,
      "Ġcaq": 6131,
      "Ġcapt": 6132,
      "ĠcachÃ©": 6133,
      "Ġcachais": 6134,
      "Ġcadeaux": 6135,
      "Ġhur": 6136,
      "Ġhim": 6137,
      "Ġhori": 6138,
      "Ġhaine": 6139,
      "Ġhere": 6140,
      "ĠhÃ¢te": 6141,
      "Ġhaous": 6142,
      "Ġherbe": 6143,
      "Ġheat": 6144,
      "Ġhasard": 6145,
      "ĠdÃ©l": 6146,
      "ĠdÃ©lic": 6147,
      "ĠdÃ©bord": 6148,
      "ĠdÃ©nk": 6149,
      "ĠDur": 6150,
      "ĠDion": 6151,
      "ĠDaw": 6152,
      "ĠDara": 6153,
      "ĠDuw": 6154,
      "ĠDog": 6155,
      "ĠDanoo": 6156,
      "ĠDispaÃ±seer": 6157,
      "awu": 6158,
      "awoo": 6159,
      "awnpore": 6160,
      "Åĭuni": 6161,
      "umes": 6162,
      "umul": 6163,
      "umand": 6164,
      "umaal": 6165,
      "Ġguid": 6166,
      "ima": 6167,
      "imu": 6168,
      "imat": 6169,
      "otÃ©": 6170,
      "otes": 6171,
      "otonou": 6172,
      "outait": 6173,
      "ĠTam": 6174,
      "ĠTÃ©ere": 6175,
      "ĠTart": 6176,
      "Ġmbax": 6177,
      "Ġmbaar": 6178,
      "Ġmbaam": 6179,
      "ĠmbÃ«gg": 6180,
      "ĠmbaÃ±": 6181,
      "Ġmburu": 6182,
      "ĠmbÃłjj": 6183,
      "Ġmbartal": 6184,
      "roche": 6185,
      "roces": 6186,
      "ropol": 6187,
      "ddinay": 6188,
      "andonn": 6189,
      "andue": 6190,
      "andiss": 6191,
      "oxor": 6192,
      "ĠKaka": 6193,
      "ĠKanam": 6194,
      "ĠKÃłdd": 6195,
      "ĠKantu": 6196,
      "ĠKilif": 6197,
      "ĠKwa": 6198,
      "ĠKish": 6199,
      "ĠKisoÅĭ": 6200,
      "ĠKentu": 6201,
      "ĠKenya": 6202,
      "ĠKamakus": 6203,
      "iez": 6204,
      "ieur": 6205,
      "ĠÃ©tage": 6206,
      "ĠÃ©toile": 6207,
      "Ġsurg": 6208,
      "aincre": 6209,
      "Ġodeurs": 6210,
      "Ġdooni": 6211,
      "Ġdoonoon": 6212,
      "Ġdoonul": 6213,
      "ĠÃ´": 6214,
      "ĠÃī": 6215,
      "ĠÃ®le": 6216,
      "ĠÃĭsen": 6217,
      "Ġdate": 6218,
      "Ġdaju": 6219,
      "Ġpli": 6220,
      "Ġplant": 6221,
      "endes": 6222,
      "endus": 6223,
      "endroit": 6224,
      "Ġtrou": 6225,
      "Ġtrouv": 6226,
      "Ġtromp": 6227,
      "Ġtrott": 6228,
      "ĠCet": 6229,
      "ĠCoon": 6230,
      "ĠCamer": 6231,
      "ĠCorp": 6232,
      "ĠCong": 6233,
      "ĠCawnpore": 6234,
      "ĠCotonou": 6235,
      "aatle": 6236,
      "ĠFan": 6237,
      "ĠFÃ©pp": 6238,
      "ĠFara": 6239,
      "ĠFoor": 6240,
      "ĠFarm": 6241,
      "ĠFung": 6242,
      "ĠFumba": 6243,
      "ĠFÃłttaliku": 6244,
      "ĠFarÃ£s": 6245,
      "Ġmienne": 6246,
      "ÅĪse": 6247,
      "ÅĪoÅĭ": 6248,
      "ÅĪetti": 6249,
      "Ġayant": 6250,
      "Ġinacc": 6251,
      "Ġinjec": 6252,
      "aalaa": 6253,
      "aalee": 6254,
      "gub": 6255,
      "oyce": 6256,
      "seen": 6257,
      "alikook": 6258,
      "ĠWax": 6259,
      "ĠWÃ©et": 6260,
      "ĠWap": 6261,
      "ĠWute": 6262,
      "avons": 6263,
      "avanc": 6264,
      "ffant": 6265,
      "ffÃ©es": 6266,
      "Ġndoorteelu": 6267,
      "ĠndÃ©wÃ©n": 6268,
      "Ġndaje": 6269,
      "ortait": 6270,
      "ortir": 6271,
      "ortÃ©s": 6272,
      "ortance": 6273,
      "Ġsipp": 6274,
      "Ġsiens": 6275,
      "Ġsippi": 6276,
      "ĠsiÃ¨cle": 6277,
      "ccÃ«g": 6278,
      "galeek": 6279,
      "ttes": 6280,
      "tter": 6281,
      "ensi": 6282,
      "ensÃ©es": 6283,
      "ĠÃ©m": 6284,
      "ĠÃ©lan": 6285,
      "ĠÃ©vÃ©n": 6286,
      "ĠÃ©voque": 6287,
      "Ġsoin": 6288,
      "Ġsovi": 6289,
      "Ġdemande": 6290,
      "ments": 6291,
      "tume": 6292,
      "tuÃ±u": 6293,
      "ĠdÃ«kkoo": 6294,
      "ĠdÃ«kkam": 6295,
      "ĠdÃ«kkandoo": 6296,
      "exemp": 6297,
      "exercer": 6298,
      "exerce": 6299,
      "ĠOu": 6300,
      "ĠOnits": 6301,
      "ĠmÃ«noo": 6302,
      "ĠmÃ«nal": 6303,
      "ĠmÃ«nut": 6304,
      "ĠmÃ«numa": 6305,
      "onnu": 6306,
      "onnÃ©": 6307,
      "onnÃ©e": 6308,
      "onniers": 6309,
      "ĠGis": 6310,
      "ĠGÃ©n": 6311,
      "ĠGue": 6312,
      "ĠGÃ«m": 6313,
      "ĠGanaa": 6314,
      "ĠGÃ©ej": 6315,
      "ĠGener": 6316,
      "ĠGhana": 6317,
      "ĠGly": 6318,
      "ĠGesam": 6319,
      "ĠGunÃ³or": 6320,
      "Ãłkkamti": 6321,
      "ciale": 6322,
      "ĠbÃ«m": 6323,
      "ĠbÃ«ccÃ«g": 6324,
      "Ġwaxantee": 6325,
      "Ġant": 6326,
      "Ġanam": 6327,
      "ĠannÃ©e": 6328,
      "Ġantip": 6329,
      "angan": 6330,
      "Ġdefoon": 6331,
      "Ġdefee": 6332,
      "Ġdefare": 6333,
      "Ġdefanteek": 6334,
      "tÃ©en": 6335,
      "tÃ©el": 6336,
      "Ġmoomoo": 6337,
      "Ġmoomoon": 6338,
      "Ġmoomee": 6339,
      "Ġgrouill": 6340,
      "Ã³oru": 6341,
      "Ġjuy": 6342,
      "Ġjupe": 6343,
      "araÃ®tre": 6344,
      "Ġgiseek": 6345,
      "tesse": 6346,
      "Ġnja": 6347,
      "Ġnji": 6348,
      "Ġnjub": 6349,
      "Ġnjaax": 6350,
      "ĠnjÃłng": 6351,
      "Ġnjiit": 6352,
      "ĠitinÃ©r": 6353,
      "areg": 6354,
      "arer": 6355,
      "Ġrikk": 6356,
      "Ġrides": 6357,
      "Ġriiri": 6358,
      "Ġrideau": 6359,
      "Ġdalu": 6360,
      "Ġenferm": 6361,
      "Ġenfonc": 6362,
      "iller": 6363,
      "illÃ©e": 6364,
      "illons": 6365,
      "illÃ©es": 6366,
      "ĠJÃ©": 6367,
      "ĠJaay": 6368,
      "ĠJÃłpp": 6369,
      "ĠJaf": 6370,
      "ĠJÃłnge": 6371,
      "ĠJournal": 6372,
      "ĠJÃ©sus": 6373,
      "ĠJoyce": 6374,
      "rist": 6375,
      "ristique": 6376,
      "mban": 6377,
      "mbÃ«t": 6378,
      "Ġjambe": 6379,
      "Ġfui": 6380,
      "ĠfuÃ±": 6381,
      "Ġfuuy": 6382,
      "Ġfufu": 6383,
      "ĠrÃ©f": 6384,
      "ĠrÃ©elle": 6385,
      "ĠrÃ©du": 6386,
      "ĠrÃ©ccu": 6387,
      "ĠrÃ©veill": 6388,
      "ĠrÃ©cits": 6389,
      "miÅĪoÅĭ": 6390,
      "ĠÅĪax": 6391,
      "ĠÅĪaw": 6392,
      "ĠÅĪeenti": 6393,
      "Ġmere": 6394,
      "ĠmeÅĪÅĪ": 6395,
      "Ġmedaay": 6396,
      "Ġviande": 6397,
      "Ġvivent": 6398,
      "Ġvivres": 6399,
      "Ġvicti": 6400,
      "ĠOgil": 6401,
      "ĠOgaar": 6402,
      "Ġtaxul": 6403,
      "Ġtaxumaa": 6404,
      "Ġart": 6405,
      "Ġarch": 6406,
      "ĠarmiÅĪoÅĭ": 6407,
      "Ġtukk": 6408,
      "ĠtuÃ©s": 6409,
      "Ġtuut": 6410,
      "Ġtukkee": 6411,
      "Ġtuuru": 6412,
      "Ġtuwaal": 6413,
      "Ġtuumaal": 6414,
      "Ġnekkinu": 6415,
      "raÅĭ": 6416,
      "Ã§oit": 6417,
      "ctÃ¨re": 6418,
      "Ġdof": 6419,
      "ĠgÃ«naloon": 6420,
      "Ġwuyu": 6421,
      "Ġwujje": 6422,
      "Ġwuutu": 6423,
      "Ġwaru": 6424,
      "Ġwaraloon": 6425,
      "ĠmÃªlÃ©": 6426,
      "esses": 6427,
      "Ġmask": 6428,
      "Ġmasin": 6429,
      "Ġmasuma": 6430,
      "Ġmassac": 6431,
      "ĠÃĳi": 6432,
      "ĠÃĳÃ©pp": 6433,
      "ndomb": 6434,
      "ĠjÃ«w": 6435,
      "ĠjÃ«le": 6436,
      "ĠjÃ«li": 6437,
      "ĠjÃ«mbÃ«t": 6438,
      "amertume": 6439,
      "Ġcesse": 6440,
      "atique": 6441,
      "ĠlÃłmb": 6442,
      "ĠlÃłbbe": 6443,
      "Ġatte": 6444,
      "Ġrakk": 6445,
      "Ġraff": 6446,
      "Ġraciale": 6447,
      "ĠSuw": 6448,
      "ĠSuÃ±": 6449,
      "ĠPÃ¨re": 6450,
      "ĠPeut": 6451,
      "ĠPetrole": 6452,
      "ĠPensÃ©es": 6453,
      "Ġpaysage": 6454,
      "liait": 6455,
      "Ġext": 6456,
      "Ġexcept": 6457,
      "Ġexercer": 6458,
      "Ġexistait": 6459,
      "Ġvieil": 6460,
      "Ġchacun": 6461,
      "Ġnations": 6462,
      "Ġnataalu": 6463,
      "ĠcouchÃ©s": 6464,
      "Ġmars": 6465,
      "Ġmarch": 6466,
      "ĠmarÃ©c": 6467,
      "Ġmarcher": 6468,
      "Ġmarches": 6469,
      "Ġmargouill": 6470,
      "Ġmanque": 6471,
      "Ġmanches": 6472,
      "ĠmanquÃ©": 6473,
      "Ġmandib": 6474,
      "Ġcelles": 6475,
      "Ġcellule": 6476,
      "ĠYoon": 6477,
      "ĠYenn": 6478,
      "ĠYÃłgg": 6479,
      "ĠYaali": 6480,
      "ĠYÃłkkamti": 6481,
      "Ġbruy": 6482,
      "Ġbrut": 6483,
      "Ġbrume": 6484,
      "Ġbrandiss": 6485,
      "ombrÃ©es": 6486,
      "ĠlÃ©ppam": 6487,
      "Ġsamag": 6488,
      "ĠprÃ©t": 6489,
      "Ġpros": 6490,
      "Ġprendre": 6491,
      "Ġproue": 6492,
      "Ġcolis": 6493,
      "Ġcollection": 6494,
      "Ġformant": 6495,
      "ĠrÃ©ewam": 6496,
      "eeru": 6497,
      "Ġprojet": 6498,
      "Ġmagie": 6499,
      "Ġmagasin": 6500,
      "Ġtegee": 6501,
      "Ġtegtal": 6502,
      "origine": 6503,
      "ĠjournÃ©es": 6504,
      "Ġjournaux": 6505,
      "Ġauxquelles": 6506,
      "Ġentend": 6507,
      "Ġentiers": 6508,
      "ĠentrÃ©e": 6509,
      "Ġentendue": 6510,
      "Ġentendait": 6511,
      "Ġentoure": 6512,
      "Ġlonku": 6513,
      "Ã©rent": 6514,
      "Ã©rÃ©s": 6515,
      "Ã¢tre": 6516,
      "Ġyooni": 6517,
      "Ġyoonu": 6518,
      "Ã»te": 6519,
      "Ġcorruption": 6520,
      "Ġjikko": 6521,
      "ĠÃĢll": 6522,
      "ĠÃĢnd": 6523,
      "ĠÃĢbb": 6524,
      "ĠÃĢddinay": 6525,
      "Ġimmens": 6526,
      "Ġimmeub": 6527,
      "Ã©cor": 6528,
      "Ã©cole": 6529,
      "Ġdexu": 6530,
      "erik": 6531,
      "Ġjusque": 6532,
      "Ġjustement": 6533,
      "Ġjustifi": 6534,
      "Ġjustice": 6535,
      "rits": 6536,
      "Ã©emÃ©eri": 6537,
      "ĠTugÃ«l": 6538,
      "ĠTuwaare": 6539,
      "ĠEend": 6540,
      "ĠEnu": 6541,
      "ĠEke": 6542,
      "ĠyÃ«goon": 6543,
      "aissait": 6544,
      "ĠLib": 6545,
      "ĠLiggÃ©ey": 6546,
      "adÃ©": 6547,
      "adaa": 6548,
      "adolesc": 6549,
      "adcast": 6550,
      "ides": 6551,
      "idÃ©e": 6552,
      "iditÃ©": 6553,
      "ĠmontÃ©e": 6554,
      "Ġserp": 6555,
      "Ġserais": 6556,
      "Ġseraient": 6557,
      "Ġservant": 6558,
      "Ġservait": 6559,
      "Ġservaient": 6560,
      "Ġseringue": 6561,
      "ĠfÃłÅĭÅĭ": 6562,
      "ĠfÃłttee": 6563,
      "Ġpassent": 6564,
      "Ġpassant": 6565,
      "Ġpassion": 6566,
      "ĠpassÃ©es": 6567,
      "Ġpassionn": 6568,
      "Ġaskanam": 6569,
      "Ġastem": 6570,
      "ettaient": 6571,
      "bbi": 6572,
      "Ġabandonn": 6573,
      "embler": 6574,
      "ica": 6575,
      "Ġsouvent": 6576,
      "Ġcarab": 6577,
      "Ġcaraxam": 6578,
      "Ġtravaux": 6579,
      "mmee": 6580,
      "ĠRid": 6581,
      "Ġappel": 6582,
      "Ġpeuvent": 6583,
      "ĠjigÃ©eni": 6584,
      "Ġseetsi": 6585,
      "orer": 6586,
      "utation": 6587,
      "Ġmala": 6588,
      "Ġmalheureux": 6589,
      "ĠtÃ«w": 6590,
      "Ġjaf": 6591,
      "Ġjafal": 6592,
      "ĠjÃ³olÃ³ol": 6593,
      "Laper": 6594,
      "Ġyooyoo": 6595,
      "ĠÃłddinaa": 6596,
      "ĠÃłndal": 6597,
      "Ġautoritaire": 6598,
      "ĠNiÃ±": 6599,
      "Ġcasque": 6600,
      "Ġcastes": 6601,
      "Ġalaate": 6602,
      "Ġalalu": 6603,
      "Ġalmet": 6604,
      "Ġgarabu": 6605,
      "nesil": 6606,
      "parait": 6607,
      "parti": 6608,
      "Ġsoupir": 6609,
      "Ġfruit": 6610,
      "Ġfeem": 6611,
      "Ġfeebari": 6612,
      "Ġxarat": 6613,
      "Ġxaritu": 6614,
      "Ġpartait": 6615,
      "Ġpartant": 6616,
      "ÅĭÅĭati": 6617,
      "Ã®t": 6618,
      "Ã®le": 6619,
      "Ã®tes": 6620,
      "Ġ1919": 6621,
      "Ġ1900": 6622,
      "ĠwÃ«raleek": 6623,
      "indre": 6624,
      "ituÃ©": 6625,
      "ituer": 6626,
      "Ġencad": 6627,
      "Ġencerc": 6628,
      "ĠencombrÃ©es": 6629,
      "ĠlÃ©egi": 6630,
      "Ġneexoon": 6631,
      "Ġneexaan": 6632,
      "andeer": 6633,
      "aria": 6634,
      "ĠdÃ©ggee": 6635,
      "ĠdÃ©ggaat": 6636,
      "obilis": 6637,
      "Ġlaaf": 6638,
      "Ġposer": 6639,
      "Ġposent": 6640,
      "ĠposÃ©e": 6641,
      "ĠAmin": 6642,
      "Ġregret": 6643,
      "ĠdÃ©col": 6644,
      "Ġmbiram": 6645,
      "ĠÃ©cole": 6646,
      "acÃ©": 6647,
      "acle": 6648,
      "accepter": 6649,
      "ĠÃ«f": 6650,
      "Ġnoonam": 6651,
      "Ġpalabres": 6652,
      "ĠparlÃ©": 6653,
      "Ġparlent": 6654,
      "Ġparlaient": 6655,
      "Ġdundale": 6656,
      "ĠIdi": 6657,
      "ĠIbos": 6658,
      "ĠIbad": 6659,
      "Ġconnus": 6660,
      "Ġconnue": 6661,
      "ĠconnaÃ®": 6662,
      "Ġaccouch": 6663,
      "Ġpuisque": 6664,
      "insectes": 6665,
      "instigation": 6666,
      "ĠbÃ«ggul": 6667,
      "ĠjÃ³geji": 6668,
      "fiance": 6669,
      "miss": 6670,
      "ĠliggÃ©eye": 6671,
      "ĠliggÃ©eyal": 6672,
      "ĠliggÃ©eyam": 6673,
      "mente": 6674,
      "Ġdiscuss": 6675,
      "Ġconv": 6676,
      "ĠcongÃ©s": 6677,
      "Ġtapis": 6678,
      "Ġfajar": 6679,
      "Ġcompos": 6680,
      "ĠcomplÃ¨": 6681,
      "Ġcomplets": 6682,
      "ĠmÃ©decins": 6683,
      "ĠBamendaak": 6684,
      "uleen": 6685,
      "Ġperte": 6686,
      "ĠperoÅĭ": 6687,
      "Ġperdu": 6688,
      "Ġderam": 6689,
      "Ġtiital": 6690,
      "Ġfanweeri": 6691,
      "Ġjotu": 6692,
      "Ġjotoon": 6693,
      "Ġjotaan": 6694,
      "Ġbarey": 6695,
      "Ã³omam": 6696,
      "Ġchefs": 6697,
      "Ġinsur": 6698,
      "Ġinsens": 6699,
      "Ġinsurg": 6700,
      "Ġinsouci": 6701,
      "Ġndawal": 6702,
      "ĠtraversÃ©": 6703,
      "ĠHogg": 6704,
      "ĠHospital": 6705,
      "ĠcÃ´tiÃ¨re": 6706,
      "Ġpreu": 6707,
      "ĠtÃłnkam": 6708,
      "Ġdaje": 6709,
      "Ġdajul": 6710,
      "Ġdajeel": 6711,
      "Ġdajaloo": 6712,
      "atel": 6713,
      "atement": 6714,
      "oko": 6715,
      "okos": 6716,
      "uwaa": 6717,
      "Ġoncle": 6718,
      "Ġdoul": 6719,
      "Ġdouces": 6720,
      "Ġsoog": 6721,
      "Ġconstr": 6722,
      "Ġconscience": 6723,
      "Ġconstate": 6724,
      "Ġaussit": 6725,
      "Ġteewu": 6726,
      "Ġjoowu": 6727,
      "Ġxoll": 6728,
      "Ġxolu": 6729,
      "Ġxolub": 6730,
      "Ġautrefois": 6731,
      "ĠMbÃ©gte": 6732,
      "ĠNdox": 6733,
      "ĠNdoorteelu": 6734,
      "Ġvoyages": 6735,
      "Ġbienfait": 6736,
      "Ġpremiers": 6737,
      "ktail": 6738,
      "Ġlanati": 6739,
      "Ġlanuy": 6740,
      "ĠlanÃ§ait": 6741,
      "ĠsÃ©jour": 6742,
      "ĠgunÃ³ori": 6743,
      "Ġrecul": 6744,
      "Ġrecouv": 6745,
      "Ġrecouvert": 6746,
      "Ġsavait": 6747,
      "Ġsavate": 6748,
      "fficers": 6749,
      "Ġregardant": 6750,
      "appartement": 6751,
      "appellent": 6752,
      "approche": 6753,
      "espoir": 6754,
      "Ġagents": 6755,
      "Ġagsee": 6756,
      "Ġagric": 6757,
      "Ġagrandis": 6758,
      "ĠbouffÃ©es": 6759,
      "Ġpuud": 6760,
      "Ġterres": 6761,
      "ĠjÃłnqu": 6762,
      "ĠrÃ«b": 6763,
      "ĠrÃ©sist": 6764,
      "ĠrÃ©sultat": 6765,
      "Ġvisible": 6766,
      "ĠLeurs": 6767,
      "ĠLeica": 6768,
      "importe": 6769,
      "impact": 6770,
      "impossib": 6771,
      "igname": 6772,
      "Ġinstru": 6773,
      "Ġinstinc": 6774,
      "ĠcoupÃ©": 6775,
      "ĠcoupÃ©e": 6776,
      "ĠcoupÃ©s": 6777,
      "biis": 6778,
      "bienne": 6779,
      "Ġscalpel": 6780,
      "ĠallÃ©e": 6781,
      "Ġallaient": 6782,
      "Ġallions": 6783,
      "Ġdellus": 6784,
      "ailli": 6785,
      "ailler": 6786,
      "Ġxalaate": 6787,
      "Ġvaches": 6788,
      "Ġvapeur": 6789,
      "Ġsembler": 6790,
      "ĠsemblÃ©": 6791,
      "Ġsemblables": 6792,
      "Ġcolonie": 6793,
      "ĠforÃªts": 6794,
      "ĠbÃłyyeeku": 6795,
      "ĠbÃłyyima": 6796,
      "Ã©paisse": 6797,
      "Ã©rin": 6798,
      "Ã©rience": 6799,
      "Ġniroo": 6800,
      "Ġnirool": 6801,
      "ĠnirÃ³ot": 6802,
      "Ġaurais": 6803,
      "Ġbanaana": 6804,
      "Ġtoucher": 6805,
      "ĠtouchÃ©": 6806,
      "Ġyemul": 6807,
      "Ġfaisant": 6808,
      "Ġfaisions": 6809,
      "isses": 6810,
      "issait": 6811,
      "issement": 6812,
      "itiÃ©": 6813,
      "Ġdugge": 6814,
      "ĠjÃ«lsi": 6815,
      "Åĵu": 6816,
      "ĠdÃ©sord": 6817,
      "Ġnoires": 6818,
      "Ġpij": 6819,
      "Ġpicc": 6820,
      "Ġjaayante": 6821,
      "ĠjoxoÃ±": 6822,
      "ĠÃ±Ãłkke": 6823,
      "Ġverser": 6824,
      "Ġbayaal": 6825,
      "Ġhabitu": 6826,
      "ĠhabillÃ©s": 6827,
      "ĠdÃ©ging": 6828,
      "ĠDaÅĪu": 6829,
      "Ġguddig": 6830,
      "ĠjÃ«male": 6831,
      "Ġimpri": 6832,
      "ĠimprÃ©": 6833,
      "Ġimportance": 6834,
      "Enfin": 6835,
      "Pourquoi": 6836,
      "Ġsauf": 6837,
      "enferme": 6838,
      "Ġweexul": 6839,
      "Ġsecrets": 6840,
      "ĠsecrÃ¨te": 6841,
      "Ġtaxawaay": 6842,
      "ocri": 6843,
      "ocÃ©an": 6844,
      "Ġempl": 6845,
      "Ġempes": 6846,
      "ĠempÃª": 6847,
      "Ġemploy": 6848,
      "Ġemphase": 6849,
      "Ġempoussi": 6850,
      "Ã©der": 6851,
      "Ġcourt": 6852,
      "Ġcourants": 6853,
      "Ġadmir": 6854,
      "Ġadolesc": 6855,
      "Ġtoile": 6856,
      "Ġtoje": 6857,
      "ĠtÃłmbali": 6858,
      "Ġyeey": 6859,
      "Ġfaagaa": 6860,
      "Ġwetam": 6861,
      "ormais": 6862,
      "Ġdirection": 6863,
      "Ġarrivent": 6864,
      "Ġarrivait": 6865,
      "Ġarrivant": 6866,
      "Ġarrivaient": 6867,
      "Ġsouffert": 6868,
      "Ġsoufflet": 6869,
      "Ġsouffrent": 6870,
      "Ġsoufflait": 6871,
      "Ġsouffrance": 6872,
      "Ġchevaux": 6873,
      "Ġvoyageur": 6874,
      "lerie": 6875,
      "ĠÅĭun": 6876,
      "ĠÅĭaaÅĭ": 6877,
      "Ġdana": 6878,
      "ĠdÃ«mm": 6879,
      "ĠdÃ«ddu": 6880,
      "ĠdonnÃ©": 6881,
      "Ġnouvelle": 6882,
      "Ġnouveaux": 6883,
      "Ġcrav": 6884,
      "Ġcrainte": 6885,
      "Ġyewwi": 6886,
      "ĠjÃłngale": 6887,
      "ĠÃłggee": 6888,
      "Ã¨gre": 6889,
      "ĠBuÃ±": 6890,
      "autrefois": 6891,
      "ĠKup": 6892,
      "Ġobst": 6893,
      "Ġsoree": 6894,
      "Ġsorewul": 6895,
      "ĠrÃ©pandue": 6896,
      "ĠrÃ©putation": 6897,
      "Ġtuddoon": 6898,
      "Ġwutale": 6899,
      "Ġwutali": 6900,
      "kanamu": 6901,
      "Ġdinan": 6902,
      "Ġdinay": 6903,
      "Ġdistances": 6904,
      "Ġlaajee": 6905,
      "ĠtournÃ©e": 6906,
      "Ã«su": 6907,
      "Ġventres": 6908,
      "ĠbaÃ±oon": 6909,
      "ĠNgom": 6910,
      "ĠNgelaw": 6911,
      "ĠNgonk": 6912,
      "Ġguddee": 6913,
      "Ġarbre": 6914,
      "parts": 6915,
      "Ġtakku": 6916,
      "Ġtakkarnaa": 6917,
      "Ġtakkandeer": 6918,
      "gisam": 6919,
      "Ġdoyu": 6920,
      "Ġdoyal": 6921,
      "Ġturbul": 6922,
      "ĠtÃłkkusaan": 6923,
      "ootul": 6924,
      "ercÃ©": 6925,
      "Ġjouaient": 6926,
      "Ġleeroon": 6927,
      "Ġxawma": 6928,
      "Ġvraie": 6929,
      "ĠvÃ©cue": 6930,
      "Ġrevenu": 6931,
      "imaginer": 6932,
      "ĠzÃ©b": 6933,
      "Ġcertain": 6934,
      "Ġcertainement": 6935,
      "Ġcampements": 6936,
      "Ġbindoo": 6937,
      "ĠpriÃ¨re": 6938,
      "Ġprickl": 6939,
      "Ġtundi": 6940,
      "Ġtundu": 6941,
      "Ġyitte": 6942,
      "arges": 6943,
      "Ġgarden": 6944,
      "Ġgardait": 6945,
      "ĠgardÃ©e": 6946,
      "Ġkilot": 6947,
      "ĠÃ±aq": 6948,
      "Ġvenaient": 6949,
      "Ġvoisins": 6950,
      "Ġvoisinage": 6951,
      "ĠAboÅĭ": 6952,
      "Ġnews": 6953,
      "ĠManul": 6954,
      "Ġremparts": 6955,
      "ĠdÃ©passÃ©": 6956,
      "ĠdÃ©pays": 6957,
      "ĠÃ©trange": 6958,
      "endues": 6959,
      "Ġdefaraat": 6960,
      "ĠmÃ©dical": 6961,
      "ĠmÃ©dicale": 6962,
      "ĠmÃłggetloo": 6963,
      "cules": 6964,
      "ogie": 6965,
      "Ġeffet": 6966,
      "ĠdÃ©test": 6967,
      "ĠdÃ©termin": 6968,
      "ĠdÃ©truire": 6969,
      "ĠlaissÃ©": 6970,
      "ĠlaissÃ©es": 6971,
      "ĠlÃ©gende": 6972,
      "ĠlÃ©gendes": 6973,
      "Ġmaandu": 6974,
      "Ġnoppalu": 6975,
      "Ġsaisir": 6976,
      "Ġsaisons": 6977,
      "Ġsensation": 6978,
      "Ġaffaires": 6979,
      "Ġattir": 6980,
      "Ġattendre": 6981,
      "Ġbaagante": 6982,
      "Ġbrin": 6983,
      "Ġtabe": 6984,
      "Ġtabure": 6985,
      "Ġtabourets": 6986,
      "ailleurs": 6987,
      "Ġflot": 6988,
      "Ġflamb": 6989,
      "Ġfattu": 6990,
      "Ġfatigu": 6991,
      "Ġfroide": 6992,
      "ĠjÃ«kkÃ«r": 6993,
      "ĠweÅĪ": 6994,
      "Ġxoolee": 6995,
      "Ġvolont": 6996,
      "ionnel": 6997,
      "Ġrefl": 6998,
      "Ġrefaire": 6999,
      "Ġhauteur": 7000,
      "Ġdelloosi": 7001,
      "offrir": 7002,
      "Ġirokos": 7003,
      "ĠmÃ©tal": 7004,
      "ĠmÃ©tall": 7005,
      "Ġsangoo": 7006,
      "Ġsangles": 7007,
      "ĠcrÃ©pus": 7008,
      "Ġactive": 7009,
      "Ġtaliy": 7010,
      "ĠyÃ«kkatiy": 7011,
      "Ġfoufou": 7012,
      "Ġfeesal": 7013,
      "Ġbateaux": 7014,
      "Ġrelations": 7015,
      "Ġhumains": 7016,
      "Ġhumide": 7017,
      "ĠdÃ©fil": 7018,
      "ĠdÃ©form": 7019,
      "ĠdÃ©fense": 7020,
      "Ġsoirs": 7021,
      "ĠJames": 7022,
      "ĠrÃ©gul": 7023,
      "ĠrÃ©gions": 7024,
      "Ġfrappait": 7025,
      "Ġfrappant": 7026,
      "ĠlittÃ©": 7027,
      "Ġmuraille": 7028,
      "Ġmurailles": 7029,
      "ĠnÃ«b": 7030,
      "ĠsÃłnq": 7031,
      "onteel": 7032,
      "Ġaime": 7033,
      "Ġbataille": 7034,
      "Ġperman": 7035,
      "Ġpermangan": 7036,
      "Ġyilifoon": 7037,
      "Ġfiiw": 7038,
      "ĠfÃ©exlu": 7039,
      "Ġkayitam": 7040,
      "Ġquitt": 7041,
      "ĠrÃ¨gne": 7042,
      "ĠrÃ¨gnent": 7043,
      "ĠÃ±eenti": 7044,
      "ĠMarie": 7045,
      "ĠMasul": 7046,
      "ĠMasuma": 7047,
      "Ġrejet": 7048,
      "ĠNataalu": 7049,
      "Ġsukkandikoo": 7050,
      "Ġplateau": 7051,
      "Ġinconnu": 7052,
      "Ġindiens": 7053,
      "ĠinterprÃ¨te": 7054,
      "Ġinterdit": 7055,
      "ĠÃ©change": 7056,
      "ĠarmÃ©": 7057,
      "ĠarmÃ©s": 7058,
      "ĠaccrochÃ©": 7059,
      "Ġaccrochent": 7060,
      "ĠaccrochÃ©es": 7061,
      "Ġyeggee": 7062,
      "ĠkilomÃ¨tre": 7063,
      "aurais": 7064,
      "humour": 7065,
      "humiditÃ©": 7066,
      "pling": 7067,
      "Ġesprits": 7068,
      "Ġsell": 7069,
      "Ġclasse": 7070,
      "Ġclamps": 7071,
      "Ġclimat": 7072,
      "Ġpeggu": 7073,
      "Ġpleine": 7074,
      "Ġthe": 7075,
      "ĠtÃłbbal": 7076,
      "ĠtÃłmme": 7077,
      "ĠtawfÃ©ex": 7078,
      "Ġfitn": 7079,
      "Ġjubb": 7080,
      "Ġjubale": 7081,
      "ĠgÃ«dd": 7082,
      "ĠgÃ«jee": 7083,
      "Ġkawari": 7084,
      "ĠrestÃ©s": 7085,
      "Ġdifficul": 7086,
      "Ġrepris": 7087,
      "ĠKÃ«ru": 7088,
      "ĠKÃ«ram": 7089,
      "Ġsafaan": 7090,
      "Ġsafara": 7091,
      "Ġgiifal": 7092,
      "Ġanciennes": 7093,
      "Ġwutewul": 7094,
      "Ġdevenait": 7095,
      "Ġdevenue": 7096,
      "ĠjÃ«fandi": 7097,
      "Ġrappeler": 7098,
      "ĠassommÃ©": 7099,
      "Ġressemble": 7100,
      "Ġressembler": 7101,
      "Ġpalanteeram": 7102,
      "Ġaccompagne": 7103,
      "Ġdernier": 7104,
      "Ġdaagoo": 7105,
      "Ġdaawul": 7106,
      "Ġlarmes": 7107,
      "Ġnaissent": 7108,
      "Ġsorcel": 7109,
      "Ġsimples": 7110,
      "ĠaimÃ©": 7111,
      "Ġaimait": 7112,
      "Ġboyeti": 7113,
      "Ġpoules": 7114,
      "Ġpoudre": 7115,
      "Ġjiite": 7116,
      "Ġjaxasook": 7117,
      "ĠkÃłttanu": 7118,
      "Ġwoyantu": 7119,
      "ĠdestinÃ©s": 7120,
      "Ġenser": 7121,
      "Ġensuite": 7122,
      "ĠNjoy": 7123,
      "ĠNjort": 7124,
      "ĠSunuy": 7125,
      "Ġsuivant": 7126,
      "Ġsuivait": 7127,
      "ĠhÃ©ro": 7128,
      "ĠhÃ©riss": 7129,
      "Ġmbindaan": 7130,
      "ĠcommenÃ§ait": 7131,
      "Ġinflex": 7132,
      "Ġinfirmiers": 7133,
      "Ġinfranch": 7134,
      "ĠnjÃłmbal": 7135,
      "ĠnjÃłmburam": 7136,
      "ĠlÃłmpi": 7137,
      "ĠlÃłmpu": 7138,
      "Ġexplication": 7139,
      "Ġsampu": 7140,
      "ĠÃ©clairs": 7141,
      "ĠÃ©couter": 7142,
      "Ġconfront": 7143,
      "ĠrÃ«bbi": 7144,
      "ĠrÃ«bbiy": 7145,
      "Ġrencontre": 7146,
      "ĠrencontrÃ©": 7147,
      "Ġdurant": 7148,
      "Ġdangay": 7149,
      "ĠdÃłqee": 7150,
      "ĠmenÃ©": 7151,
      "Ġmenace": 7152,
      "ĠmÃ©ngaleek": 7153,
      "Ġcannes": 7154,
      "Ġcamion": 7155,
      "Ġberk": 7156,
      "Ġberu": 7157,
      "Ġbergers": 7158,
      "Ġpense": 7159,
      "Ġpenku": 7160,
      "Ġpenkub": 7161,
      "ĠpÃ©nc": 7162,
      "ĠtÃłnku": 7163,
      "Ġtableau": 7164,
      "Ġfeyu": 7165,
      "ĠglacÃ©": 7166,
      "incelle": 7167,
      "Ġcirc": 7168,
      "Ġcircul": 7169,
      "Ġcircule": 7170,
      "Ġrespons": 7171,
      "Ġrespect": 7172,
      "ĠMonro": 7173,
      "Ġchangement": 7174,
      "ĠDieu": 7175,
      "ĠDiggante": 7176,
      "ĠKiku": 7177,
      "ĠKipli": 7178,
      "ĠKipling": 7179,
      "ĠFekkoon": 7180,
      "Ġsiiwoon": 7181,
      "ĠÃ©levÃ©s": 7182,
      "Ġdogook": 7183,
      "Ġdevenues": 7184,
      "Ġchapeau": 7185,
      "ĠYoroubas": 7186,
      "Ġcontrainte": 7187,
      "ĠRiis": 7188,
      "ĠcassÃ©": 7189,
      "Ġcassure": 7190,
      "Ġalkaati": 7191,
      "Ġxaritoo": 7192,
      "Ġ1932": 7193,
      "Ġ1938": 7194,
      "Ġ1939": 7195,
      "ĠdÃ©corÃ©e": 7196,
      "ĠdÃ©corÃ©s": 7197,
      "ĠtÃłngaayam": 7198,
      "Ġloppitaan": 7199,
      "Ġgouvernements": 7200,
      "Parfois": 7201,
      "acieux": 7202,
      "ronter": 7203,
      "ĠÃ³tÃ³": 7204,
      "Ġlislaam": 7205,
      "Ġmiroirs": 7206,
      "Ġsource": 7207,
      "Ġsourcils": 7208,
      "Ġcinquante": 7209,
      "Ġcentre": 7210,
      "Ġcentaines": 7211,
      "Ġcabine": 7212,
      "Ġbalaa": 7213,
      "Ġbaaraam": 7214,
      "Ġbaaraamu": 7215,
      "Ġbaaraami": 7216,
      "Ġpattes": 7217,
      "Ġtreize": 7218,
      "Ġtata": 7219,
      "Ġtatay": 7220,
      "Ġtatawu": 7221,
      "Ġtaaxu": 7222,
      "ĠtÃłggat": 7223,
      "ĠtÃłggook": 7224,
      "ĠyÃłkkali": 7225,
      "ĠyÃłkkamtee": 7226,
      "Ġfirnde": 7227,
      "Ġfullaal": 7228,
      "Ã«ddu": 7229,
      "Ġgolfe": 7230,
      "ĠwÃłccee": 7231,
      "ĠÃ±aawtÃ©ef": 7232,
      "ĠxÃ«ccoo": 7233,
      "Ġdigaal": 7234,
      "ĠNguu": 7235,
      "ĠNguur": 7236,
      "Ġchercher": 7237,
      "Ġmbooleem": 7238,
      "Ġcombatt": 7239,
      "Ġtroupes": 7240,
      "Ġtroupeau": 7241,
      "Ġtroupeaux": 7242,
      "existence": 7243,
      "ĠPortale": 7244,
      "ĠmaniÃ¨res": 7245,
      "Ġmanifest": 7246,
      "Ġ1940": 7247,
      "Ġ1960": 7248,
      "Ġtiitaange": 7249,
      "Ġreconnu": 7250,
      "Ġreconnais": 7251,
      "ĠreconnaÃ®tre": 7252,
      "ĠjÃłnqi": 7253,
      "ĠyÃ³bboo": 7254,
      "Ġubbil": 7255,
      "ĠbrÃ»lantes": 7256,
      "ĠcruautÃ©": 7257,
      "Ġreligion": 7258,
      "Ġreligieux": 7259,
      "ĠguerriÃ¨res": 7260,
      "Ġcommencer": 7261,
      "Ġvaguement": 7262,
      "Ġopeeree": 7263,
      "Ġopeerekat": 7264,
      "Christ": 7265,
      "gnÃ©s": 7266,
      "Ġaadawoo": 7267,
      "ĠlÃ©z": 7268,
      "Ġlunk": 7269,
      "Ġlunettes": 7270,
      "Ġlampes": 7271,
      "ĠnoÅĭÅĭ": 7272,
      "Ġnaroon": 7273,
      "Ġnourriture": 7274,
      "Ġsarwi": 7275,
      "ĠsÃłppi": 7276,
      "ĠsÃłnneeku": 7277,
      "Ġcousu": 7278,
      "Ġboq": 7279,
      "ĠboÃ®tes": 7280,
      "ĠbÃłnq": 7281,
      "Ġbleues": 7282,
      "Ġpareille": 7283,
      "Ġpareils": 7284,
      "Ġyaatoo": 7285,
      "Ġyaatal": 7286,
      "Ġfolle": 7287,
      "Ġfolkl": 7288,
      "ĠfermÃ©e": 7289,
      "ĠjÃłnkonteel": 7290,
      "arriver": 7291,
      "Ġgerte": 7292,
      "ĠkÃ³kkali": 7293,
      "ĠkÃ³kkalee": 7294,
      "ĠwÃ©etaay": 7295,
      "infirmiÃ¨re": 7296,
      "interro": 7297,
      "interprÃ¨te": 7298,
      "Ġcivile": 7299,
      "Ġcivilis": 7300,
      "Ġrabi": 7301,
      "ĠrÃłkkaaj": 7302,
      "Ġxiif": 7303,
      "Ġxiibon": 7304,
      "ĠxÃ«rÃ«mkat": 7305,
      "Ġvoil": 7306,
      "ĠvoÃ»te": 7307,
      "Ġvariole": 7308,
      "Ġnijaayam": 7309,
      "Ġennemi": 7310,
      "Ġennemis": 7311,
      "ĠBabungoo": 7312,
      "Ġchantant": 7313,
      "Ġcafko": 7314,
      "ĠcausÃ©": 7315,
      "Ġcauser": 7316,
      "avez": 7317,
      "expri": 7318,
      "Ġwaxtoom": 7319,
      "Ġwaxtaane": 7320,
      "Ġnjortoon": 7321,
      "Ġarrachait": 7322,
      "Ġexcluait": 7323,
      "Ġbroussailles": 7324,
      "Ġpratique": 7325,
      "Ġautochton": 7326,
      "Ġlointaine": 7327,
      "Ġdisparaissait": 7328,
      "Ġterrible": 7329,
      "ĠrÃ©sidence": 7330,
      "ĠrÃ©sidents": 7331,
      "ĠcommunautÃ©": 7332,
      "ĠÃ©trangers": 7333,
      "Ġganesi": 7334,
      "ĠÃ©chappÃ©": 7335,
      "ĠÃ©chapper": 7336,
      "Ġmoustiquaires": 7337,
      "ĠmÃ©ngale": 7338,
      "ĠYoruba": 7339,
      "ĠgÃłncaxu": 7340,
      "Ġbiafraise": 7341,
      "ĠnjÃłqareg": 7342,
      "hygi": 7343,
      "habit": 7344,
      "jekkal": 7345,
      "taÅĪÅĪ": 7346,
      "tÃ³nu": 7347,
      "Ġoutre": 7348,
      "Ġoutils": 7349,
      "ĠeuropÃ©ens": 7350,
      "ĠeuropÃ©enne": 7351,
      "Ġdarab": 7352,
      "Ġdaraak": 7353,
      "ĠdÃłttu": 7354,
      "Ġdressaient": 7355,
      "ĠmystÃ©ri": 7356,
      "Ã©bÃ¨ne": 7357,
      "Ġsommets": 7358,
      "ĠcaractÃ¨re": 7359,
      "Ġcancrel": 7360,
      "Ġaiguille": 7361,
      "Ġpoison": 7362,
      "Ġpapay": 7363,
      "Ġpapillons": 7364,
      "Ġtorches": 7365,
      "Ġyombul": 7366,
      "ernel": 7367,
      "Ġfiltre": 7368,
      "Ġjeeg": 7369,
      "Ġjaawale": 7370,
      "Ġjaaxal": 7371,
      "Ġjaaxle": 7372,
      "ĠjÃłmbat": 7373,
      "ĠgÃ©ants": 7374,
      "Ġgoyav": 7375,
      "Ġgoyave": 7376,
      "Ġwalbati": 7377,
      "Ġquinze": 7378,
      "ĠÃłttan": 7379,
      "ĠÃłttaaya": 7380,
      "ĠmaÃ®tres": 7381,
      "ĠmaÃ®tress": 7382,
      "Ġramener": 7383,
      "Ġrasu": 7384,
      "Ġrompre": 7385,
      "Ġronger": 7386,
      "Ġxultu": 7387,
      "Ġxotti": 7388,
      "Ġxottu": 7389,
      "Ġmusulmans": 7390,
      "Ġdescendre": 7391,
      "ulsion": 7392,
      "ĠdibÃ©er": 7393,
      "ĠBooba": 7394,
      "ĠBaterig": 7395,
      "ĠBaterik": 7396,
      "ĠBawop": 7397,
      "ĠBawob": 7398,
      "ĠBanyo": 7399,
      "ĠBanyook": 7400,
      "Ġnawetu": 7401,
      "Ġparfaitement": 7402,
      "ĠLondar": 7403,
      "ĠLondres": 7404,
      "Ġheureux": 7405,
      "Ġmbembe": 7406,
      "ĠmbembÃ©": 7407,
      "Ġoccidentaux": 7408,
      "igeait": 7409,
      "Ġtradit": 7410,
      "ĠColonie": 7411,
      "ĠFoulanis": 7412,
      "ĠFoumban": 7413,
      "Ġsiboon": 7414,
      "Ġsida": 7415,
      "Ġsidaa": 7416,
      "Ġnaawantu": 7417,
      "Ġanecdote": 7418,
      "Ġrituels": 7419,
      "ĠÅĪÃłkkum": 7420,
      "ĠXaley": 7421,
      "Africain": 7422,
      "ĠimaginÃ©": 7423,
      "Ã©clat": 7424,
      "Ã©couterai": 7425,
      "Ġcontinuent": 7426,
      "Ġpeuples": 7427,
      "Ġ1913": 7428,
      "Ġ1914": 7429,
      "ĠIjama": 7430,
      "Ġcompagnie": 7431,
      "Ġcompagnons": 7432,
      "ĠperÃ§ois": 7433,
      "ĠinspirÃ©": 7434,
      "ĠprÃ©parer": 7435,
      "ĠMbembe": 7436,
      "ĠMbembÃ©": 7437,
      "ĠrecommenÃ§ait": 7438,
      "Ġrecommencer": 7439,
      "Ġterrain": 7440,
      "Ġdangereux": 7441,
      "Ġtourbillon": 7442,
      "Ġtourbillonn": 7443,
      "Ġnaqarlu": 7444,
      "Ġtransform": 7445,
      "Ġflamme": 7446,
      "Ġflammes": 7447,
      "Ġrefusait": 7448,
      "Ġendurci": 7449,
      "Ġendurcis": 7450,
      "ĠmÃłndargay": 7451,
      "ĠDemerara": 7452,
      "ĠDemeraraa": 7453,
      "Ġdomestiques": 7454,
      "ĠtrempÃ©e": 7455,
      "Ġlourdement": 7456,
      "Ġruisseau": 7457,
      "Ġruisseaux": 7458,
      "ĠreprÃ©sentent": 7459,
      "ĠtrapÃ¨ze": 7460,
      "ĠtrapÃ¨zes": 7461,
      "Ġextraordinairement": 7462,
      "Ġprincipes": 7463,
      "Certains": 7464,
      "DÃ©jÃł": 7465,
      "Imitation": 7466,
      "MalgrÃ©": 7467,
      "bouille": 7468,
      "clay": 7469,
      "fantoo": 7470,
      "jaaram": 7471,
      "lacÃ©s": 7472,
      "otiques": 7473,
      "wolu": 7474,
      "ĠopposÃ©e": 7475,
      "Ġdraps": 7476,
      "Ġmandat": 7477,
      "Ġmouvement": 7478,
      "ĠmÃłkkaani": 7479,
      "Ġmessieurs": 7480,
      "Ġsiraas": 7481,
      "Ġsusp": 7482,
      "Ġcaagin": 7483,
      "Ġcoutume": 7484,
      "ĠcoiffÃ©s": 7485,
      "Ġcallweer": 7486,
      "Ġbref": 7487,
      "Ġpelouse": 7488,
      "ĠpÃ³lit": 7489,
      "Ġpaaka": 7490,
      "ĠpÃ¢tes": 7491,
      "Ġtombu": 7492,
      "ĠtÃ«nk": 7493,
      "Ġtotale": 7494,
      "Ġtigi": 7495,
      "ĠtaillÃ©e": 7496,
      "Ġyombut": 7497,
      "ercice": 7498,
      "ĠfÃ©sal": 7499,
      "ĠfigÃ©": 7500,
      "Ġfaatoo": 7501,
      "ĠfaraÅĪse": 7502,
      "Ġjeter": 7503,
      "Ġjaabante": 7504,
      "Ġjullit": 7505,
      "Ġgeestu": 7506,
      "Ġgilets": 7507,
      "ĠgouttiÃ¨re": 7508,
      "Ġgagner": 7509,
      "Ġwisit": 7510,
      "Ġwaaso": 7511,
      "ĠwÃ©eru": 7512,
      "Ġquartier": 7513,
      "Ġlemu": 7514,
      "ĠÃłntuwul": 7515,
      "Ġmauvaise": 7516,
      "ĠrÃłÅĭÅĭati": 7517,
      "Ġromans": 7518,
      "Ġrobes": 7519,
      "Ġxund": 7520,
      "ĠxÃ³ll": 7521,
      "ĠxÃłmbi": 7522,
      "Ġvertic": 7523,
      "ĠvÃªtu": 7524,
      "ĠvallÃ©e": 7525,
      "Ġdessine": 7526,
      "ĠdeseetuÃ±u": 7527,
      "ĠBarclay": 7528,
      "ĠAgwu": 7529,
      "ĠAadamawaa": 7530,
      "ĠMills": 7531,
      "Ġparcours": 7532,
      "Ġparadis": 7533,
      "Ġparcouru": 7534,
      "Ġreetaan": 7535,
      "Ġretirer": 7536,
      "Ġrevient": 7537,
      "ĠNormÃłndi": 7538,
      "Ġchirurgien": 7539,
      "Ġfajukaay": 7540,
      "ĠShell": 7541,
      "ĠSinuwaa": 7542,
      "ĠSaxaraa": 7543,
      "ĠdÃ©molir": 7544,
      "ĠdÃ©vorant": 7545,
      "ĠdÃ©nudÃ©e": 7546,
      "ĠTouareg": 7547,
      "ĠTontu": 7548,
      "ĠTÃłngaay": 7549,
      "Ġmbalit": 7550,
      "ĠKÃ³tÃ³nu": 7551,
      "ĠKaburi": 7552,
      "ĠKÃłttan": 7553,
      "Ġsurvivre": 7554,
      "Ġplongeait": 7555,
      "Ġcompter": 7556,
      "ĠtrÃ´nes": 7557,
      "Ġtraces": 7558,
      "ĠinventÃ©": 7559,
      "ĠÃ©vid": 7560,
      "ĠÃ©loignement": 7561,
      "Ġgratuite": 7562,
      "ĠnjariÃ±": 7563,
      "Ġridicules": 7564,
      "ĠJohn": 7565,
      "Ġtuutee": 7566,
      "ĠlÃłppto": 7567,
      "Ġmariage": 7568,
      "ĠgÃ©nÃ©reux": 7569,
      "Ġabsurde": 7570,
      "Ġcaravane": 7571,
      "Ġcarrossable": 7572,
      "Ġcaricaturale": 7573,
      "opÃ©ration": 7574,
      "Ġportraits": 7575,
      "Ġ1954": 7576,
      "ĠdÃ©clar": 7577,
      "Ġperdue": 7578,
      "Ġnonchalante": 7579,
      "ĠconservÃ©": 7580,
      "Ġreconstruire": 7581,
      "Ġpikiir": 7582,
      "Ġimpeccablement": 7583,
      "enfoncer": 7584,
      "Ġruuj": 7585,
      "ĠVoyage": 7586,
      "Ġadulte": 7587,
      "installaient": 7588,
      "ĠyÃ«guÃ±u": 7589,
      "Ġpoings": 7590,
      "Ġremonter": 7591,
      "Ġeffectivement": 7592,
      "Ġeffrayant": 7593,
      "Ġaffluent": 7594,
      "Ġbrindille": 7595,
      "ĠirÃ³ko": 7596,
      "Ġxiiroon": 7597,
      "Ġchauffeur": 7598,
      "Ġbataaxal": 7599,
      "Ġincapable": 7600,
      "Ġdispensaire": 7601,
      "Ġutilise": 7602,
      "ĠhÃ©ritage": 7603,
      "Ġstatues": 7604,
      "Ġsignifiaient": 7605,
      "Ġpolitique": 7606,
      "Ġpoliciers": 7607,
      "ĠFÃłttewuma": 7608,
      "ĠÃ³fisey": 7609,
      "ĠGarabi": 7610,
      "Ġprofondeur": 7611,
      "Ġadministrateurs": 7612,
      "Ġminuscules": 7613,
      "ĠJurÃ³omi": 7614,
      "ĠjÃłmbure": 7615,
      "Ġallumette": 7616,
      "ĠsÃ»rs": 7617,
      "Ġpessimisme": 7618,
      "Ġpopulation": 7619,
      "Ġfentaakon": 7620,
      "ĠfrÃ©quentaient": 7621,
      "ĠroppÃ«laan": 7622,
      "Ġexcessive": 7623,
      "Bamend": 7624,
      "Longtemps": 7625,
      "dogu": 7626,
      "fitiiru": 7627,
      "hilippus": 7628,
      "ivresse": 7629,
      "jÃłngoro": 7630,
      "occidentale": 7631,
      "pÃ«ti": 7632,
      "yÃ«ngu": 7633,
      "zzam": 7634,
      "Ãītait": 7635,
      "Ġaakimu": 7636,
      "Ġessay": 7637,
      "Ġordres": 7638,
      "ĠÅĵufs": 7639,
      "Ġdortoirs": 7640,
      "Ġlaiton": 7641,
      "Ġlottal": 7642,
      "Ġlaaxira": 7643,
      "ĠlÃ©tharg": 7644,
      "ĠlÃ³oxÃ³or": 7645,
      "Ġmunie": 7646,
      "Ġmigraines": 7647,
      "Ġmorsures": 7648,
      "ĠmoitiÃ©": 7649,
      "Ã©quateur": 7650,
      "ĠsÃ«q": 7651,
      "Ġsiso": 7652,
      "Ġsombres": 7653,
      "Ġsinges": 7654,
      "ĠsÃ«ppu": 7655,
      "Ġcocktail": 7656,
      "ĠbaignÃ©s": 7657,
      "Ġbonnes": 7658,
      "Ġbekkoor": 7659,
      "Ġbaraag": 7660,
      "ĠpÃłpaaya": 7661,
      "Ġpentuur": 7662,
      "Ġporc": 7663,
      "Ġpatients": 7664,
      "Ġpidgin": 7665,
      "Ġpressent": 7666,
      "ĠpÃ©riode": 7667,
      "ĠpÃ©exu": 7668,
      "Ġpacifi": 7669,
      "Ġderetu": 7670,
      "Ġtitre": 7671,
      "Ġtonnerre": 7672,
      "Ġtristesse": 7673,
      "Ġtaraapees": 7674,
      "Ġyendoo": 7675,
      "ĠyÃłllay": 7676,
      "ĠfÃ«lle": 7677,
      "ĠjÃ©yya": 7678,
      "Ġjokkook": 7679,
      "Ġjommal": 7680,
      "Ġgestes": 7681,
      "ĠgangrÃ¨ne": 7682,
      "Ġwallay": 7683,
      "Ġravins": 7684,
      "ĠrangooÃ±": 7685,
      "Ġxamadi": 7686,
      "Ġxullee": 7687,
      "ĠxereÃ±": 7688,
      "Ġvoient": 7689,
      "Ġvautours": 7690,
      "ĠvÃ©gÃ©tation": 7691,
      "Ġvitesse": 7692,
      "Ġdimension": 7693,
      "agrÃ©ment": 7694,
      "Ġuniquement": 7695,
      "ĠBroadcast": 7696,
      "ĠBooyd": 7697,
      "ĠAccra": 7698,
      "Ġteersi": 7699,
      "ĠMÃłkkaanu": 7700,
      "defondi": 7701,
      "Ġparapluies": 7702,
      "Ġparpaing": 7703,
      "Ġrectil": 7704,
      "ĠNowel": 7705,
      "ĠNsungli": 7706,
      "ĠchrÃ©tiens": 7707,
      "ĠLloyd": 7708,
      "Ġlijjanti": 7709,
      "ĠSeneraal": 7710,
      "Ġsuffis": 7711,
      "Ġhoriz": 7712,
      "Ġherbeuses": 7713,
      "ĠdÃ©licatement": 7714,
      "ĠDuwaalaa": 7715,
      "ĠmbÃ«ggeel": 7716,
      "ĠmbaÃ±eel": 7717,
      "ĠKÃłddu": 7718,
      "ĠKilifay": 7719,
      "ĠKwaja": 7720,
      "ĠKishong": 7721,
      "ĠCameroons": 7722,
      "ĠCorporation": 7723,
      "ĠCongo": 7724,
      "ĠFaraÃ±se": 7725,
      "ĠFungom": 7726,
      "ĠFumbaÅĭ": 7727,
      "ĠFÃłttalikuwuma": 7728,
      "Ġinaccessible": 7729,
      "ĠWÃ©etaay": 7730,
      "ĠWapiri": 7731,
      "avancÃ©e": 7732,
      "ĠndÃ©wÃ©nal": 7733,
      "ĠÃ©vÃ©nements": 7734,
      "exemple": 7735,
      "ĠmÃ«nuta": 7736,
      "ĠGuezzam": 7737,
      "ĠGeneral": 7738,
      "ĠGlynn": 7739,
      "Ġnjaaxum": 7740,
      "Ġnjiitlaay": 7741,
      "ĠitinÃ©rant": 7742,
      "ĠJafe": 7743,
      "ĠJÃłngewuma": 7744,
      "Ġvictimes": 7745,
      "Ġwuyuji": 7746,
      "Ġmassacre": 7747,
      "ĠPetroleum": 7748,
      "ĠmarÃ©cages": 7749,
      "Ġmargouillats": 7750,
      "Ġmandibules": 7751,
      "ĠYÃłkkamtiwuÃ±u": 7752,
      "ĠÃĢbbaa": 7753,
      "Ġimmeuble": 7754,
      "ĠTuwaareg": 7755,
      "ĠEnugu": 7756,
      "Ġastemaak": 7757,
      "Ġalaateret": 7758,
      "Ġfruitiers": 7759,
      "Ġdiscussions": 7760,
      "ĠcomplÃ¨tement": 7761,
      "ĠHoggar": 7762,
      "ĠaussitÃ´t": 7763,
      "Ġpuudar": 7764,
      "impossibilitÃ©": 7765,
      "Ġinstructions": 7766,
      "Ã©paisseur": 7767,
      "ĠnirÃ³otuÃ±u": 7768,
      "enfermement": 7769,
      "ĠemployÃ©s": 7770,
      "ĠempoussiÃ©rÃ©s": 7771,
      "Ġadmirable": 7772,
      "Ġfaagaagal": 7773,
      "Ġtakkarnaase": 7774,
      "Ġprickly": 7775,
      "ĠcrÃ©puscule": 7776,
      "Ġclampser": 7777,
      "Ġsorcellerie": 7778,
      "Ġinflexible": 7779,
      "Ġinfranchiss": 7780,
      "ĠKipliÅĭ": 7781,
      "Ġautochtones": 7782,
      "hygiÃ¨ne": 7783,
      "ĠmystÃ©rieux": 7784,
      "Ġcancrelats": 7785,
      "Ġwalbatiku": 7786,
      "ĠmaÃ®tresses": 7787,
      "Ġcocktails": 7788,
      "ĠBroadcasting": 7789,
      "',": 7790,
      "'Â«": 7791,
      ".)": 7792,
      ".âĢĿ": 7793,
      "90": 7794,
      "Ah": 7795,
      "Aim": 7796,
      "Abb": 7797,
      "Aut": 7798,
      "Aba": 7799,
      "Allem": 7800,
      "Ahidjo": 7801,
      "Agade": 7802,
      "Ban": 7803,
      "Bans": 7804,
      "Beau": 7805,
      "Bient": 7806,
      "Bouton": 7807,
      "Ceux": 7808,
      "Du": 7809,
      "DÃ©s": 7810,
      "Douala": 7811,
      "Durant": 7812,
      "Es": 7813,
      "Ele": 7814,
      "Elles": 7815,
      "Ermen": 7816,
      "Fr": 7817,
      "Fin": 7818,
      "Fais": 7819,
      "Face": 7820,
      "Gol": 7821,
      "GÃ³or": 7822,
      "Hommes": 7823,
      "Ill": 7824,
      "Ibos": 7825,
      "Kii": 7826,
      "Leur": 7827,
      "Lors": 7828,
      "Lui": 7829,
      "Maw": 7830,
      "Moin": 7831,
      "MÃªme": 7832,
      "Mah": 7833,
      "Nig": 7834,
      "Oku": 7835,
      "Oju": 7836,
      "Oui": 7837,
      "Obudu": 7838,
      "Obukun": 7839,
      "Pis": 7840,
      "PlutÃ´t": 7841,
      "Philippus": 7842,
      "Ren": 7843,
      "Rou": 7844,
      "Ruus": 7845,
      "Sou": 7846,
      "Sel": 7847,
      "Seu": 7848,
      "Sud": 7849,
      "Sauf": 7850,
      "Tel": 7851,
      "Uru": 7852,
      "Vers": 7853,
      "Vingt": 7854,
      "YÃłll": 7855,
      "aul": 7856,
      "ach": 7857,
      "aÃ§": 7858,
      "acher": 7859,
      "aÃ¯s": 7860,
      "aÃ¯sme": 7861,
      "bre": 7862,
      "bal": 7863,
      "bel": 7864,
      "bir": 7865,
      "bax": 7866,
      "bour": 7867,
      "bÃ©s": 7868,
      "baat": 7869,
      "bub": 7870,
      "book": 7871,
      "biy": 7872,
      "boute": 7873,
      "banu": 7874,
      "belles": 7875,
      "bets": 7876,
      "bÃłcc": 7877,
      "binu": 7878,
      "bites": 7879,
      "blÃ©": 7880,
      "bÃ«t": 7881,
      "burg": 7882,
      "baree": 7883,
      "bÃłjj": 7884,
      "blie": 7885,
      "co": 7886,
      "cy": 7887,
      "cen": 7888,
      "con": 7889,
      "can": 7890,
      "cal": 7891,
      "cÃ©e": 7892,
      "cat": 7893,
      "cro": 7894,
      "cie": 7895,
      "cette": 7896,
      "ctÃ©": 7897,
      "cÃ¨s": 7898,
      "cÃ´": 7899,
      "cune": 7900,
      "cine": 7901,
      "cad": 7902,
      "cop": 7903,
      "core": 7904,
      "cut": 7905,
      "celles": 7906,
      "comme": 7907,
      "cise": 7908,
      "curi": 7909,
      "cteurs": 7910,
      "cade": 7911,
      "clÃ©e": 7912,
      "carades": 7913,
      "citÃ©s": 7914,
      "cuments": 7915,
      "coph": 7916,
      "cosse": 7917,
      "cÃ©der": 7918,
      "daa": 7919,
      "dou": 7920,
      "dis": 7921,
      "dus": 7922,
      "day": 7923,
      "dÃ©s": 7924,
      "dres": 7925,
      "dub": 7926,
      "deek": 7927,
      "drÃ©": 7928,
      "dÃ©es": 7929,
      "dÃ©r": 7930,
      "ditÃ©": 7931,
      "deel": 7932,
      "dÃ©c": 7933,
      "dju": 7934,
      "dits": 7935,
      "dÃłq": 7936,
      "donc": 7937,
      "drait": 7938,
      "dales": 7939,
      "dog": 7940,
      "denc": 7941,
      "doole": 7942,
      "deelu": 7943,
      "drat": 7944,
      "donnÃ©": 7945,
      "dacieux": 7946,
      "dÃ«ddu": 7947,
      "eÃ±": 7948,
      "egg": 7949,
      "eurs": 7950,
      "eku": 7951,
      "evi": 7952,
      "eww": 7953,
      "eddi": 7954,
      "eign": 7955,
      "fÃ©": 7956,
      "fam": 7957,
      "ful": 7958,
      "fem": 7959,
      "feu": 7960,
      "foy": 7961,
      "fara": 7962,
      "fut": 7963,
      "fables": 7964,
      "ftin": 7965,
      "flus": 7966,
      "fect": 7967,
      "forme": 7968,
      "forts": 7969,
      "gh": 7970,
      "gre": 7971,
      "ger": 7972,
      "gar": 7973,
      "gee": 7974,
      "gÃ¨": 7975,
      "gul": 7976,
      "goom": 7977,
      "gos": 7978,
      "gois": 7979,
      "gne": 7980,
      "gob": 7981,
      "ganu": 7982,
      "gnÃ©e": 7983,
      "gide": 7984,
      "guru": 7985,
      "grÃ©s": 7986,
      "ginnaaw": 7987,
      "grat": 7988,
      "guments": 7989,
      "gorge": 7990,
      "gdales": 7991,
      "ha": 7992,
      "hm": 7993,
      "hou": 7994,
      "har": 7995,
      "hil": 7996,
      "hol": 7997,
      "hine": 7998,
      "hist": 7999,
      "hett": 8000,
      "hic": 8001,
      "hass": 8002,
      "harm": 8003,
      "hÃ©re": 8004,
      "hrÃ©b": 8005,
      "hÃ©d": 8006,
      "hier": 8007,
      "hode": 8008,
      "hog": 8009,
      "hera": 8010,
      "herbe": 8011,
      "host": 8012,
      "hots": 8013,
      "hropol": 8014,
      "ik": 8015,
      "ian": 8016,
      "ial": 8017,
      "iam": 8018,
      "iir": 8019,
      "ias": 8020,
      "ime": 8021,
      "iÃ©s": 8022,
      "ich": 8023,
      "ium": 8024,
      "ikat": 8025,
      "ifi": 8026,
      "ibar": 8027,
      "iver": 8028,
      "ienne": 8029,
      "ibo": 8030,
      "ipe": 8031,
      "irer": 8032,
      "iami": 8033,
      "iÃ¨me": 8034,
      "iennent": 8035,
      "jaa": 8036,
      "jou": 8037,
      "jar": 8038,
      "jam": 8039,
      "joon": 8040,
      "jor": 8041,
      "jom": 8042,
      "jest": 8043,
      "jum": 8044,
      "jali": 8045,
      "jook": 8046,
      "jaam": 8047,
      "jii": 8048,
      "joor": 8049,
      "jaas": 8050,
      "junniy": 8051,
      "jonni": 8052,
      "joritaire": 8053,
      "ky": 8054,
      "kan": 8055,
      "kou": 8056,
      "kam": 8057,
      "kur": 8058,
      "koon": 8059,
      "kor": 8060,
      "kit": 8061,
      "kas": 8062,
      "kul": 8063,
      "koom": 8064,
      "kos": 8065,
      "kale": 8066,
      "kers": 8067,
      "kooy": 8068,
      "kiy": 8069,
      "kÃłnk": 8070,
      "kwu": 8071,
      "kid": 8072,
      "kors": 8073,
      "kloo": 8074,
      "key": 8075,
      "karaa": 8076,
      "kteer": 8077,
      "kÃłlla": 8078,
      "kÃłnd": 8079,
      "konte": 8080,
      "karla": 8081,
      "kinois": 8082,
      "ld": 8083,
      "lk": 8084,
      "lun": 8085,
      "lis": 8086,
      "lee": 8087,
      "lat": 8088,
      "las": 8089,
      "lous": 8090,
      "law": 8091,
      "lot": 8092,
      "laient": 8093,
      "lig": 8094,
      "lante": 8095,
      "looy": 8096,
      "lance": 8097,
      "lune": 8098,
      "laaj": 8099,
      "loor": 8100,
      "lande": 8101,
      "lÃ©g": 8102,
      "laf": 8103,
      "lÃ©m": 8104,
      "leem": 8105,
      "lamm": 8106,
      "lablement": 8107,
      "liner": 8108,
      "lasme": 8109,
      "loyer": 8110,
      "ltip": 8111,
      "linÃ©s": 8112,
      "latel": 8113,
      "lailler": 8114,
      "ligeait": 8115,
      "mou": 8116,
      "mor": 8117,
      "mÃ©e": 8118,
      "maan": 8119,
      "mat": 8120,
      "mag": 8121,
      "mÃ©s": 8122,
      "mÃª": 8123,
      "mos": 8124,
      "main": 8125,
      "mment": 8126,
      "mili": 8127,
      "mure": 8128,
      "meel": 8129,
      "meri": 8130,
      "mÃ¨ne": 8131,
      "mbut": 8132,
      "mettait": 8133,
      "matur": 8134,
      "mÃ³oy": 8135,
      "nÃ©": 8136,
      "net": 8137,
      "nee": 8138,
      "nel": 8139,
      "naan": 8140,
      "nant": 8141,
      "nas": 8142,
      "nais": 8143,
      "nous": 8144,
      "nie": 8145,
      "naient": 8146,
      "nelle": 8147,
      "nÃ©eg": 8148,
      "nions": 8149,
      "neux": 8150,
      "nois": 8151,
      "naaw": 8152,
      "nook": 8153,
      "nation": 8154,
      "naax": 8155,
      "nomb": 8156,
      "nitÃ©": 8157,
      "ntr": 8158,
      "naires": 8159,
      "nÃ©egu": 8160,
      "neem": 8161,
      "nards": 8162,
      "njaay": 8163,
      "nangu": 8164,
      "nÃ³ox": 8165,
      "ncer": 8166,
      "nommÃ©": 8167,
      "oqu": 8168,
      "off": 8169,
      "ogal": 8170,
      "ops": 8171,
      "oci": 8172,
      "oÃ®": 8173,
      "odes": 8174,
      "oÃ¯": 8175,
      "ogues": 8176,
      "ogalu": 8177,
      "otique": 8178,
      "oast": 8179,
      "oquaient": 8180,
      "otements": 8181,
      "oddoo": 8182,
      "oada": 8183,
      "oÃ¯sme": 8184,
      "ochers": 8185,
      "pi": 8186,
      "pÃ©": 8187,
      "pre": 8188,
      "pet": 8189,
      "pte": 8190,
      "pat": 8191,
      "pau": 8192,
      "pres": 8193,
      "pie": 8194,
      "pers": 8195,
      "pons": 8196,
      "para": 8197,
      "peau": 8198,
      "pille": 8199,
      "porte": 8200,
      "put": 8201,
      "pÃ¨res": 8202,
      "pac": 8203,
      "poto": 8204,
      "piÃ¨re": 8205,
      "penti": 8206,
      "peut": 8207,
      "pect": 8208,
      "plutÃ´t": 8209,
      "pides": 8210,
      "pocri": 8211,
      "percÃ©": 8212,
      "qal": 8213,
      "qar": 8214,
      "qÃ«t": 8215,
      "qatiy": 8216,
      "raa": 8217,
      "ron": 8218,
      "rai": 8219,
      "rÃ«": 8220,
      "run": 8221,
      "rans": 8222,
      "rag": 8223,
      "rol": 8224,
      "ros": 8225,
      "rand": 8226,
      "rav": 8227,
      "rante": 8228,
      "rÃ¨s": 8229,
      "raire": 8230,
      "ryaa": 8231,
      "rut": 8232,
      "rures": 8233,
      "rendre": 8234,
      "rables": 8235,
      "rales": 8236,
      "rail": 8237,
      "rhum": 8238,
      "renant": 8239,
      "ruments": 8240,
      "rots": 8241,
      "ses": 8242,
      "sam": 8243,
      "sil": 8244,
      "sais": 8245,
      "sÃ«r": 8246,
      "saal": 8247,
      "seek": 8248,
      "saam": 8249,
      "sement": 8250,
      "sÃłmb": 8251,
      "sÃłmm": 8252,
      "sures": 8253,
      "seem": 8254,
      "sectes": 8255,
      "same": 8256,
      "suk": 8257,
      "scuri": 8258,
      "ts": 8259,
      "tou": 8260,
      "tÃ«": 8261,
      "toon": 8262,
      "tÃ¨re": 8263,
      "tion": 8264,
      "taw": 8265,
      "tum": 8266,
      "tro": 8267,
      "tÃ«r": 8268,
      "toy": 8269,
      "tali": 8270,
      "taax": 8271,
      "tÃłnk": 8272,
      "toor": 8273,
      "term": 8274,
      "titude": 8275,
      "tisme": 8276,
      "tances": 8277,
      "tades": 8278,
      "titions": 8279,
      "tÃ©emÃ©eri": 8280,
      "tituer": 8281,
      "uqu": 8282,
      "uÃ©e": 8283,
      "uÅĪ": 8284,
      "uelle": 8285,
      "uris": 8286,
      "uvi": 8287,
      "urit": 8288,
      "uuf": 8289,
      "uaires": 8290,
      "uteek": 8291,
      "uuri": 8292,
      "uvÃ©s": 8293,
      "uÅĪe": 8294,
      "uttes": 8295,
      "uadÃ©": 8296,
      "vy": 8297,
      "vet": 8298,
      "vas": 8299,
      "vÃ¨re": 8300,
      "vais": 8301,
      "vette": 8302,
      "vÃ©es": 8303,
      "vants": 8304,
      "ville": 8305,
      "venir": 8306,
      "venu": 8307,
      "vrait": 8308,
      "vrÃ©s": 8309,
      "vetÃ©": 8310,
      "voyer": 8311,
      "veries": 8312,
      "venue": 8313,
      "villÃ©s": 8314,
      "vieuse": 8315,
      "villÃ©es": 8316,
      "visses": 8317,
      "wer": 8318,
      "wax": 8319,
      "was": 8320,
      "waay": 8321,
      "waak": 8322,
      "wii": 8323,
      "waas": 8324,
      "woÅĭ": 8325,
      "waatu": 8326,
      "wÃ©ri": 8327,
      "wiyaa": 8328,
      "waayu": 8329,
      "waleek": 8330,
      "wÃłllu": 8331,
      "waguma": 8332,
      "xes": 8333,
      "xel": 8334,
      "xum": 8335,
      "xue": 8336,
      "xosi": 8337,
      "ye": 8338,
      "yait": 8339,
      "yaay": 8340,
      "yus": 8341,
      "yaar": 8342,
      "yles": 8343,
      "yeux": 8344,
      "yonn": 8345,
      "yard": 8346,
      "yook": 8347,
      "yaam": 8348,
      "yÃłgg": 8349,
      "yÃłcc": 8350,
      "yaanu": 8351,
      "yph": 8352,
      "yards": 8353,
      "yaram": 8354,
      "yeÅĭ": 8355,
      "yadaa": 8356,
      "ycÃ©e": 8357,
      "ygdales": 8358,
      "ypocri": 8359,
      "yrans": 8360,
      "zin": 8361,
      "zia": 8362,
      "zias": 8363,
      "°,": 8364,
      "Â°,": 8365,
      "Ġ&": 8366,
      "Ġ)": 8367,
      "Ġ,": 8368,
      "Ġ4": 8369,
      "Ġ8": 8370,
      "Ġaa": 8371,
      "Ġer": 8372,
      "Ġem": 8373,
      "Ġos": 8374,
      "Ġort": 8375,
      "Ġeen": 8376,
      "Ġaas": 8377,
      "Ġoto": 8378,
      "Ġorp": 8379,
      "Ġorm": 8380,
      "ĠÃªtes": 8381,
      "Ġect": 8382,
      "Ġombre": 8383,
      "Ġold": 8384,
      "Ġouvertes": 8385,
      "Ġurgence": 8386,
      "Ġ90": 8387,
      "ĠUru": 8388,
      "Ĵbukun": 8389,
      "Ġden": 8390,
      "Ġdil": 8391,
      "Ġdor": 8392,
      "Ġdat": 8393,
      "Ġdol": 8394,
      "Ġdaar": 8395,
      "Ġdot": 8396,
      "Ġdurs": 8397,
      "Ġdens": 8398,
      "ĠdÃ©eg": 8399,
      "Ġdooy": 8400,
      "Ġdard": 8401,
      "ĠdÃ®": 8402,
      "Ġdanger": 8403,
      "ĠdÃ©egu": 8404,
      "Ġdame": 8405,
      "ĠdÃ©edÃ©et": 8406,
      "Ġdouter": 8407,
      "ĠdÃłllu": 8408,
      "Ġdamaa": 8409,
      "ĠdÃłtti": 8410,
      "Ġlen": 8411,
      "Ġlet": 8412,
      "Ġlin": 8413,
      "Ġlor": 8414,
      "Ġlaal": 8415,
      "Ġlali": 8416,
      "Ġlions": 8417,
      "Ġlang": 8418,
      "Ġlune": 8419,
      "ĠlÃłng": 8420,
      "Ġlord": 8421,
      "Ġlaab": 8422,
      "ĠlÃłnk": 8423,
      "Ġlanc": 8424,
      "Ġlett": 8425,
      "Ġlop": 8426,
      "ĠlÃ«m": 8427,
      "ĠlÃ©p": 8428,
      "Ġlame": 8429,
      "Ġlaamu": 8430,
      "Ġlances": 8431,
      "Ġlende": 8432,
      "ĠlÃ¢cher": 8433,
      "Ġlaide": 8434,
      "Ġlarges": 8435,
      "ĠlycÃ©e": 8436,
      "Ġmai": 8437,
      "Ġment": 8438,
      "Ġmee": 8439,
      "Ġmit": 8440,
      "Ġmans": 8441,
      "ĠmÃłn": 8442,
      "Ġmim": 8443,
      "ĠmÃ«r": 8444,
      "Ġmali": 8445,
      "Ġmens": 8446,
      "Ġmante": 8447,
      "Ġmois": 8448,
      "Ġmord": 8449,
      "Ġmeri": 8450,
      "Ġmett": 8451,
      "Ġmokk": 8452,
      "ĠmÃłcc": 8453,
      "Ġmorp": 8454,
      "Ġmoque": 8455,
      "Ġmenti": 8456,
      "Ġmines": 8457,
      "ĠmÃ¨ne": 8458,
      "ĠminÃ©": 8459,
      "Ġmailles": 8460,
      "ĠmÃ³olu": 8461,
      "ĠmÃ¢cher": 8462,
      "Ġmoone": 8463,
      "Ġmobilis": 8464,
      "Ã©a": 8465,
      "Ã©te": 8466,
      "Ã©le": 8467,
      "Ã©gg": 8468,
      "Ã©me": 8469,
      "Ã©ol": 8470,
      "Ã©gal": 8471,
      "Ã©ci": 8472,
      "Ã©par": 8473,
      "Ã©vre": 8474,
      "Ã©vent": 8475,
      "Ã©lanc": 8476,
      "Ã©eem": 8477,
      "Ã©lo": 8478,
      "Ã©vÃ©n": 8479,
      "Ã©qui": 8480,
      "Ã©lÃ©ph": 8481,
      "Ã©roces": 8482,
      "Ã©las": 8483,
      "eser": 8484,
      "esbu": 8485,
      "Ġnn": 8486,
      "ĠnÃ©e": 8487,
      "Ġnas": 8488,
      "Ġnaar": 8489,
      "ĠnÃłkk": 8490,
      "Ġnooy": 8491,
      "Ġnette": 8492,
      "ĠnÃłpp": 8493,
      "Ġnoor": 8494,
      "ĠnÃ©c": 8495,
      "ĠnÃłcc": 8496,
      "Ġnote": 8497,
      "Ġnof": 8498,
      "Ġnasse": 8499,
      "Ġnestu": 8500,
      "ĠnotÃ©": 8501,
      "ĠnÅĵu": 8502,
      "ĠnÃ¨gre": 8503,
      "Ġsan": 8504,
      "Ġsul": 8505,
      "Ġsaay": 8506,
      "Ġsaw": 8507,
      "Ġsale": 8508,
      "Ġsout": 8509,
      "Ġsand": 8510,
      "Ġstre": 8511,
      "Ġstu": 8512,
      "Ġsci": 8513,
      "ĠsÃ³or": 8514,
      "Ġsaak": 8515,
      "Ġsill": 8516,
      "ĠsÃłtt": 8517,
      "Ġsati": 8518,
      "Ġsaab": 8519,
      "Ġsages": 8520,
      "ĠsÃ«gg": 8521,
      "ĠsÃ©r": 8522,
      "Ġsaut": 8523,
      "Ġsitu": 8524,
      "ĠsÃ©g": 8525,
      "Ġsomme": 8526,
      "ĠsÃłq": 8527,
      "Ġsantu": 8528,
      "Ġsaill": 8529,
      "Ġsiti": 8530,
      "Ġsinu": 8531,
      "ĠsÃ©ex": 8532,
      "ĠsÃłnd": 8533,
      "Ġsquel": 8534,
      "Ġsanti": 8535,
      "ĠsÅĵur": 8536,
      "Ġseere": 8537,
      "ĠsÃ³ob": 8538,
      "Ġsalon": 8539,
      "ĠsÃ«f": 8540,
      "Ġstru": 8541,
      "ĠsÃłrt": 8542,
      "Ġsmall": 8543,
      "ĠsÃłqu": 8544,
      "Ġscier": 8545,
      "ĠsÃ³f": 8546,
      "Ġsparti": 8547,
      "enri": 8548,
      "enus": 8549,
      "enais": 8550,
      "enres": 8551,
      "enaient": 8552,
      "enants": 8553,
      "enable": 8554,
      "encre": 8555,
      "engalu": 8556,
      "enades": 8557,
      "enkub": 8558,
      "enrouler": 8559,
      "eneg": 8560,
      "enqam": 8561,
      "endie": 8562,
      "aag": 8563,
      "aame": 8564,
      "aaaw": 8565,
      "aatee": 8566,
      "aafantoo": 8567,
      "ones": 8568,
      "onee": 8569,
      "onak": 8570,
      "onyaa": 8571,
      "onga": 8572,
      "onaale": 8573,
      "onique": 8574,
      "onteek": 8575,
      "onze": 8576,
      "onial": 8577,
      "onron": 8578,
      "onville": 8579,
      "onzin": 8580,
      "Ġcre": 8581,
      "Ġcle": 8582,
      "Ġcale": 8583,
      "Ġcouv": 8584,
      "Ġcub": 8585,
      "Ġcort": 8586,
      "Ġcaax": 8587,
      "Ġcord": 8588,
      "Ġcati": 8589,
      "Ġcoute": 8590,
      "ĠcÃ©y": 8591,
      "ĠcÃ©c": 8592,
      "Ġcokk": 8593,
      "ĠcÃłmm": 8594,
      "Ġcaill": 8595,
      "Ġcoque": 8596,
      "Ġcreux": 8597,
      "Ġcode": 8598,
      "Ġcanni": 8599,
      "Ġcalle": 8600,
      "Ġcog": 8601,
      "Ġclo": 8602,
      "ĠcinÃ©": 8603,
      "Ġcalc": 8604,
      "Ġcaisse": 8605,
      "ĠcÅĵurs": 8606,
      "Ġcogg": 8607,
      "Ġcouvertes": 8608,
      "Ġcoxor": 8609,
      "Ġaj": 8610,
      "Ġait": 8611,
      "Ġagg": 8612,
      "Ġalu": 8613,
      "ĠaÅĪ": 8614,
      "Ġaci": 8615,
      "Ġast": 8616,
      "Ġawu": 8617,
      "Ġaille": 8618,
      "Ġarit": 8619,
      "ĠaÃ®": 8620,
      "ĠaÃ©ri": 8621,
      "Ġaji": 8622,
      "Ġawe": 8623,
      "Ġajoo": 8624,
      "Ġaper": 8625,
      "Ġaxe": 8626,
      "Ġafin": 8627,
      "Ġajag": 8628,
      "ĠaidÃ©e": 8629,
      "Ġbe": 8630,
      "Ġbil": 8631,
      "Ġble": 8632,
      "Ġbul": 8633,
      "ĠbÃ«n": 8634,
      "Ġbos": 8635,
      "Ġbro": 8636,
      "ĠbÃ«r": 8637,
      "Ġband": 8638,
      "Ġbec": 8639,
      "Ġbaal": 8640,
      "Ġbles": 8641,
      "ĠbÃ©n": 8642,
      "ĠbÃłkk": 8643,
      "Ġbaak": 8644,
      "Ġbra": 8645,
      "Ġbaab": 8646,
      "ĠbÃłnk": 8647,
      "Ġbanc": 8648,
      "ĠbÃªt": 8649,
      "Ġboit": 8650,
      "Ġboire": 8651,
      "Ġbains": 8652,
      "Ġbaad": 8653,
      "ĠbÃ³om": 8654,
      "Ġbile": 8655,
      "Ġbiti": 8656,
      "Ġbamb": 8657,
      "Ġbanti": 8658,
      "Ġbasse": 8659,
      "Ġbalc": 8660,
      "ĠbandÃ©": 8661,
      "Ġbouses": 8662,
      "Ġbrac": 8663,
      "ĠbÅĵuf": 8664,
      "Ġbenke": 8665,
      "Ġpan": 8666,
      "Ġpai": 8667,
      "Ġpur": 8668,
      "ĠpÃ¨": 8669,
      "Ġpag": 8670,
      "ĠpÃª": 8671,
      "Ġpot": 8672,
      "ĠpÃ«r": 8673,
      "Ġpoi": 8674,
      "Ġpne": 8675,
      "Ġpaire": 8676,
      "Ġpeer": 8677,
      "Ġpaiss": 8678,
      "ĠpÃłttali": 8679,
      "Ġpaas": 8680,
      "ĠpÃ©ey": 8681,
      "Ġpains": 8682,
      "Ġpoto": 8683,
      "Ġpuur": 8684,
      "Ġpente": 8685,
      "Ġpures": 8686,
      "Ġpatt": 8687,
      "ĠpÃ»t": 8688,
      "Ġpeste": 8689,
      "Ġpagne": 8690,
      "Ġpiment": 8691,
      "ĠpÃ¢te": 8692,
      "Ġpaxam": 8693,
      "Ġpaumes": 8694,
      "Ġpuls": 8695,
      "ĠpandÃ©": 8696,
      "ĠpÃłttaliku": 8697,
      "ĠpitiÃ©": 8698,
      "Ġpeser": 8699,
      "anama": 8700,
      "anie": 8701,
      "anci": 8702,
      "anaam": 8703,
      "annes": 8704,
      "annÃ©es": 8705,
      "ancher": 8706,
      "aniers": 8707,
      "anite": 8708,
      "anaane": 8709,
      "anya": 8710,
      "anchent": 8711,
      "ancien": 8712,
      "anjal": 8713,
      "ankaa": 8714,
      "Ġdekki": 8715,
      "rey": 8716,
      "reÃ±": 8717,
      "reem": 8718,
      "reÅĭ": 8719,
      "reff": 8720,
      "rection": 8721,
      "remiÃ¨re": 8722,
      "reetown": 8723,
      "retter": 8724,
      "reeku": 8725,
      "reuvÃ©s": 8726,
      "revisses": 8727,
      "Ġtin": 8728,
      "Ġtil": 8729,
      "Ġtch": 8730,
      "Ġtend": 8731,
      "Ġtens": 8732,
      "Ġtaaw": 8733,
      "Ġtaire": 8734,
      "Ġtaam": 8735,
      "ĠtÃ«g": 8736,
      "Ġtii": 8737,
      "Ġtors": 8738,
      "Ġtenir": 8739,
      "Ġtenu": 8740,
      "Ġtass": 8741,
      "Ġtane": 8742,
      "Ġtress": 8743,
      "Ġtendre": 8744,
      "Ġtorp": 8745,
      "Ġtendant": 8746,
      "Ġtrict": 8747,
      "ĠtÃłnd": 8748,
      "Ġtables": 8749,
      "Ġtantes": 8750,
      "Ġtaaral": 8751,
      "Ġtendue": 8752,
      "Ġtalc": 8753,
      "Ġtenant": 8754,
      "Ġtendait": 8755,
      "Ġtaali": 8756,
      "Ġtooke": 8757,
      "ĠtÃ©w": 8758,
      "Ġtettee": 8759,
      "Ġtaasu": 8760,
      "Ġtenait": 8761,
      "Ġtumul": 8762,
      "ĠtÃ©emÃ©eri": 8763,
      "Ġtyrans": 8764,
      "Ġtenqam": 8765,
      "Ġtaafantoo": 8766,
      "ouc": 8767,
      "ouis": 8768,
      "oulu": 8769,
      "ouette": 8770,
      "oucher": 8771,
      "ouba": 8772,
      "oudre": 8773,
      "ouler": 8774,
      "oulÃ©": 8775,
      "ourir": 8776,
      "ouÃ¯": 8777,
      "oubli": 8778,
      "oulous": 8779,
      "aime": 8780,
      "aigu": 8781,
      "aible": 8782,
      "aides": 8783,
      "airÃ©es": 8784,
      "aider": 8785,
      "aitements": 8786,
      "Ġyal": 8787,
      "Ġyel": 8788,
      "ĠyÃ«r": 8789,
      "ĠyÃłtt": 8790,
      "Ġyees": 8791,
      "Ġyore": 8792,
      "Ġyey": 8793,
      "ĠyÃ©ex": 8794,
      "ĠyÃłnd": 8795,
      "Ġyendu": 8796,
      "Ġyell": 8797,
      "ĠyÃ©esu": 8798,
      "ĠyÃ©wÃ©n": 8799,
      "Ġyeeru": 8800,
      "oore": 8801,
      "oote": 8802,
      "ooti": 8803,
      "oowul": 8804,
      "erle": 8805,
      "eront": 8806,
      "erge": 8807,
      "erment": 8808,
      "erara": 8809,
      "erne": 8810,
      "erine": 8811,
      "eryaa": 8812,
      "erbi": 8813,
      "eroog": 8814,
      "ereng": 8815,
      "ergie": 8816,
      "erÃ§aient": 8817,
      "eresses": 8818,
      "Ġfal": 8819,
      "Ġfant": 8820,
      "ĠfÃ©t": 8821,
      "ĠfÃłn": 8822,
      "Ġfont": 8823,
      "Ġfab": 8824,
      "Ġfale": 8825,
      "Ġfoi": 8826,
      "Ġfeek": 8827,
      "Ġfex": 8828,
      "Ġfiy": 8829,
      "Ġfris": 8830,
      "Ġfille": 8831,
      "ĠfÃ¢": 8832,
      "Ġfaari": 8833,
      "Ġfett": 8834,
      "Ġfils": 8835,
      "ĠfÃ®": 8836,
      "Ġfitu": 8837,
      "ĠfÃłnn": 8838,
      "Ġfoto": 8839,
      "ĠfÃ³ot": 8840,
      "Ġflan": 8841,
      "Ġfaale": 8842,
      "Ġfuss": 8843,
      "Ġfatt": 8844,
      "Ġflanc": 8845,
      "Ġfomm": 8846,
      "Ġfigu": 8847,
      "Ġfonk": 8848,
      "Ġfuru": 8849,
      "Ġfell": 8850,
      "Ġfument": 8851,
      "Ġfotoom": 8852,
      "ĠfÃ«ri": 8853,
      "Ġfriture": 8854,
      "Ġflancs": 8855,
      "Ġfaayd": 8856,
      "Ġfailli": 8857,
      "Ġfeign": 8858,
      "ĠfÃ©roces": 8859,
      "Ġfaible": 8860,
      "Ġjaan": 8861,
      "Ġjab": 8862,
      "ĠjÃ©pp": 8863,
      "Ġjoy": 8864,
      "Ġjeek": 8865,
      "Ġjonn": 8866,
      "Ġjad": 8867,
      "ĠjÃłdd": 8868,
      "ĠjÃłq": 8869,
      "Ġjantu": 8870,
      "Ġjigu": 8871,
      "Ġjaloo": 8872,
      "Ġjaamu": 8873,
      "Ġjaare": 8874,
      "ĠjetÃ©": 8875,
      "ĠjÃ©eme": 8876,
      "Ġjonni": 8877,
      "Ġjaasi": 8878,
      "quin": 8879,
      "quÃ©e": 8880,
      "quant": 8881,
      "quette": 8882,
      "quÃ©es": 8883,
      "quants": 8884,
      "quence": 8885,
      "quets": 8886,
      "quiers": 8887,
      "quiner": 8888,
      "quetÃ©s": 8889,
      "aler": 8890,
      "alait": 8891,
      "alaat": 8892,
      "alook": 8893,
      "alors": 8894,
      "alung": 8895,
      "alogue": 8896,
      "alade": 8897,
      "alete": 8898,
      "alheureux": 8899,
      "altation": 8900,
      "alistes": 8901,
      "aladÃ©": 8902,
      "alatel": 8903,
      "altitude": 8904,
      "alankaa": 8905,
      "arc": 8906,
      "ary": 8907,
      "aris": 8908,
      "aroon": 8909,
      "araan": 8910,
      "aray": 8911,
      "arch": 8912,
      "ardi": 8913,
      "arale": 8914,
      "arante": 8915,
      "arook": 8916,
      "arants": 8917,
      "arra": 8918,
      "armes": 8919,
      "araiss": 8920,
      "arass": 8921,
      "archÃ©": 8922,
      "artÃ©s": 8923,
      "arnement": 8924,
      "arriÃ¨re": 8925,
      "arinÃ©": 8926,
      "araayu": 8927,
      "arquÃ©": 8928,
      "arrÃª": 8929,
      "arquer": 8930,
      "arlook": 8931,
      "arbres": 8932,
      "arlaa": 8933,
      "arrage": 8934,
      "Ã«er": 8935,
      "Ã«ro": 8936,
      "Ã«tt": 8937,
      "Ã«li": 8938,
      "Ã«ter": 8939,
      "Ã«xi": 8940,
      "Ã«fin": 8941,
      "Ã«tuÃ±u": 8942,
      "Ã«tÃ©en": 8943,
      "Ã«biy": 8944,
      "amoo": 8945,
      "ament": 8946,
      "amis": 8947,
      "amee": 8948,
      "amus": 8949,
      "amaak": 8950,
      "amne": 8951,
      "amelles": 8952,
      "amaanu": 8953,
      "ameaux": 8954,
      "amatique": 8955,
      "amitiÃ©": 8956,
      "amarrage": 8957,
      "Ġgin": 8958,
      "Ġgee": 8959,
      "ĠgÃ©e": 8960,
      "ĠgÃª": 8961,
      "Ġgaar": 8962,
      "Ġgale": 8963,
      "Ġgro": 8964,
      "Ġgain": 8965,
      "Ġgig": 8966,
      "Ġgend": 8967,
      "ĠgÃ©pp": 8968,
      "ĠgÃłkk": 8969,
      "ĠgÃ©ew": 8970,
      "ĠgÃłpp": 8971,
      "Ġgond": 8972,
      "Ġgerm": 8973,
      "Ġgeet": 8974,
      "Ġgane": 8975,
      "Ġgamb": 8976,
      "Ġgaana": 8977,
      "ĠgÃłÃ±Ã±": 8978,
      "Ġgoss": 8979,
      "Ġgaines": 8980,
      "Ġgedd": 8981,
      "ĠgÃ¢te": 8982,
      "ĠgaÃ±Ã±": 8983,
      "Ġgonf": 8984,
      "ĠgÃ³ori": 8985,
      "Ġgumba": 8986,
      "ĠgÃ¢teaux": 8987,
      "ĠgoÃ»": 8988,
      "Ġgoneem": 8989,
      "Ġgome": 8990,
      "Ġgosse": 8991,
      "ĠgÃ³omam": 8992,
      "Ġghett": 8993,
      "Ġgenres": 8994,
      "Ġgreff": 8995,
      "Ġgamelles": 8996,
      "Ġlate": 8997,
      "Ġlave": 8998,
      "Ġlattes": 8999,
      "eter": 9000,
      "ettÃ©": 9001,
      "Ã±o": 9002,
      "Ã±oo": 9003,
      "Ã±et": 9004,
      "Ã±ent": 9005,
      "Ã±oom": 9006,
      "Ã±aar": 9007,
      "Ã±ooy": 9008,
      "Ã±ook": 9009,
      "Ã±eer": 9010,
      "Ã±eenti": 9011,
      "Ã±Ã«x": 9012,
      "Ã±enke": 9013,
      "Ã±Ã«xi": 9014,
      "Ġkor": 9015,
      "ĠkÃ«n": 9016,
      "Ġkem": 9017,
      "Ġkim": 9018,
      "Ġkort": 9019,
      "Ġkeek": 9020,
      "Ġkare": 9021,
      "Ġkekk": 9022,
      "Ġkaab": 9023,
      "Ġkomb": 9024,
      "ĠkÃłnk": 9025,
      "Ġkees": 9026,
      "Ġkaas": 9027,
      "ĠkaÃ±": 9028,
      "Ġkamp": 9029,
      "ĠkÃłcc": 9030,
      "Ġkap": 9031,
      "Ġkeem": 9032,
      "Ġkomm": 9033,
      "ĠkÃ«cc": 9034,
      "ĠkÃ«dd": 9035,
      "ĠkaÃ±seer": 9036,
      "ĠkÃ«f": 9037,
      "Ġkaani": 9038,
      "Ġkaasi": 9039,
      "ĠkÃ«fee": 9040,
      "Ġkeww": 9041,
      "Ġkwas": 9042,
      "Ġwur": 9043,
      "Ġwit": 9044,
      "Ġwel": 9045,
      "Ġwat": 9046,
      "Ġwag": 9047,
      "Ġwest": 9048,
      "Ġwot": 9049,
      "Ġweek": 9050,
      "ĠwÃ©n": 9051,
      "Ġware": 9052,
      "Ġwekk": 9053,
      "ĠwÃłll": 9054,
      "ĠwÃ«l": 9055,
      "ĠwÃ³ol": 9056,
      "ĠwÃ«s": 9057,
      "Ġwew": 9058,
      "ĠwÃłÃ±Ã±": 9059,
      "Ġwiya": 9060,
      "Ġwacc": 9061,
      "ĠwaÃ±Ã±": 9062,
      "Ġwulli": 9063,
      "ĠwÃ«re": 9064,
      "ĠwÃ³omam": 9065,
      "Ġwoddoo": 9066,
      "ĠwÃ«tÃ©en": 9067,
      "unis": 9068,
      "unub": 9069,
      "unitÃ©": 9070,
      "unique": 9071,
      "uneem": 9072,
      "rie": 9073,
      "ril": 9074,
      "riy": 9075,
      "ries": 9076,
      "rien": 9077,
      "rient": 9078,
      "rile": 9079,
      "ripp": 9080,
      "riir": 9081,
      "ribu": 9082,
      "riku": 9083,
      "rive": 9084,
      "riÃ¨res": 9085,
      "rines": 9086,
      "riÃ©tÃ©": 9087,
      "rigin": 9088,
      "riades": 9089,
      "ricien": 9090,
      "ricieux": 9091,
      "rident": 9092,
      "riotes": 9093,
      "tein": 9094,
      "temp": 9095,
      "tection": 9096,
      "inte": 9097,
      "inaan": 9098,
      "inant": 9099,
      "inais": 9100,
      "inale": 9101,
      "inie": 9102,
      "ingu": 9103,
      "ineux": 9104,
      "intÃ©": 9105,
      "ination": 9106,
      "inaam": 9107,
      "inement": 9108,
      "inct": 9109,
      "inue": 9110,
      "initi": 9111,
      "inier": 9112,
      "inique": 9113,
      "ineem": 9114,
      "inigu": 9115,
      "invit": 9116,
      "inqui": 9117,
      "invente": 9118,
      "intim": 9119,
      "indefondi": 9120,
      "invas": 9121,
      "entÃ©": 9122,
      "ention": 9123,
      "entation": 9124,
      "entÃ´t": 9125,
      "enturi": 9126,
      "entrices": 9127,
      "entailler": 9128,
      "Ġcire": 9129,
      "Ġcime": 9130,
      "Ġcimet": 9131,
      "Ġcicat": 9132,
      "Ġquai": 9133,
      "Ġquant": 9134,
      "Ġquelle": 9135,
      "ĠqualitÃ©": 9136,
      "Ġquoti": 9137,
      "urent": 9138,
      "urÃ¨": 9139,
      "urait": 9140,
      "urÃ©e": 9141,
      "urtre": 9142,
      "urante": 9143,
      "uration": 9144,
      "urga": 9145,
      "urÃ©m": 9146,
      "urrent": 9147,
      "urung": 9148,
      "uruni": 9149,
      "isu": 9150,
      "isÃ©": 9151,
      "isÃ©e": 9152,
      "isons": 9153,
      "istÃ©": 9154,
      "isone": 9155,
      "isode": 9156,
      "isole": 9157,
      "iseaux": 9158,
      "ismond": 9159,
      "iscut": 9160,
      "iskit": 9161,
      "ilin": 9162,
      "ilait": 9163,
      "ilaak": 9164,
      "ilement": 9165,
      "ilop": 9166,
      "ilyaam": 9167,
      "oonjaay": 9168,
      "ores": 9169,
      "oral": 9170,
      "orat": 9171,
      "orais": 9172,
      "orain": 9173,
      "oraal": 9174,
      "oroy": 9175,
      "orment": 9176,
      "orable": 9177,
      "ortive": 9178,
      "oramas": 9179,
      "orkor": 9180,
      "Ġlees": 9181,
      "Ġleek": 9182,
      "Ġleew": 9183,
      "ĠleÃ§ons": 9184,
      "Ġleere": 9185,
      "ĠlevÃ©": 9186,
      "ĠlevÃ©s": 9187,
      "Ġlecteurs": 9188,
      "ĠlevÃ©es": 9189,
      "kke": 9190,
      "kkoo": 9191,
      "kkat": 9192,
      "kkiy": 9193,
      "kkuus": 9194,
      "eed": 9195,
      "eele": 9196,
      "eewu": 9197,
      "eefi": 9198,
      "eeji": 9199,
      "eewii": 9200,
      "itim": 9201,
      "itaient": 9202,
      "itaire": 9203,
      "itose": 9204,
      "itinÃ©r": 9205,
      "iturne": 9206,
      "ĠÃłngal": 9207,
      "ĠÃłllu": 9208,
      "Ġmati": 9209,
      "Ġmacc": 9210,
      "Ġmatu": 9211,
      "Ġmaux": 9212,
      "Ġmatr": 9213,
      "ĠmatÃ©ri": 9214,
      "ĠmaÃ®tre": 9215,
      "Ġmaud": 9216,
      "Ġmachettes": 9217,
      "Ġmachette": 9218,
      "Ġmajoritaire": 9219,
      "ĠmareÃ±": 9220,
      "Ġrax": 9221,
      "ĠrÃ³": 9222,
      "Ġros": 9223,
      "Ġrot": 9224,
      "Ġrand": 9225,
      "Ġrang": 9226,
      "ĠrÃ´": 9227,
      "Ġruy": 9228,
      "Ġranc": 9229,
      "Ġruse": 9230,
      "Ġruss": 9231,
      "Ġrendant": 9232,
      "Ġrations": 9233,
      "Ġrends": 9234,
      "Ġrendue": 9235,
      "Ġramm": 9236,
      "Ġrose": 9237,
      "ĠroÃ±": 9238,
      "Ġraide": 9239,
      "Ġroches": 9240,
      "Ġrochers": 9241,
      "Ġraame": 9242,
      "Ġronron": 9243,
      "Ġraides": 9244,
      "Ġroote": 9245,
      "lez": 9246,
      "lekk": 9247,
      "leut": 9248,
      "lever": 9249,
      "leuses": 9250,
      "lexe": 9251,
      "lelaw": 9252,
      "Ã¨ces": 9253,
      "Ã¨ches": 9254,
      "Ã¨des": 9255,
      "Ã¨rent": 9256,
      "Ã¨nement": 9257,
      "Ã¨vement": 9258,
      "Ã¨bres": 9259,
      "ellu": 9260,
      "elopp": 9261,
      "elets": 9262,
      "eliÃ¨re": 9263,
      "ellÃ©": 9264,
      "ĠÃ±aa": 9265,
      "ĠÃ±ee": 9266,
      "ĠÃ±enn": 9267,
      "ĠÃ±ook": 9268,
      "ĠÃ±ore": 9269,
      "ĠÃ±aÃ±": 9270,
      "ĠÃ±Ãłdd": 9271,
      "ĠÃ±amb": 9272,
      "ĠÃ±oyy": 9273,
      "ĠÃ±oonu": 9274,
      "ĠÃ±oÃ±": 9275,
      "ĠÃ±Ãłnge": 9276,
      "ĠÃ±ulu": 9277,
      "ĠÃ±oxor": 9278,
      "aits": 9279,
      "aitait": 9280,
      "Ġxer": 9281,
      "Ġxet": 9282,
      "Ġxom": 9283,
      "Ġxay": 9284,
      "Ġxoom": 9285,
      "ĠxÃ«r": 9286,
      "Ġxaat": 9287,
      "ĠxÃ©n": 9288,
      "Ġxara": 9289,
      "ĠxÃłtt": 9290,
      "Ġxad": 9291,
      "ĠxaÃ±": 9292,
      "ĠxÃ«m": 9293,
      "Ġxoroom": 9294,
      "Ġxuur": 9295,
      "Ġxoolu": 9296,
      "Ġxepp": 9297,
      "Ġxaju": 9298,
      "ĠxÃ«cce": 9299,
      "Ġxuuf": 9300,
[...]
