{
  "version": "1.0",
  "truncation": null,
  "padding": null,
  "added_tokens": [
    {
      "id": 0,
      "content": "<cls>",
      "single_word": false,
      "lstrip": false,
      "rstrip": false,
      "normalized": false,
      "special": true
    },
    {
      "id": 1,
      "content": "<sep>",
      "single_word": false,
      "lstrip": false,
      "rstrip": false,
      "normalized": false,
      "special": true
    },
    {
      "id": 2,
      "content": "<unk>",
      "single_word": false,
      "lstrip": false,
      "rstrip": false,
      "normalized": false,
      "special": true
    },
    {
      "id": 3,
      "content": "<pad>",
      "single_word": false,
      "lstrip": false,
      "rstrip": false,
      "normalized": false,
      "special": true
    },
    {
      "id": 4,
      "content": "<mask>",
      "single_word": false,
      "lstrip": false,
      "rstrip": false,
      "normalized": false,
      "special": true
    },
    {
      "id": 5,
      "content": "<s>",
      "single_word": false,
      "lstrip": false,
      "rstrip": false,
      "normalized": false,
      "special": true
    },
    {
      "id": 6,
      "content": "</s>",
      "single_word": false,
      "lstrip": false,
      "rstrip": false,
      "normalized": false,
      "special": true
    }
  ],
  "normalizer": {
    "type": "Replace",
    "pattern": {
      "String": " {2,}"
    },
    "content": " "
  },
  "pre_tokenizer": {
    "type": "Metaspace",
    "replacement": "▁",
    "add_prefix_space": true
  },
  "post_processor": null,
  "decoder": {
    "type": "Metaspace",
    "replacement": "▁",
    "add_prefix_space": true
  },
  "model": {
    "type": "Unigram",
    "unk_id": 2,
    "vocab": [
      [
        "<cls>",
        0.0
      ],
      [
        "<sep>",
        0.0
      ],
      [
        "<unk>",
        0.0
      ],
      [
        "<pad>",
        0.0
      ],
      [
        "<mask>",
        0.0
      ],
      [
        "<s>",
        0.0
      ],
      [
        "</s>",
        0.0
      ],
      [
        "▁",
        -2.6158921572459963
      ],
      [
        ".",
        -3.121644822381783
      ],
      [
        ",",
        -3.772844424907225
      ],
      [
        "?",
        -4.1416175369120936
      ],
      [
        "s",
        -4.224249043786409
      ],
      [
        "!",
        -4.2628523927494815
      ],
      [
        "▁la",
        -4.416614168697627
      ],
      [
        "▁de",
        -4.542519787855057
      ],
      [
        "e",
        -4.659990982069788
      ],
      [
        "a",
        -4.717488496833624
      ],
      [
        "▁ci",
        -4.776197819017194
      ],
      [
        "▁qui",
        -4.978412487720299
      ],
      [
        "u",
        -4.993283257780011
      ],
      [
        "y",
        -5.008550550720823
      ],
      [
        "i",
        -5.024927451014703
      ],
      [
        "▁na",
        -5.041545773396107
      ],
      [
        "n",
        -5.066148060291847
      ],
      [
        "▁est",
        -5.118211077132709
      ],
      [
        "▁!",
        -5.128946620165766
      ],
      [
        "▁dem",
        -5.192464722443084
      ],
      [
        "▁que",
        -5.219473504951214
      ],
      [
        "▁ne",
        -5.222567455365451
      ],
      [
        "▁pas",
        -5.256524942027193
      ],
      [
        "▁un",
        -5.280051343713702
      ],
      [
        "t",
        -5.282246171718803
      ],
      [
        "▁Il",
        -5.291794573050337
      ],
      [
        "▁a",
        -5.303197837753345
      ],
      [
        "▁C'est",
        -5.319601210628649
      ],
      [
        "▁gi",
        -5.33482888495657
      ],
      [
        "▁des",
        -5.385050280601334
      ],
      [
        "et",
        -5.408900252618869
      ],
      [
        "▁bi",
        -5.458785426304527
      ],
      [
        "▁naa",
        -5.475802381926307
      ],
      [
        "▁vu",
        -5.524241734436814
      ],
      [
        "▁ay",
        -5.541709499202411
      ],
      [
        "▁ŋga",
        -5.613549210503318
      ],
      [
        "une",
        -5.6289988153909665
      ],
      [
        "▁G",
        -5.635059620436093
      ],
      [
        "óor",
        -5.697599466686157
      ],
      [
        "▁le",
        -5.7201398432797435
      ],
      [
        "▁am",
        -5.724434943536107
      ],
      [
        "▁y",
        -5.728186524421621
      ],
      [
        "▁ce",
        -5.768704419051058
      ],
      [
        "r",
        -5.806598177383952
      ],
      [
        "▁à",
        -5.806760555627735
      ],
      [
        "▁mu",
        -5.816863374978021
      ],
      [
        "▁Je",
        -5.821073260407821
      ],
      [
        "▁tu",
        -5.825253724840939
      ],
      [
        "▁Gis",
        -5.834731480779839
      ],
      [
        "l",
        -5.849603695295584
      ],
      [
        "▁bu",
        -5.851816843097282
      ],
      [
        "▁di",
        -5.877068106030095
      ],
      [
        "▁les",
        -5.9003820971941385
      ],
      [
        "▁gis",
        -5.913235035968119
      ],
      [
        "▁sont",
        -5.926192050342415
      ],
      [
        "▁ñu",
        -5.927625217910935
      ],
      [
        "▁Tu",
        -5.951002939602303
      ],
      [
        "▁homme",
        -5.9661082760616955
      ],
      [
        "▁été",
        -5.987258891472182
      ],
      [
        "▁nag",
        -5.991494294357785
      ],
      [
        "▁du",
        -6.008310164708116
      ],
      [
        "on",
        -6.029534575246132
      ],
      [
        "▁L'homme",
        -6.037342584895497
      ],
      [
        "▁yu",
        -6.041154108193361
      ],
      [
        "▁ngi",
        -6.058371155607912
      ],
      [
        "▁yi",
        -6.088834424043256
      ],
      [
        "▁ak",
        -6.096116101062679
      ],
      [
        "▁ko",
        -6.101330696915927
      ],
      [
        "▁J'ai",
        -6.103089388905852
      ],
      [
        "▁c",
        -6.111015870357436
      ],
      [
        "▁xam",
        -6.1110208796671905
      ],
      [
        "▁ni",
        -6.113518246429175
      ],
      [
        "▁wax",
        -6.130774305185947
      ],
      [
        "▁ba",
        -6.166921220540459
      ],
      [
        "▁ma",
        -6.17052166548282
      ],
      [
        "▁ñëw",
        -6.203117668811876
      ],
      [
        "▁nit",
        -6.208800568196814
      ],
      [
        "le",
        -6.21896660028841
      ],
      [
        "▁en",
        -6.221897468676461
      ],
      [
        "à",
        -6.255550878225804
      ],
      [
        "▁il",
        -6.2566306841236035
      ],
      [
        "▁nekk",
        -6.275191414500458
      ],
      [
        "▁l'homme",
        -6.282092797139114
      ],
      [
        "▁bii",
        -6.291955342290902
      ],
      [
        "▁lu",
        -6.30856011232956
      ],
      [
        "▁qu'il",
        -6.312144186555434
      ],
      [
        "▁avec",
        -6.332108643232058
      ],
      [
        "il",
        -6.349717000935532
      ],
      [
        "▁photo",
        -6.359371635776592
      ],
      [
        "▁pour",
        -6.365905915085582
      ],
      [
        "▁góor",
        -6.389001687930735
      ],
      [
        "▁c'est",
        -6.393333633215965
      ],
      [
        "m",
        -6.400718279661617
      ],
      [
        "▁benn",
        -6.418210070242072
      ],
      [
        "▁Nit",
        -6.430899593154704
      ],
      [
        "▁parti",
        -6.431264749028356
      ],
      [
        "é",
        -6.434665198109548
      ],
      [
        "nt",
        -6.47604416870188
      ],
      [
        "▁te",
        -6.5026331128128785
      ],
      [
        "▁sur",
        -6.512041934261672
      ],
      [
        "▁biir",
        -6.513581908439127
      ],
      [
        "▁Sur",
        -6.518512554978551
      ],
      [
        "▁ab",
        -6.522179972484902
      ],
      [
        "▁dans",
        -6.538889647463416
      ],
      [
        "▁la.",
        -6.549722416575513
      ],
      [
        "▁autre",
        -6.553270565700341
      ],
      [
        "▁mi",
        -6.558137511545526
      ],
      [
        "▁je",
        -6.586468826919748
      ],
      [
        "▁si",
        -6.607627460567999
      ],
      [
        "▁se",
        -6.61642977811928
      ],
      [
        "▁boo",
        -6.622890587807669
      ],
      [
        "▁Le",
        -6.633520684090607
      ],
      [
        "▁aussi",
        -6.638828845799043
      ],
      [
        "▁n",
        -6.646885706261612
      ],
      [
        "▁Nataal",
        -6.655742001616522
      ],
      [
        "▁O",
        -6.67044147022989
      ],
      [
        "▁cet",
        -6.67543303565742
      ],
      [
        "▁nataal",
        -6.690159764505517
      ],
      [
        "▁d",
        -6.6969642728129
      ],
      [
        "▁ñi",
        -6.718698339397564
      ],
      [
        "▁ŋgi",
        -6.719900772184735
      ],
      [
        "▁bëgg",
        -6.721197295111
      ],
      [
        "▁woon",
        -6.727296842559547
      ],
      [
        "▁moom",
        -6.734787110565845
      ],
      [
        "▁Am",
        -6.740720180383297
      ],
      [
        "▁def",
        -6.743365688954238
      ],
      [
        "▁ki",
        -6.746396311718712
      ],
      [
        "▁mel",
        -6.763215644951982
      ],
      [
        "▁fi",
        -6.765442729410244
      ],
      [
        "ette",
        -6.765573321520842
      ],
      [
        "eneen",
        -6.771378047195274
      ],
      [
        "▁ñoo",
        -6.774113747505574
      ],
      [
        "▁xale",
        -6.781622105624615
      ],
      [
        "▁A",
        -6.799462805141232
      ],
      [
        "▁là",
        -6.8082115786135535
      ],
      [
        "oon",
        -6.815652163488082
      ],
      [
        "s.",
        -6.816284889107373
      ],
      [
        "▁tout",
        -6.818754978289429
      ],
      [
        "x",
        -6.819635123813088
      ],
      [
        "▁l'intérieur",
        -6.820180022670211
      ],
      [
        "▁Ce",
        -6.82208125639236
      ],
      [
        "al",
        -6.822127166059609
      ],
      [
        "▁parle",
        -6.822166588444256
      ],
      [
        "▁vois",
        -6.829039925004929
      ],
      [
        "▁Ci",
        -6.836531350534546
      ],
      [
        "▁La",
        -6.844539626403654
      ],
      [
        "▁nga",
        -6.846156991877763
      ],
      [
        "▁lui",
        -6.865420059439876
      ],
      [
        "es",
        -6.874523187937216
      ],
      [
        "o",
        -6.880046701432791
      ],
      [
        "▁sa",
        -6.891465450703365
      ],
      [
        "▁qu'",
        -6.896509451784057
      ],
      [
        "am",
        -6.915733700833221
      ],
      [
        "▁moo",
        -6.920837796649435
      ],
      [
        "▁celui-là",
        -6.924130926487589
      ],
      [
        "▁néeg",
        -6.926367483842574
      ],
      [
        "▁as",
        -6.929604894829424
      ],
      [
        "ment",
        -6.934497644319533
      ],
      [
        "▁seen",
        -6.936919088640611
      ],
      [
        "▁ji",
        -6.937643247314451
      ],
      [
        "▁ka",
        -6.943435259476448
      ],
      [
        "▁chose",
        -6.9523558966689
      ],
      [
        "▁E",
        -6.954764396704626
      ],
      [
        "▁Les",
        -6.965747638371299
      ],
      [
        "▁weex",
        -6.967988533795766
      ],
      [
        "woon",
        -6.976510785548525
      ],
      [
        "ne",
        -6.980740568005891
      ],
      [
        "▁couleur",
        -6.986630207809446
      ],
      [
        "ay",
        -6.988275961664314
      ],
      [
        "▁vous",
        -6.9979295116754034
      ],
      [
        "▁Waaw",
        -7.000726038725685
      ],
      [
        "▁xar",
        -7.03962599333992
      ],
      [
        "▁l",
        -7.0432178329554445
      ],
      [
        "▁moi",
        -7.051957438454199
      ],
      [
        "▁ca",
        -7.059126107761671
      ],
      [
        "▁voilà",
        -7.064739362708407
      ],
      [
        "▁mouton",
        -7.064944269155099
      ],
      [
        "'est",
        -7.068766773102092
      ],
      [
        "▁s",
        -7.07023528760817
      ],
      [
        "▁enfants",
        -7.070612421410209
      ],
      [
        "▁dit",
        -7.080708712450782
      ],
      [
        "▁toi",
        -7.082324003142794
      ],
      [
        "▁fa",
        -7.08284134430884
      ],
      [
        "▁dafa",
        -7.089977612324132
      ],
      [
        "▁laa",
        -7.106568895547151
      ],
      [
        "▁Dem",
        -7.113106855064228
      ],
      [
        "ci",
        -7.114544015509098
      ],
      [
        "▁C",
        -7.116220927427381
      ],
      [
        "▁kenn",
        -7.116972160300771
      ],
      [
        "▁Un",
        -7.117737365284137
      ],
      [
        "▁porte",
        -7.124138810857257
      ],
      [
        "▁lool",
        -7.125373278156296
      ],
      [
        "▁demee",
        -7.128826920566512
      ],
      [
        "▁au",
        -7.144224513526645
      ],
      [
        "'",
        -7.154071812070828
      ],
      [
        "▁venu",
        -7.154690187264819
      ],
      [
        "eux",
        -7.155290295940697
      ],
      [
        "▁Maa",
        -7.177292959724972
      ],
      [
        "▁partir",
        -7.177761913390948
      ],
      [
        "▁veux",
        -7.178453385597454
      ],
      [
        "▁plus",
        -7.182047603505302
      ],
      [
        "▁ag",
        -7.183422281208448
      ],
      [
        "▁Quel",
        -7.189848247344472
      ],
      [
        "-",
        -7.195967630058418
      ],
      [
        "er",
        -7.19793766076619
      ],
      [
        "te",
        -7.198422795130227
      ],
      [
        "▁demul",
        -7.198799402964848
      ],
      [
        "▁maison",
        -7.201019958824947
      ],
      [
        "▁jigéen",
        -7.201032353407481
      ],
      [
        "▁part",
        -7.204938205518205
      ],
      [
        "▁ku",
        -7.2083788487587945
      ],
      [
        "▁leen",
        -7.214088947086192
      ],
      [
        "▁Cet",
        -7.214280590978223
      ],
      [
        "ñ",
        -7.21729669915677
      ],
      [
        "▁où",
        -7.221118160768352
      ],
      [
        "s-tu",
        -7.224716805808466
      ],
      [
        "▁doon",
        -7.238443725606693
      ],
      [
        "ant",
        -7.238679794969457
      ],
      [
        "k",
        -7.238761604618428
      ],
      [
        "▁bien",
        -7.240972613470265
      ],
      [
        "▁De",
        -7.244219471691277
      ],
      [
        "▁ŋgeen",
        -7.250326351723553
      ],
      [
        "▁j'",
        -7.261325541966006
      ],
      [
        "ù",
        -7.26818219720305
      ],
      [
        "en",
        -7.2722225179979585
      ],
      [
        "▁m",
        -7.279127493755443
      ],
      [
        "▁n'es",
        -7.279487872650487
      ],
      [
        "▁rafet",
        -7.286295397813498
      ],
      [
        "▁très",
        -7.290246048566992
      ],
      [
        "g",
        -7.309350279299041
      ],
      [
        "ez",
        -7.30996916339102
      ],
      [
        "ont",
        -7.310601615191652
      ],
      [
        "oo",
        -7.311616160677868
      ],
      [
        "▁ou",
        -7.319869627621225
      ],
      [
        "▁garab",
        -7.322899338483017
      ],
      [
        "▁man",
        -7.336380361731056
      ],
      [
        "▁J",
        -7.344496938322551
      ],
      [
        "▁kaw",
        -7.356730417002704
      ],
      [
        "▁lii",
        -7.3695161825356905
      ],
      [
        "▁personne",
        -7.373938198333665
      ],
      [
        "▁xarit",
        -7.388568052920896
      ],
      [
        "▁soo",
        -7.38943213067899
      ],
      [
        "▁j'ai",
        -7.391384688632293
      ],
      [
        "▁Lii",
        -7.397396080289614
      ],
      [
        "▁sol",
        -7.401229891684563
      ],
      [
        "..",
        -7.409073400593501
      ],
      [
        "▁Xar",
        -7.412383931109872
      ],
      [
        "ent",
        -7.414839632649004
      ],
      [
        "▁ñax",
        -7.426147422626058
      ],
      [
        "▁là-bas",
        -7.426509433374511
      ],
      [
        "▁gens",
        -7.4336926258398535
      ],
      [
        "▁réer",
        -7.4350515585245045
      ],
      [
        "▁femme",
        -7.443723848878047
      ],
      [
        "▁Comme",
        -7.4621259608201935
      ],
      [
        "▁waaw",
        -7.46486203542563
      ],
      [
        "▁yépp",
        -7.46637396265218
      ],
      [
        "▁À",
        -7.4702400344746955
      ],
      [
        "▁b",
        -7.472762499399257
      ],
      [
        "▁dañ",
        -7.473676020388815
      ],
      [
        "w",
        -7.483690033708063
      ],
      [
        "▁Fa",
        -7.483862665946441
      ],
      [
        "▁Si",
        -7.484204404608107
      ],
      [
        "re",
        -7.485026343528297
      ],
      [
        "la",
        -7.486784017841757
      ],
      [
        "▁Su",
        -7.4913265498330475
      ],
      [
        "▁jusqu'",
        -7.499870613441832
      ],
      [
        "▁semble",
        -7.500453852636689
      ],
      [
        "▁veut",
        -7.501974537724523
      ],
      [
        "▁rekk",
        -7.5020164911934355
      ],
      [
        "▁n'a",
        -7.502440951175879
      ],
      [
        "▁noppi",
        -7.503860606996143
      ],
      [
        "▁F",
        -7.50489898715677
      ],
      [
        "▁Qui",
        -7.506163440572211
      ],
      [
        "▁teg",
        -7.507193694057751
      ],
      [
        "▁ñaar",
        -7.512681262324887
      ],
      [
        "▁mën",
        -7.514676780860565
      ],
      [
        "▁waa",
        -7.525430911106865
      ],
      [
        "▁lañu",
        -7.526256785839335
      ],
      [
        "de",
        -7.528041197232493
      ],
      [
        "▁Du",
        -7.530433035430912
      ],
      [
        "▁fu",
        -7.530765009433669
      ],
      [
        "▁maa",
        -7.532152326732313
      ],
      [
        "épp",
        -7.534052226195194
      ],
      [
        "▁Ba",
        -7.536177563627042
      ],
      [
        "▁dara",
        -7.54010021962607
      ],
      [
        "▁Oui",
        -7.542688781839926
      ],
      [
        "▁gu",
        -7.543637831432852
      ],
      [
        "▁nañu",
        -7.543912558728937
      ],
      [
        "▁moutons",
        -7.544233739715521
      ],
      [
        "▁Ceci",
        -7.544872890962114
      ],
      [
        "▁k",
        -7.545250849890575
      ],
      [
        "▁kër",
        -7.545870809722167
      ],
      [
        "leurs",
        -7.548451616313075
      ],
      [
        "it",
        -7.550868397395531
      ],
      [
        "▁qu",
        -7.554095663094429
      ],
      [
        "is",
        -7.55544795418328
      ],
      [
        "▁Sée",
        -7.555951423767841
      ],
      [
        "un",
        -7.556273802271234
      ],
      [
        "▁on",
        -7.5569334428807124
      ],
      [
        "▁ami",
        -7.556997283761044
      ],
      [
        "▁Mi",
        -7.5687371781033015
      ],
      [
        "▁yoo",
        -7.576505279071567
      ],
      [
        "▁l'a",
        -7.58218900586344
      ],
      [
        "▁l'autre",
        -7.583494134079418
      ],
      [
        "▁ceux-là",
        -7.583512851559377
      ],
      [
        "▁peut-être",
        -7.583711234915024
      ],
      [
        "▁bari",
        -7.590779578480909
      ],
      [
        "▁d'autres",
        -7.591324642161704
      ],
      [
        "▁d'un",
        -7.592385779900102
      ],
      [
        "▁Ma",
        -7.592440720380067
      ],
      [
        "▁So",
        -7.594228198483058
      ],
      [
        "▁kooku",
        -7.596073593406125
      ],
      [
        "▁su",
        -7.598355894438319
      ],
      [
        "▁D",
        -7.604576182311387
      ],
      [
        "quelle",
        -7.609387073760171
      ],
      [
        "▁toog",
        -7.612338570327227
      ],
      [
        "▁Que",
        -7.617055829186871
      ],
      [
        "▁L",
        -7.621660229090409
      ],
      [
        "▁Vous",
        -7.626097078617292
      ],
      [
        "▁tamit",
        -7.626338246943533
      ],
      [
        "▁quelqu'un",
        -7.627158929628207
      ],
      [
        "▁Xale",
        -7.627183630546739
      ],
      [
        "▁Mais",
        -7.627455155249749
      ],
      [
        "▁wet",
        -7.627908720816826
      ],
      [
        "▁sax",
        -7.629605729003615
      ],
      [
        "▁Na",
        -7.644390127362502
      ],
      [
        "▁chambre",
        -7.648161039209965
      ],
      [
        "▁personnes",
        -7.65146117521574
      ],
      [
        "voir",
        -7.65889721785707
      ],
      [
        "h",
        -7.660136903798664
      ],
      [
        "▁ya",
        -7.661115701561158
      ],
      [
        "▁nii",
        -7.6612828817564385
      ],
      [
        "▁baax",
        -7.668270159878407
      ],
      [
        "▁d'",
        -7.672178493893998
      ],
      [
        "b",
        -7.675595569996982
      ],
      [
        "est",
        -7.675782669395112
      ],
      [
        "r.",
        -7.678773395251376
      ],
      [
        "▁daal",
        -7.680092001280171
      ],
      [
        "▁ñuul",
        -7.683611276760113
      ],
      [
        "ma",
        -7.685541191710625
      ],
      [
        "▁même",
        -7.689394334967526
      ],
      [
        "▁fait",
        -7.701474992706405
      ],
      [
        "ul",
        -7.7058815009101576
      ],
      [
        "que",
        -7.707467025137728
      ],
      [
        "uñu",
        -7.708685671003566
      ],
      [
        "di",
        -7.717741458030147
      ],
      [
        "▁coté",
        -7.7189953977308186
      ],
      [
        "▁Moo",
        -7.719222899638913
      ],
      [
        "▁dana",
        -7.719264770011231
      ],
      [
        "▁beaucoup",
        -7.719792633110479
      ],
      [
        "▁Daf",
        -7.720971478393858
      ],
      [
        "▁foofu",
        -7.722121033453391
      ],
      [
        "▁voit",
        -7.723707090154969
      ],
      [
        "▁Te",
        -7.724181019680538
      ],
      [
        "▁ont",
        -7.725894981248484
      ],
      [
        "▁fii",
        -7.73207203315867
      ],
      [
        "▁s'",
        -7.743132092220604
      ],
      [
        "▁avait",
        -7.756604739729912
      ],
      [
        "▁n'",
        -7.762137699387954
      ],
      [
        "▁bunt",
        -7.76289364327272
      ],
      [
        "-là",
        -7.763820135659742
      ],
      [
        "c",
        -7.76722784026488
      ],
      [
        "▁Ndax",
        -7.769136860366016
      ],
      [
        "▁donné",
        -7.769176097580962
      ],
      [
        "▁quelque",
        -7.771451652970134
      ],
      [
        "na",
        -7.77305218056034
      ],
      [
        "▁daa",
        -7.776045367870806
      ],
      [
        "▁tou",
        -7.779374033489669
      ],
      [
        "▁autres",
        -7.788066034983723
      ],
      [
        "▁dañu",
        -7.792539677084167
      ],
      [
        "▁Ñu",
        -7.793160463721909
      ],
      [
        "ñu",
        -7.793273028634279
      ],
      [
        "▁posé",
        -7.7955805756177705
      ],
      [
        "▁photo,",
        -7.796659493530136
      ],
      [
        "▁quelle",
        -7.798099880675764
      ],
      [
        "▁passe",
        -7.800735486136162
      ],
      [
        "▁son",
        -7.803050294061996
      ],
      [
        "oi",
        -7.804595374182615
      ],
      [
        "▁peut",
        -7.813726777368142
      ],
      [
        "e.",
        -7.814305546006369
      ],
      [
        "ee",
        -7.816388755174128
      ],
      [
        "▁crois",
        -7.822130859640068
      ],
      [
        "▁ñépp",
        -7.822224223929515
      ],
      [
        "▁celui",
        -7.822310881514676
      ],
      [
        "▁Keneen",
        -7.82262887837326
      ],
      [
        "▁taxaw",
        -7.822957228786808
      ],
      [
        "▁f",
        -7.823824652563097
      ],
      [
        "▁soit",
        -7.828357652469727
      ],
      [
        "▁verre",
        -7.829725172384099
      ],
      [
        "▁Yaa",
        -7.834494551402134
      ],
      [
        "▁par",
        -7.839941853338354
      ],
      [
        "▁femmes",
        -7.850310262982953
      ],
      [
        "▁Bëgg",
        -7.851573428103029
      ],
      [
        "▁dëkk",
        -7.856998668421495
      ],
      [
        "koon",
        -7.857385149398185
      ],
      [
        "▁égaré",
        -7.859778950783035
      ],
      [
        "▁doŋŋ",
        -7.87664133533778
      ],
      [
        "▁Samba",
        -7.8769744213477795
      ],
      [
        "▁aperç",
        -7.877132532351128
      ],
      [
        "▁ressemble",
        -7.877633462833118
      ],
      [
        "▁p",
        -7.887795210803851
      ],
      [
        "▁Mu",
        -7.888376248922803
      ],
      [
        "▁itam",
        -7.889080283322787
      ],
      [
        "tte",
        -7.89261268547898
      ],
      [
        "▁blanc",
        -7.901364427095373
      ],
      [
        "▁rouge",
        -7.905235283793076
      ],
      [
        "▁poisson",
        -7.909474806300148
      ],
      [
        "▁kan",
        -7.910294283000598
      ],
      [
        "pp",
        -7.9148047896586435
      ],
      [
        "▁Nou",
        -7.915042543365587
      ],
      [
        "▁m'a",
        -7.915955433457938
      ],
      [
        "▁blanche",
        -7.917604092612679
      ],
      [
        "ux",
        -7.9185749570588175
      ],
      [
        "▁lion",
        -7.921340147557695
      ],
      [
        "▁Waa",
        -7.922299878919347
      ],
      [
        "▁dee",
        -7.925066697015316
      ],
      [
        "▁dul",
        -7.9255552269718805
      ],
      [
        "▁ban",
        -7.926068267939083
      ],
      [
        "ependant",
        -7.927954491114089
      ],
      [
        "▁t",
        -7.928003919641489
      ],
      [
        ";",
        -7.930463654843199
      ],
      [
        "igéen",
        -7.930810628592989
      ],
      [
        "▁ai",
        -7.930880870402372
      ],
      [
        "ël",
        -7.932117138918256
      ],
      [
        "▁nous",
        -7.934311756984881
      ],
      [
        "▁jëm",
        -7.935260298079589
      ],
      [
        "▁suuf",
        -7.935776614365439
      ],
      [
        "as-tu",
        -7.936635138187619
      ],
      [
        "▁qu'elle",
        -7.938400862076467
      ],
      [
        "▁ndaw",
        -7.940722096874403
      ],
      [
        "▁rien",
        -7.943748993021424
      ],
      [
        "▁Seet",
        -7.9494649690416495
      ],
      [
        "▁va",
        -7.955280143761673
      ],
      [
        "▁arbres",
        -7.957278023115636
      ],
      [
        "▁j",
        -7.962645025373076
      ],
      [
        "▁yooyu",
        -7.966447129472714
      ],
      [
        "▁l'",
        -7.967190291383769
      ],
      [
        "ir",
        -7.971318065856679
      ],
      [
        "▁P",
        -7.984555170384178
      ],
      [
        "▁lañ",
        -7.985394711356211
      ],
      [
        "▁lay",
        -7.986409891680132
      ],
      [
        "d",
        -7.9888652457570135
      ],
      [
        "était",
        -7.989578653800635
      ],
      [
        "▁S",
        -7.99315989849228
      ],
      [
        "▁parte",
        -7.996143743652337
      ],
      [
        "▁génn",
        -7.997935088433451
      ],
      [
        "▁Naka",
        -7.997989798350526
      ],
      [
        "▁<mask>",
        -7.998189309092517
      ],
      [
        "▁M",
        -7.998298739581138
      ],
      [
        "▁lequel",
        -7.999105497883383
      ],
      [
        "▁Laobe",
        -7.999351067676666
      ],
      [
        "▁vache",
        -7.999387512528008
      ],
      [
        "▁gaynde",
        -8.001597368529213
      ],
      [
        "▁sorte",
        -8.002427688234516
      ],
      [
        "▁demkoon",
        -8.002598403343104
      ],
      [
        "▁leur",
        -8.004511192484612
      ],
      [
        "ak",
        -8.008231323837487
      ],
      [
        "▁dénk",
        -8.008713821581512
      ],
      [
        "ale",
        -8.020075288056978
      ],
      [
        "▁nda",
        -8.023201796329886
      ],
      [
        "▁liggéey",
        -8.028726360635186
      ],
      [
        "▁pars",
        -8.0297322549824
      ],
      [
        "▁li",
        -8.036958685532579
      ],
      [
        "naa",
        -8.037572298365243
      ],
      [
        "▁yeneen",
        -8.038272008488404
      ],
      [
        "▁noir",
        -8.040192182893175
      ],
      [
        "▁waay",
        -8.040964251090294
      ],
      [
        "▁yor",
        -8.047158144603046
      ],
      [
        "les",
        -8.047620837062642
      ],
      [
        "▁peu",
        -8.048573414977106
      ],
      [
        "aw",
        -8.051150892583705
      ],
      [
        "▁g",
        -8.053637905581835
      ],
      [
        "▁Va",
        -8.056981039101167
      ],
      [
        ":",
        -8.059630321509879
      ],
      [
        "▁dugg",
        -8.06013219948558
      ],
      [
        "▁xonq",
        -8.064110967193631
      ],
      [
        "▁S'il",
        -8.064199473483491
      ],
      [
        "▁Aucun",
        -8.064446374261351
      ],
      [
        "▁Kooku",
        -8.064826431902787
      ],
      [
        "▁Celui-là",
        -8.065053273293556
      ],
      [
        "▁au-dessus",
        -8.065071641135763
      ],
      [
        "▁Ya",
        -8.06626473753699
      ],
      [
        "▁bois",
        -8.067484801666243
      ],
      [
        "▁ñan",
        -8.0682302306693
      ],
      [
        "▁ici",
        -8.068571616977001
      ],
      [
        "▁Yaw",
        -8.071088923000367
      ],
      [
        "▁J'",
        -8.072534765114705
      ],
      [
        "▁pa",
        -8.073726419046316
      ],
      [
        "or",
        -8.073743436927431
      ],
      [
        "▁doom",
        -8.074005270951167
      ],
      [
        "▁lal",
        -8.080650260730971
      ],
      [
        "▁mais",
        -8.081117458395193
      ],
      [
        "▁koo",
        -8.08327144265647
      ],
      [
        "▁ëe",
        -8.084122917328207
      ],
      [
        "tu",
        -8.08452678054529
      ],
      [
        "p",
        -8.087427646557916
      ],
      [
        "▁Xam",
        -8.090476701832422
      ],
      [
        "▁re",
        -8.09216787003987
      ],
      [
        "▁Li",
        -8.093238115065112
      ],
      [
        "vais",
        -8.093472218389717
      ],
      [
        "▁parles",
        -8.09703000993195
      ],
      [
        "ient",
        -8.11516286922247
      ],
      [
        "▁jolie",
        -8.118288263225262
      ],
      [
        "▁gii",
        -8.12364705280859
      ],
      [
        "▁B",
        -8.12393595558854
      ],
      [
        "être",
        -8.129010408627844
      ],
      [
        "▁Bu",
        -8.129384171409713
      ],
      [
        "▁v",
        -8.130705748651035
      ],
      [
        "ée",
        -8.132587223494797
      ],
      [
        "▁matin",
        -8.135709896953273
      ],
      [
        "▁simplement",
        -8.136355052518237
      ],
      [
        "▁seulement",
        -8.136465226972621
      ],
      [
        "▁quel",
        -8.136806754785145
      ],
      [
        "▁celui-ci",
        -8.136919629746423
      ],
      [
        "▁mépp",
        -8.13899340604268
      ],
      [
        "▁may",
        -8.141003218000058
      ],
      [
        "▁bañ",
        -8.14119759861407
      ],
      [
        "▁dame",
        -8.144139624780784
      ],
      [
        "lu",
        -8.14528595466372
      ],
      [
        "dax",
        -8.146892338481877
      ],
      [
        "▁faire",
        -8.14858247089581
      ],
      [
        "▁da",
        -8.149602987893243
      ],
      [
        "▁nee",
        -8.155449623644316
      ],
      [
        "▁Bi",
        -8.15666349432004
      ],
      [
        "ukaay",
        -8.15718104499359
      ],
      [
        "▁Ken",
        -8.159578726190615
      ],
      [
        "gi",
        -8.171154483142194
      ],
      [
        "▁wall",
        -8.174959411573932
      ],
      [
        "▁comme",
        -8.175114791946774
      ],
      [
        "▁bon",
        -8.176564758701737
      ],
      [
        "▁t'a",
        -8.177406859000985
      ],
      [
        "ag",
        -8.189310313611829
      ],
      [
        "ses",
        -8.191531988091779
      ],
      [
        "▁es",
        -8.19687161559763
      ],
      [
        "▁jeune",
        -8.197297689119553
      ],
      [
        "▁kii",
        -8.20242740192104
      ],
      [
        "▁sui",
        -8.204844499158456
      ],
      [
        "▁fas",
        -8.209825703817438
      ],
      [
        "▁paix",
        -8.212162583653587
      ],
      [
        "▁rek",
        -8.212248386550657
      ],
      [
        "▁trois",
        -8.212285875870236
      ],
      [
        "▁wirgo",
        -8.212330434070438
      ],
      [
        "▁Yéen",
        -8.21330351485629
      ],
      [
        "▁jël",
        -8.213707836827872
      ],
      [
        "▁habits",
        -8.214938142470174
      ],
      [
        "▁vas-tu",
        -8.215048333905417
      ],
      [
        "▁bëggul",
        -8.215778901891888
      ],
      [
        "▁Y",
        -8.216932278660698
      ],
      [
        "▁Moom",
        -8.217645310596167
      ],
      [
        "ais",
        -8.218944205742817
      ],
      [
        "▁mon",
        -8.2237902617875
      ],
      [
        "óon",
        -8.226535031804097
      ],
      [
        "▁viendra",
        -8.226745763335614
      ],
      [
        "elle",
        -8.227483072102476
      ],
      [
        "▁gendarmes",
        -8.230279557798479
      ],
      [
        "▁fut",
        -8.231657183752828
      ],
      [
        "-ci",
        -8.233740430377331
      ],
      [
        "▁mag",
        -8.234535671423348
      ],
      [
        "▁xaw",
        -8.235574697034764
      ],
      [
        "▁café",
        -8.237005325625859
      ],
      [
        "▁ça",
        -8.238294501595647
      ],
      [
        "▁Ben",
        -8.24092480666602
      ],
      [
        "yan",
        -8.241435020533409
      ],
      [
        "ab",
        -8.24340734863879
      ],
      [
        "▁Mon",
        -8.248646487034298
      ],
      [
        "nt.",
        -8.248846417812462
      ],
      [
        "▁vo",
        -8.249564736712903
      ],
      [
        "▁sama",
        -8.251210722142098
      ],
      [
        "▁fille",
        -8.257443914886958
      ],
      [
        "▁ta",
        -8.259173856699826
      ],
      [
        "▁voir",
        -8.269419129453848
      ],
      [
        "ait",
        -8.269797812040986
      ],
      [
        "▁Ñoo",
        -8.273143480641696
      ],
      [
        "▁Man",
        -8.273221179560462
      ],
      [
        "▁ñ",
        -8.274764149689949
      ],
      [
        "▁vienne",
        -8.276777214662907
      ],
      [
        "▁w",
        -8.284200543189073
      ],
      [
        "▁ñuul.",
        -8.28930327949374
      ],
      [
        "▁Ku",
        -8.293389576415766
      ],
      [
        "▁trouve",
        -8.294995539253893
      ],
      [
        "▁encore",
        -8.295582733045459
      ],
      [
        "▁Waaye",
        -8.295611656491904
      ],
      [
        "▁Jaam",
        -8.29564040703967
      ],
      [
        "▁Cherche",
        -8.295753940162701
      ],
      [
        "▁théière",
        -8.295758142961724
      ],
      [
        "▁question",
        -8.295914185350608
      ],
      [
        "▁Jox",
        -8.295916642729932
      ],
      [
        "▁Ceux-là",
        -8.295974734422085
      ],
      [
        "▁Saint-Louis",
        -8.296148195334634
      ],
      [
        "▁debout",
        -8.296167583403255
      ],
      [
        "▁pays",
        -8.296848629697932
      ],
      [
        "▁Quelle",
        -8.29717696515704
      ],
      [
        "▁yónnee",
        -8.297597290663479
      ],
      [
        "▁Demal",
        -8.299010617175933
      ],
      [
        "▁Defe",
        -8.299558097518588
      ],
      [
        "▁biti",
        -8.299799652444545
      ],
      [
        "▁Ndar",
        -8.300762020579404
      ],
      [
        "▁yaw",
        -8.301356667714629
      ],
      [
        "ul.",
        -8.307475263827707
      ],
      [
        "▁envoyée",
        -8.307483326015326
      ],
      [
        "aada",
        -8.314603507079905
      ],
      [
        "ri",
        -8.315262008249524
      ],
      [
        "▁dal",
        -8.317321756115575
      ],
      [
        "▁assis",
        -8.322955902650646
      ],
      [
        "▁weer",
        -8.324947051562457
      ],
      [
        "▁dëkku",
        -8.326710841145493
      ],
      [
        "ngi",
        -8.32729885304217
      ],
      [
        "▁ŋgii",
        -8.331590222293515
      ],
      [
        "▁Wax",
        -8.334913808040282
      ],
      [
        "mi",
        -8.339125727804351
      ],
      [
        "ation",
        -8.340733616785812
      ],
      [
        "▁dox",
        -8.344144786198418
      ],
      [
        "▁defe",
        -8.346726122780492
      ],
      [
        "▁entre",
        -8.35116819338768
      ],
      [
        "▁Tout",
        -8.352736940127258
      ],
      [
        "▁R",
        -8.35570862342811
      ],
      [
        "▁conçue",
        -8.355723429059235
      ],
      [
        "enn",
        -8.35625590469144
      ],
      [
        "▁réew",
        -8.36120965016118
      ],
      [
        "▁T",
        -8.363032039571442
      ],
      [
        "▁yi.",
        -8.365195401396706
      ],
      [
        "▁wi",
        -8.365959925524699
      ],
      [
        "tes",
        -8.366327787719193
      ],
      [
        "près",
        -8.368687983846844
      ],
      [
        "kat",
        -8.375093890736586
      ],
      [
        "and",
        -8.380613508376745
      ],
      [
        "tre",
        -8.382443851197436
      ],
      [
        "▁nul",
        -8.384401668969666
      ],
      [
        "gee",
        -8.384734584605603
      ],
      [
        "▁séché",
        -8.385944627432838
      ],
      [
        "▁Homme",
        -8.385977174318391
      ],
      [
        "▁cheval",
        -8.386071059662168
      ],
      [
        "▁tabax",
        -8.386172009282344
      ],
      [
        "▁tudd",
        -8.386187403743456
      ],
      [
        "▁Moussa",
        -8.386189500398496
      ],
      [
        "▁Xammee",
        -8.386195135831139
      ],
      [
        "▁manière",
        -8.386959374927027
      ],
      [
        "▁toogukaay",
        -8.387107847068954
      ],
      [
        "▁Qu'il",
        -8.387141407962023
      ],
      [
        "▁gën",
        -8.389160075033677
      ],
      [
        "▁ñett",
        -8.38963427695261
      ],
      [
        "▁noonu",
        -8.390327529749591
      ],
      [
        "▁portent",
        -8.391869108703204
      ],
      [
        "▁kow",
        -8.392174011156484
      ],
      [
        "uma",
        -8.39383371167708
      ],
      [
        "f",
        -8.396814874370717
      ],
      [
        "▁bind",
        -8.397367146865527
      ],
      [
        "▁nañ",
        -8.398178241475934
      ],
      [
        "▁takk-der",
        -8.401266465894777
      ],
      [
        "▁aujourd'hui",
        -8.402679875339201
      ],
      [
        "▁N",
        -8.402810028707465
      ],
      [
        "▁W",
        -8.404325205911805
      ],
      [
        "▁partira",
        -8.408377449668066
      ],
      [
        "▁couleurs",
        -8.40857056919398
      ],
      [
        "▁Là",
        -8.408577791611144
      ],
      [
        "▁serai",
        -8.41271190196214
      ],
      [
        "▁xamant",
        -8.41464040416313
      ],
      [
        "▁An",
        -8.414971799002293
      ],
      [
        "▁égarée",
        -8.415410387238172
      ],
      [
        "▁bare",
        -8.416900513334351
      ],
      [
        "baar",
        -8.41768762919515
      ],
      [
        "▁tay",
        -8.418398177023658
      ],
      [
        "▁ga",
        -8.419838455400553
      ],
      [
        "▁aller",
        -8.423340178259876
      ],
      [
        "se",
        -8.42386580328628
      ],
      [
        "▁me",
        -8.425759144310275
      ],
      [
        "▁cela",
        -8.428809675830609
      ],
      [
        "▁ira",
        -8.432215652465283
      ],
      [
        "geen",
        -8.441696455963669
      ],
      [
        "ou",
        -8.442102690653869
      ],
      [
        "réer",
        -8.442440383844763
      ],
      [
        "▁ré",
        -8.444707033517679
      ],
      [
        "▁partis",
        -8.44706821810642
      ],
      [
        "▁portes",
        -8.453966945644371
      ],
      [
        "een",
        -8.457161945861861
      ],
      [
        "▁Di",
        -8.468762835909978
      ],
      [
        "▁arrivé",
        -8.471592300879877
      ],
      [
        "ces",
        -8.47860043186389
      ],
      [
        "▁U2",
        -8.482241648251073
      ],
      [
        "atim",
        -8.482648325103932
      ],
      [
        "▁Koo",
        -8.483227103497917
      ],
      [
        "▁Sa",
        -8.484215938911191
      ],
      [
        "▁subë",
        -8.485421744306233
      ],
      [
        "▁vrai",
        -8.485558453686895
      ],
      [
        "▁sucre",
        -8.485632762221059
      ],
      [
        "▁Alors",
        -8.485672135115156
      ],
      [
        "▁Lawbe",
        -8.485768508691102
      ],
      [
        "▁garçon",
        -8.485838796023065
      ],
      [
        "▁palais",
        -8.485874680152294
      ],
      [
        "▁milieu",
        -8.48608448306816
      ],
      [
        "▁d'Europe",
        -8.486111441987134
      ],
      [
        "▁Fatim",
        -8.486138861568747
      ],
      [
        "▁reste",
        -8.486157130061477
      ],
      [
        "▁allé",
        -8.486994294722454
      ],
      [
        "▁Ñii",
        -8.487759863715679
      ],
      [
        "▁Elle",
        -8.488202029189216
      ],
      [
        "▁endroit",
        -8.490120772299974
      ],
      [
        "▁Boo",
        -8.492352294483013
      ],
      [
        "▁n'ai",
        -8.49253045600812
      ],
      [
        "▁jo",
        -8.493589784143255
      ],
      [
        "▁beneen",
        -8.496061764310513
      ],
      [
        "▁Cela",
        -8.497537443217302
      ],
      [
        "▁Bon",
        -8.498271767376357
      ],
      [
        "▁boobu",
        -8.498440366000736
      ],
      [
        "▁contre",
        -8.49891212234073
      ],
      [
        "▁eux",
        -8.500572264834226
      ],
      [
        "-tu",
        -8.501257048379347
      ],
      [
        "▁Voil",
        -8.501347536124287
      ],
      [
        "▁Par",
        -8.50284971813078
      ],
      [
        "'habitude",
        -8.502904691845842
      ],
      [
        "▁ànd",
        -8.504979321431064
      ],
      [
        "▁pri",
        -8.505253853076843
      ],
      [
        "▁ceux",
        -8.505782522950856
      ],
      [
        "▁Me",
        -8.50751608393152
      ],
      [
        "▁vas",
        -8.50961842961604
      ],
      [
        "in",
        -8.510634286387075
      ],
      [
        "▁l'un",
        -8.51365288068722
      ],
      [
        "▁ju",
        -8.513922516082186
      ],
      [
        "▁buntu",
        -8.515040290766862
      ],
      [
        "▁partes",
        -8.518220293543163
      ],
      [
        "▁lan",
        -8.520114432394015
      ],
      [
        "▁port",
        -8.52052306522939
      ],
      [
        "▁ñëwul",
        -8.521551170170696
      ],
      [
        "ki",
        -8.524137959552778
      ],
      [
        "▁vient",
        -8.52592261999082
      ],
      [
        "▁jan",
        -8.530788553191767
      ],
      [
        "ils",
        -8.53185675430626
      ],
      [
        "▁Doo",
        -8.532234846707002
      ],
      [
        "z",
        -8.534127259258192
      ],
      [
        "▁bar",
        -8.537051078687771
      ],
      [
        "▁K",
        -8.546164485559927
      ],
      [
        "▁blancs",
        -8.547723734412823
      ],
      [
        "▁Ra",
        -8.55239362292444
      ],
      [
        "▁lit",
        -8.554672467469365
      ],
      [
        "▁tax",
        -8.55539883850312
      ],
      [
        "▁yaa",
        -8.55663701902343
      ],
      [
        "▁nu",
        -8.55936981549331
      ],
      [
        "ées",
        -8.56180690761428
      ],
      [
        "leen",
        -8.56274397696253
      ],
      [
        "àll",
        -8.56346922552224
      ],
      [
        "▁loolu",
        -8.57250532700144
      ],
      [
        "ai",
        -8.587535792769625
      ],
      [
        "▁woo",
        -8.591644881342036
      ],
      [
        "▁mo",
        -8.593527692279148
      ],
      [
        "▁Woo",
        -8.594618061511357
      ],
      [
        "pendant",
        -8.595414483656784
      ],
      [
        "▁Mbaa",
        -8.596146024893542
      ],
      [
        "▁acheté",
        -8.596556726507792
      ],
      [
        "▁Sérère",
        -8.596571042618594
      ],
      [
        "▁chevaux",
        -8.596698358280568
      ],
      [
        "▁wër",
        -8.59670997631021
      ],
      [
        "▁morceau",
        -8.596727752318035
      ],
      [
        "▁jaŋg",
        -8.597092312818173
      ],
      [
        "▁mère",
        -8.597465241880766
      ],
      [
        "▁Ne",
        -8.597729321887982
      ],
      [
        "▁it",
        -8.597920921133568
      ],
      [
        "▁Musaa",
        -8.598054622503257
      ],
      [
        "▁Loolu",
        -8.598873261791551
      ],
      [
        "▁fils",
        -8.59924658413352
      ],
      [
        "▁devant",
        -8.600405924141706
      ],
      [
        "▁s'en",
        -8.600500446223936
      ],
      [
        "st-ce",
        -8.600728761459582
      ],
      [
        "▁bépp",
        -8.601464105420916
      ],
      [
        "▁ŋgoon",
        -8.601698906187234
      ],
      [
        "▁téer",
        -8.604651580620654
      ],
      [
        "▁Tay",
        -8.604717193434553
      ],
      [
        "▁mis",
        -8.606926582460638
      ],
      [
        "▁Loo",
        -8.606992479989149
      ],
      [
        "est-ce",
        -8.612571872116515
      ],
      [
        "▁connais",
        -8.617722391518342
      ],
      [
        "▁elle",
        -8.619037308900666
      ],
      [
        "▁com",
        -8.622270110562118
      ],
      [
        "▁ceci",
        -8.623102064502746
      ],
      [
        "ère",
        -8.623553517901449
      ],
      [
        "▁viennes",
        -8.625475575336447
      ],
      [
        "▁dé",
        -8.629424903344079
      ],
      [
        "▁lanu",
        -8.634474929240945
      ],
      [
        "▁Tou",
        -8.635219206250492
      ],
      [
        "'était",
        -8.636504552060062
      ],
      [
        "fin",
        -8.639420481059764
      ],
      [
        "▁May",
        -8.643589938144881
      ],
      [
        "▁Fan",
        -8.644688758906698
      ],
      [
        "▁L'",
        -8.645029754784844
      ],
      [
        "▁Lu",
        -8.64676635192876
      ],
      [
        "▁bula",
        -8.648558053849845
      ],
      [
        "ce",
        -8.65189704991569
      ],
      [
        "waay",
        -8.658254672451797
      ],
      [
        "▁bes",
        -8.658830523022965
      ],
      [
        "▁no",
        -8.65957204058537
      ],
      [
        "ppelle",
        -8.660325603848143
      ],
      [
        "▁montre",
        -8.661054102082767
      ],
      [
        "▁seet",
        -8.66462020485086
      ],
      [
        "▁don",
        -8.667033122071555
      ],
      [
        "ions",
        -8.677322699815353
      ],
      [
        "porte",
        -8.678601751430367
      ],
      [
        "▁travail",
        -8.682135533561521
      ],
      [
        "▁eû",
        -8.68786701921586
      ],
      [
        "▁jii",
        -8.693019111283467
      ],
      [
        "j",
        -8.69324122014477
      ],
      [
        "▁av",
        -8.695825477589105
      ],
      [
        "rait",
        -8.696734625778284
      ],
      [
        "eer",
        -8.697957158072148
      ],
      [
        "as",
        -8.699871464897253
      ],
      [
        "▁defar",
        -8.704689538165221
      ],
      [
        "▁enfant",
        -8.708369679337132
      ],
      [
        "▁Ñ",
        -8.70912049955273
      ],
      [
        "▁seul",
        -8.71441484407445
      ],
      [
        "▁avais",
        -8.715850154372697
      ],
      [
        "iez",
        -8.717137224346605
      ],
      [
        "moi",
        -8.718184790922567
      ],
      [
        "▁Sénégal",
        -8.718286503663096
      ],
      [
        "▁ràbb",
        -8.718338957383986
      ],
      [
        "▁route",
        -8.718364220980892
      ],
      [
        "▁ainsi",
        -8.718410028533855
      ],
      [
        "▁entier",
        -8.71849733595059
      ],
      [
        "▁Laobé",
        -8.719050842208926
      ],
      [
        "▁wanag",
        -8.719318757892093
      ],
      [
        "nga",
        -8.719348128401561
      ],
      [
        "▁Senegaal",
        -8.721363729592117
      ],
      [
        "▁assurément",
        -8.721514978544333
      ],
      [
        "▁pourtant",
        -8.722063362724771
      ],
      [
        "▁pierres",
        -8.723560446585179
      ],
      [
        "ier",
        -8.723616002699293
      ],
      [
        "ur",
        -8.725005510379237
      ],
      [
        "▁lieu",
        -8.725375243378114
      ],
      [
        "▁Kookule",
        -8.72552501069576
      ],
      [
        "ë",
        -8.726245762677607
      ],
      [
        "▁sortir",
        -8.726403567778744
      ],
      [
        "▁pou",
        -8.727946384182571
      ],
      [
        "▁Toi",
        -8.728549283061282
      ],
      [
        "▁gejje",
        -8.72877250268201
      ],
      [
        "▁V",
        -8.728848514236716
      ],
      [
        "▁so",
        -8.729077080230516
      ],
      [
        "▁Wu",
        -8.729350505907401
      ],
      [
        "▁Noonu",
        -8.731479357897319
      ],
      [
        "ra",
        -8.732911920740023
      ],
      [
        "▁caus",
        -8.732932906138748
      ],
      [
        "parlé",
        -8.73442882964176
      ],
      [
        "▁tali",
        -8.73778043827342
      ],
      [
        "gal",
        -8.744554780694475
      ],
      [
        "v",
        -8.746581133544705
      ],
      [
        "▁s'agi",
        -8.746915338988842
      ],
      [
        "an",
        -8.747708230160107
      ],
      [
        "▁Vas",
        -8.750069553643653
      ],
      [
        "▁daan",
        -8.751414732007316
      ],
      [
        "▁bëggée",
        -8.751587728386415
      ],
      [
        "▁t'ai",
        -8.757312265332228
      ],
      [
        "ar",
        -8.760375890292469
      ],
      [
        "▁Noon",
        -8.768139198142503
      ],
      [
        "▁wara",
        -8.770011103102178
      ],
      [
        "ŋga",
        -8.774401193637834
      ],
      [
        "▁cherche",
        -8.778344850811674
      ],
      [
        "▁gen",
        -8.785317859839736
      ],
      [
        "vous",
        -8.790932656168167
      ],
      [
        "▁table",
        -8.791939402794231
      ],
      [
        "es.",
        -8.79777450311698
      ],
      [
        "▁nak",
        -8.803451164299982
      ],
      [
        "▁Ki",
        -8.80532390141442
      ],
      [
        "▁wa",
        -8.806294029094948
      ],
      [
        "garde",
        -8.807499501502258
      ],
      [
        "▁ñen",
        -8.8109487298849
      ],
      [
        "▁petit",
        -8.812736034286534
      ],
      [
        "▁l'ai",
        -8.8138485529978
      ],
      [
        "▁kaa",
        -8.814610922795646
      ],
      [
        "sieur",
        -8.815381751683715
      ],
      [
        "▁toute",
        -8.818631445488581
      ],
      [
        "▁sorti",
        -8.819117853459959
      ],
      [
        "▁Ca",
        -8.82018757979541
      ],
      [
        "▁sokolaa",
        -8.82281554782001
      ],
      [
        "▁yoon",
        -8.823190744566011
      ],
      [
        "quel",
        -8.823795991045467
      ],
      [
        "▁appelle",
        -8.830586186424274
      ],
      [
        "G",
        -8.832366661573918
      ],
      [
        "▁në",
        -8.832593942430405
      ],
      [
        "▁arbre",
        -8.841444405775126
      ],
      [
        "▁X",
        -8.842389958587288
      ],
      [
        "▁peut-",
        -8.847041665288351
      ],
      [
        "▁drap",
        -8.854197006734374
      ],
      [
        "ñeen",
        -8.860861414679563
      ],
      [
        "▁bâtiment",
        -8.861192648266172
      ],
      [
        "▁complète",
        -8.861192655144654
      ],
      [
        "▁Casamance",
        -8.861192657203736
      ],
      [
        "▁yeksi",
        -8.861194219309867
      ],
      [
        "▁Ainsi",
        -8.86119851986863
      ],
      [
        "▁boeuf",
        -8.861202864961761
      ],
      [
        "▁Deŋk",
        -8.861231792974706
      ],
      [
        "▁l'enfant",
        -8.861238746233747
      ],
      [
        "▁case",
        -8.861281398439502
      ],
      [
        "▁Palais",
        -8.861282783288587
      ],
      [
        "▁togg",
        -8.861331995940427
      ],
      [
        "▁pañe",
        -8.861344895062576
      ],
      [
        "▁dellusi",
        -8.861552869241693
      ],
      [
        "▁êtes",
        -8.861673339915585
      ],
      [
        "▁yére",
        -8.861703249348071
      ],
      [
        "▁jën",
        -8.86180974996117
      ],
      [
        "▁ndox",
        -8.861869806846139
      ],
      [
        "▁moto",
        -8.86209019101873
      ],
      [
        "▁xeer",
        -8.862144125758771
      ],
      [
        "▁tày",
        -8.862278552396377
      ],
      [
        "▁salle",
        -8.862353479051432
      ],
      [
        "▁Ici",
        -8.863105001378063
      ],
      [
        "▁Dama",
        -8.863239315334626
      ],
      [
        "▁dirait",
        -8.863515063194898
      ],
      [
        "▁mains",
        -8.863721388280489
      ],
      [
        "▁fépp",
        -8.86399784681948
      ],
      [
        "▁kanam",
        -8.864238994703937
      ],
      [
        "▁Parle",
        -8.864366921549111
      ],
      [
        "▁tàll",
        -8.864583509762806
      ],
      [
        "▁Bunt",
        -8.864597498424645
      ],
      [
        "▁ville",
        -8.8646264694447
      ],
      [
        "▁regardes",
        -8.865047810422809
      ],
      [
        "▁derrière",
        -8.86561736320014
      ],
      [
        "▁Foofu",
        -8.867661366002674
      ],
      [
        "au",
        -8.867981211376092
      ],
      [
        "▁Më",
        -8.870725812174086
      ],
      [
        "▁neex",
        -8.871764060183942
      ],
      [
        "▁chez",
        -8.872251865071284
      ],
      [
        "▁bol",
        -8.87268430459975
      ],
      [
        "▁con",
        -8.87331513372869
      ],
      [
        "▁jaune",
        -8.874731181987663
      ],
      [
        "-t-il",
        -8.875390015798223
      ],
      [
        "▁dessus",
        -8.877213205120757
      ],
      [
        "▁soir",
        -8.878151959992335
      ],
      [
        "▁fleurs",
        -8.878816482014262
      ],
      [
        "▁yee",
        -8.879814314388257
      ],
      [
        "▁dessin",
        -8.881245810887787
      ],
      [
        "▁na.",
        -8.882963747122666
      ],
      [
        "▁t'en",
        -8.883068908863082
      ],
      [
        "▁arrivés",
        -8.883398254207941
      ],
      [
        "▁L'un",
        -8.883569407982323
      ],
      [
        "ax",
        -8.884209354223053
      ],
      [
        "▁ñooñu",
        -8.886355198697506
      ],
      [
        "▁wane",
        -8.886892310450856
      ],
      [
        "▁chaise",
        -8.88750956120916
      ],
      [
        "▁noire.",
        -8.888155462572662
      ],
      [
        "▁demande",
        -8.898496500722953
      ],
      [
        "▁allai",
        -8.904844650102257
      ],
      [
        "individu",
        -8.907073050200037
      ],
      [
        "▁jox",
        -8.908226810201542
      ],
      [
        "▁wan",
        -8.908574804218736
      ],
      [
        "▁fois",
        -8.910202970596702
      ],
      [
        "▁jooju",
        -8.91077525039463
      ],
      [
        "▁parler",
        -8.913070099542745
      ],
      [
        "▁haute",
        -8.914758391359989
      ],
      [
        "▁leneen",
        -8.920126781845966
      ],
      [
        "tient",
        -8.921542768253136
      ],
      [
        "▁wu",
        -8.923050629364685
      ],
      [
        "▁Yo",
        -8.924109318921495
      ],
      [
        "kk",
        -8.92442568125535
      ],
      [
        "▁met",
        -8.925792663345252
      ],
      [
        "▁gan",
        -8.927923819045983
      ],
      [
        "▁père",
        -8.93773780344393
      ],
      [
        "▁juróom",
        -8.943695628574645
      ],
      [
        "▁bool",
        -8.945224898673086
      ],
      [
        "▁n'avai",
        -8.94550876486279
      ],
      [
        "ion",
        -8.945770577070938
      ],
      [
        "ît",
        -8.946448011987915
      ],
      [
        "▁mii",
        -8.947049974471085
      ],
      [
        "▁beau",
        -8.94749174781205
      ],
      [
        "▁më",
        -8.948636017123434
      ],
      [
        "▁jam",
        -8.951063251073698
      ],
      [
        "ons",
        -8.962164060507797
      ],
      [
        "ous",
        -8.964453402095922
      ],
      [
        "▁noirs",
        -8.965512493780027
      ],
      [
        "e,",
        -8.967183238845431
      ],
      [
        "▁haut",
        -8.968164713898405
      ],
      [
        "▁ñooña",
        -8.96970760984948
      ],
      [
        "▁ja",
        -8.972205865464844
      ],
      [
        "ance",
        -8.97303355540406
      ],
      [
        "ien",
        -8.976309877806518
      ],
      [
        "bi",
        -8.977821996709437
      ],
      [
        "▁ton",
        -8.980127812897313
      ],
      [
        "▁Mang",
        -8.983181970519702
      ],
      [
        "▁Ñe",
        -8.983506415555894
      ],
      [
        "▁Daŋg",
        -8.988338800333198
      ],
      [
        "ñii",
        -8.988682578942797
      ],
      [
        "▁Ta",
        -8.991446231802557
      ],
      [
        "▁alla",
        -8.991642105039414
      ],
      [
        "▁regard",
        -8.996789493000426
      ],
      [
        "éel",
        -8.999715888833581
      ],
      [
        "▁Moi",
        -9.008647371707369
      ],
      [
        "▁garde",
        -9.009614234591666
      ],
      [
        "▁enfant-",
        -9.013158139594324
      ],
      [
        "▁Ceux",
        -9.01644443375576
      ],
      [
        "ŋ",
        -9.016529126229697
      ],
      [
        "ëf",
        -9.020106787000069
      ],
      [
        "▁ginnaaw",
        -9.024470293888875
      ],
      [
        "▁Jam",
        -9.026690233711463
      ],
      [
        "▁Aujourd'hui",
        -9.02785931479162
      ],
      [
        "▁d'esprit",
        -9.027859315302239
      ],
      [
        "▁calebasse",
        -9.027859317120596
      ],
      [
        "▁croyai",
        -9.027860061069743
      ],
      [
        "▁Force",
        -9.027860390956963
      ],
      [
        "▁Waxtaan",
        -9.02786137177782
      ],
      [
        "▁tëdd",
        -9.027863421293624
      ],
      [
        "▁veulent",
        -9.027866098387122
      ],
      [
        "▁L'enfant",
        -9.027878467083525
      ],
      [
        "▁Wolof",
        -9.02787864089536
      ],
      [
        "▁suukër",
        -9.027892616315507
      ],
      [
        "▁njiit",
        -9.02791222708903
      ],
      [
        "▁peinture",
        -9.027928103374567
      ],
      [
        "▁Génn",
        -9.027975588105992
      ],
      [
        "▁chocolatée",
        -9.028088803523172
      ],
      [
        "▁tuuti",
        -9.02818553346393
      ],
      [
        "▁tasse",
        -9.02826483134753
      ],
      [
        "▁takk",
        -9.028283076477507
      ],
      [
        "▁bërëb",
        -9.028347950052833
      ],
      [
        "▁gris",
        -9.02843589143222
      ],
      [
        "▁fowu",
        -9.028514578616383
      ],
      [
        "▁sais",
        -9.028589214844379
      ],
      [
        "▁couteau",
        -9.028620327057222
      ],
      [
        "▁Tugël",
        -9.028660607310423
      ],
      [
        "bu",
        -9.0289907057515
      ],
      [
        "▁Donne",
        -9.02901906224393
      ],
      [
        "▁bopp",
        -9.029352713436777
      ],
      [
        "▁doonkoon",
        -9.029422854257955
      ],
      [
        "▁topp",
        -9.029574115707076
      ],
      [
        "▁Jënd",
        -9.030020019305496
      ],
      [
        "▁wépp",
        -9.030078993298012
      ],
      [
        "▁feeñ",
        -9.030417108733701
      ],
      [
        "▁lëf",
        -9.031058928050012
      ],
      [
        "▁taaru",
        -9.031275260080246
      ],
      [
        "▁jaar",
        -9.031470716605611
      ],
      [
        "▁autre-là",
        -9.031916712172467
      ],
      [
        "▁jënd",
        -9.032733031599703
      ],
      [
        "▁dàll",
        -9.032867519877623
      ],
      [
        "▁ng",
        -9.033670175780392
      ],
      [
        "▁bokk",
        -9.03641678073242
      ],
      [
        "▁digg",
        -9.037368492471826
      ],
      [
        "▁d'autre",
        -9.039103261630524
      ],
      [
        "▁baxa",
        -9.03940523284583
      ],
      [
        "▁feneen",
        -9.039658305644803
      ],
      [
        "▁Car",
        -9.040452446505395
      ],
      [
        "▁herbes",
        -9.041189236336
      ],
      [
        "▁retraite",
        -9.042843954351278
      ],
      [
        "▁ñaan",
        -9.043538788217454
      ],
      [
        "▁bekk",
        -9.044192795301777
      ],
      [
        "▁kaas",
        -9.046656278809875
      ],
      [
        "mu",
        -9.046757764653085
      ],
      [
        "▁Men",
        -9.04737310535144
      ],
      [
        "▁sain",
        -9.047893383073513
      ],
      [
        "▁étai",
        -9.05162719596812
      ],
      [
        "▁Nda",
        -9.052343527174692
      ],
      [
        "▁refuse",
        -9.055035002580036
      ],
      [
        "▁ñaxtu",
        -9.059960472925576
      ],
      [
        "▁Dana",
        -9.060578399639216
      ],
      [
        "vent",
        -9.061751348890008
      ],
      [
        "▁pro",
        -9.062497021525063
      ],
      [
        "▁marche",
        -9.062549111133798
      ],
      [
        "oroom",
        -9.06270513685563
      ],
      [
        "óo",
        -9.064836433423322
      ],
      [
        "▁daw",
        -9.065922793102587
      ],
      [
        "▁souhaite",
        -9.066427652329036
      ],
      [
        "▁Dan",
        -9.07033810618705
      ],
      [
        "ge",
        -9.070821755703218
      ],
      [
        "▁sokolaa.",
        -9.075156647757485
      ],
      [
        "▁Bar",
        -9.07689693073873
      ],
      [
        "i.",
        -9.077022840702554
      ],
      [
        "garder",
        -9.077315415660447
      ],
      [
        "uite",
        -9.078186456192544
      ],
      [
        "▁Dis",
        -9.080232698228578
      ],
      [
        "▁set",
        -9.08294473552464
      ],
      [
        "▁alal",
        -9.08935203482802
      ],
      [
        "-y",
        -9.090750975798668
      ],
      [
        "▁cases",
        -9.090909170757275
      ],
      [
        "qu",
        -9.092722407713119
      ],
      [
        "▁bleu",
        -9.093316784845051
      ],
      [
        "connais",
        -9.093756834755338
      ],
      [
        "▁veni",
        -9.097452572374502
      ],
      [
        "▁do",
        -9.099092860015984
      ],
      [
        "▁co",
        -9.103677470480207
      ],
      [
        "ni",
        -9.108653896343649
      ],
      [
        "éer",
        -9.110686305300433
      ],
      [
        "▁Com",
        -9.110844684493722
      ],
      [
        "▁tey",
        -9.110869414495783
      ],
      [
        "▁gaa",
        -9.112304103558014
      ],
      [
        "▁amen",
        -9.116464414144488
      ],
      [
        "▁aurai",
        -9.125169203672899
      ],
      [
        "où",
        -9.131566314384157
      ],
      [
        "▁Qu",
        -9.132463628696595
      ],
      [
        "ici",
        -9.134774825825975
      ],
      [
        "▁t'",
        -9.134939503260885
      ],
      [
        "▁Wa",
        -9.13573882789248
      ],
      [
        "▁aux",
        -9.137700862907552
      ],
      [
        "▁quelles",
        -9.13944891846589
      ],
      [
        "▁bant",
        -9.143088777071513
      ],
      [
        "bër",
        -9.143859760363705
      ],
      [
        "▁dire",
        -9.145465149520273
      ],
      [
        "▁car",
        -9.151963544358258
      ],
      [
        "ore",
        -9.155139601085402
      ],
      [
        "aay",
        -9.156586779019783
      ],
      [
        "lal",
        -9.15659152234396
      ],
      [
        "▁viens",
        -9.156704103286812
      ],
      [
        "si",
        -9.160213221302548
      ],
      [
        "▁yër",
        -9.161386721376655
      ],
      [
        "▁jooj",
        -9.164652171459375
      ],
      [
        "rain",
        -9.166649148567693
      ],
      [
        "▁individu",
        -9.16902656224147
      ],
      [
        "▁Fi",
        -9.170195894756267
      ],
      [
        "▁bë",
        -9.171666139395683
      ],
      [
        "▁Re",
        -9.17244791134568
      ],
      [
        "boo",
        -9.176101028335605
      ],
      [
        "tour",
        -9.176154551300435
      ],
      [
        "ain",
        -9.18157698087372
      ],
      [
        "▁joli",
        -9.181682266987455
      ],
      [
        "▁ñe",
        -9.182271458458981
      ],
      [
        "▁ven",
        -9.18299013682558
      ],
      [
        "▁moomu",
        -9.185386192519896
      ],
      [
        "▁cuisine",
        -9.185476166784701
      ],
      [
        "aan",
        -9.189885149000776
      ],
      [
        "ko",
        -9.192021330924241
      ],
      [
        "ral",
        -9.197162084103894
      ],
      [
        "ool",
        -9.202486792166393
      ],
      [
        "▁Ka",
        -9.202541906248149
      ],
      [
        "▁ans",
        -9.202827111997848
      ],
      [
        "▁defare",
        -9.205013299843806
      ],
      [
        "▁elles",
        -9.207733740349736
      ],
      [
        "▁livre",
        -9.212106221522832
      ],
      [
        "▁e",
        -9.219601214252062
      ],
      [
        "▁vers",
        -9.222878984740607
      ],
      [
        "▁loxo",
        -9.227759102061668
      ],
      [
        "Ç",
        -9.227859314791619
      ],
      [
        "▁bûcheron",
        -9.227859314848562
      ],
      [
        "▁auparavant",
        -9.227859315020506
      ],
      [
        "▁chaussures",
        -9.22785931505321
      ],
      [
        "▁forêt",
        -9.227859315514293
      ],
      [
        "▁ustensile",
        -9.227859315848722
      ],
      [
        "▁mosquée",
        -9.227859329497795
      ],
      [
        "▁pantalon",
        -9.227859559424047
      ],
      [
        "▁domaine",
        -9.227859560201667
      ],
      [
        "▁dehors",
        -9.227860263273673
      ],
      [
        "▁fortune",
        -9.227860265158284
      ],
      [
        "▁chapeau",
        -9.227861266744506
      ],
      [
        "▁maître",
        -9.22786154231292
      ],
      [
        "▁construction",
        -9.227861823164952
      ],
      [
        "▁xaalis",
        -9.227862657350093
      ],
      [
        "▁Moontin",
        -9.227863336222118
      ],
      [
        "▁magasin",
        -9.227869638248325
      ],
      [
        "▁xayma",
        -9.227871864843166
      ],
      [
        "▁jàkka",
        -9.227873476578965
      ],
      [
        "▁gannaaw",
        -9.227880227076389
      ],
      [
        "▁mbokk",
        -9.227890344435513
      ],
      [
        "▁champ",
        -9.227890385621128
      ],
      [
        "▁travers",
        -9.227893797204306
      ],
      [
        "▁Salut",
        -9.2279115811284
      ],
      [
        "▁këll",
        -9.227933451682315
      ],
      [
        "▁dirigeant",
        -9.227934463149252
      ],
      [
        "▁gentil",
        -9.227939313450857
      ],
      [
        "▁vieille",
        -9.227949351235782
      ],
      [
        "▁courage",
        -9.227976517874954
      ],
      [
        "▁chef",
        -9.228015727018247
      ],
      [
        "▁xëcc",
        -9.22802252427079
      ],
      [
        "▁palaat",
        -9.228023656840104
      ],
      [
        "▁tànk",
        -9.228033800761063
      ],
      [
        "▁large",
        -9.228049272260105
      ],
      [
        "▁jàppukaay",
        -9.228111496591868
      ],
      [
        "▁puj",
        -9.228111812433688
      ],
      [
        "▁jëfandikoo",
        -9.228115704982114
      ],
      [
        "▁màgg",
        -9.228116415242468
      ],
      [
        "▁parole",
        -9.228181557811444
      ],
      [
        "▁l'eau",
        -9.22818515530458
      ],
      [
        "▁grand",
        -9.228359537934654
      ],
      [
        "▁revienne",
        -9.228384340529821
      ],
      [
        "▁yéeg",
        -9.228436327753185
      ],
      [
        "▁travailleurs",
        -9.228758839031844
      ],
      [
        "▁Dañu",
        -9.229026445903967
      ],
      [
        "▁dëgg",
        -9.229101853958896
      ],
      [
        "▁kookee",
        -9.22928368059597
      ],
      [
        "▁unique",
        -9.229394874908596
      ],
      [
        "▁faut",
        -9.229414871183655
      ],
      [
        "▁ŋgoogule",
        -9.229511215294893
      ],
      [
        "▁gudd",
        -9.22977341981946
      ],
      [
        "▁plac",
        -9.229898390812263
      ],
      [
        "▁accepte",
        -9.229981565798914
      ],
      [
        "▁bomb",
        -9.23010118656841
      ],
      [
        "▁four",
        -9.230135563341301
      ],
      [
        "▁rencontrer",
        -9.230381290600091
      ],
      [
        "▁surtout",
        -9.230545751887925
      ],
      [
        "▁Néeg",
        -9.230626045233084
      ],
      [
        "▁donc",
        -9.231395031133616
      ],
      [
        "▁nuit",
        -9.232031205716503
      ],
      [
        "▁bâtons",
        -9.232466224169087
      ],
      [
        "▁viennent",
        -9.232682436515747
      ],
      [
        "▁Foo",
        -9.232789688871593
      ],
      [
        "▁kafe",
        -9.232957464734438
      ],
      [
        "googule",
        -9.233028207723338
      ],
      [
        "▁tub",
        -9.233040182350587
      ],
      [
        "▁yëf",
        -9.233295869911446
      ],
      [
        "▁xoolee",
        -9.233874383142902
      ],
      [
        "▁reconnu",
        -9.23415338588336
      ],
      [
        "▁c'était",
        -9.234559023313517
      ],
      [
        "▁See",
        -9.234830543127362
      ],
      [
        "▁jaam",
        -9.235852658115192
      ],
      [
        "▁jar",
        -9.236410181409651
      ],
      [
        "▁dessiné",
        -9.236858884070973
      ],
      [
        "▁l'entoure",
        -9.23712288684359
      ],
      [
        "▁n'étai",
        -9.237977259957779
      ],
      [
        "▁comprend",
        -9.238239928575638
      ],
      [
        "▁fenn",
        -9.239019526443998
      ],
      [
        "rends",
        -9.23945771803752
      ],
      [
        "▁war",
        -9.240989415300396
      ],
      [
        "▁entra",
        -9.24110920686313
      ],
      [
        "▁ubbi",
        -9.243346326186968
      ],
      [
        "▁naan",
        -9.244026381061284
      ],
      [
        "▁prend",
        -9.245571453729765
      ],
      [
        "t.",
        -9.245678091120315
      ],
      [
        "▁eusse",
        -9.246229261855271
      ],
      [
        "▁Sama",
        -9.247097936389903
      ],
      [
        "▁D'",
        -9.248062199828444
      ],
      [
        "▁n'en",
        -9.249196910567507
      ],
      [
        "▁face",
        -9.24993556254543
      ],
      [
        "▁joge",
        -9.25098484178437
      ],
      [
        "F",
        -9.251313757924816
      ],
      [
        "▁conten",
        -9.251494612727464
      ],
      [
        "vait",
        -9.25164468211274
      ],
      [
        "▁bir",
        -9.251805892643194
      ],
      [
        "▁affaire",
        -9.25272719987007
      ],
      [
        "▁jàpp",
        -9.255978835462098
      ],
      [
        "▁d'il",
        -9.256438932736087
      ],
      [
        "▁dina",
        -9.258595836957559
      ],
      [
        "▁xew",
        -9.25905635889606
      ],
      [
        "'en",
        -9.25906938908931
      ],
      [
        "spère",
        -9.25928365981204
      ],
      [
        "kóon",
        -9.259471278793525
      ],
      [
        "▁côté",
        -9.261293874940517
      ],
      [
        "▁panier",
        -9.263221035754905
      ],
      [
        "iens",
        -9.264315668625908
      ],
      [
        "▁xo",
        -9.264407522851897
      ],
      [
        "▁Xa",
        -9.269793134446884
      ],
      [
        "▁vertes",
        -9.270083637027897
      ],
      [
        "▁deey",
        -9.270604228842043
      ],
      [
        "▁kee",
        -9.274772663271897
      ],
      [
        "▁Nu",
        -9.275583937564875
      ],
      [
        "▁mes",
        -9.281027643145542
      ],
      [
        "wul",
        -9.281193913759681
      ],
      [
        "-il",
        -9.281217304149902
      ],
      [
        "▁ñibbi",
        -9.282219788499944
      ],
      [
        "▁fam",
        -9.283595602924752
      ],
      [
        "▁ser",
        -9.284113651036417
      ],
      [
        "▁bleus",
        -9.284802635879354
      ],
      [
        "▁kookuu",
        -9.288660330107614
      ],
      [
        "▁yé",
        -9.290003415778635
      ],
      [
        "▁san",
        -9.293711955568062
      ],
      [
        "▁defaree",
        -9.293781870665205
      ],
      [
        "ku",
        -9.294028443565214
      ],
      [
        "▁n'as",
        -9.29407240241202
      ],
      [
        "▁lakk",
        -9.29902593189304
      ],
      [
        "▁jeunes",
        -9.300602353730625
      ],
      [
        "wal",
        -9.301800142616058
      ],
      [
        "▁loo",
        -9.304085868039202
      ],
      [
        "yu",
        -9.304803349637734
      ],
      [
        "▁soi",
        -9.308089967592588
      ],
      [
        "▁cont",
        -9.312048646268725
      ],
      [
        "nd",
        -9.313025276501982
      ],
      [
        "tout",
        -9.320099798785664
      ],
      [
        "aar",
        -9.320275870461376
      ],
      [
        "àkk",
        -9.322117489164565
      ],
      [
        "▁beg",
        -9.322480537149204
      ],
      [
        "▁H",
        -9.32489841858846
      ],
      [
        "▁Bii",
        -9.325944221105955
      ],
      [
        "▁cas",
        -9.327396495618402
      ],
      [
        "▁Cha",
        -9.32882095454945
      ],
      [
        "ka",
        -9.330312836629767
      ],
      [
        "▁lesquel",
        -9.33136804850626
      ],
      [
        "▁duñ",
        -9.331368812747934
      ],
      [
        "ã",
        -9.333474938209985
      ],
      [
        "▁Toute",
        -9.333667528365794
      ],
      [
        "nu",
        -9.337971970674737
      ],
      [
        "appelles",
        -9.33826965238767
      ],
      [
        "ût",
        -9.342486501172829
      ],
      [
        "▁yar",
        -9.344620363205575
      ],
      [
        "taal",
        -9.350033545250968
      ],
      [
        "▁chambres",
        -9.350624825152469
      ],
      [
        "▁fan",
        -9.356966401540914
      ],
      [
        "▁noire",
        -9.361132336945355
      ],
      [
        "aller",
        -9.364847069247842
      ],
      [
        "▁nge",
        -9.367226755496944
      ],
      [
        "▁xa",
        -9.367469634840111
      ],
      [
        "mbaa",
        -9.368550640616762
      ],
      [
        "vant",
        -9.369671436666758
      ],
      [
        "ti",
        -9.370286644464795
      ],
      [
        "▁r",
        -9.376985660261028
      ],
      [
        "us",
        -9.377447314217429
      ],
      [
        "▁plu",
        -9.387208227363448
      ],
      [
        "▁nag.",
        -9.389149320261026
      ],
      [
        "▁étalé",
        -9.3895484387576
      ],
      [
        "▁Au",
        -9.392524002482315
      ],
      [
        "nañu",
        -9.392731138380892
      ],
      [
        "▁Waxa",
        -9.392865320486338
      ],
      [
        "me",
        -9.393530763428018
      ],
      [
        "▁jee",
        -9.397874557997389
      ],
      [
        "mar",
        -9.399366610713136
      ],
      [
        "▁Xo",
        -9.401156767600742
      ],
      [
        "▁Waxu",
        -9.407924019756502
      ],
      [
        "té",
        -9.408340575178704
      ],
      [
        "▁bel",
        -9.412790555922452
      ],
      [
        "▁été.",
        -9.416201927499001
      ],
      [
        "▁gendarme",
        -9.416769232508122
      ],
      [
        "ection",
        -9.417304980429194
      ],
      [
        "▁to",
        -9.417358662377078
      ],
      [
        "▁sou",
        -9.420982980795408
      ],
      [
        "▁président",
        -9.424494733157815
      ],
      [
        "A",
        -9.425586156165373
      ],
      [
        "appartien",
        -9.426147845410153
      ],
      [
        "kaay",
        -9.429011806460025
      ],
      [
        "▁conçu",
        -9.431465792250036
      ],
      [
        "▁chocolat",
        -9.435089790787703
      ],
      [
        "ouche",
        -9.435109771330296
      ],
      [
        "▁ndugg",
        -9.437055912915152
      ],
      [
        "▁Bul",
        -9.437105272046121
      ],
      [
        "▁men",
        -9.438092414488509
      ],
      [
        "ement",
        -9.43851610108802
      ],
      [
        "qu'un",
        -9.438792324795369
      ],
      [
        "▁Ŋg",
        -9.440125288155834
      ],
      [
        "▁mort",
        -9.440778271701756
      ],
      [
        "▁partie",
        -9.441978994140678
      ],
      [
        "▁mbe",
        -9.450294005259813
      ],
      [
        "▁bo",
        -9.450995276892098
      ],
      [
        "▁ñaa",
        -9.452024268175466
      ],
      [
        "▁jàmm",
        -9.45243936751031
      ],
      [
        "▁lekk",
        -9.452569789995943
      ],
      [
        "ille",
        -9.455855835147691
      ],
      [
        "waaw",
        -9.456039970298276
      ],
      [
        "▁xool",
        -9.458379626225636
      ],
      [
        "▁Ñaa",
        -9.459908096959968
      ],
      [
        "mis",
        -9.460859801109777
      ],
      [
        "▁jog",
        -9.464802853723956
      ],
      [
        "▁marché",
        -9.465291522764266
      ],
      [
        "▁dóo",
        -9.466155345650447
      ],
      [
        "▁Ch",
        -9.469365997774903
      ],
      [
        "▁neñ",
        -9.472170610819127
      ],
      [
        "autrefois",
        -9.473778724982932
      ],
      [
        "▁Ng",
        -9.474587170491763
      ],
      [
        "▁révolte",
        -9.476025349857574
      ],
      [
        "▁Qu'",
        -9.476708536483818
      ],
      [
        "▁J'es",
        -9.47751114481337
      ],
      [
        "2",
        -9.477812750773108
      ],
      [
        "…",
        -9.477859314791619
      ],
      [
        "»",
        -9.477859314791619
      ],
      [
        "«",
        -9.477859314791619
      ],
      [
        "▁apparaissent",
        -9.477859323143106
      ],
      [
        "▁Au-dessus",
        -9.477859330296546
      ],
      [
        "▁habituellement",
        -9.477859476392354
      ],
      [
        "▁gëléem",
        -9.477859500924678
      ],
      [
        "▁baobab",
        -9.477859538899478
      ],
      [
        "▁gazelle",
        -9.47785958531609
      ],
      [
        "▁chèvres",
        -9.47785979915267
      ],
      [
        "▁Ñëw",
        -9.477860070786459
      ],
      [
        "▁brave",
        -9.477860321684519
      ],
      [
        "▁appelé",
        -9.477860345810836
      ],
      [
        "▁Birayim",
        -9.477860393950445
      ],
      [
        "▁Louga",
        -9.477860399762875
      ],
      [
        "▁prêt",
        -9.477860603601123
      ],
      [
        "▁semaine",
        -9.477861422339252
      ],
      [
        "▁toilettes",
        -9.477863179480815
      ],
      [
        "▁njege",
        -9.477863799063014
      ],
      [
        "▁yànj",
        -9.47786392462242
      ],
      [
        "▁Njiit",
        -9.477864835660784
      ],
      [
        "▁Macron",
        -9.477865876239305
      ],
      [
        "▁zinc",
        -9.477866927662177
      ],
      [
        "▁sàmm",
        -9.47786922628772
      ],
      [
        "▁Alfa",
        -9.477870413157326
      ],
      [
        "▁ayubes",
        -9.477872773988075
      ],
      [
        "▁rideau",
        -9.47787671825344
      ],
      [
        "▁besoin",
        -9.477876724119126
      ],
      [
        "▁sûr",
        -9.477878523929482
      ],
      [
        "▁certainement",
        -9.477878710540407
      ],
      [
        "▁jamono",
        -9.477882168140347
      ],
      [
        "▁ndanka",
        -9.47788442814675
      ],
      [
        "▁chameau",
        -9.47788600170566
      ],
      [
        "▁ëlëk",
        -9.477912748397893
      ],
      [
        "▁Agsil",
        -9.477929972577428
      ],
      [
        "▁waxtaan",
        -9.477965565217765
      ],
      [
        "▁Yaakaar",
        -9.477971896632738
      ],
      [
        "▁xamantane",
        -9.478001369940468
      ],
      [
        "▁d'arbres",
        -9.478003029831434
      ],
      [
        "▁dencukaay",
        -9.478005093935165
      ],
      [
        "▁Qu'est-ce",
        -9.47804168808977
      ],
      [
        "▁trop",
        -9.478077211731009
      ],
      [
        "▁rayon",
        -9.478090026075314
      ],
      [
        "▁NGo",
        -9.478127367688776
      ],
      [
        "▁d'entre",
        -9.478181453779667
      ],
      [
        "▁bãŋ",
        -9.47823142030149
      ],
      [
        "▁outil",
        -9.47823441684914
      ],
      [
        "▁làmp",
        -9.47824374900839
      ],
      [
        "▁Luga",
        -9.478258038305281
      ],
      [
        "▁Gaynd",
        -9.478286599855164
      ],
      [
        "▁Demuloo",
        -9.478300408694626
      ],
      [
        "▁soirée",
        -9.478473301418203
      ],
      [
        "▁alors",
        -9.478549187389257
      ],
      [
        "▁bras",
        -9.478665237912884
      ],
      [
        "▁weñ",
        -9.478677946668629
      ],
      [
        "▁s'i",
        -9.478694106143427
      ],
      [
        "lève",
        -9.478697889975365
      ],
      [
        "▁tête",
        -9.47878653799421
      ],
      [
        "▁fond",
        -9.478894403574184
      ],
      [
        "▁Pour",
        -9.478989680278694
      ],
      [
        "▁ensemble",
        -9.479087632436016
      ],
      [
        "▁matinée",
        -9.479134041057552
      ],
      [
        "C",
        -9.479338719099083
      ],
      [
        "▁Demuma",
        -9.47952526056093
      ],
      [
        "',",
        -9.479538365506839
      ],
      [
        "▁dagg",
        -9.479550097175355
      ],
      [
        "▁té",
        -9.4795669222725
      ],
      [
        "▁douche",
        -9.479608433587861
      ],
      [
        "éy",
        -9.479938266326634
      ],
      [
        "▁long",
        -9.480227493613482
      ],
      [
        "▁bày",
        -9.480357060873363
      ],
      [
        "▁Demkoon",
        -9.480865958603971
      ],
      [
        "▁nuru",
        -9.480899785164983
      ],
      [
        "▁donne",
        -9.48096399832197
      ],
      [
        "▁naqar",
        -9.481101066313876
      ],
      [
        "▁Tann",
        -9.48113795380192
      ],
      [
        "▁Ñooñu",
        -9.481302552614387
      ],
      [
        "▁kookale",
        -9.481316584212852
      ],
      [
        "▁passé",
        -9.481530850550623
      ],
      [
        "▁ñor",
        -9.481623705340837
      ],
      [
        "el",
        -9.481680488813574
      ],
      [
        "▁Ver",
        -9.48173217958872
      ],
      [
        "oŋ",
        -9.481778747832129
      ],
      [
        "▁wert",
        -9.48192841812026
      ],
      [
        "▁mbaxana",
        -9.482075863191803
      ],
      [
        "▁clé",
        -9.482609750647455
      ],
      [
        "mp",
        -9.482614517462002
      ],
      [
        "▁serais",
        -9.482887236026516
      ],
      [
        "▁wone",
        -9.483034934900603
      ],
      [
        "▁baŋ",
        -9.483107470822667
      ],
      [
        "▁d'ici",
        -9.483485786188366
      ],
      [
        "▁sopp",
        -9.48353305722389
      ],
      [
        "ois",
        -9.48385921612261
      ],
      [
        "hacun",
        -9.484156826891017
      ],
      [
        "▁fe",
        -9.484627233838037
      ],
      [
        "▁marchent",
        -9.484670459655403
      ],
      [
        "▁d'habitude",
        -9.485097741868811
      ],
      [
        "▁Cependant",
        -9.485401619538095
      ],
      [
        "▁voulu",
        -9.486063287298668
      ],
      [
        "abond",
        -9.488696291185176
      ],
      [
        "hoisi",
        -9.488709332484655
      ],
      [
        "▁sox",
        -9.488944924704276
      ],
      [
        "▁Ni",
        -9.489067179793523
      ],
      [
        "▁per",
        -9.489145187989305
      ],
      [
        "▁darab",
        -9.489927494680135
      ],
      [
        "▁Aw",
        -9.490088466420106
      ],
      [
        "▁suba",
        -9.490232773520308
      ],
      [
        "▁soldats",
        -9.4913041181154
      ],
      [
        "▁nom",
        -9.49191692228842
      ],
      [
        "▁parents",
        -9.492849548870979
      ],
      [
        "ersonne",
        -9.492970965617003
      ],
      [
        "▁policiers",
        -9.493050184884911
      ],
      [
        "▁Yee",
        -9.493632101328636
      ],
      [
        "▁juste",
        -9.494343077207642
      ],
      [
        "▁indi",
        -9.495406296275423
      ],
      [
        "▁wetam",
        -9.495520827202224
      ],
      [
        "▁mat",
        -9.495586356035716
      ],
      [
        "Après",
        -9.495854201096975
      ],
      [
        "▁doi",
        -9.49692649163652
      ],
      [
        "▁sàndarm",
        -9.497127775296452
      ],
      [
        "ui",
        -9.497893043220795
      ],
      [
        "▁cons",
        -9.498052838271942
      ],
      [
        "qui",
        -9.49853211679363
      ],
      [
        "▁livres",
        -9.49874806396836
      ],
      [
        "▁dois",
        -9.500363885194272
      ],
      [
        "oppal",
        -9.501259379897602
      ],
      [
        "▁d'herbes",
        -9.502667829363155
      ],
      [
        "▁J'e",
        -9.50369619819406
      ],
      [
        "▁kooka",
        -9.503819600013323
      ],
      [
        "ailleurs",
        -9.503943081643452
      ],
      [
        "▁partent",
        -9.507819800429916
      ],
      [
        "▁verra",
        -9.508518323763512
      ],
      [
        "▁demuñu",
        -9.509862967922109
      ],
      [
        "▁confie",
        -9.510235133290678
      ],
      [
        "▁n'ira",
        -9.510407523443304
      ],
      [
        "▁pu",
        -9.510455683400977
      ],
      [
        "▁peinte",
        -9.512305519690054
      ],
      [
        "▁batt",
        -9.513376060948303
      ],
      [
        "tal",
        -9.515269476556345
      ],
      [
        "▁aime",
        -9.515449127974836
      ],
      [
        "▁Ceux-",
        -9.519323885633634
      ],
      [
        "▁bancs",
        -9.52033017360722
      ],
      [
        "▁guy",
        -9.520828044633141
      ],
      [
        "▁Ña",
        -9.521011660893587
      ],
      [
        "cc",
        -9.521015815619087
      ],
      [
        "▁chocolat.",
        -9.522151917191827
      ],
      [
        "▁pr",
        -9.522308263656592
      ],
      [
        "faites",
        -9.522797299841988
      ],
      [
        "▁gisu",
        -9.52291527951546
      ],
      [
        "▁foo",
        -9.523142744409213
      ],
      [
        "▁Jo",
        -9.523443393508392
      ],
      [
        "'y",
        -9.524538093481166
      ],
      [
        "rent",
        -9.524762601259372
      ],
      [
        "▁lim",
        -9.527140199005451
      ],
      [
        "▁demain",
        -9.529771560743646
      ],
      [
        "▁yeux",
        -9.529889175069492
      ],
      [
        "▁Nil",
        -9.530004971701214
      ],
      [
        "▁nd",
        -9.532504048012385
      ],
      [
        "▁daje",
        -9.533021212868029
      ],
      [
        "▁danga",
        -9.533485465093726
      ],
      [
        "▁att",
        -9.53365870404265
      ],
      [
        "▁Da",
        -9.535488765101908
      ],
      [
        "▁Combi",
        -9.537560140287686
      ],
      [
        "▁allez",
        -9.538112687922453
      ],
      [
        "'av",
        -9.538158174030755
      ],
      [
        "▁trait",
        -9.539391357630445
      ],
      [
        "▁jours",
        -9.539577224926447
      ],
      [
        "▁prot",
        -9.541603748301188
      ],
      [
        "▁fer",
        -9.541826257230605
      ],
      [
        "▁Celui",
        -9.544739169477015
      ],
      [
        "▁fo",
        -9.546520208889449
      ],
      [
        "▁yaay",
        -9.550583233066275
      ],
      [
        "é.",
        -9.552149371931785
      ],
      [
        "▁Dina",
        -9.552342260436287
      ],
      [
        "▁naŋg",
        -9.553625467596863
      ],
      [
        "▁Ai",
        -9.554636765315568
      ],
      [
        "▁US",
        -9.559217866424818
      ],
      [
        "aat",
        -9.559630553473138
      ],
      [
        "des",
        -9.563141559163876
      ],
      [
        "▁faite",
        -9.567678025563447
      ],
      [
        "ga",
        -9.568315190610818
      ],
      [
        "able",
        -9.568688262172238
      ],
      [
        "▁doo",
        -9.569768624026263
      ],
      [
        "▁toogu",
        -9.571748170420385
      ],
      [
        "▁utilise",
        -9.57193815603729
      ],
      [
        "t-il",
        -9.577111378098001
      ],
      [
        "ages",
        -9.577643709930658
      ],
      [
        "ante",
        -9.579817934494105
      ],
      [
        "▁Go",
        -9.581486618595449
      ],
      [
        "part",
        -9.584225808629228
      ],
      [
        "▁arrive",
        -9.58665686030119
      ],
      [
        "▁demb",
        -9.587245308990537
      ],
      [
        "aka",
        -9.587503483899576
      ],
      [
        "▁fro",
        -9.590068405956366
      ],
      [
        "▁ens",
        -9.595107454256999
      ],
      [
        "▁liggéeye",
        -9.59764643537664
      ],
      [
        "▁bleue",
        -9.59988083891269
      ],
      [
        "▁vi",
        -9.604024929456832
      ],
      [
        "at",
        -9.604429291230439
      ],
      [
        "▁fui",
        -9.60520906001674
      ],
      [
        "maa",
        -9.60539466076882
      ],
      [
        "ache",
        -9.606780885070027
      ],
      [
        "▁Liggéey",
        -9.607470292124692
      ],
      [
        "La",
        -9.608112004046653
      ],
      [
        "▁lawoon",
        -9.609399973348026
      ],
      [
        "▁d'a",
        -9.611536031303594
      ],
      [
        "▁choses",
        -9.612222909779264
      ],
      [
        "du",
        -9.612255419773598
      ],
      [
        "▁forme",
        -9.613144748368654
      ],
      [
        "onne",
        -9.613375514401222
      ],
      [
        "ŋgeen",
        -9.623860784560682
      ],
      [
        "kub",
        -9.624514286697389
      ],
      [
        "▁Ngo",
        -9.62711479329294
      ],
      [
        "▁fee",
        -9.627206907575653
      ],
      [
        "▁gà",
        -9.63384040076177
      ],
      [
        "▁pl",
        -9.635666981130694
      ],
      [
        "▁ex",
        -9.636902241016651
      ],
      [
        "▁bee",
        -9.640685222887656
      ],
      [
        "▁taa",
        -9.642306715607495
      ],
      [
        "oto",
        -9.64513813856628
      ],
      [
        "▁maye",
        -9.64782823713061
      ],
      [
        "rëb",
        -9.649250538681311
      ],
      [
        "▁Bë",
        -9.651065703437235
      ],
      [
        "▁mise",
        -9.65199190196655
      ],
      [
        "▁parl",
        -9.652878053031008
      ],
      [
        "ité",
        -9.654121044164695
      ],
      [
        "▁point",
        -9.65766062986595
      ],
      [
        "▁mar",
        -9.66059186384633
      ],
      [
        "yee",
        -9.661739061627822
      ],
      [
        "ssent",
        -9.661827989012503
      ],
      [
        "▁Noo",
        -9.664165690296105
      ],
      [
        "ulëer",
        -9.67532386929626
      ],
      [
        "J",
        -9.67624165689088
      ],
      [
        "daamar",
        -9.677686164379189
      ],
      [
        "▁s'ag",
        -9.680598633765062
      ],
      [
        "uis",
        -9.680619835279124
      ],
      [
        "▁ndo",
        -9.682208741873534
      ],
      [
        "je",
        -9.68507993154683
      ],
      [
        "là",
        -9.691572496390863
      ],
      [
        "jà",
        -9.693091862181477
      ],
      [
        "▁nëw",
        -9.695824171167148
      ],
      [
        "ez-",
        -9.695908308953689
      ],
      [
        "ente",
        -9.699217971245588
      ],
      [
        "▁dis",
        -9.703552788381241
      ],
      [
        "ër",
        -9.704968784728681
      ],
      [
        "ó",
        -9.705173075725012
      ],
      [
        "▁sée",
        -9.707066451014022
      ],
      [
        "rrière",
        -9.714303201291184
      ],
      [
        "ques",
        -9.717288622353955
      ],
      [
        "▁clair",
        -9.721803032661107
      ],
      [
        "▁cha",
        -9.722032008187213
      ],
      [
        "▁Aa",
        -9.724493370732807
      ],
      [
        "▁l'o",
        -9.73095367425623
      ],
      [
        "▁goo",
        -9.734762222934554
      ],
      [
        "iggéeykat",
        -9.735488838841583
      ],
      [
        "▁vou",
        -9.736714209191682
      ],
      [
        "nement",
        -9.738631465041808
      ],
      [
        "▁taxu",
        -9.741486058834793
      ],
      [
        "▁wo",
        -9.743581972361673
      ],
      [
        "ñoo",
        -9.743740698588166
      ],
      [
        "mes",
        -9.74568288063633
      ],
      [
        "ii",
        -9.746171337895527
      ],
      [
        "dd",
        -9.747325912720992
      ],
      [
        "▁Die",
        -9.750288623940799
      ],
      [
        "▁puis",
        -9.758808318752271
      ],
      [
        "▁connaiss",
        -9.759396727448731
      ],
      [
        "▁exc",
        -9.761072379726203
      ],
      [
        "▁banc",
        -9.765723786847047
      ],
      [
        "kki",
        -9.766168570801291
      ],
      [
        "age",
        -9.766915722491952
      ],
      [
        "tion",
        -9.767044161245671
      ],
      [
        "▁voici",
        -9.767221507127815
      ],
      [
        "q",
        -9.769473042772232
      ],
      [
        "ar.",
        -9.770167027680401
      ],
      [
        "tant",
        -9.772309359694516
      ],
      [
        "fi",
        -9.773711281157954
      ],
      [
        "▁fleur",
        -9.777214738519515
      ],
      [
        "▁d'herbe",
        -9.777727733535167
      ],
      [
        "ici.",
        -9.77900010366404
      ],
      [
        "▁sii",
        -9.779613075178647
      ],
      [
        "nit",
        -9.780094302771019
      ],
      [
        "ange",
        -9.782015906931887
      ],
      [
        "▁n'e",
        -9.782380100371576
      ],
      [
        "ile",
        -9.785423740694716
      ],
      [
        "▁tegal",
        -9.786310729176815
      ],
      [
        "roo",
        -9.787074682880148
      ],
      [
        "▁bay",
        -9.787780699101608
      ],
      [
        "nte",
        -9.78940998932159
      ],
      [
        "▁ë",
        -9.7912077437617
      ],
      [
        "▁nopp",
        -9.791409464231087
      ],
      [
        "arab",
        -9.792351655825968
      ],
      [
        "▁Yooy",
        -9.79638425568223
      ],
      [
        "▁somme",
        -9.800458610648718
      ],
      [
        "▁kë",
        -9.801846948190223
      ],
      [
        "▁mbu",
        -9.803449093247014
      ],
      [
        "▁Gisu",
        -9.804809463681341
      ],
      [
        "'est-à-dire",
        -9.80689044868967
      ],
      [
        "euse",
        -9.8069001156722
      ],
      [
        "llez",
        -9.807796241324613
      ],
      [
        "onfie",
        -9.808481351917719
      ],
      [
        "ëkku",
        -9.81010834302188
      ],
      [
        "▁ŋgoogu",
        -9.810660478048844
      ],
      [
        "▁climatiseurs",
        -9.811192648085372
      ],
      [
        "▁véhicule",
        -9.811192648094751
      ],
      [
        "▁l'extérieur",
        -9.811192648099894
      ],
      [
        "▁superposé",
        -9.811192650328518
      ],
      [
        "▁couvercle",
        -9.811192655007167
      ],
      [
        "▁écrivent",
        -9.81119265893704
      ],
      [
        "histoire",
        -9.811192673407817
      ],
      [
        "▁Radiyasi",
        -9.811192674897217
      ],
      [
        "▁couscous",
        -9.811192729230344
      ],
      [
        "▁alkaati",
        -9.811192731001112
      ],
      [
        "▁messager",
        -9.811192813461275
      ],
      [
        "féexal",
        -9.811192814960048
      ],
      [
        "▁rëdd",
        -9.811192816282254
      ],
      [
        "▁attaché",
        -9.811192868287431
      ],
      [
        "▁Faranse",
        -9.81119299472307
      ],
      [
        "▁jawwu",
        -9.811193197769507
      ],
      [
        "▁cultive",
        -9.811193258678108
      ],
      [
        "▁karaaf",
        -9.811193271759848
      ],
      [
        "▁mboq",
        -9.811193291024548
      ],
      [
        "▁feuilles",
        -9.81119475702584
      ],
      [
        "▁totaux",
        -9.811195061493704
      ],
      [
        "▁meilleur",
        -9.811195674903335
      ],
      [
        "▁nombre",
        -9.811195694198783
      ],
      [
        "▁beurre",
        -9.811198731777633
      ],
      [
        "▁taariix",
        -9.811200035151137
      ],
      [
        "▁Certaine",
        -9.811200825646914
      ],
      [
        "▁mûr",
        -9.811201617178355
      ],
      [
        "▁instant",
        -9.811204005472515
      ],
      [
        "▁xadde",
        -9.811204537913376
      ],
      [
        "▁carafe",
        -9.811207993539533
      ],
      [
        "▁lutteur",
        -9.811210930826688
      ],
      [
        "▁colère",
        -9.811218736642692
      ],
      [
        "▁Kaasamaas",
        -9.811219883472713
      ],
      [
        "▁couvr",
        -9.811219930208676
      ],
      [
        "▁sotti",
        -9.811227883777558
      ],
      [
        "▁adulte",
        -9.81123419918885
      ],
      [
        "▁couvert",
        -9.811236900766255
      ],
      [
        "▁termin",
        -9.811238168577635
      ],
      [
        "▁plaît",
        -9.811243469192725
      ],
      [
        "▁Solda",
        -9.811244600528633
      ],
      [
        "▁bahut",
        -9.811248601808579
      ],
      [
        "▁kéwël",
        -9.811263341882741
      ],
      [
        "▁saŋx",
        -9.811268073301532
      ],
      [
        "▁gros",
        -9.811304879713633
      ],
      [
        "▁batã",
        -9.811317311091514
      ],
      [
        "▁siège",
        -9.811330212548704
      ],
      [
        "▁cinq",
        -9.811347358479763
      ],
      [
        "▁Sëri",
        -9.811358895806473
      ],
      [
        "ëcc",
        -9.811411958634029
      ],
      [
        "▁taabal",
        -9.811429205618339
      ],
      [
        "▁Peul",
        -9.811449725830911
      ],
      [
        "▁l'imp",
        -9.81146916940423
      ],
      [
        "▁paresseu",
        -9.81147617174435
      ],
      [
        "▁jabar",
        -9.811487384976406
      ],
      [
        "▁caisse",
        -9.811506268963457
      ],
      [
        "▁fâch",
        -9.81151272422245
      ],
      [
        "▁dikkul",
        -9.811566448545229
      ],
      [
        "▁l'argent",
        -9.811582903876333
      ],
      [
        "▁Laisse",
        -9.811588125458812
      ],
      [
        "▁sauce",
        -9.811608134558625
      ],
      [
        "▁l'herbe",
        -9.811629390073794
      ],
      [
        "▁riz",
        -9.811658965940504
      ],
      [
        "▁Autre",
        -9.811683098462954
      ],
      [
        "▁bouge",
        -9.811740562527044
      ],
      [
        "▁L'autre",
        -9.811750230622732
      ],
      [
        "▁tàngal",
        -9.811769514397827
      ],
      [
        "▁l'argile",
        -9.811826894698214
      ],
      [
        "ñëw",
        -9.811892718495278
      ],
      [
        "▁vérité",
        -9.81190566251891
      ],
      [
        "▁gauche",
        -9.811909885341748
      ],
      [
        "▁tëj",
        -9.81207687151403
      ],
      [
        "▁dimbali",
        -9.812114825496828
      ],
      [
        "heureuse",
        -9.812180977206818
      ],
      [
        "▁anglais",
        -9.812244956156315
      ],
      [
        "▁Dugg",
        -9.81234482077611
      ],
      [
        "▁rose",
        -9.812361114937925
      ],
      [
        "arloo",
        -9.812533880478375
      ],
      [
        "▁ñeex",
        -9.812731901918903
      ],
      [
        "▁masque",
        -9.812936961395579
      ],
      [
        "▁coup",
        -9.81294550196958
      ],
      [
        "▁Jën",
        -9.813071380327628
      ],
      [
        "▁raison",
        -9.813144237319428
      ],
      [
        "▁manger",
        -9.813166164837032
      ],
      [
        "▁wàll",
        -9.813193980318182
      ],
      [
        "▁veuille",
        -9.813201958686042
      ],
      [
        "-je",
        -9.81325972874437
      ],
      [
        "▁enfant-là",
        -9.8135328306295
      ],
      [
        "▁reç",
        -9.813550633030594
      ],
      [
        "▁Sàll",
        -9.813732988594769
      ],
      [
        "▁yaram",
        -9.81384814048707
      ],
      [
        "ommé",
        -9.81386124612047
      ],
      [
        "▁n'import",
        -9.814302937180003
      ],
      [
        "▁taille",
        -9.81443832450804
      ],
      [
        "▁monté",
        -9.814919905130234
      ],
      [
        "▁Sall",
        -9.81532727763168
      ],
      [
        "▁jouent",
        -9.815500314659404
      ],
      [
        "▁c'est-à-dire",
        -9.815513213966588
      ],
      [
        "▁général",
        -9.81587369260363
      ],
      [
        "▁melo",
        -9.81595429771312
      ],
      [
        "▁l'appelle",
        -9.816057469651092
      ],
      [
        "▁ceux-ci",
        -9.81625002578977
      ],
      [
        "▁jàll",
        -9.816262546086444
      ],
      [
        "ifique",
        -9.816681110259788
      ],
      [
        "▁wóo",
        -9.816744177618475
      ],
      [
        "jet",
        -9.816910884575005
      ],
      [
        "▁dents",
        -9.817009135477925
      ],
      [
        "foncé",
        -9.81725374708401
      ],
      [
        "awbe",
        -9.817536505074404
      ],
      [
        "▁crain",
        -9.817558260116773
      ],
      [
        "▁concert",
        -9.81755866281946
      ],
      [
        "▁d'eux",
        -9.817962541823734
      ],
      [
        "▁ra",
        -9.818023444468889
      ],
      [
        "▁genre",
        -9.81815370641334
      ],
      [
        "▁gardé",
        -9.819643918493963
      ],
      [
        "▁woowe",
        -9.819679542284353
      ],
      [
        "▁jooy",
        -9.820055644740798
      ],
      [
        "▁cuit",
        -9.820472234478466
      ],
      [
        "▁soow",
        -9.820659958039819
      ],
      [
        "rage",
        -9.821671409574236
      ],
      [
        "▁plats",
        -9.821873093999173
      ],
      [
        "▁bonul",
        -9.82199272501791
      ],
      [
        "▁Abal",
        -9.821997966859144
      ],
      [
        "▁Ah",
        -9.822350943861304
      ],
      [
        "▁tentes",
        -9.82238988537664
      ],
      [
        "▁homme-ci",
        -9.823304664449509
      ],
      [
        "▁d'ar",
        -9.823955354010756
      ],
      [
        "▁ñooñ",
        -9.824596447122495
      ],
      [
        "▁Deg",
        -9.82475330732986
      ],
      [
        "ôt",
        -9.825004017069153
      ],
      [
        "▁ñeent",
        -9.825351940158994
      ],
      [
        "yi",
        -9.825474253017934
      ],
      [
        "aison",
        -9.826015274815326
      ],
      [
        "▁Wall",
        -9.826032321394637
      ],
      [
        "▁Celle",
        -9.826912135797997
      ],
      [
        "▁travailler",
        -9.827159881205997
      ],
      [
        "▁Yooyu",
        -9.827242754318414
      ],
      [
        "▁s'échappe",
        -9.827272290913923
      ],
      [
        "▁Jël",
        -9.827692974219602
      ],
      [
        "▁mêmes",
        -9.828287736031205
      ],
      [
        "kke",
        -9.828454037511802
      ],
      [
        "▁suuk",
        -9.828661771878792
      ],
      [
        "▁drapeau",
        -9.829422112383519
      ],
      [
        "▁naat",
        -9.829521235252933
      ],
      [
        "▁voya",
        -9.829678050468138
      ],
      [
        "ts.",
        -9.830731769006208
      ],
      [
        "▁xeet",
        -9.831592147324411
      ],
      [
        "▁Mac",
        -9.831691591230198
      ],
      [
        "veille",
        -9.832240897966187
      ],
      [
        "▁courses",
        -9.832996281016074
      ],
      [
        "moon",
        -9.8330225333414
      ],
      [
        "▁sànn",
        -9.833122766132043
      ],
      [
        "▁pré",
        -9.83329501616745
      ],
      [
        "▁Salaa",
        -9.83330632503425
      ],
      [
        "laire",
        -9.83432305409574
      ],
      [
        "▁mét",
        -9.83456231958596
      ],
      [
        "è",
        -9.835074718497502
      ],
      [
        "▁cuisiner",
        -9.835588407919154
      ],
      [
        "▁fenêtres",
        -9.836348734952029
      ],
      [
        "pace",
        -9.836442296378069
      ],
      [
        "▁objets",
        -9.83672055636157
      ],
      [
        "▁jour.",
        -9.837393654583968
      ],
      [
        "▁yaru",
        -9.838203005736117
      ],
      [
        "▁tiroirs",
        -9.838313801888827
      ],
      [
        "▁sukk",
        -9.838344181268841
      ],
      [
        "▁aucun",
        -9.83918548965494
      ],
      [
        "▁ceeb",
        -9.839701753501409
      ],
      [
        "▁après",
        -9.839971225744929
      ],
      [
        "iff",
        -9.840738741119463
      ],
      [
        "▁trou",
        -9.841100726944271
      ],
      [
        "ches",
        -9.84327864563894
      ],
      [
        "▁daawul",
        -9.84357194125453
      ],
      [
        "▁woowu",
        -9.845438541176675
      ],
      [
        "▁ñj",
        -9.845851390417977
      ],
      [
        "▁assiette",
        -9.845992664701548
      ],
      [
        "▁Dé",
        -9.84650174613855
      ],
      [
        "▁terre",
        -9.846556297643875
      ],
      [
        "uru",
        -9.846680063159145
      ],
      [
        "▁ño",
        -9.84860764203545
      ],
      [
        "▁Kook",
        -9.848944238331244
      ],
      [
        "▁gé",
        -9.850897711215193
      ],
      [
        "▁pren",
        -9.85110186549555
      ],
      [
        "▁woowa",
        -9.851709291516272
      ],
      [
        "▁prop",
        -9.852014897146814
      ],
      [
        "ntière",
        -9.852159270087567
      ],
      [
        "▁bët",
        -9.852854148993222
      ],
      [
        "▁Waxat",
        -9.855627659559275
      ],
      [
        "▁wala",
        -9.855786309061367
      ],
      [
        "▁gone",
        -9.856032912873234
      ],
      [
        "▁marcher",
        -9.856113749930257
      ],
      [
        "hez",
        -9.85619656116011
      ],
      [
        "▁vert",
        -9.85786244574856
      ],
      [
        "O",
        -9.858756150007128
      ],
      [
        "▁donner",
        -9.859150613234412
      ],
      [
        "▁travaill",
        -9.859190494510358
      ],
      [
        "ombin",
        -9.860349017989225
      ],
      [
        "obul",
        -9.860707065572482
      ],
      [
        "ré",
        -9.863336760100271
      ],
      [
        "▁num",
        -9.863774822300842
      ],
      [
        "modes",
        -9.864649077714708
      ],
      [
        "▁terr",
        -9.865164112298515
      ],
      [
        "▁fukk",
        -9.866152980337274
      ],
      [
        "▁Ŋgo",
        -9.866161179371472
      ],
      [
        "▁Lui",
        -9.868209400845247
      ],
      [
        "uver",
        -9.86936388400498
      ],
      [
        "▁présent",
        -9.869912266046152
      ],
      [
        "▁Dégg",
        -9.87147110704424
      ],
      [
        "▁mont",
        -9.872666791492012
      ],
      [
        "▁oreiller",
        -9.873102859147144
      ],
      [
        "▁buur",
        -9.874238763223028
      ],
      [
        "▁Leur",
        -9.874515510129132
      ],
      [
        "neen",
        -9.876097963620325
      ],
      [
        "▁seule",
        -9.877401267296388
      ],
      [
        "▁Seeti",
        -9.877679934378822
      ],
      [
        "▁mé",
        -9.881339654762902
      ],
      [
        "▁marché.",
        -9.885818518414808
      ],
      [
        "▁n'aur",
        -9.886655818366558
      ],
      [
        "oow",
        -9.887180105348122
      ],
      [
        "▁wuu",
        -9.887594850353182
      ],
      [
        "lé",
        -9.890842576443823
      ],
      [
        "▁cuisines",
        -9.891837966553222
      ],
      [
        "▁Kan",
        -9.893498935453277
      ],
      [
        "nnie",
        -9.8952667614934
      ],
      [
        "añse",
        -9.89552256254189
      ],
      [
        "▁fermée",
        -9.895850086856486
      ],
      [
        "▁avion",
        -9.896646042684473
      ],
      [
        "▁Waxul",
        -9.89750266940896
      ],
      [
        "▁press",
        -9.90079768691171
      ],
      [
        "▁yooya",
        -9.901931471369569
      ],
      [
        "énorme",
        -9.902326377686535
      ],
      [
        "▁wàn",
        -9.906517244946418
      ],
      [
        "pis",
        -9.90660611135312
      ],
      [
        "oit",
        -9.9067916721764
      ],
      [
        "commenc",
        -9.907755466144897
      ],
      [
        "▁aille",
        -9.908384033776523
      ],
      [
        "gale",
        -9.90877713301197
      ],
      [
        "ru",
        -9.91176749073469
      ],
      [
        "errière",
        -9.912483150281624
      ],
      [
        "▁tra",
        -9.91293894634103
      ],
      [
        "mour",
        -9.913204430414776
      ],
      [
        "avait",
        -9.914505896193901
      ],
      [
        "▁claire",
        -9.914678960549754
      ],
      [
        "oivent",
        -9.914868834657536
      ],
      [
        "'appelle",
        -9.916488670839563
      ],
      [
        "eurs",
        -9.916569123197736
      ],
      [
        "▁désire",
        -9.91666328176822
      ],
      [
        "▁choses.",
        -9.918638764887083
      ],
      [
        "ouille",
        -9.91957167456837
      ],
      [
        "▁sim",
        -9.91963509784094
      ],
      [
        "▁Yen",
        -9.91973703494026
      ],
      [
        "mon",
        -9.921673634984641
      ],
      [
        "um",
        -9.922110873444076
      ],
      [
        "▁bout",
        -9.922227496748553
      ],
      [
        "▁Nee",
        -9.925847658446642
      ],
      [
        "▁h",
        -9.928988138292242
      ],
      [
        "ejje",
        -9.92992655715959
      ],
      [
        "act",
        -9.932876524544332
      ],
      [
        "che",
        -9.933704061903708
      ],
      [
        "egg",
        -9.933895604072621
      ],
      [
        "▁bou",
        -9.93430652479108
      ],
      [
        "▁Jée",
        -9.936136021753509
      ],
      [
        "▁tii",
        -9.936861325487358
      ],
      [
        "▁ñee",
        -9.937516805869743
      ],
      [
        "▁paye",
        -9.938456843242282
      ],
      [
        "▁cor",
        -9.940686531516846
      ],
      [
        "▁ñun",
        -9.94202431182598
      ],
      [
        "'aumône",
        -9.942313078250745
      ],
      [
        "▁mett",
        -9.942714664578125
      ],
      [
        "góor",
        -9.946200514844811
      ],
      [
        "use",
        -9.948649803976393
      ],
      [
        "fu",
        -9.949139953119655
      ],
      [
        "yé",
        -9.951281148886736
      ],
      [
        "èt",
        -9.953090271687278
      ],
      [
        "ji",
        -9.95466088844362
      ],
      [
        "▁Aie",
        -9.954805332820511
      ],
      [
        "▁inc",
        -9.955314262616895
      ],
      [
        "▁booba",
        -9.957583320500717
      ],
      [
        "▁lions",
        -9.958063644913336
      ],
      [
        "▁jus",
        -9.95812300900581
      ],
      [
        "waal",
        -9.961347000997806
      ],
      [
        "lon",
        -9.961722478702862
      ],
      [
        "▁sor",
        -9.965133372157894
      ],
      [
        "û",
        -9.965977043419008
      ],
      [
        "▁waxe",
        -9.966765229218916
      ],
      [
        "▁Daa",
        -9.968784278922435
      ],
      [
        "▁partai",
        -9.968899463487288
      ],
      [
        "▁daamar",
        -9.96968447453365
      ],
      [
        "▁buu",
        -9.973958655664537
      ],
      [
        "cher",
        -9.974016513686532
      ],
      [
        "ng",
        -9.974400855909657
      ],
      [
        "ah",
        -9.974864181854516
      ],
      [
        "père",
        -9.97736991333206
      ],
      [
        "▁Ñen",
        -9.97982353226854
      ],
      [
        "eur",
        -9.984143305408464
      ],
      [
        "aa",
        -9.988554057006718
      ],
      [
        "▁Defa",
        -9.988695022357637
      ],
      [
        "lui",
        -9.989462172270354
      ],
      [
        "uff",
        -9.99103031090827
      ],
      [
        "â",
        -9.99812996400495
      ],
      [
        "▁rentre",
        -10.005835525072985
      ],
      [
        "▁jolies",
        -10.005840999935891
      ],
      [
        "eut",
        -10.006390623776692
      ],
      [
        "▁pos",
        -10.008139323378172
      ],
      [
        "law",
        -10.009994912356664
      ],
      [
        "ff",
        -10.010285379736192
      ],
      [
        "amul",
        -10.01079861759003
      ],
      [
        "▁roi",
        -10.01111688688812
      ],
      [
        "ba",
        -10.011232437767426
      ],
      [
        "âl",
        -10.011656769210804
      ],
      [
        "oir",
        -10.014752641336738
      ],
      [
        "anaa",
        -10.016927772178567
      ],
      [
        "▁cee",
        -10.01734525425611
      ],
      [
        "▁gar",
        -10.017622232908785
      ],
      [
        "gul",
        -10.020005559354384
      ],
      [
        "▁No",
        -10.020946661496254
      ],
      [
        "▁tel",
        -10.021560502112699
      ],
      [
        "▁bat",
        -10.029987385303748
      ],
      [
        "▁rouges",
        -10.035792024432643
      ],
      [
        "▁heure",
        -10.037018995129412
      ],
      [
        "am.",
        -10.039036809170586
      ],
      [
        "wuñu",
        -10.039721672422413
      ],
      [
        "éew",
        -10.04114625759323
      ],
      [
        "▁yooyu.",
        -10.043116738995597
      ],
      [
        "war",
        -10.043565731293084
      ],
      [
        "▁far",
        -10.04688895141953
      ],
      [
        "▁joue",
        -10.048520148128546
      ],
      [
        "▁connaisse",
        -10.052084406322235
      ],
      [
        "▁mba",
        -10.052746596715467
      ],
      [
        "aaw",
        -10.054415834860091
      ],
      [
        "naay",
        -10.056567320083484
      ],
      [
        "▁Sé",
        -10.056662113910773
      ],
      [
        "▁Se",
        -10.056970475655474
      ],
      [
        "▁Def",
        -10.057415970082824
      ],
      [
        "ta",
        -10.05781050761508
      ],
      [
        "argile",
        -10.058828429457845
      ],
      [
        "dem",
        -10.060158381903745
      ],
      [
        "▁nan",
        -10.060944898890757
      ],
      [
        "▁Mo",
        -10.061211318927947
      ],
      [
        "ign",
        -10.063055067738981
      ],
      [
        "▁form",
        -10.064085888313706
      ],
      [
        "▁montr",
        -10.064862487469759
      ],
      [
        "▁gui",
        -10.066025094496952
      ],
      [
        "ver",
        -10.067954541110216
      ],
      [
        "▁xamul",
        -10.068446311287525
      ],
      [
        "pas",
        -10.069977731872681
      ],
      [
        "▁Ho",
        -10.0718720994989
      ],
      [
        "irai",
        -10.073752727214327
      ],
      [
        "▁Bay",
        -10.079254809162213
      ],
      [
        "▁Celui-",
        -10.080782087981122
      ],
      [
        "igne",
        -10.084404359846303
      ],
      [
        "▁parla",
        -10.086697210731261
      ],
      [
        "kh",
        -10.088798833205775
      ],
      [
        "▁m'as",
        -10.091380374267336
      ],
      [
        "▁Nag",
        -10.091642990262876
      ],
      [
        "weer",
        -10.096169131701826
      ],
      [
        "laa",
        -10.097565383792102
      ],
      [
        "café",
        -10.10310573837369
      ],
      [
        "ffi",
        -10.103432928343404
      ],
      [
        "▁be",
        -10.103472730533388
      ],
      [
        "▁bas",
        -10.108481137230338
      ],
      [
        "ule",
        -10.108662788816632
      ],
      [
        "vient",
        -10.1102630670337
      ],
      [
        "▁bul",
        -10.11365715487937
      ],
      [
        "l.",
        -10.115481074191898
      ],
      [
        "▁ch",
        -10.117066073579092
      ],
      [
        "agg",
        -10.117737618587338
      ],
      [
        "▁yaat",
        -10.1215063759042
      ],
      [
        "eguñu",
        -10.1240894256856
      ],
      [
        "▁mb",
        -10.124877357766229
      ],
      [
        "bul",
        -10.125847813998586
      ],
      [
        "▁Be",
        -10.126324775113003
      ],
      [
        "omb",
        -10.12790504794927
      ],
      [
        "▁sant",
        -10.130563393801811
      ],
      [
        "entre",
        -10.135270516823113
      ],
      [
        "leur",
        -10.135722499474998
      ],
      [
        "cherche",
        -10.136339780019288
      ],
      [
        "▁tege",
        -10.137791558010715
      ],
      [
        "uy",
        -10.137977641789835
      ],
      [
        "oom",
        -10.139115015887816
      ],
      [
        "rais",
        -10.140551143768633
      ],
      [
        "▁seenu",
        -10.144619601416663
      ],
      [
        "apprécie",
        -10.146708231558867
      ],
      [
        "US",
        -10.14751427514095
      ],
      [
        "mid",
        -10.162747059933626
      ],
      [
        "▁Xamu",
        -10.163936849865298
      ],
      [
        "▁ŋgoo",
        -10.167161027334172
      ],
      [
        "our",
        -10.17210342079181
      ],
      [
        "met",
        -10.173531690657935
      ],
      [
        "re.",
        -10.173579714292762
      ],
      [
        "▁jur",
        -10.174098552276568
      ],
      [
        "ère.",
        -10.174101858806122
      ],
      [
        "▁ro",
        -10.175114337185507
      ],
      [
        "▁nà",
        -10.179271863150129
      ],
      [
        "▁sera",
        -10.179455316760196
      ],
      [
        "▁prie",
        -10.179659267148724
      ],
      [
        "alal",
        -10.181533395881534
      ],
      [
        "▁Wóo",
        -10.18622555433522
      ],
      [
        "ière.",
        -10.186954093327188
      ],
      [
        "▁fr",
        -10.187988131419749
      ],
      [
        "▁Qua",
        -10.188808026747822
      ],
      [
        "utilis",
        -10.189593567592203
      ],
      [
        "avais",
        -10.193616259051723
      ],
      [
        "▁ha",
        -10.195147467931875
      ],
      [
        "aleekum",
        -10.199219167926621
      ],
      [
        "▁too",
        -10.199272000555748
      ],
      [
        "armes",
        -10.201651730720238
      ],
      [
        "▁deme",
        -10.205350000262193
      ],
      [
        "▁kook",
        -10.206462757271606
      ],
      [
        "kar",
        -10.208612632729333
      ],
      [
        "abal",
        -10.212204781349664
      ],
      [
        "▁bavarda",
        -10.214940060552115
      ],
      [
        "gis",
        -10.214996153605572
      ],
      [
        "▁yab",
        -10.217903168447995
      ],
      [
        "▁commen",
        -10.219621735013277
      ],
      [
        "ho",
        -10.223702865576644
      ],
      [
        "andi",
        -10.223865589260743
      ],
      [
        "▁cherch",
        -10.22488959444001
      ],
      [
        "ssion",
        -10.226430449922153
      ],
      [
        "n.",
        -10.227142383548834
      ],
      [
        "▁ŋg",
        -10.227604723576848
      ],
      [
        "oog",
        -10.229338080487594
      ],
      [
        "▁lait",
        -10.23366396595868
      ],
      [
        "urs",
        -10.234365290466267
      ],
      [
        "▁To",
        -10.23491692325222
      ],
      [
        "▁Degg",
        -10.236446312859409
      ],
      [
        "▁peint",
        -10.236995278072964
      ],
      [
        "gguma",
        -10.237460380111763
      ],
      [
        "▁gra",
        -10.239477250854446
      ],
      [
        "ttends",
        -10.240974954883471
      ],
      [
        "ple",
        -10.244504321093988
      ],
      [
        "xam",
        -10.244870719600698
      ],
      [
        "▁dam",
        -10.24598926666449
      ],
      [
        "▁tient",
        -10.246297080098268
      ],
      [
        "▁confi",
        -10.247748639349984
      ],
      [
        "aaka",
        -10.250996421106372
      ],
      [
        "▁taal",
        -10.255822798199057
      ],
      [
        "evant",
        -10.256579581454051
      ],
      [
        "▁lev",
        -10.25830452439197
      ],
      [
        "▁attrap",
        -10.258934752634561
      ],
      [
        "▁retrait",
        -10.259719406747344
      ],
      [
        "oser",
        -10.260655769002717
      ],
      [
        "ard",
        -10.261910037877964
      ],
      [
        "▁gejj",
        -10.263095033476683
      ],
      [
        "jje",
        -10.263147412825605
      ],
      [
        "at.",
        -10.265465682078235
      ],
      [
        "eil",
        -10.26719022613921
      ],
      [
        "▁tiroir",
        -10.270795112011147
      ],
      [
        "▁objet",
        -10.270840839081822
      ],
      [
        "▁Att",
        -10.270976615192904
      ],
      [
        "▁fenêtre",
        -10.271799692406862
      ],
      [
        "▁cuisin",
        -10.272163497839161
      ],
      [
        "cu",
        -10.273477634518919
      ],
      [
        "▁teint",
        -10.27378035408239
      ],
      [
        "fois",
        -10.274134347505193
      ],
      [
        "ddi",
        -10.274481347187034
      ],
      [
        "▁policier",
        -10.27763975626315
      ],
      [
        "▁gaynd",
        -10.277753204632488
      ],
      [
        "▁foof",
        -10.27849246098475
      ],
      [
        "▁xë",
        -10.278852651501708
      ],
      [
        "▁viendr",
        -10.281382330037276
      ],
      [
        "▁bokku",
        -10.285331557250135
      ],
      [
        "▁s'échapp",
        -10.28609889883655
      ],
      [
        "▁pierre",
        -10.28625423708081
      ],
      [
        "opp",
        -10.286367523452823
      ],
      [
        "▁Foof",
        -10.287574750654379
      ],
      [
        "▁n'ir",
        -10.288257552789336
      ],
      [
        "▁fais",
        -10.29163001186755
      ],
      [
        "gu",
        -10.292854858020641
      ],
      [
        "▁t'e",
        -10.292984324805452
      ],
      [
        "▁ubb",
        -10.29335752974671
      ],
      [
        "exi",
        -10.293546630842945
      ],
      [
        "▁soldat",
        -10.293733581595001
      ],
      [
        "▁gë",
        -10.294003688996057
      ],
      [
        "dée",
        -10.294167986512043
      ],
      [
        "▁po",
        -10.294874333501598
      ],
      [
        "▁parent",
        -10.295158726305749
      ],
      [
        "▁denc",
        -10.295207191315605
      ],
      [
        "▁recon",
        -10.296464001891344
      ],
      [
        "toi",
        -10.297145394720022
      ],
      [
        "▁oreille",
        -10.298347130564023
      ],
      [
        "nn",
        -10.30079417055563
      ],
      [
        "ure",
        -10.300896853316921
      ],
      [
        "▁différent",
        -10.301293768819496
      ],
      [
        "iy",
        -10.301459209981893
      ],
      [
        "idé",
        -10.301546088950946
      ],
      [
        "pe",
        -10.301722736081357
      ],
      [
        "▁Ño",
        -10.30249217850736
      ],
      [
        "▁mang",
        -10.302641792872267
      ],
      [
        "▁génér",
        -10.30384388639614
      ],
      [
        "ngoo",
        -10.304025194148137
      ],
      [
        "ccepte",
        -10.305034101424951
      ],
      [
        "▁Peut-",
        -10.3057375044279
      ],
      [
        "▁jó",
        -10.306434125385302
      ],
      [
        "'import",
        -10.30733944806626
      ],
      [
        "ête",
        -10.307642292403655
      ],
      [
        "àcc",
        -10.307653336589258
      ],
      [
        "oxoom",
        -10.30815613164319
      ],
      [
        "▁jaŋ",
        -10.3086401588906
      ],
      [
        "axkoon",
        -10.308662141761278
      ],
      [
        "cheur",
        -10.309221308898703
      ],
      [
        "▁tissé",
        -10.310354124663744
      ],
      [
        "ënfandikoo",
        -10.310404382790184
      ],
      [
        "▁jëfandik",
        -10.310449642770266
      ],
      [
        "▁ñép",
        -10.310701861702816
      ],
      [
        "échapp",
        -10.310799440026686
      ],
      [
        "à-bas",
        -10.311142482709878
      ],
      [
        "00",
        -10.31117839843061
      ],
      [
        "▁d'habit",
        -10.311179488765225
      ],
      [
        "▁Français",
        -10.311192648094098
      ],
      [
        "▁Niominka.",
        -10.311192648094185
      ],
      [
        "▁Africaine",
        -10.31119264809621
      ],
      [
        "É",
        -10.311192648124948
      ],
      [
        "(",
        -10.311192648124951
      ],
      [
        " ",
        -10.311192648124951
      ],
      [
        ")",
        -10.311192648124951
      ],
      [
        "Ë",
        -10.311192648124951
      ],
      [
        "▁confortable",
        -10.311192648139883
      ],
      [
        "▁migrateurs",
        -10.311192648548428
      ],
      [
        "'orange'",
        -10.31119264910961
      ],
      [
        "▁impoli",
        -10.311192651035906
      ],
      [
        "▁récipient",
        -10.311192654783579
      ],
      [
        "explose",
        -10.311192656940442
      ],
      [
        "▁accroch",
        -10.311192668387378
      ],
      [
        "▁ngànnaay",
        -10.311192677627762
      ],
      [
        "▁boucliers",
        -10.311192685953541
      ],
      [
        "▁canapé",
        -10.311192707982311
      ],
      [
        "▁tambour",
        -10.311192716110657
      ],
      [
        "▁maasàllaa",
        -10.31119271829219
      ],
      [
        "'accorde",
        -10.31119272285459
      ],
      [
        "▁berceau",
        -10.311192731435357
      ],
      [
        "▁automobile",
        -10.311192732958059
      ],
      [
        "▁rapprochée",
        -10.31119273804309
      ],
      [
        "▁archite",
        -10.311192787646997
      ],
      [
        "▁frigo",
        -10.311192822246285
      ],
      [
        "▁achète",
        -10.31119303084185
      ],
      [
        "'jaune'",
        -10.311193441322873
      ],
      [
        "▁lumineuse",
        -10.31119364055941
      ],
      [
        "▁totalité",
        -10.311193811910613
      ],
      [
        "▁beerso",
        -10.311194155155443
      ],
      [
        "áa",
        -10.311194369780887
      ],
      [
        "▁ñambaan",
        -10.31119453075471
      ],
      [
        "▁Dites-l",
        -10.311194623542264
      ],
      [
        "congelé",
        -10.311194668897226
      ],
      [
        "▁radier",
        -10.31119489634181
      ],
      [
        "▁renversé",
        -10.311195060534608
      ],
      [
        "▁lançant",
        -10.311196323131439
      ],
      [
        "▁yalwaan",
        -10.311196803953944
      ],
      [
        "pérer",
        -10.31119741872113
      ],
      [
        "▁statut",
        -10.311199360646487
      ],
      [
        "▁rassembl",
        -10.31119959233204
      ],
      [
        "▁nouvel",
        -10.31119964759733
      ],
      [
        "▁constituée",
        -10.31119969400819
      ],
      [
        "▁journée",
        -10.31119971895503
      ],
      [
        "▁10",
        -10.311199772933843
      ],
      [
        "000",
        -10.311199773167925
      ],
      [
        "▁fabriqu",
        -10.311200047216865
      ],
      [
        "▁S'agi",
        -10.311204297952848
      ],
      [
        "'ouvre",
        -10.311204554659094
      ],
      [
        "▁assailli",
        -10.311206101195399
      ],
      [
        "▁discut",
        -10.311208394047277
      ],
      [
        "▁France",
        -10.311211993772853
      ],
      [
        "▁meuble",
        -10.311213375451304
      ],
      [
        "▁préparé",
        -10.311213582888124
      ],
      [
        "▁nurool",
        -10.311216648120947
      ],
      [
        "▁marron",
        -10.311220770232243
      ],
      [
        "▁chaîne",
        -10.311223690311817
      ],
      [
        "▁l'allume",
        -10.311227335377204
      ],
      [
        "▁truc",
        -10.311227448754495
      ],
      [
        "▁Taxawa",
        -10.311227562882381
      ],
      [
        "▁visage",
        -10.311228825004163
      ],
      [
        "▁marõ",
        -10.31122970767707
      ],
      [
        "▁entouré",
        -10.311229727204697
      ],
      [
        "▁moontin",
        -10.311231240988153
      ],
      [
        "▁jàkkarloo",
        -10.311236223827194
      ],
      [
        "▁prépare",
        -10.311238507581944
      ],
      [
        "▁nàññ",
        -10.311239110938896
      ],
      [
        "▁L'endroit",
        -10.311249594001625
      ],
      [
        "▁souffr",
        -10.311249690217396
      ],
      [
        "▁porche",
        -10.311252756684969
      ],
      [
        "▁moket",
        -10.31125784536062
      ],
      [
        "grillage",
        -10.311267535914098
      ],
      [
        "▁xelli",
        -10.311274071380582
      ],
      [
        "▁bassin",
        -10.31127578539873
      ],
      [
        "àngaan",
        -10.311278847792494
      ],
      [
        "▁âgé",
        -10.311287843449175
      ],
      [
        "▁Pardon",
        -10.311297429454434
      ],
      [
        "écédé",
        -10.311302479267038
      ],
      [
        "▁descendra",
        -10.311303601025628
      ],
      [
        "▁tamarin",
        -10.311305475089675
      ],
      [
        "▁n'habite",
        -10.311314599885053
      ],
      [
        "▁répét",
        -10.311317085674911
      ],
      [
        "▁gymnas",
        -10.311355045388341
      ],
      [
        "▁aajo",
        -10.311373487315327
      ],
      [
        "vêtement",
        -10.311375218896336
      ],
      [
        "▁propos",
        -10.31139865582677
      ],
      [
        "▁fanane",
        -10.31141841094133
      ],
      [
        "▁salut",
        -10.311428541592104
      ],
      [
        "▁gosse",
        -10.311438585953551
      ],
      [
        "▁sous-",
        -10.311462727190413
      ],
      [
        "▁ancien",
        -10.311473315346591
      ],
      [
        "▁plante",
        -10.311488124492982
      ],
      [
        "▁inter",
        -10.31148891005693
      ],
      [
        "▁faneetar",
        -10.311530782564473
      ],
      [
        "▁français'",
        -10.311547696592362
      ],
      [
        "▁écriture",
        -10.311550684998688
      ],
      [
        "▁Musta",
        -10.311562404865365
      ],
      [
        "▁pleure",
        -10.311566602318624
      ],
      [
        "▁rëy",
        -10.311648795296872
      ],
      [
        "▁visite",
        -10.311749994494578
      ],
      [
        "▁tubaab",
        -10.311759753147394
      ],
      [
        "cture",
        -10.311805685795031
      ],
      [
        "▁gàdd",
        -10.311879460674875
      ],
      [
        "èvre",
        -10.311893728220477
      ],
      [
        "▁yeggee",
        -10.311970809224645
      ],
      [
        "▁jënfandikoo",
        -10.311981522485128
      ],
      [
        "▁vous-même",
        -10.31203553467623
      ],
      [
        "▁fanaan",
        -10.31203966017642
      ],
      [
        "▁Dellu",
        -10.312041790770575
      ],
      [
        "▁cubb",
        -10.312052746466641
      ],
      [
        "▁jumaa",
        -10.312062101007188
      ],
      [
        "▁ndigg",
        -10.312073408223284
      ],
      [
        "▁toi-même",
        -10.312143692934143
      ],
      [
        "▁moi-même",
        -10.312177813482897
      ],
      [
        "▁j'apprécie",
        -10.312266399539459
      ],
      [
        "assoupi",
        -10.312316270654616
      ],
      [
        "▁bënn",
        -10.31236626511581
      ],
      [
        "▁moyen",
        -10.312456764466347
      ],
      [
        "▁droit",
        -10.312546730883458
      ],
      [
        "▁Lebou",
        -10.312547642415844
      ],
      [
        "▁echelle",
        -10.31255236348444
      ],
      [
        "aune'",
        -10.312691695501263
      ],
      [
        "▁élevage",
        -10.312745183791659
      ],
      [
        "▁Wutël",
        -10.312972277014309
      ],
      [
        "▁Arr",
        -10.31314707364393
      ],
      [
        "▁Chacun",
        -10.313212621132813
      ],
      [
        "▁public",
        -10.313213335390953
      ],
      [
        "▁tayel",
        -10.313552555972898
      ],
      [
        "▁googu",
        -10.313570120164421
      ],
      [
        "▁accompagné",
        -10.313580700883497
      ],
      [
        "▁cadre",
        -10.313585661122248
      ],
      [
        "▁karo",
        -10.313640277358536
      ],
      [
        "▁tissées",
        -10.313643782509867
      ],
      [
        "▁doj",
        -10.313965433812742
      ],
      [
        "▁monter",
        -10.313978002982912
      ],
      [
        "▁t'aurai",
        -10.314045726057332
      ],
      [
        "ablement",
        -10.314073230504924
      ],
      [
        "▁kulëer",
        -10.31429475120423
      ],
      [
        "▁Bira",
        -10.314302520965768
      ],
      [
        "▁seef",
        -10.314327081485864
      ],
      [
        "époque",
        -10.314434012617344
      ],
      [
        "▁dawul",
        -10.314462968425278
      ],
      [
        "▁kukk",
        -10.314500792099043
      ],
      [
        "▁loxoom",
        -10.314630590911893
      ],
      [
        "▁ñow",
        -10.31477534204346
      ],
      [
        "▁cohabitent",
        -10.314890659721893
      ],
      [
        "▁tomb",
        -10.314948074244807
      ],
      [
        "▁d'aide",
        -10.314997813218332
      ],
      [
        "▁pilo",
        -10.315222508126595
      ],
      [
        "▁suivent",
        -10.315272217743802
      ],
      [
        "iroir",
        -10.315370044134852
      ],
      [
        "▁révoltent",
        -10.315372278318275
      ],
      [
        "▁mucc",
        -10.315426033915262
      ],
      [
        "▁serré",
        -10.315469771251692
      ],
      [
        "▁appelle'",
        -10.315576833571134
      ],
      [
        "▁wutal",
        -10.315655273512432
      ],
      [
        "▁janool",
        -10.316448222544128
      ],
      [
        "▁fatt",
        -10.316462805289417
      ],
      [
        "▁D'autre",
        -10.316520145991461
      ],
      [
        "▁beneen'",
        -10.317169953896737
      ],
      [
        "▁dajal",
        -10.31738793244907
      ],
      [
        "▁wenn",
        -10.317417873457185
      ],
      [
        "▁dégg",
        -10.31753002109662
      ],
      [
        "▁tàkk",
        -10.317653566923038
      ],
      [
        "▁n'allai",
        -10.317795246113986
      ],
      [
        "▁coule",
        -10.317968835063462
      ],
      [
        "allum",
        -10.318075983744293
      ],
      [
        "ayim",
        -10.318124950588036
      ],
      [
        "ngalu",
        -10.318136135271292
      ],
      [
        "▁degg",
        -10.318153961628617
      ],
      [
        "▁xeex",
        -10.318239613804732
      ],
      [
        "▁par-là",
        -10.318358202817203
      ],
      [
        "▁film",
        -10.318747632720228
      ],
      [
        "ttali",
        -10.318837952712192
      ],
      [
        "▁ardo",
        -10.319102144869767
      ],
      [
        "▁moroom",
        -10.319172823206456
      ],
      [
        "▁travaillait",
        -10.319368507559231
      ],
      [
        "éro",
        -10.319481047971637
      ],
      [
        "▁Eux",
        -10.319512961175846
      ],
      [
        "▁publi",
        -10.319537146538014
      ],
      [
        "soup",
        -10.319840403776503
      ],
      [
        "▁yit",
        -10.31993014942043
      ],
      [
        "▁Kaay",
        -10.32002300571436
      ],
      [
        "▁juge",
        -10.320085444545697
      ],
      [
        "lise",
        -10.320090284146351
      ],
      [
        "▁yàqu",
        -10.32041044039335
      ],
      [
        "▁yeg",
        -10.32056283463514
      ],
      [
        "▁casque",
        -10.32070968979454
      ],
      [
        "elle'",
        -10.320853329612405
      ],
      [
        "▁entré",
        -10.321049681869622
      ],
      [
        "nive",
        -10.32116140252816
      ],
      [
        "▁différentes",
        -10.321187698915388
      ],
      [
        "▁ñorul",
        -10.321209486753588
      ],
      [
        "'entend",
        -10.321687569067286
      ],
      [
        "àccee",
        -10.322083221992095
      ],
      [
        "taine",
        -10.322085886921165
      ],
      [
        "joor",
        -10.322237285355254
      ],
      [
        "▁conv",
        -10.322276167186
      ],
      [
        "ctiv",
        -10.32239205797795
      ],
      [
        "▁s'asse",
        -10.322551862961797
      ],
      [
        "▁écla",
        -10.322743483077591
      ],
      [
        "▁voyage",
        -10.322745557940443
      ],
      [
        "raî",
        -10.32282344900428
      ],
      [
        "▁ti",
        -10.323374140225773
      ],
      [
        "▁ginnaawam",
        -10.32348885440331
      ],
      [
        "gico",
        -10.324446666875195
      ],
      [
        "▁police",
        -10.324618689198003
      ],
      [
        "ydina",
        -10.32465522834588
      ],
      [
        "▁bëggu",
        -10.325180081605232
      ],
      [
        "▁àndal",
        -10.325518646554645
      ],
      [
        "▁Ko",
        -10.325572219576301
      ],
      [
        "outer",
        -10.325610489964134
      ],
      [
        "après-",
        -10.32576633357089
      ],
      [
        "▁kanamam",
        -10.32577520222946
      ],
      [
        "▁Sénégal'",
        -10.325794395836928
      ],
      [
        "▁bëggé",
        -10.325797009395817
      ],
      [
        "habitent",
        -10.326869676061204
      ],
      [
        "▁retrouv",
        -10.327120760798428
      ],
      [
        "mbres",
        -10.327265633407887
      ],
      [
        "ëgg",
        -10.327443745924493
      ],
      [
        "▁fekke",
        -10.328217630597752
      ],
      [
        "▁wer",
        -10.328232207675823
      ],
      [
        "▁trai",
        -10.328703636805539
      ],
      [
        "▁sommet",
        -10.329435456860104
      ],
      [
        "gël",
        -10.329501208667706
      ],
      [
        "▁séq",
        -10.329751652085331
      ],
      [
        "▁fë",
        -10.330300056075863
      ],
      [
        "ëlé",
        -10.330948142711799
      ],
      [
        "▁éga",
        -10.33185525056744
      ],
      [
        "▁ben",
        -10.33198707639175
      ],
      [
        "▁reconn",
        -10.332410350001291
      ],
      [
        "ëk",
        -10.333091335319233
      ],
      [
        "▁lieux",
        -10.333878672189812
      ],
      [
        "▁Daawul",
        -10.334238277478867
      ],
      [
        "▁Léeg",
        -10.334481798482017
      ],
      [
        "▁remplie",
        -10.33609372338584
      ],
      [
        "▁voies",
        -10.336110940786003
      ],
      [
        "▁pieds",
        -10.336315646677214
      ],
      [
        "▁laiss",
        -10.337286461850077
      ],
      [
        "accompagne",
        -10.337454623517273
      ],
      [
        "'avion",
        -10.337698925432324
      ],
      [
        "▁surv",
        -10.337863599296547
      ],
      [
        "▁sës",
        -10.338007180907333
      ],
      [
        "▁d'elle",
        -10.338495481739187
      ],
      [
        "jariñ",
        -10.339039067377385
      ],
      [
        "▁voulai",
        -10.339766257975755
      ],
      [
        "dou",
        -10.340068830631246
      ],
      [
        "▁doomam",
        -10.34055962233736
      ],
      [
        "import",
        -10.340789468967843
      ],
      [
        "e-le",
        -10.340919332289538
      ],
      [
        "isée",
        -10.341033642983042
      ],
      [
        "▁ouvertes",
        -10.341074642450296
      ],
      [
        "▁jusqu'ici",
        -10.342099345846837
      ],
      [
        "quelles",
        -10.34228368487796
      ],
      [
        "sant",
        -10.34255644123193
      ],
      [
        "▁doyu",
        -10.342803983941922
      ],
      [
        "▁vertu",
        -10.343061799968956
      ],
      [
        "▁char",
        -10.343893388002199
      ],
      [
        "âche",
        -10.344122713149558
      ],
      [
        "▁content",
        -10.344382233142646
      ],
      [
        "angasin",
        -10.345412884405325
      ],
      [
        "▁élev",
        -10.346356781787147
      ],
      [
        "▁rencontre",
        -10.346604156161735
      ],
      [
        "▁souve",
        -10.3468181643433
      ],
      [
        "▁Ex",
        -10.348726057945663
      ],
      [
        "▁entrer",
        -10.348832787086229
      ],
      [
        "ekum",
        -10.349996288888725
      ],
      [
        "▁bëy",
        -10.350703750167078
      ],
      [
        "▁rentrer",
        -10.351102349120863
      ],
      [
        "ooñii",
        -10.351141943278408
      ],
      [
        "saŋ",
        -10.35190742243806
      ],
      [
        "▁Ab",
        -10.352119391715883
      ],
      [
        "▁tée",
        -10.352632539556975
      ],
      [
        "nég",
        -10.353897788489867
      ],
      [
        "▁convers",
        -10.3539558311346
      ],
      [
        "nent",
        -10.354296794580723
      ],
      [
        "▁bëggoon",
        -10.354687254868255
      ],
      [
        "illage",
        -10.355456515953895
      ],
      [
        "▁lionne",
        -10.355499925598682
      ],
      [
        "ññ",
        -10.355518739145237
      ],
      [
        "▁conna",
        -10.356186731279422
      ],
      [
        "kkan",
        -10.356989128438045
      ],
      [
        "rdo",
        -10.357102492725694
      ],
      [
        "▁fen",
        -10.35744271117144
      ],
      [
        "▁ame",
        -10.358589148052458
      ],
      [
        "▁arriva",
        -10.359001965118882
      ],
      [
        "▁go",
        -10.359061438671313
      ],
      [
        "supp",
        -10.359281723886848
      ],
      [
        "▁gaal",
        -10.36011388467644
      ],
      [
        "▁dedans",
        -10.3603981827524
      ],
      [
        "▁Gi",
        -10.360915983142501
      ],
      [
        "▁poli",
        -10.361687769664778
      ],
      [
        "▁fût",
        -10.362041901054665
      ],
      [
        "▁bëtt",
        -10.363181295861057
      ],
      [
        "▁metti",
        -10.364399913996671
      ],
      [
        "▁étage",
        -10.365089117101304
      ],
      [
        "ful",
        -10.365832760217483
      ],
      [
        "▁Mer",
        -10.366482377262848
      ],
      [
        "sard",
        -10.367471037166545
      ],
      [
        "gaam",
        -10.367523614041271
      ],
      [
        "endant",
        -10.367557946081035
      ],
      [
        "▁Xay",
        -10.367732953389906
      ],
      [
        "ffe",
        -10.369395395178433
      ],
      [
        "jj",
        -10.370395642463055
      ],
      [
        "spé",
        -10.370961665326714
      ],
      [
        "lo",
        -10.371482951799896
      ],
      [
        "gra",
        -10.371660223163756
      ],
      [
        "waa",
        -10.372414522839673
      ],
      [
        "▁daawu",
        -10.373216067575745
      ],
      [
        "▁s'écha",
        -10.373273911868685
      ],
      [
        "▁fini",
        -10.373726368467436
      ],
      [
        "▁chauff",
        -10.374173913725043
      ],
      [
        "▁solo",
        -10.374384972604108
      ],
      [
        "dina",
        -10.374887430814109
      ],
      [
        "▁voulez",
        -10.374942167223972
      ],
      [
        "▁xaritam",
        -10.37519583175021
      ],
      [
        "▁senn",
        -10.376202933734826
      ],
      [
        "▁Amin",
        -10.378218019344132
      ],
      [
        "▁née",
        -10.378331461416295
      ],
      [
        "angé",
        -10.379290785664558
      ],
      [
        "óox",
        -10.38156868642095
      ],
      [
        "▁sta",
        -10.382152374029934
      ],
      [
        "▁taba",
        -10.382306865796403
      ],
      [
        "▁échelle",
        -10.383390905866039
      ],
      [
        "aisir",
        -10.384233169624723
      ],
      [
        "▁blanches.",
        -10.384266762436093
      ],
      [
        "▁waxtu",
        -10.384690303173077
      ],
      [
        "u-",
        -10.38540043470999
      ],
      [
        "▁Jamm",
        -10.38644437639292
      ],
      [
        "nde",
        -10.387046462400876
      ],
      [
        "▁marchan",
        -10.390224184072677
      ],
      [
        "allong",
        -10.390314898988334
      ],
      [
        "omp",
        -10.39071058494623
      ],
      [
        "edress",
        -10.390896826530991
      ],
      [
        "▁lumi",
        -10.39107074342405
      ],
      [
        "▁Nde",
        -10.391242354560811
      ],
      [
        "ourri",
        -10.392884301465052
      ],
      [
        "óol",
        -10.393475041571175
      ],
      [
        "lóo",
        -10.393582086583901
      ],
      [
        "▁salaam",
        -10.394215240881913
      ],
      [
        "▁kote",
        -10.394306301543649
      ],
      [
        "ërëm",
        -10.394955184608826
      ],
      [
        "▁voul",
        -10.395912675629766
      ],
      [
        "▁wut",
        -10.396597109204894
      ],
      [
        "cieuse",
        -10.397308716713667
      ],
      [
        "lement",
        -10.398007590439471
      ],
      [
        "▁ay'",
        -10.398135043307644
      ],
      [
        "▁temps",
        -10.39942081986347
      ],
      [
        "▁yëngu",
        -10.399625420476568
      ],
      [
        "▁rafetul",
        -10.4024134332833
      ],
      [
        "▁joo",
        -10.402504037397659
      ],
      [
        "▁voici.",
        -10.403279484660677
      ],
      [
        "emal",
        -10.403826199846911
      ],
      [
        "añ",
        -10.403919765625641
      ],
      [
        "▁jale",
        -10.404521104526165
      ],
      [
        "▁jamb",
        -10.40520676550114
      ],
      [
        "▁tenue",
        -10.406233996904879
      ],
      [
        "séd",
        -10.406268604927341
      ],
      [
        "lusi",
        -10.406651723462442
      ],
      [
        "▁Don",
        -10.408738195292822
      ],
      [
        "C'est",
        -10.408912734577239
      ],
      [
        "dé",
        -10.408942221539991
      ],
      [
        "▁s'assi",
        -10.409814258117855
      ],
      [
        "▁léeg",
        -10.41080507945141
      ],
      [
        "▁natte",
        -10.412017160177355
      ],
      [
        "jafe",
        -10.412062100835213
      ],
      [
        "▁compos",
        -10.41319341415679
      ],
      [
        "▁Wooy",
        -10.413508516457066
      ],
      [
        "▁ndugge",
        -10.413757165930384
      ],
      [
        "doo",
        -10.413855272793015
      ],
      [
        "bb",
        -10.4142097044357
      ],
      [
        "▁lor",
        -10.415606239520235
      ],
      [
        "▁bavard",
        -10.417383297509843
      ],
      [
        "▁déc",
        -10.418232972176698
      ],
      [
        "▁attrape",
        -10.419913210117691
      ],
      [
        "ures",
        -10.42012910448637
      ],
      [
        "▁ét",
        -10.422082227633044
      ],
      [
        "▁Ñi",
        -10.423198508892929
      ],
      [
        "▁ver",
        -10.42394006047033
      ],
      [
        "▁mal",
        -10.424355916759659
      ],
      [
        "kka",
        -10.424609281635982
      ],
      [
        "▁nanu",
        -10.425415848456314
      ],
      [
        "▁noon",
        -10.42616876061803
      ],
      [
        "▁n'av",
        -10.426297049236313
      ],
      [
        "▁Mel",
        -10.426362277738948
      ],
      [
        "naaw",
        -10.426702689746158
      ],
      [
        "▁réc",
        -10.427540064417183
      ],
      [
        "nce",
        -10.427938447992808
      ],
      [
        "tenu",
        -10.429900579547809
      ],
      [
        "oudre",
        -10.431695389676403
      ],
      [
        "▁morts",
        -10.435574980448159
      ],
      [
        "▁Non",
        -10.435812273790962
      ],
      [
        "▁court",
        -10.44035818663805
      ],
      [
        "▁tol",
        -10.440507586227927
      ],
      [
        "▁Sen",
        -10.442627809133715
      ],
      [
        "▁présidents",
        -10.443909791446364
      ],
      [
        "pa",
        -10.444664443698894
      ],
      [
        "seen",
        -10.444809191746067
      ],
      [
        "le.",
        -10.447361963363134
      ],
      [
        "▁noo",
        -10.449654961090157
      ],
      [
        "▁blanches",
        -10.44984337729891
      ],
      [
        "▁entr",
        -10.450575689703639
      ],
      [
        "'étudiant",
        -10.451037824285457
      ],
      [
        "lle",
        -10.451152106444361
      ],
      [
        "▁baga",
        -10.451226252019705
      ],
      [
        "caak",
        -10.45202389729428
      ],
      [
        "puisé",
        -10.453121634749328
      ],
      [
        "iyaar",
        -10.4552018095713
      ],
      [
        "▁après-",
        -10.456224073735255
      ],
      [
        "▁faç",
        -10.45626442232916
      ],
      [
        "▁trouver",
        -10.457033559989425
      ],
      [
        "ter",
        -10.457709203828468
      ],
      [
        "nee",
        -10.458380572140864
      ],
      [
        "▁taar",
        -10.459864412644924
      ],
      [
        "▁saura",
        -10.460435760698717
      ],
      [
        "▁s'agiss",
        -10.462360037469438
      ],
      [
        "tique",
        -10.462391139883838
      ],
      [
        "▁amoon",
        -10.464224700313991
      ],
      [
        "▁siy",
        -10.467443518011688
      ],
      [
        "▁i",
        -10.468719595643185
      ],
      [
        "biir",
        -10.472988430685481
      ],
      [
        "▁saisi",
        -10.474909581997865
      ],
      [
        "▁sé",
        -10.478001852737805
      ],
      [
        "qu'il",
        -10.478229453479152
      ],
      [
        "▁fon",
        -10.478396213300337
      ],
      [
        "uur",
        -10.482062920664474
      ],
      [
        "▁Wau",
        -10.482265867790389
      ],
      [
        "▁lekku",
        -10.48299327740952
      ],
      [
        "onvers",
        -10.48514168084335
      ],
      [
        "utt",
        -10.485561969787812
      ],
      [
        "enez",
        -10.48589555797803
      ],
      [
        "aix",
        -10.488109388386032
      ],
      [
        "▁We",
        -10.49021390500507
      ],
      [
        "alante",
        -10.490875538563163
      ],
      [
        "▁armes",
        -10.491031470166181
      ],
      [
        "'euss",
        -10.492165152776023
      ],
      [
        "▁baar",
        -10.492506083008394
      ],
      [
        "▁rap",
        -10.492786089527252
      ],
      [
        "▁way",
        -10.494687495412672
      ],
      [
        "▁réewu",
        -10.496373337019955
      ],
      [
        "jud",
        -10.500056008069944
      ],
      [
        "mant",
        -10.500637990443119
      ],
      [
        "nge",
        -10.501341716821226
      ],
      [
        "deau",
        -10.501392212262678
      ],
      [
        "cul",
        -10.501887131374493
      ],
      [
        "ari",
        -10.504010827375296
      ],
      [
        "▁bols",
        -10.505456793557705
      ],
      [
        "▁reveni",
        -10.505484650661959
      ],
      [
        "▁carre",
        -10.507405403619359
      ],
      [
        "yit",
        -10.508520928084481
      ],
      [
        "eau",
        -10.50977333329345
      ],
      [
        "agnes",
        -10.510600222334144
      ],
      [
        "▁meneen",
        -10.512542941043156
      ],
      [
        "ve",
        -10.513129438880162
      ],
      [
        "iennent",
        -10.513544383990206
      ],
      [
        "aintenant",
        -10.5147462186488
      ],
      [
        "iron",
        -10.51972607392091
      ],
      [
        "esquel",
        -10.519928145695474
      ],
      [
        "dre",
        -10.521641227129429
      ],
      [
        "sort",
        -10.523056664102647
      ],
      [
        "cot",
        -10.523851020355643
      ],
      [
        "àgg",
        -10.526670792272114
      ],
      [
        "▁Amu",
        -10.527640278435678
      ],
      [
        "-nd",
        -10.527966099541313
      ],
      [
        "▁yore",
        -10.532350151624724
      ],
      [
        "▁mës",
        -10.533119275220196
      ],
      [
        "▁all",
        -10.53356325023611
      ],
      [
        "▁bala",
        -10.53702723270471
      ],
      [
        "eek",
        -10.537390308489531
      ],
      [
        "meur",
        -10.53898028099699
      ],
      [
        "▁petits",
        -10.544213413779952
      ],
      [
        "ire",
        -10.544883349747696
      ],
      [
        "▁étalée",
        -10.545983610006148
      ],
      [
        "▁Mets",
        -10.546213827983719
      ],
      [
        "rie",
        -10.548239566800811
      ],
      [
        "▁sub",
        -10.548486331210462
      ],
      [
        "he",
        -10.549638639851572
      ],
      [
        "▁tir",
        -10.549714295892517
      ],
      [
        "▁posée",
        -10.559390765356898
      ],
      [
        "▁ciment",
        -10.55953846614797
      ],
      [
        "la.",
        -10.56073665663068
      ],
      [
        "ène",
        -10.56169387019359
      ],
      [
        "nag",
        -10.56200532207106
      ],
      [
        "bar",
        -10.562963251274253
      ],
      [
        "▁voi",
        -10.567387687123189
      ],
      [
        "▁sar",
        -10.569894167408824
      ],
      [
        "▁vent",
        -10.5714080887246
      ],
      [
        "▁Baa",
        -10.573300452401034
      ],
      [
        "▁kà",
        -10.573786774602151
      ],
      [
        "▁sile",
        -10.574016836059917
      ],
      [
        "▁atte",
        -10.574188155670788
      ],
      [
        "li",
        -10.57509703560726
      ],
      [
        "▁serv",
        -10.577116561413627
      ],
      [
        "▁sortie",
        -10.579196209496125
      ],
      [
        "naiss",
        -10.582508488095987
      ],
      [
        "venu",
        -10.583282678278303
      ],
      [
        "lëer",
        -10.585909483384457
      ],
      [
        "ellement",
        -10.587683547290517
      ],
      [
        "▁l'as",
        -10.589625428719064
      ],
      [
        "▁Xarit",
        -10.590948558558608
      ],
      [
        "▁saw",
        -10.591849595602365
      ],
      [
        "▁x",
        -10.593191237810636
      ],
      [
        "▁sembl",
        -10.594671304744018
      ],
      [
        "▁né",
        -10.596574124972097
      ],
      [
        "▁pot",
        -10.600207960234057
      ],
      [
        "▁goog",
        -10.600563753875567
      ],
      [
        "'arbre",
        -10.601324432133008
      ],
      [
        "▁monta",
        -10.601678568080107
      ],
      [
        "bal",
        -10.602296276293863
      ],
      [
        "mmoon",
        -10.603176407854454
      ],
      [
        "homme",
        -10.60461475608263
      ],
      [
        "▁cere",
        -10.604923730981287
      ],
      [
        "▁Pl",
        -10.607038766253378
      ],
      [
        "éri",
        -10.607766188750084
      ],
      [
        "avec",
        -10.607808650446538
      ],
      [
        "▁voie",
        -10.609620009003779
      ],
      [
        "cult",
        -10.611353519884243
      ],
      [
        "uloo",
        -10.611672532230111
      ],
      [
        "▁habite",
        -10.612141427942241
      ],
      [
        "nces",
        -10.613249919144428
      ],
      [
        "iers",
        -10.61617087856588
      ],
      [
        "wu",
        -10.617034219224326
      ],
      [
        "'aide",
        -10.620275716251632
      ],
      [
        "endi",
        -10.620854725290837
      ],
      [
        "chi",
        -10.622294074247023
      ],
      [
        "orts",
        -10.624628600569194
      ],
      [
        "moom",
        -10.62476925724439
      ],
      [
        "▁pointe",
        -10.625282396341348
      ],
      [
        "endu",
        -10.62745636526399
      ],
      [
        "om",
        -10.627611013871265
      ],
      [
        "sées",
        -10.628292581201297
      ],
      [
        "-même",
        -10.629763822303287
      ],
      [
        "rée",
        -10.631989779607187
      ],
      [
        "▁dey",
        -10.632706729393542
      ],
      [
        "▁Ñung",
        -10.633561534204993
      ],
      [
        "ste",
        -10.633578011959171
      ],
      [
        "▁déta",
        -10.636224604112009
      ],
      [
        "ërëb",
        -10.645823503931846
      ],
      [
        "ide",
        -10.646076068060472
      ],
      [
        "yam",
        -10.647367559239667
      ],
      [
        "tions",
        -10.653236586778291
      ],
      [
        "range",
        -10.654517808839875
      ],
      [
        "kaar",
        -10.654793527510458
      ],
      [
        "▁layu",
        -10.657579670172709
      ],
      [
        "atant",
        -10.658437436927821
      ],
      [
        "emment",
        -10.66045738144345
      ],
      [
        "aal",
        -10.660654382714895
      ],
      [
        "▁manifeste",
        -10.662608634505899
      ],
      [
        "eux-ci",
        -10.662926226454777
      ],
      [
        "▁filles",
        -10.663948772455885
      ],
      [
        "egarde",
        -10.666207020121144
      ],
      [
        "oy",
        -10.671913394242619
      ],
      [
        "ŋk",
        -10.672256521422518
      ],
      [
        "vid",
        -10.674148797244197
      ],
      [
        "uñ",
        -10.675684064346175
      ],
      [
        "ol",
        -10.676235337972233
      ],
      [
        "din",
        -10.676330669269529
      ],
      [
        "bine",
        -10.676625481830316
      ],
      [
        "▁Bëggu",
        -10.677238313081663
      ],
      [
        "▁wal",
        -10.677395570306931
      ],
      [
        "ono",
        -10.682264718455308
      ],
      [
        "entourant",
        -10.682570327532664
      ],
      [
        "uróom-ñ",
        -10.682827787516738
      ],
      [
        "▁heureu",
        -10.684303366615325
      ],
      [
        "▁mur",
        -10.685273744091369
      ],
      [
        "▁conçues",
        -10.687429096107438
      ],
      [
        "▁tire",
        -10.687974724794032
      ],
      [
        "Il",
        -10.68802035123278
      ],
      [
        "ort",
        -10.692209291600625
      ],
      [
        "▁Sor",
        -10.692975816278597
      ],
      [
        "▁dét",
        -10.693778462819015
      ],
      [
        "▁jà",
        -10.694302940076986
      ],
      [
        "▁cu",
        -10.699988248154291
      ],
      [
        "▁rentr",
        -10.699998002542884
      ],
      [
        "▁defee",
        -10.700939857727743
      ],
      [
        "▁cat",
        -10.701667452457501
      ],
      [
        "▁Ou",
        -10.704272401211583
      ],
      [
        "ront",
        -10.711474624021228
      ],
      [
        "▁doxu",
        -10.711482347728541
      ],
      [
        "▁eu",
        -10.719333259232144
      ],
      [
        "ch",
        -10.719869026737435
      ],
      [
        "mal",
        -10.720470031537563
      ],
      [
        "▁ŋgii.",
        -10.722260795266592
      ],
      [
        "aam",
        -10.72366159390848
      ],
      [
        "▁prom",
        -10.730645992554933
      ],
      [
        "off",
        -10.732740219664322
      ],
      [
        "▁manifest",
        -10.733558993325499
      ],
      [
        "▁rag",
        -10.733593790119697
      ],
      [
        "ang",
        -10.734586310071833
      ],
      [
        "rog",
        -10.738579182073355
      ],
      [
        "▁év",
        -10.73926070542937
      ],
      [
        "dar",
        -10.7395459848876
      ],
      [
        "▁accompagne",
        -10.740088379996225
      ],
      [
        "uits",
        -10.740598382224348
      ],
      [
        "'il",
        -10.744487914785793
      ],
      [
        "lig",
        -10.75355415897062
      ],
      [
        "ans",
        -10.759940744189672
      ],
      [
        "▁cou",
        -10.760279201937045
      ],
      [
        "veux",
        -10.76290604970803
      ],
      [
        "wax",
        -10.766606278398163
      ],
      [
        "kku",
        -10.768460096568134
      ],
      [
        "▁ter",
        -10.768554204583019
      ],
      [
        "▁Set",
        -10.768831039003386
      ],
      [
        "▁naaj",
        -10.768973159524304
      ],
      [
        "▁jou",
        -10.76956887074798
      ],
      [
        "abax",
        -10.771903528278012
      ],
      [
        "▁juu",
        -10.772452513693448
      ],
      [
        "ière",
        -10.772969643470208
      ],
      [
        "ati",
        -10.777309376407647
      ],
      [
        "▁xal",
        -10.781747439583489
      ],
      [
        "▁Wan",
        -10.783766674134052
      ],
      [
        "▁yeneen.",
        -10.785830174803138
      ],
      [
        "yul",
        -10.786904794235069
      ],
      [
        "bale",
        -10.787829538875659
      ],
      [
        "▁jeu",
        -10.790092243231364
      ],
      [
        "elui-ci",
        -10.790204002295193
      ],
      [
        "'étai",
        -10.793001845218885
      ],
      [
        "omu",
        -10.794155299754317
      ],
      [
        "sur",
        -10.795498066738343
      ],
      [
        "sse",
        -10.797277932043347
      ],
      [
        "▁tawa",
        -10.802992816142343
      ],
      [
        "▁Té",
        -10.803246733827546
      ],
      [
        "ton",
        -10.809144315677539
      ],
      [
        "nez",
        -10.809235699978323
      ],
      [
        "▁poissons",
        -10.815506396915636
      ],
      [
        "▁Saa",
        -10.815881983067543
      ],
      [
        "▁dà",
        -10.815965868964932
      ],
      [
        "u.",
        -10.817914974670792
      ],
      [
        "res",
        -10.818072957021405
      ],
      [
        "api",
        -10.818566872973227
      ],
      [
        "i-",
        -10.822086819457576
      ],
      [
        "son",
        -10.824050824388133
      ],
      [
        "▁donn",
        -10.826777389375065
      ],
      [
        "rouill",
        -10.827775061932076
      ],
      [
        "iwaa",
        -10.833464796417465
      ],
      [
        "ur.",
        -10.833787561418188
      ],
      [
        "alla",
        -10.834804405847773
      ],
      [
        "àmmoo",
        -10.83558267556236
      ],
      [
        "▁habit",
        -10.836111894932568
      ],
      [
        "▁Deñ",
        -10.83632321406547
      ],
      [
        "'aurai",
        -10.840631155241912
      ],
      [
        "gg",
        -10.841700436231068
      ],
      [
        "▁d'o",
        -10.845000277932419
      ],
      [
        "ooga",
        -10.846229503788468
      ],
      [
        "pi",
        -10.846458036724293
      ],
      [
        "▁lë",
        -10.847188291305844
      ],
      [
        "da",
        -10.84781046040073
      ],
      [
        "woo",
        -10.849802506334784
      ],
      [
        "ŋgoo",
        -10.854835836776841
      ],
      [
        "ndio",
        -10.855458967595265
      ],
      [
        "to",
        -10.856571771359972
      ],
      [
        "ttais",
        -10.861096621661794
      ],
      [
        "eel",
        -10.86148280756307
      ],
      [
        "lors",
        -10.862914347365987
      ],
      [
        "ais-t",
        -10.862952000597849
      ],
      [
        "éra",
        -10.863607338161989
      ],
      [
        "g.",
        -10.864860820433378
      ],
      [
        "ju",
        -10.86703029209562
      ],
      [
        "ets-t",
        -10.875631986429166
      ],
      [
        "▁Fo",
        -10.88040045857532
      ],
      [
        "▁desquel",
        -10.884396002290154
      ],
      [
        "▁assise",
        -10.885583585122227
      ],
      [
        "aumône",
        -10.89029538910207
      ],
      [
        "▁lee",
        -10.897692594847642
      ],
      [
        "rom",
        -10.89787795595307
      ],
      [
        "▁tonn",
        -10.898370081664075
      ],
      [
        "▁Jusqu'",
        -10.902333876320832
      ],
      [
        "▁accompagn",
        -10.903232675525523
      ],
      [
        "sid",
        -10.903261045320157
      ],
      [
        "posés",
        -10.904718446651254
      ],
      [
        "ha",
        -10.906440362678362
      ],
      [
        "vers",
        -10.917423544845843
      ],
      [
        "▁joxo",
        -10.919077318215002
      ],
      [
        "▁naata",
        -10.920651979464061
      ],
      [
        "argent",
        -10.921166161987662
      ],
      [
        "▁buñ",
        -10.921223293216608
      ],
      [
        "llu",
        -10.921341578129516
      ],
      [
        "ànni",
        -10.923613659435242
      ],
      [
        "matu",
        -10.924502641593497
      ],
      [
        "cri",
        -10.931801859555234
      ],
      [
        "joo",
        -10.936475851914416
      ],
      [
        "intérieur",
        -10.936974846561295
      ],
      [
        "▁rapp",
        -10.937884119148645
      ],
      [
        "poisson",
        -10.938473822512515
      ],
      [
        "m.",
        -10.940873413978117
      ],
      [
        "▁ge",
        -10.94173005623817
      ],
      [
        "ndal",
        -10.942754456296521
      ],
      [
        "lait",
        -10.943687908577258
      ],
      [
        "éegu",
        -10.944834264093597
      ],
      [
        "id",
        -10.945899373462016
      ],
      [
        "ami",
        -10.946959026146853
      ],
      [
        "À",
        -10.947687465893795
      ],
      [
        "▁comm",
        -10.948057541555102
      ],
      [
        "▁seeta",
        -10.948173407087431
      ],
      [
        "▁l'on",
        -10.950648371095395
      ],
      [
        "▁auto",
        -10.95273376789116
      ],
      [
        "ction",
        -10.954577288756745
      ],
      [
        "vin",
        -10.95837846103793
      ],
      [
        "▁désir",
        -10.959168570949387
      ],
      [
        "▁telle",
        -10.959772165366196
      ],
      [
        "gée",
        -10.963027278420956
      ],
      [
        "aang",
        -10.964218316819572
      ],
      [
        "acc",
        -10.968484318061062
      ],
      [
        "▁devi",
        -10.96849328440772
      ],
      [
        "▁Mas",
        -10.96992736230487
      ],
      [
        "▁J'a",
        -10.972200188321922
      ],
      [
        "ément",
        -10.97328174295422
      ],
      [
        "ibbisi",
        -10.975005143407941
      ],
      [
        "gga",
        -10.975215496548593
      ],
      [
        "eg",
        -10.97638371546812
      ],
      [
        "ande",
        -10.977971230757069
      ],
      [
        "I",
        -10.979507017059493
      ],
      [
        "yoon",
        -10.980170477981007
      ],
      [
        "dénk",
        -10.988344771435958
      ],
      [
        "laay",
        -10.990565935290258
      ],
      [
        "▁homm",
        -10.990784121831368
      ],
      [
        "▁dan",
        -10.993616833968352
      ],
      [
        "▁boob",
        -10.995846138064184
      ],
      [
        "▁énorm",
        -10.997136005513397
      ],
      [
        "▁yen",
        -10.997407229082953
      ],
      [
        "▁bara",
        -10.997409516624964
      ],
      [
        "'appelles",
        -10.998208039976818
      ],
      [
        "▁batta",
        -10.998255472191001
      ],
      [
        "aujourd'hui",
        -11.006961019170086
      ],
      [
        "▁qua",
        -11.009509210051586
      ],
      [
        "▁souhait",
        -11.012088740370519
      ],
      [
        "ñuul.",
        -11.012099571377519
      ],
      [
        "aaya",
        -11.013658164714109
      ],
      [
        "▁sont-",
        -11.014272470166633
      ],
      [
        "▁fermé",
        -11.015921043345257
      ],
      [
        "table",
        -11.01720092346503
      ],
      [
        "▁Leb",
        -11.017232394275824
      ],
      [
        "pose",
        -11.017793062761166
      ],
      [
        "far",
        -11.017964089153148
      ],
      [
        "▁lalu",
        -11.018149449810558
      ],
      [
        "bilis",
        -11.018655048269505
      ],
      [
        "autre",
        -11.019355040707051
      ],
      [
        "étudiant",
        -11.021879574531088
      ],
      [
        "▁Bule",
        -11.023282269962715
      ],
      [
        "rob",
        -11.023684010885264
      ],
      [
        "rs",
        -11.024841350182259
      ],
      [
        "én",
        -11.025279623137422
      ],
      [
        "takk-der",
        -11.025299789357685
      ],
      [
        "paré",
        -11.025741708011296
      ],
      [
        "▁Maan",
        -11.028441756900534
      ],
      [
        "con",
        -11.036615514779598
      ],
      [
        "▁reven",
        -11.037366212542928
      ],
      [
        "▁want",
        -11.040427650303686
      ],
      [
        "ogul",
        -11.041453114230103
      ],
      [
        "▁Gej",
        -11.041552876864504
      ],
      [
        "viendra",
        -11.042239608773759
      ],
      [
        "▁Ang",
        -11.04649452421629
      ],
      [
        "▁demand",
        -11.049205754272203
      ],
      [
        "▁faa",
        -11.056836966267596
      ],
      [
        "vertes",
        -11.058813261129623
      ],
      [
        "▁say",
        -11.060691764078353
      ],
      [
        "ndé",
        -11.06166870995055
      ],
      [
        "chaise",
        -11.065692651739184
      ],
      [
        "ngel",
        -11.066777515258803
      ],
      [
        "gukaay",
        -11.068447805021167
      ],
      [
        "▁yonn",
        -11.068467524859539
      ],
      [
        "nor",
        -11.070292686657933
      ],
      [
        "abar",
        -11.071130688681706
      ],
      [
        "bëggée",
        -11.07425841017147
      ],
      [
        "aux",
        -11.076068361602852
      ],
      [
        "▁Pa",
        -11.077610419562053
      ],
      [
        "panier",
        -11.07926089561258
      ],
      [
        "ana",
        -11.07941094413859
      ],
      [
        "vu",
        -11.079491555190767
      ],
      [
        "▁cour",
        -11.080090348992778
      ],
      [
        "Mon",
        -11.080634647355492
      ],
      [
        "▁emp",
        -11.081125649716862
      ],
      [
        "dit",
        -11.082033133765226
      ],
      [
        "dessin",
        -11.08219335756276
      ],
      [
        "▁ri",
        -11.083108939099176
      ],
      [
        "▁ndà",
        -11.08404181388715
      ],
      [
        "▁j'e",
        -11.084973812570535
      ],
      [
        "achi",
        -11.085340463536838
      ],
      [
        "ñaxtu",
        -11.089524893312225
      ],
      [
        "côté",
        -11.090256928137656
      ],
      [
        "▁bër",
        -11.09135054621628
      ],
      [
        "▁refus",
        -11.09143922087513
      ],
      [
        "▁pouv",
        -11.09323063292761
      ],
      [
        "uit",
        -11.09334938912175
      ],
      [
        "écrit",
        -11.09343283799838
      ],
      [
        "▁ñuu",
        -11.09481389242406
      ],
      [
        "uuti",
        -11.096200476531713
      ],
      [
        "fe",
        -11.096607743438977
      ],
      [
        "▁envoyé",
        -11.096909328065578
      ],
      [
        "Par",
        -11.097206801853783
      ],
      [
        "demain",
        -11.099630641712219
      ],
      [
        "▁Fe",
        -11.10007568831514
      ],
      [
        "bba",
        -11.100970037170514
      ],
      [
        "xew",
        -11.10734060838309
      ],
      [
        "marché",
        -11.10853283461332
      ],
      [
        "▁t'app",
        -11.109405365326946
      ],
      [
        "jours",
        -11.110754459346518
      ],
      [
        "oreiller",
        -11.113035554344313
      ],
      [
        "yëngu",
        -11.113693030245466
      ],
      [
        "temps",
        -11.114149565838389
      ],
      [
        "vert",
        -11.115826888147195
      ],
      [
        "fukk",
        -11.115996601820639
      ],
      [
        "▁Voi",
        -11.129933271675137
      ],
      [
        "jour",
        -11.131542057764044
      ],
      [
        "ooy",
        -11.131850694999077
      ],
      [
        "présent",
        -11.132245729344945
      ],
      [
        "salaam",
        -11.132516965458596
      ],
      [
        "çon",
        -11.1330954762631
      ],
      [
        "▁dép",
        -11.13424763637891
      ],
      [
        "▁solu",
        -11.13455397659413
      ],
      [
        "▁utilis",
        -11.135346246771903
      ],
      [
        "bët",
        -11.138826779755686
      ],
      [
        "affaire",
        -11.143559636254963
      ],
      [
        "too",
        -11.144689843826802
      ],
      [
        "▁Es",
        -11.14498006515163
      ],
      [
        "échelle",
        -11.14882207121636
      ],
      [
        "sent",
        -11.151224522600996
      ],
      [
        "mm",
        -11.152096992895931
      ],
      [
        "habite",
        -11.15498035274557
      ],
      [
        "dans",
        -11.157872476580163
      ],
      [
        "bout",
        -11.158658160080895
      ],
      [
        "arrive",
        -11.164301975491504
      ],
      [
        "▁Àn",
        -11.16784449198722
      ],
      [
        "▁U",
        -11.16854824486602
      ],
      [
        "▁jaa",
        -11.172242716067114
      ],
      [
        "jur",
        -11.174824216687778
      ],
      [
        "rëm",
        -11.17558233103663
      ],
      [
        "ui.",
        -11.175590916205898
      ],
      [
        "erai",
        -11.176636393704804
      ],
      [
        "mbe",
        -11.17769885150841
      ],
      [
        "▁Ñé",
        -11.178042548488643
      ],
      [
        "▁cara",
        -11.179194037091879
      ],
      [
        "▁hu",
        -11.181262573325714
      ],
      [
        "E",
        -11.181300540691986
      ],
      [
        "▁rep",
        -11.182672981349443
      ],
      [
        "antee",
        -11.183586518105924
      ],
      [
        "assiette",
        -11.18385354736511
      ],
      [
        "étage",
        -11.187881563506844
      ],
      [
        "▁mó",
        -11.188580890839539
      ],
      [
        "▁waxa",
        -11.189610436008016
      ],
      [
        "irent",
        -11.19081969745575
      ],
      [
        "sël",
        -11.191656502937555
      ],
      [
        "attrape",
        -11.193059164923772
      ],
      [
        "jàpp",
        -11.193375201276812
      ],
      [
        "min",
        -11.193934633651716
      ],
      [
        "bou",
        -11.194971242753851
      ],
      [
        "▁Gisul",
        -11.196917729045747
      ],
      [
        "waan",
        -11.19697159028184
      ],
      [
        "▁allon",
        -11.19712023292382
      ],
      [
        "allu",
        -11.19784873018804
      ],
      [
        "▁fû",
        -11.20135929667631
      ],
      [
        "▁gr",
        -11.204817195016446
      ],
      [
        "àndarma",
        -11.205708376284198
      ],
      [
        "▁Jë",
        -11.206147179604544
      ],
      [
        "ô",
        -11.208067839012006
      ],
      [
        "▁rencontr",
        -11.20854799248554
      ],
      [
        "press",
        -11.21040909395292
      ],
      [
        "sembl",
        -11.217870840629402
      ],
      [
        "▁appar",
        -11.220584950911618
      ],
      [
        "gay",
        -11.22237718536476
      ],
      [
        "aucun",
        -11.22260533154409
      ],
      [
        "▁së",
        -11.222960634920076
      ],
      [
        "▁personn",
        -11.224140090113876
      ],
      [
        "ut",
        -11.228513506392021
      ],
      [
        "▁course",
        -11.229977196843418
      ],
      [
        "▁Ré",
        -11.232395391640756
      ],
      [
        "'entr",
        -11.232569954410426
      ],
      [
        "âch",
        -11.233414971996918
      ],
      [
        "orte",
        -11.234683172602862
      ],
      [
        "versé",
        -11.235312610009323
      ],
      [
        "▁duu",
        -11.236811328423883
      ],
      [
        "ble",
        -11.239201094691381
      ],
      [
        "ille-",
        -11.239385597075907
      ],
      [
        "été",
        -11.242126436804789
      ],
      [
        "plais",
        -11.242320075306056
      ],
      [
        "ñca",
        -11.244831977797444
      ],
      [
        "uuf",
        -11.248478383305542
      ],
      [
        "▁pied",
        -11.24965732842727
      ],
      [
        "▁rempli",
        -11.250136477537605
      ],
      [
        "orsqu",
        -11.250173227976628
      ],
      [
        "pax",
        -11.25182524615333
      ],
      [
        "jul",
        -11.252230253364537
      ],
      [
        "jóo",
        -11.254625001007755
      ],
      [
        "sine",
        -11.25520463038061
      ],
      [
        "▁Daawu",
        -11.255289829707973
      ],
      [
        "enti",
        -11.261771472996244
      ],
      [
        "ciment",
        -11.262665192758789
      ],
      [
        "app",
        -11.264696505901973
      ],
      [
        "men",
        -11.265801233863641
      ],
      [
        "▁présen",
        -11.269727403855006
      ],
      [
        "▁yónne",
        -11.270055896684239
      ],
      [
        "▁nale",
        -11.272116674124744
      ],
      [
        "bë",
        -11.273083728710814
      ],
      [
        "▁ouvert",
        -11.27346747763945
      ],
      [
        "▁fekk",
        -11.273583884247994
      ],
      [
        "nant",
        -11.273692645231213
      ],
      [
        "s-ci",
        -11.27463529992842
      ],
      [
        "▁kaasam",
        -11.275444431418375
      ],
      [
        "ition",
        -11.275598240729764
      ],
      [
        "▁ouverte",
        -11.276673766813076
      ],
      [
        "▁plat",
        -11.277055300811163
      ],
      [
        "▁njà",
        -11.27707867834553
      ],
      [
        "▁bâton",
        -11.277540845394748
      ],
      [
        "▁veu",
        -11.28093373272493
      ],
      [
        "▁s'app",
        -11.28409799988676
      ],
      [
        "oyager",
        -11.284844199358258
      ],
      [
        "▁Ag",
        -11.285759447359037
      ],
      [
        "▁Peut",
        -11.286181743206505
      ],
      [
        "▁mbaxan",
        -11.28737347121554
      ],
      [
        "▁concer",
        -11.28808059893627
      ],
      [
        "blig",
        -11.288108148397532
      ],
      [
        "▁yàq",
        -11.288638161857381
      ],
      [
        "▁mois",
        -11.290838726601425
      ],
      [
        "écu",
        -11.290938579542647
      ],
      [
        "rte",
        -11.291146038471467
      ],
      [
        "▁Yée",
        -11.291196669834115
      ],
      [
        "▁yó",
        -11.2914055976636
      ],
      [
        "émo",
        -11.291771210572607
      ],
      [
        "lam",
        -11.292191115250619
      ],
      [
        "▁jigée",
        -11.292817544473092
      ],
      [
        "▁naqa",
        -11.293677158604467
      ],
      [
        "▁Pr",
        -11.294249236426767
      ],
      [
        "▁jigé",
        -11.296170467181229
      ],
      [
        "▁jour",
        -11.296420844155062
      ],
      [
        "▁tente",
        -11.298145403157815
      ],
      [
        "▁croi",
        -11.299574786374697
      ],
      [
        "'ave",
        -11.299722896130213
      ],
      [
        "▁yë",
        -11.29978734740565
      ],
      [
        "▁cohabite",
        -11.302927081212298
      ],
      [
        "▁épo",
        -11.304998094628488
      ],
      [
        "échan",
        -11.305097919112482
      ],
      [
        "ê",
        -11.305224168946964
      ],
      [
        "olitesse",
        -11.305448668475094
      ],
      [
        "▁daaw",
        -11.306104775408594
      ],
      [
        "perç",
        -11.306747803418725
      ],
      [
        "▁vérit",
        -11.308254928412536
      ],
      [
        "ommag",
        -11.30840639519503
      ],
      [
        "▁étudi",
        -11.308421102500352
      ],
      [
        "chelle",
        -11.30867649628178
      ],
      [
        "▁arme",
        -11.308842750607287
      ],
      [
        "cours",
        -11.309613772149712
      ],
      [
        "eaucoup",
        -11.309712443279174
      ],
      [
        "ivres",
        -11.30986958178058
      ],
      [
        "aleeku",
        -11.310257256300533
      ],
      [
        "▁français",
        -11.31028766725523
      ],
      [
        "▁fleu",
        -11.310598253118494
      ],
      [
        "neetar",
        -11.310602535233702
      ],
      [
        "▁au-dess",
        -11.310746331486751
      ],
      [
        "▁vêt",
        -11.31082070860218
      ],
      [
        "mnasti",
        -11.31091861677252
      ],
      [
        "▁dirige",
        -11.31094966970318
      ],
      [
        "ãŋ",
        -11.311053152973322
      ],
      [
        "irgo",
        -11.311064693108376
      ],
      [
        "▁kéw",
        -11.311069666152587
      ],
      [
        "▁certain",
        -11.311082505380913
      ],
      [
        "õ",
        -11.311098131597477
      ],
      [
        "▁1",
        -11.311177117198996
      ],
      [
        "ń",
        -11.311192648084997
      ],
      [
        "ò",
        -11.31119264812494
      ],
      [
        "í",
        -11.311192648124951
      ],
      [
        "ï",
        -11.311192648124951
      ],
      [
        "$",
        -11.311192648124951
      ],
      [
        "ā",
        -11.311192648124951
      ],
      [
        "]",
        -11.311192648124951
      ],
      [
        "[",
        -11.311192648124951
      ],
      [
        "stitué",
        -11.311210416326894
      ],
      [
        "▁thé",
        -11.311215853532303
      ],
      [
        "▁ŋgee",
        -11.311217035009367
      ],
      [
        "approch",
        -11.311247330689774
      ],
      [
        "▁constru",
        -11.311307896500209
      ],
      [
        "ëlë",
        -11.311534287917517
      ],
      [
        "olof",
        -11.311553562833337
      ],
      [
        "▁l'éc",
        -11.311970576989918
      ],
      [
        "mbali",
        -11.312283055483135
      ],
      [
        "vec",
        -11.31246793161551
      ],
      [
        "▁coute",
        -11.312781239063955
      ],
      [
        "ercle",
        -11.312994291219947
      ],
      [
        "ajal",
        -11.312998021185138
      ],
      [
        "▁descend",
        -11.313198482436958
      ],
      [
        "tuellement",
        -11.313792643527139
      ],
      [
        "àngal",
        -11.313908440946056
      ],
      [
        "▁dëg",
        -11.31415455028727
      ],
      [
        "iki",
        -11.315137817591786
      ],
      [
        "▁mê",
        -11.31516449789304
      ],
      [
        "t-c",
        -11.315616472606639
      ],
      [
        "aîne",
        -11.315624462208376
      ],
      [
        "innaaw",
        -11.316251230472837
      ],
      [
        "googee",
        -11.316300030106406
      ],
      [
        "▁l'ex",
        -11.316632075075606
      ],
      [
        "▁Musa",
        -11.31680513202966
      ],
      [
        "politesse",
        -11.31697080686806
      ],
      [
        "ceaux",
        -11.317091527329689
      ],
      [
        "impl",
        -11.31712050913047
      ],
      [
        "ndi",
        -11.317461981293802
      ],
      [
        "marin",
        -11.317773826601774
      ],
      [
        "▁revien",
        -11.317774905773021
      ],
      [
        "▁yaak",
        -11.318051320981292
      ],
      [
        "bond",
        -11.318218886958714
      ],
      [
        "▁inté",
        -11.318355363894202
      ],
      [
        "proch",
        -11.318391434155563
      ],
      [
        "▁solda",
        -11.318941307981373
      ],
      [
        "çu",
        -11.319015411674206
      ],
      [
        "alité",
        -11.31949656702707
      ],
      [
        "▁just",
        -11.32058029638468
      ],
      [
        "▁tiss",
        -11.320828667183989
      ],
      [
        "illir",
        -11.321255234823438
      ],
      [
        "▁Pou",
        -11.321539918472434
      ],
      [
        "dimbal",
        -11.322204105002585
      ],
      [
        "'ve",
        -11.32358188311628
      ],
      [
        "'enfan",
        -11.323837491335482
      ],
      [
        "ggoon",
        -11.324270464658806
      ],
      [
        "▁fran",
        -11.324733086640101
      ],
      [
        "ndika",
        -11.324806712926094
      ],
      [
        "itude",
        -11.325346241836728
      ],
      [
        "ardé",
        -11.325469462926804
      ],
      [
        "liers",
        -11.325622468958555
      ],
      [
        "amaale",
        -11.326920182597812
      ],
      [
        "tëli",
        -11.326987191784182
      ],
      [
        "▁l'h",
        -11.327026006705431
      ],
      [
        "tbal",
        -11.327477218319451
      ],
      [
        "sang",
        -11.32750166799866
      ],
      [
        "-t",
        -11.328338266980381
      ],
      [
        "eloon",
        -11.328410933395967
      ],
      [
        "▁conce",
        -11.329194206604951
      ],
      [
        "diku",
        -11.330369016651584
      ],
      [
        "atum",
        -11.330592389353352
      ],
      [
        "▁cli",
        -11.332290816059439
      ],
      [
        "▁bã",
        -11.33293643004852
      ],
      [
        "tué",
        -11.333487116971344
      ],
      [
        "étend",
        -11.333733598521523
      ],
      [
        "kum",
        -11.335589600075913
      ],
      [
        "ller",
        -11.335599089447449
      ],
      [
        "▁util",
        -11.33595124147486
      ],
      [
        "mages",
        -11.3362677572209
      ],
      [
        "jus",
        -11.336475973359141
      ],
      [
        "▁yegg",
        -11.3367521952072
      ],
      [
        "asiyo",
        -11.33775708985034
      ],
      [
        "▁fanee",
        -11.337817915050447
      ],
      [
        "▁dég",
        -11.337998453754253
      ],
      [
        "épare",
        -11.338404242513072
      ],
      [
        "▁xel",
        -11.339081963077334
      ],
      [
        "ennent",
        -11.340371123916356
      ],
      [
        "géey",
        -11.340987075611896
      ],
      [
        "ëy",
        -11.34144580750882
      ],
      [
        "ffr",
        -11.342126059388402
      ],
      [
        "▁revi",
        -11.34356171973063
      ],
      [
        "fic",
        -11.344473584173715
      ],
      [
        "▁L'au",
        -11.34565571892891
      ],
      [
        "ège",
        -11.34620076923594
      ],
      [
        "▁Tug",
        -11.346695549089672
      ],
      [
        "▁wë",
        -11.347112239858172
      ],
      [
        "port",
        -11.34735577290566
      ],
      [
        "uche.",
        -11.348220775089263
      ],
      [
        "▁Sig",
        -11.349685421511683
      ],
      [
        "pè",
        -11.35081110484402
      ],
      [
        "acti",
        -11.35225252532819
      ],
      [
        "▁Pala",
        -11.352490140269657
      ],
      [
        "eut-être",
        -11.353593385942613
      ],
      [
        "lave",
        -11.354450244630259
      ],
      [
        "que.",
        -11.35749518871706
      ],
      [
        "eku",
        -11.35757973520792
      ],
      [
        "▁Né",
        -11.357857317698397
      ],
      [
        "▁laq",
        -11.358199586713788
      ],
      [
        "▁travaille",
        -11.359102135413224
      ],
      [
        "▁dikk",
        -11.359135245605607
      ],
      [
        "ges",
        -11.360501167304836
      ],
      [
        "▁env",
        -11.36092138969492
      ],
      [
        "ôn",
        -11.363208321182599
      ],
      [
        "▁kaf",
        -11.36330034757186
      ],
      [
        "isite",
        -11.363463406712688
      ],
      [
        "▁dellu",
        -11.363531200529994
      ],
      [
        "cukaay",
        -11.364893852094214
      ],
      [
        "nglais",
        -11.365066536467701
      ],
      [
        "▁tenu",
        -11.365573934712653
      ],
      [
        "iñ",
        -11.365603481753382
      ],
      [
        "Gis",
        -11.36692732096763
      ],
      [
        "appé",
        -11.367080050752422
      ],
      [
        "ëggu",
        -11.367952912397762
      ],
      [
        "▁jëf",
        -11.368286665679365
      ],
      [
        "esca",
        -11.370957331752184
      ],
      [
        "'agir",
        -11.37138042078157
      ],
      [
        "Ma",
        -11.372628918599004
      ],
      [
        "ssées",
        -11.372764639279971
      ],
      [
        "▁serr",
        -11.372928941722536
      ],
      [
        "▁pre",
        -11.373152700853806
      ],
      [
        "aire",
        -11.375841097816247
      ],
      [
        "▁Lool",
        -11.380028898839285
      ],
      [
        "ments",
        -11.380265584600743
      ],
      [
        "▁sav",
        -11.385299131342675
      ],
      [
        "aasamaas",
        -11.385778208851256
      ],
      [
        "▁xoole",
        -11.385795599375308
      ],
      [
        "éeru",
        -11.38663457649063
      ],
      [
        "dal",
        -11.386906138533403
      ],
      [
[...]
