{
  "version": "1.0",
  "truncation": null,
  "padding": null,
  "added_tokens": [
    {
      "id": 0,
      "content": "<s>",
      "single_word": false,
      "lstrip": false,
      "rstrip": false,
      "normalized": false,
      "special": true
    },
    {
      "id": 1,
      "content": "<pad>",
      "single_word": false,
      "lstrip": false,
      "rstrip": false,
      "normalized": false,
      "special": true
    },
    {
      "id": 2,
      "content": "</s>",
      "single_word": false,
      "lstrip": false,
      "rstrip": false,
      "normalized": false,
      "special": true
    },
    {
      "id": 3,
      "content": "<unk>",
      "single_word": false,
      "lstrip": false,
      "rstrip": false,
      "normalized": false,
      "special": true
    },
    {
      "id": 4,
      "content": "<mask>",
      "single_word": false,
      "lstrip": false,
      "rstrip": false,
      "normalized": false,
      "special": true
    }
  ],
  "normalizer": {
    "type": "Replace",
    "pattern": {
      "String": " {2,}"
    },
    "content": " "
  },
  "pre_tokenizer": {
    "type": "Metaspace",
    "replacement": "▁",
    "add_prefix_space": true
  },
  "post_processor": null,
  "decoder": {
    "type": "Metaspace",
    "replacement": "▁",
    "add_prefix_space": true
  },
  "model": {
    "type": "Unigram",
    "unk_id": 3,
    "vocab": [
      [
        "<s>",
        0.0
      ],
      [
        "<pad>",
        0.0
      ],
      [
        "</s>",
        0.0
      ],
      [
        "<unk>",
        0.0
      ],
      [
        "<mask>",
        0.0
      ],
      [
        "▁",
        -2.391688742589973
      ],
      [
        ".",
        -3.21691588653489
      ],
      [
        "!",
        -3.657711105521785
      ],
      [
        "?",
        -3.6818801083324164
      ],
      [
        "s",
        -3.991681021107299
      ],
      [
        ",",
        -4.012087545391157
      ],
      [
        "▁la",
        -4.497497683573386
      ],
      [
        "'est",
        -4.52738712343566
      ],
      [
        "i",
        -4.570584801409005
      ],
      [
        "▁dem",
        -4.621500405149813
      ],
      [
        "u",
        -4.6888463686289015
      ],
      [
        "▁!",
        -4.713226552009799
      ],
      [
        "n",
        -4.791237603538003
      ],
      [
        "▁pas",
        -4.793699790775405
      ],
      [
        "e",
        -4.80184996005782
      ],
      [
        "a",
        -4.843332344657438
      ],
      [
        "▁C",
        -4.855041325444547
      ],
      [
        "▁gi",
        -4.889388590364687
      ],
      [
        "▁de",
        -4.9283815818167325
      ],
      [
        "▁qui",
        -4.939207350485885
      ],
      [
        "▁que",
        -4.972668165229724
      ],
      [
        "t",
        -4.9799695007829365
      ],
      [
        "▁ŋga",
        -5.016491144466889
      ],
      [
        "▁na",
        -5.071421772512258
      ],
      [
        "▁est",
        -5.1143657882305975
      ],
      [
        "▁G",
        -5.12499000962609
      ],
      [
        "óor",
        -5.129673592239404
      ],
      [
        "▁vu",
        -5.2095722996719305
      ],
      [
        "▁naa",
        -5.2652749245001225
      ],
      [
        "▁ne",
        -5.284896440671751
      ],
      [
        "▁Il",
        -5.32974978109183
      ],
      [
        "▁Gis",
        -5.34832517185374
      ],
      [
        "▁Tu",
        -5.388925887526552
      ],
      [
        "▁homme",
        -5.396867992886759
      ],
      [
        "▁été",
        -5.420763044245196
      ],
      [
        "▁un",
        -5.428383114535366
      ],
      [
        "▁L'homme",
        -5.443506820441903
      ],
      [
        "▁tu",
        -5.5157362699152594
      ],
      [
        "▁J'a",
        -5.645518341346381
      ],
      [
        "▁Je",
        -5.653077653316641
      ],
      [
        "y",
        -5.655683136567899
      ],
      [
        "l",
        -5.667327095591088
      ],
      [
        "▁l'homme",
        -5.688253185421275
      ],
      [
        "▁ce",
        -5.689266636298022
      ],
      [
        "▁ñëw",
        -5.690042758783109
      ],
      [
        "▁ci",
        -5.699235840889527
      ],
      [
        "▁wax",
        -5.715399383046845
      ],
      [
        "le",
        -5.792282619016852
      ],
      [
        "▁parti",
        -5.809994266348374
      ],
      [
        "▁mu",
        -5.815506990177592
      ],
      [
        "r",
        -5.851389395082166
      ],
      [
        "▁nit",
        -5.872845784983722
      ],
      [
        "▁Nit",
        -5.8780447927878665
      ],
      [
        "▁góor",
        -5.899224034468439
      ],
      [
        "▁a",
        -5.907713036999569
      ],
      [
        "▁à",
        -5.912937335711697
      ],
      [
        "▁di",
        -5.918699249317222
      ],
      [
        "▁qu'il",
        -5.92790744806075
      ],
      [
        "et",
        -5.98709773370774
      ],
      [
        "à",
        -6.007758620885787
      ],
      [
        "▁les",
        -6.020871068307161
      ],
      [
        "▁cet",
        -6.047700091795708
      ],
      [
        "▁c",
        -6.086464849272684
      ],
      [
        "▁le",
        -6.086958265797077
      ],
      [
        "x",
        -6.086959412873491
      ],
      [
        "▁autre",
        -6.104064170097539
      ],
      [
        "▁yi",
        -6.113351688102308
      ],
      [
        "é",
        -6.1228492810036
      ],
      [
        "▁sont",
        -6.126103777817372
      ],
      [
        "▁ŋgi",
        -6.126345797078027
      ],
      [
        "eneen",
        -6.152098972074119
      ],
      [
        "▁ba",
        -6.1603354885796495
      ],
      [
        "▁ki",
        -6.181006289974638
      ],
      [
        "▁te",
        -6.230848238493699
      ],
      [
        "▁bëgg",
        -6.243074815130125
      ],
      [
        "▁xale",
        -6.246635630345782
      ],
      [
        "▁gis",
        -6.272530253299019
      ],
      [
        "▁ka",
        -6.3018588084475775
      ],
      [
        "oon",
        -6.316880398256724
      ],
      [
        "▁bi",
        -6.317661414326194
      ],
      [
        "▁celui-là",
        -6.330325828051416
      ],
      [
        "▁parle",
        -6.342496693422564
      ],
      [
        "▁as",
        -6.3425435235223
      ],
      [
        "woon",
        -6.359616021531588
      ],
      [
        "▁woon",
        -6.3791676795906085
      ],
      [
        "▁A",
        -6.41481072974862
      ],
      [
        "▁je",
        -6.418576889459881
      ],
      [
        "c",
        -6.432689124947275
      ],
      [
        "▁Dem",
        -6.434087698430675
      ],
      [
        "▁mi",
        -6.43410367962348
      ],
      [
        "▁xar",
        -6.444039266434869
      ],
      [
        "▁lui",
        -6.459225812637933
      ],
      [
        "▁mouton",
        -6.470598449407982
      ],
      [
        "▁voilà",
        -6.470701767844645
      ],
      [
        "al",
        -6.481184491365834
      ],
      [
        "il",
        -6.5059791791280945
      ],
      [
        "▁il",
        -6.508707617093014
      ],
      [
        "▁là",
        -6.516135845729069
      ],
      [
        "▁venu",
        -6.553271634650844
      ],
      [
        "▁demee",
        -6.554880672059976
      ],
      [
        "▁biir",
        -6.559196747075214
      ],
      [
        "▁ji",
        -6.571515488057688
      ],
      [
        "▁partir",
        -6.581305684741676
      ],
      [
        "▁du",
        -6.582819574419551
      ],
      [
        "▁ma",
        -6.586210598113386
      ],
      [
        "▁J",
        -6.600815042711098
      ],
      [
        "▁demul",
        -6.604483552040975
      ],
      [
        "o",
        -6.606458780396064
      ],
      [
        "▁enfants",
        -6.6132033439284745
      ],
      [
        "▁Cet",
        -6.62090277714319
      ],
      [
        "▁ya",
        -6.630017000101851
      ],
      [
        "▁des",
        -6.649828237983188
      ],
      [
        "▁Quel",
        -6.655336557099082
      ],
      [
        "▁n",
        -6.655728220519622
      ],
      [
        "▁ŋgeen",
        -6.659832227487211
      ],
      [
        "▁fi",
        -6.660647577739037
      ],
      [
        "▁dit",
        -6.661458019100551
      ],
      [
        "▁Ci",
        -6.6621378596423
      ],
      [
        "m",
        -6.6636471532404045
      ],
      [
        "▁l'intérieur",
        -6.666385973492682
      ],
      [
        "▁moi",
        -6.6695776504689785
      ],
      [
        "▁laa",
        -6.674258927439521
      ],
      [
        "▁kenn",
        -6.697244786589944
      ],
      [
        "▁ami",
        -6.6990060081713985
      ],
      [
        "▁O",
        -6.710035465253105
      ],
      [
        "▁toi",
        -6.713479999139145
      ],
      [
        "ul",
        -6.715222955921247
      ],
      [
        "▁tout",
        -6.718878333828648
      ],
      [
        "s-t",
        -6.720286008130131
      ],
      [
        "▁part",
        -6.729806136455823
      ],
      [
        "ci",
        -6.737435790872652
      ],
      [
        "est",
        -6.741473687640179
      ],
      [
        "ù",
        -6.749550806108372
      ],
      [
        "▁nag",
        -6.759374145148191
      ],
      [
        "▁n'a",
        -6.759393527167999
      ],
      [
        "▁pour",
        -6.761807933336934
      ],
      [
        "ez",
        -6.763046052461844
      ],
      [
        "▁peut-",
        -6.766665071935934
      ],
      [
        "▁veux",
        -6.771646681105126
      ],
      [
        "nt",
        -6.781192064479407
      ],
      [
        "▁en",
        -6.784302364610646
      ],
      [
        "▁Ce",
        -6.78935374725735
      ],
      [
        "▁vous",
        -6.7911415027964495
      ],
      [
        "re",
        -6.791810381849745
      ],
      [
        "▁Le",
        -6.79460204185424
      ],
      [
        "▁xarit",
        -6.797707729139401
      ],
      [
        "▁ñi",
        -6.798451044009294
      ],
      [
        "▁Xar",
        -6.809430408283818
      ],
      [
        "▁E",
        -6.823209942123549
      ],
      [
        "▁réer",
        -6.848623171456077
      ],
      [
        "▁sa",
        -6.853558939425977
      ],
      [
        "▁Les",
        -6.8547467422338695
      ],
      [
        "▁ag",
        -6.858553797321607
      ],
      [
        "ak",
        -6.860897538412107
      ],
      [
        "es",
        -6.86290940091834
      ],
      [
        "▁jigéen",
        -6.869881539822858
      ],
      [
        "▁Qui",
        -6.875019339342625
      ],
      [
        "▁Fa",
        -6.885574174305505
      ],
      [
        "▁Sée",
        -6.886508383727843
      ],
      [
        "ne",
        -6.895766343484375
      ],
      [
        "▁L",
        -6.9147718015433135
      ],
      [
        "▁moom",
        -6.931446605784684
      ],
      [
        "▁l",
        -6.934908537014831
      ],
      [
        "oo",
        -6.9446236344271135
      ],
      [
        "▁moutons",
        -6.949136678563807
      ],
      [
        "▁d",
        -6.952163910312198
      ],
      [
        "▁femme",
        -6.964826061130326
      ],
      [
        "▁veut",
        -6.96498088798818
      ],
      [
        "▁nda",
        -6.977668297004083
      ],
      [
        "ont",
        -6.985056730313756
      ],
      [
        "tu",
        -6.994724737167184
      ],
      [
        "▁k",
        -7.000224995039527
      ],
      [
        "▁So",
        -7.010088934143443
      ],
      [
        "▁kooku",
        -7.010099187937214
      ],
      [
        "-",
        -7.026193552678614
      ],
      [
        "▁s",
        -7.029137064834789
      ],
      [
        "fa",
        -7.033397545347324
      ],
      [
        "w",
        -7.035485753971093
      ],
      [
        "▁personne",
        -7.036446831834505
      ],
      [
        "▁ave",
        -7.040410265066987
      ],
      [
        "▁où",
        -7.042128946876001
      ],
      [
        "▁Su",
        -7.05022684320722
      ],
      [
        "▁chose",
        -7.052005771515772
      ],
      [
        "▁m",
        -7.060391433050873
      ],
      [
        "te",
        -7.068734923280486
      ],
      [
        "▁se",
        -7.072588950282398
      ],
      [
        "▁Maa",
        -7.07259279365088
      ],
      [
        "▁Vous",
        -7.077217630010334
      ],
      [
        "▁ceux-là",
        -7.078092007828612
      ],
      [
        "▁Que",
        -7.087808394627297
      ],
      [
        "▁ku",
        -7.109705700055843
      ],
      [
        "▁si",
        -7.110181621333673
      ],
      [
        "s.",
        -7.123502220482294
      ],
      [
        "▁maison",
        -7.12562108196814
      ],
      [
        "▁y",
        -7.12602474078086
      ],
      [
        "▁dan",
        -7.128874189315063
      ],
      [
        "▁foofu",
        -7.129038047326041
      ],
      [
        "▁moo",
        -7.1346450670845645
      ],
      [
        "▁doon",
        -7.13600586967671
      ],
      [
        "▁Na",
        -7.140350272830471
      ],
      [
        "▁ni",
        -7.149934415752401
      ],
      [
        "uñu",
        -7.159243666547448
      ],
      [
        "▁Du",
        -7.1634305653751476
      ],
      [
        "na",
        -7.163928612080856
      ],
      [
        "épp",
        -7.165294675597405
      ],
      [
        "▁nañu",
        -7.167864571437057
      ],
      [
        "▁aussi",
        -7.174928733166806
      ],
      [
        "▁gens",
        -7.176987672593596
      ],
      [
        "▁F",
        -7.177707510395171
      ],
      [
        "▁baax",
        -7.178951447819281
      ],
      [
        "tre",
        -7.181526736688637
      ],
      [
        "g",
        -7.186155622526758
      ],
      [
        "▁K",
        -7.1879995854846666
      ],
      [
        "▁vois",
        -7.202803771376718
      ],
      [
        "▁waa",
        -7.2038418936010835
      ],
      [
        "▁dana",
        -7.207461583375947
      ],
      [
        "▁Te",
        -7.209065258569929
      ],
      [
        "koon",
        -7.212161005907603
      ],
      [
        "-là",
        -7.22042658510996
      ],
      [
        "▁La",
        -7.220648571166911
      ],
      [
        "▁jusqu'",
        -7.226328759515791
      ],
      [
        "▁Xale",
        -7.227289493996128
      ],
      [
        "▁yépp",
        -7.228469314825794
      ],
      [
        "▁Keneen",
        -7.229717284627085
      ],
      [
        "▁fu",
        -7.23940080122278
      ],
      [
        "▁Yaa",
        -7.240088351074052
      ],
      [
        "▁ñu",
        -7.265420619523889
      ],
      [
        "▁Va",
        -7.265714413830942
      ],
      [
        "on",
        -7.278533447493842
      ],
      [
        "▁égaré",
        -7.2789076369298
      ],
      [
        "▁lion",
        -7.280474257209854
      ],
      [
        "▁doŋŋ",
        -7.282316420728804
      ],
      [
        "▁Samba",
        -7.282924193695581
      ],
      [
        "▁donné",
        -7.282933414260302
      ],
      [
        "▁l'autre",
        -7.283580888636246
      ],
      [
        "▁quelqu'un",
        -7.283793035144109
      ],
      [
        "▁croi",
        -7.289595182253308
      ],
      [
        "▁Laobe",
        -7.291449571280847
      ],
      [
        "▁Ma",
        -7.2916398719762885
      ],
      [
        "▁S",
        -7.292804436675872
      ],
      [
        "▁man",
        -7.293996954471642
      ],
      [
        "▁Da",
        -7.295778304793604
      ],
      [
        "▁Bëgg",
        -7.3007371212777326
      ],
      [
        "▁Nda",
        -7.303774224763928
      ],
      [
        "is",
        -7.316020542450751
      ],
      [
        "une",
        -7.316589719213825
      ],
      [
        "▁t'a",
        -7.319752712245439
      ],
      [
        "▁quelle",
        -7.324560859551105
      ],
      [
        "▁dee",
        -7.330053853809847
      ],
      [
        "or",
        -7.330944612320267
      ],
      [
        "▁Moo",
        -7.338732328875777
      ],
      [
        "▁rekk",
        -7.341101920880565
      ],
      [
        "▁là-bas",
        -7.341945379250208
      ],
      [
        "▁celui",
        -7.342010793425283
      ],
      [
        "rç",
        -7.342171010405141
      ],
      [
        "▁Mais",
        -7.3428382043521
      ],
      [
        "▁lañu",
        -7.3470408331842325
      ],
      [
        "▁so",
        -7.347419729874293
      ],
      [
        "▁Seet",
        -7.351429157976469
      ],
      [
        "soo",
        -7.354576342981155
      ],
      [
        "▁fa",
        -7.359027663374604
      ],
      [
        "▁autres",
        -7.362211404837492
      ],
      [
        "▁Mi",
        -7.367894338336657
      ],
      [
        "it",
        -7.373955022277329
      ],
      [
        "▁dul",
        -7.375616169305334
      ],
      [
        "▁ñoo",
        -7.376022004765645
      ],
      [
        "▁parte",
        -7.384876031570218
      ],
      [
        "un",
        -7.385923870728359
      ],
      [
        "igéen",
        -7.400000936963744
      ],
      [
        "ent",
        -7.401685110246289
      ],
      [
        "▁Un",
        -7.402787695241361
      ],
      [
        "▁benn",
        -7.403903632126052
      ],
      [
        "ay",
        -7.405679036228182
      ],
      [
        "▁vache",
        -7.405725898559105
      ],
      [
        "ment",
        -7.407747867742682
      ],
      [
        "▁D",
        -7.4092784734522965
      ],
      [
        "▁demkoon",
        -7.412076832732723
      ],
      [
        "▁Waa",
        -7.4130990983318386
      ],
      [
        "ère",
        -7.418261421657597
      ],
      [
        "▁pars",
        -7.422856722289318
      ],
      [
        "▁fait",
        -7.427461177374575
      ],
      [
        "▁j",
        -7.441602626364956
      ],
      [
        "▁Si",
        -7.44182328038577
      ],
      [
        "▁leen",
        -7.453108165343519
      ],
      [
        "▁n'es",
        -7.455364081994758
      ],
      [
        "▁es",
        -7.461902324978077
      ],
      [
        "▁De",
        -7.469404774591787
      ],
      [
        "▁rien",
        -7.470104970295304
      ],
      [
        "▁dara",
        -7.470106821676306
      ],
      [
        "▁ñépp",
        -7.470468902725731
      ],
      [
        "▁Kooku",
        -7.470560461022936
      ],
      [
        "▁ñan",
        -7.470626424654027
      ],
      [
        "▁yooyu",
        -7.471417602858416
      ],
      [
        "▁Ya",
        -7.471780625621507
      ],
      [
        "▁Yaw",
        -7.477310039823575
      ],
      [
        "en",
        -7.486947096975316
      ],
      [
        "▁fii",
        -7.507464589669183
      ],
      [
        "▁Y",
        -7.508815940910628
      ],
      [
        "▁da",
        -7.514435744590971
      ],
      [
        "▁tou",
        -7.525459274610219
      ],
      [
        "▁Ba",
        -7.5263587533850345
      ],
      [
        "▁S'il",
        -7.54097753097909
      ],
      [
        "▁Aucun",
        -7.541294340799617
      ],
      [
        "▁Celui-là",
        -7.5421047205227865
      ],
      [
        "▁simplement",
        -7.542223459066054
      ],
      [
        "▁Saint-Louis",
        -7.54232512640608
      ],
      [
        "▁celui-ci",
        -7.5428640204651884
      ],
      [
        "▁mépp",
        -7.5439223822276595
      ],
      [
        "▁gaynde",
        -7.5446489697316785
      ],
      [
        "▁dame",
        -7.546417995869409
      ],
      [
        "▁Tout",
        -7.548552730248431
      ],
      [
        "▁Ndar",
        -7.552937602564402
      ],
      [
        "▁d'autres",
        -7.559434338659819
      ],
      [
        "ñ",
        -7.560274683128011
      ],
      [
        "C",
        -7.565412688835703
      ],
      [
        "▁n'",
        -7.570831635877011
      ],
      [
        "ê",
        -7.580825978537209
      ],
      [
        "▁son",
        -7.58869713490047
      ],
      [
        "▁b",
        -7.58919150592628
      ],
      [
        "▁seul",
        -7.5914114390027905
      ],
      [
        "êt",
        -7.5968723759951065
      ],
      [
        "▁avait",
        -7.605564686612219
      ],
      [
        "▁quel",
        -7.605708319408156
      ],
      [
        ":",
        -7.6118696158678425
      ],
      [
        "▁su",
        -7.614549722567123
      ],
      [
        "▁jëm",
        -7.61754932425236
      ],
      [
        "▁matin",
        -7.61793603558775
      ],
      [
        "▁Yéen",
        -7.619033475675841
      ],
      [
        "▁Mu",
        -7.619411496827958
      ],
      [
        "▁jeune",
        -7.619618146283743
      ],
      [
        "▁d'",
        -7.6211862770427565
      ],
      [
        "▁bëggul",
        -7.623840407315235
      ],
      [
        "ape",
        -7.626254014570549
      ],
      [
        "▁viendra",
        -7.63336662925839
      ],
      [
        "-ci",
        -7.633419470908967
      ],
      [
        "▁À",
        -7.63773549207909
      ],
      [
        "▁l'",
        -7.641377340416339
      ],
      [
        "▁étai",
        -7.645483286204337
      ],
      [
        "ël",
        -7.6499372797765535
      ],
      [
        "▁fas",
        -7.657658404077339
      ],
      [
        "▁bii",
        -7.663764878340955
      ],
      [
        "▁femmes",
        -7.664765794494329
      ],
      [
        "▁bon",
        -7.665337769836793
      ],
      [
        "óon",
        -7.6666604347618446
      ],
      [
        "▁Ken",
        -7.6759268072424645
      ],
      [
        "▁Quelle",
        -7.680670514652773
      ],
      [
        "▁vienne",
        -7.680841216934921
      ],
      [
        "la",
        -7.682275997888768
      ],
      [
        "de",
        -7.682753924257808
      ],
      [
        "▁R",
        -7.688920414241916
      ],
      [
        "▁def",
        -7.691226618102839
      ],
      [
        "▁kër",
        -7.699845991390626
      ],
      [
        "▁Jox",
        -7.700155649744102
      ],
      [
        "▁génn",
        -7.700576678571516
      ],
      [
        "▁Lawbe",
        -7.701044217694717
      ],
      [
        "▁Defe",
        -7.701277012615211
      ],
      [
        "▁Cherche",
        -7.701438112769949
      ],
      [
        "▁question",
        -7.701632142123802
      ],
      [
        "▁bañ",
        -7.702638335989979
      ],
      [
        "gee",
        -7.703406408598054
      ],
      [
        "oi",
        -7.70580344852856
      ],
      [
        "▁Demal",
        -7.706046133031325
      ],
      [
        "▁doom",
        -7.716700309677212
      ],
      [
        "▁fut",
        -7.717699400437251
      ],
      [
        "▁Bi",
        -7.727687724432369
      ],
      [
        "kan",
        -7.734110310800093
      ],
      [
        "▁ŋgii",
        -7.7368647373534705
      ],
      [
        "▁bien",
        -7.738011634209466
      ],
      [
        "▁Wax",
        -7.745186526959968
      ],
      [
        "▁parles",
        -7.74998844557887
      ],
      [
        "▁nul",
        -7.751070439953189
      ],
      [
        "▁Di",
        -7.751777536947053
      ],
      [
        "▁qu",
        -7.753568457900824
      ],
      [
        "▁ca",
        -7.75639921024319
      ],
      [
        "▁C'",
        -7.7668996980268865
      ],
      [
        "▁daa",
        -7.76806204215333
      ],
      [
        "ñu",
        -7.768797069607425
      ],
      [
        "▁vas",
        -7.770509962486052
      ],
      [
        "▁l'a",
        -7.770651158452823
      ],
      [
        "▁partis",
        -7.77198246847136
      ],
      [
        "é.",
        -7.773953050357955
      ],
      [
        "▁qu'",
        -7.774872705425505
      ],
      [
        "naa",
        -7.777165735062628
      ],
      [
        "▁parl",
        -7.781043928690268
      ],
      [
        "▁liggéey",
        -7.783628429479127
      ],
      [
        "G",
        -7.7849333625767425
      ],
      [
        "▁Homme",
        -7.791484999833138
      ],
      [
        "▁cheval",
        -7.791641995660007
      ],
      [
        "▁Xammee",
        -7.79176909219469
      ],
      [
        "▁Qu'il",
        -7.792072587596294
      ],
      [
        "▁dañu",
        -7.792430022374678
      ],
      [
        "▁kii",
        -7.792702305747972
      ],
      [
        "ement",
        -7.793291546574963
      ],
      [
        "▁yaw",
        -7.793573541342542
      ],
      [
        "▁va",
        -7.797982154487306
      ],
      [
        "▁égarée",
        -7.798043195507832
      ],
      [
        "▁fille",
        -7.79807624675901
      ],
      [
        "ais",
        -7.804947590267378
      ],
      [
        "▁defe",
        -7.8114617299774185
      ],
      [
        "am",
        -7.812324467146832
      ],
      [
        "▁P",
        -7.814095557323608
      ],
      [
        "d",
        -7.815700008749758
      ],
      [
        "▁ira",
        -7.816774519356051
      ],
      [
        "▁soi",
        -7.818692408055126
      ],
      [
        "réer",
        -7.818753471048558
      ],
      [
        "que",
        -7.819965570884447
      ],
      [
        "▁partira",
        -7.823286707739985
      ],
      [
        "▁Nou",
        -7.8235492538850915
      ],
      [
        "▁serai",
        -7.823963640101766
      ],
      [
        "▁Bu",
        -7.823982371523713
      ],
      [
        "tes",
        -7.824342096164127
      ],
      [
        "▁lan",
        -7.837846453235585
      ],
      [
        "▁Sa",
        -7.838910505896731
      ],
      [
        "▁voir",
        -7.840125284087691
      ],
      [
        "▁ban",
        -7.84100891207092
      ],
      [
        "h",
        -7.841091804234813
      ],
      [
        "ait",
        -7.84341210193387
      ],
      [
        "as-",
        -7.845577888051325
      ],
      [
        "▁N",
        -7.845586445651254
      ],
      [
        "▁v",
        -7.850734011922752
      ],
      [
        "▁Li",
        -7.85127094122976
      ],
      [
        "ces",
        -7.85912048573306
      ],
      [
        "b",
        -7.865670039998385
      ],
      [
        "enn",
        -7.875395844155494
      ],
      [
        "▁M",
        -7.883078010146261
      ],
      [
        "atim",
        -7.885682940302507
      ],
      [
        "▁nee",
        -7.887648604166282
      ],
      [
        "▁dugg",
        -7.890760702678355
      ],
      [
        "▁subë",
        -7.89079109485506
      ],
      [
        "▁V",
        -7.891172725052633
      ],
      [
        "▁toog",
        -7.891180424876323
      ],
      [
        "▁Alors",
        -7.891191485823715
      ],
      [
        "▁Moussa",
        -7.891359941834745
      ],
      [
        "▁d'Europe",
        -7.891705631321685
      ],
      [
        "▁Fatim",
        -7.891801792032335
      ],
      [
        "▁biti",
        -7.892611625224518
      ],
      [
        "▁plus",
        -7.8928316285020745
      ],
      [
        "▁Xam",
        -7.895236978063696
      ],
      [
        "▁yeneen",
        -7.898897121066939
      ],
      [
        "▁ñëwul",
        -7.9008261614187365
      ],
      [
        "▁sama",
        -7.902462053478225
      ],
      [
        "▁Koo",
        -7.903226590064321
      ],
      [
        "▁j'a",
        -7.904339374308643
      ],
      [
        "k",
        -7.907056126424533
      ],
      [
        "▁par",
        -7.908138184200683
      ],
      [
        "▁aujourd'hui",
        -7.9116650817885095
      ],
      [
        "▁ici",
        -7.912310747533928
      ],
      [
        "an",
        -7.917482076454927
      ],
      [
        "▁Man",
        -7.920813381434881
      ],
      [
        "▁ja",
        -7.9218476238068245
      ],
      [
        "▁Voil",
        -7.926129413293342
      ],
      [
        "▁partes",
        -7.928923141584198
      ],
      [
        "▁Comme",
        -7.932023540571771
      ],
      [
        "voir",
        -7.940862319046447
      ],
      [
        "▁ay",
        -7.940963896101344
      ],
      [
        "▁ou",
        -7.941312761518462
      ],
      [
        "▁Mon",
        -7.942940431405706
      ],
      [
        "mi",
        -7.946626818491859
      ],
      [
        "uma",
        -7.948974726944598
      ],
      [
        "er",
        -7.949720787620144
      ],
      [
        "gii",
        -7.950200089399616
      ],
      [
        "fin",
        -7.9521380882012735
      ],
      [
        "ons",
        -7.960909692835513
      ],
      [
        "▁am",
        -7.96290841609045
      ],
      [
        "eux",
        -7.970917295292264
      ],
      [
        "vais",
        -7.973139876559819
      ],
      [
        "▁w",
        -7.984295442651129
      ],
      [
        "▁même",
        -7.985403999386061
      ],
      [
        "f",
        -7.985974857167804
      ],
      [
        "▁re",
        -7.98658215511395
      ],
      [
        "▁na.",
        -7.98777853342157
      ],
      [
        "▁Ñ",
        -7.998759830868161
      ],
      [
        "een",
        -8.00102164621557
      ],
      [
        "▁dëkk",
        -8.001938313898721
      ],
      [
        "▁acheté",
        -8.001973859526716
      ],
      [
        "▁Sérère",
        -8.002015963140629
      ],
      [
        "▁néeg",
        -8.002266823382087
      ],
      [
        "▁jaŋg",
        -8.002611482680356
      ],
      [
        "▁ndaw",
        -8.003653365408391
      ],
      [
        "▁Tay",
        -8.003661382094197
      ],
      [
        "▁bépp",
        -8.003854847237598
      ],
      [
        "▁s'en",
        -8.007810805913515
      ],
      [
        "▁tay",
        -8.00994772837818
      ],
      [
        "▁ŋgoon",
        -8.010064386098207
      ],
      [
        "▁Woo",
        -8.010874769703213
      ],
      [
        "▁Là",
        -8.011078682540184
      ],
      [
        "est-ce",
        -8.012694594152734
      ],
      [
        "▁itam",
        -8.013114214294859
      ],
      [
        "▁seen",
        -8.013870825577968
      ],
      [
        "ŋga",
        -8.016887870274811
      ],
      [
        "'étai",
        -8.018154174261221
      ],
      [
        "e.",
        -8.019932947049458
      ],
      [
        "▁Ne",
        -8.024056203415544
      ],
      [
        "ee",
        -8.032874685512837
      ],
      [
        "▁viennes",
        -8.034788457707561
      ],
      [
        "z",
        -8.038809174056523
      ],
      [
        "▁may",
        -8.043688940526293
      ],
      [
        "▁don",
        -8.051565262077297
      ],
      [
        "ag",
        -8.054767221157904
      ],
      [
        "▁mo",
        -8.056172683422382
      ],
      [
        "▁au",
        -8.058200864947615
      ],
      [
        "▁enfant",
        -8.064567740541197
      ],
      [
        "▁eû",
        -8.07401701558447
      ],
      [
        "▁Doo",
        -8.078002591023987
      ],
      [
        "▁entre",
        -8.088608003802328
      ],
      [
        "▁avais",
        -8.089265849205296
      ],
      [
        "les",
        -8.089531424549772
      ],
      [
        "▁gu",
        -8.089862685735737
      ],
      [
        "..",
        -8.092579419428834
      ],
      [
        "leen",
        -8.098391382611018
      ],
      [
        "▁B",
        -8.100376834089273
      ],
      [
        "fois",
        -8.103192308404099
      ],
      [
        "▁no",
        -8.106401433572376
      ],
      [
        "elle",
        -8.106633888308703
      ],
      [
        "oom",
        -8.10813010645324
      ],
      [
        "▁arrivé",
        -8.109320586755466
      ],
      [
        "and",
        -8.113066965165098
      ],
      [
        "▁Noon",
        -8.114488068283636
      ],
      [
        "▁Par",
        -8.124534663689143
      ],
      [
        "gal",
        -8.12474532912004
      ],
      [
        "▁rafet",
        -8.12481665767946
      ],
      [
        "▁encore",
        -8.126408762793616
      ],
      [
        "▁entier",
        -8.126429758224921
      ],
      [
        "▁Waaye",
        -8.1264315445834
      ],
      [
        "▁Loolu",
        -8.126440236532225
      ],
      [
        "▁allé",
        -8.126513065837173
      ],
      [
        "▁chevaux",
        -8.126602932056178
      ],
      [
        "▁pourtant",
        -8.126978567658405
      ],
      [
        "▁Musaa",
        -8.128145036491027
      ],
      [
        "▁Toi",
        -8.130298382734122
      ],
      [
        "▁sortir",
        -8.130316829217879
      ],
      [
        "▁g",
        -8.130433714789278
      ],
      [
        "▁Kookule",
        -8.131523021227853
      ],
      [
        "▁sax",
        -8.134319944142936
      ],
      [
        "st-ce",
        -8.13598766798635
      ],
      [
        "t-il",
        -8.138966359075425
      ],
      [
        "▁Qu",
        -8.138992361432162
      ],
      [
        "▁cherche",
        -8.13997648922771
      ],
      [
        "ma",
        -8.141291637144638
      ],
      [
        "▁Noonu",
        -8.14201228264863
      ],
      [
        "▁mais",
        -8.14328394084188
      ],
      [
        "'habitude",
        -8.146180369738866
      ],
      [
        "iez",
        -8.147013628430994
      ],
      [
        "▁soir",
        -8.150176947454135
      ],
      [
        "▁May",
        -8.151833068247438
      ],
      [
        "▁connais",
        -8.154777123668376
      ],
      [
        "▁bëggée",
        -8.15644402708232
      ],
      [
        "▁Loo",
        -8.158246574622307
      ],
      [
        "ée",
        -8.162871703753627
      ],
      [
        "▁bu",
        -8.171161376980127
      ],
      [
        "▁gan",
        -8.17365953441069
      ],
      [
        "▁vient",
        -8.17643782824232
      ],
      [
        "ënd",
        -8.178287354877835
      ],
      [
        "-t",
        -8.182599039469723
      ],
      [
        "mbaa",
        -8.184685858949399
      ],
      [
        "nd",
        -8.193247366176347
      ],
      [
        "ien",
        -8.194787333493878
      ],
      [
        "ra",
        -8.195439650015818
      ],
      [
        "▁d'autre",
        -8.207985953698769
      ],
      [
        "▁t",
        -8.21628214078211
      ],
      [
        "▁n'ai",
        -8.218043858322723
      ],
      [
        "▁jii",
        -8.220053105527276
      ],
      [
        "▁ñ",
        -8.225293797373338
      ],
      [
        "kat",
        -8.233225583737244
      ],
      [
        "▁L'",
        -8.235976555621068
      ],
      [
        "as",
        -8.244595509323196
      ],
      [
        "▁Laob",
        -8.245291349910376
      ],
      [
        "▁av",
        -8.264456656814392
      ],
      [
        "ou",
        -8.264946067014145
      ],
      [
        "▁boeuf",
        -8.26508056655151
      ],
      [
        "▁yeksi",
        -8.265081214439194
      ],
      [
        "▁Ainsi",
        -8.265084090592156
      ],
      [
        "▁Deŋk",
        -8.265129458489376
      ],
      [
        "▁Mbaa",
        -8.26519946359542
      ],
      [
        "▁téer",
        -8.265410194299964
      ],
      [
        "▁dellusi",
        -8.265737846987358
      ],
      [
        "▁allai",
        -8.265821543471437
      ],
      [
        "près",
        -8.266219805534943
      ],
      [
        "▁tày",
        -8.26639493807445
      ],
      [
        "▁lequel",
        -8.266839406820791
      ],
      [
        "ppelle",
        -8.266987840577999
      ],
      [
        "▁xam",
        -8.267151296706345
      ],
      [
        "▁êtes",
        -8.269429084001104
      ],
      [
        "▁l'enfant",
        -8.269951778826583
      ],
      [
        "▁mère",
        -8.27029483908019
      ],
      [
        "▁Ra",
        -8.27185943495503
      ],
      [
        "▁caus",
        -8.273126435715248
      ],
      [
        "▁Moom",
        -8.273851691063635
      ],
      [
        "▁Foofu",
        -8.274931391310766
      ],
      [
        "▁woo",
        -8.275421023564386
      ],
      [
        "▁Sur",
        -8.276104491599545
      ],
      [
        "▁Cela",
        -8.276837719512272
      ],
      [
        "individu",
        -8.281535239208136
      ],
      [
        "tte",
        -8.28296468578957
      ],
      [
        "óo",
        -8.286138441143082
      ],
      [
        "▁toute",
        -8.286451132779078
      ],
      [
        "▁arrivés",
        -8.287471924835053
      ],
      [
        "ieur",
        -8.291693613727743
      ],
      [
        "▁leneen",
        -8.292184648612103
      ],
      [
        "▁nak",
        -8.294201078707037
      ],
      [
        "▁ñooñu",
        -8.295300284354145
      ],
      [
        "▁wall",
        -8.296377351980189
      ],
      [
        "▁demande",
        -8.298307132970677
      ],
      [
        "▁Ben",
        -8.302460981288567
      ],
      [
        "▁fil",
        -8.302513109245295
      ],
      [
        "▁d'un",
        -8.304838054308089
      ],
      [
        "▁wa",
        -8.314636747048297
      ],
      [
        "▁comme",
        -8.320667433311916
      ],
      [
        "▁bir",
        -8.321127984952579
      ],
      [
        "ar",
        -8.333167197464514
      ],
      [
        "▁jooju",
        -8.333950324643071
      ],
      [
        "ore",
        -8.340991836090367
      ],
      [
        "▁ñooña",
        -8.347304788413995
      ],
      [
        "ale",
        -8.347358331040795
      ],
      [
        "▁Ou",
        -8.354383426818687
      ],
      [
        "pp",
        -8.363312859199029
      ],
      [
        "ka",
        -8.364082767733159
      ],
      [
        "▁p",
        -8.36900508639241
      ],
      [
        "▁m'a",
        -8.371996319248836
      ],
      [
        "▁travail",
        -8.376071065423474
      ],
      [
        "▁Moi",
        -8.377680819215476
      ],
      [
        "ëf",
        -8.401699986350684
      ],
      [
        "▁ju",
        -8.403156906362582
      ],
      [
        "quel",
        -8.407891627198346
      ],
      [
        "▁Men",
        -8.408796474931753
      ],
      [
        "▁W",
        -8.411843984280859
      ],
      [
        "▁nous",
        -8.42429187594403
      ],
      [
        "▁më",
        -8.425825920959747
      ],
      [
        "▁Aujourd'hui",
        -8.431746960797874
      ],
      [
        "▁d'esprit",
        -8.43174696967042
      ],
      [
        "▁Waxtaan",
        -8.431777994945865
      ],
      [
        "▁croyai",
        -8.431781233734538
      ],
      [
        "▁manière",
        -8.431843151698708
      ],
      [
        "▁Génn",
        -8.432085659943201
      ],
      [
        "▁Donne",
        -8.43236392648689
      ],
      [
        "▁noonu",
        -8.433011707631016
      ],
      [
        "▁doonkoon",
        -8.433511692183128
      ],
      [
        "▁Tugël",
        -8.43367157526719
      ],
      [
        "▁reste",
        -8.43368407313181
      ],
      [
        "▁L'un",
        -8.433985344004398
      ],
      [
        "▁fépp",
        -8.434127206223742
      ],
      [
        "▁Waaw",
        -8.434400207331928
      ],
      [
        "▁lëf",
        -8.435218836481397
      ],
      [
        "▁ànd",
        -8.435351876942093
      ],
      [
        "▁sain",
        -8.436522277564057
      ],
      [
        "▁amen",
        -8.437517732051468
      ],
      [
        "▁feneen",
        -8.437647165844465
      ],
      [
        "▁autre-là",
        -8.437895155339351
      ],
      [
        "▁n'étai",
        -8.438002407814302
      ],
      [
        "▁ñaan",
        -8.43841339691085
      ],
      [
        "▁ville",
        -8.438588831095803
      ],
      [
        "bër",
        -8.43861740205639
      ],
      [
        "moi",
        -8.439671251073024
      ],
      [
        "▁endroit",
        -8.441161224948122
      ],
      [
        "éel",
        -8.453537761418577
      ],
      [
        "▁boo",
        -8.454758793852983
      ],
      [
        "▁refuse",
        -8.457247574715781
      ],
      [
        "▁Ki",
        -8.457593477787755
      ],
      [
        "▁boobu",
        -8.458035389757793
      ],
      [
        "▁Waxa",
        -8.47426932838952
      ],
      [
        "▁Dana",
        -8.475515307268205
      ],
      [
        "▁tax",
        -8.47977539951875
      ],
      [
        "connais",
        -8.481531707858386
      ],
      [
        "▁Dan",
        -8.484598345302347
      ],
      [
        "▁f",
        -8.485245694503657
      ],
      [
        "▁pay",
        -8.486365547841885
      ],
      [
        "▁Wa",
        -8.488451919843435
      ],
      [
        "▁Ch",
        -8.4896495306872
      ],
      [
        "▁t'",
        -8.495477149832285
      ],
      [
        "ient",
        -8.496174016691628
      ],
      [
        "▁alal",
        -8.502763547064607
      ],
      [
        "▁wan",
        -8.506559519055278
      ],
      [
        "ñee",
        -8.508604329265133
      ],
      [
        "▁it",
        -8.510764137925898
      ],
      [
        "▁aurai",
        -8.512289207273978
      ],
      [
        "▁T",
        -8.513742672270777
      ],
      [
        "▁moomu",
        -8.520249840713332
      ],
      [
        "▁n'e",
        -8.521832108934422
      ],
      [
        "▁dé",
        -8.523312826634704
      ],
      [
        "▁yaa",
        -8.523742987626289
      ],
      [
        "je",
        -8.534575000740867
      ],
      [
        "▁mes",
        -8.535238848490431
      ],
      [
        "▁aller",
        -8.535577387357998
      ],
      [
        "▁vo",
        -8.53847446310217
      ],
      [
        "▁n'avai",
        -8.538737950458817
      ],
      [
        "ir",
        -8.542373042390004
      ],
      [
        "▁jooj",
        -8.54358447792305
      ],
      [
        "p",
        -8.549004526564657
      ],
      [
        "▁doi",
        -8.553372369910536
      ],
      [
        "▁Daŋg",
        -8.554216917849422
      ],
      [
        "gi",
        -8.561249215081025
      ],
      [
        "▁Dis",
        -8.571681058253228
      ],
      [
        "▁ch",
        -8.576181053391668
      ],
      [
        "j",
        -8.578537177735836
      ],
      [
        "cc",
        -8.588921070790864
      ],
      [
        "▁veni",
        -8.590241157496633
      ],
      [
        "▁Am",
        -8.590474764145311
      ],
      [
        "▁Ñe",
        -8.593638744870315
      ],
      [
        "kk",
        -8.602768122523228
      ],
      [
        "▁leur",
        -8.6068978348805
      ],
      [
        "▁individu",
        -8.60849362002389
      ],
      [
        "▁livre",
        -8.609163372180854
      ],
      [
        "ce",
        -8.622642267942553
      ],
      [
        "▁lieu",
        -8.629695275528373
      ],
      [
        "▁bûcheron",
        -8.631746960771187
      ],
      [
        "▁auparavant",
        -8.631746962956857
      ],
      [
        "▁accepte",
        -8.631746966519326
      ],
      [
        "▁fortune",
        -8.631747003491535
      ],
      [
        "▁maître",
        -8.631747634793875
      ],
      [
        "▁Moontin",
        -8.631749083069954
      ],
      [
        "▁courage",
        -8.631749315445147
      ],
      [
        "▁gentil",
        -8.631765427398243
      ],
      [
        "▁xaalis",
        -8.631771974732027
      ],
      [
        "▁travailleurs",
        -8.6318139225871
      ],
      [
        "▁Ceux-là",
        -8.631907238568717
      ],
      [
        "▁parole",
        -8.631960747968176
      ],
      [
        "▁taxaw",
        -8.632064382957996
      ],
      [
        "▁dëgg",
        -8.632134905001493
      ],
      [
        "▁unique",
        -8.63233527824603
      ],
      [
        "▁kookee",
        -8.632745629509298
      ],
      [
        "▁Ñii",
        -8.632758665058532
      ],
      [
        "▁surtout",
        -8.63287876930056
      ],
      [
        "▁ŋgoogule",
        -8.633220507392112
      ],
      [
        "googule",
        -8.634178465710708
      ],
      [
        "▁nekk",
        -8.636244483317613
      ],
      [
        "▁wet",
        -8.63738330500235
      ],
      [
        "▁reconnu",
        -8.638189335103005
      ],
      [
        "▁Foo",
        -8.638223834942352
      ],
      [
        "▁revienne",
        -8.639559693459129
      ],
      [
        "ë",
        -8.642173379564891
      ],
      [
        "▁deey",
        -8.643504407487955
      ],
      [
        "vait",
        -8.645656687327659
      ],
      [
        "▁eusse",
        -8.645793597164241
      ],
      [
        "▁Dama",
        -8.646272932389227
      ],
      [
        "▁sorti",
        -8.646277338051576
      ],
      [
        "▁beau",
        -8.649743041385571
      ],
      [
        "▁pri",
        -8.655106125694177
      ],
      [
        "▁kee",
        -8.656363213797825
      ],
      [
        "▁mag",
        -8.657829310786347
      ],
      [
        "▁cela",
        -8.671078898427279
      ],
      [
        "r.",
        -8.672214532916572
      ],
      [
        "ton",
        -8.672291548472128
      ],
      [
        "▁ñibbi",
        -8.674506996913752
      ],
      [
        "-il",
        -8.676288235047455
      ],
      [
        "ral",
        -8.678958331967243
      ],
      [
        "rends",
        -8.681034927294217
      ],
      [
        "'esp",
        -8.68189861591188
      ],
      [
        "s-",
        -8.686983307432879
      ],
      [
        "▁Tou",
        -8.688073935734392
      ],
      [
        "egarde",
        -8.690939182795502
      ],
      [
        "aller",
        -8.691498792780104
      ],
      [
        "age",
        -8.691655537497072
      ],
      [
        "▁kookuu",
        -8.697635705082085
      ],
      [
        "▁souhaite",
        -8.699086160660782
      ],
      [
        "aar",
        -8.701525485105247
      ],
      [
        "▁bokk",
        -8.705161885890583
      ],
      [
        "rent",
        -8.706103098733578
      ],
      [
        "mu",
        -8.706389527458539
      ],
      [
        "▁Me",
        -8.707556325419482
      ],
      [
        "▁donne",
        -8.707799291035
      ],
      [
        "esquel",
        -8.711221434059208
      ],
      [
        "▁d'a",
        -8.712859768115063
      ],
      [
        "▁n'as",
        -8.722716971367724
      ],
      [
        "▁në",
        -8.722800690119199
      ],
      [
        "jà",
        -8.725894658146771
      ],
      [
        "▁Ta",
        -8.73089818829554
      ],
      [
        "eur",
        -8.735997998072929
      ],
      [
        "▁be",
        -8.736888844187465
      ],
      [
        "▁Xo",
        -8.737356850653489
      ],
      [
        "▁enfant-",
        -8.738935035697606
      ],
      [
        "▁Lu",
        -8.741909353470835
      ],
      [
        "▁alla",
        -8.74235519441848
      ],
      [
        "▁set",
        -8.744772030343137
      ],
      [
        "▁Bul",
        -8.745070063592838
      ],
      [
        "▁me",
        -8.749736397288356
      ],
      [
        "▁mon",
        -8.753864118385659
      ],
      [
        "lal",
        -8.755304505945032
      ],
      [
        "di",
        -8.760397343105288
      ],
      [
        "obul",
        -8.762880120214335
      ],
      [
        "▁choses",
        -8.763168083567336
      ],
      [
        "ax",
        -8.763348222924227
      ],
      [
        "▁ye",
        -8.768156770911064
      ],
      [
        "▁ko",
        -8.773058332162371
      ],
      [
        "ii",
        -8.77691090273511
      ],
      [
        "mour",
        -8.77956624494519
      ],
      [
        "appartien",
        -8.781027383376056
      ],
      [
        "▁seet",
        -8.781742143893904
      ],
      [
        "kóon",
        -8.783664968399338
      ],
      [
        "▁li",
        -8.784783302988684
      ],
      [
        "ile",
        -8.787528353934828
      ],
      [
        "▁été.",
        -8.79062387801458
      ],
      [
        "ût",
        -8.799593475144539
      ],
      [
        "ri",
        -8.817570969393367
      ],
      [
        "▁ñooñ",
        -8.82233651328111
      ],
      [
        "▁Ŋg",
        -8.833630464144663
      ],
      [
        "wal",
        -8.839890218321495
      ],
      [
        "ŋgeen",
        -8.84366749194412
      ],
      [
        "▁lool",
        -8.844271619351346
      ],
      [
        "▁gisu",
        -8.8458656300933
      ],
      [
        "ti",
        -8.848348959314002
      ],
      [
        "me",
        -8.853889856667594
      ],
      [
        "ici",
        -8.863450942275634
      ],
      [
        "ab",
        -8.869554052353658
      ],
      [
        "our",
        -8.871246651102524
      ],
      [
        "q",
        -8.873463515062893
      ],
      [
        "▁naŋg",
        -8.875523725401044
      ],
      [
        "vous",
        -8.877473963541576
      ],
      [
        "▁habituellement",
        -8.881746960757923
      ],
      [
        "▁l'extérieur",
        -8.881746960757974
      ],
      [
        "»",
        -8.881746960797873
      ],
      [
        "«",
        -8.881746960797873
      ],
      [
        "▁chambre",
        -8.8817470007391
      ],
      [
        "▁garçon",
        -8.88174761608881
      ],
      [
        "▁dehors",
        -8.881747695843542
      ],
      [
        "▁Ñëw",
        -8.881747707792035
      ],
      [
        "▁Birayim",
        -8.881747970332052
      ],
      [
        "▁brave",
        -8.881750577895001
      ],
      [
        "▁veulent",
        -8.881758766335285
      ],
      [
        "▁ëlëk",
        -8.881782516844893
      ],
      [
        "▁haut",
        -8.881842733125934
      ],
      [
        "▁Alfa",
        -8.881848408551264
      ],
      [
        "▁champ",
        -8.881869985195728
      ],
      [
        "▁prêt",
        -8.882007917458353
      ],
      [
        "▁Gaynd",
        -8.882041302334365
      ],
      [
        "▁assis",
        -8.882120467972364
      ],
      [
        "▁Tann",
        -8.882127160722792
      ],
      [
        "▁Demuloo",
        -8.882483030572045
      ],
      [
        "▁NGo",
        -8.882620034035936
      ],
      [
        "▁vrai",
        -8.882844454778716
      ],
      [
        "▁alors",
        -8.883084392474194
      ],
      [
        "▁Ñooñu",
        -8.883557962983296
      ],
      [
        "▁Qu'",
        -8.883720296392143
      ],
      [
        "▁pro",
        -8.88375492252593
      ],
      [
        "▁Demuma",
        -8.884013609720268
      ],
      [
        "▁kookale",
        -8.884707143301641
      ],
      [
        "▁wépp",
        -8.885104536540334
      ],
      [
        "▁pai",
        -8.885973838444878
      ],
      [
        "▁d'habitude",
        -8.886699402785368
      ],
      [
        "▁Demkoon",
        -8.887998672970483
      ],
      [
        "▁donc",
        -8.888108647954992
      ],
      [
        "▁suba",
        -8.888726718784934
      ],
      [
        "▁gën",
        -8.88897683746914
      ],
      [
        "'agit",
        -8.88904302554209
      ],
      [
        "hoisi",
        -8.889602054584586
      ],
      [
        "▁fenn",
        -8.890017799856722
      ],
      [
        "▁t'en",
        -8.891963551064835
      ],
      [
        "au",
        -8.89367897771001
      ],
      [
        "rte",
        -8.893790573909772
      ],
      [
        "▁gaa",
        -8.894409848155274
      ],
      [
        "▁noppi",
        -8.894569157161394
      ],
      [
        "▁Ni",
        -8.894667854138273
      ],
      [
        "▁partent",
        -8.895466904688906
      ],
      [
        "ôt",
        -8.895756113462298
      ],
      [
        "▁Yee",
        -8.896288109047449
      ],
      [
        "ches",
        -8.89644489138853
      ],
      [
        "▁jamb",
        -8.89852892916169
      ],
      [
        "▁s'",
        -8.899307606891867
      ],
      [
        "▁viennent",
        -8.899421472014025
      ],
      [
        "▁Fo",
        -8.89989654120676
      ],
      [
        "ux",
        -8.900222208747904
      ],
      [
        "tout",
        -8.900287711070304
      ],
      [
        "▁serais",
        -8.900344283572773
      ],
      [
        "ule",
        -8.905440952638424
      ],
      [
        "el",
        -8.907046366249832
      ],
      [
        "nañu",
        -8.909615626700038
      ],
      [
        "▁kooka",
        -8.909975481892847
      ],
      [
        "▁Nil",
        -8.91049226133354
      ],
      [
        "▁aime",
        -8.910670472527501
      ],
      [
        "▁j'",
        -8.911015074582433
      ],
      [
        "▁fui",
        -8.912777772631163
      ],
      [
        "bon",
        -8.917938227934972
      ],
      [
        "ier",
        -8.9244032561834
      ],
      [
        "▁n'ira",
        -8.926311983268098
      ],
      [
        "▁pu",
        -8.926569818278269
      ],
      [
        "▁maa",
        -8.929056386515027
      ],
      [
        "▁daw",
        -8.929547560408853
      ],
      [
        "▁ap",
        -8.93058873507578
      ],
      [
        "lles",
        -8.932468086710596
      ],
      [
        "ses",
        -8.932924076774015
      ],
      [
        "▁demb",
        -8.933914084294084
      ],
      [
        "nde",
        -8.935316437589622
      ],
      [
        "▁demuñu",
        -8.93571233279672
      ],
      [
        "▁demain",
        -8.935923330723753
      ],
      [
        "▁doo",
        -8.94038582766327
      ],
      [
        "▁Sama",
        -8.940603616928232
      ],
      [
        "aay",
        -8.943604635459286
      ],
      [
        "▁Kan",
        -8.945509084422287
      ],
      [
        "ai",
        -8.94944818087599
      ],
      [
        "▁lanu",
        -8.95065241992767
      ],
      [
        "▁rë",
        -8.952811295268353
      ],
      [
        "û",
        -8.954277218033045
      ],
      [
        "aux",
        -8.963805604403746
      ],
      [
        "ion",
        -8.965235470309906
      ],
      [
        "▁bo",
        -8.971078321991845
      ],
      [
        "▁xa",
        -8.973527751882084
      ],
      [
        "wul",
        -8.973789408315444
      ],
      [
        "▁Ña",
        -8.974981560899451
      ],
      [
        "▁maye",
        -8.975555331085308
      ],
      [
        "▁s'i",
        -8.978460153164914
      ],
      [
        "▁Ñu",
        -8.98509412057487
      ],
      [
        "▁rée",
        -8.988211995287152
      ],
      [
        "waay",
        -9.005377501508518
      ],
      [
        "▁lawoon",
        -9.005454708982649
      ],
      [
        "fu",
        -9.015725540480295
      ],
      [
        "▁mêmes",
        -9.020110402863812
      ],
      [
        "nent",
        -9.021184625467313
      ],
      [
        "▁cla",
        -9.025405482293595
      ],
      [
        "si",
        -9.026071923138364
      ],
      [
        "▁connaiss",
        -9.027185607564133
      ],
      [
        "▁appelle",
        -9.029692351009622
      ],
      [
        "elui-ci",
        -9.030647250807126
      ],
      [
        "▁Ka",
        -9.036994115456517
      ],
      [
        "off",
        -9.03826372853073
      ],
      [
        "▁ven",
        -9.049691677632236
      ],
      [
        "▁con",
        -9.051950452039739
      ],
      [
        "▁dey",
        -9.055743671283416
      ],
      [
        "nit",
        -9.060055548778138
      ],
      [
        "iggéeykat",
        -9.066119396276063
      ],
      [
        "▁veu",
        -9.067793460068465
      ],
      [
        "▁Com",
        -9.076872502101105
      ],
      [
        "▁yar",
        -9.080823828172404
      ],
      [
        "ku",
        -9.08950261010646
      ],
      [
        "▁ser",
        -9.089899462741585
      ],
      [
        "▁ta",
        -9.089950957781465
      ],
      [
        "▁ñen",
        -9.091608246708205
      ],
      [
        "▁voul",
        -9.098876586486073
      ],
      [
        "war",
        -9.099085389438274
      ],
      [
        "qu",
        -9.101184870430737
      ],
      [
        "appelle",
        -9.127244754101183
      ],
      [
        "aw",
        -9.1288222181485
      ],
      [
        "fait",
        -9.132058848468095
      ],
      [
        "▁partie",
        -9.134609132883146
      ],
      [
        "▁ré",
        -9.141034541296726
      ],
      [
        "▁quelqu",
        -9.14402478815856
      ],
      [
        "ur",
        -9.151492486076961
      ],
      [
        "ñëw",
        -9.156706540299636
      ],
      [
        "amba",
        -9.158959568372149
      ],
      [
        "▁lekk",
        -9.163286114552108
      ],
      [
        "▁yu",
        -9.16498364734947
      ],
      [
        "▁voici",
        -9.170810757385945
      ],
      [
        "▁ver",
        -9.173670175493196
      ],
      [
        "vent",
        -9.17478157359823
      ],
      [
        "▁cha",
        -9.181328640305086
      ],
      [
        "heureu",
        -9.1840511087923
      ],
      [
        "▁too",
        -9.190719650443908
      ],
      [
        "▁J'",
        -9.193426171765587
      ],
      [
        "▁Yooy",
        -9.19578950996677
      ],
      [
        "▁Seeti",
        -9.197736412835637
      ],
      [
        "là",
        -9.198885107585994
      ],
      [
        "▁nëw",
        -9.206916252031863
      ],
      [
        "ache",
        -9.207484852538139
      ],
      [
        "▁po",
        -9.207951487245744
      ],
      [
        "kki",
        -9.207976722204739
      ],
      [
        "onfie",
        -9.211904679917186
      ],
      [
        "ant",
        -9.211916992073633
      ],
      [
        "▁ñaa",
        -9.213148972490957
      ],
      [
        "oow",
        -9.214037500629537
      ],
      [
        "'impo",
        -9.215074285226676
      ],
      [
        "▁Certaine",
        -9.215080346206914
      ],
      [
        "▁fâch",
        -9.215080413513476
      ],
      [
        "▁appelé",
        -9.215080516176434
      ],
      [
        "▁gëléem",
        -9.215080549005675
      ],
      [
        "▁meilleur",
        -9.21508077146716
      ],
      [
        "▁messager",
        -9.215080963162373
      ],
      [
        "▁lutteur",
        -9.215081030102898
      ],
      [
        "▁saŋx",
        -9.215081535773981
      ],
      [
        "▁ressemble",
        -9.215081647323048
      ],
      [
        "▁instant",
        -9.215081666260758
      ],
      [
        "▁cultive",
        -9.215081828673146
      ],
      [
        "▁ensemble",
        -9.215087725788965
      ],
      [
        "▁regard",
        -9.215090865203612
      ],
      [
        "▁chameau",
        -9.215091381370508
      ],
      [
        "échapp",
        -9.215101075591434
      ],
      [
        "▁Sëri",
        -9.21510135273489
      ],
      [
        "▁paresseu",
        -9.215122207297886
      ],
      [
        "▁Yaakaar",
        -9.215128299162629
      ],
      [
        "▁ainsi",
        -9.21516917511074
      ],
      [
        "▁form",
        -9.21521174638158
      ],
      [
        "▁Peul",
        -9.215255106910803
      ],
      [
        "▁Peut-",
        -9.215266723365119
      ],
      [
        "▁dikkul",
        -9.21534672440385
      ],
      [
        "▁Autre",
        -9.215447395163432
      ],
      [
        "▁parents",
        -9.215449276552288
      ],
      [
        "▁Qu'est-ce",
        -9.21553745579325
      ],
      [
        "▁d'entre",
        -9.215596105467158
      ],
      [
        "▁jabar",
        -9.215690487964688
      ],
      [
        "▁Ngo",
        -9.21576338041829
      ],
      [
        "▁l'argent",
        -9.215818837816961
      ],
      [
        "èvre",
        -9.215936297539447
      ],
      [
        "▁jox",
        -9.216053744306137
      ],
      [
        "▁jog",
        -9.216146066095646
      ],
      [
        "ëkk",
        -9.216246243156093
      ],
      [
        "▁ŋgoogu",
        -9.216565320164843
      ],
      [
        "▁Abal",
        -9.216672685138029
      ],
      [
        "▁crain",
        -9.216719807393774
      ],
      [
        "▁vérité",
        -9.216801692304124
      ],
      [
        "▁Pour",
        -9.216960445768867
      ],
      [
        "▁Ici",
        -9.217038128862306
      ],
      [
        "bout",
        -9.217574945738416
      ],
      [
        "▁ceux-ci",
        -9.217655579556514
      ],
      [
        "▁sopp",
        -9.217849920251611
      ],
      [
        "▁enfant-là",
        -9.218892082364176
      ],
      [
        "▁général",
        -9.219282390633333
      ],
      [
        "faire",
        -9.219308481656656
      ],
      [
        "▁beg",
        -9.219651374261584
      ],
      [
        "ous",
        -9.219679169555274
      ],
      [
        "▁bonul",
        -9.220025406400945
      ],
      [
        "llez",
        -9.220524944312825
      ],
      [
        "▁clé",
        -9.22055843790078
      ],
      [
        "▁debout",
        -9.220686124671984
      ],
      [
        "▁wóo",
        -9.221112474486178
      ],
      [
        "uille",
        -9.222654121442156
      ],
      [
        "ki",
        -9.222743449715123
      ],
      [
        "'enfant",
        -9.224794047698582
      ],
      [
        "▁buur",
        -9.225956305295565
      ],
      [
        "erë",
        -9.226966732412887
      ],
      [
        "▁ñuu",
        -9.229743326904066
      ],
      [
        "▁san",
        -9.230365418493651
      ],
      [
        "▁bà",
        -9.232315662874289
      ],
      [
        "▁yaru",
        -9.235875976324529
      ],
      [
        "aamu",
        -9.236172157587381
      ],
      [
        "veille",
        -9.237187367535865
      ],
      [
        "▁homme-ci",
        -9.237195955633139
      ],
      [
        "mmes",
        -9.238660172192844
      ],
      [
        "▁wu",
        -9.239236780087484
      ],
      [
        "▁Gisu",
        -9.240452799502846
      ],
      [
        "▁daawul",
        -9.242191791466482
      ],
      [
        "gël",
        -9.244333486813517
      ],
      [
        "▁booba",
        -9.244538308435235
      ],
      [
        "▁Go",
        -9.24526137561416
      ],
      [
        "use",
        -9.245674032676728
      ],
      [
        "▁Lui",
        -9.246083625601525
      ],
      [
        "ign",
        -9.249030336832407
      ],
      [
        "▁buu",
        -9.25089785671818
      ],
      [
        "▁daal",
        -9.25559371658241
      ],
      [
        "tion",
        -9.25576541453358
      ],
      [
        "▁roi",
        -9.258911007800043
      ],
      [
        "▁confie",
        -9.26116519908519
      ],
      [
        "▁pou",
        -9.262307801550971
      ],
      [
        "âl",
        -9.262746276345815
      ],
      [
        "▁heure",
        -9.264800849925438
      ],
      [
        "▁yooya",
        -9.26545549589024
      ],
      [
        "▁woowa",
        -9.267228817609407
      ],
      [
        "'un",
        -9.267582649628844
      ],
      [
        "▁Defa",
        -9.26781462138625
      ],
      [
        "▁ñj",
        -9.267815359715506
      ],
      [
        "▁bar",
        -9.268542771618787
      ],
      [
        "▁woowu",
        -9.269186607954158
      ],
      [
        "fi",
        -9.269598130547516
      ],
      [
        "▁Kook",
        -9.269922203747708
      ],
      [
        "int",
        -9.269992152795957
      ],
      [
        "▁xamul",
        -9.27078563562349
      ],
      [
        "eux-ci",
        -9.275330682880195
      ],
      [
        "▁Ho",
        -9.285872538468608
      ],
      [
        "▁Ŋgo",
        -9.28609285996333
      ],
      [
        "rage",
        -9.287197090445623
      ],
      [
        "▁juu",
        -9.287550598035718
      ],
      [
        "▁tel",
        -9.290031819375802
      ],
      [
        "▁parler",
        -9.293234885002324
      ],
      [
        "▁n'aur",
        -9.297031904948632
      ],
      [
        "▁Waxul",
        -9.298451845435197
      ],
      [
        "▁Waxu",
        -9.299390499058145
      ],
      [
        "▁X",
        -9.302050330143718
      ],
      [
        "▁mang",
        -9.303119143269733
      ],
      [
        "▁sout",
        -9.304136567252785
      ],
      [
        "▁mën",
        -9.30893857091218
      ],
      [
        "▁ñe",
        -9.312545630867113
      ],
      [
        "éeg",
        -9.312768302592545
      ],
      [
        "▁loolu",
        -9.315325853737455
      ],
      [
        "lé",
        -9.321625942440907
      ],
      [
        "eut",
        -9.325889927382626
      ],
      [
        "▁wi",
        -9.32641384363571
      ],
      [
        "▁Nee",
        -9.32791757468383
      ],
      [
        "lui",
        -9.328943559921179
      ],
      [
        "▁désire",
        -9.330614996708334
      ],
      [
        "▁fo",
        -9.3378219587865
      ],
      [
        "vant",
        -9.338124260917331
      ],
      [
        "ais-t",
        -9.342234168923204
      ],
      [
        "neen",
        -9.34270824639481
      ],
      [
        "róo",
        -9.347057332092891
      ],
      [
        "rain",
        -9.347383866242048
      ],
      [
        "dé",
        -9.349989105696316
      ],
      [
        "▁fr",
        -9.351814282814773
      ],
      [
        "avait",
        -9.351987182933616
      ],
      [
        "bi",
        -9.356559727210486
      ],
      [
        "autrefois",
        -9.362739471801458
      ],
      [
        "v",
        -9.36319094459661
      ],
      [
        "'aumône",
        -9.368243861287201
      ],
      [
        "▁jam",
        -9.382799510027356
      ],
      [
        "▁Jée",
        -9.387350024683624
      ],
      [
        "vers",
        -9.388305977726832
      ],
      [
        "▁gra",
        -9.393034506074937
      ],
      [
        "▁partai",
        -9.394392416398473
      ],
      [
        "mm",
        -9.39562961579069
      ],
      [
        "ffi",
        -9.400148935194784
      ],
      [
        "▁kook",
        -9.401680420655872
      ],
      [
        "e-le",
        -9.402485738681378
      ],
      [
        "ooñii",
        -9.408797315796518
      ],
      [
        "▁dam",
        -9.409479993303982
      ],
      [
        "▁dois",
        -9.417254825096313
      ],
      [
        "ages",
        -9.423796860610395
      ],
      [
        "irai",
        -9.432321488525785
      ],
      [
        "xaw",
        -9.452905683183522
      ],
      [
        "▁Celui",
        -9.453937933112204
      ],
      [
        "▁Nag",
        -9.453961686945874
      ],
      [
        "▁men",
        -9.45434418564647
      ],
      [
        "▁seri",
        -9.45662894290445
      ],
      [
        "agg",
        -9.460161663388314
      ],
      [
        "▁sou",
        -9.461824682711176
      ],
      [
        "apprécie",
        -9.46665396755972
      ],
      [
        "▁h",
        -9.470063677299267
      ],
      [
        "se",
        -9.47181500690005
      ],
      [
        "dem",
        -9.474191312794469
      ],
      [
        "▁Jë",
        -9.476637156060622
      ],
      [
        "▁ter",
        -9.477541155229979
      ],
      [
        "bien",
        -9.480788851242242
      ],
      [
        "▁Ñaa",
        -9.48730987417414
      ],
      [
        "▁Liggéey",
        -9.492870255183005
      ],
      [
        "ité",
        -9.499252834219893
      ],
      [
        "uis",
        -9.499809476305765
      ],
      [
        "ob",
        -9.50069650520881
      ],
      [
        "-même",
        -9.503791476335756
      ],
      [
        "▁entra",
        -9.506699988120312
      ],
      [
        "vient",
        -9.509783671156523
      ],
      [
        "▁nd",
        -9.511187106966233
      ],
      [
        "ày",
        -9.519465812244302
      ],
      [
        "wuñu",
        -9.520532237592374
      ],
      [
        "▁bavard",
        -9.525551774734534
      ],
      [
        "bokk",
        -9.529088510668252
      ],
      [
        "▁batt",
        -9.533898899721125
      ],
      [
        "oba",
        -9.53442467823374
      ],
      [
        "▁e",
        -9.534826387606483
      ],
      [
        "▁Ja",
        -9.53617711704362
      ],
      [
        "▁ŋg",
        -9.538888195302029
      ],
      [
        "▁ŋgoo",
        -9.540700126480024
      ],
      [
        "'en",
        -9.551175497410645
      ],
      [
        "▁Ko",
        -9.556595925858835
      ],
      [
        "ide",
        -9.56322706812864
      ],
      [
        "nu",
        -9.567883351429932
      ],
      [
        "â",
        -9.57024812738351
      ],
      [
        "▁To",
        -9.570390389511303
      ],
      [
        "▁pré",
        -9.571740812954628
      ],
      [
        "alal",
        -9.573365559822982
      ],
      [
        "entre",
        -9.577145233145187
      ],
      [
        "J",
        -9.582366157144163
      ],
      [
        "min",
        -9.591717585329839
      ],
      [
        "mar",
        -9.606591121691947
      ],
      [
        "dul",
        -9.60702894592582
      ],
      [
        "▁H",
        -9.60906914797218
      ],
      [
        "▁l'o",
        -9.609555366665765
      ],
      [
        "abal",
        -9.614823814926641
      ],
      [
        "gul",
        -9.615072087946109
      ],
      [
        "ful",
        -9.616716959085174
      ],
      [
        "▁Xa",
        -9.61972737840228
      ],
      [
        "nez",
        -9.624063873986554
      ],
      [
        "▁peu",
        -9.626230318431455
      ],
      [
        "▁all",
        -9.626391822628449
      ],
      [
        "▁nan",
        -9.636243434669666
      ],
      [
        "▁Die",
        -9.637106188748112
      ],
      [
        "▁Att",
        -9.645506821201874
      ],
      [
        "▁mba",
        -9.645786974725509
      ],
      [
        "▁confi",
        -9.649685817207
      ],
      [
        "▁cherch",
        -9.6506637910202
      ],
      [
        "ence",
        -9.653825141599942
      ],
      [
        "illes",
        -9.654458946151397
      ],
      [
        "a.",
        -9.654994312141401
      ],
      [
        "in",
        -9.659356652250459
      ],
      [
        "ool",
        -9.660268941542192
      ],
      [
        "tant",
        -9.661495314469393
      ],
      [
        "kon",
        -9.661814962348142
      ],
      [
        "▁n'ir",
        -9.662388613982893
      ],
      [
        "▁trouve",
        -9.666734448721979
      ],
      [
        "▁cont",
        -9.667600122884904
      ],
      [
        "▁vou",
        -9.67415640483626
      ],
      [
        "▁foof",
        -9.676122252871595
      ],
      [
        "▁jour",
        -9.677034546950644
      ],
      [
        "▁Foof",
        -9.677220418859662
      ],
      [
        "ttends",
        -9.677275989996797
      ],
      [
        "▁bëggu",
        -9.677962646159216
      ],
      [
        "jóo",
        -9.680181430238342
      ],
      [
        "ets-t",
        -9.680670095221611
      ],
      [
        "▁viendr",
        -9.681935630261604
      ],
      [
        "onvers",
        -9.683411535164819
      ],
      [
        "▁See",
        -9.685600789874549
      ],
      [
        "▁gaynd",
        -9.68722386421586
      ],
      [
        "▁nopp",
        -9.689218467611667
      ],
      [
        "▁sot",
        -9.691781434973247
      ],
      [
        "▁vi",
        -9.692502594782756
      ],
      [
        "illeurs",
        -9.693321594955796
      ],
      [
        "▁vill",
        -9.694804605408788
      ],
      [
        "è",
        -9.695333935778773
      ],
      [
        "▁recon",
        -9.695906669804291
      ],
      [
        "▁parla",
        -9.696762643403964
      ],
      [
        "▁d'o",
        -9.697006815868866
      ],
      [
        "met",
        -9.702719483854143
      ],
      [
        "▁gë",
        -9.706383910684425
      ],
      [
        "▁génér",
        -9.708294192985875
      ],
      [
        "▁D'a",
        -9.708441200281888
      ],
      [
        "lors",
        -9.708684918117862
      ],
      [
        "góor",
        -9.709765855081605
      ],
      [
        "▁jaŋ",
        -9.711552009491355
      ],
      [
        "à-bas",
        -9.712241644385376
      ],
      [
        "▁yab",
        -9.714534362144056
      ],
      [
        "▁trou",
        -9.714784378070219
      ],
      [
        "É",
        -9.71508029409125
      ],
      [
        "(",
        -9.71508029409125
      ],
      [
        ")",
        -9.715080294131205
      ],
      [
        "▁impoli",
        -9.71508029416028
      ],
      [
        "▁Niominka.",
        -9.71508029417684
      ],
      [
        "▁certainement",
        -9.715080297494284
      ],
      [
        "▁totalité",
        -9.715080331548728
      ],
      [
        "▁tambour",
        -9.715080371374974
      ],
      [
        "▁yalwaan",
        -9.715080470219888
      ],
      [
        "▁Dites-l",
        -9.715084584892235
      ],
      [
        "▁bouge",
        -9.715090078965076
      ],
      [
        "politesse",
        -9.715090928722606
      ],
      [
        "▁moontin",
        -9.715093033699212
      ],
      [
        "▁petit",
        -9.715096112132231
      ],
      [
        "▁répét",
        -9.7150977924029
      ],
      [
        "▁L'endroit",
        -9.715144827734514
      ],
      [
        "▁gosse",
        -9.715202114932929
      ],
      [
        "▁propos",
        -9.715231194533358
      ],
      [
        "▁descendra",
        -9.715239398689002
      ],
      [
        "âche",
        -9.715266471339719
      ],
      [
        "▁Dellu",
        -9.71529947945361
      ],
      [
        "▁bënn",
        -9.715336169133565
      ],
      [
        "▁oreille",
        -9.715367874130836
      ],
      [
        "▁yeggee",
        -9.715369601561783
      ],
      [
        "awbe",
        -9.715369781233099
      ],
      [
        "▁Wutël",
        -9.715463174129123
      ],
      [
        "▁qu'e",
        -9.715553223364756
      ],
      [
        "▁j'apprécie",
        -9.715585876520157
      ],
      [
        "▁Lebou",
        -9.715618464716938
      ],
      [
        "▁cohabitent",
        -9.715627952586859
      ],
      [
        "affaire",
        -9.715785575412957
      ],
      [
        "▁Musta",
        -9.715839104478771
      ],
      [
        "▁prop",
        -9.715984639559458
      ],
      [
        "▁présen",
        -9.716129954485632
      ],
      [
        "▁suuf",
        -9.716176872656465
      ],
      [
        "ayim",
        -9.716218722887316
      ],
      [
        "▁toi-même",
        -9.716290074271278
      ],
      [
        "▁moi-même",
        -9.71631504836437
      ],
      [
        "▁vous-même",
        -9.7163157922573
      ],
      [
        "▁raison",
        -9.716529599112526
      ],
      [
        "▁genre",
        -9.716573612647805
      ],
      [
        "cert",
        -9.71671814110204
      ],
      [
        "spér",
        -9.716752864522059
      ],
      [
        "▁tayel",
        -9.716870753807314
      ],
      [
        "époque",
        -9.716946052404165
      ],
      [
        "▁L'autre",
        -9.717329924898266
      ],
      [
        "▁inter",
        -9.717343800674314
      ],
      [
        "▁t'aurai",
        -9.717763748130787
      ],
      [
        "▁ardo",
        -9.71823775626843
      ],
      [
        "▁Bira",
        -9.71842599923356
      ],
      [
        "▁reconn",
        -9.718861989224788
      ],
      [
        "▁vertu",
        -9.718911653453425
      ],
      [
        "▁doomam",
        -9.719182214585455
      ],
      [
        "▁dawul",
        -9.719751493644507
      ],
      [
        "▁conna",
        -9.719844650712007
      ],
      [
        "▁wenn",
        -9.719956643582698
      ],
      [
        "▁dents",
        -9.719973666724137
      ],
      [
        "▁Kaay",
        -9.720344749696249
      ],
      [
        "▁disc",
        -9.720391512740031
      ],
      [
        "ër",
        -9.720447962205892
      ],
      [
        "▁travaillait",
        -9.72044921723106
      ],
      [
        "▁noir",
        -9.720582419402257
      ],
      [
        "▁feeñ",
        -9.720798620404027
      ],
      [
        "nnée",
        -9.720936921788024
      ],
      [
        "▁voya",
        -9.721359358613554
      ],
      [
        "ît",
        -9.721444628917162
      ],
      [
        "èv",
        -9.721531262642092
      ],
      [
        "▁yëf",
        -9.721594775331733
      ],
      [
        "▁rafetul",
        -9.721656475080287
      ],
      [
        "▁àndal",
        -9.722131319663795
      ],
      [
        "▁yeg",
        -9.722500232371612
      ],
      [
        "▁connaisse",
        -9.722604755446008
      ],
      [
        "▁par-là",
        -9.723680149784343
      ],
      [
        "▁fen",
        -9.723832711909774
      ],
      [
        "▁lieux",
        -9.723946029077856
      ],
      [
        "ërëm",
        -9.7242014992611
      ],
      [
        "▁mort",
        -9.724479570250391
      ],
      [
        "▁Daawul",
        -9.724504776141243
      ],
      [
        "▁port",
        -9.724867877993885
      ],
      [
        "homme",
        -9.724963077277796
      ],
      [
        "▁bëtt",
        -9.725465960270473
      ],
      [
        "▁Leur",
        -9.725786590777911
      ],
      [
        "ersonne",
        -9.726213412122995
      ],
      [
        "▁n'allai",
        -9.72654485097136
      ],
      [
        "▁mor",
        -9.726873996310374
      ],
      [
        "▁vien",
        -9.727171334955914
      ],
      [
        "▁xaritam",
        -9.72717827802629
      ],
      [
        "drai",
        -9.72759835724561
      ],
      [
        "▁dég",
        -9.728419509764901
      ],
      [
        "▁Amin",
        -9.728954197397716
      ],
      [
        "aaw",
        -9.72910612049523
      ],
      [
        "trouvé",
        -9.729409928108275
      ],
      [
        "▁koo",
        -9.730424400881938
      ],
      [
        "▁lumi",
        -9.730456530224476
      ],
      [
        "▁doyu",
        -9.731099087678258
      ],
      [
        "▁jusqu'ici",
        -9.731296951572684
      ],
      [
        "séd",
        -9.733309960386977
      ],
      [
        "▁rentrer",
        -9.734942747442913
      ],
      [
        "▁gaal",
        -9.735361561318237
      ],
      [
        "oudr",
        -9.735456175869821
      ],
      [
        "ëlé",
        -9.73712650683687
      ],
      [
        "âg",
        -9.737690157253452
      ],
      [
        "▁wut",
        -9.738178176121682
      ],
      [
        "ailleurs",
        -9.739589961161919
      ],
      [
        "▁Don",
        -9.743216816255027
      ],
      [
        "▁Ai",
        -9.74369339849041
      ],
      [
        "▁pa",
        -9.743744343827863
      ],
      [
        "ourri",
        -9.744378833365445
      ],
      [
        "oyager",
        -9.745061562548036
      ],
      [
        "çon",
        -9.745506484027606
      ],
      [
        "cun",
        -9.745588462773071
      ],
      [
        "ré",
        -9.747553490794933
      ],
      [
        "sard",
        -9.74761094038369
      ],
      [
        "ers",
        -9.747628591205565
      ],
      [
        "lle",
        -9.74795797423214
      ],
      [
        "▁Yooyu",
        -9.748388988150946
      ],
      [
        "▁lionne",
        -9.74864344392089
      ],
      [
        "▁disp",
        -9.748673201413911
      ],
      [
        "pas",
        -9.749415489792566
      ],
      [
        "lig",
        -9.749605162613102
      ],
      [
        "▁kaw",
        -9.75050853590989
      ],
      [
        "aucun",
        -9.750718729987693
      ],
      [
        "▁ceux",
        -9.751454285328357
      ],
      [
        "▁foo",
        -9.753263871095404
      ],
      [
        "aille",
        -9.754673391597315
      ],
      [
        "▁bëggé",
        -9.754710683292473
      ],
      [
        "rdo",
        -9.755207117846501
      ],
      [
        "▁née",
        -9.756472044104157
      ],
      [
        "vé",
        -9.757455240915611
      ],
      [
        "▁Leb",
        -9.75832470044645
      ],
      [
        "eegu",
        -9.758517560985789
      ],
      [
        "▁jours",
        -9.759451030471382
      ],
      [
        "▁jar",
        -9.759808700169714
      ],
      [
        "▁voulez",
        -9.760691190803952
      ],
      [
        "▁to",
        -9.760809500017015
      ],
      [
        "qu'il",
        -9.761179085786651
      ],
      [
        "▁voit",
        -9.7640368748614
      ],
      [
        "▁allez",
        -9.76695183882062
      ],
      [
        "▁sort",
        -9.767474428125174
      ],
      [
        "▁trouver",
        -9.769567850390713
      ],
      [
        "▁desquel",
        -9.770352043802351
      ],
      [
        "▁morts",
        -9.770394579383053
      ],
      [
        "che",
        -9.771267166051759
      ],
      [
        "▁travaill",
        -9.773096644781257
      ],
      [
        "▁jë",
        -9.773605654863314
      ],
      [
        "toi",
        -9.780313720788303
      ],
      [
        "▁Sen",
        -9.781651674761816
      ],
      [
        "puisé",
        -9.782158167486777
      ],
      [
        "▁livres",
        -9.783883825273826
      ],
      [
        "▁jale",
        -9.785602556178588
      ],
      [
        "▁sur",
        -9.78639830997216
      ],
      [
        "▁Bon",
        -9.786823650514286
      ],
      [
        "▁cu",
        -9.78743519226816
      ],
      [
        "ŋk",
        -9.788245005711513
      ],
      [
        "▁fût",
        -9.788833413839157
      ],
      [
        "▁yaay",
        -9.789201944463603
      ],
      [
        "▁Ñen",
        -9.796582524194076
      ],
      [
        "▁voici.",
        -9.798883333910423
      ],
      [
        "▁meneen",
        -9.800676322988235
      ],
      [
        "▁Nu",
        -9.800820122518601
      ],
      [
        "▁xal",
        -9.804326158120883
      ],
      [
        "▁bul",
        -9.80558482830329
      ],
      [
        "▁t'e",
        -9.806654669712135
      ],
      [
        "▁ño",
        -9.813038871243275
      ],
      [
        "▁daaw",
        -9.81361969496734
      ],
      [
        "edress",
        -9.813638038939743
      ],
      [
        "bal",
        -9.814954818272923
      ],
      [
        "abar",
        -9.815748094410106
      ],
      [
        "▁waxtu",
        -9.816240888774269
      ],
      [
        "pir",
        -9.818673009109556
      ],
      [
        "outer",
        -9.819219897101243
      ],
      [
        "▁vie",
        -9.820664897894844
      ],
      [
        "▁Set",
        -9.822821516080738
      ],
      [
        "▁co",
        -9.82515964706836
      ],
      [
        "▁Wan",
        -9.827582959305047
      ],
      [
        "▁rag",
        -9.827998905133661
      ],
      [
        "lóo",
        -9.834464846703483
      ],
      [
        "▁puis",
        -9.835272931849355
      ],
      [
        "▁êt",
        -9.837511556648776
      ],
      [
        "dina",
        -9.838371695851844
      ],
      [
        "uloo",
        -9.844860897002514
      ],
      [
        "ends-",
        -9.84639196544639
      ],
      [
        "▁l'as",
        -9.847727125239569
      ],
      [
        "ffr",
        -9.847890069042942
      ],
      [
        "▁lama",
        -9.847953902445521
      ],
      [
        "ois",
        -9.8499440392749
      ],
      [
        "▁bant",
        -9.850034541596347
      ],
      [
        "▁Ca",
        -9.852954829581046
      ],
      [
        "ekk",
        -9.856299262990767
      ],
      [
        "▁pr",
        -9.859455916329681
      ],
      [
        "▁s'assi",
        -9.859551449218483
      ],
      [
        "able",
        -9.87263809733003
      ],
      [
        "accompagne",
        -9.874328146329656
      ],
      [
        "nversé",
        -9.876992319462522
      ],
      [
        "itu",
        -9.87732583394368
      ],
      [
        "▁Yen",
        -9.879133753042977
      ],
      [
        "▁donn",
        -9.881167737962578
      ],
      [
        "▁Té",
        -9.884273464651725
      ],
      [
        "étend",
        -9.88580915724611
      ],
      [
        "'étudiant",
        -9.88832310524466
      ],
      [
        "▁jee",
        -9.889609844574055
      ],
      [
        "▁lekku",
        -9.896822690652204
      ],
      [
        "▁Mets",
        -9.898580830011312
      ],
      [
        "▁yi.",
        -9.915808923223583
      ],
      [
        "▁mar",
        -9.917048452158223
      ],
      [
        "ver",
        -9.920036621847718
      ],
      [
        "aurai",
        -9.923721981136078
      ],
      [
        "▁reveni",
        -9.925382660577968
      ],
      [
        "lu",
        -9.931667682044942
      ],
      [
        "axtaan",
        -9.933937241016844
      ],
      [
        "▁voulai",
        -9.936728236261514
      ],
      [
        "▁él",
        -9.93885865835178
      ],
      [
        "▁rentr",
        -9.941128628942478
      ],
      [
        "nee",
        -9.94701982885152
      ],
      [
        "▁bavarda",
        -9.947528107346553
      ],
      [
        "▁lë",
        -9.948630704472974
      ],
      [
        "▁xe",
        -9.948757153958022
      ],
      [
        "qui",
        -9.950473725315343
      ],
      [
        "▁tawa",
        -9.951344896172033
      ],
      [
        "app",
        -9.953788046990708
      ],
      [
        "▁Ño",
        -9.955599239925133
      ],
      [
        "igne",
        -9.962569677758651
      ],
      [
        "▁Saa",
        -9.966826125448572
      ],
      [
        "▁war",
        -9.97410223341188
      ],
      [
        "▁éc",
        -9.974710992728864
      ],
      [
        "oy",
        -9.982269027893231
      ],
      [
        "▁né",
        -9.983013343554187
      ],
      [
        "▁arriv",
        -9.986255174186542
      ],
      [
        "ew",
        -9.986871896505123
      ],
      [
        "ros",
        -9.988705866594232
      ],
      [
        "ppartien",
        -9.989425404372561
      ],
      [
        "avant",
        -9.998214755621023
      ],
      [
        "▁l'e",
        -9.999579929800731
      ],
      [
        "ji",
        -10.003051765034149
      ],
      [
        "'euss",
        -10.00615177511414
      ],
      [
        "▁gr",
        -10.011270659732329
      ],
      [
        "▁voie",
        -10.017399019200132
      ],
      [
        "▁seeta",
        -10.020846735614125
      ],
      [
        "ttais",
        -10.023760771928591
      ],
      [
        "▁ho",
        -10.023884783391445
      ],
      [
        "biir",
        -10.024744127698158
      ],
      [
        "i.",
        -10.03357034772276
      ],
      [
        "euse",
        -10.038151328159419
      ],
      [
        "▁Bule",
        -10.0414436310542
      ],
      [
        "▁sor",
        -10.043531728849253
      ],
      [
        "ta",
        -10.045176471367464
      ],
      [
        "▁ex",
        -10.056663479498173
      ],
      [
        "▁daawu",
        -10.058541129457176
      ],
      [
        "▁Ve",
        -10.059681217627265
      ],
      [
        "▁ad",
        -10.07294881890805
      ],
      [
        "ndal",
        -10.07526031223093
      ],
      [
        "uff",
        -10.080121989472968
      ],
      [
        "▁Xan",
        -10.080586540346157
      ],
      [
        "quelle",
        -10.082027956343582
      ],
      [
        "eel",
        -10.08414747176992
      ],
      [
        "leurs",
        -10.088617287801812
      ],
      [
        "▁aille",
        -10.091567712629711
      ],
      [
        "ooy",
        -10.098526212346137
      ],
      [
        "tal",
        -10.100206942380536
      ],
      [
        "▁ŋgii.",
        -10.1021601020906
      ],
      [
        "elqu'un",
        -10.110341566333357
      ],
      [
        "fan",
        -10.114939437089788
      ],
      [
        "▁che",
        -10.128166352680676
      ],
      [
        "veux",
        -10.134269344990113
      ],
      [
        "attrap",
        -10.137110050442248
      ],
      [
        "▁seu",
        -10.147712478181727
      ],
      [
        "yi",
        -10.15994321350606
      ],
      [
        "dit",
        -10.162283351739164
      ],
      [
        "ande",
        -10.167840156606244
      ],
      [
        "éra",
        -10.172537799393144
      ],
      [
        "aî",
        -10.177230821226958
      ],
      [
        "▁goog",
        -10.177507561348818
      ],
      [
        "éen",
        -10.177670418608308
      ],
      [
        "cult",
        -10.180637364022388
      ],
      [
        "▁Mas",
        -10.18224544339418
      ],
      [
        "▁ge",
        -10.18533974731023
      ],
      [
        "rach",
        -10.185513181356288
      ],
      [
        "yul",
        -10.1882225045906
      ],
      [
        "nif",
        -10.197740738261768
      ],
      [
        "▁ri",
        -10.200169324542685
      ],
      [
        "▁Xarit",
        -10.206691499598366
      ],
      [
        "ut",
        -10.21234872253164
      ],
      [
        "▁arrive",
        -10.215245106703133
      ],
      [
        "▁Che",
        -10.224675343865135
      ],
      [
        "enu",
        -10.23078965483325
      ],
      [
        "▁lu",
        -10.236740985091462
      ],
      [
        "aumône",
        -10.241147197545109
      ],
      [
        "du",
        -10.244463891407635
      ],
      [
        "▁att",
        -10.244915259842198
      ],
      [
        "erai",
        -10.249942098295078
      ],
      [
        "▁Gan",
        -10.251161816056934
      ],
      [
        "daje",
        -10.251415853412718
      ],
      [
        "▁eux",
        -10.252023920337624
      ],
      [
        "▁comm",
        -10.25323228091701
      ],
      [
        "ba",
        -10.259661829664608
      ],
      [
        "▁passe",
        -10.273692187597135
      ],
      [
        "tif",
        -10.277636143858059
      ],
      [
        "▁Bëggu",
        -10.28004307131867
      ],
      [
        "▁rentre",
        -10.285088425553406
      ],
      [
        "axul",
        -10.285632643581325
      ],
      [
        "ser",
        -10.293192182959569
      ],
      [
        "sais",
        -10.299018855435591
      ],
      [
        "▁m'as",
        -10.300754347685183
      ],
      [
        "gis",
        -10.30827146713561
      ],
      [
        "enfant",
        -10.30886893210284
      ],
      [
        "ang",
        -10.309389112618009
      ],
      [
        "▁souhait",
        -10.313563469489392
      ],
      [
        "ar.",
        -10.315111630483175
      ],
      [
        "eex",
        -10.321442858093857
      ],
      [
        "été",
        -10.323905637138047
      ],
      [
        "où",
        -10.325560241701817
      ],
      [
        "irent",
        -10.326441094941721
      ],
      [
        "▁Voi",
        -10.329785365473015
      ],
      [
        "contr",
        -10.331929608493628
      ],
      [
        "▁gana",
        -10.332124870798886
      ],
      [
        "anc",
        -10.335152307837346
      ],
      [
        "▁désir",
        -10.335187188658912
      ],
      [
        "ñii",
        -10.337685931460552
      ],
      [
        "ec",
        -10.338601460991871
      ],
      [
        "aan",
        -10.344408136562537
      ],
      [
        "▁lee",
        -10.34518321815188
      ],
      [
        "▁bel",
        -10.350394051186658
      ],
      [
        "O",
        -10.367583788411784
      ],
      [
        "act",
        -10.368342543192462
      ],
      [
        "étudiant",
        -10.369064683993567
      ],
      [
        "autre",
        -10.3692905253139
      ],
      [
        "▁ni.",
        -10.370044674107694
      ],
      [
        "aujourd'hui",
        -10.377476848104525
      ],
      [
        "illi",
        -10.378133267434393
      ],
      [
        "▁Pr",
        -10.384432907545598
      ],
      [
        "uy",
        -10.386251960844406
      ],
      [
        "▁goo",
        -10.388870251143778
      ],
      [
        "▁accompagn",
        -10.390988235719137
      ],
      [
        "argent",
        -10.391869760703065
      ],
      [
        "▁Ñoo",
        -10.394968146217918
      ],
      [
        "hang",
        -10.396052194996685
      ],
      [
        "rs",
        -10.396569040969098
      ],
      [
        "mal",
        -10.397212063050326
      ],
      [
        "té",
        -10.398727726749804
      ],
      [
        "▁reven",
        -10.401641472038941
      ],
      [
        "us",
        -10.41024319590985
      ],
      [
        "jur",
        -10.410359630529417
      ],
      [
        "vin",
        -10.41561448880611
      ],
      [
        "ëy",
        -10.416279238358902
      ],
      [
        "viendra",
        -10.419471153028727
      ],
      [
        "ame",
        -10.42051849579733
      ],
      [
        "▁woow",
        -10.42705003187785
      ],
      [
        "▁fra",
        -10.429698134224397
      ],
      [
        "wax",
        -10.433830986310994
      ],
      [
        "eau",
        -10.434020921558577
      ],
      [
        "leur",
        -10.438920775351724
      ],
      [
        "ibbisi",
        -10.441064949097958
      ],
      [
        "ille",
        -10.442380739913997
      ],
      [
        "bëggée",
        -10.443050291001613
      ],
      [
        "▁bule",
        -10.45021913709437
      ],
      [
        "mes",
        -10.45190722986173
      ],
      [
        "heur",
        -10.457281967355824
      ],
      [
        "ç",
        -10.458993054172772
      ],
      [
        "▁sera",
        -10.461727218024304
      ],
      [
        "L'homme",
        -10.467386594700706
      ],
      [
        "demain",
        -10.468965509155975
      ],
      [
        "rais",
        -10.470637278830457
      ],
      [
        "da",
        -10.470819941401519
      ],
      [
        "▁s'ass",
        -10.471091033477906
      ],
      [
        "voie",
        -10.47365755861981
      ],
      [
        "▁yoo",
        -10.474973937698662
      ],
      [
        "aka",
        -10.479086373690535
      ],
      [
        "uru",
        -10.480942802199309
      ],
      [
        "▁voi",
        -10.482845878587476
      ],
      [
        "ll",
        -10.48675426780232
      ],
      [
        "xam",
        -10.491267732125348
      ],
      [
        "coute",
        -10.493607397463942
      ],
      [
        "▁mënk",
        -10.498400581122493
      ],
      [
        "▁refus",
        -10.507686212445488
      ],
      [
        "rai",
        -10.511204841387045
      ],
      [
        "ors",
        -10.51132167841381
      ],
      [
        "▁yaak",
        -10.511758832634925
      ],
      [
        "▁demand",
        -10.515491539202316
      ],
      [
        "aye",
        -10.52460559822654
      ],
      [
        "orsqu",
        -10.525839541967118
      ],
      [
        "ari",
        -10.532567448884013
      ],
      [
        "yóo",
        -10.537659008041167
      ],
      [
        "ŋ",
        -10.539239648420043
      ],
      [
        "▁fû",
        -10.556766289318213
      ],
      [
        "ez-",
        -10.557177107146897
      ],
      [
        "ur.",
        -10.562647762787922
      ],
      [
        "yent",
        -10.562935485593963
      ],
      [
        "ouv",
        -10.564871462594692
      ],
      [
        "sage",
        -10.56620445194174
      ],
      [
        "Gis",
        -10.569295233948992
      ],
      [
        "ŋgoo",
        -10.577359273391446
      ],
      [
        "nte",
        -10.57923377445759
      ],
      [
        "▁kaa",
        -10.580121200176364
      ],
      [
        "tend",
        -10.58340261373388
      ],
      [
        "▁personn",
        -10.584551747527563
      ],
      [
        "vu",
        -10.591579496681153
      ],
      [
        "▁wal",
        -10.598114138693036
      ],
      [
        "goo",
        -10.599372071141111
      ],
      [
        "acc",
        -10.611126550662771
      ],
      [
        "axkoon",
        -10.611257544888378
      ],
      [
        "▁Ag",
        -10.613199568338898
      ],
      [
        "con",
        -10.613610767535368
      ],
      [
        "▁go",
        -10.617767255054757
      ],
      [
        "▁Yo",
        -10.632303754132828
      ],
      [
        "ille-",
        -10.635738033814166
      ],
      [
        "ô",
        -10.637217121805456
      ],
      [
        "▁do",
        -10.638413362724561
      ],
      [
        "▁ab",
        -10.640114139516632
      ],
      [
        "lement",
        -10.64075800711544
      ],
      [
        "ogul",
        -10.641293112893297
      ],
      [
        "'il",
        -10.641730470802921
      ],
      [
        "aa",
        -10.64206939363729
      ],
      [
        "nn",
        -10.643253930710795
      ],
      [
        "jul",
        -10.65799946182684
      ],
      [
        "▁Ñé",
        -10.666089710098058
      ],
      [
        "lusi",
        -10.66735423456412
      ],
      [
        "▁Se",
        -10.67089351535892
      ],
      [
        "nda",
        -10.673000817914733
      ],
      [
        "▁sau",
        -10.676662498459105
      ],
      [
        "ogu",
        -10.678456767240215
      ],
      [
        "▁U",
        -10.683779458300592
      ],
      [
        "▁revien",
        -10.684967538639288
      ],
      [
        "▁Daawu",
        -10.691901903118795
      ],
      [
        "▁Yée",
        -10.69332525925808
      ],
      [
        "ddi",
        -10.696186937698547
      ],
      [
        "▁sub",
        -10.69678701217979
      ],
      [
        "▁s'e",
        -10.697682644413774
      ],
      [
        "▁Àn",
        -10.69865884152539
      ],
      [
        "ju",
        -10.70071206906535
      ],
      [
        "rès",
        -10.703414880117496
      ],
      [
        "▁Né",
        -10.703539523965656
      ],
      [
        "▁vérit",
        -10.707944718645088
      ],
      [
        "▁épo",
        -10.710996090346976
      ],
      [
        "▁Gisul",
        -10.711600913933683
      ],
      [
        "▁ŋgee",
        -10.712754046445776
      ],
      [
        "▁cohabite",
        -10.7138320751855
      ],
      [
        "usqu'ici",
        -10.71395943807992
      ],
      [
        "droit",
        -10.714605335565373
      ],
      [
        "▁descend",
        -10.714694132524098
      ],
      [
        "▁étudi",
        -10.714926583705552
      ],
      [
        "habite",
        -10.71493349521406
      ],
      [
        "]",
        -10.715080294131205
      ],
      [
        "[",
        -10.715080294131205
      ],
      [
        "ï",
        -10.715080294131205
      ],
      [
        "▁poli",
        -10.716026189415162
      ],
      [
        "mps",
        -10.716306066331525
      ],
      [
        "sembl",
        -10.716839851034017
      ],
      [
        "▁n'av",
        -10.717249875746788
      ],
      [
        "▁aim",
        -10.717774184476887
      ],
      [
        "▁Musa",
        -10.717962152467582
      ],
      [
        "▁indi",
        -10.718792715666776
      ],
      [
        "▁revi",
        -10.719213695707356
      ],
      [
        "▁Pou",
        -10.719339979424532
      ],
      [
        "vid",
        -10.72009718194006
      ],
      [
        "ard",
        -10.720803043801311
      ],
      [
        "▁dellu",
        -10.720901675934787
      ],
      [
        "oobu",
        -10.721156343005685
      ],
      [
        "omp",
        -10.722329401077275
      ],
      [
        "arab",
        -10.723016631832852
      ],
      [
        "▁plu",
        -10.72308859897873
      ],
      [
        "▁kë",
        -10.724322369722316
      ],
      [
        "▁l'h",
        -10.725652214776256
      ],
      [
        "googee",
        -10.725798600823868
      ],
      [
        "▁peut",
        -10.72581451157447
      ],
      [
        "▁appr",
        -10.727796318427206
      ],
      [
        "▁bët",
        -10.72805782964608
      ],
      [
        "▁waxa",
        -10.730518907554044
      ],
      [
        "▁Wut",
        -10.73127387600368
      ],
      [
        "gu",
        -10.733439080029502
      ],
      [
        "L",
        -10.735013591019646
      ],
      [
        "tëli",
        -10.736445306599661
      ],
      [
        "tient",
        -10.73960103900072
      ],
      [
        "ya",
        -10.740980349355699
      ],
      [
        "▁d'i",
        -10.741383344142998
      ],
      [
        "ëggu",
        -10.741554635512358
      ],
      [
        "tive",
        -10.741839577936275
      ],
      [
        "▁dikk",
        -10.742274325292886
      ],
      [
        "Il",
        -10.742573675358024
      ],
      [
        "Ma",
        -10.744824156178613
      ],
      [
        "▁pui",
        -10.745025430060632
      ],
      [
        "ha",
        -10.746353718452244
      ],
      [
        "▁conv",
        -10.746667878793696
      ],
      [
        "'autre",
        -10.749774501054585
      ],
      [
        "urtout",
        -10.7505897839416
      ],
      [
        "xal",
        -10.752487384677236
      ],
      [
        "oir",
        -10.75629339365658
      ],
      [
        "▁ense",
        -10.757983520423398
      ],
      [
        "▁Ceux-",
        -10.761787669604008
      ],
      [
        "▁googu",
        -10.761959726578207
      ],
      [
        "entré",
        -10.762265430751528
      ],
      [
        "ubë",
        -10.762683904282374
      ],
      [
        "▁fais",
        -10.762881113350035
      ],
      [
        "add",
        -10.765428453009624
      ],
      [
        "añu",
        -10.766306292934514
      ],
      [
        "▁fee",
        -10.768963541625169
      ],
      [
        "llusi",
        -10.777266447303225
      ],
      [
        "écha",
        -10.782773222111622
      ],
      [
        "▁Sér",
        -10.784352185013683
      ],
      [
        "ange",
        -10.786494275193835
      ],
      [
        "vert",
        -10.787407297014806
      ],
      [
        "ami",
        -10.787537676895923
      ],
      [
        "▁reg",
        -10.789111438472638
      ],
      [
        "ole",
        -10.793410911040157
      ],
      [
        "blan",
        -10.795820785826873
      ],
      [
        "'aurai",
        -10.80221684739196
      ],
      [
        "▁Atte",
        -10.802491248036725
      ],
      [
        "tudi",
        -10.805170108911195
      ],
      [
        "oogu",
        -10.805258265096269
      ],
      [
        "bir",
        -10.805970522610638
      ],
      [
        "jal",
        -10.807810394565953
      ],
      [
        "bre",
        -10.811074054675847
      ],
      [
        "▁Ji",
        -10.814280552755177
      ],
      [
        "▁mê",
        -10.8166743067077
      ],
      [
        "ata",
        -10.817811031702247
      ],
      [
        "baa",
        -10.819671180354007
      ],
      [
        "▁sortie",
        -10.821208000750717
      ],
      [
        "gay",
        -10.825672275886898
      ],
      [
        "edd",
        -10.825971200421051
      ],
      [
        "góon",
        -10.828412873738511
      ],
      [
        "pa",
        -10.829222524226205
      ],
      [
        "▁mange",
        -10.830288660305666
      ],
      [
        "jii",
        -10.832167067001219
      ],
      [
        "lum",
        -10.834711281357462
      ],
      [
        "▁Ar",
        -10.842741917220994
      ],
      [
        "▁travaillai",
        -10.842857720063524
      ],
      [
        "ici.",
        -10.843775825402181
      ],
      [
        "ous-même",
        -10.845556074148002
      ],
      [
        "tés",
        -10.850748631860236
      ],
      [
        "alis",
        -10.851047618655524
      ],
      [
        "Tu",
        -10.857754034722989
      ],
      [
        "mon",
        -10.859655743901993
      ],
      [
        "rëm",
        -10.861819061632744
      ],
      [
        "▁Laa",
        -10.862985131243903
      ],
      [
        "âc",
        -10.87054219819632
      ],
      [
        "ëgg",
        -10.87222565432591
      ],
      [
        "t-ce",
        -10.87436566737162
      ],
      [
        "ff",
        -10.876392201818014
      ],
      [
        "rère",
        -10.881010239065313
      ],
      [
        "▁ga",
        -10.886140084948472
      ],
      [
        "uleen",
        -10.887228910279289
      ],
      [
        "l'homme",
        -10.891438496388773
      ],
      [
        "▁Re",
        -10.891876797760128
      ],
      [
        "tali",
        -10.892127993188932
      ],
      [
        "ble",
        -10.893138436298761
      ],
      [
        "në",
        -10.900273593742774
      ],
      [
        "▁kat",
        -10.908270372601894
      ],
      [
        "▁sar",
        -10.911022816966163
      ],
      [
        "eeg",
        -10.918502976814533
      ],
      [
        "réci",
        -10.918611144102304
      ],
      [
        "▁xamu",
        -10.9208977881681
      ],
      [
        "alla",
        -10.922929353036304
      ],
      [
        "▁Tug",
        -10.928775968361476
      ],
      [
        "cor",
        -10.928935304471867
      ],
      [
        "ol",
        -10.932632478733082
      ],
      [
        "oppi",
        -10.935102471521915
      ],
      [
        "arac",
        -10.935269289747879
      ],
      [
        "oxoo",
        -10.938097374630676
      ],
      [
        "ose",
        -10.941844262353976
      ],
      [
        "alé",
        -10.94528121160571
      ],
      [
        "parti",
        -10.947586421526822
      ],
      [
        "llu",
        -10.9482801570735
      ],
      [
        "eff",
        -10.952028793351129
      ],
      [
        "ns",
        -10.95399401527443
      ],
      [
        "▁Av",
        -10.955861018820109
      ],
      [
        "ges",
        -10.95947398946842
      ],
      [
        "uwu",
        -10.967157631327494
      ],
      [
        "ours",
        -10.967424034696645
      ],
      [
        "ssent",
        -10.973573128876836
      ],
      [
        "cle",
        -10.979889206323449
      ],
      [
        "▁travaille",
        -10.985213172442137
      ],
      [
        "mine",
        -10.986322840176019
      ],
      [
        "'ai",
        -10.987016330326776
      ],
      [
        "e-",
        -10.987103518049175
      ],
      [
        "▁ét",
        -10.98722387864817
      ],
      [
        "ye",
        -10.995488505000402
      ],
      [
        "op",
        -10.997919191127474
      ],
      [
        "▁yo",
        -10.998935266419684
      ],
      [
        "▁l'é",
        -10.999476265508935
      ],
      [
        "rie",
        -10.99978729390254
      ],
      [
        "ox",
        -11.009755304458235
      ],
      [
        "▁deva",
        -11.013796998120656
      ],
      [
        "dre",
        -11.017112808003722
      ],
      [
        "yil",
        -11.03358443277831
      ],
      [
        "▁wé",
        -11.034588774740431
      ],
      [
        "ni",
        -11.044625735679457
      ],
      [
        "sse",
        -11.045456578813214
      ],
      [
        "bul",
        -11.050242592735897
      ],
      [
        "aakaar",
        -11.053760478960216
      ],
      [
        "oit",
        -11.059837935966689
      ],
      [
        "▁elle",
        -11.065194723725229
      ],
      [
        "aru",
        -11.069536374340556
      ],
      [
        "▁aff",
        -11.071219202647274
      ],
      [
        "▁sé",
        -11.072693001839113
      ],
      [
        "E",
        -11.084429664341236
      ],
      [
        "▁bë",
        -11.090324782230587
      ],
      [
        "ts.",
        -11.097047333995596
      ],
      [
        "rappe",
        -11.104428609824595
      ],
      [
        "▁es-",
        -11.113494177176394
      ],
      [
        "▁noo",
        -11.119580458050663
      ],
      [
        "▁Celui-",
        -11.122529849488393
      ],
      [
        "dd",
        -11.127796956926188
      ],
      [
        "ller",
        -11.12866258463342
      ],
      [
        "gé",
        -11.128797507056412
      ],
      [
        "▁jus",
        -11.13244821391562
      ],
      [
        "J'a",
        -11.132836750914256
      ],
      [
        "rée",
        -11.136890695332365
      ],
      [
        "'ici",
        -11.139877440093453
      ],
      [
        "▁qu'i",
        -11.14959873508936
      ],
      [
        "dab",
        -11.153985872198636
      ],
      [
        "auc",
        -11.15959669642554
      ],
      [
        "ert",
        -11.160548454249284
      ],
      [
        "'argent",
        -11.16486160372946
      ],
      [
        "óol",
        -11.169609719869717
      ],
      [
        "▁Wu",
        -11.172801667606542
      ],
      [
        "adi",
        -11.181111915324836
      ],
      [
        "▁ai",
        -11.18469963597374
      ],
      [
        "qu'un",
        -11.197471368380041
      ],
      [
        "▁ava",
        -11.209740225137844
      ],
      [
        "lor",
        -11.211701549519487
      ],
      [
        "▁Mus",
        -11.211989545094287
      ],
      [
        "dik",
        -11.214035708019155
      ],
      [
        "main",
        -11.232155028652128
      ],
      [
        "amoon",
        -11.234554760596897
      ],
      [
        "lqu'un",
        -11.234608921658136
      ],
      [
        "▁gen",
        -11.243783298294598
      ],
      [
        "▁ren",
        -11.245476736733712
      ],
      [
        "ents",
        -11.272496325086788
      ],
      [
        "moon",
        -11.276661867861895
      ],
      [
        "▁waxe",
        -11.280164757366478
      ],
      [
        "agit",
        -11.280993677476221
      ],
      [
        "ret",
        -11.284413540622696
      ],
      [
        "olul",
        -11.290273356319375
      ],
      [
        "▁yen",
        -11.295878502855182
      ],
      [
        "rons",
        -11.314561689868489
      ],
      [
        "ccu",
        -11.319315694891408
      ],
      [
        "uel",
        -11.342211897883987
      ],
      [
        "eill",
        -11.344833434805604
      ],
      [
        "itam",
        -11.3584834512184
      ],
      [
        "ch",
        -11.363185115274247
      ],
      [
        "▁ha",
        -11.376331254278591
      ],
      [
        "ête",
        -11.40379010072186
      ],
      [
        "oola",
        -11.405910005394563
      ],
      [
        "les-",
        -11.411343458860795
      ],
      [
        "Je",
        -11.42300402022872
      ],
      [
        "arit",
        -11.425645729730025
      ],
      [
        "gir",
        -11.449290743594108
      ],
      [
        "des",
        -11.464938514861405
      ],
      [
        "▁tus",
        -11.487363635680945
      ],
      [
        "tais",
        -11.490223912040213
      ],
      [
        "yy",
        -11.496401248058513
      ],
      [
        "▁tà",
        -11.507564716079601
      ],
      [
        "ve",
        -11.52404349961577
      ],
      [
        "dal",
        -11.525681667440171
      ],
      [
        "bo",
        -11.534511327963463
      ],
      [
        "bu",
        -11.55143926036525
      ],
      [
        "a-",
        -11.556783640649561
      ],
      [
        "cé",
        -11.558231817394505
      ],
      [
        "aat",
        -11.57476844923856
      ],
      [
        "st",
        -11.574994687506111
      ],
      [
        "tam",
        -11.577747976895946
      ],
      [
        "id",
        -11.581306498476133
      ],
      [
        "ond",
        -11.584361722110737
      ],
      [
        "lam",
        -11.585270156740233
      ],
      [
        "anaa",
        -11.59719453818649
      ],
      [
        "▁jig",
        -11.613166141555253
      ],
      [
        "Nit",
        -11.625141189672519
      ],
      [
        "pe",
        -11.63118301021378
      ],
      [
        "anu",
        -11.63753553026451
      ],
      [
        "boo",
        -11.641445802947139
      ],
      [
        "ët",
        -11.649597189185972
      ],
      [
        "ain",
        -11.650085731627449
      ],
      [
        "amin",
        -11.657041274550057
      ],
      [
        "▁ña",
        -11.692034716531854
      ],
      [
        "▁voil",
        -11.70507887491282
      ],
      [
        "î",
        -11.722312730588248
      ],
      [
        "▁Ke",
        -11.725081603658742
      ],
      [
        "A",
        -11.726847458212262
      ],
      [
        "lait",
        -11.738628590266059
      ],
      [
        "▁jen",
        -11.739145377499371
      ],
      [
        "eû",
        -11.749455366878474
      ],
      [
        "ave",
        -11.763256623027928
      ],
      [
        "'apprécie",
        -11.812536613019581
      ],
      [
        "squel",
        -11.825864836243628
      ],
      [
        "esse",
        -11.84663811503697
      ],
      [
        "fus",
        -11.850346066509495
      ],
      [
        "▁x",
        -11.853645416764714
      ],
      [
        "ëlë",
        -11.863503502246278
      ],
      [
        "▁Dema",
        -11.865837878000491
      ],
      [
        "wum",
        -11.909345394403099
      ],
      [
        "▁ŋgoog",
        -11.912106943343513
      ],
      [
        "étai",
        -11.913487723821754
      ],
      [
        "este",
        -11.917321825069939
      ],
      [
        "▁res",
        -11.924425403322301
      ],
      [
        "▁ret",
        -11.92792724188514
      ],
      [
        "uf",
        -11.943016516982443
      ],
      [
        "ées",
        -11.958493382517066
      ],
      [
        "▁wo",
        -11.970062885531787
      ],
      [
        "▁lé",
        -11.985703887932639
      ],
      [
        "ga",
        -12.01482263122415
      ],
      [
        "oi-même",
        -12.043468043648252
      ],
      [
        "may",
        -12.059461158777065
      ],
      [
        "ge",
        -12.086166545869293
      ],
      [
        "Ŋ",
        -12.088884127407528
      ],
      [
        "B",
        -12.088984127407528
      ],
      [
        "R",
        -12.089084127407528
      ],
      [
        "V",
        -12.08918412740753
      ],
      [
        "H",
        -12.08928412740753
      ],
      [
        "I",
        -12.089384127407529
      ],
      [
        "F",
        -12.089484127407529
      ],
      [
        "S",
        -12.089584127407528
      ],
      [
        "'",
        -12.089684127407528
      ],
      [
        "Q",
        -12.089784127407528
      ],
      [
        "K",
        -12.089884127407528
      ],
      [
        "À",
        -12.08998412740753
      ],
      [
        "X",
        -12.090084127407529
      ],
      [
        "P",
        -12.090184127407529
      ],
      [
        "N",
        -12.090284127407529
      ],
      [
        "ó",
        -12.090384127407528
      ],
      [
        "U",
        -12.090484127407528
      ],
      [
        "W",
        -12.090584127407528
      ],
      [
        "M",
        -12.090684127407528
      ],
      [
        "Ñ",
        -12.09078412740753
      ],
      [
        "Y",
        -12.090884127407529
      ],
      [
        "D",
        -12.090984127407529
      ],
      [
        "T",
        -12.091084127407528
      ],
      [
        "sont",
        -12.091084127407528
      ]
    ]
  }
}