{
  "version": "1.0",
  "truncation": null,
  "padding": null,
  "added_tokens": [
    {
      "id": 0,
      "content": "<s>",
      "single_word": false,
      "lstrip": false,
      "rstrip": false,
      "normalized": false,
      "special": true
    },
    {
      "id": 1,
      "content": "<pad>",
      "single_word": false,
      "lstrip": false,
      "rstrip": false,
      "normalized": false,
      "special": true
    },
    {
      "id": 2,
      "content": "</s>",
      "single_word": false,
      "lstrip": false,
      "rstrip": false,
      "normalized": false,
      "special": true
    },
    {
      "id": 3,
      "content": "<unk>",
      "single_word": false,
      "lstrip": false,
      "rstrip": false,
      "normalized": false,
      "special": true
    },
    {
      "id": 4,
      "content": "<mask>",
      "single_word": false,
      "lstrip": false,
      "rstrip": false,
      "normalized": false,
      "special": true
    }
  ],
  "normalizer": {
    "type": "Replace",
    "pattern": {
      "String": " {2,}"
    },
    "content": " "
  },
  "pre_tokenizer": {
    "type": "Metaspace",
    "replacement": "▁",
    "add_prefix_space": true
  },
  "post_processor": null,
  "decoder": {
    "type": "Metaspace",
    "replacement": "▁",
    "add_prefix_space": true
  },
  "model": {
    "type": "Unigram",
    "unk_id": 3,
    "vocab": [
      [
        "<s>",
        0.0
      ],
      [
        "<pad>",
        0.0
      ],
      [
        "</s>",
        0.0
      ],
      [
        "<unk>",
        0.0
      ],
      [
        "<mask>",
        0.0
      ],
      [
        ",",
        -3.048526711760463
      ],
      [
        "▁",
        -3.056539852331653
      ],
      [
        ".",
        -3.317694990639856
      ],
      [
        "▁de",
        -4.150962034980109
      ],
      [
        "s",
        -4.192903477798502
      ],
      [
        "▁la",
        -4.256184662707636
      ],
      [
        "▁ci",
        -4.60317715229537
      ],
      [
        "e",
        -4.652094161018384
      ],
      [
        "y",
        -4.67154666211788
      ],
      [
        "i",
        -4.901817028908626
      ],
      [
        "a",
        -4.997786593823955
      ],
      [
        "▁a",
        -5.080495885280764
      ],
      [
        "u",
        -5.0841482709468995
      ],
      [
        "▁des",
        -5.203404669240501
      ],
      [
        "▁qui",
        -5.2842398158603086
      ],
      [
        "▁à",
        -5.313195466795663
      ],
      [
        "▁les",
        -5.326771772482862
      ],
      [
        "▁mu",
        -5.360802624534024
      ],
      [
        "▁le",
        -5.371783478910443
      ],
      [
        "▁ni",
        -5.404459260715878
      ],
      [
        "▁na",
        -5.414539463625582
      ],
      [
        "▁ma",
        -5.422018089106776
      ],
      [
        "r",
        -5.460922305172027
      ],
      [
        "▁ne",
        -5.487743453434084
      ],
      [
        "▁bi",
        -5.487751400627918
      ],
      [
        "!",
        -5.489487805048665
      ],
      [
        "▁!",
        -5.493610247422974
      ],
      [
        "▁que",
        -5.497954570985608
      ],
      [
        "▁du",
        -5.531779026964674
      ],
      [
        "▁et",
        -5.533813446665396
      ],
      [
        "▁di",
        -5.534363056419655
      ],
      [
        "▁ko",
        -5.540223919639116
      ],
      [
        "▁un",
        -5.540355371260434
      ],
      [
        "▁?",
        -5.546002708292164
      ],
      [
        "▁ba",
        -5.552036746915645
      ],
      [
        "t",
        -5.569099389462269
      ],
      [
        "?",
        -5.644293369024882
      ],
      [
        "▁pas",
        -5.66711862249361
      ],
      [
        "▁ñu",
        -5.72418748273526
      ],
      [
        "▁est",
        -5.7354469519216185
      ],
      [
        "▁ak",
        -5.7461148585458615
      ],
      [
        "n",
        -5.756678549066553
      ],
      [
        "▁gi",
        -5.775849166968853
      ],
      [
        "▁yi",
        -5.786700337717023
      ],
      [
        "▁yu",
        -5.787057947523781
      ],
      [
        "▁bu",
        -5.791170388070318
      ],
      [
        "▁Il",
        -5.813091882056607
      ],
      [
        "▁dem",
        -5.836137651634714
      ],
      [
        "▁dans",
        -5.839797292386514
      ],
      [
        "une",
        -5.844382554541602
      ],
      [
        "▁en",
        -5.851150290236431
      ],
      [
        "l",
        -5.970956416107242
      ],
      [
        "▁ay",
        -5.978037943861374
      ],
      [
        "et",
        -6.009100039621077
      ],
      [
        "▁naa",
        -6.04729596684617
      ],
      [
        "▁pour",
        -6.122832247967322
      ],
      [
        "▁C'est",
        -6.124693234363092
      ],
      [
        "▁ngi",
        -6.12592602166684
      ],
      [
        "▁fa",
        -6.14372419568701
      ],
      [
        "▁lu",
        -6.1476036402546415
      ],
      [
        "▁seen",
        -6.1515832784344715
      ],
      [
        "▁ce",
        -6.217433599378696
      ],
      [
        "▁am",
        -6.226645026174476
      ],
      [
        "▁woon",
        -6.236942540149297
      ],
      [
        "▁te",
        -6.23845202241053
      ],
      [
        "▁sama",
        -6.307271720399267
      ],
      [
        "▁sur",
        -6.330286314720959
      ],
      [
        "▁c",
        -6.337472401380194
      ],
      [
        "▁qu'il",
        -6.349228005501778
      ],
      [
        "▁ca",
        -6.350671702192369
      ],
      [
        "▁au",
        -6.3647555092582335
      ],
      [
        "▁je",
        -6.372369905991745
      ],
      [
        "▁vu",
        -6.373835548647275
      ],
      [
        "▁il",
        -6.375191912348113
      ],
      [
        "à",
        -6.380908606435881
      ],
      [
        ":",
        -6.389293098583717
      ],
      [
        "▁Je",
        -6.392413141989305
      ],
      [
        "▁sont",
        -6.394025316143387
      ],
      [
        "▁daan",
        -6.396065913706272
      ],
      [
        "▁sa",
        -6.405957174091527
      ],
      [
        "▁avec",
        -6.408865205705471
      ],
      [
        "▁y",
        -6.4208403166812005
      ],
      [
        "▁gis",
        -6.449355275512388
      ],
      [
        "▁doon",
        -6.453771175366072
      ],
      [
        "▁par",
        -6.481057434254772
      ],
      [
        "▁ŋga",
        -6.510204758291729
      ],
      [
        "oon",
        -6.51778039734756
      ],
      [
        "▁nag",
        -6.51862848122951
      ],
      [
        "▁xam",
        -6.522732284671066
      ],
      [
        "▁leen",
        -6.53507718801926
      ],
      [
        "ent",
        -6.558715979579191
      ],
      [
        "le",
        -6.562893478060894
      ],
      [
        "é",
        -6.571655768655919
      ],
      [
        "▁mi",
        -6.5776418075530465
      ],
      [
        "▁mon",
        -6.582508020140267
      ],
      [
        "▁père",
        -6.600930678373346
      ],
      [
        "▁wax",
        -6.60098100905302
      ],
      [
        "▁se",
        -6.602919711636084
      ],
      [
        "am",
        -6.616192019144889
      ],
      [
        "▁nekk",
        -6.622638535212314
      ],
      [
        "▁benn",
        -6.630437489478124
      ],
      [
        "k",
        -6.640307538335077
      ],
      [
        "▁Góo",
        -6.647928912814151
      ],
      [
        "▁Baay",
        -6.6709491846141695
      ],
      [
        "▁mel",
        -6.686850494716283
      ],
      [
        "▁nit",
        -6.694408329761493
      ],
      [
        "▁si",
        -6.703914564727984
      ],
      [
        "es",
        -6.706670114960629
      ],
      [
        "▁tu",
        -6.709799877324395
      ],
      [
        "nt",
        -6.710175688660098
      ],
      [
        "▁Gis",
        -6.717429382229749
      ],
      [
        "▁l'",
        -6.721813012948707
      ],
      [
        "m",
        -6.72618804153565
      ],
      [
        "al",
        -6.735040313434617
      ],
      [
        "▁nga",
        -6.741043696122732
      ],
      [
        "▁été",
        -6.742565479631929
      ],
      [
        "▁sax",
        -6.750506971866113
      ],
      [
        "▁Afrig",
        -6.769645750420942
      ],
      [
        "▁moom",
        -6.773329985395915
      ],
      [
        "▁où",
        -6.777849262319097
      ],
      [
        "▁son",
        -6.788934302414889
      ],
      [
        "▁homme",
        -6.793306351114394
      ],
      [
        "▁moo",
        -6.793854507071503
      ],
      [
        "ette",
        -6.7963414904460455
      ],
      [
        "les",
        -6.805245196241916
      ],
      [
        "er",
        -6.8113755164248895
      ],
      [
        "▁ya",
        -6.814444681197212
      ],
      [
        "il",
        -6.820864404374231
      ],
      [
        "▁plus",
        -6.84689702910404
      ],
      [
        "▁Tu",
        -6.853293303763893
      ],
      [
        "▁lui",
        -6.853514060924937
      ],
      [
        "▁def",
        -6.86750037032983
      ],
      [
        "▁biir",
        -6.872862196702978
      ],
      [
        "▁J'ai",
        -6.877769710700184
      ],
      [
        "▁d'un",
        -6.894735680452378
      ],
      [
        "ait",
        -6.902478248444191
      ],
      [
        "▁L'homme",
        -6.903511930770686
      ],
      [
        "▁d",
        -6.904226140888275
      ],
      [
        "▁nu",
        -6.914619269242223
      ],
      [
        "que",
        -6.931106875028419
      ],
      [
        "ak",
        -6.9325444427601575
      ],
      [
        "▁su",
        -6.939977963575571
      ],
      [
        "«",
        -6.943018417043843
      ],
      [
        "▁tout",
        -6.946857610837223
      ],
      [
        "▁ñëw",
        -6.947186308552322
      ],
      [
        "▁c'est",
        -6.95874921468345
      ],
      [
        "▁nous",
        -6.966496645673123
      ],
      [
        "▁Le",
        -6.967055490702087
      ],
      [
        "▁La",
        -6.969550827138724
      ],
      [
        "▁avait",
        -6.9950450986175605
      ],
      [
        "g",
        -7.002728688479387
      ],
      [
        "▁l",
        -7.003525976064327
      ],
      [
        "▁li",
        -7.009290818562513
      ],
      [
        "▁kenn",
        -7.02384097108041
      ],
      [
        "b",
        -7.0248125275971045
      ],
      [
        "▁ku",
        -7.030411028525456
      ],
      [
        "▁Ci",
        -7.042603774495631
      ],
      [
        "▁Les",
        -7.051839728178451
      ],
      [
        "▁»",
        -7.054651021346594
      ],
      [
        "▁s",
        -7.059398833224073
      ],
      [
        "it",
        -7.060205066700451
      ],
      [
        "▁góor",
        -7.061789123203081
      ],
      [
        "s.",
        -7.0651055750727085
      ],
      [
        "▁nataal",
        -7.084787261182177
      ],
      [
        "▁ab",
        -7.09105011413746
      ],
      [
        "▁bii",
        -7.113307151236238
      ],
      [
        "▁photo",
        -7.119278262240681
      ],
      [
        "▁gu",
        -7.12119148976407
      ],
      [
        "ment",
        -7.131275930689698
      ],
      [
        "-",
        -7.1317512507624485
      ],
      [
        "▁enfants",
        -7.137688597820489
      ],
      [
        "▁n",
        -7.137899656300068
      ],
      [
        "ul",
        -7.14028806425012
      ],
      [
        "▁fi",
        -7.140711381300877
      ],
      [
        "▁autre",
        -7.147456954361635
      ],
      [
        "▁l'homme",
        -7.149800042405429
      ],
      [
        "ant",
        -7.161095158595881
      ],
      [
        "▁may",
        -7.165816408697922
      ],
      [
        "leurs",
        -7.188858412493223
      ],
      [
        "▁ñi",
        -7.193562110756981
      ],
      [
        "on",
        -7.196803892689857
      ],
      [
        "▁aussi",
        -7.2069236205666325
      ],
      [
        "d",
        -7.210384822756728
      ],
      [
        "▁mën",
        -7.2123097527426365
      ],
      [
        "▁d'",
        -7.226740556062379
      ],
      [
        "▁rekk",
        -7.23111131860246
      ],
      [
        "▁lool",
        -7.231331934452224
      ],
      [
        "▁dafa",
        -7.231863377747839
      ],
      [
        "▁comme",
        -7.234384675959105
      ],
      [
        "▁dal",
        -7.2488152192049
      ],
      [
        "te",
        -7.252247948079752
      ],
      [
        "oo",
        -7.254625657434768
      ],
      [
        "▁ou",
        -7.259350759942307
      ],
      [
        "e,",
        -7.26374808229313
      ],
      [
        "▁dara",
        -7.267686755582392
      ],
      [
        "▁Nit",
        -7.271641116400113
      ],
      [
        "▁A",
        -7.279474077543646
      ],
      [
        "▁mère",
        -7.2799227988925495
      ],
      [
        "▁ces",
        -7.279946244654965
      ],
      [
        "▁dëkk",
        -7.285664842797456
      ],
      [
        "▁Sur",
        -7.295621951398632
      ],
      [
        "▁ji",
        -7.301589688012007
      ],
      [
        "di",
        -7.305121098243032
      ],
      [
        "▁bëgg",
        -7.309648572183476
      ],
      [
        "▁parti",
        -7.3135743536402025
      ],
      [
        "▁Am",
        -7.317304181693836
      ],
      [
        "▁ju",
        -7.334241727039761
      ],
      [
        "▁me",
        -7.334530166517224
      ],
      [
        "▁ñaar",
        -7.336262707552121
      ],
      [
        "▁fu",
        -7.343473851529266
      ],
      [
        "▁même",
        -7.344452534716179
      ],
      [
        "▁cet",
        -7.3453987002701515
      ],
      [
        "▁moi",
        -7.347488869621637
      ],
      [
        "▁maison",
        -7.361316575731875
      ],
      [
        "▁m",
        -7.365165504876088
      ],
      [
        "ee",
        -7.3702391850794395
      ],
      [
        "▁teg",
        -7.371768802461342
      ],
      [
        "▁kër",
        -7.383581562437363
      ],
      [
        "▁pays",
        -7.3967279905941865
      ],
      [
        "▁xale",
        -7.396933536573872
      ],
      [
        "▁ndax",
        -7.399897840785641
      ],
      [
        "ay",
        -7.40069691869842
      ],
      [
        "x",
        -7.40873623655393
      ],
      [
        "▁la.",
        -7.4122570703523225
      ],
      [
        "▁Nataal",
        -7.416833973117914
      ],
      [
        "un",
        -7.41791459787727
      ],
      [
        "▁gën",
        -7.418261601121695
      ],
      [
        "en",
        -7.422684466050937
      ],
      [
        "▁Ce",
        -7.423003349633508
      ],
      [
        "▁jigéen",
        -7.423022995339526
      ],
      [
        "▁était",
        -7.423511493007275
      ],
      [
        "▁là",
        -7.4253584013401355
      ],
      [
        "▁ki",
        -7.426299347433632
      ],
      [
        "▁Su",
        -7.426720307331045
      ],
      [
        "▁san",
        -7.429820145187244
      ],
      [
        "▁boo",
        -7.435747646106554
      ],
      [
        "ñ",
        -7.436351003705594
      ],
      [
        "▁mbaa",
        -7.4436402168868945
      ],
      [
        "ses",
        -7.463712849169078
      ],
      [
        "▁–",
        -7.483292717206015
      ],
      [
        "▁laa",
        -7.487901835489725
      ],
      [
        "▁ñoo",
        -7.48940985305382
      ],
      [
        "o",
        -7.498936168739922
      ],
      [
        "▁chose",
        -7.509111898740429
      ],
      [
        "▁j'ai",
        -7.509220647893486
      ],
      [
        "▁À",
        -7.510552027672119
      ],
      [
        "ils",
        -7.513567665578533
      ],
      [
        "'est",
        -7.5204071338024
      ],
      [
        "▁lépp",
        -7.525806665093399
      ],
      [
        "▁Un",
        -7.530938120973809
      ],
      [
        "ne",
        -7.5391786991014085
      ],
      [
        "▁qu'on",
        -7.541546754911692
      ],
      [
        "▁D",
        -7.552729772577342
      ],
      [
        "▁vois",
        -7.554060507807672
      ],
      [
        "▁yi.",
        -7.556424473434045
      ],
      [
        "▁weex",
        -7.557556347161878
      ],
      [
        "▁walla",
        -7.563523592818905
      ],
      [
        "▁Mu",
        -7.576138892327141
      ],
      [
        "▁loolu",
        -7.576526876452123
      ],
      [
        "ci",
        -7.579441883874159
      ],
      [
        "▁man",
        -7.588995556597928
      ],
      [
        "▁l'intérieur",
        -7.592150379469938
      ],
      [
        "eneen",
        -7.599629756821036
      ],
      [
        "▁Ma",
        -7.606778416033512
      ],
      [
        "▁Li",
        -7.608099346640198
      ],
      [
        "▁J",
        -7.611092732709319
      ],
      [
        "▁war",
        -7.615457838386651
      ],
      [
        "ma",
        -7.618196281844595
      ],
      [
        "▁baax",
        -7.618375176537358
      ],
      [
        "▁fait",
        -7.619053476548975
      ],
      [
        "▁parle",
        -7.620864544742625
      ],
      [
        "ŋ",
        -7.622336957613285
      ],
      [
        "▁ŋgi",
        -7.62271548643542
      ],
      [
        "▁De",
        -7.626346021590245
      ],
      [
        "▁Waaye",
        -7.627016126409893
      ],
      [
        "woon",
        -7.630137490372839
      ],
      [
        "▁xar",
        -7.630313377858362
      ],
      [
        "▁leur",
        -7.631898548087478
      ],
      [
        "▁mag",
        -7.638802709088059
      ],
      [
        "▁bien",
        -7.639402015108166
      ],
      [
        "▁très",
        -7.644938915171467
      ],
      [
        "aient",
        -7.646199733998435
      ],
      [
        "▁cela",
        -7.654381776810201
      ],
      [
        "re",
        -7.65811470887524
      ],
      [
        "▁yaay",
        -7.658136281791659
      ],
      [
        "▁garab",
        -7.658397769705087
      ],
      [
        "▁Te",
        -7.665546852874398
      ],
      [
        "▁vous",
        -7.672125656229558
      ],
      [
        "▁En",
        -7.674870699826931
      ],
      [
        "▁yoon",
        -7.684199446217355
      ],
      [
        "e.",
        -7.685206180347979
      ],
      [
        "▁ñoom",
        -7.688209621822622
      ],
      [
        "la",
        -7.700323760578687
      ],
      [
        "▁néeg",
        -7.712399069662016
      ],
      [
        "▁mais",
        -7.713357683356559
      ],
      [
        "▁couleur",
        -7.714147575322625
      ],
      [
        "▁koo",
        -7.715099771394142
      ],
      [
        "▁yépp",
        -7.72274966607325
      ],
      [
        "▁L",
        -7.72566168781151
      ],
      [
        "▁Waaw",
        -7.728198344885165
      ],
      [
        "▁deux",
        -7.728199604760666
      ],
      [
        "▁monde",
        -7.729694144196527
      ],
      [
        ";",
        -7.736956767867487
      ],
      [
        "▁Maa",
        -7.740784904658501
      ],
      [
        "▁demee",
        -7.74127893115462
      ],
      [
        "▁Mais",
        -7.742163418713318
      ],
      [
        "▁sunu",
        -7.74778334868518
      ],
      [
        "▁guerre",
        -7.749112926852565
      ],
      [
        ")",
        -7.749334239978074
      ],
      [
        "▁yiy",
        -7.750138564894064
      ],
      [
        "▁G",
        -7.750545645592661
      ],
      [
        "▁aux",
        -7.753916595296431
      ],
      [
        "▁jusqu'",
        -7.7539637436576125
      ],
      [
        "▁réew",
        -7.755754024345661
      ],
      [
        "▁suuf",
        -7.761557239198154
      ],
      [
        "▁ka",
        -7.7633152938670476
      ],
      [
        "▁Du",
        -7.76392326988638
      ],
      [
        "▁temps",
        -7.764498816617277
      ],
      [
        "ée",
        -7.773988024619902
      ],
      [
        "▁dul",
        -7.7757584311424335
      ],
      [
        "▁lañu",
        -7.775842694865146
      ],
      [
        "▁tamit",
        -7.782610897570557
      ],
      [
        "▁bés",
        -7.788339778580441
      ],
      [
        "▁gone",
        -7.788639053965353
      ],
      [
        "▁P",
        -7.793569327273804
      ],
      [
        "▁dañ",
        -7.798906104068927
      ],
      [
        "▁sol",
        -7.801130556225096
      ],
      [
        "▁Ogosaa",
        -7.803861859078188
      ],
      [
        "▁celui-là",
        -7.804138832509098
      ],
      [
        "▁porte",
        -7.804321655090497
      ],
      [
        "▁vie",
        -7.808839738111667
      ],
      [
        "▁n'es",
        -7.810201875810217
      ],
      [
        "▁toog",
        -7.812818495715424
      ],
      [
        "ont",
        -7.8217044487439935
      ],
      [
        "▁bopp",
        -7.823562752066175
      ],
      [
        "▁yooyu",
        -7.824327465457131
      ],
      [
        "▁dit",
        -7.826759931733083
      ],
      [
        "▁Ñu",
        -7.827331607422661
      ],
      [
        "▁lii",
        -7.8280123083470885
      ],
      [
        "▁femme",
        -7.830502070315943
      ],
      [
        "▁tax",
        -7.834517997334194
      ],
      [
        "▁n'",
        -7.840473739144848
      ],
      [
        "▁part",
        -7.8417290268885065
      ],
      [
        "▁partir",
        -7.848076395718087
      ],
      [
        "▁xel",
        -7.848814666242624
      ],
      [
        "▁S",
        -7.850176028536895
      ],
      [
        "▁noppi",
        -7.850685583433101
      ],
      [
        "▁quelque",
        -7.85166159509029
      ],
      [
        "▁tey",
        -7.8535707019601375
      ],
      [
        "is",
        -7.8567869890401
      ],
      [
        "▁fekk",
        -7.867768297041387
      ],
      [
        "▁ndaw",
        -7.869720100599988
      ],
      [
        "▁yaram",
        -7.873298600611945
      ],
      [
        "▁tou",
        -7.876099183626752
      ],
      [
        "▁ag",
        -7.883279837023228
      ],
      [
        "w",
        -7.885067727536066
      ],
      [
        "▁cha",
        -7.888402258337498
      ],
      [
        "▁waay",
        -7.888944749711089
      ],
      [
        "▁Tugal",
        -7.89365507093377
      ],
      [
        "▁jëm",
        -7.894838123026238
      ],
      [
        "▁b",
        -7.897002753778599
      ],
      [
        "▁Nou",
        -7.90191651978455
      ],
      [
        "▁ànd",
        -7.903197905981563
      ],
      [
        "▁O",
        -7.9074641252124405
      ],
      [
        "▁f",
        -7.912189984375226
      ],
      [
        "▁Dem",
        -7.913705872749231
      ],
      [
        "'",
        -7.914615602739292
      ],
      [
        "▁on",
        -7.916098937721571
      ],
      [
        "▁doŋŋ",
        -7.917381453783136
      ],
      [
        "▁mouton",
        -7.9182959590390976
      ],
      [
        "▁n'a",
        -7.918435623474876
      ],
      [
        "▁boobu",
        -7.919136110260219
      ],
      [
        "▁gens",
        -7.92054398060852
      ],
      [
        "▁Cet",
        -7.923324578918212
      ],
      [
        "eux",
        -7.931029696582728
      ],
      [
        "yeek",
        -7.933811967597526
      ],
      [
        "▁venu",
        -7.93588297334129
      ],
      [
        "de",
        -7.936865471039155
      ],
      [
        "▁maa",
        -7.941399298839067
      ],
      [
        "▁jamono",
        -7.941854222303439
      ],
      [
        "▁encore",
        -7.941890068896978
      ],
      [
        "▁as",
        -7.943076511822991
      ],
      [
        "▁doole",
        -7.945822550004984
      ],
      [
        "▁veux",
        -7.946742687841789
      ],
      [
        "▁faire",
        -7.947007002154969
      ],
      [
        "▁it",
        -7.949165045679966
      ],
      [
        "▁toi",
        -7.951166057364546
      ],
      [
        "▁k",
        -7.954820187754395
      ],
      [
        "▁wër",
        -7.95626915590714
      ],
      [
        "▁soo",
        -7.959505263937306
      ],
      [
        "▁amul",
        -7.961135656924412
      ],
      [
        "▁ñuul",
        -7.962373567542668
      ],
      [
        "▁kow",
        -7.962913118624675
      ],
      [
        "▁nañ",
        -7.963537675505728
      ],
      [
        "c",
        -7.967554379408236
      ],
      [
        "ngir",
        -7.9676227536175634
      ],
      [
        "▁qu'elle",
        -7.967639340497104
      ],
      [
        "▁ga",
        -7.970888829785116
      ],
      [
        "ñu",
        -7.9715071071969135
      ],
      [
        "▁j'",
        -7.972046300011845
      ],
      [
        "▁ñax",
        -7.976216836028394
      ],
      [
        "▁dont",
        -7.976261878540286
      ],
      [
        "▁yëg",
        -7.976721561825119
      ],
      [
        "▁être",
        -7.987930248929576
      ],
      [
        "▁rafet",
        -7.989160648772227
      ],
      [
        "▁réer",
        -7.992079087646375
      ],
      [
        "▁voilà",
        -7.9924445594223545
      ],
      [
        "▁Si",
        -7.9934081854262224
      ],
      [
        "▁(",
        -7.997193773816008
      ],
      [
        "▁t",
        -7.997269883771043
      ],
      [
        "▁Quel",
        -7.997499694602645
      ],
      [
        "▁nañu",
        -7.999784106632603
      ],
      [
        "▁naan",
        -8.001671383591646
      ],
      [
        "▁Moo",
        -8.0041826680948
      ],
      [
        "▁demul",
        -8.011726887041755
      ],
      [
        "▁liggéey",
        -8.014953304853654
      ],
      [
        "▁àll",
        -8.018457907270168
      ],
      [
        "▁p",
        -8.018495756409207
      ],
      [
        "▁l'a",
        -8.021322806089792
      ],
      [
        "▁N",
        -8.027130607114604
      ],
      [
        "▁C",
        -8.027946969425205
      ],
      [
        "▁daal",
        -8.029184580930922
      ],
      [
        "tu",
        -8.031524274859867
      ],
      [
        "▁ont",
        -8.032279823274688
      ],
      [
        "▁peu",
        -8.034014467669301
      ],
      [
        "▁ñépp",
        -8.045817432634427
      ],
      [
        "▁Ndax",
        -8.04672356102713
      ],
      [
        "tre",
        -8.049247539194464
      ],
      [
        "eek",
        -8.049635890626925
      ],
      [
        "ù",
        -8.054932455798278
      ],
      [
        "▁lañ",
        -8.05968448725008
      ],
      [
        "▁wi",
        -8.0600797987566
      ],
      [
        "▁l'autre",
        -8.073793747462364
      ],
      [
        "▁dañu",
        -8.0790122667355
      ],
      [
        "▁Mon",
        -8.080214584158945
      ],
      [
        "▁bari",
        -8.082913799048798
      ],
      [
        "ions",
        -8.087248485910843
      ],
      [
        "▁jël",
        -8.087411443006328
      ],
      [
        "▁xare",
        -8.087751353442698
      ],
      [
        "▁itam",
        -8.089983412243704
      ],
      [
        "..",
        -8.09432848143176
      ],
      [
        "▁àddina",
        -8.094484668363156
      ],
      [
        "és",
        -8.094796192688742
      ],
      [
        "▁jot",
        -8.094961624550193
      ],
      [
        "est",
        -8.098357022917806
      ],
      [
        "▁taxaw",
        -8.100736704297137
      ],
      [
        "▁jamais",
        -8.102026921434918
      ],
      [
        "▁génn",
        -8.108755359924574
      ],
      [
        "▁saa",
        -8.11037243698228
      ],
      [
        "▁rien",
        -8.110545096207684
      ],
      [
        "▁m'a",
        -8.116193541931935
      ],
      [
        "▁semble",
        -8.116266081779091
      ],
      [
        "▁personne",
        -8.11780799485774
      ],
      [
        "▁at",
        -8.118612362950337
      ],
      [
        "▁loxo",
        -8.122274650903282
      ],
      [
        "quelle",
        -8.123609433335817
      ],
      [
        "▁femmes",
        -8.130369580318023
      ],
      [
        "ce",
        -8.130866164868554
      ],
      [
        "▁corps",
        -8.131803244424308
      ],
      [
        "▁Comme",
        -8.132241952702943
      ],
      [
        "▁xonq",
        -8.13442339081763
      ],
      [
        "▁Ba",
        -8.141330531682323
      ],
      [
        "▁sous",
        -8.143041102416825
      ],
      [
        "épp",
        -8.143497867351538
      ],
      [
        "▁M",
        -8.144156963069008
      ],
      [
        "ni",
        -8.146355433108901
      ],
      [
        "▁ŋgeen",
        -8.147029805269174
      ],
      [
        "▁Daf",
        -8.147122682181209
      ],
      [
        "▁jóge",
        -8.149018318023186
      ],
      [
        "▁waa",
        -8.150530252821948
      ],
      [
        "▁Xam",
        -8.154534453941555
      ],
      [
        "▁xarit",
        -8.156695729644406
      ],
      [
        "▁bët",
        -8.157346536821372
      ],
      [
        "▁doute",
        -8.161678399972791
      ],
      [
        "▁ban",
        -8.165320930254548
      ],
      [
        "▁dugg",
        -8.174324906104296
      ],
      [
        "s-tu",
        -8.178711876168215
      ],
      [
        "▁i",
        -8.183396544806886
      ],
      [
        "ation",
        -8.18356561071883
      ],
      [
        "f",
        -8.187713441062016
      ],
      [
        "▁va",
        -8.188035763899892
      ],
      [
        "▁ja",
        -8.19237377381119
      ],
      [
        "▁da",
        -8.194607476334076
      ],
      [
        "▁dégg",
        -8.19540314178871
      ],
      [
        "▁noonu",
        -8.198069956952242
      ],
      [
        "▁mes",
        -8.202811649825822
      ],
      [
        "kat",
        -8.215424551523748
      ],
      [
        "▁mbir",
        -8.219291265945657
      ],
      [
        "▁kaw",
        -8.22378525603069
      ],
      [
        "▁loin",
        -8.224565796392426
      ],
      [
        "▁sorte",
        -8.22475121096679
      ],
      [
        "▁là-bas",
        -8.225036659921841
      ],
      [
        "▁Kamerun",
        -8.225152144775153
      ],
      [
        "▁léeg-léeg",
        -8.225305691326637
      ],
      [
        "▁yaa",
        -8.227154034943224
      ],
      [
        "▁Tubaab",
        -8.235079384003406
      ],
      [
        "▁terre",
        -8.240216194026035
      ],
      [
        "▁jour",
        -8.240451486824051
      ],
      [
        "▁dex",
        -8.240516076136206
      ],
      [
        "▁nii",
        -8.24469258714684
      ],
      [
        "▁peut",
        -8.247659806890763
      ],
      [
        "▁Lu",
        -8.24974837782517
      ],
      [
        "▁bare",
        -8.251569747327023
      ],
      [
        "▁F",
        -8.254912389886517
      ],
      [
        "▁ginnaaw",
        -8.25723059599558
      ],
      [
        "▁foofu",
        -8.259118470978713
      ],
      [
        "▁fii",
        -8.261822648001633
      ],
      [
        "▁d'autres",
        -8.265167043151248
      ],
      [
        "▁fois",
        -8.276099855786384
      ],
      [
        "▁Fa",
        -8.276137636363059
      ],
      [
        "▁Lii",
        -8.282040854901165
      ],
      [
        "▁Xar",
        -8.282810721488339
      ],
      [
        "ale",
        -8.28995413076894
      ],
      [
        "▁bois",
        -8.295266293567078
      ],
      [
        "▁waaw",
        -8.295609553848458
      ],
      [
        "▁Bu",
        -8.297333190999321
      ],
      [
        "▁B",
        -8.298732767830867
      ],
      [
        "▁Et",
        -8.299195767646925
      ],
      [
        "▁g",
        -8.304424334871008
      ],
      [
        "▁re",
        -8.307144351537946
      ],
      [
        "▁elle",
        -8.312811202831423
      ],
      [
        "▁Ku",
        -8.31492017611002
      ],
      [
        "▁jaar",
        -8.319845483020714
      ],
      [
        "▁daw",
        -8.320188012128302
      ],
      [
        "▁bunt",
        -8.325912148428836
      ],
      [
        "▁wu",
        -8.326213772564255
      ],
      [
        "▁beaucoup",
        -8.328698402509831
      ],
      [
        "▁c'était",
        -8.330870726292217
      ],
      [
        "▁crois",
        -8.33107239252024
      ],
      [
        "▁boppam",
        -8.331793150717727
      ],
      [
        "▁après",
        -8.335830565056506
      ],
      [
        "▁peut-être",
        -8.336114816026422
      ],
      [
        "▁dund",
        -8.337562737046458
      ],
      [
        "▁On",
        -8.339389671247357
      ],
      [
        "▁dox",
        -8.340554884598754
      ],
      [
        "▁yeneen",
        -8.343319530440212
      ],
      [
        "▁neex",
        -8.343850060041035
      ],
      [
        "▁arbres",
        -8.344691977112205
      ],
      [
        "▁route",
        -8.351065733064644
      ],
      [
        "lu",
        -8.357678162800125
      ],
      [
        "▁entre",
        -8.362459235913798
      ],
      [
        "▁l'Afrique",
        -8.365730571735751
      ],
      [
        "▁Loolu",
        -8.36610941108934
      ],
      [
        "▁bañ",
        -8.36684149000415
      ],
      [
        "▁so",
        -8.368257907319215
      ],
      [
        "▁devant",
        -8.369538835396769
      ],
      [
        "▁années",
        -8.371092711300175
      ],
      [
        "▁non",
        -8.373900513982385
      ],
      [
        "▁ňu",
        -8.378229762148397
      ],
      [
        "▁solo",
        -8.388124651702249
      ],
      [
        "▁yoo",
        -8.388280080535463
      ],
      [
        "▁voir",
        -8.389091680529559
      ],
      [
        "▁chambre",
        -8.390261602881237
      ],
      [
        "▁veut",
        -8.39164939106939
      ],
      [
        "▁nee",
        -8.393952404678997
      ],
      [
        "▁lay",
        -8.395615111525434
      ],
      [
        "▁forêt",
        -8.403639666331907
      ],
      [
        "▁dëgg",
        -8.406355399981198
      ],
      [
        "▁Qui",
        -8.407154224803811
      ],
      [
        "▁Xale",
        -8.408099924351955
      ],
      [
        "▁Oui",
        -8.408205093427203
      ],
      [
        "h",
        -8.408993620915195
      ],
      [
        "▁topp",
        -8.410388008000972
      ],
      [
        "▁Ogoja",
        -8.410756358307179
      ],
      [
        "▁Afrique",
        -8.412301828254117
      ],
      [
        "▁Ni",
        -8.418310345652703
      ],
      [
        "▁avant",
        -8.419806996037268
      ],
      [
        "▁j",
        -8.420966790317227
      ],
      [
        "▁xaw",
        -8.421067168338928
      ],
      [
        "▁rouge",
        -8.421307124946711
      ],
      [
        "um",
        -8.42317590472674
      ],
      [
        "▁haut",
        -8.423228591055254
      ],
      [
        "▁Sée",
        -8.4253164290438
      ],
      [
        "▁daa",
        -8.435216926833348
      ],
      [
        "▁nuit",
        -8.436594689095111
      ],
      [
        "▁Mi",
        -8.436815476180506
      ],
      [
        "▁wet",
        -8.43976931964028
      ],
      [
        "▁ñ",
        -8.440582728145982
      ],
      [
        "▁celui",
        -8.444284133392134
      ],
      [
        "▁daanaka",
        -8.44481478339227
      ],
      [
        "▁travers",
        -8.445879398993773
      ],
      [
        "▁jooju",
        -8.447282209136358
      ],
      [
        "▁Ceci",
        -8.447411419609162
      ],
      [
        "▁Bi",
        -8.447891220899123
      ],
      [
        "▁moutons",
        -8.450874529720132
      ],
      [
        "▁contre",
        -8.453320400492473
      ],
      [
        "▁médecin",
        -8.45714927264006
      ],
      [
        "▁sui",
        -8.45991442855664
      ],
      [
        "▁kooku",
        -8.459983584409887
      ],
      [
        "▁amis",
        -8.460850025435033
      ],
      [
        "ou",
        -8.460973696564036
      ],
      [
        "▁tànk",
        -8.46491245421885
      ],
      [
        "ante",
        -8.465034478443155
      ],
      [
        "▁tudd",
        -8.465942002981803
      ],
      [
        "-là",
        -8.466844319150194
      ],
      [
        "▁gii",
        -8.468091959176169
      ],
      [
        "▁blanche",
        -8.468570825711346
      ],
      [
        "▁s'",
        -8.473677396868432
      ],
      [
        "▁Soo",
        -8.479890400230587
      ],
      [
        "uñu",
        -8.480676562379125
      ],
      [
        "▁Ca",
        -8.48101356702149
      ],
      [
        "▁Vous",
        -8.485032559498444
      ],
      [
        "▁fàww",
        -8.485064548618102
      ],
      [
        "▁France",
        -8.485316533073568
      ],
      [
        "▁matin",
        -8.485521805203271
      ],
      [
        "▁ceux-là",
        -8.48556372824066
      ],
      [
        "▁Cameroun",
        -8.485619539062883
      ],
      [
        "▁quelqu'un",
        -8.485645211819932
      ],
      [
        "▁E",
        -8.486557705958376
      ],
      [
        "▁voit",
        -8.48987731992526
      ],
      [
        "▁aucun",
        -8.492051353374006
      ],
      [
        "▁Elle",
        -8.4943099881583
      ],
      [
        "▁Sama",
        -8.49536291811283
      ],
      [
        "▁vers",
        -8.495626927574847
      ],
      [
        "▁dé",
        -8.495668844941592
      ],
      [
        "▁Man",
        -8.49788513265836
      ],
      [
        "na",
        -8.498211211518257
      ],
      [
        "tte",
        -8.500778944233994
      ],
      [
        "▁metti",
        -8.5032784513985
      ],
      [
        "▁noir",
        -8.503283113285658
      ],
      [
        "▁case",
        -8.50382680719744
      ],
      [
        "▁blanc",
        -8.506383240889814
      ],
      [
        "▁nuy",
        -8.508855035364576
      ],
      [
        "r.",
        -8.517640644209802
      ],
      [
        "▁ko.",
        -8.518351622044644
      ],
      [
        "▁Que",
        -8.520786954873008
      ],
      [
        "▁autres",
        -8.528845127761098
      ],
      [
        "autour",
        -8.529169500622364
      ],
      [
        "▁pouvait",
        -8.532726182602252
      ],
      [
        "▁donné",
        -8.535771649613864
      ],
      [
        "▁ceux",
        -8.536911294701518
      ],
      [
        "▁soit",
        -8.538482696851112
      ],
      [
        "in",
        -8.539029401562663
      ],
      [
        "▁aujourd'hui",
        -8.539048697788038
      ],
      [
        "▁jàpp",
        -8.539437625818117
      ],
      [
        "▁Tout",
        -8.542981504693397
      ],
      [
        "avoir",
        -8.548844547374177
      ],
      [
        "▁mer",
        -8.553045708872123
      ],
      [
        "eurs",
        -8.553537256892325
      ],
      [
        "▁jox",
        -8.553634575285844
      ],
      [
        "ées",
        -8.5546942381182
      ],
      [
        "▁Ay",
        -8.556487402369482
      ],
      [
        "▁personnes",
        -8.557515298834105
      ],
      [
        "▁day",
        -8.557650329728844
      ],
      [
        "▁kan",
        -8.557818281794123
      ],
      [
        "▁Na",
        -8.562594391564653
      ],
      [
        "▁fas",
        -8.567587280038882
      ],
      [
        "ient",
        -8.568259317343653
      ],
      [
        "▁Naka",
        -8.57395970207012
      ],
      [
        "▁yaakaar",
        -8.574229557314483
      ],
      [
        "▁au-dessus",
        -8.574446990669047
      ],
      [
        "▁lequel",
        -8.57508547905633
      ],
      [
        "▁mas",
        -8.577721141894354
      ],
      [
        "elle",
        -8.580234148052714
      ],
      [
        "▁Sa",
        -8.583141066051187
      ],
      [
        "▁verre",
        -8.584450311120424
      ],
      [
        "▁weer",
        -8.584456656193176
      ],
      [
        "▁xamul",
        -8.587297820969484
      ],
      [
        "ir",
        -8.587311775373987
      ],
      [
        "▁gaal",
        -8.590048103612169
      ],
      [
        "▁xol",
        -8.592052151466765
      ],
      [
        "▁qu'",
        -8.592339495743197
      ],
      [
        "▁ëpp",
        -8.595195301146063
      ],
      [
        "▁seul",
        -8.59616748812471
      ],
      [
        "▁bout",
        -8.598996208117352
      ],
      [
        "▁leer",
        -8.599500951418616
      ],
      [
        "leen",
        -8.60085701960938
      ],
      [
        "▁dee",
        -8.60509414720851
      ],
      [
        "▁fàttaliku",
        -8.605154309045716
      ],
      [
        "▁C'étai",
        -8.605315137209729
      ],
      [
        "▁Dan",
        -8.607229457051083
      ],
      [
        "▁Ken",
        -8.608416089233138
      ],
      [
        "▁passé",
        -8.609054118075633
      ],
      [
        "aan",
        -8.612817446213482
      ],
      [
        "▁ans",
        -8.613174055612465
      ],
      [
        "▁dóor",
        -8.613343721252308
      ],
      [
        "si",
        -8.61458735764538
      ],
      [
        "▁hommes",
        -8.615895634079894
      ],
      [
        "▁dana",
        -8.619696435993646
      ],
      [
        "▁J'",
        -8.620472747560589
      ],
      [
        "▁Wànte",
        -8.621503369107348
      ],
      [
        "▁soleil",
        -8.62168331949329
      ],
      [
        "▁xalaat",
        -8.621736314748782
      ],
      [
        "▁milieu",
        -8.621839935458581
      ],
      [
        "▁seulement",
        -8.62237307022452
      ],
      [
        "j",
        -8.624574294708548
      ],
      [
        "▁yàgg",
        -8.62771278263013
      ],
      [
        "▁For",
        -8.62806813583087
      ],
      [
        "être",
        -8.630317553937168
      ],
      [
        "▁coté",
        -8.63055842656076
      ],
      [
        "▁lan",
        -8.634529911434603
      ],
      [
        "▁quan",
        -8.637881529288222
      ],
      [
        "at",
        -8.63840828123463
      ],
      [
        "quoi",
        -8.642365189588602
      ],
      [
        "▁n'avai",
        -8.643803655965847
      ],
      [
        "ook",
        -8.645096732012659
      ],
      [
        "▁puis",
        -8.645479435987719
      ],
      [
        "▁tali",
        -8.648319386907115
      ],
      [
        "▁village",
        -8.650056458467553
      ],
      [
        "▁Au",
        -8.651541449834237
      ],
      [
        "▁defar",
        -8.652920511771482
      ],
      [
        "▁quelle",
        -8.655243501342694
      ],
      [
        "▁no",
        -8.657569007792988
      ],
      [
        "▁parler",
        -8.659540299454651
      ],
      [
        "▁Waa",
        -8.662938716363405
      ],
      [
        "▁posé",
        -8.66731030789999
      ],
      [
        "▁ressemble",
        -8.667678256827314
      ],
      [
        "▁Bëgg",
        -8.669186559341464
      ],
      [
        "▁n'ai",
        -8.669312994261071
      ],
      [
        "am.",
        -8.669469396671838
      ],
      [
        "igéen",
        -8.67015272257662
      ],
      [
        "▁Móris",
        -8.671380335834648
      ],
      [
        "▁debout",
        -8.673296972048291
      ],
      [
        "▁Ben",
        -8.673738078809485
      ],
      [
        "▁dina",
        -8.674433704779482
      ],
      [
        "▁Niseryaa",
        -8.675158128975777
      ],
      [
        "▁réy",
        -8.676754612527754
      ],
      [
        "▁reste",
        -8.677851238316832
      ],
      [
        "pendant",
        -8.67850502245783
      ],
      [
        "▁jeex",
        -8.680380726305977
      ],
      [
        "▁murs",
        -8.680683265332814
      ],
      [
        "▁ta",
        -8.683647539113757
      ],
      [
        "▁say",
        -8.684066685725448
      ],
      [
        "▁guddi",
        -8.685038362639771
      ],
      [
        "▁lal",
        -8.687209107965336
      ],
      [
        "vaient",
        -8.688599312510092
      ],
      [
        "▁ai",
        -8.692557486265343
      ],
      [
        "▁fin",
        -8.69378786380516
      ],
      [
        "▁vo",
        -8.695886556996095
      ],
      [
        "▁So",
        -8.695931210486714
      ],
      [
        "▁bord",
        -8.697234386398843
      ],
      [
        "▁passe",
        -8.70200036076885
      ],
      [
        "▁ndox",
        -8.702290500564015
      ],
      [
        "nu",
        -8.706512615138955
      ],
      [
        "▁wàn",
        -8.708877964944907
      ],
      [
        "▁bind",
        -8.709118245356567
      ],
      [
        "▁vrai",
        -8.709277075979156
      ],
      [
        "ans",
        -8.712141826861728
      ],
      [
        "▁ville",
        -8.717307245379633
      ],
      [
        "▁v",
        -8.720502279568723
      ],
      [
        "▁l'eau",
        -8.724190278724766
      ],
      [
        "▁Nigeria",
        -8.72419415709891
      ],
      [
        "▁souviens",
        -8.724200444292524
      ],
      [
        "▁question",
        -8.724269601742474
      ],
      [
        "▁grand-mère",
        -8.72436495137265
      ],
      [
        "▁doom-aadama",
        -8.724411846356187
      ],
      [
        "▁nettali",
        -8.724419726626914
      ],
      [
        "▁wéy",
        -8.72465822274342
      ],
      [
        "▁Keneen",
        -8.72474845427809
      ],
      [
        "▁Quan",
        -8.724974686105488
      ],
      [
        "▁manière",
        -8.725313512262499
      ],
      [
        "▁étai",
        -8.726055575691413
      ],
      [
        "▁Bansoo",
        -8.7269005230265
      ],
      [
        "▁Yaa",
        -8.73101966788892
      ],
      [
        "▁Cela",
        -8.732356562499648
      ],
      [
        "▁jaay",
        -8.733142422009914
      ],
      [
        "▁n'étai",
        -8.735536726099532
      ],
      [
        "▁grand",
        -8.73675495463664
      ],
      [
        "▁gaa",
        -8.736956700453177
      ],
      [
        "▁pu",
        -8.737353407294627
      ],
      [
        "▁regard",
        -8.739254885607668
      ],
      [
        "▁côté",
        -8.74029945337807
      ],
      [
        "té",
        -8.74107457821318
      ],
      [
        "▁door",
        -8.744030357647567
      ],
      [
        "▁enfant",
        -8.744745672177277
      ],
      [
        "as-tu",
        -8.746138606620006
      ],
      [
        "iers",
        -8.74651143874982
      ],
      [
        "▁dellu",
        -8.750535942359043
      ],
      [
        "▁égaré",
        -8.750825793128266
      ],
      [
        "▁poisson",
        -8.750926423727051
      ],
      [
        "▁maam",
        -8.751412757081889
      ],
      [
        "▁yeux",
        -8.75237567922596
      ],
      [
        "▁fan",
        -8.756600096910038
      ],
      [
        "▁gàtt",
        -8.757330432000012
      ],
      [
        "▁jiit",
        -8.75996918381559
      ],
      [
        "naa",
        -8.76110078861219
      ],
      [
        "▁rivière",
        -8.76473350380542
      ],
      [
        "▁ici",
        -8.769762743177129
      ],
      [
        "ez",
        -8.769852535307944
      ],
      [
        "▁bay",
        -8.775244314702238
      ],
      [
        "▁bokk",
        -8.776240186134968
      ],
      [
        "▁seet",
        -8.777686627626247
      ],
      [
        "▁bàyyi",
        -8.778320831937783
      ],
      [
        "▁Samba",
        -8.779449932912396
      ],
      [
        "▁S'il",
        -8.779549902738765
      ],
      [
        "▁cheval",
        -8.779550765802025
      ],
      [
        "▁njëkk",
        -8.779828946320766
      ],
      [
        "▁téere",
        -8.780345329244081
      ],
      [
        "▁xeer",
        -8.780445970390934
      ],
      [
        "▁Laobe",
        -8.780572744191383
      ],
      [
        "▁séen",
        -8.780826162335863
      ],
      [
        "▁vache",
        -8.781258130266298
      ],
      [
        "▁fourmis",
        -8.781936707677758
      ],
      [
        "▁yee",
        -8.78256766069619
      ],
      [
        "▁Moom",
        -8.785143581132555
      ],
      [
        "▁dénk",
        -8.786270887558441
      ],
      [
        "▁bon",
        -8.786886230810522
      ],
      [
        "▁ubbi",
        -8.787194086673596
      ],
      [
        "▁soir",
        -8.789543556097806
      ],
      [
        "▁Pour",
        -8.791720472773793
      ],
      [
        "ri",
        -8.792322453843092
      ],
      [
        "▁faj",
        -8.79255007078709
      ],
      [
        "▁kii",
        -8.79304680048734
      ],
      [
        "▁photo,",
        -8.794202440467853
      ],
      [
        "▁Seet",
        -8.79524742699924
      ],
      [
        "▁eux",
        -8.796454216903596
      ],
      [
        "béré",
        -8.801923322566372
      ],
      [
        "▁amoon",
        -8.803486306140023
      ],
      [
        "▁in",
        -8.804017941131825
      ],
      [
        "▁tudde",
        -8.808578112662865
      ],
      [
        "▁Y",
        -8.812407260823518
      ],
      [
        "▁Ra",
        -8.814180017880707
      ],
      [
        "uma",
        -8.814297035223886
      ],
      [
        "'exil",
        -8.814875142104466
      ],
      [
        "loo",
        -8.815087194832543
      ],
      [
        "▁aller",
        -8.815251026707989
      ],
      [
        "voir",
        -8.815297739397405
      ],
      [
        "koon",
        -8.81603026299837
      ],
      [
        "▁moment",
        -8.824020303812945
      ],
      [
        "▁Di",
        -8.824610685218195
      ],
      [
        "▁fo",
        -8.82981301478406
      ],
      [
        "▁jours",
        -8.830240888877661
      ],
      [
        "▁lion",
        -8.831628757350616
      ],
      [
        "vait",
        -8.83288110061974
      ],
      [
        "▁Banso",
        -8.834873808250041
      ],
      [
        "▁wut",
        -8.835592449316067
      ],
      [
        "▁aperç",
        -8.835685019704503
      ],
      [
        "▁baay",
        -8.836383379810721
      ],
      [
        "▁Alors",
        -8.838066527440535
      ],
      [
        "▁tàmbal",
        -8.838171751715322
      ],
      [
        "▁gunóor",
        -8.83826109819645
      ],
      [
        "▁do",
        -8.83840014809849
      ],
      [
        "▁Àngalteer",
        -8.838447093753418
      ],
      [
        "▁seetlu",
        -8.83894660449176
      ],
      [
        "▁Àngale",
        -8.838974921441038
      ],
      [
        "▁Ñoom",
        -8.839083563882555
      ],
      [
        "▁dëkki",
        -8.84089933695902
      ],
      [
        "▁dàll",
        -8.84245044803621
      ],
      [
        "▁yaatu",
        -8.843823398976792
      ],
      [
        "▁beneen",
        -8.84472714309538
      ],
      [
        "▁tuuti",
        -8.844827261889904
      ],
      [
        "▁mujje",
        -8.84517280023312
      ],
      [
        "tôt",
        -8.846533152315061
      ],
      [
        "▁assis",
        -8.847435150342031
      ],
      [
        "▁trois",
        -8.847454491768449
      ],
      [
        "▁masu",
        -8.847814816643218
      ],
      [
        "▁plaine",
        -8.847868737868607
      ],
      [
        "▁maanaa",
        -8.84836839776392
      ],
      [
        "aat",
        -8.848368673938841
      ],
      [
        "faral",
        -8.848671179319266
      ],
      [
        "▁miir",
        -8.849925153431979
      ],
      [
        "▁doomu",
        -8.849926823866571
      ],
      [
        "▁gaynde",
        -8.853434239674261
      ],
      [
        "▁peau",
        -8.853576169093618
      ],
      [
        "▁w",
        -8.855854093054772
      ],
      [
        "nga",
        -8.856250915195503
      ],
      [
        "▁mains",
        -8.856612175413161
      ],
      [
        "▁long",
        -8.857680514089138
      ],
      [
        "▁mat",
        -8.85867026468036
      ],
      [
        "▁toit",
        -8.859051286710297
      ],
      [
        "▁tel",
        -8.860606919371198
      ],
      [
        "▁montre",
        -8.861479378146186
      ],
      [
        "▁dire",
        -8.864247630308515
      ],
      [
        "maa",
        -8.865049162479409
      ],
      [
        "-na",
        -8.866486137696668
      ],
      [
        "an",
        -8.86666365227447
      ],
      [
        "ek",
        -8.871805613186481
      ],
      [
        "▁ñàkk",
        -8.871856672259025
      ],
      [
        "▁gee",
        -8.872115346035697
      ],
      [
        "▁toute",
        -8.874213081132579
      ],
      [
        "▁près",
        -8.875454502967791
      ],
      [
        "▁plu",
        -8.87579266213552
      ],
      [
        "ux",
        -8.87708544297888
      ],
      [
        "se",
        -8.877205665157103
      ],
      [
        "▁quel",
        -8.87742966965472
      ],
      [
        "▁lanu",
        -8.877673937699974
      ],
      [
        "▁bant",
        -8.88053682039892
      ],
      [
        "▁grande",
        -8.8823404185711
      ],
      [
        "bi",
        -8.883555420305399
      ],
      [
        "▁voyage",
        -8.884588792555814
      ],
      [
        "ependant",
        -8.885374318233556
      ],
      [
        "▁port",
        -8.887417166778992
      ],
      [
        "▁dama",
        -8.888310658225905
      ],
      [
        "ur",
        -8.888460668354522
      ],
      [
        "ère",
        -8.889150061154272
      ],
      [
        "▁mii",
        -8.889612373891524
      ],
      [
        "▁gudd",
        -8.889872388366282
      ],
      [
        "▁doom",
        -8.891325953066504
      ],
      [
        "▁yor",
        -8.891623224330122
      ],
      [
        "▁lorsqu",
        -8.893605082613295
      ],
      [
        "▁waaj",
        -8.896153673406488
      ],
      [
        "▁portes",
        -8.896197419172093
      ],
      [
        "▁way-jur",
        -8.897144233397203
      ],
      [
        "àddaay",
        -8.898653409770478
      ],
      [
        "▁nun",
        -8.899504455809808
      ],
      [
        "▁Bamenda",
        -8.899903163785117
      ],
      [
        "▁Kooku",
        -8.900315713787943
      ],
      [
        "▁mort",
        -8.900317032309525
      ],
      [
        "▁jeune",
        -8.90036691221616
      ],
      [
        "▁<unk>",
        -8.900427786697247
      ],
      [
        "▁jardin",
        -8.900562581036965
      ],
      [
        "▁dunyaa",
        -8.900673947683455
      ],
      [
        "▁l'Ouest",
        -8.900698706169841
      ],
      [
        "▁moroom",
        -8.90081339197003
      ],
      [
        "tes",
        -8.902280154389263
      ],
      [
        "▁demkoon",
        -8.902867986803287
      ],
      [
        "▁K",
        -8.903345596654571
      ],
      [
        "▁Kon",
        -8.904963968402539
      ],
      [
        "▁dëkku",
        -8.905696521851718
      ],
      [
        "▁s'il",
        -8.907246697696575
      ],
      [
        "▁kanam",
        -8.907917168850057
      ],
      [
        "▁faa",
        -8.911029232389508
      ],
      [
        "▁montagnes",
        -8.911282456660954
      ],
      [
        "▁xeet",
        -8.911841591664814
      ],
      [
        "▁trop",
        -8.912430582105717
      ],
      [
        "ng",
        -8.915010405832415
      ],
      [
        "▁takk",
        -8.916110881744595
      ],
      [
        "▁l'ai",
        -8.921690868126797
      ],
      [
        "▁feebar",
        -8.922411004150668
      ],
      [
        "▁mot",
        -8.923178565087312
      ],
      [
        "▁Boo",
        -8.923625781959473
      ],
      [
        "▁laaj",
        -8.927463168645707
      ],
      [
        "▁wone",
        -8.929762811316797
      ],
      [
        "enn",
        -8.934854570961786
      ],
      [
        "▁na.",
        -8.935056271965497
      ],
      [
        "avons",
        -8.93586578553776
      ],
      [
        "es.",
        -8.936093627993198
      ],
      [
        "▁ét",
        -8.939454554917681
      ],
      [
        "▁vient",
        -8.940360779156773
      ],
      [
        "▁mal",
        -8.946289475876458
      ],
      [
        "▁L'",
        -8.946659617738682
      ],
      [
        "▁won",
        -8.946711040388685
      ],
      [
        "ement",
        -8.949783538337208
      ],
      [
        "ël",
        -8.9544956502532
      ],
      [
        "or",
        -8.955091462593906
      ],
      [
        "▁marche",
        -8.956903057897179
      ],
      [
        "▁Va",
        -8.957832506754944
      ],
      [
        "▁nos",
        -8.958664246724043
      ],
      [
        "▁Ak",
        -8.9610288112511
      ],
      [
        "▁Da",
        -8.962573540218482
      ],
      [
        "▁leneen",
        -8.963678039473852
      ],
      [
        "▁Yaw",
        -8.966966341702761
      ],
      [
        "▁House",
        -8.966967255875796
      ],
      [
        "▁Aucun",
        -8.967003038265595
      ],
      [
        "▁làrme",
        -8.967021206106407
      ],
      [
        "▁jéem",
        -8.96705515466854
      ],
      [
        "▁violence",
        -8.967260295898326
      ],
      [
        "▁tollu",
        -8.9672825052076
      ],
      [
        "▁doktoor",
        -8.967300976881841
      ],
      [
        "▁Celui-là",
        -8.9673040281888
      ],
      [
        "▁simplement",
        -8.96765128876038
      ],
      [
        "▁yónnee",
        -8.968682627425775
      ],
      [
        "▁tëj",
        -8.968845271143579
      ],
      [
        "▁salle",
        -8.969646659859311
      ],
      [
        "▁cause",
        -8.96986104820267
      ],
      [
        "ons",
        -8.9706019696854
      ],
      [
        "▁lieu",
        -8.970747471358651
      ],
      [
        "▁niroo",
        -8.971072175511614
      ],
      [
        "▁ňaar",
        -8.971333165049968
      ],
      [
        "▁bëggul",
        -8.971441252153259
      ],
      [
        "▁gént",
        -8.971658734712285
      ],
      [
        "▁Dama",
        -8.972498776563647
      ],
      [
        "▁boog",
        -8.973637908104415
      ],
      [
        "▁Noonu",
        -8.97385320367221
      ],
      [
        "▁portent",
        -8.975159973166031
      ],
      [
        "▁deret",
        -8.976414634259317
      ],
      [
        "▁moomu",
        -8.976638251431048
      ],
      [
        "où",
        -8.977239091254885
      ],
      [
        "atum",
        -8.977679642973223
      ],
      [
        "wul",
        -8.977681086356014
      ],
      [
        "▁trouve",
        -8.980859661368623
      ],
      [
        "▁aw",
        -8.981749676701973
      ],
      [
        "▁biti",
        -8.982829576629905
      ],
      [
        "▁ëe",
        -8.983402856917639
      ],
      [
        "▁qu",
        -8.984693512018666
      ],
      [
        "▁parte",
        -8.984953003145662
      ],
      [
        "p",
        -8.9850817664561
      ],
      [
        "▁yére",
        -8.985192736687921
      ],
      [
        "▁dame",
        -8.985448254445314
      ],
      [
        "mu",
        -8.986463117229567
      ],
      [
        "▁romb",
        -8.986475775762662
      ],
      [
        "me",
        -8.987433623794832
      ],
      [
        "▁lit",
        -8.988156847437844
      ],
      [
        "▁réewu",
        -8.988977844980246
      ],
      [
        "▁ciel",
        -8.99017188729324
      ],
      [
        "▁ñan",
        -8.990363820512098
      ],
      [
        "▁ña",
        -8.994005461406033
      ],
      [
        "▁buntu",
        -8.996929997640255
      ],
      [
        "▁villages",
        -8.997047323281942
      ],
      [
        "▁néegu",
        -8.999659131459527
      ],
      [
        "▁defe",
        -9.00376200186643
      ],
      [
        "▁fut",
        -9.004683590770991
      ],
      [
        "▁travail",
        -9.00523625893525
      ],
      [
        "▁sais",
        -9.006482099426572
      ],
      [
        "▁blancs",
        -9.011456285455148
      ],
      [
        "▁Mën",
        -9.012258375577598
      ],
      [
        "▁jii",
        -9.01247468723557
      ],
      [
        "▁petit",
        -9.01335690398767
      ],
      [
        "▁jolie",
        -9.021568522320582
      ],
      [
        "▁souvenir",
        -9.022848181483534
      ],
      [
        "▁fond",
        -9.024557458271811
      ],
      [
        "▁aurait",
        -9.024835689778744
      ],
      [
        "▁R",
        -9.027944494773358
      ],
      [
        "▁Fu",
        -9.029737559524051
      ],
      [
        "kk",
        -9.031162599436355
      ],
      [
        "▁forme",
        -9.034879648662741
      ],
      [
        "du",
        -9.035297782741955
      ],
      [
        "▁parles",
        -9.03571535488491
      ],
      [
        "▁paix",
        -9.038146421706802
      ],
      [
        "▁tangor",
        -9.03838788016918
      ],
      [
        "▁mémoire",
        -9.038455291739162
      ],
      [
        "▁famille",
        -9.038519539021765
      ],
      [
        "▁diiwaan",
        -9.03854157816212
      ],
      [
        "▁ngelaw",
        -9.038596318235266
      ],
      [
        "▁Saint-Louis",
        -9.038686112096329
      ],
      [
        "▁celui-ci",
        -9.03896261549695
      ],
      [
        "▁gaaw",
        -9.039070944779851
      ],
      [
        "▁l'hôpital",
        -9.039116244523507
      ],
      [
        "▁Qu'il",
        -9.039268611107277
      ],
      [
        "▁wóor",
        -9.039636337174947
      ],
      [
        "▁heures",
        -9.040001615865648
      ],
      [
        "▁Wall",
        -9.040323932656111
      ],
      [
        "▁taxoon",
        -9.041678668316209
      ],
      [
        "▁ami",
        -9.042405857342827
      ],
      [
        "▁mépp",
        -9.042639888444311
      ],
      [
        "▁vécu",
        -9.043483068782411
      ],
      [
        "▁Yàlla",
        -9.044365437468674
      ],
      [
        "▁tard",
        -9.044453264032413
      ],
      [
        "▁Ndar",
        -9.045337251736628
      ],
      [
        "▁Là",
        -9.045481730493847
      ],
      [
        "bu",
        -9.046089118268052
      ],
      [
        "▁Seen",
        -9.046189158944383
      ],
      [
        "▁qu'un",
        -9.046411866456586
      ],
      [
        "▁bras",
        -9.04673725831728
      ],
      [
        "▁endroit",
        -9.048770194534978
      ],
      [
        "óon",
        -9.049125477054465
      ],
      [
        "as",
        -9.049869112205
      ],
      [
        "▁dexu",
        -9.051322793096976
      ],
      [
        "▁ñuul.",
        -9.054275512482164
      ],
      [
        "▁partie",
        -9.054940125357515
      ],
      [
        "▁gendarmes",
        -9.057269353577272
      ],
      [
        "▁togg",
        -9.057646043879974
      ],
      [
        "▁doomi",
        -9.060549123690617
      ],
      [
        "gi",
        -9.06319622456172
      ],
      [
        "▁song",
        -9.06434917075409
      ],
      [
        "je",
        -9.065331076991894
      ],
      [
        "▁jënd",
        -9.067307080005106
      ],
      [
        "aux",
        -9.068234339943636
      ],
      [
        "▁Kan",
        -9.071651063380111
      ],
      [
        "ukaay",
        -9.07431641000713
      ],
      [
        "▁X",
        -9.075368854791794
      ],
      [
        "▁mënoo",
        -9.076618412901981
      ],
      [
        "▁Wax",
        -9.077938168026417
      ],
      [
        "▁sore",
        -9.07939983540221
      ],
      [
        "▁W",
        -9.080259446675608
      ],
      [
        "▁pa",
        -9.083759435428512
      ],
      [
        "▁tabax",
        -9.084022700524994
      ],
      [
        "▁toutes",
        -9.084395258699782
      ],
      [
        "▁connu",
        -9.084658625321147
      ],
      [
        "uis",
        -9.08722362851703
      ],
      [
        "▁Nga",
        -9.087259511571926
      ],
      [
        "▁fàtte",
        -9.088658322930549
      ],
      [
        "▁marché",
        -9.090774784689371
      ],
      [
        "▁xool",
        -9.092186477740302
      ],
      [
        "▁fille",
        -9.09250532287533
      ],
      [
        "mi",
        -9.093568750284573
      ],
      [
        "em",
        -9.093960928235965
      ],
      [
        "▁noirs",
        -9.095598697422542
      ],
      [
        "ns",
        -9.096917310642036
      ],
      [
        "estr",
        -9.097326341022733
      ],
      [
        "▁Par",
        -9.099637733248104
      ],
      [
        "▁vieille",
        -9.102025621896221
      ],
      [
        "geen",
        -9.102753647321244
      ],
      [
        "▁s'en",
        -9.103440562055953
      ],
      [
        "▁googu",
        -9.104427030658547
      ],
      [
        "ku",
        -9.108477166389363
      ],
      [
        "▁tàng",
        -9.113416353601439
      ],
      [
        "▁wirgo",
        -9.114990711110593
      ],
      [
        "▁tëdd",
        -9.114996710011654
      ],
      [
        "▁sucre",
        -9.115026992385182
      ],
      [
        "▁palais",
        -9.115087351349231
      ],
      [
        "▁weesoo",
        -9.115109857875275
      ],
      [
        "▁Mbaa",
        -9.115160193474395
      ],
      [
        "▁soldaar",
        -9.115193050812792
      ],
      [
        "▁liberté",
        -9.115199738296548
      ],
      [
        "▁gis-gis",
        -9.115246632129855
      ],
      [
        "▁théière",
        -9.115292599449859
      ],
      [
        "▁sedd",
        -9.115325016492024
      ],
      [
        "▁asamaan",
        -9.115415398503899
      ],
      [
        "▁britannique",
        -9.115426011982231
      ],
      [
        "▁kese",
        -9.11571162505626
      ],
      [
        "▁Bés",
        -9.115815518547999
      ],
      [
        "▁Yéen",
        -9.115942471880636
      ],
      [
        "▁surtout",
        -9.11649432353254
      ],
      [
        "▁vas-tu",
        -9.11656820958064
      ],
      [
        "een",
        -9.117502465521394
      ],
      [
        "▁lekk",
        -9.118413796407301
      ],
      [
        "▁Ibo",
        -9.118871942537368
      ],
      [
        "▁faut",
        -9.120074642575435
      ],
      [
        "▁sori",
        -9.120227610984577
      ],
      [
        "▁dëkke",
        -9.12134001921356
      ],
      [
        "▁xelam",
        -9.121353289272665
      ],
      [
        "age",
        -9.12140211887024
      ],
      [
        "▁d'herbes",
        -9.122946515979892
      ],
      [
        "▁ainsi",
        -9.124066781005391
      ],
      [
        "▁Maurice",
        -9.124346902757136
      ],
      [
        "ais",
        -9.124481151900156
      ],
      [
        "▁jëkk",
        -9.124508641287907
      ],
      [
        "▁acheté",
        -9.124600960870518
      ],
      [
        "▁géej",
        -9.124602399068621
      ],
      [
        "▁allé",
        -9.12522794943818
      ],
      [
        "▁Jox",
        -9.125376295904434
      ],
      [
        "▁Frãs",
        -9.125539065018463
      ],
      [
        "▁rek",
        -9.125972973185714
      ],
      [
        "▁habits",
        -9.127266945898937
      ],
      [
        "▁Bamendaa",
        -9.127500125021834
      ],
      [
        "kër",
        -9.130446950876722
      ],
      [
        "ra",
        -9.131528019531885
      ],
      [
        "▁dellusi",
        -9.132732781890493
      ],
      [
        "armée",
        -9.134045575088614
      ],
      [
        "▁àgg",
        -9.135085742248274
      ],
      [
        "▁sàkk",
        -9.135169986815605
      ],
      [
        "▁café",
        -9.135194489267858
      ],
      [
        "st-ce",
        -9.135463678529515
      ],
      [
        "▁celle",
        -9.13608911174659
      ],
      [
        "▁viendra",
        -9.136784838248316
      ],
      [
        "q",
        -9.137927350154074
      ],
      [
        "ul.",
        -9.139612041205833
      ],
      [
        "ň",
        -9.1400400150054
      ],
      [
        "aa",
        -9.140415207666694
      ],
      [
        "▁grands",
        -9.146217577340552
      ],
      [
        "▁suba",
        -9.146787544578572
      ],
      [
        "▁wetu",
        -9.147201585526071
      ],
      [
        "▁per",
        -9.147445876962776
      ],
      [
        "▁jant",
        -9.147611630175529
      ],
      [
        "▁n'en",
        -9.149099270264497
      ],
      [
        "▁avions",
        -9.149640493764522
      ],
      [
        "▁pris",
        -9.149920558903105
      ],
      [
        "▁nanu",
        -9.15247423217149
      ],
      [
        "oŋ",
        -9.156428457146323
      ],
      [
        "des",
        -9.157295304732681
      ],
      [
        "waat",
        -9.158517077945747
      ],
      [
        "▁pars",
        -9.160960522263526
      ],
      [
        "▁parlait",
        -9.163215511394702
      ],
      [
        "ngi",
        -9.163444021026791
      ],
      [
        "▁tur",
        -9.164306225906813
      ],
      [
        "▁fàttali",
        -9.170176223745054
      ],
      [
        "▁ça",
        -9.170875150151925
      ],
      [
        "▁l'un",
        -9.171330432447553
      ],
      [
        "▁carte",
        -9.171440989710895
      ],
      [
        "▁vienne",
        -9.177832794298356
      ],
      [
        "▁bee",
        -9.182865313132744
      ],
      [
        "▁May",
        -9.183241386658523
      ],
      [
        "▁garçon",
        -9.183375463923358
      ],
      [
        "▁arrivé",
        -9.18390878478004
      ],
      [
        "▁main",
        -9.187325942600452
      ],
      [
        "▁noo",
        -9.189441455425833
      ],
      [
        "▁baa",
        -9.192804463399934
      ],
      [
        "▁coup",
        -9.19634396571337
      ],
      [
        "▁Kër",
        -9.196367034814415
      ],
      [
        "▁deme",
        -9.197174581508513
      ],
      [
        "▁làmp",
        -9.197965931118897
      ],
      [
        "▁Homme",
        -9.198135716944815
      ],
      [
        "▁Lawbe",
        -9.198234022978964
      ],
      [
        "▁déglu",
        -9.198327075785707
      ],
      [
        "▁Cherche",
        -9.198343762915602
      ],
      [
        "▁région",
        -9.198373851234571
      ],
      [
        "▁delloo",
        -9.198442518869868
      ],
      [
        "▁Ceux-là",
        -9.198462952586722
      ],
      [
        "▁xar-kanam",
        -9.198484531426661
      ],
      [
        "▁mellentaan",
        -9.19851747560509
      ],
      [
        "▁boroom",
        -9.198546218181386
      ],
      [
        "▁passage",
        -9.198588594449605
      ],
      [
        "▁manger",
        -9.198646961371466
      ],
      [
        "▁raison",
        -9.198798839099059
      ],
      [
        "▁large",
        -9.198806021466217
      ],
      [
        "▁yuuxu",
        -9.19899786196547
      ],
      [
        "▁appris",
        -9.199186637685592
      ],
      [
        "▁Jaam",
        -9.199646878505225
      ],
      [
        "▁longue",
        -9.199800769743993
      ],
      [
        "▁fépp",
        -9.19990666036335
      ],
      [
        "pp",
        -9.200402014960074
      ],
      [
        "▁xanaa",
        -9.201046177385093
      ],
      [
        "▁Demal",
        -9.20194844908155
      ],
      [
        "▁Defe",
        -9.201996555805655
      ],
      [
        "▁derrière",
        -9.202391572500813
      ],
      [
        "▁ngoon",
        -9.203482413307889
      ],
      [
        "▁kàddu",
        -9.203833594398203
      ],
      [
        "▁herbes",
        -9.20536374363438
      ],
      [
        "▁màggat",
        -9.205968787589299
      ],
      [
        "▁màgget",
        -9.206123995818853
      ],
      [
        "▁yaw",
        -9.206307402885418
      ],
      [
        "iy",
        -9.207000650419223
      ],
      [
        "▁nangu",
        -9.207358191012396
      ],
      [
        "▁ñii",
        -9.20866534341458
      ],
      [
        "'était",
        -9.208873786331036
      ],
      [
        "▁takk-der",
        -9.2101342548402
      ],
      [
        "▁baat",
        -9.212498847440068
      ],
      [
        "▁envoyée",
        -9.213877705410807
      ],
      [
        "▁pieds",
        -9.214335934693626
      ],
      [
        "▁woo",
        -9.215433714124893
      ],
      [
        "and",
        -9.216392888207588
      ],
      [
        "i.",
        -9.216592792541388
      ],
      [
        "▁Fan",
        -9.217779265401006
      ],
      [
        "ance",
        -9.218957382384382
      ],
      [
        "est-ce",
        -9.22126582674208
      ],
      [
        "aw",
        -9.221762678569837
      ],
      [
        "fin",
        -9.222567607103409
      ],
      [
        "▁An",
        -9.22329663301098
      ],
      [
        "▁Ñ",
        -9.224194077625796
      ],
      [
        "eur",
        -9.225270506955987
      ],
      [
        "yan",
        -9.226538916137452
      ],
      [
        "▁lakk",
        -9.227127260279003
      ],
      [
        "▁seule",
        -9.23048570235691
      ],
      [
        "▁pres",
        -9.231335431250614
      ],
      [
        "▁fleuves",
        -9.231729251155974
      ],
      [
        "▁couleurs",
        -9.232424875533159
      ],
      [
        "▁T",
        -9.233495499943928
      ],
      [
        "»",
        -9.234705385884588
      ],
      [
        "▁garde",
        -9.235670189649264
      ],
      [
        "▁duñu",
        -9.239028876216999
      ],
      [
        "▁fees",
        -9.240208912189011
      ],
      [
        "▁choses",
        -9.240396464127857
      ],
      [
        "▁séché",
        -9.243925756061973
      ],
      [
        "▁serai",
        -9.244370319680911
      ],
      [
        "▁D'",
        -9.24559764457113
      ],
      [
        "ub",
        -9.247519970577637
      ],
      [
        "▁fleuve",
        -9.253617650611565
      ],
      [
        "ité",
        -9.254713644575501
      ],
      [
        "yu",
        -9.256381564548123
      ],
      [
        "▁mêmes",
        -9.25682640299351
      ],
      [
        "▁conçue",
        -9.25702002637359
      ],
      [
        "-ci",
        -9.257194185205238
      ],
      [
        "aire",
        -9.257487337078713
      ],
      [
        "óor",
        -9.263137793216421
      ],
      [
        "uy",
        -9.263869637969712
      ],
      [
        "▁première",
        -9.266758638108577
      ],
      [
        "atul",
        -9.268996189170728
      ],
      [
        "▁jàng",
        -9.269236668008553
      ],
      [
        "▁sang",
        -9.269629780878281
      ],
      [
        "▁lesquel",
        -9.270095631387152
      ],
      [
        "beek",
        -9.270529760256245
      ],
      [
        "iez",
        -9.271745219067203
      ],
      [
        "ine",
        -9.272683907726528
      ],
      [
        "▁vi",
        -9.274583139481049
      ],
      [
        "▁të",
        -9.274823660365625
      ],
      [
        "▁dayo",
        -9.275454776621025
      ],
      [
        "▁t'a",
        -9.276216705394559
      ],
      [
        "▁po",
        -9.277710641340278
      ],
      [
        "▁yit",
        -9.283942373862036
      ],
      [
        "▁dagg",
        -9.2849529299771
      ],
      [
        "▁yem",
        -9.285064636972635
      ],
      [
        "▁frère",
        -9.287257130530865
      ],
      [
        "▁force",
        -9.287428639157746
      ],
      [
        "▁téye",
        -9.287500894528598
      ],
      [
        "zone",
        -9.287751143873614
      ],
      [
        "▁tiim",
        -9.287775413513028
      ],
      [
        "▁xéy",
        -9.287856981429993
      ],
      [
        "▁Gone",
        -9.288328918706515
      ],
      [
        "▁yéeg",
        -9.288353463315916
      ],
      [
        "▁jéggi",
        -9.288476211512402
      ],
      [
        "▁rawati",
        -9.288941767171625
      ],
      [
        "▁Moussa",
        -9.288958452006487
      ],
      [
        "▁Guyane",
        -9.288969582935888
      ],
      [
        "▁Xammee",
        -9.288997524205557
      ],
      [
        "▁lumière",
        -9.289041739903473
      ],
      [
        "▁yëkkati",
        -9.289051765811283
      ],
      [
        "▁chevaux",
        -9.289091549300975
      ],
      [
        "▁Guwiyaan",
        -9.289115122354985
      ],
      [
        "▁feuilles",
        -9.289124279982675
      ],
      [
        "▁d'Ogoja",
        -9.289168455134279
      ],
      [
        "▁bëj-saalum",
        -9.289213658005878
      ],
      [
        "▁poste",
        -9.289369409552123
      ],
      [
        "▁chez",
        -9.289410504087794
      ],
      [
        "▁toogukaay",
        -9.289604703580883
      ],
      [
        "▁jëfandikoo",
        -9.289812769236743
      ],
      [
        "▁Moonte",
        -9.29043964662852
      ],
      [
        "▁faisait",
        -9.290932252191817
      ],
      [
        "▁bateau",
        -9.291190112780093
      ],
      [
        "▁Ñii",
        -9.291505397533728
      ],
      [
        "▁bépp",
        -9.292051835235952
      ],
      [
        "▁yóbbu",
        -9.292653429562314
      ],
      [
        "▁silence",
        -9.293040541158
      ],
      [
        "▁retraite",
        -9.295450419858156
      ],
      [
        "▁fenn",
        -9.296121672762887
      ],
      [
        "▁Moi",
        -9.297114681941894
      ],
      [
        "▁pierres",
        -9.298030177974352
      ],
      [
        "▁cuir",
        -9.29809554715749
      ],
      [
        "▁Sud",
        -9.298763874041782
      ],
      [
        "▁d'Europe",
        -9.298866653643246
      ],
      [
        "avait",
        -9.299807454944922
      ],
      [
        "▁Koo",
        -9.299977676920863
      ],
      [
        "▁tund",
        -9.300605959685473
      ],
      [
        "▁xaar",
        -9.300834431527065
      ],
      [
        "▁sortir",
        -9.301129453696298
      ],
      [
        "▁toujours",
        -9.301601546706095
      ],
      [
        "ko",
        -9.301712519963191
      ],
      [
        "▁kilifa",
        -9.302047767721485
      ],
      [
        "▁meloon",
        -9.303268730463019
      ],
      [
        "▁feneen",
        -9.303898898745086
      ],
      [
        "vent",
        -9.304221688080926
      ],
      [
        "▁baxa",
        -9.30562133713377
      ],
      [
        "▁ñetti",
        -9.31042656774266
      ],
      [
        "▁naaj",
        -9.310757525359527
      ],
      [
        "nte",
        -9.311790404501524
      ],
      [
        "▁mis",
        -9.312221528470785
      ],
      [
        "▁Daan",
        -9.312441770073441
      ],
      [
        "▁Quelle",
        -9.313921188801356
      ],
      [
        "kati",
        -9.314370009287623
      ],
      [
        "▁miin",
        -9.316950638146322
      ],
      [
        "▁teel",
        -9.31705018172507
      ],
      [
        "▁ŋgii",
        -9.318039420928608
      ],
      [
        "▁Loo",
        -9.326122344668097
      ],
      [
        "▁roi",
        -9.328702137983854
      ],
      [
        "▁point",
        -9.33059135860542
      ],
      [
        "ati",
        -9.330652229410386
      ],
      [
        "li",
        -9.33263084436064
      ],
      [
        "belle",
        -9.333116994579647
      ],
      [
        "ag",
        -9.335553399652934
      ],
      [
        "▁égarée",
        -9.336902415132547
      ],
      [
        "kkali",
        -9.341087894865977
      ],
      [
        "▁waxtaan",
        -9.341893236196984
      ],
      [
        "ab",
        -9.343845667016593
      ],
      [
        "▁tàkk",
        -9.345515113066892
      ],
      [
        "▁sera",
        -9.346111371030673
      ],
      [
        "▁ragal",
        -9.348798883242974
      ],
      [
        "▁Xa",
        -9.35008309258074
      ],
      [
        "▁vent",
        -9.350194459310183
      ],
      [
        "▁jàll",
        -9.35078130553444
      ],
      [
        "▁cuisine",
        -9.351092966225488
      ],
      [
        "▁doxandéem",
        -9.351258918909835
      ],
      [
        "ug",
        -9.352667864189646
      ],
      [
        "▁rëdd",
        -9.352735332477934
      ],
      [
        "naka",
        -9.354314954842534
      ],
      [
        "woo",
        -9.35472341007095
      ],
      [
        "▁cases",
        -9.355196767926374
      ],
      [
        "wu",
        -9.359291917250102
      ],
      [
        "▁daj",
        -9.359504685589233
      ],
      [
        "▁arbre",
        -9.362504839739067
      ],
      [
        "▁livre",
        -9.363008011907954
      ],
      [
        "▁partis",
        -9.36588061931076
      ],
      [
        "eut-être",
        -9.367872588389645
      ],
      [
        "▁Foo",
        -9.37131456669404
      ],
      [
        "▁visage",
        -9.371945021713026
      ],
      [
        "tant",
        -9.372696140110037
      ],
      [
        "▁toogu",
        -9.37471201973279
      ],
      [
        "▁doy",
        -9.374794827520244
      ],
      [
        "réer",
        -9.379496130545272
      ],
      [
        "▁Fi",
        -9.381890062125422
      ],
      [
        "û",
        -9.383441333972169
      ],
      [
        "▁pirogue",
        -9.387193864912152
      ],
      [
        "▁chaussures",
        -9.38719550390642
      ],
      [
        "▁nouveau",
        -9.387200687561968
      ],
      [
        "▁U2",
        -9.387206079940741
      ],
      [
        "-fukk",
        -9.387234509529115
      ],
      [
        "▁mbóot",
        -9.387268550442357
      ],
      [
        "▁diggante",
        -9.387278968505221
      ],
      [
        "▁façon",
        -9.387288489296843
      ],
      [
        "▁Nord",
        -9.387290172051179
      ],
      [
        "▁janook",
        -9.387353615559633
      ],
      [
        "▁subë",
        -9.387363979209077
      ],
      [
        "▁sentiment",
        -9.387375803633532
      ],
      [
        "▁Ñàkk",
        -9.387395942944854
      ],
      [
        "▁Fatim",
        -9.387433041335308
      ],
      [
        "▁kook",
        -9.387461559141592
      ],
      [
        "z",
        -9.387512427083553
      ],
      [
        "▁morceau",
        -9.388061381295497
      ],
      [
        "▁l'enfant",
        -9.388374101129795
      ],
      [
        "mettre",
        -9.388605536803666
      ],
      [
        "▁metit",
        -9.388707476549854
      ],
      [
        "▁yëf",
        -9.388769859863505
      ],
      [
        "▁loxoom",
        -9.388813436515303
      ],
      [
        "▁fanaan",
        -9.388980903433715
      ],
      [
        "▁xuus",
        -9.389198226240104
      ],
      [
        "▁voix",
        -9.38920200718233
      ],
      [
        "ti",
        -9.389778520196678
      ],
      [
        "▁moins",
        -9.390008769185876
      ],
      [
        "▁njiit",
        -9.390468040655422
      ],
      [
        "▁yëngu",
        -9.390757969655972
      ],
      [
        "▁Ta",
        -9.390907549578229
      ],
      [
        "venir",
        -9.391073479919207
      ],
      [
        "▁bonne",
        -9.391901807432049
      ],
      [
        "▁mar",
        -9.392505737095938
      ],
      [
        "▁Voil",
        -9.392799457032021
      ],
      [
        "▁petite",
        -9.393315143091561
      ],
      [
        "▁tubaab",
        -9.393611215253877
      ],
      [
        "atim",
        -9.39424852652006
      ],
      [
        "▁train",
        -9.394823386707753
      ],
      [
        "▁jege",
        -9.394855793899199
      ],
      [
        "▁genn",
        -9.395542249636778
      ],
      [
        "▁tay",
        -9.40137743227591
      ],
      [
        "▁hautes",
        -9.402260347682265
      ],
      [
        "▁donc",
        -9.402633830683948
      ],
      [
        "▁gor",
        -9.40319523516769
      ],
      [
        "▁fils",
        -9.403229724900658
      ],
      [
        "▁jan",
        -9.405307748323711
      ],
      [
        "▁tàll",
        -9.40538896597298
      ],
      [
        "▁garçons",
        -9.405564957176136
      ],
      [
        "▁buur",
        -9.407932828383554
      ],
      [
        "▁Non",
        -9.411140077765745
      ],
      [
        "'avez",
        -9.412957094435791
      ],
      [
        "▁Bon",
        -9.414015062313819
      ],
      [
        "▁joor",
        -9.414191469824253
      ],
      [
        "tion",
        -9.414749656778454
      ],
      [
        "▁fer",
        -9.41475700592833
      ],
      [
        "▁neen",
        -9.416613791353353
      ],
      [
        "▁ñëwul",
        -9.41786762306813
      ],
      [
        "▁danga",
        -9.418107685528199
      ],
      [
        "impression",
        -9.418800560663684
      ],
      [
        "▁waral",
        -9.421754212713253
      ],
      [
        "▁telle",
        -9.4225335631923
      ],
      [
        "▁partes",
        -9.424696330716822
      ],
      [
        "▁xamant",
        -9.427524959431096
      ],
      [
        "▁Jo",
        -9.428501742745985
      ],
      [
        "▁fukk",
        -9.430519830911523
      ],
      [
        "▁doo",
        -9.43080352024581
      ],
      [
        "▁yab",
        -9.433711733479665
      ],
      [
        "part",
        -9.433988081984873
      ],
      [
        "▁wa",
        -9.434661444625448
      ],
      [
        "rait",
        -9.436078757411035
      ],
      [
        "▁eu",
        -9.436751963352132
      ],
      [
        "▁kaa",
        -9.437197800968098
      ],
      [
        "▁wuti",
        -9.437500131572646
      ],
      [
        "▁froid",
        -9.438915464204772
      ],
      [
        "▁s'agi",
        -9.440015332576056
      ],
      [
        "▁tan",
        -9.446063045330678
      ],
      [
        "▁noon",
        -9.446913441871743
      ],
      [
        "▁neneen",
        -9.448052014533072
      ],
      [
        "-tu",
        -9.448090971085207
      ],
      [
        "▁cons",
        -9.450763424968882
      ],
      [
        "▁es",
        -9.451991735284484
      ],
      [
        "▁samp",
        -9.452036069117034
      ],
      [
        "▁Ou",
        -9.452605615147407
      ],
      [
        "▁xëcc",
        -9.453817006618465
      ],
      [
        "▁tere",
        -9.456628544814428
      ],
      [
        "▁ciment",
        -9.457439704790158
      ],
      [
        "▁garabi",
        -9.461903275433775
      ],
      [
        "▁partira",
        -9.463453499883697
      ],
      [
        "▁feeñ",
        -9.464173181207371
      ],
      [
        "▁connais",
        -9.464811159069558
      ],
      [
        "▁tefes",
        -9.464901516780625
      ],
      [
        "▁Saa",
        -9.465157601043963
      ],
      [
        "▁r",
        -9.472119618644582
      ],
      [
        "▁car",
        -9.475483874069806
      ],
      [
        "▁we",
        -9.477457273508719
      ],
      [
        "▁table",
        -9.478223497746974
      ],
      [
        "▁jeu",
        -9.47851876584002
      ],
      [
        "vant",
        -9.48157275451304
      ],
      [
        "▁Nu",
        -9.482091678060856
      ],
      [
        "añoo",
        -9.483345252095829
      ],
      [
        "ar",
        -9.483632777322542
      ],
      [
        "▁cour",
        -9.488259629322162
      ],
      [
        "▁tekk",
        -9.488535032243371
      ],
      [
        "-il",
        -9.488599739425936
      ],
      [
        "▁Ri",
        -9.489014899560045
      ],
      [
        "ès",
        -9.489281824928085
      ],
      [
        "▁drap",
        -9.492954641918224
      ],
      [
        "éy",
        -9.493531311073028
      ],
      [
        "▁dënn",
        -9.494130563092666
      ],
      [
        "▁palanteer",
        -9.496648288900765
      ],
      [
        "▁nom",
        -9.496909423334415
      ],
      [
        "▁chef",
        -9.497434919793536
      ],
      [
        "▁Sénégal",
        -9.497513429858163
      ],
      [
        "▁yegg",
        -9.497724599609391
      ],
      [
        "▁Woo",
        -9.497882005356049
      ],
      [
        "us",
        -9.49796390117918
      ],
      [
        "▁entrai",
        -9.498269459179259
      ],
      [
        "▁Aujourd'hui",
        -9.498304963343477
      ],
      [
        "▁bëj-gànnaar",
        -9.498304963489671
      ],
      [
        "▁wëndéelu",
        -9.498304963501825
      ],
      [
        "▁médicaments",
        -9.498304963605463
      ],
      [
        "▁Biyaafaraa",
        -9.498304964024015
      ],
      [
        "▁lëndëm",
        -9.498304966855143
      ],
      [
        "▁sowu-jant",
        -9.498305331923872
      ],
      [
        "▁bànneex",
        -9.49830639358497
      ],
      [
        "▁société",
        -9.498306642819836
      ],
      [
        "▁complète",
        -9.498306745665243
      ],
      [
        "▁Senegaal",
        -9.49830792045009
      ],
      [
        "▁Jamono",
        -9.498310210314672
      ],
      [
        "▁Ainsi",
        -9.498315242662823
      ],
      [
        "▁Déedéet",
        -9.49833562792163
      ],
      [
        "▁Sérère",
        -9.498347667252334
      ],
      [
        "▁Almaañ",
        -9.498350185031963
      ],
      [
        "▁cosaan",
        -9.498371313383483
      ],
      [
        "▁d'Afrique",
        -9.498477790011902
      ],
      [
        "▁woto",
        -9.4984873915301
      ],
      [
        "▁lampe",
        -9.49850243205551
      ],
      [
        "▁l'âge",
        -9.498521395579921
      ],
      [
        "▁Teewul",
        -9.498653608614315
      ],
      [
        "▁gémmiñ",
        -9.498741714764988
      ],
      [
        "▁paaka",
        -9.498822772555297
      ],
      [
        "▁naqar",
        -9.49888136840237
      ],
      [
        "▁longtemps",
        -9.498893094586444
      ],
      [
        "▁baraada",
        -9.498915617957561
      ],
      [
        "▁yow",
        -9.499022806821351
      ],
      [
        "▁parfois",
        -9.499023491890014
      ],
      [
        "-t-il",
        -9.499135683601803
      ],
      [
        "▁chaleur",
        -9.499175427022122
      ],
      [
        "▁wanag",
        -9.4991836788836
      ],
      [
        "▁tukki",
        -9.499399862847213
      ],
      [
        "▁mucc",
        -9.49943355150002
      ],
      [
        "▁weñ",
        -9.499510003450748
      ],
      [
        "▁wépp",
        -9.499643806293545
      ],
      [
        "▁Musaa",
        -9.50012340911462
      ],
      [
        "▁gisaat",
        -9.500145621247611
      ],
      [
        "▁comport",
        -9.50037811630095
      ],
      [
        "▁wow",
        -9.500461155550743
      ],
      [
        "▁ràbb",
        -9.500554332836797
      ],
      [
        "▁pourtant",
        -9.50056635658406
      ],
      [
        "▁juste",
        -9.500638215113625
      ],
      [
        "▁jaŋg",
        -9.500722219664553
      ],
      [
        "▁yar",
        -9.501165074094867
      ],
      [
        "▁jàmm",
        -9.50118781899977
      ],
      [
        "▁woowe",
        -9.501509649161038
      ],
      [
        "▁Niis",
        -9.502651530763156
      ],
      [
        "▁Ici",
        -9.502733217024915
      ],
      [
        "▁meubles",
        -9.502918987053462
      ],
      [
        "▁insectes",
        -9.50294277964187
      ],
      [
        "▁feu",
        -9.503543609631548
      ],
      [
        "▁sànni",
        -9.503777660182646
      ],
      [
        "▁Toi",
        -9.504450647830085
      ],
      [
        "▁Doo",
        -9.504532616939478
      ],
      [
        "▁Ne",
        -9.504624186692133
      ],
      [
        "Après",
        -9.505025219344425
      ],
      [
        "▁ŋgoon",
        -9.505191601577707
      ],
      [
        "▁gan",
        -9.505518509289082
      ],
      [
        "▁étions",
        -9.505894583336703
      ],
      [
        "▁alors",
        -9.506685649511418
      ],
      [
        "▁place",
        -9.507769112832337
      ],
      [
        "▁prend",
        -9.508155465023304
      ],
      [
        "▁jo",
        -9.50826935694461
      ],
      [
        "▁foo",
        -9.509936326176119
      ],
      [
        "▁parlé",
        -9.510504382170257
      ],
      [
        "▁savane",
        -9.511429314067382
      ],
      [
        "ai",
        -9.511807129354517
      ],
      [
        "▁lieux",
        -9.512655259661255
      ],
      [
        "▁sew",
        -9.512848071444992
      ],
      [
        "▁wan",
        -9.513688735239437
      ],
      [
        "▁San",
        -9.513786009170918
      ],
      [
        "▁Fii",
        -9.514614600556133
      ],
      [
        "▁bâtons",
        -9.514752619272697
      ],
      [
        "▁fleurs",
        -9.516538900165092
      ],
      [
        "▁objets",
        -9.51712689958815
      ],
      [
        "▁pro",
        -9.51724671528968
      ],
      [
        "▁Tay",
        -9.517423288824242
      ],
      [
        "▁demande",
        -9.51798553295547
      ],
      [
        "▁booba",
        -9.518167869662502
      ],
      [
        "▁bleu",
        -9.519309057328892
      ],
      [
        "▁Noon",
        -9.520034444140867
      ],
      [
        "ter",
        -9.520143826869012
      ],
      [
        "▁appelle",
        -9.521832931222315
      ],
      [
        "▁ñooñu",
        -9.522165279688155
      ],
      [
        "▁Yo",
        -9.52228777947643
      ],
      [
        "▁nag.",
        -9.523022726978004
      ],
      [
        "▁këram",
        -9.523297297043683
      ],
      [
        "'habitude",
        -9.525211364753723
      ],
      [
        "▁enfance",
        -9.525805257635104
      ],
      [
        "▁pou",
        -9.528154785834445
      ],
      [
        "▁ñaan",
        -9.528570715723399
      ],
      [
        "▁africain",
        -9.530092582779332
      ],
      [
        "▁ceci",
        -9.531934356026545
      ],
      [
        "▁côte",
        -9.532166138674029
      ],
      [
        "▁jeunes",
        -9.534923018096126
      ],
      [
        "▁Alma",
        -9.535775736091551
      ],
      [
        "ewul",
        -9.535865110492354
      ],
      [
        "▁bol",
        -9.535959970976597
      ],
      [
        "▁avais",
        -9.536904755900672
      ],
      [
        "▁jusqu'au",
        -9.540533610291238
      ],
      [
        "▁viennes",
        -9.541709849768143
      ],
      [
        "ture",
        -9.542019180255762
      ],
      [
        "▁nul",
        -9.543346153206885
      ],
      [
        "▁routes",
        -9.54385379523238
      ],
      [
        "▁gardé",
        -9.54425491268821
      ],
      [
        "▁diis",
        -9.544746636826632
      ],
      [
        "▁bes",
        -9.545358051020322
      ],
      [
        "dé",
        -9.548264566250953
      ],
      [
        "▁bees",
        -9.54868314630102
      ],
      [
        "▁vas",
        -9.54969755558351
      ],
      [
        "▁petits",
        -9.549761436567035
      ],
      [
        "ata",
        -9.552179017134671
      ],
      [
        "euse",
        -9.553765549115262
      ],
      [
        "▁ng",
        -9.55509950322439
      ],
      [
        "▁Ña",
        -9.555431777598717
      ],
      [
        "aller",
        -9.55575887849579
      ],
      [
        "▁donne",
        -9.55858172806996
      ],
      [
        "▁lim",
        -9.561097049549769
      ],
      [
        "▁alal",
        -9.561282970830849
      ],
      [
        "▁H",
        -9.562268172966727
      ],
      [
        "▁mo",
        -9.56480715790762
      ],
      [
        "▁vais",
        -9.565621875580492
      ],
      [
        "ji",
        -9.566092194676324
      ],
      [
        "▁Me",
        -9.567955098769477
      ],
      [
        "▁tool",
        -9.570882692825434
      ],
      [
        "▁kee",
        -9.57364016224495
      ],
      [
        "▁entier",
        -9.575731405447701
      ],
      [
        "▁guy",
        -9.577318970085338
      ],
      [
        "▁raconte",
        -9.578211455150022
      ],
      [
        "lle",
        -9.578740244117707
      ],
      [
        "▁rêve",
        -9.58049201317387
      ],
      [
        "▁m'en",
        -9.582063089687312
      ],
      [
        "ppelle",
        -9.58370985917162
      ],
      [
        "▁fee",
        -9.584386653207469
      ],
      [
        "▁nature",
        -9.58554803201598
      ],
      [
        "▁Go",
        -9.588375413535012
      ],
      [
        "▁wute",
        -9.58864052846787
      ],
      [
        "▁e",
        -9.59379763384074
      ],
      [
        "ral",
        -9.593975023247244
      ],
      [
        "▁parc",
        -9.59426338111254
      ],
      [
        "▁luy",
        -9.596454152879105
      ],
      [
        "▁d'a",
        -9.59786086088758
      ],
      [
        "▁rey",
        -9.60081923672789
      ],
      [
        "▁Ya",
        -9.603450085366344
      ],
      [
        "▁bula",
        -9.603771834701442
      ],
      [
        "gré",
        -9.605233745459808
      ],
      [
        "▁tête",
        -9.605950121037502
      ],
      [
        "▁nan",
        -9.607784571292086
      ],
      [
        "oom",
        -9.610358253599786
      ],
      [
        "▁jën",
        -9.61111481301917
      ],
      [
        "▁montagne",
        -9.611560771015924
      ],
      [
        "▁nopp",
        -9.612670206474581
      ],
      [
        "▁pied",
        -9.61364704500576
      ],
      [
        "▁ira",
        -9.615514587838716
      ],
      [
        "▁në",
        -9.615939524903226
      ],
      [
        "▁bool",
        -9.619263996746616
      ],
      [
        "▁Ñoo",
        -9.619963962892903
      ],
      [
        "▁kay",
        -9.620831049318198
      ],
      [
        "▁yilif",
        -9.622042453741685
      ],
      [
        "▁Victoria",
        -9.62330496335283
      ],
      [
        "▁Léeg-léeg",
        -9.623304963396688
      ],
      [
        "▁kéemaane",
        -9.623304967192666
      ],
      [
        "▁difficile",
        -9.62330509249948
      ],
      [
        "▁assurément",
        -9.623305187516879
      ],
      [
        "▁pantalon",
        -9.623305294889647
      ],
      [
        "▁xàmmee",
        -9.623305358339614
      ],
      [
        "▁chaussettes",
        -9.623307833218398
      ],
      [
        "▁xaalis",
        -9.623312733391229
      ],
      [
        "▁Legoos",
        -9.623315250256853
      ],
      [
        "▁Monsieur",
        -9.62332131022412
      ],
      [
        "▁mauvais",
        -9.623327528510124
      ],
      [
        "▁Réew",
        -9.623338991335187
      ],
      [
        "▁L'Afrique",
        -9.623340902727454
      ],
      [
        "▁puissance",
        -9.623342436471123
      ],
      [
        "▁keroog",
        -9.623347002007762
      ],
      [
        "▁yëngal",
        -9.623359135676512
      ],
      [
        "▁frontière",
        -9.623361614756522
      ],
      [
        "▁janeer",
        -9.623364024692776
      ],
      [
        "▁juddoo",
        -9.623400455503763
      ],
      [
        "▁plein",
        -9.62340070055196
      ],
      [
        "▁l'amour",
        -9.623441248962733
      ],
      [
        "▁palaat",
        -9.623497766839478
      ],
      [
        "▁taxu",
        -9.623527945878134
      ],
      [
        "▁douceur",
        -9.623552114473867
      ],
      [
        "▁Dëkk",
        -9.62361552289254
      ],
      [
        "▁dernier",
        -9.623658976258287
      ],
      [
        "▁fajkat",
        -9.623741024571752
      ],
      [
        "▁Officer",
        -9.623743554770098
      ],
      [
        "▁colère",
        -9.623921425927998
      ],
      [
        "▁bouche",
        -9.623951741114404
      ],
      [
        "▁bomb",
        -9.62404176039681
      ],
      [
        "▁Laobé",
        -9.624211065454189
      ],
      [
        "▁ensemble",
        -9.624238113501342
      ],
      [
        "▁Nice",
        -9.625728119974383
      ],
      [
        "▁Buur",
        -9.626024025926817
      ],
      [
        "▁Kookule",
        -9.628146153215637
      ],
      [
        "▁départ",
        -9.628642532504312
      ],
      [
        "▁Plu",
        -9.628759076956289
      ],
      [
        "▁histoire",
        -9.62910294013225
      ],
      [
        "▁riir",
        -9.630300059641069
      ],
      [
        "▁accroché",
        -9.630913081574832
      ],
      [
        "▁cherche",
        -9.63136732210548
      ],
      [
        "▁daawu",
        -9.63174950897626
      ],
      [
        "▁regarder",
        -9.631769870615704
      ],
      [
        "▁gejje",
        -9.634550544960485
      ],
      [
        "▁sës",
        -9.635290287048681
      ],
      [
        "▁proche",
        -9.636170689470875
      ],
      [
        "▁waxtu",
        -9.636280192546328
      ],
      [
        "▁goût",
        -9.637311599128662
      ],
      [
        "▁sauvages",
        -9.637608057944231
      ],
      [
        "▁compte",
        -9.63761408985889
      ],
      [
        "ba",
        -9.637862331588408
      ],
      [
        "▁six",
        -9.638156389971467
      ],
      [
        "▁tóo",
        -9.63823240669646
      ],
      [
        "▁Sunu",
        -9.638324982131735
      ],
      [
        "▁cœur",
        -9.638577988886366
      ],
      [
        "▁jaune",
        -9.63865837459168
      ],
      [
        "▁bekk",
        -9.638996398733218
      ],
      [
        "ous",
        -9.639183567592935
      ],
      [
        "▁lonk",
        -9.640406010685998
      ],
      [
        "▁noms",
        -9.641476049438195
      ],
      [
        "▁Wu",
        -9.64193663210083
      ],
      [
        "▁ndey",
        -9.642113219723274
      ],
      [
        "▁viennent",
        -9.64217534935458
      ],
      [
        "▁co",
        -9.642260702421652
      ],
      [
        "▁yat",
        -9.643067947205843
      ],
      [
        "▁kaas",
        -9.645492626703923
      ],
      [
        "▁unique",
        -9.645876587444475
      ],
      [
        "▁soppi",
        -9.6468899846955
      ],
      [
        "▁ex",
        -9.647435649698796
      ],
      [
        "▁bëggée",
        -9.648242591719827
      ],
      [
        "▁t'ai",
        -9.64973400898448
      ],
      [
        "▁Ki",
        -9.650356521460061
      ],
      [
        "▁noire.",
        -9.650462545944247
      ],
      [
        "oir",
        -9.651572981565433
      ],
      [
        "▁dalal",
        -9.651863197538637
      ],
      [
        "àll",
        -9.65240122491307
      ],
      [
        "oivent",
        -9.654922520364881
      ],
      [
        "▁parents",
        -9.656793110136611
      ],
      [
        "près",
        -9.65783721002258
      ],
      [
        "▁Vas",
        -9.657875145411985
      ],
      [
        "ñoo",
        -9.660855180636261
      ],
      [
        "▁waar",
        -9.662866855754576
      ],
      [
        "▁kon",
        -9.663062078414242
      ],
      [
        "▁boy",
        -9.663662012898019
      ],
      [
        "▁bo",
        -9.663738811038158
      ],
      [
        "▁inter",
        -9.664065133519289
      ],
      [
        "ez-vous",
        -9.665118174767699
      ],
      [
        "▁Cha",
        -9.665971160009125
      ],
      [
        "▁No",
        -9.666322498775129
      ],
      [
        "▁instant",
        -9.66891907493077
      ],
      [
        "▁Tou",
        -9.674475986963115
      ],
      [
        "os",
        -9.676259489168483
      ],
      [
        "boo",
        -9.677875026581093
      ],
      [
        "▁sonal",
        -9.678279793745306
      ],
      [
        "▁Dañ",
        -9.680768924739066
      ],
      [
        "nce",
        -9.683012854601827
      ],
      [
        "▁teew",
        -9.683154246067195
      ],
      [
        "▁Tey",
        -9.686766423359773
      ],
      [
        "▁gise",
        -9.687310831196529
      ],
      [
        "▁men",
        -9.687866640340326
      ],
      [
        "istrict",
        -9.687911478754954
      ],
      [
        "sait",
        -9.688605248080865
      ],
      [
        "llait",
        -9.689278514301703
      ],
      [
        "▁photos",
        -9.690768244066936
      ],
      [
        "▁Ceux",
        -9.692151810297592
      ],
      [
        "▁dénd",
        -9.692615934730162
      ],
      [
        "▁max",
        -9.692911732825156
      ],
      [
        "lon",
        -9.693477128698621
      ],
      [
        "▁sago",
        -9.6937335968589
      ],
      [
        "ré",
        -9.696121996103406
      ],
      [
        "▁devai",
        -9.697238887113798
      ],
      [
        "waay",
        -9.698975276783045
      ],
      [
        "ooy",
        -9.698995030707579
      ],
      [
        "▁éta",
        -9.699128715047351
      ],
      [
        "▁nëbb",
        -9.700332590667783
      ],
      [
        "▁raay",
        -9.7017163409853
      ],
      [
        "ique",
        -9.702689217946157
      ],
      [
        "o,",
        -9.70486560724904
      ],
      [
        "kaay",
        -9.705287112474016
      ],
      [
        "▁dessin",
        -9.706376965195966
      ],
      [
        "▁pënd",
        -9.708793851996898
      ],
      [
        "okk",
        -9.71006932845424
      ],
      [
        "ax",
        -9.710240133639164
      ],
      [
        "▁gris",
        -9.710248648986825
      ],
      [
        "▁buñ",
        -9.71050958463238
      ],
      [
        "qui",
        -9.71637013542118
      ],
      [
        "biy",
        -9.718394838677021
      ],
      [
        "▁der",
        -9.718734754353465
      ],
      [
        "▁ven",
        -9.722863976910494
      ],
      [
        "ga",
        -9.724643033250398
      ],
      [
        "mes",
        -9.727946785245196
      ],
      [
        "▁êtes",
        -9.729693756441323
      ],
      [
        "▁retour",
        -9.731124082946007
      ],
      [
        "oit",
        -9.733470990493888
      ],
      [
        "moon",
        -9.733775121328815
      ],
      [
        "▁sokolaa",
        -9.735300038617424
      ],
      [
        "▁scorpion",
        -9.739092027425894
      ],
      [
        "eŋ",
        -9.74224228596495
      ],
      [
        "▁tar",
        -9.742919993701355
      ],
      [
        "▁peur",
        -9.74387761207699
      ],
      [
        "▁tày",
        -9.746146856291498
      ],
      [
        "mbaar",
        -9.74726927213569
      ],
      [
        "▁présent",
        -9.74781873082274
      ],
      [
        "▁bir",
        -9.748078252601918
      ],
      [
        "▁mënu",
        -9.748540444682158
      ],
      [
        "▁vivre",
        -9.750473527741182
      ],
      [
        "ces",
        -9.752792267722533
      ],
      [
        "▁cours",
        -9.753563619740012
      ],
      [
        "gu",
        -9.755074151996107
      ],
      [
        "▁ñett",
        -9.7556045120091
      ],
      [
        "▁traverse",
        -9.758188340937439
      ],
      [
        "▁defare",
        -9.75908157838547
      ],
      [
        "▁eû",
        -9.759769709244685
      ],
      [
        "▁pouvai",
        -9.760625500551091
      ],
      [
        "▁Xan",
        -9.761332229542479
      ],
      [
        "▁askan",
        -9.761845994830827
      ],
      [
        "▁simple",
        -9.765637027021988
      ],
      [
        "▁gouvernement",
        -9.76616210645333
      ],
      [
        "▁gàncax",
        -9.766162115077247
      ],
      [
        "▁calebasse",
        -9.766162136960684
      ],
      [
        "▁loppitaan",
        -9.766162161299984
      ],
      [
        "▁Casamance",
        -9.766162190930281
      ],
      [
        "▁bonheur",
        -9.766162197979256
      ],
      [
        "▁sukkuraat",
        -9.766162242601043
      ],
      [
        "▁Ayijoo",
        -9.766162694400691
      ],
      [
        "▁tôle",
        -9.766162837683074
      ],
      [
        "▁boeuf",
        -9.766162885500295
      ],
      [
        "▁màrse",
        -9.766163533419181
      ],
      [
        "▁besoin",
        -9.766164240509239
      ],
      [
        "▁Yaakaar",
        -9.766164669337908
      ],
      [
        "▁premier",
        -9.766166055526655
      ],
      [
        "▁Óbudu",
        -9.766171840161576
      ],
      [
        "▁Deŋk",
        -9.766184892686933
      ],
      [
        "▁visite",
        -9.766188965169572
      ],
      [
        "▁solitude",
        -9.76619284040046
      ],
      [
        "▁rëcc",
        -9.766197500326074
      ],
      [
        "▁mourir",
        -9.76619919499331
      ],
      [
        "▁wurus",
        -9.766202745217079
      ],
      [
        "▁magasin",
        -9.766207144645708
      ],
      [
        "▁réalité",
        -9.766211123909216
      ],
      [
        "▁Palais",
        -9.766218789663462
      ],
      [
        "▁suukër",
        -9.766220187124102
      ],
      [
        "▁terrain",
        -9.766227301565442
      ],
      [
        "▁mbedd",
        -9.766238016095524
      ],
      [
        "▁l'Angleterre",
        -9.766252838770706
      ],
      [
        "▁servir",
        -9.766270273776707
      ],
      [
        "▁campement",
        -9.766270589087497
      ],
      [
        "▁bâtiment",
        -9.766299433191032
      ],
      [
        "▁yeksi",
        -9.766311004126404
      ],
      [
        "▁plateaux",
        -9.76634697322816
      ],
      [
        "▁croyai",
        -9.766353871692878
      ],
      [
        "▁pañe",
        -9.766367257825959
      ],
      [
        "▁dëgër",
        -9.766372853896236
      ],
      [
        "▁simoŋ",
        -9.76640336049932
      ],
      [
        "▁yànj",
        -9.766532287553126
      ],
      [
        "▁d'abord",
        -9.76656231814565
      ],
      [
        "▁nelaw",
        -9.766628484863624
      ],
      [
        "▁journée",
        -9.766723111554098
      ],
      [
        "▁Pël",
        -9.766804520690965
      ],
      [
        "▁ensuite",
        -9.766822438793547
      ],
      [
        "▁jàppale",
        -9.767209612643144
      ],
      [
        "▁courant",
        -9.767463979400183
      ],
      [
        "▁Xaw",
        -9.767540707104105
      ],
      [
        "thme",
        -9.767550333267137
      ],
      [
        "▁raglu",
        -9.767677801580327
      ],
      [
        "▁laisser",
        -9.768108993346377
      ],
      [
        "▁kukk",
        -9.768113369091742
      ],
      [
        "▁nuages",
        -9.768127557902343
      ],
      [
        "▁lëf",
        -9.768617368566302
      ],
      [
        "▁bett",
        -9.76876263089871
      ],
      [
        "▁dajale",
        -9.768823366050656
      ],
      [
        "▁reconnu",
        -9.768988445250253
      ],
      [
        "ñeen",
        -9.769024563181873
      ],
      [
        "▁palmes",
        -9.769216079813472
      ],
      [
        "▁Ó",
        -9.769282167174769
      ],
      [
        "▁Ayaa",
        -9.769525131202393
      ],
      [
        "▁couteau",
        -9.769534672446564
      ],
      [
        "▁teewu",
        -9.770138945588934
      ],
      [
        "▁Fais",
        -9.77015100626225
      ],
      [
        "▁depuis",
        -9.770403729696158
      ],
      [
        "▁reçu",
        -9.770475656082686
      ],
      [
        "▁d'eux",
        -9.770526331863572
      ],
      [
        "▁ventre",
        -9.770548323564128
      ],
      [
        "▁xeex",
        -9.770902187262946
      ],
      [
        "▁dehors",
        -9.770938279612086
      ],
      [
        "▁époque",
        -9.771011505611863
      ],
      [
        "▁naqadi",
        -9.771102288574607
      ],
      [
        "▁dirait",
        -9.771203006918144
      ],
      [
        "▁yenu",
        -9.771342982434634
      ],
      [
        "▁moto",
        -9.772392547716377
      ],
      [
        "▁Parle",
        -9.77253900415069
      ],
      [
        "▁images",
        -9.772559515650524
      ],
      [
        "▁termites",
        -9.772575170874113
      ],
      [
        "t.",
        -9.772602134522455
      ],
      [
        "▁vaste",
        -9.772666366823067
      ],
      [
        "▁jeeg",
        -9.772811119024757
      ],
      [
        "▁district",
        -9.773036032357362
      ],
      [
        "▁far",
        -9.773132170309365
      ],
      [
        "▁Bunt",
        -9.773133258342718
      ],
      [
        "▁màndi",
        -9.773160763517895
      ],
      [
        "▁propre",
        -9.77399693790621
      ],
      [
        "▁jooy",
        -9.774463637837282
      ],
      [
        "▁seng",
        -9.774679255057361
      ],
      [
        "▁l'entr",
        -9.775141872212625
      ],
      [
        "▁cont",
        -9.775216222198473
      ],
      [
        "▁ňuul",
        -9.775539744137184
      ],
      [
        "▁ton",
        -9.775836472721807
      ],
      [
        "▁fuir",
        -9.776023692149181
      ],
      [
        "▁Foofu",
        -9.776032800099921
      ],
      [
        "▁mukk",
        -9.776589721998965
      ],
      [
        "▁gros",
        -9.776688750392276
      ],
      [
        "▁àngale",
        -9.777370733937607
      ],
      [
        "▁sowu",
        -9.777741103869397
      ],
      [
        "ngóor",
        -9.778044047131552
      ],
      [
        "▁dessus",
        -9.77848569311537
      ],
      [
        "▁xoolee",
        -9.778559250061223
      ],
      [
        "▁immense",
        -9.77857108824602
      ],
      [
        "▁tub",
        -9.778752183982089
      ],
      [
        "▁bëggoon",
        -9.77900795140226
      ],
      [
        "▁assiette",
        -9.779217852918036
      ],
      [
        "▁porteurs",
        -9.779537089186823
      ],
      [
        "ta",
        -9.779917742552831
      ],
      [
        "▁Fekk",
        -9.781947292830381
      ],
      [
        "éjà",
        -9.782332698824275
      ],
      [
        "▁droit",
        -9.782974177263254
      ],
      [
        "▁malade",
        -9.783301756111094
      ],
      [
        "▁jur",
        -9.78331412538141
      ],
      [
        "▁sàmm",
        -9.783591823358122
      ],
      [
        "▁wàll",
        -9.783996831386329
      ],
      [
        "▁vêtu",
        -9.783998309522609
      ],
      [
        "odeur",
        -9.784632689894158
      ],
      [
        "▁sens",
        -9.784936285004218
      ],
      [
        "▁yooyu.",
        -9.785305668423296
      ],
      [
        "▁000",
        -9.7860086039823
      ],
      [
        "▁chemins",
        -9.786339146292967
      ],
      [
        "▁âge",
        -9.786563847332706
      ],
      [
        "nd",
        -9.787610512811218
      ],
      [
        "▁pom",
        -9.78779392015017
      ],
      [
        "▁comment",
        -9.788033633983492
      ],
      [
        "▁yii",
        -9.788113891666763
      ],
      [
        "▁regardes",
        -9.78816225447314
      ],
      [
        "▁kowam",
        -9.788213033441476
      ],
      [
        "▁masuma",
        -9.788598417306702
      ],
      [
        "▁chaise",
        -9.788637040280195
      ],
      [
        "▁donner",
        -9.78979635568053
      ],
      [
        "uukar",
        -9.790037796754067
      ],
      [
        "▁wutal",
        -9.791078535449673
      ],
      [
        "▁waxoon",
        -9.791265639949316
      ],
      [
        "▁jag",
        -9.791526569918602
      ],
      [
        "▁égale",
        -9.791720589929989
      ],
      [
        "▁tour",
        -9.793723726112109
      ],
      [
        "▁t'en",
        -9.794645643708128
      ],
      [
        "▁arrivés",
        -9.795268783553434
      ],
      [
        "▁sorti",
        -9.795338699321054
      ],
      [
        "ût",
        -9.797862993489286
      ],
      [
        "▁set",
        -9.799669862311337
      ],
      [
        "▁cru",
        -9.799753388015402
      ],
      [
        "son",
        -9.801437010329835
      ],
      [
        "▁L'un",
        -9.801565357499555
      ],
      [
        "été",
        -9.80172593332873
      ],
      [
        "garde",
        -9.801820602881621
      ],
      [
        "▁premières",
        -9.803464109765509
      ],
      [
        "▁muur",
        -9.80751155694541
      ],
      [
        "▁dakk",
        -9.807535740321809
      ],
      [
        "▁cas",
        -9.807767428112399
      ],
      [
        "koo",
        -9.809795216835617
      ],
      [
        "▁sou",
        -9.810171053372093
      ],
      [
        "▁yaak",
        -9.814844017092076
      ],
      [
        "▁française",
        -9.816035990961645
      ],
      [
        "▁Yan",
        -9.816274182186236
      ],
      [
        "▁enfant-",
        -9.817250108949535
      ],
      [
        "nt.",
        -9.817845034299108
      ],
      [
        "▁siy",
        -9.81920791056619
      ],
      [
        "▁jàkk",
        -9.8202276094666
      ],
      [
        "▁ñibbi",
        -9.820460999799966
      ],
      [
        "▁beau",
        -9.82087417199677
      ],
      [
        "▁ñen",
        -9.823960873806993
      ],
      [
        "ables",
        -9.827335371429175
      ],
      [
        "▁sor",
        -9.828886151816524
      ],
      [
        "▁wane",
        -9.829416809588535
      ],
      [
        "niki",
        -9.829957665799213
      ],
      [
        "autorité",
        -9.831908513805244
      ],
      [
        "▁Nda",
        -9.833439944009402
      ],
      [
        "▁cinq",
        -9.834590084461153
      ],
      [
        "ssent",
        -9.83526091547968
      ],
      [
        "▁coloniale",
        -9.835279018635447
      ],
      [
        "▁tànki",
        -9.836392320888882
      ],
      [
        "▁Car",
        -9.836574873772765
      ],
      [
        "▁con",
        -9.838745796349276
      ],
      [
        "ëf",
        -9.839510980601535
      ],
      [
        "▁elles",
        -9.840350993843593
      ],
      [
        "▁cee",
        -9.841184890825584
      ],
      [
        "▁anglaise",
        -9.841370156692488
      ],
      [
        "▁provi",
        -9.842435401968668
      ],
      [
        "▁doxe",
        -9.843332759800028
      ],
      [
        "▁Ka",
        -9.844017958336297
      ],
      [
        "▁crise",
        -9.844443065365628
      ],
      [
        "▁Nko",
        -9.845300396995313
      ],
      [
        "lli",
        -9.84704971441669
      ],
      [
        "el",
        -9.84979605339826
      ],
      [
        "▁xob",
        -9.850282943337238
      ],
      [
        "▁anglais",
        -9.850722167857443
      ],
      [
        "▁màndarga",
        -9.852901460941288
      ],
      [
        "▁chasse",
        -9.856484848399916
      ],
      [
        "▁danu",
        -9.856513327144604
      ],
      [
        "-je",
        -9.856809924936476
      ],
      [
        "aale",
        -9.857854543482865
      ],
      [
        "▁më",
        -9.857997047297992
      ],
      [
        "▁donn",
        -9.859737902182248
      ],
      [
        "▁coupé",
        -9.85996250217811
      ],
      [
        "▁nañoo",
        -9.860635602349323
      ],
      [
        "▁refuse",
        -9.861112402091726
      ],
      [
        "ŋga",
        -9.863393150450928
      ],
      [
        "▁mbë",
        -9.864625338772381
      ],
      [
        "kom",
        -9.864674697191788
      ],
      [
        "▁colonial",
        -9.86635224247413
      ],
      [
        "▁Liggéey",
        -9.867074223267482
      ],
      [
        "entiers",
        -9.867586985200234
      ],
      [
        "quel",
        -9.868757696306487
      ],
      [
        "▁Aw",
        -9.869009250621271
      ],
      [
        "▁j'en",
        -9.870119810589918
      ],
      [
        "▁woy",
        -9.87237447656552
      ],
      [
        "▁ré",
        -9.872473315445777
      ],
      [
        "garder",
        -9.87386355733389
      ],
      [
        "▁fall",
        -9.874868906350594
      ],
      [
        "ton",
        -9.87628590312234
      ],
      [
        "▁neex.",
        -9.876985663644964
      ],
      [
        "▁waroo",
        -9.880158557408658
      ],
      [
        "êtes",
        -9.880339012287624
      ],
      [
        "ire",
        -9.882198313762025
      ],
      [
        "ure",
        -9.883227920102811
      ],
      [
        "▁jàngal",
        -9.884362552866257
      ],
      [
        "▁Re",
        -9.886922565127069
      ],
      [
        "▁taabal",
        -9.886998810476602
      ],
      [
        "au",
        -9.887129427808912
      ],
      [
        "▁jànq",
        -9.888188026619511
      ],
      [
        "▁siiw",
        -9.889945129651137
      ],
      [
        "▁all",
        -9.891546186925638
      ],
      [
        "▁duma",
        -9.894534808675438
      ],
      [
        "▁sant",
        -9.89498086077041
      ],
      [
        "▁fût",
        -9.896219870261458
      ],
      [
        "▁fenêtre",
        -9.897052440588261
      ],
      [
        "▁d'autre",
        -9.898164066450784
      ],
      [
        "it.",
        -9.899619387947467
      ],
      [
        "▁suiv",
        -9.901225363149624
      ],
      [
        "▁ñaa",
        -9.90157490135201
      ],
      [
        "▁ñooña",
        -9.901679479065637
      ],
      [
        "▁jàn",
        -9.901951785540241
      ],
      [
        "àkk",
        -9.902341422384207
      ],
      [
        "▁Com",
        -9.9039244032528
      ],
      [
        "▁kàttan",
        -9.904881983989183
      ],
      [
        "neen",
        -9.905405778294144
      ],
      [
        "vient",
        -9.907095317899266
      ],
      [
        "▁V",
        -9.90747975522041
      ],
      [
        "▁ressenti",
        -9.90854595669515
      ],
      [
        "▁peut-",
        -9.910073079352644
      ],
      [
        "ar.",
        -9.91009054474668
      ],
      [
        "aay",
        -9.91034653485613
      ],
      [
        "▁juróom",
        -9.911317259308028
      ],
      [
        "▁boue",
        -9.914609979413427
      ],
      [
        "avais",
        -9.91642091717333
      ],
      [
        "▁fais",
        -9.916724341124782
      ],
      [
        "▁maladie",
        -9.917062396261093
      ],
      [
        "▁destin",
        -9.917644945570293
      ],
      [
        "▁met",
        -9.91924216652528
      ],
      [
        "▁Wa",
        -9.923632462052586
      ],
      [
        "▁Ñe",
        -9.924006251760645
      ],
      [
        "▁étranger",
        -9.924438531597946
      ],
      [
        "ndax",
        -9.925225745078032
      ],
      [
        "▁doomi-",
        -9.926492647168676
      ],
      [
        "x-ci",
        -9.926930319516579
      ],
      [
        "▁chemin",
        -9.927244056306028
      ],
      [
        "▁utilise",
        -9.927989400659389
      ],
      [
        "père",
        -9.929622402957673
      ],
      [
        "▁Ar",
        -9.930629621017719
      ],
      [
        "▁chapeau",
        -9.93217398724744
      ],
      [
        "▁juum",
        -9.932693988618933
      ],
      [
        "▁tàngaay",
        -9.932701202102546
      ],
      [
        "8",
        -9.932810874197271
      ],
      [
        "▁Wiktoryaa",
        -9.932828772876622
      ],
      [
        "▁dëggëntaan",
        -9.93282877316694
      ],
      [
        "▁Mellentaan",
        -9.93282877494886
      ],
      [
        "▁petorool",
        -9.932828784772964
      ],
      [
        "▁officer",
        -9.93282879297474
      ],
      [
        "▁territoire",
        -9.932828794763692
      ],
      [
        "▁dóomu-taal",
        -9.932828809138867
      ],
      [
        "▁auparavant",
        -9.932828840573862
      ],
      [
        "▁jaxasoo",
        -9.932828861895628
      ],
      [
        "▁dëgg-dëgg",
        -9.932828898656215
      ],
      [
        "▁ponkal",
        -9.932829058888887
      ],
      [
        "▁ngëlén",
        -9.932829541990976
      ],
      [
        "▁règle",
        -9.932829676113275
      ],
      [
        "▁rideau",
        -9.932829739962422
      ],
      [
        "▁coiff",
        -9.93283003961457
      ],
      [
        "▁chemise",
        -9.932832113906688
      ],
      [
        "▁Lagos",
        -9.932833895641082
      ],
      [
        "▁désert",
        -9.93283393585234
      ],
      [
        "▁Wolof",
        -9.932837881071467
      ],
      [
        "▁veulent",
        -9.932839564006713
      ],
      [
        "▁domaine",
        -9.932840797409197
      ],
      [
        "▁Waxtaan",
        -9.932840991715972
      ],
      [
        "▁contact",
        -9.932842844090853
      ],
      [
        "▁chacun",
        -9.932843092688918
      ],
      [
        "▁construction",
        -9.9328521197019
      ],
      [
        "▁xibaar",
        -9.932852522520768
      ],
      [
        "▁bërëb",
        -9.932852811266384
      ],
      [
        "▁vingt",
        -9.932853779751833
      ],
      [
        "▁féete",
        -9.932856795508183
      ],
      [
        "▁L'enfant",
        -9.932865954252925
      ],
      [
        "▁cheveux",
        -9.932865978309808
      ],
      [
        "▁l'époque",
        -9.932874338898024
      ],
      [
        "▁vérité",
        -9.93287504863901
      ],
      [
        "▁d'autrefois",
        -9.932880517139342
      ],
      [
        "▁adulte",
        -9.932885475291283
      ],
      [
        "▁tàmm",
        -9.93288570962433
      ],
      [
        "▁jékkee-j",
        -9.932904111669716
      ],
      [
        "▁werante",
        -9.932932972235406
      ],
      [
        "▁peinture",
        -9.932935185575639
      ],
      [
        "▁jumtukaay",
        -9.933023556082919
      ],
      [
        "▁comprendre",
        -9.933055141471797
      ],
      [
        "▁cofeel",
        -9.933070692537349
      ],
      [
        "▁fetal",
        -9.933080602994604
      ],
      [
        "▁Tugël",
        -9.933097685601979
      ],
      [
        "▁chocolatée",
        -9.93310664261035
      ],
      [
        "▁jabar",
        -9.933137546653706
      ],
      [
        "▁mbokk",
        -9.933138012071122
      ],
      [
        "▁début",
        -9.933148755330514
      ],
      [
        "▁accompagné",
        -9.933207243642007
      ],
      [
        "▁j'étais",
        -9.933226200452705
      ],
      [
        "▁légère",
        -9.933243072031216
      ],
      [
        "▁caaxaan",
        -9.93328164884063
      ],
      [
        "▁meňň",
        -9.933333563119552
      ],
      [
        "▁j'imagine",
        -9.933342334856363
      ],
      [
        "▁Génn",
        -9.933383804917842
      ],
      [
        "▁d'esprit",
        -9.933392171088819
      ],
      [
        "▁gunge",
        -9.93347378779501
      ],
      [
        "▁certainement",
        -9.933562335261973
      ],
      [
        "▁njabootam",
        -9.933597434076884
      ],
      [
        "▁rêvé",
        -9.933621423198774
      ],
      [
        "▁Donne",
        -9.933627313346502
      ],
      [
        "▁mbind",
        -9.933733869165959
      ],
      [
        "▁seetaan",
        -9.933802725128798
      ],
      [
        "▁connaissent",
        -9.933811338053651
      ],
      [
        "▁revenir",
        -9.933851540876818
      ],
      [
        "▁gox",
        -9.93393524272373
      ],
      [
        "▁commun",
        -9.933938197197179
      ],
      [
        "▁Jënd",
        -9.934027244659749
      ],
      [
        "▁sëkk",
        -9.93403015445278
      ],
      [
        "▁arrêté",
        -9.934058736115945
      ],
      [
        "tal",
        -9.934187969041036
      ],
      [
        "▁lonet",
        -9.93423139307482
      ],
      [
        "▁Force",
        -9.934297926750903
      ],
      [
        "▁mangé",
        -9.934314011492463
      ],
      [
        "▁wéet",
        -9.934508255371663
      ],
      [
        "▁coucher",
        -9.934671562189777
      ],
      [
        "▁travailleurs",
        -9.934683068396318
      ],
      [
        "▁jouer",
        -9.934730907528303
      ],
      [
        "▁ressens",
        -9.934960134571599
      ],
      [
        "▁néew",
        -9.935014865642692
      ],
      [
        "▁comprends",
        -9.935134429125696
      ],
      [
        "▁baaraam",
        -9.935269080489105
      ],
      [
        "▁tàngal",
        -9.935277189179528
      ],
      [
        "▁autre-là",
        -9.935289363976132
      ],
      [
        "▁partout",
        -9.935448279609801
      ],
      [
        "▁njël",
        -9.935474491736127
      ],
      [
        "▁taaru",
        -9.93566017583585
      ],
      [
        "▁Africains",
        -9.935712551582704
      ],
      [
        "▁fey",
        -9.935766577520887
      ],
      [
        "▁sotti",
        -9.935769591574171
      ],
      [
        "▁agsi",
        -9.935897404166518
      ],
      [
        "▁souffle",
        -9.936028805811226
      ],
      [
        "▁doonkoon",
        -9.936112136976565
      ],
      [
        "ch",
        -9.936366888911094
      ],
      [
        "▁habitants",
        -9.936447632534085
      ],
      [
        "▁dàq",
        -9.936542632793339
      ],
      [
        "▁tolloo",
        -9.936585691556719
      ],
      [
        "▁courir",
        -9.937193530911596
      ],
      [
        "▁tontu",
        -9.937326631535047
      ],
      [
        "▁Aro",
        -9.937339465121253
      ],
      [
        "▁l'aventure",
        -9.937499313569852
      ],
      [
        "▁rencontrer",
        -9.937955575004885
      ],
      [
        "▁tiit",
        -9.938675297428382
      ],
      [
        "ble",
        -9.93873726253513
      ],
      [
        "▁soosu",
        -9.939852019834852
      ],
      [
        "▁yëre",
        -9.940064469560568
      ],
      [
        "▁brousse",
        -9.94037073677013
      ],
      [
        "▁monter",
        -9.940547392121742
      ],
      [
        "▁yéene",
        -9.941548304324902
      ],
      [
        "▁melo",
        -9.942025142285997
      ],
      [
        "▁surga",
        -9.942262667314465
      ],
      [
        "▁kawas",
        -9.942759369228874
      ],
      [
        "▁nja",
        -9.942938928376927
      ],
      [
        "▁ñaxtu",
        -9.943194398168643
      ],
      [
        "▁commence",
        -9.943342574745444
      ],
      [
        "▁taamu",
        -9.943435399784049
      ],
      [
        "▁tata",
        -9.943454713080827
      ],
      [
        "▁yéemu",
        -9.944226794542335
      ],
      [
        "éeri",
        -9.944339743209525
      ],
      [
        "▁ñor",
        -9.944856635758217
      ],
      [
        "▁buum",
        -9.945171905529385
      ],
      [
        "▁masques",
        -9.945325412129211
      ],
      [
        "▁Obudu",
        -9.945566886909015
      ],
      [
        "▁policiers",
        -9.945787883807302
      ],
      [
        "▁regarde",
        -9.94583720089131
      ],
      [
        "ène",
        -9.946498729094634
      ],
      [
        "▁aime",
        -9.946523546426757
      ],
      [
        "▁kafe",
        -9.947137698400756
      ],
      [
        "▁Ver",
        -9.947520259727366
      ],
      [
        "▁démb",
        -9.947530346218956
      ],
      [
        "▁charge",
        -9.947908295148544
      ],
      [
        "▁habit",
        -9.949316339016196
      ],
      [
        "▁Port",
        -9.949484198587708
      ],
      [
        "▁juróomi",
        -9.949733797624353
      ],
      [
        "re.",
        -9.949795135210401
      ],
      [
        "▁wetam",
        -9.950054655778208
      ],
      [
        "▁thé",
        -9.95006946444399
      ],
      [
        "▁loo",
        -9.950141091908195
      ],
      [
        "▁Yara",
        -9.951083353550683
      ],
      [
        "▁yeew",
        -9.95126506743393
      ],
      [
        "▁jambes",
        -9.952750772532012
      ],
      [
        "endant",
        -9.952848680525038
      ],
      [
        "▁darab",
        -9.952963217665962
      ],
      [
        "▁woowu",
        -9.95301010862582
      ],
      [
        "ières",
        -9.95341361076711
      ],
      [
        "ëgg",
        -9.954125707760953
      ],
      [
        "▁dois",
        -9.954493270004214
      ],
      [
        "rends",
        -9.954635222045827
      ],
      [
        "▁suñ",
        -9.954681677197582
      ],
      [
        "▁écrit",
        -9.95662367713403
      ],
      [
        "▁sanc",
        -9.958277876413398
      ],
      [
        "▁visages",
        -9.959685797315217
      ],
      [
        "▁Mag",
        -9.960808522635396
      ],
      [
        "▁dawal",
        -9.961917968800515
      ],
      [
        "▁tekki",
        -9.96207464819372
      ],
      [
        "▁reer",
        -9.96218644073779
      ],
      [
        "▁ressentir",
        -9.962194508264293
      ],
      [
        "▁passer",
        -9.962237979460166
      ],
      [
        "▁ra",
        -9.963510838261191
      ],
      [
        "▁certaine",
        -9.964035018523616
      ],
      [
        "▁lenn",
        -9.964461541348927
      ],
      [
        "aata",
        -9.964486620595977
      ],
      [
        "▁xamoon",
        -9.964506340270244
      ],
      [
        "▁bas",
        -9.964555021052654
      ],
      [
        "▁hu",
        -9.965346439521594
      ],
      [
        "▁l'avai",
        -9.965786303877296
      ],
      [
        "▁entend",
        -9.96657411130353
      ],
      [
        "▁wàcce",
        -9.967865048150141
      ],
      [
        "▁tours",
        -9.968915567801075
      ],
      [
        "▁jotee",
        -9.969302042219244
      ],
      [
        "▁humaine",
        -9.969690526181186
      ],
      [
        "▁fenêtres",
        -9.970142626676104
      ],
      [
        "▁déet",
        -9.970314833935932
      ],
      [
        "▁sokolaa.",
        -9.970542184025188
      ],
      [
        "▁dun",
        -9.971182766041569
      ],
      [
        "▁noire",
        -9.971527859405828
      ],
      [
        "▁Dina",
        -9.97173617342532
      ],
      [
        "▁nguuru",
        -9.973123689465302
      ],
      [
        "▁Quelque",
        -9.973138973546039
      ],
      [
        "▁Dañu",
        -9.97380085097019
      ],
      [
        "▁somme",
        -9.974786775113047
      ],
      [
        "▁àtte",
        -9.974919008663507
      ],
      [
        "ka",
        -9.975224239542428
      ],
      [
        "x.",
        -9.975239807856697
      ],
      [
        "▁tab",
        -9.975849109495872
      ],
      [
        "v",
        -9.976395675594398
      ],
      [
        "▁yen",
        -9.976792002456737
      ],
      [
        "▁entré",
        -9.977696256931624
      ],
      [
        "▁dan",
        -9.978523576068422
      ],
      [
        "▁yax",
        -9.978667436239464
      ],
      [
        "▁nak",
        -9.979149010803843
      ],
      [
        "▁rivières",
        -9.981599554656864
      ],
      [
        "▁coono",
        -9.981677982666621
      ],
      [
        "▁taal",
        -9.986859465369376
      ],
      [
        "▁Dis",
        -9.986913383077525
      ],
      [
        "▁arrivée",
        -9.986944970258952
      ],
      [
        "00",
        -9.98707753004171
      ],
      [
        "▁dikk",
        -9.987381288759787
      ],
      [
        "▁coups",
        -9.987416748965613
      ],
      [
        "t-il",
        -9.98790995808509
      ],
      [
        "▁tableau",
        -9.991197528658725
      ],
      [
        "▁jaam",
        -9.991392866895945
      ],
      [
        "▁souhaite",
        -9.991777615797771
      ],
      [
        "▁haute",
        -9.992732646608653
      ],
      [
        "ju",
        -9.995554772191689
      ],
      [
        "'individu",
        -9.997338412394537
      ],
      [
        "▁tas",
        -9.997445481124675
      ],
      [
        "nde",
        -10.001778964147741
      ],
      [
        "umes",
        -10.004232371096698
      ],
      [
        "▁sain",
        -10.004871404839715
      ],
      [
        "indre",
        -10.006017339997026
      ],
      [
        "waa",
        -10.006805462768149
      ],
      [
        "▁I",
        -10.006859530983435
      ],
      [
        "▁aurais",
        -10.006887625769755
      ],
      [
        "▁qua",
        -10.007644336010165
      ],
      [
        "▁ch",
        -10.00914247371131
      ],
      [
        "▁bou",
        -10.012382055504897
      ],
      [
        "▁Ceux-",
        -10.012587556743208
      ],
      [
        "éel",
        -10.012617955121652
      ],
      [
        "▁mb",
        -10.013317255476776
      ],
      [
        "▁l'é",
        -10.014714226329566
      ],
      [
        "exe",
        -10.015796275782973
      ],
      [
        "▁xa",
        -10.016322547490859
      ],
      [
        "▁wor",
        -10.017199453826027
      ],
      [
        "▁Dana",
        -10.019098461191556
      ],
      [
        "waan",
        -10.019479333439305
      ],
      [
        "▁naissance",
        -10.021853687848767
      ],
      [
        "ieux",
        -10.022164317568324
      ],
      [
        "▁kowe",
        -10.022545876719922
      ],
      [
        "▁2",
        -10.02266656996299
      ],
      [
        "▁arrive",
        -10.023622832663552
      ],
      [
        "n.",
        -10.024319922062844
      ],
      [
        "▁soup",
        -10.025512930661506
      ],
      [
        "▁devenu",
        -10.026119226974481
      ],
      [
        "▁allai",
        -10.026831270624488
      ],
      [
        "aanaka",
        -10.02685071629982
      ],
      [
        "▁clair",
        -10.027276989415215
      ],
      [
        "▁féex",
        -10.029250842161224
      ],
      [
        "ër",
        -10.030118456077934
      ],
      [
        "kàlla",
        -10.031325662963486
      ],
      [
        "waale",
        -10.031889730492308
      ],
      [
        "ca",
        -10.032918633673418
      ],
      [
        "instant",
        -10.033433435682447
      ],
      [
        "▁serais",
        -10.034387553953875
      ],
      [
        "ya",
        -10.034616553856212
      ],
      [
        "naissance",
        -10.035629415700438
      ],
      [
        "▁rouges",
        -10.03840512501128
      ],
      [
        "▁xet",
        -10.038729306401006
      ],
      [
        "▁pos",
        -10.040737071363706
      ],
      [
        "ts",
        -10.040882907363526
      ],
      [
        "nement",
        -10.042123699957655
      ],
      [
        "-y",
        -10.042874183706331
      ],
      [
        "▁jar",
        -10.044148731652722
      ],
      [
        "maana",
        -10.04444887036654
      ],
      [
        "▁alla",
        -10.044451464046539
      ],
      [
        "▁Bii",
        -10.0449207662603
      ],
      [
        "▁mari",
        -10.04594832030584
      ],
      [
        "▁Abo",
        -10.048957343997316
      ],
      [
        "▁xew",
        -10.049044862328435
      ],
      [
        "▁jigéen.",
        -10.049110338532543
      ],
      [
        "▁maître",
        -10.050035865340721
      ],
      [
        "▁Afrigam",
        -10.05049791474388
      ],
      [
        "▁Waxa",
        -10.051755345601489
      ],
      [
        "▁ñeme",
        -10.052283176906831
      ],
      [
        "▁léeb",
        -10.05229555374746
      ],
      [
        "▁champ",
        -10.05429101116323
      ],
      [
        "▁africaine",
        -10.057039826856194
      ],
      [
        "fi",
        -10.05897428928834
      ],
      [
        "▁faite",
        -10.060140641155396
      ],
      [
        "▁rue",
        -10.06087049960327
      ],
      [
        "▁Ngi",
        -10.062689583504412
      ],
      [
        "▁français",
        -10.064506972701018
      ],
      [
        "▁quelles",
        -10.064993545359172
      ],
      [
        "▁Ko",
        -10.066120414017494
      ],
      [
        "▁prêt",
        -10.066427994719815
      ],
      [
        "▁àpp",
        -10.066710001281603
      ],
      [
        "hoisi",
        -10.066959988730014
      ],
      [
        "▁conti",
        -10.068972785083751
      ],
      [
        "▁Luga",
        -10.07063426867033
      ],
      [
        "tions",
        -10.07176858929451
      ],
      [
        "▁chaud",
        -10.071778132022878
      ],
      [
        "kkal",
        -10.074391431271884
      ],
      [
        "▁viens",
        -10.075642656737916
      ],
      [
        "▁séq",
        -10.076148007063463
      ],
      [
        "▁Toute",
        -10.07672485677715
      ],
      [
        "ssant",
        -10.076809081284127
      ],
      [
        "▁mba",
        -10.078482294022532
      ],
      [
        "▁x",
        -10.080025958594344
      ],
      [
        "▁naň",
        -10.080255476452223
      ],
      [
        "▁grandi",
        -10.080604661649629
      ],
      [
        "rie",
        -10.080760265060915
      ],
      [
        "▁jou",
        -10.081119822629216
      ],
      [
        "▁four",
        -10.082540836236959
      ],
      [
        "ékk",
        -10.083349446797405
      ],
      [
        "▁couvert",
        -10.084174571177734
      ],
      [
        "▁joli",
        -10.08469443302711
      ],
      [
        "▁nguur",
        -10.085907206911967
      ],
      [
        "bët",
        -10.086031649470177
      ],
      [
        "tation",
        -10.086292274909662
      ],
      [
        "l.",
        -10.08775517317529
      ],
      [
        "▁ser",
        -10.088572093348402
      ],
      [
        "▁nus",
        -10.088750789948586
      ],
      [
        "▁jaa",
        -10.090350989852851
      ],
      [
        "▁ñooñ",
        -10.090957200699663
      ],
      [
        "sant",
        -10.09165071271713
      ],
      [
        "entre",
        -10.094575606385526
      ],
      [
        "▁Mar",
        -10.094864897187232
      ],
      [
        "▁entendu",
        -10.09509251439321
      ],
      [
        "▁porta",
        -10.095247642852433
      ],
      [
        "▁not",
        -10.099359610081045
      ],
      [
        "ëpp",
        -10.09976383067152
      ],
      [
        "▁chang",
        -10.100160287043591
      ],
      [
        "▁Leur",
        -10.100592148840882
      ],
      [
        "▁éclat",
        -10.10092381396759
      ],
      [
        "▁bâton",
        -10.10257065939873
      ],
      [
        "leur",
        -10.104779164238451
      ],
      [
        "▁Men",
        -10.106655177621176
      ],
      [
        "▁daawul",
        -10.107136197631437
      ],
      [
        "▁digg",
        -10.108816775043346
      ],
      [
        "▁sauvage",
        -10.109542429760655
      ],
      [
        "▁taw",
        -10.110175066626748
      ],
      [
        "▁jafe",
        -10.111052555080512
      ],
      [
        "t-ce",
        -10.111475465244986
      ],
      [
        "▁pierre",
        -10.112054310034074
      ],
      [
        "our",
        -10.112404712314628
      ],
      [
        "▁waru",
        -10.112690290787647
      ],
      [
        "▁indi",
        -10.113353741361871
      ],
      [
        "▁làq",
        -10.113799162283962
      ],
      [
        "▁wi.",
        -10.114337531670188
      ],
      [
        "▁Xare",
        -10.114786318597844
      ],
      [
        "▁sûr",
        -10.114792733539307
      ],
      [
        "▁sopp",
        -10.116672844841027
      ],
      [
        "▁voiture",
        -10.116969062110645
      ],
      [
        "▁ñe",
        -10.117416018517803
      ],
      [
        "▁frapp",
        -10.11748930282612
      ],
      [
        "▁denc",
        -10.117603461997131
      ],
      [
        "▁rage",
        -10.117872312466424
      ],
      [
        "▁taax",
        -10.12182039665475
      ],
      [
        "▁fort",
        -10.123711429447134
      ],
      [
        "▁mise",
        -10.124734443024154
      ],
      [
        "-mo",
        -10.12475391807525
      ],
      [
        "0",
        -10.125468817957888
      ],
      [
        "óo",
        -10.126304380665642
      ],
      [
        "qu'un",
        -10.12638802505824
      ],
      [
        "▁new",
        -10.127442300610607
      ],
      [
        "▁affaire",
        -10.1290940205816
      ],
      [
        "▁trente",
        -10.132216688431344
      ],
      [
        "▁camerounais",
        -10.132828772894852
      ],
      [
        "”",
        -10.132828772916344
      ],
      [
        "Ç",
        -10.132828772916344
      ],
      [
        "▁Southampton",
        -10.132828772916344
      ],
      [
        "▁Sefiriis",
        -10.13282877291731
      ],
      [
        "▁Georgetown",
        -10.13282877296319
      ],
      [
        "▁bûcheron",
        -10.132828772963801
      ],
      [
        "▁njàqare",
        -10.132828773024638
      ],
      [
        "▁Adekunle",
        -10.132828773221728
      ],
      [
        "▁ustensile",
        -10.132828777412017
      ],
      [
        "▁termitières",
        -10.13282877759215
      ],
      [
        "▁Abaakaliki",
        -10.132828780599924
      ],
      [
        "▁biafrais",
        -10.13282879009547
      ],
      [
        "▁Biafra",
        -10.132828791548087
      ],
      [
        "▁alkaati",
        -10.132828876683735
      ],
      [
        "▁photographi",
        -10.13282889280406
      ],
      [
        "▁“",
        -10.132828953331497
      ],
      [
        "▁Yoruba",
        -10.132829025406103
      ],
      [
        "▁mosquée",
        -10.132829298714373
      ],
      [
        "▁grand-père",
        -10.132829303862593
      ],
      [
        "▁sàndarm",
        -10.13282941759082
      ],
      [
        "▁Anglais",
        -10.132829586184654
      ],
      [
        "▁Sorstaawun",
        -10.132829948624547
      ],
      [
        "▁Cross",
        -10.132830994159937
      ],
      [
        "▁rejoindre",
        -10.132833300895705
      ],
      [
        "▁mélang",
        -10.132834529030093
      ],
      [
        "▁métier",
        -10.132836744195606
      ],
      [
        "▁service",
        -10.132837498134345
      ],
      [
        "▁tronc",
        -10.132839392061081
      ],
      [
        "▁collines",
        -10.132842171856675
      ],
      [
        "▁Guddi",
        -10.132844637810908
      ],
      [
        "▁ndóol",
        -10.132846177588117
      ],
      [
        "▁kalaate",
        -10.132847128975865
      ],
      [
        "▁poussière",
        -10.132848296940278
      ],
      [
        "▁continent",
        -10.132849051705188
      ],
      [
        "▁compris",
        -10.132849127000325
      ],
      [
        "▁terrible",
        -10.13285107089647
      ],
      [
        "▁brûlure",
        -10.132851547847753
      ],
      [
        "▁alkol",
        -10.132851597451417
      ],
      [
        "▁probable",
        -10.132853690494652
      ],
      [
        "▁ndànk",
        -10.132858616242572
      ],
      [
        "▁soxla",
        -10.13286631250151
      ],
      [
        "▁zinc",
        -10.132872987645177
      ],
      [
        "▁fonction",
        -10.132877015049093
      ],
      [
        "▁karaw",
        -10.13287734659512
      ],
      [
        "▁Salut",
        -10.132884781904465
      ],
      [
        "▁fecc",
        -10.132891516555361
      ],
      [
        "▁Moontin",
        -10.132901979909597
      ],
      [
        "▁gannaaw",
        -10.132902387658957
      ],
      [
        "▁xaaju",
        -10.132904326526042
      ],
      [
        "▁Qu'est-ce",
        -10.13290489364214
      ],
      [
        "▁fowukaay",
        -10.13292055016072
      ],
      [
        "▁noyyi",
        -10.132924895832113
      ],
      [
        "▁gànnaay",
        -10.132926272209843
      ],
      [
        "▁semaine",
        -10.132931901685861
      ],
      [
        "▁gentil",
        -10.132949537035708
      ],
      [
        "▁xayma",
        -10.132949834334891
      ],
      [
        "▁këll",
        -10.132963475388568
      ],
      [
        "▁doxantu",
        -10.132965396148752
      ],
      [
        "▁làquji",
        -10.132966743083575
      ],
      [
        "▁douche",
        -10.132986345156617
      ],
      [
        "▁fauve",
        -10.132990818885968
      ],
      [
        "-tiir",
        -10.13300843466978
      ],
      [
        "▁lui-même",
        -10.133024488521324
      ],
      [
        "science",
        -10.133039724429493
      ],
      [
        "▁dirigeant",
        -10.13305560663837
      ],
      [
        "▁d'arbres",
        -10.133058408451003
      ],
      [
        "▁rares",
        -10.133063109217243
      ],
      [
        "▁maintenant",
        -10.133075992362354
      ],
      [
        "▁Pourtant",
        -10.133090814786328
      ],
      [
        "▁l'argent",
        -10.13313700723358
      ],
      [
        "▁raxas",
        -10.133180023999397
      ],
      [
        "▁hutte",
        -10.13327211745429
      ],
      [
        "▁jàppukaay",
        -10.133285466116359
      ],
      [
        "▁courage",
        -10.133286454053936
      ],
      [
        "▁soppiku",
        -10.133297051994962
      ],
      [
        "▁branche",
        -10.133313716924325
      ],
      [
        "▁doi",
        -10.13334333956973
      ],
      [
        "▁ondul",
        -10.133389235530638
      ],
      [
        "▁mbégte",
        -10.13354965215491
      ],
      [
        "▁d'eau",
        -10.133564179055355
      ],
      [
        "▁m'",
        -10.133590611940798
      ],
      [
        "▁assez",
        -10.133615388347819
      ],
      [
        "▁nàññ",
        -10.133649079167398
      ],
      [
        "▁ndigg",
        -10.133656910133054
      ],
      [
        "▁vivant",
        -10.133755832753863
      ],
      [
        "▁connaissais",
        -10.133833227007045
      ],
      [
        "▁awsa",
        -10.133856426341689
      ],
      [
        "▁n'importe",
        -10.13404760474496
      ],
      [
        "▁puj",
        -10.134059410364385
      ],
      [
        "▁dékku",
        -10.134067738814915
      ],
      [
        "▁brave",
        -10.134172316104122
      ],
      [
        "▁ndab",
        -10.134199178111665
      ],
      [
        "▁juddu",
        -10.13422680871813
      ],
      [
        "▁Xe",
        -10.1342862171362
      ],
      [
        "▁apporté",
        -10.13446438595637
      ],
      [
        "▁recherche",
        -10.134598220413796
      ],
      [
        "▁sensation",
        -10.134617281214718
      ],
      [
        "▁ŋgoogule",
        -10.134689852961333
      ],
      [
        "▁yàlla",
        -10.134753003084688
      ],
      [
        "▁cacher",
        -10.13493652975614
      ],
      [
        "▁delsi",
        -10.134939375513373
      ],
      [
        "▁volets",
        -10.134951518930322
      ],
      [
        "▁fortune",
        -10.135143176148011
      ],
      [
        "▁fitna",
        -10.135219054263366
      ],
      [
        "▁daaneel",
        -10.135258352319767
      ],
      [
        "dar",
        -10.13539334878594
      ],
      [
        "▁oncle",
        -10.135395554930671
      ],
      [
        "▁gàddaay",
        -10.135734531484042
      ],
      [
        "▁mbooloo",
        -10.13601542833729
      ],
      [
        "at.",
        -10.13601584133654
      ],
      [
        "▁yàq",
        -10.136110181019836
      ],
      [
        "▁l'ét",
        -10.136173951901014
      ],
      [
        "▁causé",
        -10.136287208339638
      ],
      [
        "▁màgge",
        -10.136388388815035
      ],
      [
        "▁revienne",
        -10.1365249961836
      ],
      [
        "▁parole",
        -10.136934381498655
      ],
      [
        "▁yàpp",
        -10.137148429140161
      ],
      [
        "▁yëgaat",
        -10.137384715355658
      ],
      [
        "▁dinaa",
        -10.137422768327431
      ],
      [
        "▁amen",
        -10.137422927469597
      ],
      [
        "▁simis",
        -10.137553709282699
      ],
      [
        "▁Ñooñu",
        -10.138264317880552
      ],
      [
        "▁kookee",
        -10.13858285589414
      ],
      [
        "▁xur",
        -10.138601211150174
      ],
      [
        "▁d'ici",
        -10.13939495065021
      ],
      [
        "fippu",
        -10.139640210372734
      ],
      [
        "▁Garab",
        -10.139717702508417
      ],
      [
        "▁resté",
        -10.14010225833827
      ],
      [
        "▁way-",
        -10.14019498536253
      ],
      [
        "▁pince",
        -10.140265371105098
      ],
      [
        "ati-",
        -10.140699787352395
      ],
      [
        "nore",
        -10.141127292064901
      ],
      [
        "▁mbaxana",
        -10.141133320989567
      ],
      [
        "▁Ñaar",
        -10.141296696325153
      ],
      [
        "▁marchent",
        -10.141493199466783
      ],
      [
        "▁tiis",
        -10.141888787423765
      ],
      [
        "▁julli",
        -10.142272952890167
      ],
      [
        "▁ëmb",
        -10.142431612682607
      ],
      [
        "▁douce",
        -10.142495813508729
      ],
      [
        "▁wér",
        -10.14259763186477
      ],
      [
        "▁armes",
        -10.143301420246038
      ],
      [
        "▁nouvelles",
        -10.143867642934703
      ],
      [
        "▁ñeent",
        -10.144014894809663
      ],
      [
        "▁voulu",
        -10.144101799731812
      ],
      [
        "▁doomam",
        -10.144157425691343
      ],
      [
        "▁Vie",
        -10.14423138021862
      ],
      [
        "▁dàtt",
        -10.144431582442195
      ],
      [
        "▁après-midi",
        -10.144643302192925
      ],
      [
        "▁sommet",
        -10.14483752681732
      ],
      [
        "▁këru",
        -10.146284416399615
      ],
      [
        "▁allemande",
        -10.146392071980488
      ],
      [
        "▁tee",
        -10.146719419937362
      ],
      [
        "▁melax",
        -10.146742529184321
      ],
      [
        "▁soldats",
        -10.146838899630401
      ],
      [
        "▁njort",
        -10.14712395128582
      ],
      [
        "▁nijaay",
        -10.14744016349194
      ],
      [
        "▁vide",
        -10.147559245746596
      ],
      [
        "▁daanu",
        -10.147700807354026
      ],
      [
        "▁sombre",
        -10.148152957598894
      ],
      [
        "▁casque",
        -10.148667255050285
      ],
      [
        "▁Ch",
        -10.148763331902405
      ],
      [
        "ok",
        -10.14880520558096
      ],
      [
        "▁mesure",
        -10.149212268388009
      ],
      [
        "▁tawat",
        -10.149764309153927
      ],
      [
        "▁liggéeye",
        -10.150078524514015
      ],
      [
        "▁militaires",
        -10.150118234513211
      ],
      [
        "sion",
        -10.150273278381324
      ],
      [
        "kóon",
        -10.150404895945716
      ],
      [
        "▁dessiné",
        -10.150783282578436
      ],
      [
        "gé",
        -10.151492359035727
      ],
      [
        "▁waxe",
        -10.151759473319746
      ],
      [
        "▁hamacs",
        -10.151791326193681
      ],
      [
        "▁joge",
        -10.151981093667294
      ],
      [
        "▁savoir",
        -10.153304597051857
      ],
      [
        "▁guyy",
        -10.153327011287313
      ],
      [
        "▁Aiya",
        -10.153365776343053
      ],
      [
        "▁exemple",
        -10.154121955562985
      ],
      [
        "▁dëkkoon",
        -10.15424327928615
      ],
      [
        "ches",
        -10.155248289689226
      ],
      [
        "▁prendre",
        -10.156339783428017
      ],
      [
        "▁làqu",
        -10.15674446456555
      ],
      [
        "▁l'entoure",
        -10.156750055960469
      ],
      [
        "▁see",
        -10.15845618362072
      ],
      [
        "▁wóolu",
        -10.158651167478594
      ],
      [
        "ages",
        -10.158695579780392
      ],
      [
        "▁pans",
        -10.159534254679096
      ],
      [
        "▁avance",
        -10.159935348126258
      ],
      [
        "▁dugal",
        -10.160125144776243
      ],
      [
        "▁mënuma",
        -10.160230323129731
      ],
      [
        "vec",
        -10.16023899532735
      ],
      [
        "▁taille",
        -10.160460307545954
      ],
      [
        "▁bancs",
        -10.160690514760535
      ],
      [
        "▁Néeg",
        -10.160733456562047
      ],
      [
        "ande",
        -10.16084557682197
      ],
      [
        "gal",
        -10.161373178942156
      ],
      [
        "ommé",
        -10.161557399762327
      ],
      [
        "▁panier",
        -10.162953551285355
      ],
      [
        "andoo",
        -10.163113214638722
      ],
      [
        "▁naaxi",
        -10.163791329566713
      ],
      [
        "'image",
        -10.163952234765178
      ],
      [
        "ier",
        -10.165202371836049
      ],
      [
        "▁Yen",
        -10.165306889602299
      ],
      [
        "▁couch",
        -10.165310475173586
      ],
      [
        "▁devenus",
        -10.165335588591564
      ],
      [
        "▁feeñu",
        -10.167989033544504
      ],
      [
        "ser",
        -10.168517442877864
      ],
      [
        "mar",
        -10.169147465717915
      ],
      [
        "▁forte",
        -10.169439415987954
      ],
      [
        "▁vertes",
        -10.169849849770937
      ],
      [
        "▁marcher",
        -10.17011550901305
      ],
      [
        "aatu",
        -10.170549308865883
      ],
      [
        "▁Bum",
        -10.17070525485061
      ],
      [
        "éer",
        -10.171766886251763
      ],
      [
        "▁idée",
        -10.171770083050689
      ],
      [
        "▁Daŋg",
        -10.173524352297676
      ],
      [
        "▁scorpions",
        -10.173629902939
      ],
      [
        "▁laine",
        -10.174987872789146
      ],
      [
        "▁yéeme",
        -10.17512066627663
      ],
      [
        "▁h",
        -10.17543683835452
      ],
      [
        "▁rappelle",
        -10.175851655808222
      ],
      [
        "▁rayon",
        -10.176290974353611
      ],
      [
        "▁troupeau",
        -10.177190643543183
      ],
      [
        "'imagine",
        -10.177198723532559
      ],
      [
        "▁monté",
        -10.177500899836362
      ],
      [
        "▁eusse",
        -10.1776743152439
      ],
      [
        "▁nourri",
        -10.178239503791993
      ],
      [
        "▁rive",
        -10.17893026987141
      ],
      [
        "▁sàcc",
        -10.1799067259758
      ],
      [
        "▁xaritam",
        -10.180536687945152
      ],
      [
        "▁soi",
        -10.181136413026499
      ],
      [
        "▁retourne",
        -10.181780638962307
      ],
      [
        "▁rire",
        -10.182176179705921
      ],
      [
        "▁goog",
        -10.183663031411179
      ],
      [
        "▁Kor",
        -10.183980635841316
      ],
      [
        "▁saba",
        -10.186490597541523
      ],
      [
        "googule",
        -10.189373028808651
      ],
      [
        "▁pluie",
        -10.18969118642497
      ],
      [
        "▁livres",
        -10.189850755446189
      ],
      [
        "tendre",
        -10.191946043729052
      ],
      [
        "▁pareil",
        -10.192025489181843
      ],
      [
        "▁kookuu",
        -10.192075863219001
      ],
      [
        "ŋŋ",
        -10.192439476887218
      ],
      [
        "▁armé",
        -10.192761342923342
      ],
      [
        "▁ňi",
        -10.192812325321416
      ],
      [
        "▁saf",
        -10.193520890871014
      ],
      [
        "▁Gan",
        -10.193676363423382
      ],
      [
        "▁sec",
        -10.19465341619425
      ],
      [
        "▁t'",
        -10.194786675466947
      ],
      [
        "▁mënee",
        -10.195171369499414
      ],
      [
        "▁auto",
        -10.195296424235954
      ],
      [
        "▁désir",
        -10.195546173407537
      ],
      [
        "▁baŋ",
        -10.196808043268884
      ],
      [
        "▁xaj",
        -10.196924424409831
      ],
      [
        "▁niir",
        -10.199410893409494
      ],
      [
        "–",
        -10.199865350198937
      ],
      [
        "▁be",
        -10.200695029749014
      ],
      [
        "aires",
        -10.201942613346926
      ],
      [
        "eef",
        -10.202111512917721
      ],
      [
        "espère",
        -10.204220675225098
      ],
      [
        "existe",
        -10.204597514951441
      ],
      [
        "▁seuls",
        -10.204796362390367
      ],
      [
        "▁Ji",
        -10.204962870657528
      ],
      [
        "celle",
        -10.205294574035005
      ],
      [
        "▁étage",
        -10.205839239407045
      ],
      [
        "eelu",
        -10.206599458475521
      ],
      [
        "lal",
        -10.20771424987845
      ],
      [
        "▁seetu",
        -10.20895462366154
      ],
      [
        "▁vari",
        -10.209414141155836
      ],
      [
        "angoisse",
        -10.210823045596317
      ],
      [
        "añse",
        -10.210921270987622
      ],
      [
        "ï",
        -10.211037674558927
      ],
      [
        "connais",
        -10.212733171835975
      ],
      [
        "F",
        -10.214348601307597
      ],
      [
        "nn",
        -10.214767817878508
      ],
      [
        "pe",
        -10.21518128313086
      ],
      [
        "▁bleus",
        -10.215799391186438
      ],
      [
        "▁Se",
        -10.216235210280052
      ],
      [
        "▁sub",
        -10.216310519382386
      ],
      [
        "▁dis",
        -10.21668646690198
      ],
      [
        "▁croi",
        -10.216984398807286
      ],
      [
        "▁ndo",
        -10.217225009703352
      ],
      [
        "▁lire",
        -10.21756873063633
      ],
      [
        "▁Jam",
        -10.21811665432255
      ],
      [
        "▁daje",
        -10.219410140132906
      ],
      [
        "▁Mas",
        -10.219507084180092
      ],
      [
        "▁Fo",
        -10.221468902366444
      ],
      [
        "▁maîtres",
        -10.223070767466515
      ],
      [
        "▁bleue",
        -10.22427100572394
      ],
      [
        "▁lits",
        -10.224768873350259
      ],
      [
        "▁naat",
        -10.2252808602742
      ],
      [
        "deux",
        -10.225934636889079
      ],
      [
        "▁mënut",
        -10.226235352568379
      ],
      [
        "cc",
        -10.227278740187
      ],
      [
        "ille",
        -10.227546593025934
      ],
      [
        "hier",
        -10.22776373959055
      ],
      [
        "war",
        -10.229731651499907
      ],
      [
        "▁cherch",
        -10.23013490129967
      ],
      [
        "▁rencontre",
        -10.231645753467046
      ],
      [
        "ins",
        -10.231767237939973
      ],
      [
        "▁fit",
        -10.232965864748921
      ],
      [
        "▁pis",
        -10.236439257133387
      ],
      [
        "ers",
        -10.236519048284391
      ],
      [
        "urs",
        -10.237305874445411
      ],
      [
        "u-ñax",
        -10.237626415382513
      ],
      [
        "▁retrouve",
        -10.237838692366996
      ],
      [
        "ailles",
        -10.239568523379063
      ],
      [
        "▁cercl",
        -10.239943118636154
      ],
      [
        "seen",
        -10.24045657275744
      ],
      [
        "▁Amu",
        -10.240781997341937
      ],
      [
        "▁Mii",
        -10.240920128224719
      ],
      [
        "su",
        -10.24201408788772
      ],
      [
        "ombre",
        -10.242178762316065
      ],
      [
        "commencer",
        -10.242431068903867
      ],
      [
        "▁fermée",
        -10.242777123504805
      ],
      [
        "▁J'en",
        -10.243318118446474
      ],
      [
        "▁At",
        -10.245413729264744
      ],
      [
        "▁séchée",
        -10.24658837062062
      ],
      [
        "toon",
        -10.247456396485761
      ],
      [
        "▁defaree",
        -10.248010546486128
      ],
      [
        "tends",
        -10.249327010585512
      ],
      [
        "ll",
        -10.24934357967648
      ],
      [
        "▁kë",
        -10.250272378243485
      ],
      [
        "▁batt",
        -10.25066994843863
      ],
      [
        "▁plan",
        -10.251887697651052
      ],
      [
        "éri",
        -10.254736292871309
      ],
      [
        "▁d'or",
        -10.254866065472168
      ],
      [
        "fa",
        -10.255933257034044
      ],
      [
        "▁été.",
        -10.25694540082825
      ],
      [
        "sse",
        -10.257349077571552
      ],
      [
        "▁deey",
        -10.257401642386792
      ],
      [
        "rage",
        -10.258267982391764
      ],
      [
        "nitu",
        -10.26004229227288
      ],
      [
        "▁prise",
        -10.260100688694813
      ],
      [
        "sin",
        -10.260411566355959
      ],
      [
        "▁(ce",
        -10.260976500446933
      ],
      [
        "'appartien",
        -10.263193418746258
      ],
      [
        "▁Waxu",
        -10.263600335114887
      ],
      [
        "▁pointe",
        -10.264153136778432
      ],
      [
        "'occupa",
        -10.264261523320494
      ],
      [
        "ànte",
        -10.266374961854297
      ],
      [
        "▁yé",
        -10.266987188477042
      ],
      [
        "ë",
        -10.269191513433585
      ],
      [
        "▁Ŋg",
        -10.269216552027254
      ],
      [
        "enti",
        -10.270981219383787
      ],
      [
        "sa",
        -10.272327775516137
      ],
      [
        "▁chambres",
        -10.273294235182236
      ],
      [
        "▁n'as",
        -10.274243914693798
      ],
      [
        "▁pensé",
        -10.274551247778483
      ],
      [
        "fu",
        -10.274989150425801
      ],
      [
        "faites",
        -10.275240359931026
      ],
      [
        "yi",
        -10.275261072739848
      ],
      [
        "▁pourra",
        -10.277772065199002
      ],
      [
        "aayu",
        -10.278794427332018
      ],
      [
        "▁yemu",
        -10.27905299122921
      ],
      [
        "▁pré",
        -10.279479487636648
      ],
      [
        "▁d'Ar",
        -10.283669711547844
      ],
      [
        "▁entouré",
        -10.283683430913914
      ],
      [
        "▁coupe",
        -10.283800975637021
      ],
      [
        "▁néegi",
        -10.284550973003121
      ],
      [
        "▁étalé",
        -10.284715702916277
      ],
      [
        "ã",
        -10.285316117566024
      ],
      [
        "lé",
        -10.288505035719698
      ],
      [
        "▁wara",
        -10.28874791267865
      ],
      [
        "oy",
        -10.289349451963343
      ],
      [
        "ama",
        -10.289508196224773
      ],
      [
        "arrière",
        -10.290263435186814
      ],
      [
        "▁faf",
        -10.29029306256495
      ],
      [
        "▁jàkka",
        -10.291541463114218
      ],
      [
        "u.",
        -10.29318689742617
      ],
      [
        "baar",
        -10.294245261281405
      ],
      [
        "▁ro",
        -10.295579724036813
      ],
      [
        "▁différent",
        -10.297228713289474
      ],
      [
        "▁face",
        -10.298165761047326
      ],
      [
        "use",
        -10.298200325486041
      ],
      [
        "pas",
        -10.2996054084163
      ],
      [
        "▁jë",
        -10.30004617810772
      ],
      [
        "▁Xo",
        -10.300355611423736
      ],
      [
        "allaient",
        -10.302758757953288
      ],
      [
        "ois",
        -10.303043839898416
      ],
      [
        "▁bë",
        -10.304539289708286
      ],
      [
        "A",
        -10.305265794939785
      ],
      [
        "andis",
        -10.307183286225769
      ],
      [
        "ersonne",
        -10.307529779845476
      ],
      [
        "▁ressembl",
        -10.30794845455274
      ],
      [
        "ool",
        -10.311990199796316
      ],
      [
        "▁gendarme",
        -10.312846069970162
      ],
      [
        "▁mur",
        -10.313602205613597
      ],
      [
        "sement",
        -10.314306856105969
      ],
      [
        "▁jàppe",
        -10.314618999799402
      ],
      [
        "▁cr",
        -10.314678471504385
      ],
      [
        "-d",
        -10.317399814012623
      ],
      [
        "▁fur",
        -10.318703537494818
      ],
      [
        "aurais",
        -10.31873433724386
      ],
      [
        "xam",
        -10.319362180199253
      ],
      [
        "▁découvert",
        -10.319928633026713
      ],
      [
        "▁général",
        -10.31996853645908
      ],
      [
        "kki",
        -10.320754508897856
      ],
      [
        "▁reconna",
        -10.32093853285932
      ],
      [
        "tul",
        -10.32311655203317
      ],
      [
        "▁individu",
        -10.32414173732891
      ],
      [
        "▁tir",
        -10.325020174396768
      ],
      [
        "▁nombre",
        -10.325385554619594
      ],
      [
        "▁précédé",
        -10.325506548993584
      ],
      [
        "▁yéem",
        -10.32609164881496
      ],
      [
        "▁impression",
        -10.327007297153273
      ],
      [
        "▁Daawu",
        -10.32779472663646
      ],
      [
        "▁président",
        -10.328471948025248
      ],
      [
        "▁cou",
        -10.328824289573125
      ],
      [
        "avez",
        -10.330245894307383
      ],
      [
        "▁miroir",
        -10.331572057841166
      ],
      [
        "▁wàcc",
        -10.331727187808902
      ],
      [
        "▁ouvert",
        -10.332045953570848
      ],
      [
        "▁ndugg",
        -10.33292800143821
      ],
      [
        "▁pouv",
        -10.333090042966449
      ],
      [
        "vions",
        -10.334050855070355
      ],
      [
        "elles",
        -10.334134083576878
      ],
      [
        "▁certain",
        -10.33475549133492
      ],
      [
        "▁moomee",
        -10.335165450492818
      ],
      [
        "▁soxna",
        -10.335414734074474
      ],
      [
        "▁quitte",
        -10.335444768445983
      ],
      [
        "▁l'on",
        -10.335722844909029
      ],
      [
        "▁suffi",
        -10.336068657452543
      ],
      [
        "▁wiy",
        -10.336084749905442
      ],
      [
        "g.",
        -10.336498595632133
      ],
      [
        "ion",
        -10.3376952974108
      ],
      [
        "aar",
        -10.341848038612124
      ],
      [
        "ourquoi",
        -10.342431645901193
      ],
      [
        "▁amour",
        -10.34279675272103
      ],
      [
        "auté",
        -10.344722454608947
      ],
      [
        "▁rëbb",
        -10.346896389852937
      ],
      [
        "▁voul",
        -10.346985041079156
      ],
      [
        "▁chocolat",
        -10.348625911385682
      ],
      [
        "jaa",
        -10.350037560656144
      ],
      [
        "avions",
        -10.350289437221782
      ],
      [
        "eel",
        -10.352570613693102
      ],
      [
        "▁ancien",
        -10.35365938368075
      ],
      [
        "▁beg",
        -10.353961089032738
      ],
      [
        "con",
        -10.35484856978433
      ],
      [
        "▁d'herbe",
        -10.355703154759208
      ],
      [
        "roule",
        -10.356007356334603
      ],
      [
        "▁doxal",
        -10.356376431840545
      ],
      [
        "▁méng",
        -10.358021221193676
      ],
      [
        "mbres",
        -10.361212747213349
      ],
      [
        "▁natt",
        -10.362108116027844
      ],
      [
        "▁toj",
        -10.362765526986053
      ],
      [
        "▁kàdd",
        -10.36536670820345
      ],
      [
        "▁Moka",
        -10.36536676888273
      ],
      [
        "yaa",
        -10.365436456155233
      ],
      [
        "▁déci",
        -10.365654844878765
      ],
      [
        "able",
        -10.365903243686043
      ],
      [
        "▁tasse",
        -10.367986329468627
      ],
      [
        "ish",
        -10.368100201529261
      ],
      [
        "▁ño",
        -10.36814354957291
      ],
      [
        "▁ti",
        -10.369358069627262
      ],
      [
        "▁laissé",
        -10.369501987432661
      ],
      [
        "▁xii",
        -10.370058035556985
      ],
      [
        "▁jooja",
        -10.372360864184063
      ],
      [
        "'orage",
        -10.37238482279027
      ],
      [
        "▁Ai",
        -10.374469587680961
      ],
      [
        "▁c'étai",
        -10.375080887135615
      ],
      [
        "aal",
        -10.375437879189997
      ],
      [
        "▁Doom",
        -10.375641614235324
      ],
      [
        "▁mill",
        -10.376500246094325
      ],
      [
        "▁gëm",
        -10.376597236436162
      ],
      [
        "aloon",
        -10.37670619442119
      ],
      [
        "▁dur",
        -10.378068033198954
      ],
      [
        "ien",
        -10.378695208315266
      ],
      [
        "▁Qu'",
        -10.379687023365173
      ],
      [
        "ro",
        -10.381114507654814
      ],
      [
        "▁révolte",
        -10.381244395563657
      ],
      [
        "▁to",
        -10.382131163428188
      ],
      [
        "▁xërëm",
        -10.38271006025022
      ],
      [
        "▁décor",
        -10.382717285087015
      ],
      [
        "ddina",
        -10.382794008131798
      ],
      [
        "▁trapèze",
        -10.382828772876632
      ],
      [
        "▁véhicule",
        -10.382828772888304
      ],
      [
        "▁Harcourt",
        -10.382828772902853
      ],
      [
        "▁privilèges",
        -10.38282877290709
      ],
      [
        "▁junniy-junni",
        -10.382828772914603
      ],
      [
        "…",
        -10.382828772916344
      ],
      [
        "▁ndànk-ndànk",
        -10.382828772959975
      ],
      [
        "▁incapable",
        -10.382828773140913
      ],
      [
        "▁discipline",
        -10.38282877319103
      ],
      [
        "▁Ahidjo",
        -10.382828773212093
      ],
      [
        "▁1948",
        -10.382828773308578
      ],
      [
        "▁béjjén",
        -10.382828773320313
      ],
      [
        "▁1928",
        -10.382828773400101
      ],
      [
        "▁tés-tés",
        -10.382828774050513
      ],
      [
        "▁lorgnons",
        -10.382828774193037
      ],
      [
        "▁Jeffries",
        -10.382828777557094
      ],
      [
        "▁tekk-tekkaaral",
        -10.382828779401924
      ],
      [
        "▁grâce",
        -10.382828779589742
      ],
      [
        "▁l'extérieur",
        -10.382828779904438
      ],
      [
        "▁éprouv",
        -10.382828781420633
      ],
      [
        "▁proximité",
        -10.382828783792739
      ],
      [
        "▁kaaraange",
        -10.382828786948341
      ],
      [
        "▁rajaxe",
        -10.382828787104513
      ],
      [
        "▁Bërëtaañ",
        -10.382828789026151
      ],
      [
        "▁BBC",
        -10.382828827160438
      ],
      [
        "▁caravane",
        -10.38282883859667
      ],
      [
        "▁Bretagne",
        -10.382828855053933
      ],
      [
        "▁officier",
        -10.382828873405014
      ],
      [
        "▁combinaison",
        -10.382828874431938
      ],
      [
        "▁sibbiru",
        -10.38282894038874
      ],
      [
        "▁Kalabaar",
        -10.382828957665827
      ],
      [
        "▁excessive",
        -10.382828963297213
      ],
      [
        "▁trésor",
        -10.382828965376884
      ],
      [
        "▁possible",
        -10.382828971529763
      ],
      [
        "▁Voyage",
        -10.382828992122015
      ],
      [
        "▁sèche",
        -10.382829013826461
      ],
      [
        "▁Ñëw",
        -10.382829046703321
      ],
      [
        "▁cliché",
        -10.382829198172406
      ],
      [
        "▁Calabar",
        -10.38282943725175
      ],
      [
        "▁saxaaru-géej",
        -10.382829554721722
      ],
      [
        "▁pénétr",
        -10.382829712543876
      ],
      [
        "▁extraordinaire",
        -10.382830114586074
      ],
      [
        "▁alentour",
        -10.382830127474296
      ],
      [
        "▁ruisseau",
        -10.382830837246397
      ],
      [
        "▁Birayim",
        -10.3828316854876
      ],
      [
        "▁Louga",
        -10.38283204236596
      ],
      [
        "▁ndanka",
        -10.382833278463055
      ],
      [
        "▁soixante",
        -10.382834240320474
      ],
      [
        "▁Chuku",
        -10.38283441513285
      ],
      [
        "▁tropicale",
        -10.382834945371437
      ],
      [
        "D.O.",
        -10.382835398025625
      ],
      [
        "▁yëngatu",
        -10.382836161044478
      ],
      [
        "▁l'abri",
        -10.382837131232455
      ],
      [
        "▁kilomet",
        -10.382838801580235
      ],
      [
        "▁radio",
        -10.382838965590848
      ],
      [
        "▁ràññe",
        -10.382839484211186
      ],
      [
        "▁Macron",
        -10.382841924403085
      ],
      [
        "▁légende",
        -10.382844716231498
      ],
      [
        "▁obsession",
        -10.382845189807245
      ],
      [
        "▁chèvres",
        -10.382845834502454
      ],
      [
        "▁1968",
        -10.382850345037829
      ],
      [
        "▁répond",
        -10.382850561399673
      ],
      [
        "▁présence",
        -10.382853196762014
      ],
      [
        "▁ëlëk",
        -10.382853198771699
      ],
      [
        "▁bakkan",
        -10.382854739496576
      ],
      [
        "▁Kipli",
        -10.382856693926724
      ],
      [
        "▁mbindeef",
        -10.38286191580466
      ],
      [
        "▁guyaab",
        -10.382862935498904
      ],
      [
        "▁poitrine",
        -10.382864844706285
      ],
      [
        "▁ayubes",
        -10.382866283278226
      ],
      [
        "▁toilettes",
        -10.382874723947376
      ],
      [
        "▁NGo",
        -10.382878691523777
      ],
      [
        "▁caract",
        -10.38287964311798
      ],
      [
        "▁fauteuil",
        -10.382884026595452
      ],
      [
        "▁gazelle",
        -10.382884532992025
      ],
      [
        "▁l'aube",
        -10.38288511779119
      ],
      [
        "▁jërr",
        -10.382895942211222
      ],
      [
        "▁Confi",
        -10.382898447493991
      ],
      [
        "▁Au-dessus",
        -10.382902229443232
      ],
      [
        "▁règne",
        -10.382924984951423
      ],
      [
        "▁l'hum",
        -10.382926018992261
      ],
      [
        "▁xamantane",
        -10.382926869102445
      ],
      [
        "▁coow",
        -10.382934702733387
      ],
      [
        "▁sept",
        -10.38293551237054
      ],
      [
        "▁interdit",
        -10.382936596363166
      ],
      [
        "▁firndeel",
        -10.382940549839162
      ],
      [
        "▁l'après-midi",
        -10.38294196109011
      ],
      [
        "▁habituellement",
        -10.382946954380914
      ],
      [
        "▁Gaynd",
        -10.38295566387097
      ],
      [
        "▁foudre",
        -10.382965414527018
      ],
      [
        "▁dencukaay",
        -10.382970858552355
      ],
      [
        "▁dëll",
        -10.38297643459166
      ],
      [
        "▁Agsil",
        -10.382976546195382
      ],
      [
        "▁heureux",
        -10.382994543947126
      ],
      [
        "▁effect",
        -10.383004429213363
      ],
      [
        "▁lentement",
        -10.383013654988739
      ],
      [
        "▁maasaloo",
        -10.383033519208754
      ],
      [
        "▁Alfa",
        -10.383045107182518
      ],
      [
        "▁fièvre",
        -10.383070721486927
      ],
      [
        "▁dëppoo",
        -10.38307791315078
      ],
      [
        "▁fanweer",
        -10.383077936138802
      ],
      [
        "▁njege",
        -10.38308127019326
      ],
      [
        "▁riz",
        -10.383084495422038
      ],
      [
        "▁ňàkk",
        -10.383102056208921
      ],
      [
        "▁Demuloo",
        -10.383105036961696
      ],
      [
        "▁fureur",
        -10.383106020184673
      ],
      [
        "▁frappions",
        -10.383118826243981
      ],
      [
        "▁capable",
        -10.383137206133622
      ],
      [
        "▁fomp",
        -10.383143731327824
      ],
      [
        "▁L'autre",
        -10.383159219319811
      ],
      [
        "▁naître",
        -10.383162838376359
      ],
      [
        "▁électrique",
        -10.383178886612779
      ],
      [
        "▁contraire",
        -10.38319509659833
      ],
      [
        "▁bënn",
        -10.38320382777459
      ],
      [
        "▁pension",
        -10.383205328019205
      ],
      [
        "▁móobal",
        -10.38321983603881
      ],
      [
        "▁bãŋ",
        -10.383224854214493
      ],
      [
        "▁meetar",
        -10.383239904386956
      ],
      [
        "▁daŋar",
        -10.383248999254349
      ],
      [
        "▁weesu",
        -10.383278344536606
      ],
      [
        "▁larmes",
        -10.383292391404414
      ],
      [
        "▁dég",
        -10.383326890119799
      ],
      [
        "▁échappé",
        -10.383331908594263
      ],
      [
        "▁njariñ",
        -10.383332395664464
      ],
      [
        "▁Bateri",
        -10.383344474066352
      ],
      [
        "▁vieillard",
        -10.383359664624031
      ],
      [
        "▁bruit",
        -10.383377378878976
      ],
      [
        "▁semble-t-il",
        -10.383403707470054
      ],
      [
        "▁lëmm",
        -10.38341738347179
      ],
      [
        "▁miirloo",
        -10.383418274835046
      ],
      [
        "▁soxor",
        -10.383447885075881
      ],
      [
        "▁l'indépendance",
        -10.383497716880674
      ],
      [
        "▁appelé",
        -10.383529319474253
      ],
      [
        "▁meññ",
        -10.383534882323017
      ],
      [
        "▁commencé",
        -10.383567428199942
      ],
      [
        "▁moyen",
        -10.38359658097028
      ],
      [
        "▁baobab",
        -10.383617740001963
      ],
      [
        "▁disparu",
        -10.38368730438373
      ],
      [
        "▁pegg",
        -10.383690918216104
      ],
      [
        "▁perdre",
        -10.383701653920367
      ],
      [
        "▁dimbali",
        -10.383714619857363
      ],
      [
        "▁yemale",
        -10.383720562220837
      ],
      [
        "▁ràpp",
        -10.383728833722857
      ],
      [
        "▁dijj",
        -10.383757242321726
      ],
      [
        "▁accepté",
        -10.383766299615965
      ],
      [
        "▁sauce",
        -10.383790472340738
      ],
      [
        "▁serré",
        -10.383853490987402
      ],
      [
        "▁neuf",
        -10.383881680245347
      ],
      [
        "▁Mbam",
        -10.383911754802593
      ],
      [
        "▁flamme",
        -10.383915716657382
      ],
      [
        "▁soxal",
        -10.383940281756407
      ],
      [
        "▁décrit",
        -10.383994342395939
      ],
      [
        "▁absent",
        -10.383997896670525
      ],
      [
        "▁chapeaux",
        -10.38406458454504
      ],
      [
        "▁brûlant",
        -10.384174757641002
      ],
      [
        "▁gëléem",
        -10.384189398797941
      ],
      [
        "▁Demkoon",
        -10.38419831767125
      ],
      [
        "▁tàggat",
        -10.384219168878003
      ],
      [
        "▁élevé",
        -10.38430195111056
      ],
      [
        "▁Demuma",
        -10.384438207505504
      ],
      [
        "▁taq",
        -10.384465813540556
      ],
      [
        "▁battant",
        -10.38453048827536
      ],
      [
        "▁nangoo",
        -10.384542140358185
      ],
      [
        "▁Joor",
        -10.384593444015737
      ],
      [
        "▁surveill",
        -10.384603109861336
      ],
      [
        "▁gosse",
        -10.384652401301816
      ],
      [
        "▁raconté",
        -10.384676066340743
      ],
      [
        "▁soirée",
        -10.38472574517808
      ],
      [
        "▁màtt",
        -10.38475686393025
      ],
      [
        "▁penku",
        -10.384891852854665
      ],
      [
        "▁voudrait",
        -10.384928065233352
      ],
      [
        "▁Celui-",
        -10.384962022765631
      ],
      [
        "▁muraille",
        -10.384986451624574
      ],
      [
        "▁rajo",
        -10.385028268736566
      ],
      [
        "▁caisse",
        -10.385062101630746
      ],
      [
        "▁repas",
        -10.38506755467969
      ],
      [
        "▁Banyo",
        -10.385187586538793
      ],
      [
        "▁Looloo",
        -10.385310234769218
      ],
      [
        "àww",
        -10.385435573623138
      ],
      [
        "▁Foof",
        -10.385440204823668
      ],
      [
        "▁matinée",
        -10.38552463935775
      ],
      [
        "▁revenu",
        -10.385525307953241
      ],
      [
        "▁Bamako",
        -10.385541312314551
      ],
      [
        "▁sooke",
        -10.385547951181941
      ],
      [
        "▁tuuru",
        -10.385606003863725
      ],
      [
        "▁c'est-à-dire",
        -10.38562052166112
      ],
      [
        "▁marqué",
        -10.385637236543168
      ],
      [
        "▁dikkul",
        -10.385674345527121
      ],
      [
        "▁remis",
        -10.385972841077285
      ],
      [
        "▁d'entre",
        -10.386131652000223
      ],
      [
        "▁wert",
        -10.386294306016095
      ],
      [
        "ki",
        -10.386440120939865
      ],
      [
        "▁guerr",
        -10.386553188853135
      ],
      [
        "▁simila",
        -10.386554263254443
      ],
      [
        "▁Mbir",
        -10.386643712481513
      ],
      [
        "▁yeggee",
        -10.38672134956624
      ],
      [
        "empire",
        -10.387007161757
      ],
      [
        "▁prière",
        -10.387016992029228
      ],
      [
        "▁aigu",
        -10.387041001495344
      ],
      [
        "▁oublier",
        -10.387152636774346
      ],
      [
        "▁tëgg",
        -10.387163566894053
      ],
      [
        "▁kookale",
        -10.387286201916146
      ],
      [
        "▁tubay",
        -10.38733041873798
      ],
      [
        "▁peine",
        -10.387343764597624
      ],
      [
        "▁Dieu",
        -10.387562831044633
      ],
      [
        "▁Bul",
        -10.387643665731915
      ],
      [
        "▁nuru",
        -10.387711085542431
      ],
      [
        "▁portale",
        -10.38779829840387
      ],
      [
        "▁móol",
        -10.387917183120912
      ],
      [
        "▁Cependant",
        -10.388403629056754
      ],
      [
        "▁charme",
        -10.388423956750529
      ],
      [
        "▁Njiit",
        -10.388426260892023
      ],
      [
        "▁waaxu",
        -10.388441823203774
      ],
      [
        "cteur",
        -10.38853234885598
      ],
      [
        "leel",
        -10.388548532644547
      ],
      [
        "▁puur",
        -10.38855901885903
      ],
      [
        "itié",
        -10.38872478791645
      ],
      [
        "▁poudre",
        -10.38876687801513
      ],
      [
        "▁Dégg",
        -10.389425740490443
      ],
      [
        "▁genre",
        -10.389712916550543
      ],
      [
        "ee.",
        -10.389954538683888
      ],
      [
        "▁créé",
        -10.390122688615346
      ],
      [
        "▁juges",
        -10.390178333423806
      ],
      [
        "▁d'habitude",
        -10.390349898570726
      ],
      [
        "▁sœurs",
        -10.390426229791588
      ],
      [
        "▁kayit",
        -10.390543373970766
      ],
      [
        "▁fowu",
        -10.390825471577141
      ],
      [
        "▁Tann",
        -10.390844842748532
      ],
      [
        "▁ràkkaaju",
        -10.391157143844874
      ],
      [
        "▁pourquoi",
        -10.391769393168724
      ],
      [
        "▁travailler",
        -10.391891521935896
      ],
      [
        "▁jàppoon",
        -10.39197762827159
      ],
      [
        "▁oreilles",
        -10.392345315306311
      ],
      [
        "▁rose",
        -10.39236276231305
      ],
      [
        "▁cultive",
        -10.392569001155199
      ],
      [
        "▁cré",
        -10.392619167327453
      ],
      [
        "▁plats",
        -10.392825457174055
      ],
      [
        "cture",
        -10.39347182724546
      ],
      [
        "tiens",
        -10.393763628471952
      ],
      [
        "▁ouverte",
        -10.39424462709766
      ],
      [
        "▁install",
        -10.394553983099588
      ],
      [
        "▁secondes",
        -10.394643498209469
      ],
      [
        "▁vagues",
        -10.394648206267068
      ],
      [
        "▁baň",
        -10.394867250530211
      ],
      [
        "▁d'art",
        -10.395089574759487
      ],
      [
        "▁drapeau",
        -10.3958875477478
      ],
      [
        "sama",
        -10.396185696495264
      ],
      [
        "▁dig",
        -10.396290799481779
      ],
      [
        "▁Éta",
        -10.396466328467195
      ],
      [
        "▁faax",
        -10.39662782832177
      ],
      [
        "▁tente",
        -10.397545433521284
      ],
      [
        "▁fameuse",
        -10.397675536407903
      ],
      [
        "▁joow",
        -10.398066421133953
      ],
      [
        "▁toogoon",
        -10.398118018749367
      ],
      [
        "ndait",
        -10.398154930296807
      ],
      [
        "▁fruits",
        -10.398160468242612
      ],
      [
        "▁conduis",
        -10.398195622607282
      ],
      [
        "▁càkk",
        -10.398219881739442
      ],
      [
        "▁way-juram",
        -10.398510804500804
      ],
      [
        "▁kilomètres",
        -10.398633757641772
      ],
      [
        "▁waxee",
        -10.398687934642046
      ],
      [
        "▁naŋg",
        -10.398976330394474
      ],
      [
        "▁Amin",
        -10.399004148994521
      ],
      [
        "▁ndeysaan.",
        -10.399381353789238
      ],
      [
        "▁golf",
        -10.399472118569069
      ],
      [
        "▁rendu",
        -10.39970613669682
      ],
      [
        "kkati",
        -10.399712495789814
      ],
      [
        "▁tege",
        -10.399976403609653
      ],
      [
        "▁battu",
        -10.400580940423465
      ],
      [
        "▁apparaissent",
        -10.400659220114598
      ],
      [
        "▁Mokaa",
        -10.401143833364317
      ],
      [
        "▁woowa",
        -10.401168751142446
      ],
      [
        "▁wuut",
        -10.401622403384188
      ],
      [
        "▁sipp",
        -10.401862356278098
      ],
      [
        "▁Ho",
        -10.40206562585678
      ],
      [
        "▁sell",
        -10.40264210630494
      ],
      [
        "▁n'ira",
        -10.402645814035285
      ],
      [
        "▁corde",
        -10.403011935483619
      ],
      [
        "▁demuñu",
        -10.40322465226933
      ],
      [
        "▁kaki",
        -10.403855729598332
      ],
      [
        "▁pétrole",
        -10.404319305147611
      ],
      [
        "▁jeux",
        -10.404650495041743
      ],
      [
        "▁Europe",
        -10.404679823716915
      ],
      [
        "▁l'inst",
        -10.404993423835396
      ],
      [
        "▁diine",
        -10.405073372068138
      ],
      [
        "ard",
        -10.405263692813751
      ],
      [
        "'arachide",
        -10.40606405900649
      ],
      [
        "▁jog",
        -10.406249805036147
      ],
      [
        "▁ñaaw",
        -10.406501150702375
      ],
      [
        "nie",
        -10.407076943959023
      ],
      [
        "▁fui",
        -10.40786466844158
      ],
      [
        "▁accepter",
        -10.407926387570136
      ],
      [
        "▁maladies",
        -10.408158420139138
      ],
      [
        "▁méngale",
        -10.408470306678431
      ],
      [
        "▁verra",
        -10.409558664899716
      ],
      [
        "▁tegu",
        -10.409738134436704
      ],
      [
        "iques",
        -10.409800568869715
      ],
      [
        "▁léeg",
        -10.409973420184636
      ],
      [
        "▁d'enfants",
        -10.410336405278967
      ],
      [
        "▁gisu",
        -10.411134223241033
      ],
      [
        "▁ňa",
        -10.411498753399723
      ],
      [
        "▁weg",
        -10.411813316537222
      ],
      [
        "▁pri",
        -10.412487880337125
      ],
      [
        "st",
        -10.412933804107336
      ],
      [
        "▁fen",
        -10.4129986386512
      ],
      [
        "▁mêl",
        -10.41305842213471
      ],
      [
        "▁partent",
        -10.414935676510591
      ],
      [
        "isme",
        -10.414988186626129
      ],
      [
        "▁US",
        -10.41527056358097
      ],
      [
        "▁kam",
        -10.415383510253326
      ],
      [
        "▁Mac",
        -10.415479145779795
      ],
      [
        "▁libre",
        -10.416034561205864
      ],
      [
        "▁chameau",
        -10.416125731977752
      ],
      [
        "ññ",
        -10.416600455896642
      ],
      [
        "▁jafee",
        -10.41661327904442
      ],
      [
        "▁imagin",
        -10.41675650723002
      ],
      [
        "men",
        -10.416838196757666
      ],
      [
        "tam",
        -10.41726241603781
      ],
      [
        "▁chocolat.",
        -10.417784648404517
      ],
      [
        "▁instants",
        -10.418420455858474
      ],
      [
        "▁yóbb",
        -10.418574925535324
      ],
      [
        "aas",
        -10.41889226911563
      ],
      [
        "-tuut",
        -10.419043602121173
      ],
      [
        "innaaw",
        -10.419180860022495
      ],
      [
        "▁jaaxa",
        -10.419316580092902
      ],
      [
        "ait-il",
        -10.419890922480466
      ],
      [
        "▁pourrai",
        -10.420371396264569
      ],
      [
        "▁travaill",
        -10.421011036470304
      ],
      [
        "venus",
        -10.421988050794994
      ],
      [
        "▁tama",
        -10.42265707210334
      ],
      [
        "▁Aa",
        -10.422811361712547
      ],
      [
        "▁diggu",
        -10.423049958564366
      ],
      [
        "ards",
        -10.423668589867328
      ],
      [
        "▁l'aide",
        -10.42411511831028
      ],
      [
        "▁rëbbi",
        -10.424238666351892
      ],
      [
        "▁ceeb",
        -10.424350484764492
      ],
      [
        "▁Aka",
        -10.424990230490254
      ],
      [
        "▁Combi",
        -10.42521553374462
      ],
      [
        "▁col",
        -10.425731340938597
      ],
      [
        "waaw",
        -10.42576061814997
      ],
      [
        "▁confie",
        -10.42623795078504
      ],
      [
        "▁marque",
        -10.427083239698328
      ],
      [
        "alal",
        -10.427747651591687
      ],
      [
        "nge",
        -10.428233262976049
      ],
      [
        "▁prenant",
        -10.429139442254685
      ],
      [
        "▁Doon",
        -10.429194750856123
      ],
      [
        "▁d'il",
        -10.42969281079072
      ],
      [
        "oroom",
        -10.430577014923337
      ],
      [
        "▁courses",
        -10.430672895906222
      ],
      [
        "-lu",
        -10.431105642536828
      ],
      [
        "▁sida",
        -10.432182686307005
      ],
      [
        "errière",
        -10.432334222121806
      ],
      [
        "▁sii",
        -10.43236330367606
      ],
      [
        "▁Nun",
        -10.432952459672855
      ],
      [
        "▁Ñi",
[...]
