{
  "version": "1.0",
  "truncation": null,
  "padding": null,
  "added_tokens": [
    {
      "id": 0,
      "content": "<s>",
      "single_word": false,
      "lstrip": false,
      "rstrip": false,
      "normalized": false,
      "special": true
    },
    {
      "id": 1,
      "content": "<pad>",
      "single_word": false,
      "lstrip": false,
      "rstrip": false,
      "normalized": false,
      "special": true
    },
    {
      "id": 2,
      "content": "</s>",
      "single_word": false,
      "lstrip": false,
      "rstrip": false,
      "normalized": false,
      "special": true
    },
    {
      "id": 3,
      "content": "<unk>",
      "single_word": false,
      "lstrip": false,
      "rstrip": false,
      "normalized": false,
      "special": true
    },
    {
      "id": 4,
      "content": "<mask>",
      "single_word": false,
      "lstrip": false,
      "rstrip": false,
      "normalized": false,
      "special": true
    }
  ],
  "normalizer": {
    "type": "Replace",
    "pattern": {
      "String": " {2,}"
    },
    "content": " "
  },
  "pre_tokenizer": {
    "type": "Metaspace",
    "replacement": "▁",
    "add_prefix_space": true
  },
  "post_processor": null,
  "decoder": {
    "type": "Metaspace",
    "replacement": "▁",
    "add_prefix_space": true
  },
  "model": {
    "type": "Unigram",
    "unk_id": 3,
    "vocab": [
      [
        "<s>",
        0.0
      ],
      [
        "<pad>",
        0.0
      ],
      [
        "</s>",
        0.0
      ],
      [
        "<unk>",
        0.0
      ],
      [
        "<mask>",
        0.0
      ],
      [
        "▁",
        -2.6157050588011757
      ],
      [
        ".",
        -3.1217720155736295
      ],
      [
        ",",
        -3.7729686011140062
      ],
      [
        "?",
        -4.1417341264749385
      ],
      [
        "s",
        -4.2245017651829055
      ],
      [
        "!",
        -4.262754209754381
      ],
      [
        "▁la",
        -4.416745439167726
      ],
      [
        "▁de",
        -4.542680095923729
      ],
      [
        "e",
        -4.677547170548029
      ],
      [
        "a",
        -4.718697649542928
      ],
      [
        "▁ci",
        -4.776357611586616
      ],
      [
        "▁qui",
        -4.978540024000051
      ],
      [
        "u",
        -4.992972889795765
      ],
      [
        "y",
        -5.008677520591575
      ],
      [
        "i",
        -5.021654613951011
      ],
      [
        "▁na",
        -5.041673784911139
      ],
      [
        "n",
        -5.063376300289131
      ],
      [
        "▁est",
        -5.118300621797534
      ],
      [
        "▁!",
        -5.129574039370683
      ],
      [
        "▁dem",
        -5.192654349397328
      ],
      [
        "▁que",
        -5.219573942499737
      ],
      [
        "▁ne",
        -5.222701302966334
      ],
      [
        "▁pas",
        -5.25664254494903
      ],
      [
        "t",
        -5.282743398163625
      ],
      [
        "▁un",
        -5.284073303710326
      ],
      [
        "▁Il",
        -5.291916193555545
      ],
      [
        "▁a",
        -5.302846070750039
      ],
      [
        "▁C'est",
        -5.319724003649212
      ],
      [
        "▁gi",
        -5.3349659804866025
      ],
      [
        "▁des",
        -5.385157135023338
      ],
      [
        "et",
        -5.408650366449352
      ],
      [
        "▁bi",
        -5.458919009269264
      ],
      [
        "▁naa",
        -5.475890054033004
      ],
      [
        "▁vu",
        -5.5243818280558346
      ],
      [
        "▁ay",
        -5.541892211006293
      ],
      [
        "▁ŋga",
        -5.613672960050883
      ],
      [
        "une",
        -5.627725512228148
      ],
      [
        "▁G",
        -5.635145609242167
      ],
      [
        "óor",
        -5.697721093313628
      ],
      [
        "▁le",
        -5.720229965227086
      ],
      [
        "▁am",
        -5.724653474306207
      ],
      [
        "▁y",
        -5.728294470980539
      ],
      [
        "▁ce",
        -5.7688534121824135
      ],
      [
        "r",
        -5.806139904883079
      ],
      [
        "▁à",
        -5.807064972356591
      ],
      [
        "▁mu",
        -5.817116386029256
      ],
      [
        "▁Je",
        -5.821134670279851
      ],
      [
        "▁tu",
        -5.825440763735893
      ],
      [
        "▁Gis",
        -5.834848836216038
      ],
      [
        "l",
        -5.848934669903556
      ],
      [
        "▁bu",
        -5.851970050914588
      ],
      [
        "▁di",
        -5.877200043532831
      ],
      [
        "▁les",
        -5.9005433014357305
      ],
      [
        "▁gis",
        -5.913351230826786
      ],
      [
        "▁sont",
        -5.9263168780535675
      ],
      [
        "▁ñu",
        -5.927767458969433
      ],
      [
        "▁Tu",
        -5.951129020811735
      ],
      [
        "▁homme",
        -5.966230066600556
      ],
      [
        "▁été",
        -5.987384271006513
      ],
      [
        "▁nag",
        -5.991623948482711
      ],
      [
        "▁du",
        -6.008504734119116
      ],
      [
        "on",
        -6.029651833531685
      ],
      [
        "▁L'homme",
        -6.037465518318258
      ],
      [
        "▁yu",
        -6.041426271058491
      ],
      [
        "▁ngi",
        -6.058509924731334
      ],
      [
        "▁yi",
        -6.088984405621831
      ],
      [
        "▁ak",
        -6.096309317785609
      ],
      [
        "▁ko",
        -6.101454904854273
      ],
      [
        "▁J'ai",
        -6.10321273886472
      ],
      [
        "▁xam",
        -6.111128852422068
      ],
      [
        "▁c",
        -6.111358278217334
      ],
      [
        "▁ni",
        -6.1136558235313325
      ],
      [
        "▁wax",
        -6.130922695928497
      ],
      [
        "▁ba",
        -6.16694225798412
      ],
      [
        "▁ma",
        -6.170356230048466
      ],
      [
        "▁ñëw",
        -6.2032413430341
      ],
      [
        "▁nit",
        -6.208926736578345
      ],
      [
        "le",
        -6.218728285206745
      ],
      [
        "▁en",
        -6.22203112614604
      ],
      [
        "à",
        -6.255346935011953
      ],
      [
        "▁il",
        -6.257078742562821
      ],
      [
        "▁nekk",
        -6.275261715018088
      ],
      [
        "▁l'homme",
        -6.282215725426469
      ],
      [
        "▁bii",
        -6.292083026563722
      ],
      [
        "▁lu",
        -6.308821512976174
      ],
      [
        "▁qu'il",
        -6.312270479068186
      ],
      [
        "▁avec",
        -6.332233033491974
      ],
      [
        "il",
        -6.349794944626799
      ],
      [
        "▁photo",
        -6.359496969420727
      ],
      [
        "▁pour",
        -6.366028609869161
      ],
      [
        "m",
        -6.372696513138681
      ],
      [
        "▁góor",
        -6.389128870923581
      ],
      [
        "▁c'est",
        -6.39345824748946
      ],
      [
        "▁benn",
        -6.418334521353738
      ],
      [
        "▁Nit",
        -6.431022219910965
      ],
      [
        "▁parti",
        -6.431475445510381
      ],
      [
        "é",
        -6.434818738944999
      ],
      [
        "nt",
        -6.476640564462959
      ],
      [
        "▁te",
        -6.502994378484009
      ],
      [
        "▁sur",
        -6.512173431476271
      ],
      [
        "▁biir",
        -6.513711523247157
      ],
      [
        "▁Sur",
        -6.518635046819914
      ],
      [
        "▁ab",
        -6.522364846603689
      ],
      [
        "▁dans",
        -6.539015732637753
      ],
      [
        "▁la.",
        -6.549845063679498
      ],
      [
        "▁autre",
        -6.55340792600553
      ],
      [
        "▁mi",
        -6.558442632968939
      ],
      [
        "▁je",
        -6.586437361187783
      ],
      [
        "▁si",
        -6.607682219500738
      ],
      [
        "▁se",
        -6.616459036450402
      ],
      [
        "▁boo",
        -6.6230171345380855
      ],
      [
        "▁n",
        -6.631733403538609
      ],
      [
        "▁Le",
        -6.633588195331124
      ],
      [
        "▁aussi",
        -6.638951420999716
      ],
      [
        "▁Nataal",
        -6.655864749271423
      ],
      [
        "▁O",
        -6.670585628544126
      ],
      [
        "▁cet",
        -6.675253406984242
      ],
      [
        "▁nataal",
        -6.690282531265853
      ],
      [
        "▁d",
        -6.696816738757036
      ],
      [
        "▁ñi",
        -6.7188330820674995
      ],
      [
        "▁ŋgi",
        -6.720010647225514
      ],
      [
        "▁bëgg",
        -6.721192923988965
      ],
      [
        "▁woon",
        -6.7274979289505685
      ],
      [
        "▁moom",
        -6.734925404629683
      ],
      [
        "▁Am",
        -6.7407373359668545
      ],
      [
        "▁def",
        -6.743597065513966
      ],
      [
        "▁ki",
        -6.747083254124448
      ],
      [
        "▁mel",
        -6.7633385338363
      ],
      [
        "▁fi",
        -6.765561473350842
      ],
      [
        "ette",
        -6.765978534577716
      ],
      [
        "eneen",
        -6.771442554323892
      ],
      [
        "▁ñoo",
        -6.774228028975841
      ],
      [
        "▁xale",
        -6.78173957761444
      ],
      [
        "▁A",
        -6.799492387572316
      ],
      [
        "▁là",
        -6.808357179812452
      ],
      [
        "oon",
        -6.815812849312808
      ],
      [
        "s.",
        -6.816237908454327
      ],
      [
        "▁tout",
        -6.818953898878595
      ],
      [
        "x",
        -6.819954558824241
      ],
      [
        "▁l'intérieur",
        -6.820303194196427
      ],
      [
        "▁Ce",
        -6.8221671376687025
      ],
      [
        "al",
        -6.822207369131906
      ],
      [
        "▁parle",
        -6.822475359682551
      ],
      [
        "▁vois",
        -6.829158749813933
      ],
      [
        "▁Ci",
        -6.83666445874453
      ],
      [
        "▁La",
        -6.844642755717928
      ],
      [
        "▁nga",
        -6.846306682962995
      ],
      [
        "▁lui",
        -6.865551113809078
      ],
      [
        "es",
        -6.87367017577551
      ],
      [
        "o",
        -6.880396317854627
      ],
      [
        "▁sa",
        -6.891456931493544
      ],
      [
        "▁qu'",
        -6.896488968403178
      ],
      [
        "am",
        -6.9161966630508545
      ],
      [
        "▁moo",
        -6.920992852321415
      ],
      [
        "▁celui-là",
        -6.924253849200068
      ],
      [
        "▁néeg",
        -6.926487495155879
      ],
      [
        "▁as",
        -6.929788613418136
      ],
      [
        "ment",
        -6.934578387485438
      ],
      [
        "▁seen",
        -6.93705784039365
      ],
      [
        "▁ji",
        -6.937782027278638
      ],
      [
        "▁ka",
        -6.944066991068903
      ],
      [
        "▁chose",
        -6.952483613354729
      ],
      [
        "▁E",
        -6.9549064903550875
      ],
      [
        "▁Les",
        -6.965849165839123
      ],
      [
        "▁weex",
        -6.9681108055134775
      ],
      [
        "woon",
        -6.976529521299613
      ],
      [
        "ne",
        -6.980156802416405
      ],
      [
        "▁couleur",
        -6.9867583331965495
      ],
      [
        "ay",
        -6.987966837690215
      ],
      [
        "▁vous",
        -6.998060230821993
      ],
      [
        "▁Waaw",
        -7.000850061884375
      ],
      [
        "▁xar",
        -7.039748998199184
      ],
      [
        "▁l",
        -7.043708819868581
      ],
      [
        "▁moi",
        -7.05210825066742
      ],
      [
        "▁ca",
        -7.059101261761655
      ],
      [
        "▁voilà",
        -7.064861838795522
      ],
      [
        "▁mouton",
        -7.06507312363291
      ],
      [
        "▁s",
        -7.068546740294284
      ],
      [
        "'est",
        -7.069032334787851
      ],
      [
        "▁enfants",
        -7.070731598157343
      ],
      [
        "▁dit",
        -7.080854640275211
      ],
      [
        "▁toi",
        -7.082458528374595
      ],
      [
        "▁fa",
        -7.082963777433639
      ],
      [
        "▁dafa",
        -7.090099918843593
      ],
      [
        "▁laa",
        -7.106489440806853
      ],
      [
        "▁Dem",
        -7.113262435009556
      ],
      [
        "ci",
        -7.114312949123683
      ],
      [
        "▁C",
        -7.116627782247768
      ],
      [
        "▁kenn",
        -7.117095571791332
      ],
      [
        "▁Un",
        -7.117878450657235
      ],
      [
        "▁lool",
        -7.125492587641422
      ],
      [
        "▁demee",
        -7.128889566333582
      ],
      [
        "▁porte",
        -7.136527793753615
      ],
      [
        "▁au",
        -7.144438180534102
      ],
      [
        "'",
        -7.153970291258203
      ],
      [
        "▁venu",
        -7.154817876338403
      ],
      [
        "eux",
        -7.155233212699029
      ],
      [
        "▁Maa",
        -7.177371107709746
      ],
      [
        "▁partir",
        -7.178049613670097
      ],
      [
        "▁veux",
        -7.1785794613493366
      ],
      [
        "▁plus",
        -7.1821586167478415
      ],
      [
        "▁ag",
        -7.183684285155098
      ],
      [
        "▁Quel",
        -7.189959825293251
      ],
      [
        "te",
        -7.195814512060975
      ],
      [
        "-",
        -7.196072179827352
      ],
      [
        "er",
        -7.1983066836264875
      ],
      [
        "▁demul",
        -7.198916510889621
      ],
      [
        "▁maison",
        -7.201143022171238
      ],
      [
        "▁jigéen",
        -7.20115668004855
      ],
      [
        "▁part",
        -7.205168386541947
      ],
      [
        "▁ku",
        -7.208572432409776
      ],
      [
        "▁Cet",
        -7.214173178297185
      ],
      [
        "▁leen",
        -7.214238666452469
      ],
      [
        "ñ",
        -7.217418504983929
      ],
      [
        "▁où",
        -7.221246729502498
      ],
      [
        "s-tu",
        -7.2248906201466845
      ],
      [
        "k",
        -7.238261532141515
      ],
      [
        "▁doon",
        -7.238570020786905
      ],
      [
        "ant",
        -7.238890765617393
      ],
      [
        "▁bien",
        -7.241089291308228
      ],
      [
        "▁De",
        -7.244368984780815
      ],
      [
        "▁ŋgeen",
        -7.25045764005187
      ],
      [
        "▁j'",
        -7.261602656046331
      ],
      [
        "ù",
        -7.268306943167632
      ],
      [
        "▁m",
        -7.271397602584022
      ],
      [
        "en",
        -7.272348232140994
      ],
      [
        "▁n'es",
        -7.279750401947421
      ],
      [
        "▁rafet",
        -7.286418519815479
      ],
      [
        "▁très",
        -7.290368256300906
      ],
      [
        "ez",
        -7.310057563346357
      ],
      [
        "g",
        -7.310547912361834
      ],
      [
        "ont",
        -7.311040834445187
      ],
      [
        "oo",
        -7.311708556669662
      ],
      [
        "▁ou",
        -7.320167465769886
      ],
      [
        "▁garab",
        -7.323021787103467
      ],
      [
        "▁man",
        -7.336721552329804
      ],
      [
        "▁J",
        -7.344907709179317
      ],
      [
        "▁kaw",
        -7.356853696044598
      ],
      [
        "▁lii",
        -7.369645820316346
      ],
      [
        "▁personne",
        -7.374060079892677
      ],
      [
        "▁xarit",
        -7.388687490705964
      ],
      [
        "▁soo",
        -7.389484584378385
      ],
      [
        "▁j'ai",
        -7.391507504724624
      ],
      [
        "▁Lii",
        -7.397520853823606
      ],
      [
        "▁sol",
        -7.401366277669372
      ],
      [
        "..",
        -7.40915447550476
      ],
      [
        "▁Xar",
        -7.412511376128247
      ],
      [
        "ent",
        -7.414818941244604
      ],
      [
        "▁ñax",
        -7.426270713521319
      ],
      [
        "▁là-bas",
        -7.426632043329809
      ],
      [
        "▁gens",
        -7.433810670007126
      ],
      [
        "▁réer",
        -7.435181263794139
      ],
      [
        "▁femme",
        -7.44385283701952
      ],
      [
        "▁Comme",
        -7.462188827101782
      ],
      [
        "▁waaw",
        -7.46499634620843
      ],
      [
        "▁yépp",
        -7.466496104921334
      ],
      [
        "▁À",
        -7.470379421839763
      ],
      [
        "▁b",
        -7.472814859903089
      ],
      [
        "▁dañ",
        -7.473788511561718
      ],
      [
        "▁Fa",
        -7.483678719730014
      ],
      [
        "w",
        -7.483849538536994
      ],
      [
        "▁Si",
        -7.484339805430157
      ],
      [
        "re",
        -7.4845342440477705
      ],
      [
        "la",
        -7.486140257732193
      ],
      [
        "▁Su",
        -7.491463681923019
      ],
      [
        "▁jusqu'",
        -7.499993172339387
      ],
      [
        "▁semble",
        -7.500561255155356
      ],
      [
        "▁n'a",
        -7.501757201301766
      ],
      [
        "▁veut",
        -7.5021043459593
      ],
      [
        "▁rekk",
        -7.5021397827831136
      ],
      [
        "▁noppi",
        -7.503984294136352
      ],
      [
        "▁F",
        -7.505318076493458
      ],
      [
        "▁Qui",
        -7.506288752613143
      ],
      [
        "▁teg",
        -7.507314149663104
      ],
      [
        "▁ñaar",
        -7.512807671480909
      ],
      [
        "▁mën",
        -7.514824667236926
      ],
      [
        "un",
        -7.524882565242761
      ],
      [
        "▁waa",
        -7.52554173746061
      ],
      [
        "▁lañu",
        -7.526382593420417
      ],
      [
        "de",
        -7.527775438309126
      ],
      [
        "▁Du",
        -7.530883363730968
      ],
      [
        "▁fu",
        -7.531166871904061
      ],
      [
        "▁maa",
        -7.5323858406864375
      ],
      [
        "épp",
        -7.534155130889567
      ],
      [
        "▁Ba",
        -7.536290085418686
      ],
      [
        "▁dara",
        -7.540221921349351
      ],
      [
        "▁Oui",
        -7.542811124064585
      ],
      [
        "▁gu",
        -7.543815934988009
      ],
      [
        "▁nañu",
        -7.544047021221973
      ],
      [
        "▁moutons",
        -7.5443475477898305
      ],
      [
        "▁Ceci",
        -7.54499487959173
      ],
      [
        "▁k",
        -7.545731076165813
      ],
      [
        "▁kër",
        -7.545991184134678
      ],
      [
        "leurs",
        -7.548516046458812
      ],
      [
        "it",
        -7.551054002380349
      ],
      [
        "▁qu",
        -7.554512718122099
      ],
      [
        "is",
        -7.555035070344006
      ],
      [
        "▁Sée",
        -7.555868243931085
      ],
      [
        "▁on",
        -7.557513602180517
      ],
      [
        "▁ami",
        -7.557548840749335
      ],
      [
        "▁Mi",
        -7.568881271899122
      ],
      [
        "▁yoo",
        -7.576606510547295
      ],
      [
        "▁l'a",
        -7.582256359852509
      ],
      [
        "▁l'autre",
        -7.583616812322716
      ],
      [
        "▁ceux-là",
        -7.583635475544348
      ],
      [
        "▁peut-être",
        -7.5838340424079025
      ],
      [
        "▁bari",
        -7.590905498802622
      ],
      [
        "▁d'autres",
        -7.591444451517467
      ],
      [
        "▁Ma",
        -7.592369298245475
      ],
      [
        "▁d'un",
        -7.592716819895392
      ],
      [
        "▁So",
        -7.594221440106221
      ],
      [
        "▁kooku",
        -7.596204806189771
      ],
      [
        "▁su",
        -7.598539087989032
      ],
      [
        "▁D",
        -7.604797331849282
      ],
      [
        "quelle",
        -7.609482464426927
      ],
      [
        "▁toog",
        -7.612453309533025
      ],
      [
        "▁Que",
        -7.617128022445848
      ],
      [
        "▁L",
        -7.622024765657057
      ],
      [
        "▁Vous",
        -7.626219234102187
      ],
      [
        "▁tamit",
        -7.626460580841873
      ],
      [
        "▁quelqu'un",
        -7.6272817215752955
      ],
      [
        "▁Xale",
        -7.627307199083969
      ],
      [
        "▁Mais",
        -7.627577874080929
      ],
      [
        "▁wet",
        -7.6280247550258045
      ],
      [
        "▁sax",
        -7.629727659110445
      ],
      [
        "▁Na",
        -7.644483681692372
      ],
      [
        "▁chambre",
        -7.648289611028184
      ],
      [
        "▁personnes",
        -7.65157373532501
      ],
      [
        "voir",
        -7.658980949335895
      ],
      [
        "h",
        -7.660180770974415
      ],
      [
        "▁ya",
        -7.660355248352951
      ],
      [
        "▁nii",
        -7.661442378945953
      ],
      [
        "▁baax",
        -7.668403808685929
      ],
      [
        "▁d'",
        -7.672106021764786
      ],
      [
        "b",
        -7.6757406343417465
      ],
      [
        "est",
        -7.675881841115006
      ],
      [
        "r.",
        -7.679158772156473
      ],
      [
        "▁daal",
        -7.680216373562558
      ],
      [
        "▁ñuul",
        -7.683756166506397
      ],
      [
        "▁même",
        -7.68953372135096
      ],
      [
        "ma",
        -7.692669775317304
      ],
      [
        "▁fait",
        -7.701702216404712
      ],
      [
        "ul",
        -7.706232263085374
      ],
      [
        "que",
        -7.707113615333313
      ],
      [
        "uñu",
        -7.708888744148287
      ],
      [
        "di",
        -7.717600784125427
      ],
      [
        "▁coté",
        -7.7191091466637705
      ],
      [
        "▁Moo",
        -7.719316909910231
      ],
      [
        "▁dana",
        -7.719369653638168
      ],
      [
        "▁beaucoup",
        -7.719915333819779
      ],
      [
        "▁Daf",
        -7.721099647439438
      ],
      [
        "▁foofu",
        -7.722244850441298
      ],
      [
        "▁voit",
        -7.723828531016865
      ],
      [
        "▁Te",
        -7.724194426472765
      ],
      [
        "▁ont",
        -7.726508192097163
      ],
      [
        "▁fii",
        -7.732203570996199
      ],
      [
        "▁n'",
        -7.739741090361858
      ],
      [
        "▁s'",
        -7.744288760790653
      ],
      [
        "▁avait",
        -7.7567200591359535
      ],
      [
        "▁bunt",
        -7.763006620455056
      ],
      [
        "-là",
        -7.763938951016689
      ],
      [
        "c",
        -7.767031318331313
      ],
      [
        "▁Ndax",
        -7.769258812322694
      ],
      [
        "▁donné",
        -7.769298284931068
      ],
      [
        "▁quelque",
        -7.7715710652842045
      ],
      [
        "na",
        -7.772794574446374
      ],
      [
        "▁daa",
        -7.7761035936348994
      ],
      [
        "▁tou",
        -7.780027100103355
      ],
      [
        "▁autres",
        -7.788174107349706
      ],
      [
        "▁dañu",
        -7.7926682634393
      ],
      [
        "▁Ñu",
        -7.793273146369676
      ],
      [
        "ñu",
        -7.793387681434076
      ],
      [
        "▁posé",
        -7.795870262399113
      ],
      [
        "▁photo,",
        -7.7967704160393385
      ],
      [
        "▁quelle",
        -7.798259589960729
      ],
      [
        "▁passe",
        -7.800835533176098
      ],
      [
        "▁son",
        -7.803245574640716
      ],
      [
        "oi",
        -7.804834466404452
      ],
      [
        "ee",
        -7.811278498647828
      ],
      [
        "e.",
        -7.812799041644967
      ],
      [
        "▁peut",
        -7.813852466341335
      ],
      [
        "▁crois",
        -7.822252338822166
      ],
      [
        "▁ñépp",
        -7.822346771459589
      ],
      [
        "▁celui",
        -7.822432886336337
      ],
      [
        "▁Keneen",
        -7.822751058137367
      ],
      [
        "▁taxaw",
        -7.8230787296873
      ],
      [
        "▁f",
        -7.823684914538647
      ],
      [
        "▁soit",
        -7.828483858150781
      ],
      [
        "▁verre",
        -7.829826261784756
      ],
      [
        "▁Yaa",
        -7.834600958223051
      ],
      [
        "▁par",
        -7.8402142047265215
      ],
      [
        "▁femmes",
        -7.85042267170333
      ],
      [
        "▁Bëgg",
        -7.851357287266103
      ],
      [
        "▁dëkk",
        -7.857116169926452
      ],
      [
        "koon",
        -7.8575375122357105
      ],
      [
        "▁égaré",
        -7.859974187762596
      ],
      [
        "▁doŋŋ",
        -7.876763207784077
      ],
      [
        "▁Samba",
        -7.877096562345761
      ],
      [
        "▁aperç",
        -7.877254669534425
      ],
      [
        "▁ressemble",
        -7.877756121196388
      ],
      [
        "▁Mu",
        -7.888525548197787
      ],
      [
        "▁p",
        -7.888646108690144
      ],
      [
        "▁itam",
        -7.889212048513142
      ],
      [
        "tte",
        -7.893373493688191
      ],
      [
        "▁blanc",
        -7.9014958734763034
      ],
      [
        "▁rouge",
        -7.905362844148449
      ],
      [
        "▁poisson",
        -7.909605020580869
      ],
      [
        "▁kan",
        -7.910666638708705
      ],
      [
        "pp",
        -7.915061763432524
      ],
      [
        "▁Nou",
        -7.915282519173823
      ],
      [
        "▁m'a",
        -7.916402811038406
      ],
      [
        "▁blanche",
        -7.917732758577369
      ],
      [
        "ux",
        -7.919077959480722
      ],
      [
        "▁lion",
        -7.921467902488148
      ],
      [
        "▁Waa",
        -7.922408214668536
      ],
      [
        "▁dee",
        -7.923161609926982
      ],
      [
        "▁dul",
        -7.925675861657182
      ],
      [
        "▁ban",
        -7.9265523305032035
      ],
      [
        "ependant",
        -7.9279563294986275
      ],
      [
        "▁t",
        -7.928183106693348
      ],
      [
        ";",
        -7.930580244406044
      ],
      [
        "igéen",
        -7.93092715306597
      ],
      [
        "▁ai",
        -7.931250115828849
      ],
      [
        "ël",
        -7.932383548350677
      ],
      [
        "▁nous",
        -7.934450677050011
      ],
      [
        "▁jëm",
        -7.935385343533883
      ],
      [
        "▁suuf",
        -7.935898121474361
      ],
      [
        "as-tu",
        -7.936683932563291
      ],
      [
        "▁qu'elle",
        -7.938525214536411
      ],
      [
        "▁ndaw",
        -7.940845751610254
      ],
      [
        "▁rien",
        -7.943872934311573
      ],
      [
        "▁Seet",
        -7.949615780711207
      ],
      [
        "▁va",
        -7.95545469493905
      ],
      [
        "▁arbres",
        -7.957400907553735
      ],
      [
        "▁j",
        -7.962535312925151
      ],
      [
        "▁yooyu",
        -7.966574453384833
      ],
      [
        "▁l'",
        -7.967436670704962
      ],
      [
        "ir",
        -7.972129776241978
      ],
      [
        "▁P",
        -7.984703726938305
      ],
      [
        "▁lañ",
        -7.985510570107227
      ],
      [
        "▁lay",
        -7.98653586843777
      ],
      [
        "d",
        -7.988681962549515
      ],
      [
        "était",
        -7.989555264177655
      ],
      [
        "▁S",
        -7.9935267290936896
      ],
      [
        "▁parte",
        -7.996146743134729
      ],
      [
        "▁génn",
        -7.998058378535005
      ],
      [
        "▁<unk>",
        -7.998078576747213
      ],
      [
        "▁Naka",
        -7.998115594449745
      ],
      [
        "▁M",
        -7.998866052122399
      ],
      [
        "▁lequel",
        -7.999227333901082
      ],
      [
        "▁Laobe",
        -7.999464953399441
      ],
      [
        "▁vache",
        -7.999510670125126
      ],
      [
        "▁gaynde",
        -8.001702159311751
      ],
      [
        "▁demkoon",
        -8.002720310921958
      ],
      [
        "▁sorte",
        -8.003036080009892
      ],
      [
        "▁leur",
        -8.004763779214162
      ],
      [
        "ak",
        -8.008250339961995
      ],
      [
        "▁dénk",
        -8.008831118626489
      ],
      [
        "ale",
        -8.01928001998447
      ],
      [
        "▁nda",
        -8.023707705934786
      ],
      [
        "▁liggéey",
        -8.028930230166278
      ],
      [
        "▁pars",
        -8.029828035235115
      ],
      [
        "naa",
        -8.036557511519131
      ],
      [
        "▁li",
        -8.037079016136568
      ],
      [
        "▁yeneen",
        -8.03839669946898
      ],
      [
        "▁noir",
        -8.040446121994696
      ],
      [
        "▁waay",
        -8.041131766742424
      ],
      [
        "les",
        -8.047178035043952
      ],
      [
        "▁yor",
        -8.047375049279097
      ],
      [
        "▁peu",
        -8.048580394348358
      ],
      [
        "aw",
        -8.051219551198926
      ],
      [
        "▁Va",
        -8.057093369552458
      ],
      [
        ":",
        -8.059746911072724
      ],
      [
        "▁g",
        -8.06022451616709
      ],
      [
        "▁dugg",
        -8.060252410149388
      ],
      [
        "▁xonq",
        -8.06423264742185
      ],
      [
        "▁S'il",
        -8.064321136012065
      ],
      [
        "▁Aucun",
        -8.064568411192319
      ],
      [
        "▁Kooku",
        -8.064951132244476
      ],
      [
        "▁Celui-là",
        -8.065175657601698
      ],
      [
        "▁au-dessus",
        -8.065194122789881
      ],
      [
        "▁Ya",
        -8.06632796415736
      ],
      [
        "▁bois",
        -8.067606598937044
      ],
      [
        "▁ñan",
        -8.068359031923706
      ],
      [
        "▁ici",
        -8.068799893683543
      ],
      [
        "▁Yaw",
        -8.0712038693431
      ],
      [
        "▁J'",
        -8.073011300158022
      ],
      [
        "▁pa",
        -8.073769057937401
      ],
      [
        "▁doom",
        -8.074125836479622
      ],
      [
        "▁lal",
        -8.080847233571355
      ],
      [
        "▁mais",
        -8.08127125411081
      ],
      [
        "▁koo",
        -8.083376526876734
      ],
      [
        "▁ëe",
        -8.084211962555575
      ],
      [
        "tu",
        -8.08446973815322
      ],
      [
        "p",
        -8.087193372344856
      ],
      [
        "▁Xam",
        -8.090378419705665
      ],
      [
        "▁re",
        -8.092299710795444
      ],
      [
        "▁Li",
        -8.093373086334566
      ],
      [
        "vais",
        -8.09348369585199
      ],
      [
        "or",
        -8.093784412235498
      ],
      [
        "▁parles",
        -8.097129064001553
      ],
      [
        "ient",
        -8.115316778151836
      ],
      [
        "▁jolie",
        -8.118362562515376
      ],
      [
        "▁gii",
        -8.123881104055087
      ],
      [
        "▁B",
        -8.12442790403457
      ],
      [
        "être",
        -8.129128978192632
      ],
      [
        "▁Bu",
        -8.129496782151044
      ],
      [
        "▁v",
        -8.130104584571175
      ],
      [
        "ée",
        -8.132065242128968
      ],
      [
        "▁matin",
        -8.135833328887442
      ],
      [
        "▁simplement",
        -8.136477529635094
      ],
      [
        "▁seulement",
        -8.13658755809232
      ],
      [
        "▁quel",
        -8.136975756808111
      ],
      [
        "▁celui-ci",
        -8.137041836001414
      ],
      [
        "▁mépp",
        -8.13913137016991
      ],
      [
        "▁bañ",
        -8.141322348165492
      ],
      [
        "▁may",
        -8.141425846676979
      ],
      [
        "▁dame",
        -8.144251469870142
      ],
      [
        "lu",
        -8.145501313297988
      ],
      [
        "dax",
        -8.146262433932261
      ],
      [
        "▁faire",
        -8.148713861226746
      ],
      [
        "▁da",
        -8.150082741811342
      ],
      [
        "▁nee",
        -8.154278760450678
      ],
      [
        "▁Bi",
        -8.156788760274061
      ],
      [
        "ukaay",
        -8.15730377486685
      ],
      [
        "▁Ken",
        -8.159619555188137
      ],
      [
        "gi",
        -8.170978983313658
      ],
      [
        "▁wall",
        -8.175146769190569
      ],
      [
        "▁comme",
        -8.175495079007842
      ],
      [
        "▁bon",
        -8.176848196460474
      ],
      [
        "▁t'a",
        -8.17745616517708
      ],
      [
        "ag",
        -8.18902940661393
      ],
      [
        "ses",
        -8.191074874343391
      ],
      [
        "▁es",
        -8.196811229996813
      ],
      [
        "▁jeune",
        -8.197395440402936
      ],
      [
        "▁kii",
        -8.202596745457502
      ],
      [
        "▁sui",
        -8.2055314537754
      ],
      [
        "▁fas",
        -8.20985107104553
      ],
      [
        "▁paix",
        -8.212283891429276
      ],
      [
        "▁rek",
        -8.212370164626533
      ],
      [
        "▁trois",
        -8.212407593356154
      ],
      [
        "▁wirgo",
        -8.212452185835799
      ],
      [
        "porte",
        -8.213245469192522
      ],
      [
        "▁Yéen",
        -8.213428360177957
      ],
      [
        "▁jël",
        -8.213828562829647
      ],
      [
        "▁habits",
        -8.21505841075551
      ],
      [
        "▁vas-tu",
        -8.215170803003243
      ],
      [
        "▁bëggul",
        -8.215900193916667
      ],
      [
        "▁Y",
        -8.217313333544084
      ],
      [
        "▁Moom",
        -8.217813369424338
      ],
      [
        "ais",
        -8.218996052467952
      ],
      [
        "▁mon",
        -8.224031942703236
      ],
      [
        "óon",
        -8.22669677719992
      ],
      [
        "▁viendra",
        -8.22686002694347
      ],
      [
        "elle",
        -8.227351513169179
      ],
      [
        "▁gendarmes",
        -8.230396757250062
      ],
      [
        "▁fut",
        -8.231770235132245
      ],
      [
        "-ci",
        -8.233991676990136
      ],
      [
        "▁mag",
        -8.234711845835152
      ],
      [
        "▁xaw",
        -8.235713170763397
      ],
      [
        "▁café",
        -8.237132564916136
      ],
      [
        "▁ça",
        -8.23843578339844
      ],
      [
        "▁Ben",
        -8.240844117707677
      ],
      [
        "yan",
        -8.242642534824093
      ],
      [
        "ab",
        -8.243060281434966
      ],
      [
        "▁Mon",
        -8.248752574317603
      ],
      [
        "nt.",
        -8.249074807543055
      ],
      [
        "▁vo",
        -8.250052659471462
      ],
      [
        "▁sama",
        -8.251354438793188
      ],
      [
        "▁fille",
        -8.257570067238223
      ],
      [
        "▁ta",
        -8.259182584242843
      ],
      [
        "▁voir",
        -8.269597432767561
      ],
      [
        "ait",
        -8.269852799723012
      ],
      [
        "▁Ñoo",
        -8.273140862430818
      ],
      [
        "▁Man",
        -8.273445811461915
      ],
      [
        "▁ñ",
        -8.27498462164382
      ],
      [
        "▁vienne",
        -8.276909361819076
      ],
      [
        "▁w",
        -8.284276853602915
      ],
      [
        "▁ñuul.",
        -8.289421757711118
      ],
      [
        "▁Ku",
        -8.293532376202762
      ],
      [
        "▁trouve",
        -8.295094676963013
      ],
      [
        "▁encore",
        -8.29570453219625
      ],
      [
        "▁Waaye",
        -8.295732107742616
      ],
      [
        "▁Jaam",
        -8.29576261563278
      ],
      [
        "▁Cherche",
        -8.295875904388975
      ],
      [
        "▁théière",
        -8.295880100579105
      ],
      [
        "▁question",
        -8.296036255571838
      ],
      [
        "▁Jox",
        -8.29603816049202
      ],
      [
        "▁Ceux-là",
        -8.296096679638827
      ],
      [
        "▁Saint-Louis",
        -8.296270510067869
      ],
      [
        "▁debout",
        -8.296289218328175
      ],
      [
        "▁pays",
        -8.29696816642295
      ],
      [
        "▁Quelle",
        -8.297356793430648
      ],
      [
        "▁yónnee",
        -8.29770708978779
      ],
      [
        "▁Demal",
        -8.299132722332622
      ],
      [
        "▁Defe",
        -8.299650652824253
      ],
      [
        "▁biti",
        -8.299922408558679
      ],
      [
        "▁Ndar",
        -8.300886001438647
      ],
      [
        "▁yaw",
        -8.301478591482082
      ],
      [
        "▁envoyée",
        -8.307570639930187
      ],
      [
        "ul.",
        -8.3076137498883
      ],
      [
        "aada",
        -8.314670291136435
      ],
      [
        "ri",
        -8.31590143656294
      ],
      [
        "▁dal",
        -8.317498622211689
      ],
      [
        "▁assis",
        -8.323128577647463
      ],
      [
        "▁weer",
        -8.325076132752663
      ],
      [
        "▁dëkku",
        -8.326839686702975
      ],
      [
        "ngi",
        -8.327262181610397
      ],
      [
        "▁ŋgii",
        -8.33174017849019
      ],
      [
        "▁Wax",
        -8.33446360233298
      ],
      [
        "mi",
        -8.340268062736087
      ],
      [
        "ation",
        -8.340806311329787
      ],
      [
        "▁dox",
        -8.344293363049164
      ],
      [
        "▁defe",
        -8.346438174654573
      ],
      [
        "▁entre",
        -8.351256699107289
      ],
      [
        "▁Tout",
        -8.352951232248493
      ],
      [
        "▁conçue",
        -8.355798698903298
      ],
      [
        "▁R",
        -8.35596675769453
      ],
      [
        "enn",
        -8.358037750798218
      ],
      [
        "▁réew",
        -8.361376000298968
      ],
      [
        "▁T",
        -8.363218317319093
      ],
      [
        "▁yi.",
        -8.36526920778055
      ],
      [
        "▁wi",
        -8.366108660187887
      ],
      [
        "tes",
        -8.366161651144749
      ],
      [
        "près",
        -8.36880816537786
      ],
      [
        "kat",
        -8.375252360230537
      ],
      [
        "and",
        -8.380849998801136
      ],
      [
        "tre",
        -8.382456940946067
      ],
      [
        "gee",
        -8.383912171220608
      ],
      [
        "▁nul",
        -8.384566251178256
      ],
      [
        "▁séché",
        -8.386066065811386
      ],
      [
        "▁Homme",
        -8.386098633153592
      ],
      [
        "▁cheval",
        -8.38619259076398
      ],
      [
        "▁tabax",
        -8.38630815241967
      ],
      [
        "▁tudd",
        -8.386309540580076
      ],
      [
        "▁Moussa",
        -8.386311158166194
      ],
      [
        "▁Xammee",
        -8.386316787423599
      ],
      [
        "▁manière",
        -8.387081192644164
      ],
      [
        "▁toogukaay",
        -8.387229754875392
      ],
      [
        "▁Qu'il",
        -8.387262998144436
      ],
      [
        "▁gën",
        -8.389286083517982
      ],
      [
        "▁ñett",
        -8.389758895177167
      ],
      [
        "▁noonu",
        -8.390451020674007
      ],
      [
        "uma",
        -8.390732019132656
      ],
      [
        "▁portent",
        -8.392055565066814
      ],
      [
        "▁kow",
        -8.392295934923725
      ],
      [
        "f",
        -8.396815865351428
      ],
      [
        "▁bind",
        -8.3974928441968
      ],
      [
        "▁nañ",
        -8.398304571022207
      ],
      [
        "▁takk-der",
        -8.4013933669242
      ],
      [
        "▁aujourd'hui",
        -8.402807541803778
      ],
      [
        "▁N",
        -8.402839453920413
      ],
      [
        "▁W",
        -8.404577497879227
      ],
      [
        "▁partira",
        -8.40793901203413
      ],
      [
        "▁couleurs",
        -8.408670319748117
      ],
      [
        "▁Là",
        -8.408699491266244
      ],
      [
        "▁serai",
        -8.412750435844188
      ],
      [
        "▁xamant",
        -8.4149015155317
      ],
      [
        "▁égarée",
        -8.415404057282675
      ],
      [
        "▁An",
        -8.415798037607502
      ],
      [
        "▁bare",
        -8.416941387458188
      ],
      [
        "baar",
        -8.417834174827084
      ],
      [
        "▁tay",
        -8.418553129681046
      ],
      [
        "▁ga",
        -8.419962675061813
      ],
      [
        "se",
        -8.421541313345632
      ],
      [
        "▁aller",
        -8.423470125767983
      ],
      [
        "▁me",
        -8.425868295604218
      ],
      [
        "▁cela",
        -8.428925848129097
      ],
      [
        "▁ira",
        -8.432343516635928
      ],
      [
        "geen",
        -8.441352629425225
      ],
      [
        "ou",
        -8.441862946789136
      ],
      [
        "réer",
        -8.442523429768105
      ],
      [
        "▁ré",
        -8.44490163318643
      ],
      [
        "▁partis",
        -8.447132354372949
      ],
      [
        "▁portes",
        -8.454857205287007
      ],
      [
        "een",
        -8.457346178563329
      ],
      [
        "▁Di",
        -8.469639956566994
      ],
      [
        "▁arrivé",
        -8.471720843101554
      ],
      [
        "ces",
        -8.477429734266108
      ],
      [
        "▁U2",
        -8.482358257646307
      ],
      [
        "atim",
        -8.482786038728495
      ],
      [
        "▁Koo",
        -8.483149903075358
      ],
      [
        "▁Sa",
        -8.484353037525597
      ],
      [
        "▁subë",
        -8.48554270603127
      ],
      [
        "▁vrai",
        -8.48567762306428
      ],
      [
        "▁sucre",
        -8.48575400977963
      ],
      [
        "▁Alors",
        -8.48579339802476
      ],
      [
        "▁Lawbe",
        -8.485889757401642
      ],
      [
        "▁garçon",
        -8.485960246028883
      ],
      [
        "▁palais",
        -8.485996077209155
      ],
      [
        "▁milieu",
        -8.486206171540546
      ],
      [
        "▁d'Europe",
        -8.48623316025176
      ],
      [
        "▁Fatim",
        -8.486260260316506
      ],
      [
        "▁reste",
        -8.486277703310629
      ],
      [
        "▁allé",
        -8.487122830024227
      ],
      [
        "▁Ñii",
        -8.487881609706971
      ],
      [
        "▁Elle",
        -8.488329319886219
      ],
      [
        "▁endroit",
        -8.490246024832778
      ],
      [
        "▁Boo",
        -8.492463747206319
      ],
      [
        "▁n'ai",
        -8.492879830775355
      ],
      [
        "▁jo",
        -8.493710127941625
      ],
      [
        "▁beneen",
        -8.496185793616585
      ],
      [
        "▁Cela",
        -8.497656117088813
      ],
      [
        "▁Bon",
        -8.498364219167897
      ],
      [
        "▁boobu",
        -8.498556197875367
      ],
      [
        "▁contre",
        -8.499043857429827
      ],
      [
        "▁eux",
        -8.500840060679629
      ],
      [
        "-tu",
        -8.501319350511515
      ],
      [
        "▁Voil",
        -8.501471314943936
      ],
      [
        "▁Par",
        -8.502970351364517
      ],
      [
        "'habitude",
        -8.5030086940326
      ],
      [
        "▁ànd",
        -8.505118507456768
      ],
      [
        "▁pri",
        -8.505531379405614
      ],
      [
        "▁ceux",
        -8.505901383855434
      ],
      [
        "▁Me",
        -8.50766758235574
      ],
      [
        "▁vas",
        -8.509680888203025
      ],
      [
        "in",
        -8.511577257422896
      ],
      [
        "▁l'un",
        -8.51394057355595
      ],
      [
        "▁ju",
        -8.514328088175748
      ],
      [
        "▁buntu",
        -8.51517570365047
      ],
      [
        "ki",
        -8.515176335269683
      ],
      [
        "▁partes",
        -8.518328151217741
      ],
      [
        "▁lan",
        -8.520931080282388
      ],
      [
        "▁port",
        -8.521334611603768
      ],
      [
        "▁ñëwul",
        -8.521665652557267
      ],
      [
        "▁vient",
        -8.526054756695046
      ],
      [
        "▁jan",
        -8.53093064366825
      ],
      [
        "ils",
        -8.531611282851472
      ],
      [
        "▁Doo",
        -8.532093963183737
      ],
      [
        "z",
        -8.534547472024517
      ],
      [
        "▁bar",
        -8.53728395826133
      ],
      [
        "▁K",
        -8.54656148670065
      ],
      [
        "▁blancs",
        -8.547827315961966
      ],
      [
        "▁Ra",
        -8.552468432464
      ],
      [
        "▁lit",
        -8.55483545448769
      ],
      [
        "▁tax",
        -8.555583885630778
      ],
      [
        "▁yaa",
        -8.55673783442657
      ],
      [
        "▁nu",
        -8.56071681590206
      ],
      [
        "ées",
        -8.56187699381298
      ],
      [
        "leen",
        -8.562617204555677
      ],
      [
        "àll",
        -8.563609301539131
      ],
      [
        "▁loolu",
        -8.572649845391274
      ],
      [
        "ai",
        -8.586966020051328
      ],
      [
        "▁woo",
        -8.591733232820664
      ],
      [
        "▁mo",
        -8.593059240003281
      ],
      [
        "▁Woo",
        -8.594731821359963
      ],
      [
        "pendant",
        -8.595754638015277
      ],
      [
        "▁Mbaa",
        -8.59626670937477
      ],
      [
        "▁acheté",
        -8.596677912926229
      ],
      [
        "▁Sérère",
        -8.59669222036449
      ],
      [
        "▁chevaux",
        -8.59681969810164
      ],
      [
        "▁wër",
        -8.596841200870436
      ],
      [
        "▁morceau",
        -8.596849162614173
      ],
      [
        "▁jaŋg",
        -8.597214588553186
      ],
      [
        "▁mère",
        -8.597600078613425
      ],
      [
        "▁Ne",
        -8.597718598918673
      ],
      [
        "▁Musaa",
        -8.598173089955644
      ],
      [
        "▁it",
        -8.59857649433919
      ],
      [
        "▁Loolu",
        -8.598995369549424
      ],
      [
        "▁fils",
        -8.599359770323606
      ],
      [
        "▁devant",
        -8.600526270831509
      ],
      [
        "▁s'en",
        -8.600621068377219
      ],
      [
        "st-ce",
        -8.600937661671148
      ],
      [
        "▁bépp",
        -8.601586985518058
      ],
      [
        "▁ŋgoon",
        -8.601822929510188
      ],
      [
        "▁téer",
        -8.604814097328891
      ],
      [
        "▁Tay",
        -8.604840561916742
      ],
      [
        "▁Loo",
        -8.607102991166375
      ],
      [
        "▁mis",
        -8.607218872604204
      ],
      [
        "est-ce",
        -8.612588702872337
      ],
      [
        "▁connais",
        -8.617850292615962
      ],
      [
        "▁elle",
        -8.619295747886419
      ],
      [
        "▁ceci",
        -8.623215730393909
      ],
      [
        "ère",
        -8.623964863143467
      ],
      [
        "▁viennes",
        -8.62558599539622
      ],
      [
        "▁dé",
        -8.629512102900025
      ],
      [
        "▁lanu",
        -8.634601427588485
      ],
      [
        "▁Tou",
        -8.635458381469268
      ],
      [
        "'était",
        -8.636638357649248
      ],
      [
        "fin",
        -8.639773918206277
      ],
      [
        "▁May",
        -8.643712550776279
      ],
      [
        "▁Fan",
        -8.645046751660113
      ],
      [
        "▁L'",
        -8.645085284702478
      ],
      [
        "▁Lu",
        -8.646956957045095
      ],
      [
        "▁bula",
        -8.648661661789415
      ],
      [
        "ce",
        -8.651349758022402
      ],
      [
        "waay",
        -8.658302951680653
      ],
      [
        "▁bes",
        -8.658975023352921
      ],
      [
        "▁no",
        -8.659716920617278
      ],
      [
        "ppelle",
        -8.660493540355304
      ],
      [
        "▁com",
        -8.660828854883615
      ],
      [
        "▁montre",
        -8.661078534963455
      ],
      [
        "▁seet",
        -8.664744534634051
      ],
      [
        "▁don",
        -8.667651299184303
      ],
      [
        "ions",
        -8.6772847427724
      ],
      [
        "▁travail",
        -8.68225729707612
      ],
      [
        "▁eû",
        -8.687123336074878
      ],
      [
        "▁jii",
        -8.693178801800205
      ],
      [
        "j",
        -8.693447542834857
      ],
      [
        "▁av",
        -8.696059222010884
      ],
      [
        "rait",
        -8.696954793819295
      ],
      [
        "eer",
        -8.697358117656503
      ],
      [
        "▁defar",
        -8.70492105723355
      ],
      [
        "▁enfant",
        -8.708644064650821
      ],
      [
        "▁Ñ",
        -8.709623636014669
      ],
      [
        "▁seul",
        -8.714643373794742
      ],
      [
        "▁avais",
        -8.71593331802899
      ],
      [
        "iez",
        -8.71718966901829
      ],
      [
        "moi",
        -8.718270825840069
      ],
      [
        "▁Sénégal",
        -8.718406249968458
      ],
      [
        "as",
        -8.718442147890025
      ],
      [
        "▁ràbb",
        -8.71845554856324
      ],
      [
        "▁route",
        -8.718480843185883
      ],
      [
        "▁ainsi",
        -8.718526635122737
      ],
      [
        "▁entier",
        -8.71861379665127
      ],
      [
        "nga",
        -8.719025201032833
      ],
      [
        "▁Laobé",
        -8.719167756038463
      ],
      [
        "▁wanag",
        -8.719435595898876
      ],
      [
        "▁Senegaal",
        -8.721484869723973
      ],
      [
        "▁assurément",
        -8.721636291385387
      ],
      [
        "▁pourtant",
        -8.722184542893451
      ],
      [
        "ier",
        -8.723614601829421
      ],
      [
        "▁pierres",
        -8.72367471842964
      ],
      [
        "▁lieu",
        -8.725495825845865
      ],
      [
        "ur",
        -8.725518930678897
      ],
      [
        "▁Kookule",
        -8.72564397003786
      ],
      [
        "ë",
        -8.725838381827359
      ],
      [
        "▁sortir",
        -8.7265250910005
      ],
      [
        "▁pou",
        -8.728048992422757
      ],
      [
        "▁so",
        -8.728531381412637
      ],
      [
        "▁Toi",
        -8.728675620903639
      ],
      [
        "▁gejje",
        -8.728849134286952
      ],
      [
        "▁V",
        -8.72903851153242
      ],
      [
        "▁Wu",
        -8.729487092075404
      ],
      [
        "▁Noonu",
        -8.731603497952332
      ],
      [
        "▁caus",
        -8.733120311783647
      ],
      [
        "ra",
        -8.734483651241773
      ],
      [
        "parlé",
        -8.734542459624468
      ],
      [
        "▁tali",
        -8.737915641956874
      ],
      [
        "gal",
        -8.744770492906271
      ],
      [
        "▁s'agi",
        -8.746969914181534
      ],
      [
        "v",
        -8.747108250498284
      ],
      [
        "▁Vas",
        -8.750168063956561
      ],
      [
        "▁bëggée",
        -8.751679813887021
      ],
      [
        "▁daan",
        -8.752042375827745
      ],
      [
        "an",
        -8.752558073737164
      ],
      [
        "▁t'ai",
        -8.75754419870369
      ],
      [
        "ar",
        -8.760710423388895
      ],
      [
        "▁Noon",
        -8.768450771702216
      ],
      [
        "▁wara",
        -8.770101762087767
      ],
      [
        "ŋga",
        -8.774171001493364
      ],
      [
        "▁cherche",
        -8.778426420485616
      ],
      [
        "▁gen",
        -8.785220800102664
      ],
      [
        "vous",
        -8.790961511594697
      ],
      [
        "▁table",
        -8.791981255831145
      ],
      [
        "es.",
        -8.797393588269031
      ],
      [
        "▁nak",
        -8.805038620977202
      ],
      [
        "▁Ki",
        -8.805418421157304
      ],
      [
        "▁wa",
        -8.806184769173122
      ],
      [
        "garde",
        -8.80760503312358
      ],
      [
        "▁ñen",
        -8.81067348424647
      ],
      [
        "▁petit",
        -8.81285964925975
      ],
      [
        "▁l'ai",
        -8.813954144963013
      ],
      [
        "▁kaa",
        -8.81459436266756
      ],
      [
        "sieur",
        -8.815543359450992
      ],
      [
        "▁toute",
        -8.818207561245757
      ],
      [
        "▁sorti",
        -8.819323047546579
      ],
      [
        "▁Ca",
        -8.819965411053714
      ],
      [
        "▁sokolaa",
        -8.822937065355346
      ],
      [
        "▁yoon",
        -8.823404712555762
      ],
      [
        "quel",
        -8.823881857931193
      ],
      [
        "▁appelle",
        -8.830791346170539
      ],
      [
        "G",
        -8.831674602160902
      ],
      [
        "▁në",
        -8.832669146076503
      ],
      [
        "▁arbre",
        -8.841582467051271
      ],
      [
        "▁X",
        -8.842690098270346
      ],
      [
        "▁peut-",
        -8.847139745769544
      ],
      [
        "▁drap",
        -8.85431580573298
      ],
      [
        "ñeen",
        -8.860976834007067
      ],
      [
        "▁case",
        -8.861290159532262
      ],
      [
        "▁bâtiment",
        -8.861309237829188
      ],
      [
        "▁complète",
        -8.861309245063108
      ],
      [
        "▁Casamance",
        -8.861309246764305
      ],
      [
        "▁yeksi",
        -8.861310806307383
      ],
      [
        "▁Ainsi",
        -8.861315117012884
      ],
      [
        "▁boeuf",
        -8.86131944616541
      ],
      [
        "▁Deŋk",
        -8.861348332946374
      ],
      [
        "▁l'enfant",
        -8.861355347111985
      ],
      [
        "▁Palais",
        -8.861399381762784
      ],
      [
        "▁togg",
        -8.861448647820893
      ],
      [
        "▁pañe",
        -8.861460706577574
      ],
      [
        "▁dellusi",
        -8.8616692785873
      ],
      [
        "▁êtes",
        -8.861789815637389
      ],
      [
        "▁yére",
        -8.861819644563028
      ],
      [
        "▁jën",
        -8.861933212903981
      ],
      [
        "▁ndox",
        -8.861987107493805
      ],
      [
        "▁moto",
        -8.86220974823128
      ],
      [
        "▁xeer",
        -8.862261078302705
      ],
      [
        "▁tày",
        -8.86239587566332
      ],
      [
        "▁salle",
        -8.862470114008227
      ],
      [
        "▁Ici",
        -8.863223172971304
      ],
      [
        "▁Dama",
        -8.863353402198198
      ],
      [
        "▁dirait",
        -8.863631080703877
      ],
      [
        "▁mains",
        -8.863836783574463
      ],
      [
        "▁fépp",
        -8.864114940506521
      ],
      [
        "▁kanam",
        -8.86435807163644
      ],
      [
        "▁Parle",
        -8.864482248908887
      ],
      [
        "▁tàll",
        -8.864702522017678
      ],
      [
        "▁Bunt",
        -8.864717523501938
      ],
      [
        "▁ville",
        -8.864734891088494
      ],
      [
        "▁regardes",
        -8.865161820192707
      ],
      [
        "▁derrière",
        -8.865733354731175
      ],
      [
        "▁Foofu",
        -8.867780666336945
      ],
      [
        "au",
        -8.868063691704137
      ],
      [
        "▁Më",
        -8.870811078162266
      ],
      [
        "▁neex",
        -8.871905228784025
      ],
      [
        "▁chez",
        -8.872366468867732
      ],
      [
        "▁con",
        -8.872954829879586
      ],
      [
        "▁bol",
        -8.872995509264724
      ],
      [
        "▁jaune",
        -8.874849541266999
      ],
      [
        "-t-il",
        -8.875506861506132
      ],
      [
        "▁dessus",
        -8.87734598182361
      ],
      [
        "▁soir",
        -8.878275420111816
      ],
      [
        "▁fleurs",
        -8.878929371347919
      ],
      [
        "▁yee",
        -8.879683219817457
      ],
      [
        "▁dessin",
        -8.88135570262968
      ],
      [
        "▁na.",
        -8.883106862762283
      ],
      [
        "▁t'en",
        -8.883199326397452
      ],
      [
        "▁arrivés",
        -8.883504030599322
      ],
      [
        "▁L'un",
        -8.883795557274281
      ],
      [
        "ax",
        -8.885004719942827
      ],
      [
        "▁ñooñu",
        -8.88648027483026
      ],
      [
        "▁wane",
        -8.886880276678722
      ],
      [
        "▁chaise",
        -8.887638109589515
      ],
      [
        "▁noire.",
        -8.888256643791825
      ],
      [
        "▁demande",
        -8.898565197224816
      ],
      [
        "▁allai",
        -8.904991420192225
      ],
      [
        "individu",
        -8.907164699599328
      ],
      [
        "▁jox",
        -8.908337315636661
      ],
      [
        "▁wan",
        -8.908601651839824
      ],
      [
        "▁fois",
        -8.910341550854397
      ],
      [
        "▁jooju",
        -8.910893679989488
      ],
      [
        "▁parler",
        -8.911607100313306
      ],
      [
        "▁haute",
        -8.914798064110983
      ],
      [
        "▁leneen",
        -8.920248596184274
      ],
      [
        "tient",
        -8.921286017729486
      ],
      [
        "▁wu",
        -8.923688872649496
      ],
      [
        "▁Yo",
        -8.924091084619885
      ],
      [
        "kk",
        -8.92517156603652
      ],
      [
        "▁met",
        -8.926061212446628
      ],
      [
        "▁gan",
        -8.928116435707988
      ],
      [
        "▁père",
        -8.937876385705605
      ],
      [
        "▁juróom",
        -8.943801875869184
      ],
      [
        "▁bool",
        -8.945359557622456
      ],
      [
        "ion",
        -8.945449804593471
      ],
      [
        "▁n'avai",
        -8.945917696965463
      ],
      [
        "ît",
        -8.946654288351112
      ],
      [
        "▁mii",
        -8.94708940155522
      ],
      [
        "▁beau",
        -8.947623695961422
      ],
      [
        "▁jam",
        -8.951276734171403
      ],
      [
        "▁më",
        -8.951807955229466
      ],
      [
        "ons",
        -8.962038517215317
      ],
      [
        "ous",
        -8.962539928518536
      ],
      [
        "▁noirs",
        -8.9656057387107
      ],
      [
        "e,",
        -8.965741486710732
      ],
      [
        "▁haut",
        -8.968362492567246
      ],
      [
        "▁ñooña",
        -8.969807232181163
      ],
      [
        "▁ja",
        -8.972152678262429
      ],
      [
        "ance",
        -8.97314498148913
      ],
      [
        "ien",
        -8.97641920607662
      ],
      [
        "bi",
        -8.977363054629432
      ],
      [
        "▁ton",
        -8.980405322371482
      ],
      [
        "▁Mang",
        -8.983190916730662
      ],
      [
        "▁Ñe",
        -8.98354471604608
      ],
      [
        "▁Daŋg",
        -8.988600182365797
      ],
      [
        "ñii",
        -8.98907214012783
      ],
      [
        "▁Ta",
        -8.991621822874794
      ],
      [
        "▁alla",
        -8.991730421318119
      ],
      [
        "▁regard",
        -8.996965225038025
      ],
      [
        "éel",
        -8.999782310652101
      ],
      [
        "▁Moi",
        -9.008793267016902
      ],
      [
        "▁garde",
        -9.009785699865546
      ],
      [
        "▁enfant-",
        -9.013096973510704
      ],
      [
        "▁Ceux",
        -9.016610612152052
      ],
      [
        "ŋ",
        -9.018526984251462
      ],
      [
        "ëf",
        -9.020224176495935
      ],
      [
        "▁ginnaaw",
        -9.024584400337204
      ],
      [
        "▁Jam",
        -9.026939597906733
      ],
      [
        "▁Aujourd'hui",
        -9.027975904354463
      ],
      [
        "▁d'esprit",
        -9.027975904865677
      ],
      [
        "▁calebasse",
        -9.027975906742615
      ],
      [
        "▁croyai",
        -9.027976651157328
      ],
      [
        "▁Force",
        -9.027976979447024
      ],
      [
        "▁Waxtaan",
        -9.027977962286212
      ],
      [
        "▁tëdd",
        -9.027980010604631
      ],
      [
        "▁veulent",
        -9.027982686056635
      ],
      [
        "▁L'enfant",
        -9.02799506211869
      ],
      [
        "▁Wolof",
        -9.02799523057001
      ],
      [
        "▁suukër",
        -9.028009210988545
      ],
      [
        "▁njiit",
        -9.028028835118135
      ],
      [
        "▁peinture",
        -9.028044609798574
      ],
      [
        "▁Génn",
        -9.028092221415065
      ],
      [
        "▁chocolatée",
        -9.028205237123792
      ],
      [
        "▁tuuti",
        -9.028302090235847
      ],
      [
        "▁tasse",
        -9.028381074071977
      ],
      [
        "▁takk",
        -9.028400090843423
      ],
      [
        "▁bërëb",
        -9.028464709645297
      ],
      [
        "▁gris",
        -9.028552376304152
      ],
      [
        "▁fowu",
        -9.02863067198011
      ],
      [
        "▁sais",
        -9.028714526613701
      ],
      [
        "▁couteau",
        -9.028736853492003
      ],
      [
        "▁Tugël",
        -9.028776886216358
      ],
      [
        "bu",
        -9.029029704256885
      ],
      [
        "▁Donne",
        -9.029135429678007
      ],
      [
        "▁bopp",
        -9.029470098946641
      ],
      [
        "▁doonkoon",
        -9.029538902785749
      ],
      [
        "▁topp",
        -9.029691981238416
      ],
      [
        "▁Jënd",
        -9.030135998285264
      ],
      [
        "▁wépp",
        -9.030195735589245
      ],
      [
        "▁feeñ",
        -9.030531571382724
      ],
      [
        "▁lëf",
        -9.031175544568953
      ],
      [
        "▁taaru",
        -9.031395243725154
      ],
      [
        "▁jaar",
        -9.031596236623932
      ],
      [
        "▁autre-là",
        -9.032032409974411
      ],
      [
        "▁jënd",
        -9.03284818387724
      ],
      [
        "▁dàll",
        -9.032986084234384
      ],
      [
        "▁ng",
        -9.034663915098143
      ],
      [
        "▁bokk",
        -9.036601369849196
      ],
      [
        "▁digg",
        -9.037494365548028
      ],
      [
        "▁d'autre",
        -9.039265479038448
      ],
      [
        "▁baxa",
        -9.039534346748008
      ],
      [
        "▁feneen",
        -9.039776881879424
      ],
      [
        "▁Car",
        -9.040575853672696
      ],
      [
        "▁herbes",
        -9.041320743222954
      ],
      [
        "▁retraite",
        -9.042917847396307
      ],
      [
        "▁ñaan",
        -9.043680729682146
      ],
      [
        "▁bekk",
        -9.04428539663407
      ],
      [
        "▁kaas",
        -9.046708602919551
      ],
      [
        "▁Men",
        -9.046924516965692
      ],
      [
        "mu",
        -9.047233690708152
      ],
      [
        "▁sain",
        -9.048076618302735
      ],
      [
        "▁étai",
        -9.051777820386821
      ],
      [
        "▁Nda",
        -9.052515326360618
      ],
      [
        "▁refuse",
        -9.055135553792676
      ],
      [
        "▁ñaxtu",
        -9.060087642058647
      ],
      [
        "▁Dana",
        -9.060687447238656
      ],
      [
        "vent",
        -9.061838558900082
      ],
      [
        "▁pro",
        -9.062485090524241
      ],
      [
        "oroom",
        -9.06264293018261
      ],
      [
        "▁marche",
        -9.062653757154418
      ],
      [
        "ge",
        -9.064588562987844
      ],
      [
        "óo",
        -9.064700813565045
      ],
      [
        "▁daw",
        -9.06606136100827
      ],
      [
        "▁souhaite",
        -9.0665220530941
      ],
      [
        "▁Dan",
        -9.070594161529474
      ],
      [
        "▁sokolaa.",
        -9.075266898833146
      ],
      [
        "▁Bar",
        -9.077024809809865
      ],
      [
        "i.",
        -9.077069187352636
      ],
      [
        "garder",
        -9.077488778595647
      ],
      [
        "uite",
        -9.078372511784139
      ],
      [
        "▁Dis",
        -9.080335792132981
      ],
      [
        "▁set",
        -9.083087660631982
      ],
      [
        "▁alal",
        -9.089489595791177
      ],
      [
        "-y",
        -9.090891639415435
      ],
      [
        "▁cases",
        -9.091014665854644
      ],
      [
        "qu",
        -9.092742278574057
      ],
      [
        "▁bleu",
        -9.093651361257164
      ],
      [
        "connais",
        -9.09391809537642
      ],
      [
        "▁veni",
        -9.09749863574709
      ],
      [
        "▁do",
        -9.099433690789787
      ],
      [
        "ni",
        -9.109258432190483
      ],
      [
        "éer",
        -9.110740281773467
      ],
      [
        "▁tey",
        -9.110985381001251
      ],
      [
        "▁Com",
        -9.11133187739821
      ],
      [
        "▁co",
        -9.1120587385094
      ],
      [
        "▁gaa",
        -9.112354395876622
      ],
      [
        "▁amen",
        -9.116597373214578
      ],
      [
        "▁aurai",
        -9.125284554779219
      ],
      [
        "où",
        -9.131549625821798
      ],
      [
        "▁Qu",
        -9.132757581304157
      ],
      [
        "ici",
        -9.134779512309416
      ],
      [
        "▁t'",
        -9.135333455784677
      ],
      [
        "▁Wa",
        -9.13591853588971
      ],
      [
        "▁aux",
        -9.13786628075068
      ],
      [
        "▁quelles",
        -9.139562139133627
      ],
      [
        "▁bant",
        -9.143202469743551
      ],
      [
        "bër",
        -9.143888067893302
      ],
      [
        "▁dire",
        -9.14556191955462
      ],
      [
        "▁car",
        -9.152160853275705
      ],
      [
        "ore",
        -9.153119270474372
      ],
      [
        "aay",
        -9.156425017753039
      ],
      [
        "lal",
        -9.156698302496945
      ],
      [
        "▁viens",
        -9.156812093698573
      ],
      [
        "si",
        -9.15960088130781
      ],
      [
        "▁yër",
        -9.161556723404285
      ],
      [
        "▁jooj",
        -9.164769107657346
      ],
      [
        "rain",
        -9.167267509710552
      ],
      [
        "▁individu",
        -9.169175082025225
      ],
      [
        "▁Fi",
        -9.17030369982223
      ],
      [
        "▁bë",
        -9.171692874815482
      ],
      [
        "▁Re",
        -9.172293354895912
      ],
      [
        "boo",
        -9.176047995582868
      ],
      [
        "tour",
        -9.1762357109626
      ],
      [
        "▁joli",
        -9.18195789025415
      ],
      [
        "▁ñe",
        -9.182081104291358
      ],
      [
        "ain",
        -9.182158878364408
      ],
      [
        "▁ven",
        -9.183107992147473
      ],
      [
        "▁cuisine",
        -9.185549171068828
      ],
      [
        "▁moomu",
        -9.185576392731496
      ],
      [
        "aan",
        -9.189994156828764
      ],
      [
        "ko",
        -9.191849963285733
      ],
      [
        "ral",
        -9.19758744229711
      ],
      [
        "▁Ka",
        -9.202325482140003
      ],
      [
        "ool",
        -9.202793198286551
      ],
      [
        "▁ans",
        -9.20302702949693
      ],
      [
        "▁defare",
        -9.205117540570305
      ],
      [
        "▁elles",
        -9.20794228278331
      ],
      [
        "▁livre",
        -9.212229647179655
      ],
      [
        "▁e",
        -9.22224834295955
      ],
      [
        "▁vers",
        -9.223342886703524
      ],
      [
        "▁loxo",
        -9.227875401977608
      ],
      [
        "Ç",
        -9.227975904354464
      ],
      [
        "▁bûcheron",
        -9.227975904411412
      ],
      [
        "▁auparavant",
        -9.227975904583088
      ],
      [
        "▁chaussures",
        -9.227975904616205
      ],
      [
        "▁forêt",
        -9.227975905076946
      ],
      [
        "▁ustensile",
        -9.227975905414299
      ],
      [
        "▁mosquée",
        -9.227975919064999
      ],
      [
        "▁pantalon",
        -9.227976148878076
      ],
      [
        "▁domaine",
        -9.227976150025869
      ],
      [
        "▁dehors",
        -9.227976852522058
      ],
      [
        "▁fortune",
        -9.227976892021346
      ],
      [
        "▁chapeau",
        -9.227977858090807
      ],
      [
        "▁maître",
        -9.227978137413526
      ],
      [
        "▁construction",
        -9.227978413030488
      ],
      [
        "▁xaalis",
        -9.227979246829182
      ],
      [
        "▁Moontin",
        -9.227979928640863
      ],
      [
        "▁magasin",
        -9.227986222834115
      ],
      [
        "▁xayma",
        -9.227988358740294
      ],
      [
        "▁jàkka",
        -9.22799003378091
      ],
      [
        "▁gannaaw",
        -9.227996813955288
      ],
      [
        "▁mbokk",
        -9.228006953787837
      ],
      [
        "▁champ",
        -9.228007302100174
      ],
      [
        "▁travers",
        -9.228010413588448
      ],
      [
        "▁Salut",
        -9.228028205059141
      ],
      [
        "▁këll",
        -9.228050080463593
      ],
      [
        "▁dirigeant",
        -9.228051008735411
      ],
      [
        "▁gentil",
        -9.228055880643309
      ],
      [
        "▁vieille",
        -9.22806598252824
      ],
      [
        "▁courage",
        -9.228093047654966
      ],
      [
        "▁chef",
        -9.228132282010582
      ],
      [
        "▁xëcc",
        -9.228139107909474
      ],
      [
        "▁palaat",
        -9.22814067359715
      ],
      [
        "▁tànk",
        -9.228142656013263
      ],
      [
        "▁large",
        -9.2281661296694
      ],
      [
        "▁jàppukaay",
        -9.228228037037228
      ],
      [
        "▁puj",
        -9.228228367444258
      ],
      [
        "▁jëfandikoo",
        -9.228232296481377
      ],
      [
        "▁màgg",
        -9.228234185863473
      ],
      [
        "▁parole",
        -9.228298365641752
      ],
      [
        "▁l'eau",
        -9.228301339257847
      ],
      [
        "▁grand",
        -9.228478504017275
      ],
      [
        "▁revienne",
        -9.228500751707173
      ],
      [
        "▁yéeg",
        -9.228552832331385
      ],
      [
        "▁travailleurs",
        -9.228875442455571
      ],
      [
        "▁Dañu",
        -9.229143513778325
      ],
      [
        "▁dëgg",
        -9.229219060197929
      ],
      [
        "▁kookee",
        -9.229394307866148
      ],
      [
        "▁unique",
        -9.229499902941985
      ],
      [
        "▁faut",
        -9.229532289592306
      ],
      [
        "▁ŋgoogule",
        -9.229627129620184
      ],
      [
        "▁gudd",
        -9.229887440048344
      ],
      [
        "▁plac",
        -9.230026919592833
      ],
      [
        "▁accepte",
        -9.230097634225933
      ],
      [
        "▁bomb",
        -9.230228534363114
      ],
      [
        "▁four",
        -9.230249481730649
      ],
      [
        "▁rencontrer",
        -9.230499246124532
      ],
      [
        "▁surtout",
        -9.23066264710707
      ],
      [
        "▁Néeg",
        -9.230737173201138
      ],
      [
        "▁donc",
        -9.231513082145712
      ],
      [
        "▁nuit",
        -9.232148290397753
      ],
      [
        "▁bâtons",
        -9.23258069159387
      ],
      [
        "▁viennent",
        -9.232798788968786
      ],
      [
        "▁Foo",
        -9.23290665839468
      ],
      [
        "▁kafe",
        -9.233051499188793
      ],
      [
        "googule",
        -9.233140800440475
      ],
      [
        "▁tub",
        -9.233170613833375
      ],
      [
        "▁yëf",
        -9.233412370528963
      ],
      [
        "▁xoolee",
        -9.233961897904278
      ],
      [
        "▁See",
        -9.234229155199476
      ],
      [
        "▁reconnu",
        -9.234272459675305
      ],
      [
        "▁c'était",
        -9.234675803819233
      ],
      [
        "▁jaam",
        -9.235984973441964
      ],
      [
        "▁jar",
        -9.236547325299643
      ],
      [
        "▁dessiné",
        -9.237005592974649
      ],
      [
        "▁l'entoure",
        -9.237227301239045
      ],
      [
        "▁comprend",
        -9.238464505606252
      ],
      [
        "▁n'étai",
        -9.238578711853737
      ],
      [
        "▁fenn",
        -9.239148052626103
      ],
      [
        "rends",
        -9.239487096314694
      ],
      [
        "▁entra",
        -9.240709434984458
      ],
      [
        "▁war",
        -9.241183700935405
      ],
      [
        "▁ubbi",
        -9.243462961971655
      ],
      [
        "▁naan",
        -9.244724996104779
      ],
      [
        "▁prend",
        -9.24569827419709
      ],
      [
        "t.",
        -9.246049830908534
      ],
      [
        "▁eusse",
        -9.24622703564759
      ],
      [
        "▁Sama",
        -9.247209507867625
      ],
      [
        "▁D'",
        -9.248190694411484
      ],
      [
        "▁n'en",
        -9.249427727092327
      ],
      [
        "▁face",
        -9.25007152061306
      ],
      [
        "▁joge",
        -9.250993896875586
      ],
      [
        "▁conten",
        -9.25123536248989
      ],
      [
        "F",
        -9.251364728789305
      ],
      [
        "vait",
        -9.251764412901052
      ],
      [
        "▁bir",
        -9.25210403320601
      ],
      [
        "▁affaire",
        -9.252857037536016
      ],
      [
        "▁jàpp",
        -9.25610549257862
      ],
      [
        "▁d'il",
        -9.256569091967023
      ],
      [
        "▁dina",
        -9.258738737830496
      ],
      [
        "'en",
        -9.25911016936055
      ],
      [
        "▁xew",
        -9.259184221406462
      ],
      [
        "spère",
        -9.259453500404504
      ],
      [
        "kóon",
        -9.259593899620432
      ],
      [
        "▁côté",
        -9.26142448780707
      ],
      [
        "▁panier",
        -9.263352940837104
      ],
      [
        "iens",
        -9.264406418304013
      ],
      [
        "▁xo",
        -9.264537964094764
      ],
      [
        "▁Xa",
        -9.269467628201362
      ],
      [
        "▁vertes",
        -9.270219801344673
      ],
      [
        "▁deey",
        -9.270623945120771
      ],
      [
        "▁kee",
        -9.274762545335772
      ],
      [
        "▁Nu",
        -9.275879798288353
      ],
      [
        "▁mes",
        -9.281281159545262
      ],
      [
        "wul",
        -9.281360363466511
      ],
      [
        "-il",
        -9.281464148246206
      ],
      [
        "▁ñibbi",
        -9.282361287245806
      ],
      [
        "▁ser",
        -9.28266119417794
      ],
      [
        "▁fam",
        -9.284025390417247
      ],
      [
        "▁bleus",
        -9.284907449209747
      ],
      [
        "▁kookuu",
        -9.288809619581016
      ],
      [
        "▁yé",
        -9.29023101827326
      ],
      [
        "▁defaree",
        -9.293709438780962
      ],
      [
        "ku",
        -9.29385933557155
      ],
      [
        "▁san",
        -9.294248549612508
      ],
      [
        "▁n'as",
        -9.294380288589409
      ],
      [
        "▁lakk",
        -9.299092035108929
      ],
      [
        "▁jeunes",
        -9.300700843950493
      ],
      [
        "wal",
        -9.302192311910966
      ],
      [
        "▁loo",
        -9.304233252121918
      ],
      [
        "yu",
        -9.304577654391224
      ],
      [
        "▁soi",
        -9.308587950053276
      ],
      [
        "▁cont",
        -9.312635345785756
      ],
      [
        "nd",
        -9.314381792269284
      ],
      [
        "tout",
        -9.320077670454424
      ],
      [
        "aar",
        -9.320284359154087
      ],
      [
        "àkk",
        -9.322220882072981
      ],
      [
        "▁beg",
        -9.322861191676502
      ],
      [
        "ka",
        -9.324157121051366
      ],
      [
        "▁H",
        -9.32497698839887
      ],
      [
        "▁Bii",
        -9.326021514700253
      ],
      [
        "▁cas",
        -9.32738547780713
      ],
      [
        "▁Cha",
        -9.328888571160796
      ],
      [
        "▁duñ",
        -9.330908436574386
      ],
      [
        "▁lesquel",
        -9.331468369524035
      ],
      [
        "ã",
        -9.33353597256799
      ],
      [
        "▁Toute",
        -9.333548318602238
      ],
      [
        "appelles",
        -9.338417216265121
      ],
      [
        "ût",
        -9.344236490769879
      ],
      [
        "nu",
        -9.344650275156425
      ],
      [
        "▁yar",
        -9.344795697343729
      ],
      [
        "taal",
        -9.350152209489826
      ],
      [
        "▁chambres",
        -9.350708428109144
      ],
      [
        "▁fan",
        -9.357322170377973
      ],
      [
        "▁noire",
        -9.360820769956554
      ],
      [
        "aller",
        -9.36479569374993
      ],
      [
        "▁xa",
        -9.367383728754675
      ],
      [
        "▁nge",
        -9.367793573939439
      ],
      [
        "mbaa",
        -9.368396251734668
      ],
      [
        "vant",
        -9.369947603814737
      ],
      [
        "ti",
        -9.37072530610356
      ],
      [
        "us",
        -9.377121346068911
      ],
      [
        "▁r",
        -9.378324735533194
      ],
      [
        "▁plu",
        -9.38741398357279
      ],
      [
        "▁nag.",
        -9.389217151680754
      ],
      [
        "▁étalé",
        -9.389717890316724
      ],
      [
        "▁Au",
        -9.392745329676801
      ],
      [
        "nañu",
        -9.392818221234545
      ],
      [
        "▁Waxa",
        -9.393024843496363
      ],
      [
        "me",
        -9.394319175330859
      ],
      [
        "mar",
        -9.39942731341517
      ],
      [
        "▁jee",
        -9.400310279141822
      ],
      [
        "▁Xo",
        -9.401163918336113
      ],
      [
        "té",
        -9.409419524898562
      ],
      [
        "▁Waxu",
        -9.409712573457021
      ],
      [
        "▁bel",
        -9.413217639789877
      ],
      [
        "▁été.",
        -9.416265066700804
      ],
      [
        "▁to",
        -9.416893000270138
      ],
      [
        "▁gendarme",
        -9.416902387066424
      ],
      [
        "ection",
        -9.417402825789036
      ],
      [
        "▁sou",
        -9.421255288996468
      ],
      [
        "▁président",
        -9.424619258401233
      ],
      [
        "A",
        -9.425492749499663
      ],
      [
        "appartien",
        -9.426335860499698
      ],
      [
        "kaay",
        -9.429178113732178
      ],
      [
        "▁conçu",
        -9.431739454534403
      ],
      [
        "ouche",
        -9.434673951211442
      ],
      [
        "▁chocolat",
        -9.435211487665544
      ],
      [
        "▁ndugg",
        -9.43728394445584
      ],
      [
        "▁Bul",
        -9.437323399102944
      ],
      [
        "ement",
        -9.437791432182783
      ],
      [
        "▁men",
        -9.438493204038963
      ],
      [
        "▁Ŋg",
        -9.440273493340587
      ],
      [
        "▁partie",
        -9.440509187521172
      ],
      [
        "qu'un",
        -9.441493097373474
      ],
      [
        "▁mort",
        -9.448985616230704
      ],
      [
        "▁mbe",
        -9.450243343070149
      ],
      [
        "▁bo",
        -9.45062853068489
      ],
      [
        "▁ñaa",
        -9.452102438532435
      ],
      [
        "▁jàmm",
        -9.452583287677767
      ],
      [
        "▁lekk",
        -9.452669360605306
      ],
      [
        "waaw",
        -9.456014861610594
      ],
      [
        "ille",
        -9.45624676289157
      ],
      [
        "▁xool",
        -9.458613120264626
      ],
      [
        "▁Ñaa",
        -9.460048074194512
      ],
      [
        "mis",
        -9.460392941904193
      ],
      [
        "▁jog",
        -9.46505537776008
      ],
      [
        "▁marché",
        -9.46542948929967
      ],
      [
        "▁dóo",
        -9.466265429768328
      ],
      [
        "▁Ch",
        -9.469664704238674
      ],
      [
        "▁neñ",
        -9.471889652666032
      ],
      [
        "autrefois",
        -9.473816598505255
      ],
      [
        "▁Ng",
        -9.475009386587303
      ],
      [
        "▁révolte",
        -9.47614213710104
      ],
      [
        "▁Qu'",
        -9.476829115062126
      ],
      [
        "▁J'es",
        -9.477570961409654
      ],
      [
        "2",
        -9.477929286815694
      ],
      [
        "»",
        -9.477975904354464
      ],
      [
        "«",
        -9.477975904354464
      ],
      [
        "…",
        -9.477975904354464
      ],
      [
        "▁apparaissent",
        -9.477975912705336
      ],
      [
        "▁Au-dessus",
        -9.477975919858283
      ],
      [
        "▁habituellement",
        -9.477976065952383
      ],
      [
        "▁gëléem",
        -9.47797609290052
      ],
      [
        "▁baobab",
        -9.477976128639913
      ],
      [
        "▁gazelle",
        -9.477976174833433
      ],
      [
        "▁chèvres",
        -9.477976388406184
      ],
      [
        "▁Ñëw",
        -9.477976660825377
      ],
      [
        "▁brave",
        -9.477976911947898
      ],
      [
        "▁appelé",
        -9.477976934800399
      ],
      [
        "▁Louga",
        -9.47797698965058
      ],
      [
        "▁Birayim",
        -9.47797701159986
      ],
      [
        "▁prêt",
        -9.477977195810457
      ],
      [
        "▁semaine",
        -9.477978017617998
      ],
      [
        "▁toilettes",
        -9.477979768485282
      ],
      [
        "▁njege",
        -9.477980383022599
      ],
      [
        "▁yànj",
        -9.477980520327783
      ],
      [
        "▁Njiit",
        -9.477981423637667
      ],
      [
        "▁Macron",
        -9.477982471276832
      ],
      [
        "▁zinc",
        -9.477983519099656
      ],
      [
        "▁sàmm",
        -9.477985912347409
      ],
      [
        "▁Alfa",
        -9.477987010530086
      ],
      [
        "▁ayubes",
        -9.477989363567252
      ],
      [
        "▁rideau",
        -9.477993294557304
      ],
      [
        "▁besoin",
        -9.477993313495299
      ],
      [
        "▁sûr",
        -9.47799512778159
      ],
      [
        "▁certainement",
        -9.477995285584145
      ],
      [
        "▁jamono",
        -9.477998751509116
      ],
      [
        "▁ndanka",
        -9.478001350761675
      ],
      [
        "▁chameau",
        -9.478002751538602
      ],
      [
        "▁ëlëk",
        -9.478029401196672
      ],
      [
        "▁Agsil",
        -9.478046608133278
      ],
      [
        "▁waxtaan",
        -9.478082033147597
      ],
      [
        "▁Yaakaar",
        -9.478088459308331
      ],
      [
        "▁xamantane",
        -9.478117552537828
      ],
      [
        "▁d'arbres",
        -9.478119755073868
      ],
      [
        "▁dencukaay",
        -9.478121686321412
      ],
      [
        "▁Qu'est-ce",
        -9.478158227889265
      ],
      [
        "▁trop",
        -9.478194523563308
      ],
      [
        "▁rayon",
        -9.47820676310762
      ],
      [
        "▁NGo",
        -9.478242849109698
      ],
      [
        "▁d'entre",
        -9.478298105566026
      ],
      [
        "▁bãŋ",
        -9.478348156787039
      ],
      [
        "▁outil",
        -9.47835127964948
      ],
      [
        "▁làmp",
        -9.478364260091654
      ],
      [
        "▁Luga",
        -9.478374493052115
      ],
      [
        "▁Gaynd",
        -9.478404642543243
      ],
      [
        "▁Demuloo",
        -9.478416948956486
      ],
      [
        "▁soirée",
        -9.478589456993678
      ],
      [
        "▁alors",
        -9.47866599439701
      ],
      [
        "▁bras",
        -9.478782934200861
      ],
      [
        "▁weñ",
        -9.47879410903411
      ],
      [
        "lève",
        -9.478814482079992
      ],
      [
        "▁tête",
        -9.478903652984918
      ],
      [
        "▁fond",
        -9.479010991780013
      ],
      [
        "▁Pour",
        -9.479107260132508
      ],
      [
        "▁ensemble",
        -9.479204120585624
      ],
      [
        "C",
        -9.479246682227327
      ],
      [
        "▁matinée",
        -9.47924964720244
      ],
      [
        "▁Demuma",
        -9.479648684320876
      ],
      [
        "▁dagg",
        -9.479667131984765
      ],
      [
        "▁douche",
        -9.479725610165346
      ],
      [
        "',",
        -9.480063180062778
      ],
      [
        "éy",
        -9.480192875633843
      ],
      [
        "▁té",
        -9.480227748525298
      ],
      [
        "▁long",
        -9.4803341974383
      ],
      [
        "▁bày",
        -9.480474035722727
      ],
      [
        "▁Demkoon",
        -9.480981991135383
      ],
      [
        "▁nuru",
        -9.481018406476174
      ],
      [
        "▁donne",
        -9.481167489559178
      ],
      [
        "▁naqar",
        -9.481219032617563
      ],
      [
        "▁Tann",
        -9.481259493966343
      ],
      [
        "▁Ñooñu",
        -9.481420670862933
      ],
      [
        "▁kookale",
        -9.481432187820406
      ],
      [
        "▁passé",
        -9.481648514730965
      ],
      [
        "▁ñor",
        -9.481743746337553
      ],
      [
        "▁Ver",
        -9.481850884411115
      ],
      [
        "oŋ",
        -9.481916436510136
      ],
      [
        "▁wert",
        -9.482049448628482
      ],
      [
        "▁mbaxana",
        -9.482187293818667
      ],
      [
        "▁clé",
        -9.48272869477706
      ],
      [
        "mp",
        -9.482765523153939
      ],
      [
        "▁serais",
        -9.482996911457633
      ],
      [
        "▁wone",
        -9.483165036893247
      ],
      [
        "▁baŋ",
        -9.483225356721714
      ],
      [
        "▁d'ici",
        -9.48360511193394
      ],
      [
        "▁sopp",
        -9.483651874725343
      ],
      [
        "ois",
        -9.483833649423088
      ],
      [
        "▁fe",
        -9.484244529910077
      ],
      [
        "hacun",
        -9.484306426240629
      ],
      [
        "▁marchent",
        -9.484786250564841
      ],
      [
        "el",
        -9.484911778376382
      ],
      [
        "▁d'habitude",
        -9.485217591270153
      ],
      [
        "▁Cependant",
        -9.485517407971612
      ],
      [
        "▁voulu",
        -9.4861853302837
      ],
      [
        "hoisi",
        -9.488834949480552
      ],
      [
        "▁Ni",
        -9.489062880088454
      ],
      [
        "▁sox",
        -9.489070858951628
      ],
      [
        "▁per",
        -9.489256207700262
      ],
      [
        "▁darab",
        -9.490047347835088
      ],
      [
        "▁Aw",
        -9.490205444198697
      ],
      [
        "▁suba",
        -9.49033866733511
      ],
      [
        "▁soldats",
        -9.491416878819233
      ],
      [
        "▁nom",
        -9.492142966664073
      ],
      [
        "▁parents",
        -9.492961458566734
      ],
      [
        "ersonne",
        -9.493064148369129
      ],
      [
        "▁policiers",
        -9.493162314254157
      ],
      [
        "▁Yee",
        -9.493680195383005
      ],
      [
        "▁juste",
        -9.494450357006926
      ],
      [
        "abond",
        -9.495060861216833
      ],
      [
        "▁indi",
        -9.49552097082156
      ],
      [
        "▁wetam",
        -9.495650303707585
      ],
      [
        "Après",
        -9.495964377817002
      ],
      [
        "▁mat",
        -9.496790793191728
      ],
      [
        "▁doi",
        -9.497085744210343
      ],
      [
        "▁sàndarm",
        -9.497269211871979
      ],
      [
        "▁cons",
        -9.497595231649516
      ],
      [
        "qui",
        -9.497661931299987
      ],
      [
        "ui",
        -9.498742730496069
      ],
      [
        "▁livres",
        -9.498855598935812
      ],
      [
        "▁dois",
        -9.500479046576904
      ],
      [
        "oppal",
        -9.501549265916102
      ],
      [
        "▁d'herbes",
        -9.50277741945786
      ],
      [
        "▁J'e",
        -9.503102041276538
      ],
      [
        "▁kooka",
        -9.503926301449374
      ],
      [
        "ailleurs",
        -9.5040516228776
      ],
      [
        "▁partent",
        -9.507929459079026
      ],
      [
        "▁verra",
        -9.508358081850407
      ],
      [
        "▁demuñu",
        -9.509966456980534
      ],
      [
        "▁pu",
        -9.51024271164052
      ],
      [
        "▁confie",
        -9.510307596210197
      ],
      [
        "▁n'ira",
        -9.511949694443626
      ],
      [
        "▁peinte",
        -9.512373054557116
      ],
      [
        "▁batt",
        -9.513557316081807
      ],
      [
        "▁aime",
        -9.515524411062373
      ],
      [
        "tal",
        -9.515532077135108
      ],
      [
        "▁s'i",
        -9.517059730417916
      ],
      [
        "▁Ceux-",
        -9.519294811377973
      ],
      [
        "▁bancs",
        -9.520437442742798
      ],
      [
        "▁Ña",
        -9.520616393438441
      ],
      [
        "▁guy",
        -9.520923405266084
      ],
      [
        "cc",
        -9.521178381068962
      ],
      [
        "▁pr",
        -9.52140643332193
      ],
      [
        "▁chocolat.",
        -9.522263193042054
      ],
      [
        "'y",
        -9.522777348498545
      ],
      [
        "faites",
        -9.522883984728837
      ],
      [
        "▁gisu",
        -9.522978732914158
      ],
      [
        "▁foo",
        -9.523265274276243
      ],
      [
        "▁Jo",
        -9.523621517221233
      ],
      [
        "rent",
        -9.525134101858706
      ],
      [
        "▁lim",
        -9.527989260639856
      ],
      [
        "▁demain",
        -9.529900878170466
      ],
      [
        "▁yeux",
        -9.530003825488837
      ],
      [
        "▁Nil",
        -9.530282353396547
      ],
      [
        "▁daje",
        -9.5331425608698
      ],
      [
        "▁danga",
        -9.53358243229975
      ],
      [
        "▁att",
        -9.533917593616417
      ],
      [
        "▁Da",
        -9.534860094876073
      ],
      [
        "'av",
        -9.537020443161074
      ],
      [
        "▁Combi",
        -9.537714768566666
      ],
      [
        "▁allez",
        -9.538232976673449
      ],
      [
        "▁trait",
        -9.539583594398785
      ],
      [
        "▁jours",
        -9.539711355153154
      ],
      [
        "▁nd",
        -9.540673422071107
      ],
      [
        "▁prot",
        -9.541838818452588
      ],
      [
        "▁fer",
        -9.541941417411591
      ],
      [
        "▁Celui",
        -9.544916840897205
      ],
      [
        "▁fo",
        -9.546872331733304
      ],
      [
        "▁yaay",
        -9.550716407218914
      ],
      [
        "é.",
        -9.552261597503229
      ],
      [
        "▁Dina",
        -9.552564520649996
      ],
      [
        "▁naŋg",
        -9.553743236929972
      ],
      [
        "▁Ai",
        -9.554245238957904
      ],
      [
        "▁US",
        -9.559355177917448
      ],
      [
        "aat",
        -9.55955725439535
      ],
      [
        "des",
        -9.56273864898899
      ],
      [
        "▁faite",
        -9.567157148341613
      ],
      [
        "ga",
        -9.567744547207441
      ],
      [
        "able",
        -9.568825981021295
      ],
      [
        "▁doo",
        -9.569822940674939
      ],
      [
        "▁toogu",
        -9.571918145996106
      ],
      [
        "▁utilise",
        -9.571962595004639
      ],
      [
        "ages",
        -9.576264014483646
      ],
      [
        "▁Go",
        -9.576749602380282
      ],
      [
        "t-il",
        -9.577178250107282
      ],
      [
        "ante",
        -9.578561978889264
      ],
      [
        "part",
        -9.584289883112486
      ],
      [
        "▁arrive",
        -9.586719257036997
      ],
      [
        "▁demb",
        -9.587409490449978
      ],
      [
        "aka",
        -9.589166153906476
      ],
      [
        "▁fro",
        -9.590239698806286
      ],
      [
        "▁ens",
        -9.595119127596009
      ],
      [
        "▁liggéeye",
        -9.597360542593382
      ],
      [
        "▁bleue",
        -9.599653409220604
      ],
      [
        "at",
        -9.604253275997282
      ],
      [
        "maa",
        -9.604287916887717
      ],
      [
        "▁vi",
        -9.604734024359189
      ],
      [
        "▁fui",
        -9.605261080457808
      ],
      [
        "ache",
        -9.606800046298478
      ],
      [
        "▁Liggéey",
        -9.607572531567168
      ],
      [
        "La",
        -9.608068770736237
      ],
      [
        "▁lawoon",
        -9.60950942587818
      ],
      [
        "▁d'a",
        -9.611674378871763
      ],
      [
        "du",
        -9.611847159124231
      ],
      [
        "▁choses",
        -9.612272746701096
      ],
      [
        "onne",
        -9.612894417930178
      ],
      [
        "▁forme",
        -9.613136526481508
      ],
      [
        "ŋgeen",
        -9.623652464285488
      ],
      [
        "kub",
        -9.624633887840607
      ],
      [
        "▁fee",
        -9.627043846530107
      ],
      [
        "▁Ngo",
        -9.627044927331905
      ],
      [
        "▁gà",
        -9.633953373967824
      ],
      [
        "▁pl",
        -9.63568882828743
      ],
      [
        "▁ex",
        -9.636541835400207
      ],
      [
        "▁bee",
        -9.640382238836212
      ],
      [
        "▁taa",
        -9.642549524612107
      ],
      [
        "oto",
        -9.645378375660616
      ],
      [
        "▁maye",
        -9.647412632439337
      ],
      [
        "rëb",
        -9.649317866484083
      ],
      [
        "▁Bë",
        -9.651103314085148
      ],
      [
        "▁mise",
        -9.651900409569791
      ],
      [
        "▁parl",
        -9.653317014795167
      ],
      [
        "ité",
        -9.654182967422779
      ],
      [
        "▁point",
        -9.657912927005267
      ],
      [
        "yee",
        -9.661232428005246
      ],
      [
        "▁mar",
        -9.661496296687133
      ],
      [
        "ssent",
        -9.662236857905453
      ],
      [
        "▁Noo",
        -9.663802923081146
      ],
      [
        "ulëer",
        -9.675324027927402
      ],
      [
        "J",
        -9.676187121007652
      ],
      [
        "daamar",
        -9.677776313698756
      ],
      [
        "uis",
        -9.679485364208807
      ],
      [
        "▁s'ag",
        -9.680780460622342
      ],
      [
        "▁ndo",
        -9.681679075482672
      ],
      [
        "je",
        -9.684573706103135
      ],
      [
        "là",
        -9.691220611411115
      ],
      [
        "jà",
        -9.69319408457011
      ],
      [
        "▁nëw",
        -9.69595617449699
      ],
      [
        "ez-",
        -9.696010563337275
      ],
      [
        "ente",
        -9.697583858474824
      ],
      [
        "▁dis",
        -9.703436656542369
      ],
      [
        "ër",
        -9.70531520040217
      ],
      [
        "ó",
        -9.705424009979255
      ],
      [
        "▁sée",
        -9.70569405848663
      ],
      [
        "rrière",
        -9.714710690033098
      ],
      [
        "ques",
        -9.717131321625875
      ],
      [
        "▁cha",
        -9.722058623575712
      ],
      [
        "▁clair",
        -9.722066869861123
      ],
      [
        "▁Aa",
        -9.72431064403075
      ],
      [
        "▁l'o",
        -9.730762935510553
      ],
      [
        "▁goo",
        -9.734936838303526
      ],
      [
        "iggéeykat",
        -9.735623515552403
      ],
      [
        "▁vou",
        -9.736996422820859
      ],
      [
        "nement",
        -9.738767965780761
      ],
      [
        "▁taxu",
        -9.741623592859199
      ],
      [
        "▁wo",
        -9.743510264900568
      ],
      [
        "ñoo",
        -9.743763835011979
      ],
      [
        "mes",
        -9.746511524565287
      ],
      [
        "ii",
        -9.746660666959142
      ],
      [
        "dd",
        -9.747495998357406
      ],
      [
        "▁Die",
        -9.749655418570809
      ],
      [
        "▁puis",
        -9.758660815420994
      ],
      [
        "▁connaiss",
        -9.759460992622284
      ],
      [
        "▁exc",
        -9.761231616224318
      ],
      [
        "▁banc",
        -9.765849443217853
      ],
      [
        "age",
        -9.76628694634396
      ],
      [
        "kki",
        -9.76657428076323
      ],
      [
        "▁voici",
        -9.767341146454966
      ],
      [
        "tion",
        -9.767376075309842
      ],
      [
        "q",
        -9.76952828040137
      ],
      [
        "ar.",
        -9.770655347394547
      ],
      [
        "tant",
        -9.772496205092326
      ],
      [
        "fi",
        -9.773507108249486
      ],
      [
        "▁fleur",
        -9.777344161078178
      ],
      [
        "▁d'herbe",
        -9.777853594547384
      ],
      [
        "ici.",
        -9.778932521690852
      ],
      [
        "nit",
        -9.779860414166583
      ],
      [
        "▁sii",
        -9.779880954691214
      ],
      [
        "ange",
        -9.781269516823146
      ],
      [
        "▁n'e",
        -9.782531673468384
      ],
      [
        "ile",
        -9.784235140002618
      ],
      [
        "▁tegal",
        -9.78739003169077
      ],
      [
        "roo",
        -9.787621040476125
      ],
      [
        "▁bay",
        -9.788072574521461
      ],
      [
        "nte",
        -9.78877612134459
      ],
      [
        "▁nopp",
        -9.791518202439914
      ],
      [
        "▁ë",
        -9.791988774712632
      ],
      [
        "arab",
        -9.792274941043237
      ],
      [
        "▁Yooy",
        -9.79649219058416
      ],
      [
        "▁somme",
        -9.800571649803587
      ],
      [
        "▁kë",
        -9.801972206826434
      ],
      [
        "▁mbu",
        -9.803388689963676
      ],
      [
        "▁Gisu",
        -9.80513243113145
      ],
      [
        "euse",
        -9.806818249785621
      ],
      [
        "'est-à-dire",
        -9.807006884071498
      ],
      [
        "llez",
        -9.807914476070442
      ],
      [
        "onfie",
        -9.808590981784876
      ],
      [
        "ëkku",
        -9.810225636502267
      ],
      [
        "▁ŋgoogu",
        -9.810780020144211
      ],
      [
        "▁climatiseurs",
        -9.811309237648217
      ],
      [
        "▁véhicule",
        -9.8113092376576
      ],
      [
        "▁l'extérieur",
        -9.811309237662746
      ],
      [
        "▁superposé",
        -9.811309239896813
      ],
      [
        "▁couvercle",
        -9.81130924454688
      ],
      [
        "▁écrivent",
        -9.811309248502104
      ],
      [
        "histoire",
        -9.811309262943
      ],
      [
        "▁Radiyasi",
        -9.811309264471175
      ],
      [
        "▁couscous",
        -9.811309318902032
      ],
      [
        "▁alkaati",
        -9.811309321158301
      ],
      [
        "▁messager",
        -9.811309403145987
      ],
      [
        "féexal",
        -9.811309404508991
      ],
      [
        "▁rëdd",
        -9.811309406068952
      ],
      [
        "▁attaché",
        -9.811309457906681
      ],
      [
        "▁Faranse",
        -9.811309584196099
      ],
      [
        "▁jawwu",
        -9.811309786978779
      ],
      [
        "▁cultive",
        -9.811309847819624
      ],
      [
        "▁karaaf",
        -9.811309861035564
      ],
      [
        "▁mboq",
        -9.81130988285996
      ],
      [
        "▁feuilles",
        -9.811311346255447
      ],
      [
        "▁totaux",
        -9.811311653858217
      ],
      [
        "▁meilleur",
        -9.8113122648047
      ],
      [
        "▁nombre",
        -9.811312286463682
      ],
      [
        "▁beurre",
        -9.81131531980797
      ],
      [
        "▁taariix",
        -9.811316626511308
      ],
      [
        "▁Certaine",
        -9.81131742012897
      ],
      [
        "▁mûr",
        -9.811318260612673
      ],
      [
        "▁instant",
        -9.81132059354901
      ],
      [
        "▁xadde",
        -9.811321133710948
      ],
      [
        "▁carafe",
        -9.81132456394995
      ],
      [
        "▁lutteur",
        -9.81132750233986
      ],
      [
        "▁colère",
        -9.811334818780438
      ],
      [
        "▁Kaasamaas",
        -9.81133649455267
      ],
      [
        "▁couvr",
        -9.811336530062444
      ],
      [
        "▁sotti",
        -9.811344526688563
      ],
      [
        "▁adulte",
        -9.81135083144049
      ],
      [
        "▁couvert",
        -9.811353489922947
      ],
      [
        "▁termin",
        -9.811354831752247
      ],
      [
        "▁plaît",
        -9.8113600607616
      ],
      [
        "▁Solda",
        -9.811361245037823
      ],
      [
        "▁bahut",
        -9.811365205233981
      ],
      [
        "▁kéwël",
        -9.811379913016989
      ],
      [
        "▁saŋx",
        -9.811384694537791
      ],
      [
        "▁gros",
        -9.8114215819303
      ],
      [
        "▁batã",
        -9.81143388767926
      ],
      [
        "▁siège",
        -9.81144661263762
      ],
      [
        "▁cinq",
        -9.811464318452906
      ],
      [
        "▁Sëri",
        -9.811475463849687
      ],
      [
        "ëcc",
        -9.811528579300315
      ],
      [
        "▁taabal",
        -9.811545921806218
      ],
      [
        "▁Peul",
        -9.81156591489646
      ],
      [
        "▁paresseu",
        -9.811592667907094
      ],
      [
        "▁jabar",
        -9.811603949366582
      ],
      [
        "▁caisse",
        -9.811623172862252
      ],
      [
        "▁fâch",
        -9.811629391501317
      ],
      [
        "▁dikkul",
        -9.811682822672326
      ],
      [
        "▁l'argent",
        -9.81169951327585
      ],
      [
        "▁Laisse",
        -9.811705148928988
      ],
      [
        "▁sauce",
        -9.811724713042581
      ],
      [
        "▁l'herbe",
        -9.811746322331347
      ],
      [
        "ñëw",
        -9.811773708348861
      ],
      [
        "▁riz",
        -9.811775655174488
      ],
      [
        "▁Autre",
        -9.81179968256745
      ],
      [
        "▁bouge",
        -9.811856431337029
      ],
      [
        "▁L'autre",
        -9.811867014353
      ],
      [
        "▁tàngal",
        -9.811886495481366
      ],
      [
        "▁l'argile",
        -9.811943487669284
      ],
      [
        "▁vérité",
        -9.812022171272183
      ],
      [
        "▁gauche",
        -9.812026370573559
      ],
      [
        "▁tëj",
        -9.812193870259243
      ],
      [
        "▁dimbali",
        -9.812231563457967
      ],
      [
        "heureuse",
        -9.812294897941795
      ],
      [
        "▁anglais",
        -9.812361248242183
      ],
      [
        "▁Dugg",
        -9.812460552475956
      ],
      [
        "▁rose",
        -9.812475233511385
      ],
      [
        "arloo",
        -9.812651072381373
      ],
      [
        "▁l'imp",
        -9.81279993701809
      ],
      [
        "▁ñeex",
        -9.812848144923446
      ],
      [
        "▁masque",
        -9.81305547461391
      ],
      [
        "▁coup",
        -9.813063495205943
      ],
      [
        "▁Jën",
        -9.813201315140368
      ],
      [
        "▁raison",
        -9.813263298444278
      ],
      [
        "▁manger",
        -9.813284040067781
      ],
      [
        "▁wàll",
        -9.813310652435655
      ],
      [
        "▁veuille",
        -9.813320629416369
      ],
      [
        "-je",
        -9.813376597408096
      ],
      [
        "▁enfant-là",
        -9.813648734466177
      ],
      [
        "▁reç",
        -9.813664088645902
      ],
      [
        "▁Sàll",
        -9.813849995811177
      ],
      [
        "▁yaram",
        -9.813968363141504
      ],
      [
        "ommé",
        -9.81399098104234
      ],
      [
        "▁taille",
        -9.814557368931045
      ],
      [
        "▁monté",
        -9.81503934800163
      ],
      [
        "▁Sall",
        -9.815446119222692
      ],
      [
        "▁jouent",
        -9.815615676926063
      ],
      [
        "▁c'est-à-dire",
        -9.81562995902968
      ],
      [
        "▁général",
        -9.815988849956446
      ],
      [
        "▁melo",
        -9.816123331741432
      ],
      [
        "▁l'appelle",
        -9.816173755040555
      ],
      [
        "▁ceux-ci",
        -9.816366154847241
      ],
      [
        "▁jàll",
        -9.816380090093563
      ],
      [
        "ifique",
        -9.816798077231551
      ],
      [
        "▁wóo",
        -9.816862619902649
      ],
      [
        "jet",
        -9.817092145144738
      ],
      [
        "▁dents",
        -9.817123727682604
      ],
      [
        "foncé",
        -9.817378998865308
      ],
      [
        "awbe",
        -9.817636092760061
      ],
      [
        "▁crain",
        -9.817671090246003
      ],
      [
        "▁concert",
        -9.817677824935094
      ],
      [
        "▁d'eux",
        -9.818080379206183
      ],
      [
        "▁genre",
        -9.818267862711723
      ],
      [
        "▁ra",
        -9.818747492039462
      ],
      [
        "▁gardé",
        -9.819765447614843
      ],
      [
        "▁woowe",
        -9.819776093435703
      ],
      [
        "▁jooy",
        -9.82017143036619
      ],
      [
        "▁cuit",
        -9.820590087654077
      ],
      [
        "▁soow",
        -9.820776977004064
      ],
      [
        "rage",
        -9.821794808782693
      ],
      [
        "▁plats",
        -9.821986107251824
      ],
      [
        "▁bonul",
        -9.822104267314138
      ],
      [
        "▁Abal",
        -9.822113748065664
      ],
      [
        "▁Ah",
        -9.82246729071178
      ],
      [
        "▁tentes",
        -9.822503141351879
      ],
      [
        "▁homme-ci",
        -9.823418248507174
      ],
      [
        "▁d'ar",
        -9.824362507103038
      ],
      [
        "▁ñooñ",
        -9.824508889843651
      ],
      [
        "▁Deg",
        -9.824870494230721
      ],
      [
        "yi",
        -9.825068988860084
      ],
      [
        "ôt",
        -9.825230082711197
      ],
      [
        "▁ñeent",
        -9.825465050609987
      ],
      [
        "aison",
        -9.826121577998723
      ],
      [
        "▁Wall",
        -9.826179763304664
      ],
      [
        "▁Celle",
        -9.827032664468032
      ],
      [
        "▁travailler",
        -9.827273690178073
      ],
      [
        "▁s'échappe",
        -9.827299062875817
      ],
      [
        "▁Yooyu",
        -9.827367644664221
      ],
      [
        "kke",
        -9.827390865386137
      ],
      [
        "▁Jël",
        -9.82781511244304
      ],
      [
        "▁mêmes",
        -9.828364322009932
      ],
      [
        "▁suuk",
        -9.828803223985473
      ],
      [
        "▁drapeau",
        -9.829532892241847
      ],
      [
        "▁voya",
        -9.829791831347867
      ],
      [
        "▁naat",
        -9.829872263358613
      ],
      [
        "ts.",
        -9.831681570919683
      ],
      [
        "▁xeet",
        -9.831688099209915
      ],
      [
        "▁Mac",
        -9.831819042482604
      ],
      [
        "veille",
        -9.832343609495355
      ],
      [
        "▁courses",
        -9.83310838142944
      ],
      [
        "▁sànn",
        -9.833220506589281
      ],
      [
        "▁Salaa",
        -9.833269796684572
      ],
      [
        "moon",
        -9.833315546006325
      ],
      [
        "▁pré",
        -9.833411989209877
      ],
      [
        "laire",
        -9.834423765539196
      ],
      [
        "▁mét",
        -9.834692437154894
      ],
      [
        "è",
        -9.835063094256956
      ],
      [
        "▁cuisiner",
        -9.835715274611516
      ],
      [
        "▁fenêtres",
        -9.836459647860146
      ],
      [
        "pace",
        -9.836474079701905
      ],
      [
        "▁objets",
        -9.836831233955563
      ],
      [
        "▁jour.",
        -9.837502214498727
      ],
      [
        "▁yaru",
        -9.838343382625412
      ],
      [
        "▁tiroirs",
        -9.838423315892063
      ],
      [
        "▁sukk",
        -9.838433284762335
      ],
      [
        "▁aucun",
        -9.839316312213473
      ],
      [
        "▁ceeb",
        -9.83971608518993
      ],
      [
        "▁après",
        -9.840081691636604
      ],
      [
        "iff",
        -9.841046462821993
      ],
      [
        "▁trou",
        -9.841237272009511
      ],
      [
        "▁Dé",
        -9.841423544025735
      ],
      [
        "ches",
        -9.843345717827757
      ],
      [
        "▁daawul",
        -9.843692253318656
      ],
      [
        "▁woowu",
        -9.8455566759594
      ],
      [
        "▁ñj",
        -9.846033820181729
      ],
      [
        "▁assiette",
        -9.846126783040539
      ],
      [
        "▁terre",
        -9.846530695148704
      ],
      [
        "uru",
        -9.847538345796167
      ],
      [
        "▁ño",
        -9.84868266080035
      ],
      [
        "▁Kook",
        -9.849808920324325
      ],
      [
        "▁pren",
        -9.851257192140851
      ],
      [
        "▁gé",
        -9.85144950712206
      ],
      [
        "▁woowa",
        -9.851823200729232
      ],
      [
        "▁prop",
        -9.852136934076604
      ],
      [
        "ntière",
        -9.852427447329902
      ],
      [
        "▁bët",
        -9.853010822969816
      ],
      [
        "▁Waxat",
        -9.855706321328572
      ],
      [
        "rte",
        -9.855880971791045
      ],
      [
        "▁wala",
        -9.855892436217893
      ],
      [
        "hez",
        -9.856101006350265
      ],
      [
        "▁gone",
        -9.856155089251146
      ],
      [
        "▁marcher",
        -9.856243889049436
      ],
      [
        "▁vert",
        -9.857998658520616
      ],
      [
        "O",
        -9.85803007869372
      ],
      [
        "▁donner",
        -9.85904914629291
      ],
      [
        "▁travaill",
        -9.85937368046123
      ],
      [
        "ombin",
        -9.859922555859765
      ],
      [
        "obul",
        -9.860950442796184
      ],
      [
        "ré",
        -9.863164426921271
      ],
      [
        "modes",
        -9.863882415493409
      ],
      [
        "▁num",
        -9.86421693895858
      ],
      [
        "▁terr",
        -9.865457581182913
      ],
      [
        "▁Ŋgo",
        -9.866229549581284
      ],
      [
        "▁fukk",
        -9.866287986008457
      ],
      [
        "▁Lui",
        -9.868325977991319
      ],
      [
        "uver",
        -9.869511529828124
      ],
      [
        "▁présent",
        -9.870098367615528
      ],
      [
        "▁Dégg",
        -9.87180959334777
      ],
      [
        "▁mont",
        -9.872807755006228
      ],
      [
        "▁oreiller",
        -9.873243388032652
      ],
      [
        "▁buur",
        -9.87433489661842
      ],
      [
        "▁Leur",
        -9.874672665606129
      ],
      [
        "neen",
        -9.876852453222234
      ],
      [
        "▁seule",
        -9.877133610706629
      ],
      [
        "▁Seeti",
        -9.87763508403671
      ],
      [
        "▁mé",
        -9.881790759165487
      ],
      [
        "oow",
        -9.88575653421776
      ],
      [
        "▁marché.",
        -9.885926495139813
      ],
      [
        "▁n'aur",
        -9.886822577262341
      ],
      [
        "▁wuu",
        -9.887653782356521
      ],
      [
        "lé",
        -9.890385999882673
      ],
      [
        "▁cuisines",
        -9.891933541337215
      ],
      [
        "▁Kan",
        -9.894104064846168
      ],
      [
        "nnie",
        -9.894842617980425
      ],
      [
        "añse",
        -9.895591131891967
      ],
      [
        "▁fermée",
        -9.895874096585308
      ],
      [
        "▁avion",
        -9.896717887709489
      ],
      [
        "▁Waxul",
        -9.897585509503914
      ],
      [
        "▁press",
        -9.900873516598596
      ],
      [
        "▁yooya",
        -9.902063288477452
      ],
      [
        "énorme",
        -9.902262843895132
      ],
      [
        "▁wàn",
        -9.905926341985719
      ],
      [
        "pis",
        -9.906678819605714
      ],
      [
        "oit",
        -9.906986437301473
      ],
      [
        "commenc",
        -9.907882063627849
      ],
      [
        "gale",
        -9.908437153853507
      ],
      [
        "▁aille",
        -9.908712882236289
      ],
      [
        "errière",
        -9.912248408261192
      ],
      [
        "▁tra",
        -9.912776728591282
      ],
      [
        "ru",
        -9.913447567659675
      ],
      [
        "mour",
        -9.913736495217822
      ],
      [
        "avait",
        -9.914398187759039
      ],
      [
        "▁claire",
        -9.914618399798654
      ],
      [
        "oivent",
        -9.914933037729469
      ],
      [
        "eurs",
        -9.916063264224903
      ],
      [
        "'appelle",
        -9.916404739527218
      ],
      [
        "▁désire",
        -9.9167043918104
      ],
      [
        "▁choses.",
        -9.918744127741824
      ],
      [
        "▁Yen",
        -9.91940010240123
      ],
      [
        "ouille",
        -9.919672690658283
      ],
      [
        "▁sim",
        -9.920559144313831
      ],
      [
        "▁bout",
        -9.922396025940262
      ],
      [
        "mon",
        -9.922916968742312
      ],
      [
        "▁Nee",
        -9.925519615079683
      ],
      [
        "um",
        -9.926932642868744
      ],
      [
        "▁h",
        -9.929274455345983
      ],
      [
        "ejje",
        -9.929873815060132
      ],
      [
        "act",
        -9.933098362689561
      ],
      [
        "egg",
        -9.93379159590339
      ],
      [
        "che",
        -9.933992832496802
      ],
      [
        "▁bou",
        -9.934564814351745
      ],
      [
        "▁Jée",
        -9.936296609689508
      ],
      [
        "▁ñee",
        -9.937209011855032
      ],
      [
        "▁tii",
        -9.93814576461917
      ],
      [
        "▁paye",
        -9.938284784703194
      ],
      [
        "▁cor",
        -9.939507434885199
      ],
      [
        "'aumône",
        -9.942393721934488
      ],
      [
        "▁mett",
        -9.94311933474899
      ],
      [
        "▁ñun",
        -9.943489581624561
      ],
      [
        "góor",
        -9.945737680913371
      ],
      [
        "use",
        -9.948062835871648
      ],
      [
        "fu",
        -9.949298684588816
      ],
      [
        "yé",
        -9.951422577161194
      ],
      [
        "èt",
        -9.953394682588364
      ],
      [
        "ji",
        -9.954627070881997
      ],
      [
        "▁Aie",
        -9.954737799245457
      ],
      [
        "▁inc",
        -9.955557632320291
      ],
      [
        "▁booba",
        -9.957676349923272
      ],
      [
        "▁lions",
        -9.95814838335334
      ],
      [
        "▁jus",
        -9.958201862732157
      ],
      [
        "waal",
        -9.961346806305695
      ],
      [
        "lon",
        -9.961366374644099
      ],
      [
        "▁sor",
        -9.965403616848077
      ],
      [
        "▁waxe",
        -9.965822433732875
      ],
      [
        "û",
        -9.965984320029902
      ],
      [
        "▁Daa",
        -9.968594423378963
      ],
      [
        "▁partai",
        -9.969269628015432
      ],
      [
        "▁daamar",
        -9.969831327223556
      ],
      [
        "▁buu",
        -9.97373848136856
      ],
      [
        "ah",
        -9.974497119757736
      ],
      [
        "cher",
        -9.974615029169069
      ],
      [
        "ng",
        -9.975029522539014
      ],
      [
        "père",
        -9.977314287540446
      ],
      [
        "▁Ñen",
        -9.979758169790781
      ],
      [
        "eur",
        -9.983396205358433
      ],
      [
        "aa",
        -9.986496711852066
      ],
      [
        "▁Defa",
        -9.98878305349362
      ],
      [
        "lui",
        -9.989079520759294
      ],
      [
        "uff",
        -9.991851281905515
      ],
      [
        "â",
        -9.997711341340738
      ],
      [
        "▁rentre",
        -10.005870859440417
      ],
      [
        "▁jolies",
        -10.005909375789122
      ],
      [
        "eut",
        -10.005955101956275
      ],
      [
        "▁pos",
        -10.008301800089974
      ],
      [
        "ff",
        -10.010235697558366
      ],
      [
        "law",
        -10.01042123548023
      ],
      [
        "ba",
        -10.01094708305889
      ],
      [
        "amul",
        -10.01095833222523
      ],
      [
        "▁roi",
        -10.011391729879728
      ],
      [
        "âl",
        -10.012132001532537
      ],
      [
        "▁cee",
        -10.014228215786723
      ],
      [
        "oir",
        -10.014899708266395
      ],
      [
        "anaa",
        -10.015704570417975
      ],
      [
        "▁gar",
        -10.017987433339869
      ],
      [
        "gul",
        -10.020096712072187
      ],
      [
        "▁No",
        -10.020584295543657
      ],
      [
        "▁tel",
        -10.021733541269775
      ],
      [
        "▁bat",
        -10.030344857051114
      ],
      [
        "▁rouges",
        -10.03586252468101
      ],
      [
        "▁heure",
        -10.037164256791275
      ],
      [
        "am.",
        -10.039755784033037
      ],
      [
        "wuñu",
        -10.039838824545944
      ],
      [
        "éew",
        -10.041092613242771
      ],
      [
        "▁yooyu.",
        -10.043195454092546
      ],
      [
        "war",
        -10.043640121677674
      ],
      [
        "▁far",
        -10.047171303009526
      ],
      [
        "▁joue",
        -10.048334232238505
      ],
      [
        "▁connaisse",
        -10.052324655045958
      ],
      [
        "▁mba",
        -10.053467152329995
      ],
      [
        "aaw",
        -10.054440792015818
      ],
      [
        "▁Se",
        -10.057023164647594
      ],
      [
        "naay",
        -10.057055678350173
      ],
      [
        "ta",
        -10.057237651414647
      ],
      [
        "▁Def",
        -10.057726274226848
      ],
      [
        "argile",
        -10.058973441491625
      ],
      [
        "▁Sé",
        -10.059104108280712
      ],
      [
        "dem",
        -10.059460069507661
      ],
      [
        "▁Mo",
        -10.061293886676951
      ],
      [
        "▁nan",
        -10.062644490471747
      ],
      [
        "ign",
        -10.063476312646799
      ],
      [
        "▁form",
        -10.06439520976693
      ],
      [
        "▁montr",
        -10.065389134539384
      ],
      [
        "▁gui",
        -10.066618264623125
      ],
      [
        "ver",
        -10.068031303741318
      ],
      [
        "▁xamul",
        -10.06852867866066
      ],
      [
        "pas",
        -10.069298061464552
      ],
      [
        "▁Ho",
        -10.072068300587077
      ],
      [
        "irai",
        -10.074303307982204
      ],
      [
        "▁Bay",
        -10.079310762217565
      ],
      [
        "▁Celui-",
        -10.080724427223693
      ],
      [
        "igne",
        -10.084577249267312
      ],
      [
        "▁parla",
        -10.086627442606229
      ],
      [
        "kh",
        -10.089212194374621
      ],
      [
        "▁m'as",
        -10.091716335650126
      ],
      [
        "▁Nag",
        -10.091737630992482
      ],
      [
        "weer",
        -10.09620997190624
      ],
      [
        "laa",
        -10.096692980950404
      ],
      [
        "▁be",
        -10.102606657074839
      ],
      [
        "ffi",
        -10.102841195201286
      ],
      [
        "café",
        -10.103154248082987
      ],
      [
        "ule",
        -10.108242288211667
      ],
      [
        "▁bas",
        -10.108912101451475
      ],
      [
        "vient",
        -10.110322449038202
      ],
      [
        "▁bul",
        -10.11398963908299
      ],
      [
        "l.",
        -10.116056327181425
      ],
      [
        "▁ch",
        -10.117497286671203
      ],
      [
        "agg",
        -10.1177534885357
      ],
      [
        "▁yaat",
        -10.121400138681087
      ],
      [
        "eguñu",
        -10.124067110944246
      ],
      [
        "▁Be",
        -10.12566367696242
      ],
      [
        "bul",
        -10.125836796314072
      ],
      [
        "▁mb",
        -10.1268159474602
      ],
      [
        "omb",
        -10.127877879705999
      ],
      [
        "▁sant",
        -10.130670702000062
      ],
      [
        "entre",
        -10.135267064655334
      ],
      [
        "leur",
        -10.135378773085707
      ],
      [
        "cherche",
        -10.136394588927578
      ],
      [
        "▁tege",
        -10.137265740487463
      ],
      [
        "uy",
        -10.137889705423609
      ],
      [
        "rais",
        -10.139572673774147
      ],
      [
        "oom",
        -10.141925450373128
      ],
      [
        "▁seenu",
        -10.1443718106635
      ],
      [
        "apprécie",
        -10.146809838804506
      ],
      [
        "US",
        -10.14759414139181
      ],
      [
        "orte",
        -10.158663899813012
      ],
      [
        "mid",
        -10.163262785707747
      ],
      [
        "▁Xamu",
        -10.165928716531088
      ],
      [
        "▁ŋgoo",
        -10.166775734085263
      ],
      [
        "our",
        -10.171658486518979
      ],
      [
        "re.",
        -10.173043247637471
      ],
      [
        "▁jur",
        -10.173986049211722
      ],
      [
        "ère.",
        -10.17420896582909
      ],
      [
        "met",
        -10.174571212268122
      ],
      [
        "▁ro",
        -10.17536017534171
      ],
      [
        "▁prie",
        -10.179351802565606
      ],
      [
        "▁sera",
        -10.17954174877108
      ],
      [
        "▁nà",
        -10.1799931552622
      ],
      [
        "alal",
        -10.181053771081086
      ],
      [
        "▁Wóo",
        -10.186226366445782
      ],
      [
        "ière.",
        -10.18692688590809
      ],
      [
        "▁fr",
        -10.188136042598227
      ],
      [
        "▁Qua",
        -10.188827266319262
      ],
      [
        "utilis",
        -10.189717885915591
      ],
      [
        "avais",
        -10.194241711382142
      ],
      [
        "▁ha",
        -10.195243879480461
      ],
      [
        "▁too",
        -10.199724653900207
      ],
      [
        "aleekum",
        -10.199773055106164
      ],
      [
        "armes",
        -10.201775624543522
      ],
      [
        "▁deme",
        -10.203581378699708
      ],
      [
        "▁kook",
        -10.206931169790614
      ],
      [
        "kar",
        -10.20970686626225
      ],
      [
        "abal",
        -10.212604184950344
      ],
      [
        "gis",
        -10.2145304150113
      ],
      [
        "▁bavarda",
        -10.215074771155635
      ],
      [
        "▁yab",
        -10.21807128828144
      ],
      [
        "▁commen",
        -10.221786963700431
      ],
      [
        "andi",
        -10.223769520538621
      ],
      [
        "ho",
        -10.223904096219128
      ],
      [
        "▁cherch",
        -10.225218707421067
      ],
      [
        "ssion",
        -10.22696578726555
      ],
      [
        "▁ŋg",
        -10.229295298376115
      ],
      [
        "oog",
        -10.229484857217214
      ],
      [
        "n.",
        -10.229825249509291
      ],
      [
        "urs",
        -10.233758156413073
      ],
      [
        "▁lait",
        -10.233920518318733
      ],
      [
        "▁To",
        -10.234400348694448
      ],
      [
        "▁Degg",
        -10.236360590317005
      ],
      [
        "▁peint",
        -10.2372120639155
      ],
      [
        "gguma",
        -10.23721522509728
      ],
      [
        "▁gra",
        -10.239004588012245
      ],
      [
        "ple",
        -10.240999125874517
      ],
      [
        "ttends",
        -10.241078731823738
      ],
      [
        "▁dam",
        -10.244002941013045
      ],
      [
        "xam",
        -10.2445813155583
      ],
      [
        "▁tient",
        -10.246512346824995
      ],
      [
        "▁confi",
        -10.24795825232982
      ],
      [
        "aaka",
        -10.252294494842275
      ],
      [
        "▁taal",
        -10.25611247330469
      ],
      [
        "evant",
        -10.256230670647298
      ],
      [
        "▁lev",
        -10.258399932209786
      ],
      [
        "▁attrap",
        -10.259226720407575
      ],
      [
        "▁retrait",
        -10.259978290270453
      ],
      [
        "oser",
        -10.261050229775526
      ],
      [
        "ard",
        -10.262130627652025
      ],
      [
        "▁gejj",
        -10.263394397133197
      ],
      [
        "jje",
        -10.263478288667745
      ],
      [
        "eil",
        -10.263963077706723
      ],
      [
        "at.",
        -10.265621024898167
      ],
      [
        "▁tiroir",
        -10.270924160891857
      ],
      [
        "▁objet",
        -10.27096647539703
      ],
      [
        "▁Att",
        -10.27124249929623
      ],
      [
        "▁fenêtre",
        -10.271925012675819
      ],
      [
        "▁cuisin",
        -10.272422390941903
      ],
      [
        "▁teint",
        -10.273964973731673
      ],
      [
        "fois",
        -10.274277124329373
      ],
      [
        "cu",
        -10.2743971820091
      ],
      [
        "ddi",
        -10.274863397353075
      ],
      [
        "▁policier",
        -10.277765948973526
      ],
      [
        "▁gaynd",
        -10.278036688936266
      ],
      [
        "▁foof",
        -10.27859368026813
      ],
      [
        "▁xë",
        -10.278975639205017
      ],
      [
        "▁viendr",
        -10.281585636739518
      ],
      [
        "▁bokku",
        -10.285215807847282
      ],
      [
        "opp",
        -10.286227904806545
      ],
      [
        "▁s'échapp",
        -10.286356450472223
      ],
      [
        "▁pierre",
        -10.286381725633674
      ],
      [
        "▁Foof",
        -10.287679227107335
      ],
      [
        "▁fais",
        -10.291786564145154
      ],
      [
        "▁t'e",
        -10.292697518020512
      ],
      [
        "dée",
        -10.292714291726968
      ],
      [
        "▁po",
        -10.293339598162802
      ],
      [
        "gu",
        -10.293414405067063
      ],
      [
        "▁ubb",
        -10.293465039884321
      ],
      [
        "▁soldat",
        -10.293863124955118
      ],
      [
        "exi",
        -10.293975063580778
      ],
      [
        "▁gë",
        -10.294084930684154
      ],
      [
        "▁parent",
        -10.29527838861976
      ],
      [
        "▁denc",
        -10.295322217255219
      ],
      [
        "▁recon",
        -10.296551676860625
      ],
      [
        "toi",
        -10.297034283946592
      ],
      [
        "▁oreille",
        -10.298457175671329
      ],
      [
        "ure",
        -10.300062212858096
      ],
      [
        "pe",
        -10.30091397132277
      ],
      [
        "'im",
        -10.30106594827474
      ],
      [
        "▁différent",
        -10.301415438742872
      ],
      [
        "iy",
        -10.301826399131942
      ],
      [
        "▁Ño",
        -10.302746381544795
      ],
      [
        "idé",
        -10.303357277640679
      ],
      [
        "▁mang",
        -10.303493194470114
      ],
      [
        "▁génér",
        -10.303963061175219
      ],
      [
        "ngoo",
        -10.304104082498807
      ],
      [
        "nn",
        -10.304381528227152
      ],
      [
        "ccepte",
        -10.305152195372864
      ],
      [
        "▁Peut-",
        -10.305868610996443
      ],
      [
        "▁jó",
        -10.306547159066241
      ],
      [
        "ête",
        -10.307759509870449
      ],
      [
        "àcc",
        -10.307782695144315
      ],
      [
        "oxoom",
        -10.308272535532677
      ],
      [
        "axkoon",
        -10.3086155864724
      ],
      [
        "▁jaŋ",
        -10.308747738952771
      ],
      [
        "cheur",
        -10.309338810044803
      ],
      [
        "▁tissé",
        -10.310471707389592
      ],
      [
        "ënfandikoo",
        -10.310520759436848
      ],
      [
        "▁jëfandik",
        -10.31056622662911
      ],
      [
        "▁ñép",
        -10.310817984161316
      ],
      [
        "échapp",
        -10.310915890551879
      ],
      [
        "00",
        -10.311294990318771
      ],
      [
        "▁d'habit",
        -10.31129607153377
      ],
      [
        "É",
        -10.31130923764784
      ],
      [
        "▁Français",
        -10.311309237656946
      ],
      [
        "▁Niominka.",
        -10.311309237657113
      ],
      [
        "▁Africaine",
        -10.311309237659051
      ],
      [
        "(",
        -10.311309237687787
      ],
      [
        ")",
        -10.311309237687798
      ],
      [
        "Ë",
        -10.311309237687798
      ],
      [
        " ",
        -10.311309237687798
      ],
      [
        "▁confortable",
        -10.311309237703249
      ],
      [
        "▁migrateurs",
        -10.311309238111862
      ],
      [
        "'orange'",
        -10.311309238675678
      ],
      [
        "▁récipient",
        -10.311309244344688
      ],
      [
        "explose",
        -10.311309246487117
      ],
      [
        "▁accroch",
        -10.311309258066848
      ],
      [
        "▁ngànnaay",
        -10.311309267217517
      ],
      [
        "▁boucliers",
        -10.311309275526297
      ],
      [
        "▁canapé",
        -10.311309297641762
      ],
      [
        "▁tambour",
        -10.311309305918089
      ],
      [
        "▁maasàllaa",
        -10.311309307686663
      ],
      [
        "'accorde",
        -10.311309312229612
      ],
      [
        "▁automobile",
        -10.311309318400873
      ],
      [
        "▁berceau",
        -10.311309320927965
      ],
      [
        "▁rapprochée",
        -10.311309327598472
      ],
      [
        "▁archite",
        -10.311309377121123
      ],
      [
        "▁frigo",
        -10.311309412078861
      ],
      [
        "▁achète",
        -10.311309620272247
      ],
      [
        "'jaune'",
        -10.311310032911795
      ],
      [
        "▁lumineuse",
        -10.311310230578917
      ],
      [
        "▁totalité",
        -10.311310402651118
      ],
      [
        "▁beerso",
        -10.311310746414648
      ],
      [
        "áa",
        -10.31131094640182
      ],
      [
        "▁ñambaan",
        -10.311311126026157
      ],
      [
        "▁Dites-l",
        -10.311311215149967
      ],
      [
        "congelé",
        -10.311311220214535
      ],
      [
        "▁radier",
        -10.311311483144554
      ],
      [
        "▁renversé",
        -10.311311653544173
      ],
      [
        "▁lançant",
        -10.311312915245797
      ],
      [
        "▁yalwaan",
        -10.311313393435816
      ],
      [
        "pérer",
        -10.311314015468907
      ],
      [
        "▁statut",
        -10.311315952308323
      ],
      [
        "▁rassembl",
        -10.311316190789338
      ],
      [
        "▁nouvel",
        -10.311316245178114
      ],
      [
        "▁constituée",
        -10.311316283876327
      ],
      [
        "▁journée",
        -10.31131631324721
      ],
      [
        "▁10",
        -10.311316361334157
      ],
      [
        "000",
        -10.31131636156776
      ],
      [
        "▁fabriqu",
        -10.31131667309013
      ],
      [
        "▁S'agi",
        -10.311320912492445
      ],
      [
        "'ouvre",
        -10.311321164028788
      ],
      [
        "▁assailli",
        -10.311322692316153
      ],
      [
        "▁discut",
        -10.311325017533338
      ],
      [
        "▁France",
        -10.31132858295213
      ],
      [
        "▁meuble",
        -10.311329976906435
      ],
      [
        "▁préparé",
        -10.311330167998834
      ],
      [
        "▁nurool",
        -10.311333258526577
      ],
      [
        "▁marron",
        -10.31133739809674
      ],
      [
        "▁chaîne",
        -10.311340271360748
      ],
      [
        "▁l'allume",
        -10.311343836812084
      ],
      [
        "▁truc",
        -10.3113440723864
      ],
      [
        "▁Taxawa",
        -10.311344186394573
      ],
      [
        "▁visage",
        -10.311345424563799
      ],
      [
        "▁marõ",
        -10.311346311036035
      ],
      [
        "▁entouré",
        -10.311346486525292
      ],
      [
        "▁moontin",
        -10.311347858230928
      ],
      [
        "▁jàkkarloo",
        -10.3113528817851
      ],
      [
        "▁prépare",
        -10.31135508288345
      ],
      [
        "▁nàññ",
        -10.311355704718416
      ],
      [
        "à-bas",
        -10.311358517717508
      ],
      [
        "▁L'endroit",
        -10.311366229812858
      ],
      [
        "▁souffr",
        -10.311366335273993
      ],
      [
        "▁porche",
        -10.311369723516766
      ],
      [
        "▁moket",
        -10.311374494108316
      ],
      [
        "▁impoli",
        -10.311382419909673
      ],
      [
        "grillage",
        -10.311384017263224
      ],
      [
        "▁xelli",
        -10.311390678531282
      ],
      [
        "▁bassin",
        -10.31139247733445
      ],
      [
        "àngaan",
        -10.311395306787293
      ],
      [
        "▁âgé",
        -10.311404437040423
      ],
      [
        "▁Pardon",
        -10.311414112749702
      ],
      [
        "écédé",
        -10.31141966114303
      ],
      [
        "▁descendra",
        -10.311420203412244
      ],
      [
        "▁tamarin",
        -10.311422118746341
      ],
      [
        "▁n'habite",
        -10.311432199103995
      ],
      [
        "▁répét",
        -10.311433894576071
      ],
      [
        "▁gymnas",
        -10.311471750568598
      ],
      [
        "▁aajo",
        -10.311490277694576
      ],
      [
        "vêtement",
        -10.31149162300026
      ],
      [
        "▁propos",
        -10.311515462742983
      ],
      [
        "▁fanane",
        -10.31153453369668
      ],
      [
        "▁salut",
        -10.311545242780069
      ],
      [
        "▁gosse",
        -10.311555747867965
      ],
      [
        "▁sous-",
        -10.311579368544903
      ],
      [
        "▁ancien",
        -10.31159005434237
      ],
      [
        "▁plante",
        -10.311604619355364
      ],
      [
        "▁inter",
        -10.311605564343147
      ],
      [
        "▁faneetar",
        -10.3116472775212
      ],
      [
        "▁français'",
        -10.31166484676257
      ],
      [
        "▁écriture",
        -10.3116673537825
      ],
      [
        "▁Musta",
        -10.311678937991134
      ],
      [
        "▁pleure",
        -10.311682279915521
      ],
      [
        "▁rëy",
        -10.31176590802726
      ],
      [
        "▁visite",
        -10.311867240427274
      ],
      [
        "▁tubaab",
        -10.31187641860501
      ],
      [
        "cture",
        -10.311921871060195
      ],
      [
        "▁gàdd",
        -10.311994886337475
      ],
      [
        "èvre",
        -10.312011087925049
      ],
      [
        "▁yeggee",
        -10.312084568896744
      ],
      [
        "▁jënfandikoo",
        -10.312098325292855
      ],
      [
        "▁vous-même",
        -10.312152543197179
      ],
      [
        "▁fanaan",
        -10.312156548581235
      ],
      [
        "▁Dellu",
        -10.312157445286575
      ],
      [
        "▁cubb",
        -10.312168889613728
      ],
      [
        "▁jumaa",
        -10.312179582543344
      ],
      [
        "▁ndigg",
        -10.31219212650802
      ],
      [
        "▁toi-même",
        -10.312260633243717
      ],
      [
        "▁moi-même",
        -10.312296663622845
      ],
      [
        "▁j'apprécie",
        -10.312383563824032
      ],
      [
        "assoupi",
        -10.312433751613662
      ],
      [
        "▁bënn",
        -10.31248469002242
      ],
      [
        "▁moyen",
        -10.312573216669364
      ],
      [
        "▁echelle",
        -10.31266159961665
      ],
      [
        "▁Lebou",
        -10.312663910444602
      ],
      [
        "▁droit",
        -10.31266468624663
      ],
      [
        "aune'",
        -10.31280480315473
      ],
      [
        "▁élevage",
        -10.31286131233477
      ],
      [
        "▁Wutël",
        -10.31308746850878
      ],
      [
        "▁Arr",
        -10.313267005647928
      ],
      [
        "▁Chacun",
        -10.3133300374623
      ],
      [
        "▁public",
        -10.313330906276576
      ],
      [
        "▁tayel",
        -10.313660668435295
      ],
      [
        "▁accompagné",
        -10.313698494172677
      ],
      [
        "▁cadre",
        -10.313701852002211
      ],
      [
        "▁googu",
        -10.313708925588571
      ],
      [
        "▁karo",
        -10.31375830630143
      ],
      [
        "▁tissées",
        -10.313759454714585
      ],
      [
        "▁doj",
        -10.314083678489471
      ],
      [
        "▁monter",
        -10.314093831639434
      ],
      [
        "▁t'aurai",
        -10.314161232751584
      ],
      [
        "ablement",
        -10.314189267941156
      ],
      [
        "▁kulëer",
        -10.314412154625632
      ],
      [
        "▁Bira",
        -10.314421467698319
      ],
      [
        "▁seef",
        -10.314442731872656
      ],
      [
        "époque",
        -10.314549093134817
      ],
      [
        "▁dawul",
        -10.314578709728206
      ],
      [
        "▁kukk",
        -10.314616079753806
      ],
      [
        "▁loxoom",
        -10.314748459787413
      ],
      [
        "▁ñow",
        -10.314894037608749
      ],
      [
        "▁cohabitent",
        -10.314999695037423
      ],
      [
        "▁tomb",
        -10.315070648676876
      ],
      [
        "▁d'aide",
        -10.315115628206303
      ],
      [
        "▁pilo",
        -10.315328604773198
      ],
      [
        "▁suivent",
        -10.315387694732452
      ],
      [
        "iroir",
        -10.315470351653481
      ],
      [
        "▁révoltent",
        -10.31548841606169
      ],
      [
        "▁mucc",
        -10.315539925502003
      ],
      [
        "▁serré",
        -10.315592524582332
      ],
      [
        "▁appelle'",
        -10.315699508085192
      ],
      [
        "▁wutal",
        -10.315769843117106
      ],
      [
        "▁janool",
        -10.316565244270205
      ],
      [
        "▁fatt",
        -10.316583232934251
      ],
      [
        "▁D'autre",
        -10.316641834013733
      ],
      [
        "▁beneen'",
        -10.317296047428826
      ],
      [
        "▁wenn",
        -10.317528947534951
      ],
      [
        "▁dajal",
        -10.317536058161508
      ],
      [
        "▁dégg",
        -10.317652578169632
      ],
      [
        "▁tàkk",
        -10.317774542409762
      ],
      [
        "▁n'allai",
        -10.317923213838384
      ],
      [
        "▁coule",
        -10.31804060493924
      ],
      [
        "▁degg",
        -10.31820808512064
      ],
      [
        "allum",
        -10.318238755037976
      ],
      [
        "ngalu",
        -10.31825584903169
      ],
      [
        "▁xeex",
        -10.318356604733108
      ],
      [
        "▁par-là",
        -10.318473015326392
      ],
      [
        "▁film",
        -10.318909894043673
      ],
      [
        "ayim",
        -10.318918234136383
      ],
      [
        "ttali",
        -10.318965101305864
      ],
      [
        "▁ardo",
        -10.319217439486934
      ],
      [
        "▁moroom",
        -10.319323933674179
      ],
      [
        "▁travaillait",
        -10.31948458748622
      ],
      [
        "éro",
        -10.319600441463441
      ],
      [
        "▁Eux",
        -10.319627342776428
      ],
      [
        "▁publi",
        -10.319643548056899
      ],
      [
        "soup",
        -10.319962357167645
      ],
      [
        "lise",
        -10.319984641920923
      ],
      [
        "▁Kaay",
        -10.320141289471797
      ],
      [
        "▁juge",
        -10.320207014727243
      ],
      [
        "▁yit",
        -10.3202202494707
      ],
      [
        "▁yàqu",
        -10.320531825624345
      ],
      [
        "▁yeg",
        -10.320653238117075
      ],
      [
        "▁casque",
        -10.320826627234242
      ],
      [
        "elle'",
        -10.320986371142443
      ],
      [
        "▁entré",
        -10.321172694294487
      ],
      [
        "nive",
        -10.321258955213882
      ],
      [
        "▁différentes",
        -10.321299108981286
      ],
      [
        "▁ñorul",
        -10.321324774639379
      ],
      [
        "'entend",
        -10.321820009604469
      ],
      [
        "àccee",
        -10.322186071286053
      ],
      [
        "taine",
        -10.322197564278353
      ],
      [
        "joor",
        -10.322360704513049
      ],
      [
        "▁conv",
        -10.322488574966703
      ],
      [
        "ctiv",
        -10.322538921253768
      ],
      [
        "▁s'asse",
        -10.322599751081702
      ],
      [
        "▁écla",
        -10.322860331895015
      ],
      [
        "▁voyage",
        -10.322860367515512
      ],
      [
        "raî",
        -10.322938430900502
      ],
      [
        "▁ti",
        -10.323457166911275
      ],
      [
        "▁n'ir",
        -10.323527851299504
      ],
      [
        "▁ginnaawam",
        -10.323614471995759
      ],
      [
        "gico",
        -10.324557516316943
      ],
      [
        "▁police",
        -10.324691821619002
      ],
      [
        "ydina",
        -10.324777944295755
      ],
      [
        "▁Ko",
        -10.324888983066867
      ],
      [
        "▁àndal",
        -10.325634022111608
      ],
      [
        "outer",
        -10.325721626272383
      ],
      [
        "après-",
        -10.325819479307274
      ],
      [
        "▁kanamam",
        -10.32590258073866
      ],
      [
        "▁Sénégal'",
        -10.32591736220023
      ],
      [
        "▁bëggé",
        -10.326072319043512
      ],
      [
        "habitent",
        -10.326979466281577
      ],
      [
        "▁retrouv",
        -10.327243652008152
      ],
      [
        "mbres",
        -10.327374949858314
      ],
      [
        "ëgg",
        -10.327527814361435
      ],
      [
        "▁trai",
        -10.327643889458278
      ],
      [
        "▁fekke",
        -10.328308983970683
      ],
      [
        "▁wer",
        -10.328350482122838
      ],
      [
        "▁sommet",
        -10.329561764232196
      ],
      [
        "gël",
        -10.329622055782666
      ],
      [
        "▁séq",
        -10.329893611287225
      ],
      [
        "▁bëggu",
        -10.329968366380426
      ],
      [
        "▁fë",
        -10.330424738105178
      ],
      [
        "▁ben",
        -10.33192691174153
      ],
      [
        "▁éga",
        -10.331973371711976
      ],
      [
        "▁reconn",
        -10.33226486235088
      ],
      [
        "ëlé",
        -10.332509782750401
      ],
      [
        "ëk",
        -10.333250911043177
      ],
      [
        "▁lieux",
        -10.333993260492651
      ],
      [
        "▁Daawul",
        -10.33435881344552
      ],
      [
        "▁Léeg",
        -10.334562449267889
      ],
      [
        "▁remplie",
        -10.336123347778862
      ],
      [
        "▁voies",
        -10.336207007298821
      ],
      [
        "▁pieds",
        -10.336426488349003
      ],
      [
        "▁laiss",
        -10.3374236157449
      ],
      [
        "accompagne",
        -10.33746858346325
      ],
      [
        "'avion",
        -10.337681183814807
      ],
      [
        "▁surv",
        -10.338016467503106
      ],
      [
        "▁sës",
        -10.338119719697058
      ],
      [
        "▁d'elle",
        -10.338655594435888
      ],
      [
        "jariñ",
        -10.339159019618267
      ],
      [
        "▁voulai",
        -10.339867995510627
      ],
      [
        "dou",
        -10.34031684516932
      ],
      [
        "▁doomam",
        -10.340703510666549
      ],
      [
        "isée",
        -10.341121429516807
      ],
      [
        "▁ouvertes",
        -10.341181753135697
      ],
      [
        "e-le",
        -10.341204528756034
      ],
      [
        "sant",
        -10.341664019342556
      ],
      [
        "▁jusqu'ici",
        -10.342216064074448
      ],
      [
        "quelles",
        -10.342275307272365
      ],
      [
        "▁taba",
        -10.342732389238586
      ],
      [
        "▁doyu",
        -10.34297417222617
      ],
      [
        "▁vertu",
        -10.343199957280277
      ],
      [
        "▁char",
        -10.344064211749009
      ],
      [
        "âche",
        -10.34412707697295
      ],
      [
        "▁content",
        -10.344520715904814
      ],
      [
        "angasin",
        -10.345499553694529
      ],
      [
        "▁élev",
        -10.346426934511488
      ],
      [
        "▁rencontre",
        -10.346612359657557
      ],
      [
        "▁souve",
        -10.346945693111838
      ],
      [
        "▁Ex",
        -10.348842347728892
      ],
      [
        "▁entrer",
        -10.348993603336067
      ],
      [
        "lo",
        -10.349829101929455
      ],
      [
        "ekum",
        -10.350085107582258
      ],
      [
        "▁bëy",
        -10.350824144869154
      ],
      [
        "ooñii",
        -10.350981330481094
      ],
      [
        "▁rentrer",
        -10.351245408465081
      ],
      [
        "saŋ",
        -10.351936707674131
      ],
      [
        "▁Ab",
        -10.352250294760108
      ],
      [
        "▁tée",
        -10.3522778898172
      ],
      [
        "nég",
        -10.35405064192566
      ],
      [
        "▁convers",
        -10.354109460707354
      ],
      [
        "▁bëggoon",
        -10.354794548277576
      ],
      [
        "nent",
        -10.355240115251055
      ],
      [
        "illage",
        -10.355493824482986
      ],
      [
        "▁lionne",
        -10.355633646945051
      ],
      [
        "ññ",
        -10.355678447787614
      ],
      [
        "▁go",
        -10.356068046691776
      ],
      [
        "▁conna",
        -10.356445587779271
      ],
      [
        "▁ame",
        -10.35714795534455
      ],
      [
        "kkan",
        -10.357221121639983
      ],
      [
        "rdo",
        -10.357282536995779
      ],
      [
        "▁fen",
        -10.35756613386169
      ],
      [
        "▁arriva",
        -10.359079411745897
      ],
      [
        "supp",
        -10.35935750949751
      ],
      [
        "▁gaal",
        -10.360243132323397
      ],
      [
        "▁dedans",
        -10.360530845035846
      ],
      [
        "▁poli",
        -10.362047442137007
      ],
      [
        "▁fût",
        -10.3622013796348
      ],
      [
        "▁bëtt",
        -10.363281088298443
      ],
      [
        "▁metti",
        -10.364533657391444
      ],
      [
        "▁étage",
        -10.36522607481499
      ],
      [
        "ful",
        -10.36640828823303
      ],
      [
        "▁Mer",
        -10.366623758717079
      ],
      [
        "gaam",
        -10.367421336196465
      ],
      [
        "sard",
        -10.36748054794037
      ],
      [
        "endant",
        -10.36763173016905
      ],
      [
        "▁Xay",
        -10.367975346419048
      ],
      [
        "ffe",
        -10.36855880740343
      ],
      [
        "jj",
        -10.370555334797068
      ],
      [
        "spé",
        -10.371167477324462
      ],
      [
        "gra",
        -10.371694147413162
      ],
      [
        "waa",
        -10.37196902376173
      ],
      [
        "▁daawu",
        -10.373210046650533
      ],
      [
        "▁s'écha",
        -10.373456935358956
      ],
      [
        "▁fini",
        -10.373863915146817
      ],
      [
        "▁chauff",
        -10.374444188200693
      ],
      [
        "▁solo",
        -10.374567146143537
      ],
      [
        "dina",
        -10.374919903639906
      ],
      [
        "▁voulez",
        -10.375068244565043
      ],
      [
        "▁xaritam",
        -10.375359226900615
      ],
      [
        "▁senn",
        -10.376475428763518
      ],
      [
        "▁Amin",
        -10.378317935768532
      ],
      [
        "▁née",
        -10.3784184905055
      ],
      [
        "angé",
        -10.379661900126672
      ],
      [
        "▁Gi",
        -10.379733563703002
      ],
      [
        "óox",
        -10.381730593422756
      ],
      [
        "▁sta",
        -10.3822590930233
      ],
      [
        "▁échelle",
        -10.38353229693809
      ],
      [
        "u-",
        -10.383593854253716
      ],
      [
        "▁blanches.",
        -10.384375883850169
      ],
      [
        "aisir",
        -10.384437940472248
      ],
      [
        "▁waxtu",
        -10.38480497554416
      ],
      [
        "nde",
        -10.386140162931477
      ],
      [
        "▁Jamm",
        -10.386188329020875
      ],
      [
        "omp",
        -10.39019806731011
      ],
      [
        "▁marchan",
        -10.390350240963928
      ],
      [
        "allong",
        -10.39038559255021
      ],
      [
        "edress",
        -10.390935777469005
      ],
      [
        "▁Nde",
        -10.391425153914447
      ],
      [
        "▁lumi",
        -10.39158100867603
      ],
      [
        "ourri",
        -10.393148726756277
      ],
      [
        "óol",
        -10.393768823490577
      ],
      [
        "lóo",
        -10.393784519028483
      ],
      [
        "▁salaam",
        -10.39436861087736
      ],
      [
        "▁kote",
        -10.394424039135334
      ],
      [
        "ërëm",
        -10.39517413743256
      ],
      [
        "▁voul",
        -10.395891256982157
      ],
      [
        "▁wut",
        -10.396695395626177
      ],
      [
        "cieuse",
        -10.397454424399895
      ],
      [
        "lement",
        -10.398157341029082
      ],
      [
        "▁ay'",
        -10.398379622329465
      ],
      [
        "▁temps",
        -10.39956497404491
      ],
      [
        "▁yëngu",
        -10.399769696200574
      ],
      [
        "▁rafetul",
        -10.402515002129789
      ],
      [
        "▁joo",
        -10.402678676810439
      ],
      [
        "▁voici.",
        -10.403384757504478
      ],
      [
        "añ",
        -10.403921066742118
      ],
      [
        "emal",
        -10.403985220258008
      ],
      [
        "▁jale",
        -10.404661529220075
      ],
      [
        "▁jamb",
        -10.405251229958656
      ],
      [
        "▁tenue",
        -10.406322922762293
      ],
      [
        "séd",
        -10.406363685029678
      ],
      [
        "lusi",
        -10.40682051428499
      ],
      [
        "C'est",
        -10.40806481809748
      ],
      [
        "▁Don",
        -10.4088792238172
      ],
      [
        "dé",
        -10.409121701589278
      ],
      [
        "▁s'assi",
        -10.409924192264283
      ],
      [
        "▁léeg",
        -10.410783785057804
      ],
      [
        "jafe",
        -10.411862904369041
      ],
      [
        "▁natte",
        -10.412173005728008
      ],
      [
        "▁ndugge",
        -10.413589793973522
      ],
      [
        "▁Wooy",
        -10.413633624432538
      ],
      [
        "doo",
        -10.413985031821056
      ],
      [
        "bb",
        -10.414918653682086
      ],
      [
        "▁lor",
        -10.415319072271613
      ],
      [
        "▁compos",
        -10.417285855002119
      ],
      [
        "▁bavard",
        -10.417477830802605
      ],
      [
        "▁déc",
        -10.418362364739385
      ],
      [
        "▁attrape",
        -10.4198555425789
      ],
      [
        "ures",
        -10.420262657178661
      ],
      [
        "▁ét",
        -10.42229661265578
      ],
      [
        "▁Ñi",
        -10.423406787679697
      ],
      [
        "▁ver",
        -10.424129362401056
      ],
      [
        "kka",
        -10.424607734174282
      ],
      [
        "▁nanu",
        -10.425568215128905
      ],
      [
        "▁mal",
        -10.425850038541178
      ],
      [
        "▁Mel",
        -10.426386195529547
      ],
      [
        "▁noon",
        -10.426423934552254
      ],
      [
        "▁n'av",
        -10.426466596997233
      ],
      [
        "naaw",
        -10.42694256647165
      ],
      [
        "▁réc",
        -10.427638040017916
      ],
      [
        "nce",
        -10.428914819434208
      ],
      [
        "▁i",
        -10.429852310139793
      ],
      [
        "tenu",
        -10.43016186846107
      ],
      [
        "oudre",
        -10.431919426030268
      ],
      [
        "▁morts",
        -10.435725453734806
      ],
      [
        "▁Non",
        -10.436121999158608
      ],
      [
        "▁tol",
        -10.440753968761992
      ],
      [
        "▁court",
        -10.441243596077808
      ],
      [
        "▁Sen",
        -10.442740075857637
      ],
      [
        "▁présidents",
        -10.444004759242945
      ],
      [
        "seen",
        -10.44458537344908
      ],
      [
        "pa",
        -10.444598706927222
      ],
      [
        "le.",
        -10.446995070638172
      ],
      [
        "▁blanches",
        -10.44988897393901
      ],
      [
        "▁noo",
        -10.450018546286682
      ],
      [
        "lle",
        -10.450870535039003
      ],
      [
        "'étudiant",
        -10.451114224779776
      ],
      [
        "▁baga",
        -10.451322722856501
      ],
      [
        "▁entr",
        -10.451888573151425
      ],
      [
        "caak",
        -10.452268512800458
      ],
      [
        "puisé",
        -10.45384569791635
      ],
      [
        "nee",
        -10.455001177874193
      ],
      [
        "iyaar",
        -10.455387529048037
      ],
      [
        "▁après-",
        -10.45638686954845
      ],
      [
        "▁faç",
        -10.456495777495078
      ],
      [
        "▁trouver",
        -10.457209485733687
      ],
      [
        "ter",
        -10.458429835045523
      ],
      [
        "▁taar",
        -10.459806681576644
      ],
      [
        "▁saura",
        -10.460540465406437
      ],
      [
        "▁s'agiss",
        -10.462619950574688
      ],
      [
        "tique",
        -10.462662482573153
      ],
      [
        "▁amoon",
        -10.464391806245619
      ],
      [
        "▁siy",
        -10.467526275772503
      ],
      [
        "biir",
        -10.472727116271818
      ],
      [
        "▁saisi",
        -10.475032897853096
      ],
      [
        "qu'il",
        -10.477753192487587
      ],
      [
        "▁fon",
        -10.478883556393155
      ],
      [
        "▁sé",
        -10.47962447840208
      ],
      [
        "▁Wau",
        -10.482533294614049
      ],
      [
        "uur",
        -10.482867690882372
      ],
      [
        "▁lekku",
        -10.483061895558464
      ],
      [
        "onvers",
        -10.485422699976692
      ],
      [
        "enez",
        -10.48587839765457
      ],
      [
        "utt",
        -10.48609211649039
      ],
      [
        "aix",
        -10.488439739700588
      ],
      [
        "▁We",
        -10.48981183283152
      ],
      [
        "'euss",
        -10.49088686288701
      ],
      [
        "alante",
        -10.491133995909424
      ],
      [
        "▁armes",
        -10.491218925035676
      ],
      [
        "▁baar",
        -10.492630037157607
      ],
      [
        "▁way",
        -10.494839102935527
      ],
      [
        "▁réewu",
        -10.496110731522581
      ],
      [
        "jud",
        -10.500253697117444
      ],
      [
        "nge",
        -10.50106629234591
      ],
      [
        "deau",
        -10.501385125406467
      ],
      [
        "cul",
        -10.50205587586308
      ],
      [
        "mant",
        -10.502507876906737
      ],
      [
        "ari",
        -10.504195569024763
      ],
      [
        "▁bols",
        -10.505530341017835
      ],
      [
        "▁reveni",
        -10.505570228762524
      ],
      [
        "▁carre",
        -10.507432931040956
      ],
      [
        "eau",
        -10.508579845398407
      ],
      [
        "yit",
        -10.508772460649944
      ],
      [
        "▁rap",
        -10.509574306820761
      ],
      [
        "agnes",
        -10.510763747026244
      ],
      [
        "ve",
        -10.513042139869073
      ],
      [
        "▁meneen",
        -10.51342431621596
      ],
      [
        "iennent",
        -10.51345389643391
      ],
      [
        "aintenant",
        -10.514510100194762
      ],
      [
        "esquel",
        -10.52016670401807
      ],
      [
        "iron",
        -10.520321753203238
      ],
      [
        "dre",
        -10.521443064483865
      ],
      [
        "cot",
        -10.522247942707008
      ],
      [
        "àgg",
        -10.526889647435983
      ],
      [
        "sort",
        -10.526912298451856
      ],
      [
        "-nd",
        -10.5283471932292
      ],
      [
        "▁yore",
        -10.531256683847428
      ],
      [
        "▁Amu",
        -10.53352601054586
      ],
      [
        "▁all",
        -10.53377397749519
      ],
      [
        "▁mës",
        -10.533787980977076
      ],
      [
        "▁bala",
        -10.537215318818632
      ],
      [
        "eek",
        -10.538059326610785
      ],
      [
        "meur",
        -10.539718627159726
      ],
      [
        "ire",
        -10.54418875459191
      ],
      [
        "▁petits",
        -10.544291291859336
      ],
      [
        "▁étalée",
        -10.545935937138392
      ],
      [
        "▁Mets",
        -10.546288948153391
      ],
      [
        "rie",
        -10.547076701468429
      ],
      [
        "he",
        -10.548134859890967
      ],
      [
        "▁sub",
        -10.54862169084427
      ],
      [
        "▁tir",
        -10.549595952320244
      ],
      [
        "▁posée",
        -10.558503366105835
      ],
      [
        "▁ciment",
        -10.559638646494212
      ],
      [
        "la.",
        -10.56008957496883
      ],
      [
        "nag",
        -10.561152020500069
      ],
      [
        "ène",
        -10.561875723241267
      ],
      [
        "bar",
        -10.562665493999884
      ],
      [
        "▁voi",
        -10.568576916706856
      ],
      [
        "▁sar",
        -10.570630654028157
      ],
      [
        "▁vent",
        -10.572033533663982
      ],
      [
        "▁Baa",
        -10.57315943771335
      ],
      [
        "▁sile",
        -10.573895755520228
      ],
      [
        "▁kà",
        -10.573938511309862
      ],
      [
        "▁atte",
        -10.574059826056013
      ],
      [
        "li",
        -10.57517541165828
      ],
      [
        "▁serv",
        -10.577298182096895
      ],
      [
        "▁sortie",
        -10.579053722222262
      ],
      [
        "naiss",
        -10.582711775148999
      ],
      [
        "venu",
        -10.583503464424913
      ],
      [
        "lëer",
        -10.586308377355417
      ],
      [
        "ellement",
        -10.587557589739587
      ],
      [
        "▁l'as",
        -10.589412781007617
      ],
      [
        "▁Xarit",
        -10.590965014697346
      ],
      [
        "▁saw",
        -10.592014934694777
      ],
      [
        "▁x",
        -10.59418176156214
      ],
      [
        "▁sembl",
        -10.59531539693642
      ],
      [
        "▁né",
        -10.597282052550847
      ],
      [
        "▁pot",
        -10.600649509309878
      ],
      [
        "▁goog",
        -10.600682316081063
      ],
      [
        "'arbre",
        -10.60146745452417
      ],
      [
        "▁monta",
        -10.60181354816399
      ],
      [
        "bal",
        -10.602249904472952
      ],
      [
        "homme",
        -10.603718476831942
      ],
      [
        "mmoon",
        -10.604295564645529
      ],
      [
        "▁cere",
        -10.604925941028483
      ],
      [
        "avec",
        -10.606930315979799
      ],
      [
        "▁Pl",
        -10.607045527296263
      ],
      [
        "éri",
        -10.60827462578458
      ],
      [
        "▁voie",
        -10.608598666544857
      ],
      [
        "uloo",
        -10.61174032245163
      ],
      [
        "cult",
        -10.611766529744923
      ],
      [
        "▁habite",
        -10.612217482007988
      ],
      [
        "nces",
        -10.615487709936609
      ],
      [
        "iers",
        -10.615616489943514
      ],
      [
        "wu",
        -10.618346605507881
      ],
      [
        "'aide",
        -10.619778380761959
      ],
      [
        "endi",
        -10.62087702850667
      ],
      [
        "chi",
        -10.623014604725578
      ],
      [
        "moom",
        -10.624598023284362
      ],
      [
        "▁pointe",
        -10.62505029397307
      ],
      [
        "endu",
        -10.628105898672054
      ],
      [
        "sées",
        -10.628331033247632
      ],
      [
        "orts",
        -10.62916406923377
      ],
      [
        "om",
        -10.629818554935397
      ],
      [
        "-même",
        -10.63005403069965
      ],
      [
        "rée",
        -10.63146991648073
      ],
      [
        "▁dey",
        -10.63279473961091
      ],
      [
        "▁Ñung",
        -10.633788386885472
      ],
      [
        "ste",
        -10.634470179242365
      ],
      [
        "▁déta",
        -10.636309076080913
      ],
      [
        "ërëb",
        -10.646070280732985
      ],
      [
        "ide",
        -10.647039460947548
      ],
      [
        "yam",
        -10.647894481709848
      ],
      [
        "ort",
        -10.653033287132889
      ],
      [
        "tions",
        -10.653084423339202
      ],
      [
        "range",
        -10.654414045053503
      ],
      [
        "kaar",
        -10.656423789797831
      ],
      [
        "▁layu",
        -10.657762025257771
      ],
      [
        "atant",
        -10.657994137996674
      ],
      [
        "aal",
        -10.66055391920666
      ],
      [
        "emment",
        -10.66062290761704
      ],
      [
        "▁manifeste",
        -10.662496972924766
      ],
      [
        "eux-ci",
        -10.663051921745248
      ],
      [
        "▁filles",
        -10.664013261688412
      ],
      [
        "egarde",
        -10.666136557434411
      ],
      [
        "oy",
        -10.671810737361747
      ],
      [
        "vid",
        -10.674400753232629
      ],
      [
        "uñ",
        -10.675630388628445
      ],
      [
        "bine",
        -10.676854924185106
      ],
      [
        "ol",
        -10.677358679306623
      ],
      [
        "din",
        -10.677462546276763
      ],
      [
        "ŋk",
        -10.677765818938127
      ],
      [
        "▁wal",
        -10.678178036930474
      ],
      [
        "ront",
        -10.680214678644514
      ],
      [
        "entourant",
        -10.682669122086159
      ],
      [
        "ono",
        -10.68294353766665
      ],
      [
        "uróom-ñ",
        -10.683001580705117
      ],
      [
        "▁Bëggu",
        -10.683004220829899
      ],
      [
        "▁heureu",
        -10.684371556928465
      ],
      [
        "▁mur",
        -10.686995789245767
      ],
      [
        "Il",
        -10.687104716824432
      ],
      [
        "▁conçues",
        -10.687470938796777
      ],
      [
        "▁tire",
        -10.688316400110086
      ],
      [
        "▁dét",
        -10.694368789271405
      ],
      [
        "▁jà",
        -10.694502711199602
      ],
      [
        "▁Sor",
        -10.694585597934278
      ],
      [
        "▁defee",
        -10.699684011519393
      ],
      [
        "▁rentr",
        -10.700246995715727
      ],
      [
        "▁cu",
        -10.701163000829386
      ],
      [
        "▁cat",
        -10.70202400495832
      ],
      [
        "▁Ou",
        -10.70478051870622
      ],
      [
        "▁doxu",
        -10.711360565394887
      ],
      [
        "▁eu",
        -10.716975072572039
      ],
      [
        "ch",
        -10.720218030255568
      ],
      [
        "mal",
        -10.721032125856002
      ],
      [
        "▁ŋgii.",
        -10.722333190537718
      ],
      [
        "aam",
        -10.72531605537527
      ],
      [
        "▁prom",
        -10.731091270232518
      ],
      [
        "off",
        -10.732671717475169
      ],
      [
        "▁rag",
        -10.733872973186347
      ],
      [
        "▁manifest",
        -10.733919775664644
      ],
      [
        "ang",
        -10.73536590520264
      ],
      [
        "rog",
        -10.738943793612348
      ],
      [
        "▁év",
        -10.73926706281892
      ],
      [
        "dar",
        -10.740085281487081
      ],
      [
        "▁accompagne",
        -10.740166384906033
      ],
      [
        "uits",
        -10.740872494669372
      ],
      [
        "'il",
        -10.747314557401692
      ],
      [
        "lig",
        -10.754532424149067
      ],
      [
        "ans",
        -10.758539463587859
      ],
      [
        "▁cou",
        -10.75891383897206
      ],
      [
        "veux",
        -10.762758709605666
      ],
      [
        "wax",
        -10.76585106160438
      ],
      [
        "▁Set",
        -10.768931907967458
      ],
      [
        "▁ter",
        -10.769237785894841
      ],
      [
        "kku",
        -10.769670276453335
      ],
      [
        "▁naaj",
        -10.769899291433711
      ],
      [
        "▁jou",
        -10.770302904625355
      ],
      [
        "ière",
        -10.770502468228512
      ],
      [
        "abax",
        -10.771536841208897
      ],
      [
        "▁juu",
        -10.772637484577533
      ],
      [
        "ati",
        -10.778673013348726
      ],
      [
        "▁xal",
        -10.781635424046893
      ],
      [
        "▁Wan",
        -10.782565308166607
      ],
      [
        "▁yeneen.",
        -10.785896116016794
      ],
      [
        "yul",
        -10.786901000636869
      ],
      [
        "bale",
        -10.787624802505652
      ],
      [
        "elui-ci",
        -10.790296535754711
      ],
      [
        "▁jeu",
        -10.790386022540392
      ],
      [
        "'étai",
        -10.793209352385674
      ],
      [
        "omu",
        -10.795305689828748
      ],
      [
        "sur",
        -10.795512347574551
      ],
      [
        "sse",
        -10.796204711481026
      ],
      [
        "▁tawa",
        -10.803433054215215
      ],
      [
        "▁Té",
        -10.803877258787516
      ],
      [
        "ton",
        -10.809113474050289
      ],
      [
        "nez",
        -10.809951997354636
      ],
      [
        "▁ge",
        -10.815048254017087
      ],
      [
        "▁poissons",
        -10.81553781416893
      ],
      [
        "▁Saa",
        -10.81557794176381
      ],
      [
        "▁dà",
        -10.816386474447167
      ],
      [
        "u.",
        -10.817862263736194
      ],
      [
        "res",
        -10.818398523568053
      ],
      [
        "api",
        -10.819121968243508
      ],
      [
        "i-",
        -10.822554756515945
      ],
      [
        "son",
        -10.823634670967882
      ],
      [
        "▁donn",
        -10.82717585705014
      ],
      [
        "rouill",
        -10.828451354217453
      ],
      [
        "iwaa",
        -10.833746082267497
      ],
      [
        "ur.",
        -10.834052913256143
      ],
      [
        "alla",
        -10.834143985153649
      ],
      [
        "àmmoo",
        -10.83469889516512
      ],
      [
        "▁Deñ",
        -10.836331701930145
      ],
      [
        "▁habit",
        -10.83641003851042
      ],
      [
        "'aurai",
        -10.841492609030634
      ],
      [
        "gg",
        -10.842685715916645
      ],
      [
        "▁d'o",
        -10.845632000775291
      ],
      [
        "pi",
        -10.84666722856652
      ],
      [
        "ooga",
        -10.846734289410023
      ],
      [
        "▁lë",
        -10.84745441948938
      ],
      [
        "da",
        -10.84769195617822
      ],
      [
        "woo",
        -10.849526339830717
      ],
      [
        "ŋgoo",
        -10.854930704101138
      ],
      [
        "ndio",
        -10.855874160821257
      ],
      [
        "to",
        -10.856584810300404
      ],
      [
        "eel",
        -10.859023266912907
      ],
      [
        "lors",
        -10.86011320157342
      ],
      [
        "ttais",
        -10.861319729386762
      ],
      [
        "ais-t",
        -10.862798690506809
      ],
      [
        "éra",
        -10.862834606054067
      ],
      [
        "g.",
        -10.865307433730893
      ],
      [
        "ju",
        -10.867474101536322
      ],
      [
        "ets-t",
        -10.87579665156992
      ],
      [
        "▁Fo",
        -10.880325141847814
      ],
      [
        "▁desquel",
        -10.884464500553896
      ],
      [
        "▁assise",
        -10.8850677263403
      ],
      [
        "aumône",
        -10.89050161631839
      ],
      [
        "▁lee",
        -10.89409265055411
      ],
      [
        "rom",
        -10.89870501747712
      ],
      [
        "▁tonn",
        -10.900038977896044
      ],
      [
        "▁Jusqu'",
        -10.90245862878738
      ],
      [
        "sid",
        -10.902519043678288
      ],
      [
        "posés",
        -10.903214409154872
      ],
      [
        "▁accompagn",
        -10.903516435107772
      ],
      [
        "ha",
        -10.90594010806024
      ],
      [
        "▁rapp",
        -10.912657221316687
      ],
      [
        "vers",
        -10.917458399895233
      ],
      [
        "▁joxo",
        -10.919239246165635
      ],
      [
        "▁naata",
        -10.920641649370015
      ],
      [
        "▁buñ",
        -10.920873570880238
      ],
      [
        "argent",
        -10.921334483667502
      ],
      [
        "llu",
        -10.921726265078332
      ],
      [
        "matu",
        -10.923854287478688
      ],
      [
        "ànni",
        -10.92567389319648
      ],
      [
        "cri",
        -10.932479739360259
      ],
      [
        "joo",
        -10.935935146494252
      ],
      [
        "intérieur",
        -10.93717215518023
      ],
      [
        "poisson",
        -10.938416800022614
      ],
      [
        "ndal",
        -10.943201980770196
      ],
      [
        "lait",
        -10.943869279372386
      ],
      [
        "éegu",
        -10.945439580298881
      ],
      [
        "À",
        -10.94671327409629
      ],
      [
        "ami",
        -10.946998952749663
      ],
      [
        "id",
        -10.947375308794754
      ],
      [
        "▁seeta",
        -10.948029469810967
      ],
      [
        "▁l'on",
        -10.951005291580891
      ],
      [
        "▁comm",
        -10.951430242234553
      ],
      [
        "▁auto",
        -10.952697017552886
      ],
      [
        "m.",
        -10.954590440625434
      ],
      [
        "ction",
        -10.954724753819562
      ],
      [
        "aska",
        -10.956922468480894
      ],
      [
        "vin",
        -10.959191653219753
      ],
      [
        "▁désir",
        -10.959491179703479
      ],
      [
        "gée",
        -10.960078943352084
      ],
      [
        "▁telle",
        -10.960225381225024
      ],
      [
        "aang",
        -10.966850612348377
      ],
      [
        "▁devi",
        -10.96814141680438
      ],
      [
        "acc",
        -10.968487522216817
      ],
      [
        "▁Mas",
        -10.969676861413262
      ],
      [
        "▁J'a",
        -10.97076615520422
      ],
      [
        "eg",
        -10.972743712983842
      ],
      [
        "ément",
        -10.973380174372624
      ],
      [
        "ibbisi",
        -10.9749922045431
      ],
      [
        "gga",
        -10.975069909855204
      ],
      [
        "ande",
        -10.97726142683564
      ],
      [
        "I",
        -10.979470789589929
      ],
      [
        "yoon",
        -10.98022032530836
      ],
      [
        "dénk",
        -10.987865637188206
      ],
      [
        "laay",
        -10.990785720023105
      ],
      [
        "▁homm",
        -10.99163699217931
      ],
      [
        "▁dan",
        -10.99445223528053
      ],
      [
        "▁yen",
        -10.995884781543591
      ],
      [
        "▁boob",
        -10.99595917144459
      ],
      [
        "▁énorm",
        -10.997768640684106
      ],
      [
        "▁batta",
        -10.998060234653215
      ],
      [
        "▁bara",
        -10.998114960741121
      ],
      [
        "'appelles",
        -10.998133868152447
      ],
      [
        "▁emp",
        -11.005422228946571
      ],
      [
        "aujourd'hui",
        -11.006935208367917
      ],
      [
        "▁qua",
        -11.009104903102493
      ],
      [
        "ñuul.",
        -11.012061369448388
      ],
      [
        "▁souhait",
        -11.012353086718033
      ],
      [
        "aaya",
        -11.012702881855592
      ],
      [
        "▁sont-",
        -11.014094545977299
      ],
      [
        "bilis",
        -11.014262326246113
      ],
      [
        "▁fermé",
        -11.016309409847068
      ],
      [
        "▁Leb",
        -11.016771530239382
      ],
      [
        "table",
        -11.017119797812644
      ],
      [
        "pose",
        -11.017355248905165
      ],
      [
        "far",
        -11.01805950694222
      ],
      [
        "▁lalu",
        -11.018230803950752
      ],
      [
        "autre",
        -11.01836485205061
      ],
      [
        "étudiant",
        -11.022063382431625
      ],
      [
        "▁Bule",
        -11.023095739628188
      ],
      [
        "rs",
        -11.023664860386523
      ],
      [
        "rob",
        -11.023734106862669
      ],
      [
        "takk-der",
        -11.025281370250998
      ],
      [
        "paré",
        -11.025635186329614
      ],
      [
        "én",
        -11.027732619545189
      ],
      [
        "▁Maan",
        -11.029823779388227
      ],
      [
        "con",
        -11.0362869233359
      ],
      [
        "▁reven",
        -11.037465675329269
      ],
      [
        "▁Gej",
        -11.041555279880944
      ],
      [
        "ogul",
        -11.042069395563493
      ],
      [
        "viendra",
        -11.042208782476258
      ],
      [
        "▁want",
        -11.04322332238033
      ],
      [
        "▁Ang",
        -11.046454478473162
      ],
      [
        "▁demand",
        -11.049652987015419
      ],
      [
        "▁ndà",
        -11.055248736046146
      ],
      [
        "▁faa",
        -11.05598736906715
      ],
      [
        "vertes",
        -11.059383498063635
      ],
      [
        "▁say",
        -11.060848184535907
      ],
      [
        "ndé",
        -11.062351766776526
      ],
      [
        "chaise",
        -11.065710869368715
      ],
      [
        "ngel",
        -11.066192830489461
      ],
      [
        "gukaay",
        -11.068559544825579
      ],
      [
        "▁yonn",
        -11.069427299557216
      ],
      [
        "abar",
        -11.072036239273567
      ],
      [
        "bëggée",
        -11.074240470756397
      ],
      [
        "aux",
        -11.075802837951926
      ],
      [
        "▁Pa",
        -11.07702496685217
      ],
      [
        "vu",
        -11.078574142851322
      ],
      [
        "panier",
        -11.079288952347428
      ],
      [
        "▁cour",
        -11.080176047850056
      ],
      [
        "nor",
        -11.080238173173436
      ],
      [
        "ana",
        -11.080402768212362
      ],
      [
        "Mon",
        -11.080562417915615
      ],
      [
        "▁j'e",
        -11.081809316381499
      ],
      [
        "dit",
        -11.08182441514623
      ],
      [
        "dessin",
        -11.082215620453026
      ],
      [
        "▁ri",
        -11.08409521471147
      ],
      [
        "achi",
        -11.084401376839217
      ],
      [
        "ñaxtu",
        -11.08955664740341
      ],
      [
        "côté",
        -11.090290908182826
      ],
      [
        "▁refus",
        -11.091672088245769
      ],
      [
        "▁bër",
        -11.091818463511707
      ],
      [
        "écrit",
        -11.093506224823852
      ],
      [
        "▁pouv",
        -11.093553139491585
      ],
      [
        "uit",
        -11.093820744237913
      ],
      [
        "▁ñuu",
        -11.095068616626389
      ],
      [
        "fe",
        -11.095117602216373
      ],
      [
        "uuti",
        -11.096440806910334
      ],
      [
        "Par",
        -11.097274996717116
      ],
      [
        "▁envoyé",
        -11.097550959069942
      ],
      [
        "▁Fe",
        -11.098323154832142
      ],
      [
        "demain",
        -11.099672727053065
      ],
      [
        "bba",
        -11.100822019135338
      ],
      [
        "xew",
        -11.107380889268729
      ],
      [
        "marché",
        -11.108573160380137
      ],
      [
        "▁t'app",
        -11.109910925463705
      ],
      [
        "jours",
        -11.110744150164063
      ],
      [
        "oreiller",
        -11.113088009555074
      ],
      [
        "yëngu",
        -11.113755192109762
      ],
      [
        "temps",
        -11.114213505280972
      ],
      [
        "vert",
        -11.11590159510614
      ],
      [
        "fukk",
        -11.116051715074542
      ],
      [
        "ooy",
        -11.129809487361014
      ],
      [
        "▁Voi",
        -11.130014274096284
      ],
      [
        "▁n'i",
        -11.130700644271785
      ],
      [
        "jour",
        -11.131633566501732
      ],
      [
        "présent",
        -11.132309425869009
      ],
      [
        "salaam",
        -11.132563670533209
      ],
      [
        "çon",
        -11.133099386438843
      ],
      [
        "▁dép",
        -11.1343635885382
      ],
      [
        "▁solu",
        -11.13478742341799
      ],
      [
        "▁utilis",
        -11.135859416758006
      ],
      [
        "bët",
        -11.138906232213605
      ],
      [
        "affaire",
        -11.143594461660644
      ],
      [
        "▁Es",
        -11.145093663140699
      ],
      [
        "too",
        -11.145242317728012
      ],
      [
        "échelle",
        -11.148887106491866
      ],
      [
        "sent",
        -11.151513901452237
      ],
      [
        "habite",
        -11.154987419172652
      ],
      [
        "dans",
        -11.15684305971858
      ],
      [
        "bout",
        -11.159077024634296
      ],
      [
        "arrive",
        -11.164354295489094
      ],
      [
        "mm",
        -11.166615667567207
      ],
      [
        "▁U",
        -11.167659700858431
      ],
      [
        "▁Àn",
        -11.16843422936744
      ],
      [
        "▁jaa",
        -11.1722705893265
      ],
      [
        "ui.",
        -11.17488628436732
      ],
      [
        "jur",
        -11.17489021498352
      ],
      [
        "erai",
        -11.175316471856135
      ],
      [
        "rëm",
        -11.17575917654595
      ],
      [
        "'impo",
        -11.176752287775095
      ],
      [
        "mbe",
        -11.17761037908106
      ],
      [
        "▁Ñé",
        -11.178229577519598
      ],
      [
        "▁cara",
        -11.17906634529841
      ],
      [
        "E",
        -11.18025489019959
      ],
      [
        "▁hu",
        -11.181642093298692
      ],
      [
        "antee",
        -11.181677792302178
      ],
      [
        "assiette",
        -11.183908481459811
      ],
      [
        "▁rep",
        -11.184192301303323
      ],
      [
        "étage",
        -11.187953442366494
      ],
      [
        "▁mó",
        -11.189182615503274
      ],
      [
        "▁waxa",
        -11.18925687407153
      ],
      [
        "irent",
        -11.190668203871178
      ],
      [
        "sël",
        -11.190848373437824
      ],
      [
        "attrape",
        -11.19311271445565
      ],
      [
        "jàpp",
        -11.193297894035926
      ],
      [
        "bou",
        -11.195138977498816
      ],
      [
        "min",
        -11.196359118883219
      ],
      [
        "▁Gisul",
        -11.197113802023202
      ],
      [
        "allu",
        -11.197302465883894
      ],
      [
        "▁allon",
        -11.19739993864393
      ],
      [
        "waan",
        -11.197565460828688
      ],
      [
        "▁fû",
        -11.201388494501293
      ],
      [
        "àndarma",
        -11.205696421425943
      ],
      [
        "▁Jë",
        -11.206237793321938
      ],
      [
        "▁gr",
        -11.206988971938404
      ],
      [
        "ô",
        -11.207785616835302
      ],
      [
        "▁rencontr",
        -11.208899071604877
      ],
      [
        "press",
        -11.209984980676458
      ],
      [
        "sembl",
        -11.217970067766448
      ],
      [
        "▁appar",
        -11.220817518554739
      ],
      [
        "gay",
        -11.222434606244425
      ],
      [
        "aucun",
        -11.222768100669784
      ],
      [
        "▁së",
        -11.223153977996486
      ],
      [
        "▁personn",
        -11.224635688258648
      ],
      [
        "▁course",
        -11.230101590612204
      ],
      [
        "ut",
        -11.230408587466481
      ],
      [
        "'entr",
        -11.232720566188638
      ],
      [
        "▁Ré",
        -11.23281130143841
      ],
      [
        "âch",
        -11.23378827700261
      ],
      [
        "versé",
        -11.235348716821214
      ],
      [
        "▁duu",
        -11.238406421668406
      ],
      [
        "ble",
        -11.2393315776693
      ],
      [
        "ille-",
        -11.239553730642147
      ],
      [
        "été",
        -11.241037302594972
      ],
      [
        "plais",
        -11.2423594801375
      ],
      [
        "ñca",
        -11.245021320339692
      ],
      [
        "uuf",
        -11.248535496135135
      ],
      [
        "▁pied",
        -11.249787205492124
      ],
      [
        "▁rempli",
        -11.250458142085286
      ],
      [
        "pax",
        -11.251868489891299
      ],
      [
        "jul",
        -11.252490501460953
      ],
      [
        "jóo",
        -11.254335952198344
      ],
      [
        "orsqu",
        -11.255042410092138
      ],
      [
        "▁Daawu",
        -11.255396997131557
      ],
      [
        "sine",
        -11.255517208910334
      ],
      [
        "enti",
        -11.262106890397796
      ],
      [
        "ciment",
        -11.262727764406211
      ],
      [
        "app",
        -11.264546422272797
      ],
      [
        "men",
        -11.265606562768482
      ],
      [
        "▁présen",
        -11.26964200027974
      ],
      [
        "▁yónne",
        -11.27038733878398
      ],
      [
        "▁nale",
        -11.27218530418257
      ],
      [
        "bë",
        -11.273014552035278
      ],
      [
        "▁ouvert",
        -11.273753529416124
      ],
      [
        "▁fekk",
        -11.273761230786993
      ],
      [
        "s-ci",
        -11.274576015446632
      ],
      [
        "nant",
        -11.275034326946574
      ],
      [
        "▁kaasam",
        -11.276008437065135
      ],
      [
        "ition",
        -11.276245569213565
      ],
      [
        "▁ouverte",
        -11.276642539115347
      ],
      [
        "▁plat",
        -11.277191431949246
      ],
      [
        "▁njà",
        -11.277368609033806
      ],
      [
        "▁bâton",
        -11.27767267201818
      ],
      [
        "▁veu",
        -11.280708086497084
      ],
      [
        "bond",
        -11.283389348181665
      ],
      [
        "▁s'app",
        -11.284216760618666
      ],
      [
        "oyager",
        -11.284961989052732
      ],
      [
        "▁Ag",
        -11.285917097507976
      ],
      [
        "▁Peut",
        -11.286302019885827
      ],
      [
        "▁mbaxan",
        -11.287521323011632
      ],
      [
        "▁concer",
        -11.28819217103203
      ],
      [
        "blig",
        -11.288247992415442
      ],
      [
        "▁yàq",
        -11.288743391711462
      ],
      [
        "▁mois",
        -11.290795771157647
      ],
      [
        "écu",
        -11.291183677286318
      ],
      [
        "▁Yée",
        -11.29122597273472
      ],
      [
        "▁yó",
        -11.291504162474766
      ],
      [
        "émo",
        -11.291879371502565
      ],
      [
        "▁jigée",
        -11.292727485182732
      ],
      [
        "lam",
        -11.293739979654312
      ],
      [
        "▁naqa",
        -11.293786002678905
      ],
      [
        "▁Pr",
        -11.29452337840921
      ],
      [
        "▁jigé",
        -11.296395961537955
      ],
      [
        "▁jour",
        -11.296670535022967
      ],
      [
        "▁tente",
        -11.298250344918324
      ],
      [
        "'ave",
        -11.299042823264122
      ],
      [
        "▁yë",
        -11.29945238678422
      ],
      [
        "▁croi",
        -11.299724667194393
      ],
      [
        "▁cohabite",
        -11.30303869281992
      ],
      [
        "▁épo",
        -11.305113747144075
      ],
      [
        "échan",
        -11.305210928269249
      ],
      [
        "ê",
        -11.305317779273137
      ],
      [
        "▁daaw",
        -11.30662917619322
      ],
      [
        "perç",
        -11.306863918117504
      ],
      [
        "olitesse",
        -11.307074994122225
      ],
      [
        "▁vérit",
        -11.30837188518161
      ],
      [
        "ommag",
        -11.30852418339909
      ],
      [
        "▁étudi",
        -11.308539898010697
      ],
      [
        "chelle",
        -11.30881197301649
      ],
      [
        "▁arme",
        -11.30898326844019
      ],
      [
        "cours",
        -11.309728011945348
      ],
      [
        "eaucoup",
        -11.309828383674565
      ],
      [
        "ivres",
        -11.309986564548872
      ],
      [
        "aleeku",
        -11.310326946269456
      ],
      [
        "▁français",
        -11.31040282875025
      ],
      [
        "▁fleu",
        -11.310711053515673
      ],
      [
        "neetar",
        -11.310719216856294
      ],
      [
        "▁au-dess",
        -11.31086268490148
      ],
      [
        "▁vêt",
        -11.310937815596317
      ],
      [
        "mnasti",
        -11.311035073912263
      ],
      [
        "▁dirige",
        -11.311066191741935
      ],
      [
        "▁ŋgee",
        -11.31107191930673
      ],
      [
        "ãŋ",
        -11.31116926102123
      ],
      [
        "irgo",
        -11.311181721688628
      ],
      [
        "▁kéw",
        -11.31118641972187
      ],
      [
        "▁certain",
        -11.311199295109953
      ],
      [
        "õ",
        -11.3112146859769
      ],
      [
        "▁1",
        -11.311293705241685
      ],
      [
        "ń",
        -11.311309237647842
      ],
      [
        "ò",
        -11.311309237687796
      ],
      [
        "ā",
        -11.311309237687796
      ],
      [
        "]",
        -11.311309237687796
      ],
      [
        "$",
        -11.311309237687796
      ],
      [
        "[",
        -11.311309237687796
      ],
      [
        "ï",
        -11.311309237687796
      ],
      [
        "í",
        -11.311309237687796
      ],
      [
        "stitué",
        -11.311327005669199
      ],
      [
        "▁thé",
        -11.311332622302244
      ],
      [
        "approch",
        -11.311363932204808
      ],
      [
        "▁constru",
        -11.311424474216839
      ],
      [
        "ëlë",
        -11.311635671796946
      ],
      [
        "olof",
        -11.311670776180561
      ],
      [
        "▁l'éc",
        -11.31208053842252
      ],
      [
        "mbali",
        -11.312407088343482
      ],
      [
        "vec",
        -11.312594484125393
      ],
      [
        "▁coute",
        -11.312899740883156
      ],
      [
        "ercle",
        -11.31311222393741
      ],
      [
        "ajal",
        -11.313114178333631
      ],
      [
        "▁descend",
        -11.313316453358421
      ],
      [
        "tuellement",
        -11.313908574671263
      ],
      [
        "àngal",
        -11.314026085411218
      ],
      [
        "▁dëg",
        -11.314274451241571
      ],
      [
        "▁mê",
        -11.315300201157342
      ],
      [
        "politesse",
        -11.31556419471095
      ],
      [
        "aîne",
        -11.315743441798494
      ],
      [
        "t-c",
        -11.31577689289935
      ],
      [
        "googee",
        -11.316247710429714
      ],
      [
        "innaaw",
        -11.316371528985556
      ],
      [
        "▁l'ex",
        -11.316741214521716
      ],
      [
        "▁Musa",
        -11.3169259192126
      ],
      [
        "ceaux",
        -11.317209530143636
      ],
      [
        "▁revien",
        -11.317894805421847
      ],
      [
        "marin",
        -11.317900989918611
      ],
      [
        "▁yaak",
        -11.318257697808226
      ],
      [
        "ndi",
        -11.31828112956451
      ],
      [
        "▁inté",
        -11.318475620585588
      ],
      [
        "proch",
        -11.318507119909142
      ],
      [
        "▁solda",
        -11.31908360350031
      ],
      [
        "çu",
        -11.319146671458023
      ],
      [
        "alité",
        -11.319612688800532
      ],
      [
        "▁just",
        -11.320789639807618
      ],
      [
        "▁tiss",
        -11.320956187466699
      ],
      [
        "illir",
        -11.321403435584124
      ],
      [
        "▁Pou",
        -11.321647790861665
      ],
      [
        "dimbal",
        -11.322331013085472
      ],
      [
        "'ve",
        -11.323003673011376
      ],
      [
        "'enfan",
        -11.323951473398232
      ],
      [
        "ggoon",
        -11.32438487987477
      ],
      [
        "▁fran",
        -11.324863882319647
      ],
      [
        "ndika",
        -11.325005287416058
      ],
      [
        "itude",
        -11.325445298196023
      ],
      [
        "ardé",
        -11.325589986036107
      ],
      [
        "liers",
        -11.325757418018982
      ],
      [
        "amaale",
        -11.326993012412146
      ],
      [
        "tëli",
        -11.327133765154878
      ],
      [
        "▁l'h",
        -11.327143274911121
      ],
      [
        "sang",
        -11.327439634708826
      ],
      [
        "tbal",
        -11.327817215813633
      ],
      [
        "eloon",
        -11.32810396835692
      ],
      [
        "▁conce",
        -11.329276237965622
      ],
      [
        "-t",
        -11.330341526258708
      ],
      [
        "diku",
        -11.330497496057614
      ],
      [
        "atum",
        -11.330933779877764
      ],
      [
        "tué",
        -11.333013787762155
      ],
      [
        "▁cli",
        -11.33304181826099
      ],
      [
        "▁bã",
        -11.333061557370755
      ],
      [
        "étend",
        -11.333632029690394
      ],
      [
        "▁util",
        -11.336091506836219
      ],
      [
        "jus",
        -11.33647723749293
      ],
      [
        "ller",
        -11.336621250106782
      ],
      [
        "kum",
        -11.336724631314137
      ],
      [
        "▁yegg",
        -11.336870687124707
      ],
      [
        "iki",
        -11.337779703999605
      ],
      [
        "asiyo",
        -11.337805212186982
      ],
      [
        "▁fanee",
        -11.337865258822898
      ],
      [
        "▁dég",
        -11.338116186284228
      ],
      [
        "épare",
        -11.33848784339117
      ],
      [
        "▁xel",
        -11.339181548657246
      ],
      [
        "ennent",
        -11.341068512929521
      ],
      [
        "géey",
        -11.341101033324783
      ],
      [
        "ëy",
        -11.341532062504937
      ],
      [
        "ffr",
        -11.342290923987917
      ],
      [
        "▁revi",
        -11.343674555858602
      ],
      [
        "fic",
        -11.344633419549291
      ],
      [
        "▁L'au",
        -11.34579020000328
      ],
      [
        "mages",
        -11.345897605943573
      ],
      [
        "ège",
        -11.346390610053874
      ],
      [
        "▁Tug",
        -11.346760540812085
      ],
      [
        "▁wë",
        -11.347206596191063
      ],
      [
        "uche.",
        -11.348336286967239
      ],
      [
        "▁Sig",
        -11.349816746139549
      ],
      [
        "pè",
        -11.350915294677781
      ],
      [
        "acti",
        -11.352296779961307
      ],
      [
        "▁Pala",
        -11.352930880203893
      ],
      [
        "eut-être",
        -11.353665382991691
      ],
      [
        "lave",
        -11.354625400973344
      ],
      [
        "que.",
        -11.357453671803215
      ],
      [
        "▁Né",
        -11.358022111012287
      ],
      [
        "▁laq",
        -11.358364242700892
      ],
      [
        "eku",
        -11.3587293331443
      ],
      [
        "▁travaille",
        -11.358760911966714
      ],
      [
        "▁dikk",
        -11.35924949760702
      ],
      [
        "ges",
        -11.359928238904999
      ],
      [
        "▁env",
        -11.361221923480302
      ],
      [
        "ôn",
        -11.363311983395647
      ],
      [
        "isite",
        -11.36356751446158
      ],
      [
        "▁dellu",
        -11.363627364971704
      ],
      [
        "▁kaf",
        -11.363639296199809
      ],
      [
        "cukaay",
        -11.36503529437689
      ],
      [
        "▁comp",
        -11.365179968426066
      ],
      [
        "nglais",
        -11.365216331635121
      ],
      [
        "▁tenu",
        -11.365622146476603
      ],
      [
        "Gis",
        -11.365772647552333
      ],
      [
        "iñ",
        -11.366505541885578
      ],
      [
        "appé",
        -11.36719183372082
      ],
      [
        "ëggu",
        -11.368120458310292
      ],
      [
        "▁jëf",
        -11.368353693946956
      ],
      [
        "esca",
        -11.371071602953982
      ],
      [
        "'agir",
        -11.371520615371198
      ],
      [
        "Ma",
        -11.372144525717136
      ],
      [
        "ssées",
        -11.3728748540378
      ],
      [
        "▁serr",
        -11.373109945421255
      ],
      [
        "aire",
        -11.375728417485831
      ],
      [
        "port",
        -11.375802146218502
      ],
      [
        "▁pre",
        -11.377598617409252
      ],
      [
        "▁compo",
        -11.379008153844369
      ],
      [
        "ments",
        -11.379471919674803
      ],
      [
        "▁Lool",
        -11.380093588143035
      ],
      [
        "▁sav",
        -11.384413098185874
      ],
      [
        "▁xoole",
        -11.385403951303037
      ],
      [
        "aasamaas",
        -11.385413305412815
      ],
      [
        "dal",
        -11.386324948653712
      ],
      [
        "éeru",
        -11.386829660952692
      ],
      [
        "ur-",
        -11.38837583302327
      ],
      [
        "▁dencu",
        -11.389536761866033
      ],
      [
        "▁vena",
        -11.389722606169848
      ],
      [
        "▁Ju",
        -11.39142003830949
      ],
      [
        "ns",
        -11.393808684246673
      ],
      [
        "▁dell",
[...]
