{
  "version": "1.0",
  "truncation": null,
  "padding": null,
  "added_tokens": [
    {
      "id": 0,
      "content": "<cls>",
      "single_word": false,
      "lstrip": false,
      "rstrip": false,
      "normalized": false,
      "special": true
    },
    {
      "id": 1,
      "content": "<sep>",
      "single_word": false,
      "lstrip": false,
      "rstrip": false,
      "normalized": false,
      "special": true
    },
    {
      "id": 2,
      "content": "<unk>",
      "single_word": false,
      "lstrip": false,
      "rstrip": false,
      "normalized": false,
      "special": true
    },
    {
      "id": 3,
      "content": "<pad>",
      "single_word": false,
      "lstrip": false,
      "rstrip": false,
      "normalized": false,
      "special": true
    },
    {
      "id": 4,
      "content": "<mask>",
      "single_word": false,
      "lstrip": false,
      "rstrip": false,
      "normalized": false,
      "special": true
    },
    {
      "id": 5,
      "content": "<s>",
      "single_word": false,
      "lstrip": false,
      "rstrip": false,
      "normalized": false,
      "special": true
    },
    {
      "id": 6,
      "content": "</s>",
      "single_word": false,
      "lstrip": false,
      "rstrip": false,
      "normalized": false,
      "special": true
    }
  ],
  "normalizer": null,
  "pre_tokenizer": {
    "type": "Metaspace",
    "replacement": "▁",
    "add_prefix_space": true
  },
  "post_processor": null,
  "decoder": {
    "type": "Metaspace",
    "replacement": "▁",
    "add_prefix_space": true
  },
  "model": {
    "type": "Unigram",
    "unk_id": 2,
    "vocab": [
      [
        "<cls>",
        0.0
      ],
      [
        "<sep>",
        0.0
      ],
      [
        "<unk>",
        0.0
      ],
      [
        "<pad>",
        0.0
      ],
      [
        "<mask>",
        0.0
      ],
      [
        "<s>",
        0.0
      ],
      [
        "</s>",
        0.0
      ],
      [
        ",",
        -2.7688420458564433
      ],
      [
        "▁",
        -2.9259814009649086
      ],
      [
        "s",
        -3.3668839413281884
      ],
      [
        "▁de",
        -3.371637355580563
      ],
      [
        ".",
        -3.6804796530353547
      ],
      [
        "▁la",
        -3.873939388159818
      ],
      [
        "e",
        -4.202351720380644
      ],
      [
        "à",
        -4.243471521405334
      ],
      [
        "▁les",
        -4.381474725058173
      ],
      [
        "▁et",
        -4.503285768845731
      ],
      [
        "▁des",
        -4.568927640402558
      ],
      [
        "▁le",
        -4.583630685190585
      ],
      [
        "t",
        -4.830963707610446
      ],
      [
        "▁dans",
        -4.921381065681026
      ],
      [
        "▁un",
        -4.927316305087417
      ],
      [
        "▁qui",
        -4.945136651125196
      ],
      [
        "▁en",
        -4.995080016356332
      ],
      [
        "▁du",
        -5.021901769434843
      ],
      [
        "▁que",
        -5.079275965543396
      ],
      [
        "▁pour",
        -5.36232149602218
      ],
      [
        "▁au",
        -5.38383011134412
      ],
      [
        "r",
        -5.440979085940513
      ],
      [
        "▁mon",
        -5.457486274675283
      ],
      [
        "▁par",
        -5.4692847414124
      ],
      [
        "ent",
        -5.475021884941692
      ],
      [
        "▁son",
        -5.482427465227599
      ],
      [
        "c",
        -5.486563889011636
      ],
      [
        "▁l'",
        -5.488340551665217
      ],
      [
        "▁pas",
        -5.490472831397615
      ],
      [
        "▁père",
        -5.494146593583329
      ],
      [
        "ait",
        -5.578631396223723
      ],
      [
        "une",
        -5.598162583164524
      ],
      [
        "▁sur",
        -5.610543120315164
      ],
      [
        "▁il",
        -5.616171771878496
      ],
      [
        "er",
        -5.629438251106947
      ],
      [
        "é",
        -5.6296594695035935
      ],
      [
        "▁je",
        -5.643478852489365
      ],
      [
        "es",
        -5.705780686865853
      ],
      [
        "i",
        -5.753399889822401
      ],
      [
        "▁qu'il",
        -5.762077332521127
      ],
      [
        "▁a",
        -5.834877416019813
      ],
      [
        "▁ne",
        -5.836997175520383
      ],
      [
        "▁Il",
        -5.849449467031505
      ],
      [
        "▁ma",
        -5.8634053440845975
      ],
      [
        "▁ave",
        -5.886694684091936
      ],
      [
        "▁ce",
        -5.8937270139473075
      ],
      [
        "▁sa",
        -5.926266089126949
      ],
      [
        "▁se",
        -5.928388902261415
      ],
      [
        "▁où",
        -5.948372122570442
      ],
      [
        "▁c",
        -5.9774308862712635
      ],
      [
        "▁d'un",
        -5.983684821745007
      ],
      [
        "nt",
        -5.989523681756237
      ],
      [
        "▁nous",
        -6.006521959388702
      ],
      [
        "▁d",
        -6.018525809692746
      ],
      [
        "et",
        -6.020401315455887
      ],
      [
        "u",
        -6.029791646098923
      ],
      [
        "▁Le",
        -6.031782041970511
      ],
      [
        "▁est",
        -6.044896274679128
      ],
      [
        "que",
        -6.047701668885379
      ],
      [
        "▁plus",
        -6.069056147049295
      ],
      [
        "▁avait",
        -6.072470157401084
      ],
      [
        "a",
        -6.20214294479749
      ],
      [
        "▁lui",
        -6.212816975366813
      ],
      [
        "ont",
        -6.233823944033923
      ],
      [
        ":",
        -6.250182865004121
      ],
      [
        "▁comme",
        -6.258355677091049
      ],
      [
        "▁mère",
        -6.260324590848822
      ],
      [
        "▁d'",
        -6.278316774564062
      ],
      [
        "les",
        -6.287850432007536
      ],
      [
        "ette",
        -6.290549065292702
      ],
      [
        "ment",
        -6.290704635124859
      ],
      [
        "ant",
        -6.35880185247124
      ],
      [
        "▁me",
        -6.390082078910323
      ],
      [
        "▁san",
        -6.401962546431693
      ],
      [
        "▁tout",
        -6.420715885769746
      ],
      [
        "▁même",
        -6.42933936339344
      ],
      [
        "aient",
        -6.435198192577567
      ],
      [
        "▁pays",
        -6.446770298449361
      ],
      [
        "▁s",
        -6.458474832024204
      ],
      [
        "▁ces",
        -6.4766620574815175
      ],
      [
        "leurs",
        -6.498501627952596
      ],
      [
        "▁S",
        -6.521795851504338
      ],
      [
        "▁enfants",
        -6.522421125262578
      ],
      [
        "d",
        -6.524012864469315
      ],
      [
        "▁Je",
        -6.536490536289298
      ],
      [
        "▁était",
        -6.550255144502606
      ],
      [
        "▁ou",
        -6.55689597163283
      ],
      [
        "▁vie",
        -6.566159593445087
      ],
      [
        "le",
        -6.569935707146479
      ],
      [
        "▁guerre",
        -6.570207102053344
      ],
      [
        "▁La",
        -6.593509414258067
      ],
      [
        "n",
        -6.619135624750894
      ],
      [
        "▁leur",
        -6.62557263091314
      ],
      [
        "▁aux",
        -6.6366403376594505
      ],
      [
        "▁temps",
        -6.670211081385356
      ],
      [
        "▁l",
        -6.686464852311714
      ],
      [
        "'est",
        -6.689684449770139
      ],
      [
        "is",
        -6.6952277097479485
      ],
      [
        "▁?",
        -6.708754530746596
      ],
      [
        "ils",
        -6.722777235905327
      ],
      [
        "«",
        -6.733021002040366
      ],
      [
        "▁cela",
        -6.740646121586523
      ],
      [
        "▁monde",
        -6.750791756754429
      ],
      [
        "re",
        -6.757787947422049
      ],
      [
        "▁»",
        -6.759224395113099
      ],
      [
        "on",
        -6.792257740749477
      ],
      [
        "▁n'",
        -6.814009743442961
      ],
      [
        "▁cha",
        -6.816471952953673
      ],
      [
        "ce",
        -6.827946612742049
      ],
      [
        ")",
        -6.841058039758797
      ],
      [
        "ses",
        -6.848765095512082
      ],
      [
        "▁m",
        -6.849472863034325
      ],
      [
        "eux",
        -6.866323525895782
      ],
      [
        "és",
        -6.874866971158922
      ],
      [
        "▁maison",
        -6.886101755080398
      ],
      [
        "▁mais",
        -6.890680393950403
      ],
      [
        "y",
        -6.899606912905056
      ],
      [
        "il",
        -6.902357601594575
      ],
      [
        "▁fait",
        -6.930775470293458
      ],
      [
        "l",
        -6.950024533768031
      ],
      [
        "▁Ma",
        -6.950785885518532
      ],
      [
        "▁si",
        -6.955733466872207
      ],
      [
        "À",
        -6.9648096321967605
      ],
      [
        "ans",
        -6.974960096834227
      ],
      [
        "▁C",
        -6.980177549273718
      ],
      [
        "ions",
        -6.994580378205731
      ],
      [
        "▁–",
        -6.996068758907793
      ],
      [
        "▁moi",
        -6.9985195722464235
      ],
      [
        "être",
        -7.001771639468714
      ],
      [
        "▁j'a",
        -7.018897348050963
      ],
      [
        "▁sous",
        -7.020803799811716
      ],
      [
        "la",
        -7.022958093253725
      ],
      [
        "ée",
        -7.04259586005911
      ],
      [
        "▁jamais",
        -7.057629761022202
      ],
      [
        "▁doute",
        -7.0578707358218224
      ],
      [
        "▁corps",
        -7.058038088592765
      ],
      [
        "▁y",
        -7.059357526139543
      ],
      [
        "▁c'est",
        -7.06772064747683
      ],
      [
        "it",
        -7.089609993917959
      ],
      [
        "▁Mon",
        -7.090382999691991
      ],
      [
        "ne",
        -7.101422328932493
      ],
      [
        "de",
        -7.104429727053637
      ],
      [
        "est",
        -7.122830378365839
      ],
      [
        "▁p",
        -7.124873117109038
      ],
      [
        "▁jour",
        -7.132492725791272
      ],
      [
        "▁(",
        -7.135080340491422
      ],
      [
        "▁jusqu'",
        -7.143471322984576
      ],
      [
        "▁loin",
        -7.157545691953102
      ],
      [
        "ation",
        -7.167850913059521
      ],
      [
        "▁terre",
        -7.168219792682542
      ],
      [
        "tre",
        -7.1718081671674145
      ],
      [
        "en",
        -7.1872386955167435
      ],
      [
        "▁encore",
        -7.193358855069198
      ],
      [
        "-",
        -7.2024855046716505
      ],
      [
        "▁faire",
        -7.2099408801217555
      ],
      [
        "▁Ce",
        -7.218016081237563
      ],
      [
        "▁être",
        -7.221125088859507
      ],
      [
        "▁c'étai",
        -7.230274108087188
      ],
      [
        "▁l'Afrique",
        -7.230582502562772
      ],
      [
        "▁Ogoja",
        -7.2342274015577095
      ],
      [
        "▁Afrique",
        -7.235387157178829
      ],
      [
        "▁D",
        -7.238284775235598
      ],
      [
        "▁mes",
        -7.272196505504937
      ],
      [
        "▁années",
        -7.2744564852332765
      ],
      [
        "x",
        -7.28639516965503
      ],
      [
        "▁P",
        -7.28902745830789
      ],
      [
        "▁L",
        -7.292844035944524
      ],
      [
        "▁après",
        -7.312951746927668
      ],
      [
        "▁quelque",
        -7.317808316756748
      ],
      [
        "▁avant",
        -7.322057863545704
      ],
      [
        "▁médecin",
        -7.322281557327754
      ],
      [
        "▁En",
        -7.34114842856086
      ],
      [
        "▁aussi",
        -7.35023236710506
      ],
      [
        "▁France",
        -7.35023310594624
      ],
      [
        "▁Cameroun",
        -7.350373902577797
      ],
      [
        "▁Un",
        -7.354544484322922
      ],
      [
        "▁tou",
        -7.370652372284077
      ],
      [
        "▁autre",
        -7.373970553277948
      ],
      [
        "▁peu",
        -7.374962555997916
      ],
      [
        "▁pouvait",
        -7.3898473657843375
      ],
      [
        "▁qu'elle",
        -7.39482541919357
      ],
      [
        "▁bien",
        -7.395591353396162
      ],
      [
        "été",
        -7.396021355334979
      ],
      [
        "▁fois",
        -7.402451361794699
      ],
      [
        "▁deux",
        -7.40698110127968
      ],
      [
        "▁elle",
        -7.4348051788336385
      ],
      [
        "▁travers",
        -7.441088182207718
      ],
      [
        "rès",
        -7.446403389142277
      ],
      [
        "ement",
        -7.451844092444292
      ],
      [
        "us",
        -7.454170962703886
      ],
      [
        "▁m'a",
        -7.454704019563351
      ],
      [
        "▁fin",
        -7.456285684358066
      ],
      [
        "▁non",
        -7.456987487975596
      ],
      [
        "▁n'a",
        -7.458193781023698
      ],
      [
        "▁case",
        -7.4671050206436576
      ],
      [
        "▁N",
        -7.476241200215307
      ],
      [
        "▁n",
        -7.476470983240594
      ],
      [
        "un",
        -7.4822448776129615
      ],
      [
        "▁forêt",
        -7.486535213271097
      ],
      [
        "▁aucun",
        -7.490644535218491
      ],
      [
        "autour",
        -7.494462153570758
      ],
      [
        "▁nuit",
        -7.507554664511167
      ],
      [
        "o",
        -7.534431359362205
      ],
      [
        "ais",
        -7.544725383894264
      ],
      [
        "ux",
        -7.546410750280007
      ],
      [
        "▁bord",
        -7.5536639444838745
      ],
      [
        "▁rien",
        -7.559613119540668
      ],
      [
        "▁route",
        -7.559852552492649
      ],
      [
        "iers",
        -7.561266559434944
      ],
      [
        "▁vers",
        -7.564629895403831
      ],
      [
        "▁dé",
        -7.566571276861872
      ],
      [
        "ns",
        -7.572426315120711
      ],
      [
        "▁De",
        -7.574781156514863
      ],
      [
        "▁t",
        -7.584640523081504
      ],
      [
        "▁Nigeria",
        -7.589180732422266
      ],
      [
        "▁grand-mère",
        -7.589276498184999
      ],
      [
        "▁souviens",
        -7.58953976996416
      ],
      [
        "▁qu'on",
        -7.595997806671658
      ],
      [
        "▁bout",
        -7.60687023584099
      ],
      [
        "▁haut",
        -7.6084773801343575
      ],
      [
        "▁puis",
        -7.610854274330415
      ],
      [
        "▁village",
        -7.614832048177426
      ],
      [
        "▁chose",
        -7.614889603035202
      ],
      [
        "▁rivière",
        -7.614938206909661
      ],
      [
        "▁femme",
        -7.615482534451305
      ],
      [
        "'exil",
        -7.615861199982325
      ],
      [
        "eurs",
        -7.6273385152606625
      ],
      [
        "▁L'",
        -7.631409253970204
      ],
      [
        "▁in",
        -7.636103195923575
      ],
      [
        "▁va",
        -7.641802973883076
      ],
      [
        "▁soleil",
        -7.644633538991572
      ],
      [
        "▁fourmis",
        -7.647392335392803
      ],
      [
        "▁Et",
        -7.649186679630789
      ],
      [
        "▁murs",
        -7.6517048521293525
      ],
      [
        "▁devant",
        -7.653028700434184
      ],
      [
        "ai",
        -7.655249109241346
      ],
      [
        "▁cet",
        -7.662476274465574
      ],
      [
        "▁qu'",
        -7.6694371687931255
      ],
      [
        "tion",
        -7.673292450781071
      ],
      [
        "▁passé",
        -7.675836461053176
      ],
      [
        "m",
        -7.689231228607856
      ],
      [
        "▁l'a",
        -7.690632826118374
      ],
      [
        "▁seul",
        -7.695194659506158
      ],
      [
        "▁regard",
        -7.697680072312835
      ],
      [
        "▁homme",
        -7.702630432303691
      ],
      [
        "▁Banso",
        -7.703279593980485
      ],
      [
        "▁toit",
        -7.7039386021761915
      ],
      [
        "▁s'",
        -7.708797628430049
      ],
      [
        "▁plaine",
        -7.712006080694541
      ],
      [
        "▁peau",
        -7.712814404834875
      ],
      [
        "▁No",
        -7.712830784956813
      ],
      [
        "▁sorte",
        -7.719698044416228
      ],
      [
        "ur",
        -7.722996299323592
      ],
      [
        "▁Au",
        -7.730478074404872
      ],
      [
        "▁voyage",
        -7.736299074529492
      ],
      [
        "▁enfant",
        -7.737783126049039
      ],
      [
        "▁mot",
        -7.74038243856088
      ],
      [
        "▁ans",
        -7.740495707446769
      ],
      [
        "▁A",
        -7.740550437085217
      ],
      [
        "▁quan",
        -7.745649889868293
      ],
      [
        "▁grand",
        -7.749517076228932
      ],
      [
        "▁f",
        -7.752598241866039
      ],
      [
        "▁ét",
        -7.75758615039185
      ],
      [
        "té",
        -7.757731897996556
      ],
      [
        "▁l'Ouest",
        -7.766118930999264
      ],
      [
        "▁grande",
        -7.777489841924297
      ],
      [
        "tôt",
        -7.784635057996388
      ],
      [
        "▁sui",
        -7.789661266882699
      ],
      [
        "▁tel",
        -7.795670058461653
      ],
      [
        "▁femmes",
        -7.807862823000891
      ],
      [
        "ous",
        -7.8312848940083395
      ],
      [
        "▁Bamenda",
        -7.831457334740131
      ],
      [
        "▁violence",
        -7.831460255208022
      ],
      [
        "▁re",
        -7.8330899902291655
      ],
      [
        "▁contre",
        -7.838909666478098
      ],
      [
        "▁C'étai",
        -7.840875815110092
      ],
      [
        "▁ciel",
        -7.8414701479531015
      ],
      [
        "aux",
        -7.842114290503535
      ],
      [
        "tte",
        -7.842808235622347
      ],
      [
        "▁mal",
        -7.844870134962839
      ],
      [
        "▁pu",
        -7.852139291715753
      ],
      [
        "▁yeux",
        -7.856824055081782
      ],
      [
        "entre",
        -7.857948452884914
      ],
      [
        "▁Quan",
        -7.86285737749654
      ],
      [
        "▁plu",
        -7.863049787708645
      ],
      [
        "▁villages",
        -7.868710364085828
      ],
      [
        "▁souvenir",
        -7.87257028350972
      ],
      [
        "▁port",
        -7.87646437746965
      ],
      [
        "▁long",
        -7.878740995622164
      ],
      [
        "ou",
        -7.878923461472519
      ],
      [
        "▁ni",
        -7.879144270400937
      ],
      [
        "ère",
        -7.881868030661584
      ],
      [
        "armée",
        -7.886067646145234
      ],
      [
        "ient",
        -7.890244459074362
      ],
      [
        "▁so",
        -7.8928910145974625
      ],
      [
        "▁doi",
        -7.894708723533148
      ],
      [
        "elle",
        -7.8958152127646954
      ],
      [
        "▁Pour",
        -7.899511176172501
      ],
      [
        "quelle",
        -7.9022432126082816
      ],
      [
        "▁jardin",
        -7.902885891428484
      ],
      [
        "▁mémoire",
        -7.902893359031232
      ],
      [
        "▁vécu",
        -7.902914203162474
      ],
      [
        "▁l'hôpital",
        -7.90402839915214
      ],
      [
        "▁l'eau",
        -7.904252712015563
      ],
      [
        "▁Elle",
        -7.904731887776105
      ],
      [
        "▁gens",
        -7.90480663352224
      ],
      [
        "▁bois",
        -7.904923409887901
      ],
      [
        "ir",
        -7.907691909229095
      ],
      [
        "▁côté",
        -7.912473848571775
      ],
      [
        "ité",
        -7.915778970296703
      ],
      [
        "▁montagnes",
        -7.920737475091435
      ],
      [
        "▁n'étai",
        -7.92420300652493
      ],
      [
        "▁étai",
        -7.929333144854343
      ],
      [
        "uis",
        -7.929682095085482
      ],
      [
        "me",
        -7.932197517276295
      ],
      [
        "▁n'avai",
        -7.940090118732036
      ],
      [
        "te",
        -7.945614071005745
      ],
      [
        "t-",
        -7.947090862162215
      ],
      [
        "▁mort",
        -7.947311814491378
      ],
      [
        "▁connu",
        -7.953509485795506
      ],
      [
        "▁coup",
        -7.954502751871944
      ],
      [
        "eur",
        -7.957122466969264
      ],
      [
        "ées",
        -7.959191298040673
      ],
      [
        "avoir",
        -7.965018367572803
      ],
      [
        "▁jours",
        -7.97449464439345
      ],
      [
        "▁Sa",
        -7.975543160294675
      ],
      [
        "▁voir",
        -7.977393261243652
      ],
      [
        "▁britannique",
        -7.9798089445201645
      ],
      [
        "▁liberté",
        -7.979809007012836
      ],
      [
        "▁tard",
        -7.980083497256693
      ],
      [
        "▁Maurice",
        -7.9815058794679645
      ],
      [
        "▁lorsqu",
        -7.982008317687299
      ],
      [
        "▁For",
        -7.9829813786337045
      ],
      [
        "▁parler",
        -7.984450002320644
      ],
      [
        "▁nos",
        -7.989221289853909
      ],
      [
        "▁aurait",
        -8.008727966889225
      ],
      [
        "ry",
        -8.013058618657936
      ],
      [
        "▁M",
        -8.01432867524521
      ],
      [
        "▁hommes",
        -8.021090890674468
      ],
      [
        "avons",
        -8.022837146021946
      ],
      [
        "▁carte",
        -8.03351578043654
      ],
      [
        "ès",
        -8.03380429336242
      ],
      [
        "▁peut",
        -8.034053653510933
      ],
      [
        "▁seule",
        -8.034813446323485
      ],
      [
        "▁ville",
        -8.040711339986565
      ],
      [
        "▁celle",
        -8.040727858171685
      ],
      [
        "▁reste",
        -8.040744989937632
      ],
      [
        "▁grands",
        -8.042889596821981
      ],
      [
        "aire",
        -8.049399289883267
      ],
      [
        "▁no",
        -8.051249894562977
      ],
      [
        "▁qu'un",
        -8.051658082892576
      ],
      [
        "in",
        -8.054280049434643
      ],
      [
        "age",
        -8.059549584107987
      ],
      [
        "▁l'autre",
        -8.063509189873333
      ],
      [
        "▁Tout",
        -8.063565753771812
      ],
      [
        "▁passage",
        -8.063987444323931
      ],
      [
        "vent",
        -8.06439889220701
      ],
      [
        "▁Sud",
        -8.064748909815803
      ],
      [
        "▁appris",
        -8.06534037519076
      ],
      [
        "▁heures",
        -8.067261770452541
      ],
      [
        "▁aujourd'hui",
        -8.06928361803543
      ],
      [
        "▁trop",
        -8.076478448104556
      ],
      [
        "▁dire",
        -8.081657246540392
      ],
      [
        "▁main",
        -8.08195397214464
      ],
      [
        "▁J",
        -8.08432779360494
      ],
      [
        "▁vi",
        -8.088148929381921
      ],
      [
        "▁fleuves",
        -8.08919850577415
      ],
      [
        "▁semble",
        -8.092282674688498
      ],
      [
        "vaient",
        -8.09666886691528
      ],
      [
        "▁pres",
        -8.103802176007335
      ],
      [
        "▁noir",
        -8.119948043136963
      ],
      [
        "▁J'a",
        -8.124379777391914
      ],
      [
        "▁moment",
        -8.124657043559763
      ],
      [
        "▁vrai",
        -8.12592833404066
      ],
      [
        "▁toutes",
        -8.127079276346848
      ],
      [
        "▁cour",
        -8.1288618597406
      ],
      [
        "f",
        -8.128887168333868
      ],
      [
        "▁ca",
        -8.133494304143067
      ],
      [
        "▁j'",
        -8.135888796676594
      ],
      [
        "▁marche",
        -8.139578271296166
      ],
      [
        "▁lit",
        -8.153228548134454
      ],
      [
        "8",
        -8.154051368674391
      ],
      [
        "▁Guyane",
        -8.15405138911472
      ],
      [
        "zone",
        -8.154069993122707
      ],
      [
        "▁frère",
        -8.154175441245306
      ],
      [
        "▁force",
        -8.154202306313437
      ],
      [
        "▁d'Ogoja",
        -8.154283509438535
      ],
      [
        "▁famille",
        -8.154688281680833
      ],
      [
        "▁cuir",
        -8.155113199499295
      ],
      [
        "▁longue",
        -8.156056788161107
      ],
      [
        "▁silence",
        -8.156409399796384
      ],
      [
        "▁faisait",
        -8.156714165538174
      ],
      [
        "▁poste",
        -8.156822567514078
      ],
      [
        "▁bateau",
        -8.15916235624368
      ],
      [
        "▁fall",
        -8.1604268030887
      ],
      [
        "▁soir",
        -8.164657682518671
      ],
      [
        "▁toujours",
        -8.164894204732928
      ],
      [
        "▁toute",
        -8.166038104772124
      ],
      [
        "▁arbres",
        -8.168696874035032
      ],
      [
        "▁avions",
        -8.176273890658631
      ],
      [
        "p",
        -8.17685416786948
      ],
      [
        "▁ch",
        -8.182251202301694
      ],
      [
        "vait",
        -8.19611226075507
      ],
      [
        "▁on",
        -8.203476100461828
      ],
      [
        "▁forme",
        -8.2079526934845
      ],
      [
        "▁photo",
        -8.223184099944284
      ],
      [
        "▁fleuve",
        -8.223405062851352
      ],
      [
        "▁première",
        -8.223745240039435
      ],
      [
        "▁fond",
        -8.228980585147998
      ],
      [
        "▁qu",
        -8.232002335383015
      ],
      [
        "▁dit",
        -8.24192382387751
      ],
      [
        "▁là",
        -8.244150856454699
      ],
      [
        "près",
        -8.244253768407052
      ],
      [
        "▁matin",
        -8.254282328788364
      ],
      [
        "▁voix",
        -8.254318154529182
      ],
      [
        "▁d'Afrique",
        -8.254350097126324
      ],
      [
        "▁Nord",
        -8.254475272253908
      ],
      [
        "▁sentiment",
        -8.254538693322978
      ],
      [
        "▁point",
        -8.255992423120617
      ],
      [
        "▁partir",
        -8.25624928241398
      ],
      [
        "▁moins",
        -8.257938485094927
      ],
      [
        "▁nouveau",
        -8.258844814262828
      ],
      [
        "▁bras",
        -8.265817291310833
      ],
      [
        "▁partie",
        -8.27292476625882
      ],
      [
        "des",
        -8.272984837271629
      ],
      [
        "▁pieds",
        -8.275634766462344
      ],
      [
        "r.",
        -8.278404959297289
      ],
      [
        "▁su",
        -8.279700931121065
      ],
      [
        "▁regarde",
        -8.280605375243297
      ],
      [
        "▁vois",
        -8.281822127887397
      ],
      [
        "▁pa",
        -8.287103274680215
      ],
      [
        "ance",
        -8.289463220519906
      ],
      [
        "▁mains",
        -8.290324024124022
      ],
      [
        "▁sang",
        -8.29621140017213
      ],
      [
        "ure",
        -8.30642925994963
      ],
      [
        "▁eu",
        -8.307309635607858
      ],
      [
        "▁do",
        -8.308000286019098
      ],
      [
        "▁porte",
        -8.311942411899265
      ],
      [
        "▁Peu",
        -8.320224025583716
      ],
      [
        "▁africain",
        -8.327722326454886
      ],
      [
        "▁av",
        -8.333952848970528
      ],
      [
        "▁pro",
        -8.345455660020075
      ],
      [
        "ons",
        -8.346723954511766
      ],
      [
        "ts",
        -8.349867627761535
      ],
      [
        "où",
        -8.354491034957611
      ],
      [
        "▁co",
        -8.356056257646145
      ],
      [
        "▁po",
        -8.359289298744857
      ],
      [
        "▁petite",
        -8.362122826497277
      ],
      [
        "▁vu",
        -8.363610762777729
      ],
      [
        "▁façon",
        -8.365162479788884
      ],
      [
        "▁pirogue",
        -8.365162535835175
      ],
      [
        "▁lumière",
        -8.365162815441007
      ],
      [
        "▁société",
        -8.365163879904527
      ],
      [
        "▁l'âge",
        -8.365167809224133
      ],
      [
        "▁raison",
        -8.365184218049254
      ],
      [
        "▁insectes",
        -8.365199583282019
      ],
      [
        "▁savane",
        -8.365258469674954
      ],
      [
        "ante",
        -8.365406258204263
      ],
      [
        "▁manger",
        -8.365653285002383
      ],
      [
        "▁Nice",
        -8.365695924898889
      ],
      [
        "▁parfois",
        -8.365970800670011
      ],
      [
        "▁chaleur",
        -8.366120005331371
      ],
      [
        "▁marché",
        -8.366809187899408
      ],
      [
        "▁vieille",
        -8.36756751300181
      ],
      [
        "▁d'herbes",
        -8.367694578746349
      ],
      [
        "▁Ou",
        -8.369902730823508
      ],
      [
        "▁couleur",
        -8.370635555251887
      ],
      [
        "▁étions",
        -8.371068284736108
      ],
      [
        "ec",
        -8.373419045525523
      ],
      [
        "▁roi",
        -8.374085600904952
      ],
      [
        "▁garçons",
        -8.37493333437704
      ],
      [
        "▁cause",
        -8.375000535495467
      ],
      [
        "▁côte",
        -8.380041469523041
      ],
      [
        "▁enfance",
        -8.38096766584391
      ],
      [
        "▁crois",
        -8.386430669796098
      ],
      [
        "▁blancs",
        -8.391128413666122
      ],
      [
        "▁vent",
        -8.39179879988836
      ],
      [
        "▁d'a",
        -8.392753491336343
      ],
      [
        "▁mili",
        -8.393678521217085
      ],
      [
        "eu",
        -8.396742124098278
      ],
      [
        "▁froid",
        -8.407072172754587
      ],
      [
        "▁b",
        -8.411309899240994
      ],
      [
        "▁l'ai",
        -8.419388081405057
      ],
      [
        "and",
        -8.423050999443605
      ],
      [
        "▁part",
        -8.426223685589067
      ],
      [
        "ez",
        -8.426344561283932
      ],
      [
        "au",
        -8.42777166465081
      ],
      [
        "nce",
        -8.430367653833265
      ],
      [
        "▁routes",
        -8.431815212820714
      ],
      [
        "▁feu",
        -8.436084869799728
      ],
      [
        "▁jeu",
        -8.438836337433804
      ],
      [
        "du",
        -8.441693741002606
      ],
      [
        "ture",
        -8.442132489437036
      ],
      [
        "▁rêve",
        -8.44710177892373
      ],
      [
        "▁nature",
        -8.44784969762049
      ],
      [
        "vous",
        -8.450855959622626
      ],
      [
        "tant",
        -8.451241343163712
      ],
      [
        "ique",
        -8.454773650713447
      ],
      [
        "▁telle",
        -8.455806970317422
      ],
      [
        "▁rouge",
        -8.457174593439426
      ],
      [
        "▁visage",
        -8.458603913198822
      ],
      [
        "▁petit",
        -8.459829620730941
      ],
      [
        "▁montagne",
        -8.46257945641278
      ],
      [
        "▁ex",
        -8.462813350474356
      ],
      [
        "▁inter",
        -8.46707002158163
      ],
      [
        "û",
        -8.472604747394763
      ],
      [
        "gré",
        -8.472774588117115
      ],
      [
        "pendan",
        -8.47668715157927
      ],
      [
        "▁h",
        -8.478114698216324
      ],
      [
        "avait",
        -8.480662965373519
      ],
      [
        "▁sais",
        -8.485211086429
      ],
      [
        "▁montre",
        -8.488951530820252
      ],
      [
        "▁médicaments",
        -8.490162480450163
      ],
      [
        "▁simple",
        -8.490163910445476
      ],
      [
        "▁chaussettes",
        -8.490169613100347
      ],
      [
        "▁puissance",
        -8.49020093111437
      ],
      [
        "▁l'amour",
        -8.490203577762644
      ],
      [
        "▁feuilles",
        -8.49022706442522
      ],
      [
        "▁L'Afrique",
        -8.490245607726763
      ],
      [
        "▁blanche",
        -8.490256709989088
      ],
      [
        "▁district",
        -8.490267710688933
      ],
      [
        "▁départ",
        -8.490667230526896
      ],
      [
        "▁douceur",
        -8.49067165929217
      ],
      [
        "▁région",
        -8.490733660450818
      ],
      [
        "▁dernier",
        -8.490814736798656
      ],
      [
        "▁plein",
        -8.49093198362163
      ],
      [
        "▁manière",
        -8.490997975710325
      ],
      [
        "▁longtemps",
        -8.491225346696979
      ],
      [
        "▁surtout",
        -8.49155601058996
      ],
      [
        "▁Comme",
        -8.492977234727885
      ],
      [
        "▁meubles",
        -8.493289357885761
      ],
      [
        "▁faut",
        -8.493298621382358
      ],
      [
        "▁salle",
        -8.494125854241336
      ],
      [
        "▁debout",
        -8.494583711141694
      ],
      [
        "▁proche",
        -8.498232691882588
      ],
      [
        "▁cœur",
        -8.500731185545161
      ],
      [
        "▁goût",
        -8.501230723103005
      ],
      [
        "▁Non",
        -8.503828161423401
      ],
      [
        "▁près",
        -8.50930286648642
      ],
      [
        "▁sauvages",
        -8.509836884570271
      ],
      [
        "▁hautes",
        -8.511489099888578
      ],
      [
        "▁noms",
        -8.512896628767903
      ],
      [
        "▁compte",
        -8.514037896379643
      ],
      [
        "tes",
        -8.518942991914962
      ],
      [
        "umes",
        -8.520409591193204
      ],
      [
        "▁connaiss",
        -8.526757102466654
      ],
      [
        "▁photos",
        -8.530656044248174
      ],
      [
        "g",
        -8.531953482245086
      ],
      [
        "▁coloniale",
        -8.534625801395494
      ],
      [
        "▁not",
        -8.536004240534938
      ],
      [
        "▁sou",
        -8.54635342614062
      ],
      [
        "▁ba",
        -8.548234349464694
      ],
      [
        "se",
        -8.550732376080331
      ],
      [
        "▁sera",
        -8.552812224039746
      ],
      [
        "▁G",
        -8.554474358216968
      ],
      [
        "impression",
        -8.557201687543694
      ],
      [
        "ndant",
        -8.557449941533896
      ],
      [
        "▁pouvai",
        -8.559562504729954
      ],
      [
        "▁parlait",
        -8.562068091921098
      ],
      [
        "▁choses",
        -8.56313920995209
      ],
      [
        "ch",
        -8.564002778126197
      ],
      [
        "▁V",
        -8.565066202505902
      ],
      [
        "ine",
        -8.567546664330694
      ],
      [
        "▁devai",
        -8.572706547117392
      ],
      [
        "homme",
        -8.57921706756765
      ],
      [
        "▁cours",
        -8.581019682136752
      ],
      [
        "▁certaine",
        -8.59263959865088
      ],
      [
        "▁cons",
        -8.597052197510877
      ],
      [
        "▁vivre",
        -8.599765324725476
      ],
      [
        "▁scorpion",
        -8.6017579644971
      ],
      [
        "▁peur",
        -8.602457849749346
      ],
      [
        "▁retour",
        -8.604912212268411
      ],
      [
        "▁blanc",
        -8.606378221218716
      ],
      [
        "▁e",
        -8.610285815255542
      ],
      [
        "▁di",
        -8.614664257486746
      ],
      [
        "▁pied",
        -8.614731407029272
      ],
      [
        "▁O",
        -8.616352961628568
      ],
      [
        "▁travail",
        -8.620500630644809
      ],
      [
        "our",
        -8.630765541141372
      ],
      [
        "▁mi",
        -8.631056876663063
      ],
      [
        "▁gro",
        -8.632910170875851
      ],
      [
        "▁l'Angleterre",
        -8.633019622655
      ],
      [
        "▁Victoria",
        -8.633019622655421
      ],
      [
        "▁âge",
        -8.633019622663792
      ],
      [
        "▁gouvernement",
        -8.633019622700578
      ],
      [
        "▁bonheur",
        -8.63301965667871
      ],
      [
        "▁difficile",
        -8.63301968084692
      ],
      [
        "▁officer",
        -8.63301977750237
      ],
      [
        "▁immense",
        -8.633020030559003
      ],
      [
        "▁premier",
        -8.633021876065957
      ],
      [
        "▁mourir",
        -8.633022047518155
      ],
      [
        "▁solitude",
        -8.633023784124713
      ],
      [
        "▁cheval",
        -8.633025279070775
      ],
      [
        "▁l'intérieur",
        -8.633025798442787
      ],
      [
        "▁Alors",
        -8.633036036478357
      ],
      [
        "▁House",
        -8.633058274341717
      ],
      [
        "▁beaucoup",
        -8.633060370358528
      ],
      [
        "▁tôle",
        -8.633074607813892
      ],
      [
        "▁l'é",
        -8.63319297342982
      ],
      [
        "▁plateaux",
        -8.633214068864076
      ],
      [
        "▁train",
        -8.63335517073429
      ],
      [
        "▁d'autre",
        -8.633362446773528
      ],
      [
        "▁campement",
        -8.63338960078157
      ],
      [
        "▁d'abord",
        -8.6337330160652
      ],
      [
        "▁celui",
        -8.63406701699013
      ],
      [
        "▁large",
        -8.634136760250698
      ],
      [
        "▁au-de",
        -8.634741294799383
      ],
      [
        "▁palmes",
        -8.635072692706613
      ],
      [
        "mettre",
        -8.63518990462534
      ],
      [
        "thme",
        -8.63523297704727
      ],
      [
        "▁Plu",
        -8.6355619648522
      ],
      [
        "▁prend",
        -8.635819164941537
      ],
      [
        "▁termites",
        -8.636062053764713
      ],
      [
        "▁courant",
        -8.636269124488637
      ],
      [
        "▁nuages",
        -8.63632689480058
      ],
      [
        "▁depuis",
        -8.636776375538194
      ],
      [
        "▁reç",
        -8.637453421824592
      ],
      [
        "▁images",
        -8.63756012879033
      ],
      [
        "▁six",
        -8.637683777327492
      ],
      [
        "odeur",
        -8.639014433154816
      ],
      [
        "▁raconte",
        -8.63920844580411
      ],
      [
        "▁ventre",
        -8.639340602880468
      ],
      [
        "▁lieux",
        -8.641916132392671
      ],
      [
        "▁accroché",
        -8.642099256702267
      ],
      [
        "▁porteurs",
        -8.643345353498006
      ],
      [
        "▁Obudu",
        -8.643486601127815
      ],
      [
        "▁mer",
        -8.646976181577266
      ],
      [
        "▁anglaise",
        -8.650669369826803
      ],
      [
        "▁cru",
        -8.651195899749748
      ],
      [
        "▁lieu",
        -8.65338027047543
      ],
      [
        "▁chemins",
        -8.65497899258703
      ],
      [
        "dé",
        -8.65520213620715
      ],
      [
        "▁B",
        -8.656941376941099
      ],
      [
        "▁s'il",
        -8.657167147269002
      ],
      [
        "▁éta",
        -8.659491804996957
      ],
      [
        "▁D'",
        -8.661420508445703
      ],
      [
        "▁con",
        -8.661661857204223
      ],
      [
        "autorité",
        -8.662848182481888
      ],
      [
        "▁chasse",
        -8.665877744482485
      ],
      [
        "▁parc",
        -8.667198531156213
      ],
      [
        "▁lesquel",
        -8.668690276376852
      ],
      [
        "▁nus",
        -8.673243273616714
      ],
      [
        "▁aller",
        -8.673859773068061
      ],
      [
        "▁premières",
        -8.679116179547833
      ],
      [
        "▁r",
        -8.68020584725624
      ],
      [
        "▁habit",
        -8.681678028050163
      ],
      [
        "▁noirs",
        -8.685050153506273
      ],
      [
        "▁petits",
        -8.687763993417358
      ],
      [
        "▁s'ét",
        -8.693227845076425
      ],
      [
        "ables",
        -8.697289887534794
      ],
      [
        "▁pris",
        -8.708112814238554
      ],
      [
        "h",
        -8.70899693816537
      ],
      [
        "▁jou",
        -8.710116510128541
      ],
      [
        "▁E",
        -8.71467613871576
      ],
      [
        "entiers",
        -8.715839757051835
      ],
      [
        "ire",
        -8.726719950336616
      ],
      [
        "▁crise",
        -8.729083916357812
      ],
      [
        "ter",
        -8.73316995561905
      ],
      [
        "▁français",
        -8.73413672522561
      ],
      [
        "▁entend",
        -8.737836817558076
      ],
      [
        "▁hu",
        -8.74318124326208
      ],
      [
        "▁vo",
        -8.745570485301732
      ],
      [
        "▁J'",
        -8.746448472101314
      ],
      [
        "▁colonial",
        -8.75240332682472
      ],
      [
        "▁m'en",
        -8.76132359573538
      ],
      [
        "▁destin",
        -8.763714603466413
      ],
      [
        "▁v",
        -8.765592667613834
      ],
      [
        "▁maladie",
        -8.767299400510293
      ],
      [
        "voir",
        -8.767986785053449
      ],
      [
        "▁gardé",
        -8.76985804487537
      ],
      [
        "son",
        -8.77307565921368
      ],
      [
        "ng",
        -8.773659326677082
      ],
      [
        "▁ressenti",
        -8.773970883869385
      ],
      [
        "ieux",
        -8.776492109081675
      ],
      [
        "▁étranger",
        -8.778622349127868
      ],
      [
        "▁boue",
        -8.779306965159078
      ],
      [
        "▁venu",
        -8.781820105245501
      ],
      [
        "ion",
        -8.782924573404664
      ],
      [
        "▁Su",
        -8.783699517473476
      ],
      [
        "ri",
        -8.786374810997815
      ],
      [
        "▁accompagn",
        -8.79753938547221
      ],
      [
        "quoi",
        -8.798019184234953
      ],
      [
        "▁Africains",
        -8.799686292101217
      ],
      [
        "▁territoire",
        -8.799686336942255
      ],
      [
        "▁règle",
        -8.799686514668867
      ],
      [
        "▁Cross",
        -8.799686883725666
      ],
      [
        "▁Lagos",
        -8.79969012636648
      ],
      [
        "▁désert",
        -8.79970500495537
      ],
      [
        "▁chemise",
        -8.799706686193764
      ],
      [
        "▁vingt",
        -8.79972632379561
      ],
      [
        "▁pierre",
        -8.799737214969179
      ],
      [
        "▁cheveux",
        -8.799774018991041
      ],
      [
        "▁réalité",
        -8.799804755657755
      ],
      [
        "▁servir",
        -8.799813504416148
      ],
      [
        "▁frontière",
        -8.799872202822161
      ],
      [
        "▁époque",
        -8.799939411956135
      ],
      [
        "▁légère",
        -8.80000841639026
      ],
      [
        "▁j'imagine",
        -8.800034493012083
      ],
      [
        "▁rêvé",
        -8.80005045658944
      ],
      [
        "▁vaste",
        -8.800282131329853
      ],
      [
        "▁début",
        -8.800291751649324
      ],
      [
        "▁Par",
        -8.800416897310086
      ],
      [
        "▁herbes",
        -8.800515361452607
      ],
      [
        "▁voiture",
        -8.800529850944002
      ],
      [
        "▁nouvelle",
        -8.800625001906546
      ],
      [
        "▁masques",
        -8.800780272656445
      ],
      [
        "▁ressens",
        -8.80079533945532
      ],
      [
        "▁courir",
        -8.800927769629313
      ],
      [
        "▁lequel",
        -8.801542065894946
      ],
      [
        "▁fuir",
        -8.80159229759561
      ],
      [
        "▁bouche",
        -8.80182366990513
      ],
      [
        "▁arrêté",
        -8.801854773398603
      ],
      [
        "▁partout",
        -8.802065937841144
      ],
      [
        "▁I",
        -8.802433410875178
      ],
      [
        "▁habitants",
        -8.80364252748246
      ],
      [
        "▁brousse",
        -8.803711393626473
      ],
      [
        "▁l'aventure",
        -8.803885749676716
      ],
      [
        "▁malade",
        -8.804080272248985
      ],
      [
        "▁laisser",
        -8.804932915475359
      ],
      [
        "▁dev",
        -8.806784786561265
      ],
      [
        "▁écrit",
        -8.808039494772231
      ],
      [
        "▁livre",
        -8.808404425380084
      ],
      [
        "▁jambes",
        -8.809127269279308
      ],
      [
        "▁Europe",
        -8.810037895942607
      ],
      [
        "éjà",
        -8.810694776424407
      ],
      [
        "▁africaine",
        -8.813970240074704
      ],
      [
        "▁objets",
        -8.814081817766658
      ],
      [
        "lon",
        -8.814387841174778
      ],
      [
        "▁humaine",
        -8.814573496563224
      ],
      [
        "▁thé",
        -8.814801343956042
      ],
      [
        "▁histoire",
        -8.815123789945192
      ],
      [
        "▁souffle",
        -8.816470974399829
      ],
      [
        "b",
        -8.817064056379103
      ],
      [
        "▁vêtu",
        -8.817368332235183
      ],
      [
        "▁sol",
        -8.81737706458609
      ],
      [
        "▁Aiya",
        -8.818849666603342
      ],
      [
        "-t-il",
        -8.819407684721059
      ],
      [
        "instant",
        -8.820834997573732
      ],
      [
        "indre",
        -8.822927838000235
      ],
      [
        "▁devenu",
        -8.822947742906535
      ],
      [
        "image",
        -8.823345625943086
      ],
      [
        "▁sens",
        -8.824659392099969
      ],
      [
        "▁ressentir",
        -8.82769476649168
      ],
      [
        "▁Quelque",
        -8.827757270979504
      ],
      [
        "▁tours",
        -8.831220956873148
      ],
      [
        "boy",
        -8.832595482015536
      ],
      [
        "▁naissance",
        -8.83677231996082
      ],
      [
        "▁cou",
        -8.838298514219646
      ],
      [
        "▁fais",
        -8.839773518787638
      ],
      [
        "part",
        -8.843782019775457
      ],
      [
        "▁visages",
        -8.844413788100388
      ],
      [
        "▁commence",
        -8.857207451014279
      ],
      [
        "▁rage",
        -8.861150251517815
      ],
      [
        "▁coups",
        -8.866313911178871
      ],
      [
        "▁française",
        -8.86982267021164
      ],
      [
        "▁portes",
        -8.869922586549906
      ],
      [
        "ort",
        -8.870852982282312
      ],
      [
        "▁mo",
        -8.872716813904681
      ],
      [
        "▁band",
        -8.873179347701573
      ],
      [
        "▁C'",
        -8.8762110906543
      ],
      [
        "▁mari",
        -8.88584291203633
      ],
      [
        "▁l'entr",
        -8.886203099576225
      ],
      [
        "▁pos",
        -8.890304465919431
      ],
      [
        "▁suiv",
        -8.892352669273617
      ],
      [
        "iment",
        -8.893781542679669
      ],
      [
        "éri",
        -8.896562744774181
      ],
      [
        "▁parle",
        -8.897702808286335
      ],
      [
        "▁K",
        -8.898666068955276
      ],
      [
        "kom",
        -8.899542575780458
      ],
      [
        "▁rivières",
        -8.900345124012102
      ],
      [
        "▁car",
        -8.912434715033129
      ],
      [
        "▁nom",
        -8.914225340910246
      ],
      [
        "▁bas",
        -8.914337275103923
      ],
      [
        "êtes",
        -8.915159472586904
      ],
      [
        "▁per",
        -8.919907413842852
      ],
      [
        "▁H",
        -8.924448893388883
      ],
      [
        "▁Av",
        -8.92601168375842
      ],
      [
        "rait",
        -8.929325613407588
      ],
      [
        "▁Pe",
        -8.929690006886847
      ],
      [
        "▁col",
        -8.931331862820173
      ],
      [
        "am",
        -8.935972665560056
      ],
      [
        "ton",
        -8.95146905992754
      ],
      [
        "tation",
        -8.95962875207509
      ],
      [
        "ète",
        -8.966398658762827
      ],
      [
        "▁sauvage",
        -8.96784541911358
      ],
      [
        "▁chaud",
        -8.968319018955876
      ],
      [
        "▁entendu",
        -8.974742972971596
      ],
      [
        "ame",
        -8.97724529961963
      ],
      [
        "lle",
        -8.979521893858923
      ],
      [
        "▁am",
        -8.983624625345719
      ],
      [
        "▁chemin",
        -8.984059244716072
      ],
      [
        "▁garde",
        -8.988555310212144
      ],
      [
        "▁traverse",
        -8.989815126818376
      ],
      [
        "ie",
        -8.994272872111482
      ],
      [
        "▁ta",
        -8.994460513817497
      ],
      [
        "ré",
        -8.99455814794321
      ],
      [
        "-là",
        -8.998940878627696
      ],
      [
        "▁juste",
        -8.999475483006218
      ],
      [
        "▁Georgetown",
        -8.99968628932287
      ],
      [
        "▁biafrais",
        -8.999686289323355
      ],
      [
        "▁Biafra",
        -8.99968628932445
      ],
      [
        "▁camerounais",
        -8.999686289352884
      ],
      [
        "2",
        -8.999686289361625
      ],
      [
        "▁Southampton",
        -8.999686289361625
      ],
      [
        "▁photographi",
        -8.999686298290401
      ],
      [
        "▁termitières",
        -8.999686307004895
      ],
      [
        "▁!",
        -8.999686450844969
      ],
      [
        "D.O.",
        -8.999686457355462
      ],
      [
        "▁l'époque",
        -8.99968679349493
      ],
      [
        "▁grand-père",
        -8.999686978280529
      ],
      [
        "▁continent",
        -8.999688257988797
      ],
      [
        "▁probable",
        -8.999691121350487
      ],
      [
        "▁visite",
        -8.999695363458393
      ],
      [
        "▁fauve",
        -8.99969736059166
      ],
      [
        "▁chaussures",
        -8.999700069729046
      ],
      [
        "▁terrible",
        -8.999704616554137
      ],
      [
        "▁rejoindre",
        -8.99970609769385
      ],
      [
        "▁compris",
        -8.999709745682257
      ],
      [
        "▁service",
        -8.999711635645323
      ],
      [
        "▁branche",
        -8.999712367709705
      ],
      [
        "▁métier",
        -8.999713493472635
      ],
      [
        "▁collines",
        -8.99971382624675
      ],
      [
        "▁contact",
        -8.999719374909585
      ],
      [
        "▁retraite",
        -8.999723827000391
      ],
      [
        "▁tronc",
        -8.999728562307155
      ],
      [
        "▁l'aube",
        -8.999741873051395
      ],
      [
        "▁brûlure",
        -8.999764009878847
      ],
      [
        "▁j'étais",
        -8.999782909138546
      ],
      [
        "▁ondul",
        -8.999784581245445
      ],
      [
        "▁poussière",
        -8.999796395734055
      ],
      [
        "▁fût",
        -8.999839421024333
      ],
      [
        "▁assis",
        -8.999843826504584
      ],
      [
        "▁lampe",
        -8.999847256066593
      ],
      [
        "▁présent",
        -8.999850671983936
      ],
      [
        "▁mill",
        -8.999885446562171
      ],
      [
        "▁séchée",
        -8.999988090690554
      ],
      [
        "▁revenir",
        -8.999994866616253
      ],
      [
        "▁rares",
        -9.000006553018617
      ],
      [
        "▁fruit",
        -9.000132977619558
      ],
      [
        "▁Pourtant",
        -9.000273489192699
      ],
      [
        "▁hutte",
        -9.000525504623006
      ],
      [
        "▁commun",
        -9.000653185224085
      ],
      [
        "▁journée",
        -9.000802206001023
      ],
      [
        "▁colère",
        -9.000847542509806
      ],
      [
        "▁précédé",
        -9.000975380054307
      ],
      [
        "▁oncle",
        -9.00108214141093
      ],
      [
        "▁place",
        -9.001484653075705
      ],
      [
        "▁bonne",
        -9.00161789777625
      ],
      [
        "▁vivant",
        -9.001677426957244
      ],
      [
        "▁douce",
        -9.002048986208077
      ],
      [
        "▁pince",
        -9.002187380648847
      ],
      [
        "▁sensation",
        -9.00307100441234
      ],
      [
        "▁apporté",
        -9.003601034566088
      ],
      [
        "▁égale",
        -9.003625118456334
      ],
      [
        "▁hamacs",
        -9.00429142972492
      ],
      [
        "▁cuisine",
        -9.004340999596035
      ],
      [
        "▁volets",
        -9.004381099810152
      ],
      [
        "andis",
        -9.004397207122022
      ],
      [
        "▁sombre",
        -9.004513615063173
      ],
      [
        "▁auto",
        -9.004976655350351
      ],
      [
        "▁jouer",
        -9.00502756038807
      ],
      [
        "▁droit",
        -9.00568211269735
      ],
      [
        "▁alors",
        -9.005871841246767
      ],
      [
        "tiens",
        -9.006078244195619
      ],
      [
        "▁rire",
        -9.007521982322809
      ],
      [
        "▁men",
        -9.008278597766132
      ],
      [
        "▁voit",
        -9.010048792527266
      ],
      [
        "▁Moi",
        -9.010521161945157
      ],
      [
        "▁resté",
        -9.011273348826526
      ],
      [
        "▁personne",
        -9.011495643489985
      ],
      [
        "▁couch",
        -9.012897796790632
      ],
      [
        "▁différent",
        -9.01313601607008
      ],
      [
        "bi",
        -9.01322230943558
      ],
      [
        "▁lire",
        -9.0140951849536
      ],
      [
        "▁allemande",
        -9.014243166536232
      ],
      [
        "▁ami",
        -9.014839202259557
      ],
      [
        "▁ainsi",
        -9.015037800759908
      ],
      [
        "▁savoir",
        -9.016760244131179
      ],
      [
        "▁armé",
        -9.01758975721172
      ],
      [
        "▁eux",
        -9.018443197956909
      ],
      [
        "▁militaires",
        -9.018831649725557
      ],
      [
        "ôt",
        -9.019017864681283
      ],
      [
        "▁plan",
        -9.019161426401201
      ],
      [
        "▁bou",
        -9.019916271724338
      ],
      [
        "▁charge",
        -9.021299576348051
      ],
      [
        "▁vide",
        -9.0230995685594
      ],
      [
        "▁forte",
        -9.025417836795913
      ],
      [
        "▁donc",
        -9.025513465336838
      ],
      [
        "▁laissé",
        -9.026892056653514
      ],
      [
        "▁pans",
        -9.027689326474615
      ],
      [
        "▁table",
        -9.030360939786167
      ],
      [
        "▁laine",
        -9.034049047346969
      ],
      [
        "▁rive",
        -9.04095445809748
      ],
      [
        "angoisse",
        -9.042012554240344
      ],
      [
        "▁pluie",
        -9.044397832493669
      ],
      [
        "▁Da",
        -9.04577831072119
      ],
      [
        "▁scorpions",
        -9.047279861329871
      ],
      [
        "▁instant",
        -9.049878437905976
      ],
      [
        "▁Ba",
        -9.051128984561124
      ],
      [
        "-j",
        -9.051822932986918
      ],
      [
        "aires",
        -9.051831751770472
      ],
      [
        "use",
        -9.052208308486215
      ],
      [
        "▁avance",
        -9.052581628079148
      ],
      [
        "▁devenus",
        -9.053926495066424
      ],
      [
        "▁Jo",
        -9.05718446797581
      ],
      [
        "▁provi",
        -9.06083687778814
      ],
      [
        "▁tour",
        -9.06229868208792
      ],
      [
        "▁arrivée",
        -9.065973508138855
      ],
      [
        "euse",
        -9.06947603391152
      ],
      [
        "▁rend",
        -9.070233238938286
      ],
      [
        "veux",
        -9.072827132437231
      ],
      [
        "vi",
        -9.073953700038555
      ],
      [
        "▁batt",
        -9.074617179523818
      ],
      [
        "▁pareil",
        -9.075766706215036
      ],
      [
        "tions",
        -9.076160818290948
      ],
      [
        "mes",
        -9.078196944516433
      ],
      [
        "▁grandi",
        -9.081901338912399
      ],
      [
        "était",
        -9.085615012553285
      ],
      [
        "▁bo",
        -9.088847954315542
      ],
      [
        "▁rappel",
        -9.092707069623494
      ],
      [
        "▁19",
        -9.093127420814438
      ],
      [
        "▁soup",
        -9.09330681718553
      ],
      [
        "▁donn",
        -9.094191485351523
      ],
      [
        "ait-il",
        -9.099841628195799
      ],
      [
        "▁prise",
        -9.102457446468097
      ],
      [
        "ide",
        -9.10262672759142
      ],
      [
        "ssu",
        -9.104742513292742
      ],
      [
        "res",
        -9.106050207905193
      ],
      [
        "▁cont",
        -9.107759671146775
      ],
      [
        "▁pensé",
        -9.107883640323095
      ],
      [
        "▁pouss",
        -9.11096593981185
      ],
      [
        "▁d'or",
        -9.11112134378636
      ],
      [
        "▁l'avai",
        -9.115863904368231
      ],
      [
        "rète",
        -9.117733107903566
      ],
      [
        "semble",
        -9.120215507661893
      ],
      [
        "▁seuls",
        -9.120692853344012
      ],
      [
        "▁rue",
        -9.122296003237027
      ],
      [
        "▁m'",
        -9.124308295750062
      ],
      [
        "▁cime",
        -9.125225492240515
      ],
      [
        "vant",
        -9.126540328482413
      ],
      [
        "vais",
        -9.126864460481281
      ],
      [
        "▁impression",
        -9.130434114354637
      ],
      [
        "auté",
        -9.132605083328421
      ],
      [
        "▁ra",
        -9.134261737638845
      ],
      [
        "ombre",
        -9.13538301277281
      ],
      [
        "ins",
        -9.138961300876597
      ],
      [
        "▁all",
        -9.13974292796757
      ],
      [
        "▁pis",
        -9.141730732739651
      ],
      [
        "▁sau",
        -9.14228696955716
      ],
      [
        "▁troupeau",
        -9.144346312249716
      ],
      [
        "▁couvert",
        -9.144926783643132
      ],
      [
        "ble",
        -9.145807153839918
      ],
      [
        "▁(ce",
        -9.148164918725472
      ],
      [
        "ille",
        -9.1503300920154
      ],
      [
        "ières",
        -9.150827512751057
      ],
      [
        "▁donne",
        -9.151684738689543
      ],
      [
        "sion",
        -9.157079075999684
      ],
      [
        "ption",
        -9.158424040859082
      ],
      [
        "▁découvert",
        -9.158513468002221
      ],
      [
        "▁mé",
        -9.160751614458416
      ],
      [
        "▁croi",
        -9.162309862632013
      ],
      [
        "uni",
        -9.16661860087303
      ],
      [
        "▁pourrai",
        -9.168755310431202
      ],
      [
        "▁pourra",
        -9.169064235487577
      ],
      [
        "eau",
        -9.17454303912455
      ],
      [
        "▁fenêtre",
        -9.17982296497076
      ],
      [
        "isme",
        -9.18343747099426
      ],
      [
        "▁ré",
        -9.186476887889622
      ],
      [
        "roule",
        -9.190201262268364
      ],
      [
        "ène",
        -9.190665859834013
      ],
      [
        "▁nu",
        -9.191839722598727
      ],
      [
        "▁vari",
        -9.191910663233138
      ],
      [
        "aller",
        -9.192442492541138
      ],
      [
        "▁chang",
        -9.19925467640251
      ],
      [
        "ni",
        -9.202120709513212
      ],
      [
        "ément",
        -9.203632826418715
      ],
      [
        "▁est-",
        -9.20395966034147
      ],
      [
        "▁cherch",
        -9.205921977977246
      ],
      [
        "▁coupé",
        -9.207439647254303
      ],
      [
        "▁tr",
        -9.211882426849
      ],
      [
        "▁tête",
        -9.213467869128195
      ],
      [
        "ces",
        -9.215067968418206
      ],
      [
        "sait",
        -9.216474280161593
      ],
      [
        "▁bâton",
        -9.216887916306623
      ],
      [
        "▁fil",
        -9.217141976546596
      ],
      [
        "▁allé",
        -9.217207750725276
      ],
      [
        "▁anglais",
        -9.217856065935745
      ],
      [
        "um",
        -9.219739766076742
      ],
      [
        "▁bra",
        -9.221868939697089
      ],
      [
        "or",
        -9.22952269641405
      ],
      [
        "▁décor",
        -9.229639841997958
      ],
      [
        "ù",
        -9.22978428409139
      ],
      [
        "▁entr",
        -9.231570629546543
      ],
      [
        "▁mur",
        -9.232275004502231
      ],
      [
        "▁cinq",
        -9.232561911089794
      ],
      [
        "▁racont",
        -9.235237231344666
      ],
      [
        "oir",
        -9.236938370995572
      ],
      [
        "▁quitte",
        -9.23901728246701
      ],
      [
        "ra",
        -9.239990846458308
      ],
      [
        "▁don",
        -9.240301408129666
      ],
      [
        "roya",
        -9.241812422394233
      ],
      [
        "▁frapp",
        -9.242235984251938
      ],
      [
        "▁fort",
        -9.244746704381797
      ],
      [
        "armes",
        -9.245970293780728
      ],
      [
        "▁l'imp",
        -9.248258370758105
      ],
      [
        "▁dure",
        -9.249004849162404
      ],
      [
        "çai",
        -9.24967291950654
      ],
      [
        "▁Abakaliki",
        -9.249686289321694
      ],
      [
        "▁Ahidjo",
        -9.249686289321701
      ],
      [
        "▁trapèze",
        -9.249686289327494
      ],
      [
        "▁États-Unis",
        -9.249686289341497
      ],
      [
        "▁Calabar",
        -9.2496862893632
      ],
      [
        "▁Angleterre",
        -9.249686289403241
      ],
      [
        "▁lorgnons",
        -9.249686290072308
      ],
      [
        "▁fièvre",
        -9.249686295332019
      ],
      [
        "▁Anglais",
        -9.24968629948985
      ],
      [
        "▁Harcourt",
        -9.249686301402372
      ],
      [
        "▁électri",
        -9.24968630196437
      ],
      [
        "▁Allemand",
        -9.249686302391694
      ],
      [
        "▁éprouv",
        -9.24968630639319
      ],
      [
        "▁proximité",
        -9.249686319451841
      ],
      [
        "▁Bretagne",
        -9.249686336467585
      ],
      [
        "▁caravane",
        -9.249686349245959
      ],
      [
        "▁officier",
        -9.24968637357785
      ],
      [
        "▁discipline",
        -9.249686390689964
      ],
      [
        "▁radio",
        -9.249686432757672
      ],
      [
        "▁Chuku",
        -9.249686434317434
      ],
      [
        "▁trésor",
        -9.249686617976044
      ],
      [
        "▁Certain",
        -9.2496867853018
      ],
      [
        "▁l'abri",
        -9.249686869467123
      ],
      [
        "▁pénétr",
        -9.249686882301239
      ],
      [
        "▁Jeffries",
        -9.249687412476995
      ],
      [
        "▁règne",
        -9.249687721957436
      ],
      [
        "▁alentour",
        -9.249687722783532
      ],
      [
        "▁accepté",
        -9.249687843935408
      ],
      [
        "▁Blanc",
        -9.24968792547853
      ],
      [
        "▁assiette",
        -9.249688419190162
      ],
      [
        "▁cliché",
        -9.249688948028009
      ],
      [
        "▁extraordinaire",
        -9.249691945518798
      ],
      [
        "▁tropicale",
        -9.249697848701585
      ],
      [
        "▁Moka",
        -9.249699374853897
      ],
      [
        "▁décrit",
        -9.249704781796492
      ],
      [
        "▁ruisseau",
        -9.249706488323739
      ],
      [
        "▁fonction",
        -9.24971416629764
      ],
      [
        "▁foudre",
        -9.249721463226386
      ],
      [
        "▁légende",
        -9.249725889559276
      ],
      [
        "▁répond",
        -9.249734860941196
      ],
      [
        "▁canal",
        -9.249739832812889
      ],
      [
        "▁fauteuil",
        -9.249747410981783
      ],
      [
        "▁River",
        -9.249748152215131
      ],
      [
        "▁poitrine",
        -9.249750410254176
      ],
      [
        "▁obsession",
        -9.249757564894853
      ],
      [
        "▁entouré",
        -9.249779896516085
      ],
      [
        "▁champ",
        -9.249782469140502
      ],
      [
        "▁aigu",
        -9.249807617638695
      ],
      [
        "▁vieillard",
        -9.24986278984933
      ],
      [
        "▁naître",
        -9.249921922994037
      ],
      [
        "▁refus",
        -9.249924560504839
      ],
      [
        "▁maintenant",
        -9.249944460777824
      ],
      [
        "▁fureur",
        -9.249955238489756
      ],
      [
        "▁surveill",
        -9.249967665700328
      ],
      [
        "▁possible",
        -9.249991582429168
      ],
      [
        "▁l'hum",
        -9.250015315376674
      ],
      [
        "▁comprendre",
        -9.250021587735656
      ],
      [
        "▁perdre",
        -9.250067602036268
      ],
      [
        "▁fameuse",
        -9.250081884569187
      ],
      [
        "▁lui-même",
        -9.250111397579195
      ],
      [
        "▁capable",
        -9.250156222375814
      ],
      [
        "▁F",
        -9.25020184081611
      ],
      [
        "▁charme",
        -9.25024920648769
      ],
      [
        "▁assez",
        -9.250302087880447
      ],
      [
        "▁frappions",
        -9.250323014505973
      ],
      [
        "▁bruit",
        -9.25034086787921
      ],
      [
        "▁contraire",
        -9.250460262512107
      ],
      [
        "▁pension",
        -9.25047926466
      ],
      [
        "▁install",
        -9.250546320467972
      ],
      [
        "▁muraille",
        -9.25055335067932
      ],
      [
        "▁l'indépendance",
        -9.250987430183718
      ],
      [
        "▁flamme",
        -9.251195625771148
      ],
      [
        "▁mangé",
        -9.251197052589724
      ],
      [
        "▁commencé",
        -9.251455516343556
      ],
      [
        "empire",
        -9.251493279518963
      ],
      [
        "▁brûlant",
        -9.251924407387193
      ],
      [
        "▁compl",
        -9.252242026637987
      ],
      [
        "▁d'eau",
        -9.252558995474983
      ],
      [
        "▁peine",
        -9.252748863983525
      ],
      [
        "al",
        -9.252971175367657
      ],
      [
        "▁raconté",
        -9.25342537068334
      ],
      [
        "▁cacher",
        -9.253466094234952
      ],
      [
        "▁répu",
        -9.255089759620027
      ],
      [
        "▁pétrole",
        -9.255616621580991
      ],
      [
        "▁Ibo",
        -9.255669821442444
      ],
      [
        "hôpital",
        -9.255763667959766
      ],
      [
        "▁Éta",
        -9.25582249482812
      ],
      [
        "▁oublier",
        -9.256939948068394
      ],
      [
        "▁ressembl",
        -9.258013378349679
      ],
      [
        "▁marqué",
        -9.258462459260727
      ],
      [
        "▁rendu",
        -9.259845216272568
      ],
      [
        "▁créé",
        -9.260025230656371
      ],
      [
        "▁après-midi",
        -9.261012817343866
      ],
      [
        "▁donner",
        -9.261402739440026
      ],
      [
        "▁Bam",
        -9.263162208366808
      ],
      [
        "ing",
        -9.264205302616235
      ],
      [
        "▁sœurs",
        -9.264434478415419
      ],
      [
        "▁kilomètres",
        -9.264970070944266
      ],
      [
        "▁pou",
        -9.265247556925365
      ],
      [
        "▁im",
        -9.266279863062397
      ],
      [
        "▁d'enfants",
        -9.266495450716791
      ],
      [
        "-il",
        -9.266547803595131
      ],
      [
        "▁conduis",
        -9.267157971117161
      ],
      [
        "▁noire",
        -9.268549126326123
      ],
      [
        "at",
        -9.269496060223902
      ],
      [
        "▁Po",
        -9.271428020550909
      ],
      [
        "▁d'eux",
        -9.271702410301316
      ],
      [
        "▁propre",
        -9.271861094498565
      ],
      [
        "▁acheté",
        -9.272355335604052
      ],
      [
        "▁imagin",
        -9.272444132079288
      ],
      [
        "▁libre",
        -9.273771777223404
      ],
      [
        "▁maîtres",
        -9.274021080637823
      ],
      [
        "▁secondes",
        -9.274600891174952
      ],
      [
        "▁vagues",
        -9.274607026140396
      ],
      [
        "▁grise",
        -9.275645779654326
      ],
      [
        "▁jeux",
        -9.276029990168393
      ],
      [
        "▁fer",
        -9.27632841529056
      ],
      [
        "▁chambre",
        -9.276499519682991
      ],
      [
        "▁jeunes",
        -9.276648031761221
      ],
      [
        "'imagine",
        -9.277074335995241
      ],
      [
        "▁qua",
        -9.277415968512281
      ],
      [
        "▁parents",
        -9.280220356972926
      ],
      [
        "▁cré",
        -9.282219966389519
      ],
      [
        "▁d'Ar",
        -9.282335649277385
      ],
      [
        "▁bâtons",
        -9.283609142593129
      ],
      [
        "▁avai",
        -9.285520578307496
      ],
      [
        "▁marque",
        -9.285883932312585
      ],
      [
        "venir",
        -9.28610509741944
      ],
      [
        "▁trouve",
        -9.286426019540395
      ],
      [
        "ci",
        -9.287336362640033
      ],
      [
        "▁éclat",
        -9.288069055842811
      ],
      [
        "▁mesure",
        -9.289049523771041
      ],
      [
        "▁soit",
        -9.291948731094987
      ],
      [
        "▁Ri",
        -9.292067843521213
      ],
      [
        "vers",
        -9.292308670559283
      ],
      [
        "rie",
        -9.293718088349992
      ],
      [
        "▁endroit",
        -9.294355681630714
      ],
      [
        "▁exerc",
        -9.294444015233069
      ],
      [
        "▁instants",
        -9.295662600530935
      ],
      [
        "▁l'an",
        -9.29645536926961
      ],
      [
        "▁étrange",
        -9.299097767448291
      ],
      [
        "▁dur",
        -9.30005832315963
      ],
      [
        "▁mis",
        -9.30139014473233
      ],
      [
        "deux",
        -9.302124143294371
      ],
      [
        "▁chef",
        -9.302274356733783
      ],
      [
        "▁tra",
        -9.30230265131593
      ],
      [
        "▁maladies",
        -9.302597995433237
      ],
      [
        "▁Bo",
        -9.304745088557715
      ],
      [
        "arrière",
        -9.304982411554363
      ],
      [
        "▁idée",
        -9.311953604835368
      ],
      [
        "▁pe",
        -9.312274776189833
      ],
      [
        "commencer",
        -9.314860540211575
      ],
      [
        "▁attend",
        -9.316987007312491
      ],
      [
        "ve",
        -9.320021697017658
      ],
      [
        "men",
        -9.321683952788227
      ],
      [
        "▁l'ét",
        -9.322246292364294
      ],
      [
        "▁juge",
        -9.323523426819532
      ],
      [
        "umeur",
        -9.324543862441066
      ],
      [
        "manche",
        -9.32591534346119
      ],
      [
        "▁certain",
        -9.328889016916243
      ],
      [
        "porter",
        -9.329708609235444
      ],
      [
        "'occupa",
        -9.330256583831662
      ],
      [
        "ourquoi",
        -9.330952039371814
      ],
      [
        "w",
        -9.332943325938027
      ],
      [
        "▁cercl",
        -9.333640873450253
      ],
      [
        "▁var",
        -9.338404804061016
      ],
      [
        "▁fur",
        -9.33849079191398
      ],
      [
        "▁em",
        -9.338919575905871
      ],
      [
        "▁char",
        -9.341274836226434
      ],
      [
        "ures",
        -9.341954618998484
      ],
      [
        "▁gr",
        -9.342111782096657
      ],
      [
        "ière",
        -9.342900920346912
      ],
      [
        "ches",
        -9.34345897339097
      ],
      [
        "ver",
        -9.346750818425978
      ],
      [
        "▁Kan",
        -9.346986977251298
      ],
      [
        "rass",
        -9.347164125817029
      ],
      [
        "▁d'ar",
        -9.347383776658942
      ],
      [
        "▁touch",
        -9.348004153971205
      ],
      [
        "▁n'aura",
        -9.349476614483818
      ],
      [
        "▁découverte",
        -9.350567171277872
      ],
      [
        "▁cartes",
        -9.355137777393294
      ],
      [
        "'exerce",
        -9.357445407759377
      ],
      [
        "▁com",
        -9.358591622125815
      ],
      [
        "▁l'est",
        -9.360072488975737
      ],
      [
        "▁cord",
        -9.360454722823816
      ],
      [
        "▁guerr",
        -9.36206582127652
      ],
      [
        "▁laisse",
        -9.364561569697068
      ],
      [
        "▁colonie",
        -9.365430864532238
      ],
      [
        "co",
        -9.365668114889477
      ],
      [
        "resse",
        -9.373188920215611
      ],
      [
        "▁générale",
        -9.373477040579397
      ],
      [
        "ria",
        -9.37425595916839
      ],
      [
        "▁d'en",
        -9.374534002424472
      ],
      [
        "▁tant",
        -9.37664773651251
      ],
      [
        "able",
        -9.381270922563848
      ],
      [
        "▁ouverte",
        -9.382803238957543
      ],
      [
        "▁g",
        -9.385397689761717
      ],
      [
        "▁aventure",
        -9.387317323258419
      ],
      [
        "▁nourri",
        -9.388272829849848
      ],
      [
        "▁ai",
        -9.389206986397479
      ],
      [
        "ier",
        -9.389453124066799
      ],
      [
        "ants",
        -9.391595139694411
      ],
      [
        "▁s'installe",
        -9.398348903616748
      ],
      [
        "sant",
        -9.400901430444923
      ],
      [
        "▁entré",
        -9.401907692785151
      ],
      [
        "▁dis",
        -9.404900212379307
      ],
      [
        "aque",
        -9.406423531162362
      ],
      [
        "▁continu",
        -9.407473724071888
      ],
      [
        "▁tro",
        -9.408328548922892
      ],
      [
        "urs",
        -9.414356736562455
      ],
      [
        "▁sembl",
        -9.415709310979661
      ],
      [
        "▁tableau",
        -9.416131784050593
      ],
      [
        "▁cris",
        -9.418491265143555
      ],
      [
        "ien",
        -9.418774158533829
      ],
      [
        "z",
        -9.41946682460801
      ],
      [
        "nde",
        -9.42013877029501
      ],
      [
        "ix",
        -9.420393208242336
      ],
      [
        "os",
        -9.420563630978174
      ],
      [
        "▁retourne",
        -9.420907251553112
      ],
      [
        "▁cri",
        -9.421098568910393
      ],
      [
        "▁leçon",
        -9.42132009982622
      ],
      [
        "▁Ka",
        -9.422440227519505
      ],
      [
        "▁fig",
        -9.42340371216422
      ],
      [
        "v",
        -9.428410499789527
      ],
      [
        "▁isolé",
        -9.428638892782704
      ],
      [
        "▁nuits",
        -9.429426709218683
      ],
      [
        "▁bri",
        -9.431656802100651
      ],
      [
        "▁cr",
        -9.431937432510622
      ],
      [
        "▁l'inst",
        -9.432880823426194
      ],
      [
        "oit",
        -9.433453375646936
      ],
      [
        "sse",
        -9.435590721823797
      ],
      [
        "▁général",
        -9.437809740590204
      ],
      [
        "ience",
        -9.4393960717083
      ],
      [
        "st-",
        -9.440092711339918
      ],
      [
        "oire",
        -9.44044335308145
      ],
      [
        "âche",
        -9.447882843862619
      ],
      [
        "mère",
        -9.44999395339644
      ],
      [
        "▁autres",
        -9.452101357914074
      ],
      [
        "▁j'ent",
        -9.452332346115114
      ],
      [
        "lop",
        -9.453042059086386
      ],
      [
        "stique",
        -9.45342975735816
      ],
      [
        "ka",
        -9.45519190220044
      ],
      [
        "urant",
        -9.456714708992923
      ],
      [
        "▁médecine",
        -9.459738593030922
      ],
      [
        "▁rencontre",
        -9.462452122848527
      ],
      [
        "exemple",
        -9.463017096198174
      ],
      [
        "dre",
        -9.466276166599975
      ],
      [
        "elles",
        -9.466805928864279
      ],
      [
        "▁Gu",
        -9.46785024196091
      ],
      [
        "▁dos",
        -9.472014061303444
      ],
      [
        "an",
        -9.473907247934363
      ],
      [
        "▁fum",
        -9.473965621176783
      ],
      [
        "▁vol",
        -9.474133690451403
      ],
      [
        "▁Co",
        -9.474450922903864
      ],
      [
        "tait",
        -9.474686837157096
      ],
      [
        "peur",
        -9.47603933435973
      ],
      [
        "ations",
        -9.481218135558958
      ],
      [
        "▁n'e",
        -9.481737665392243
      ],
      [
        "▁sec",
        -9.483926737152094
      ],
      [
        "ttes",
        -9.48439700285846
      ],
      [
        "▁gu",
        -9.48510588749013
      ],
      [
        "▁pré",
        -9.48540070901621
      ],
      [
        "▁anim",
        -9.48579102379
      ],
      [
        "heure",
        -9.486125236323412
      ],
      [
        "▁déci",
        -9.490132389457358
      ],
      [
        "table",
        -9.493087342279605
      ],
      [
        "▁R",
        -9.494170330299035
      ],
      [
        "oque",
        -9.495457901320705
      ],
      [
        "▁ab",
        -9.497354632165635
      ],
      [
        "▁ouvert",
        -9.498008806913198
      ],
      [
        "▁devenue",
        -9.500120744379217
      ],
      [
        "construi",
        -9.50348479908227
      ],
      [
        "▁écout",
        -9.50402798664211
      ],
      [
        "▁br",
        -9.506486476771446
      ],
      [
        "cul",
        -9.506534790119685
      ],
      [
        "-elle",
        -9.506820567443269
      ],
      [
        "▁Qu'",
        -9.508774494704463
      ],
      [
        "▁soul",
        -9.509099575611021
      ],
      [
        "▁imp",
        -9.510916605355838
      ],
      [
        "monter",
        -9.511444943062726
      ],
      [
        "▁lect",
        -9.512129353554226
      ],
      [
        "errière",
        -9.513322540885833
      ],
      [
        "▁cent",
        -9.517423122334435
      ],
      [
        "nte",
        -9.51752925952908
      ],
      [
        "habit",
        -9.518340356329281
      ],
      [
        "yeux",
        -9.519027400306587
      ],
      [
        "st",
        -9.520015325515953
      ],
      [
        "ssent",
        -9.524904535099026
      ],
      [
        "mé",
        -9.526079401633412
      ],
      [
        "▁armée",
        -9.528879884553607
      ],
      [
        "▁Nko",
        -9.533530083412543
      ],
      [
        "▁cor",
        -9.533833005455236
      ],
      [
        "▁Mar",
        -9.53402305238132
      ],
      [
        "▁bleu",
        -9.534854014560814
      ],
      [
        "▁mont",
        -9.53592508088097
      ],
      [
        "▁d'A",
        -9.539685597203443
      ],
      [
        "▁l'ex",
        -9.540371765846775
      ],
      [
        "▁cach",
        -9.543294415339078
      ],
      [
        "▁moustiquaire",
        -9.545677140897824
      ],
      [
        "▁miroir",
        -9.546243131370392
      ],
      [
        "▁distance",
        -9.546262006510151
      ],
      [
        "▁envahi",
        -9.548287504111087
      ],
      [
        "▁seconde",
        -9.549383129192051
      ],
      [
        "▁vague",
        -9.549655174727759
      ],
      [
        "▁s'en",
        -9.549671049059425
      ],
      [
        "▁militaire",
        -9.549864978187044
      ],
      [
        "▁garçon",
        -9.550858079353288
      ],
      [
        "▁arbre",
        -9.55118903874736
      ],
      [
        "▁humain",
        -9.551471700496089
      ],
      [
        "▁civil",
        -9.55202725789298
      ],
      [
        "▁ancien",
        -9.553141721815434
      ],
      [
        "▁arrivé",
        -9.553882927267713
      ],
      [
        "alement",
        -9.553921776769275
      ],
      [
        "arrivée",
        -9.554990257727427
      ],
      [
        "ser",
        -9.556068742037061
      ],
      [
        "étendue",
        -9.55637455215919
      ],
      [
        "▁fermé",
        -9.556895460467354
      ],
      [
        "ar",
        -9.557039307356948
      ],
      [
        "ifs",
        -9.558882766778662
      ],
      [
        "▁fatigu",
        -9.559025004850934
      ],
      [
        "▁sub",
        -9.560216230792767
      ],
      [
        "▁ban",
        -9.561745672863488
      ],
      [
        "▁parcour",
        -9.564205336082267
      ],
      [
        "▁cas",
        -9.564617310431222
      ],
      [
        "▁trace",
        -9.565431075249755
      ],
      [
        "▁j",
        -9.566246077210682
      ],
      [
        "▁venai",
        -9.56766309583952
      ],
      [
        "▁att",
        -9.57017726544925
      ],
      [
        "▁quel",
        -9.570400985102392
      ],
      [
        "ph",
        -9.57190824840293
      ],
      [
        "▁dress",
        -9.57335583395706
      ],
      [
        "tuaire",
        -9.573832617089149
      ],
      [
        "▁rituel",
        -9.575865640184675
      ],
      [
        "▁anti",
        -9.57632508308313
      ],
      [
        "ards",
        -9.576869519024235
      ],
      [
        "con",
        -9.578832013416486
      ],
      [
        "▁échapp",
        -9.57923901558874
      ],
      [
        "▁élev",
        -9.579811791403166
      ],
      [
        "angue",
        -9.579859298589843
      ],
      [
        "rrière",
        -9.580598691045711
      ],
      [
        "ême",
        -9.581290925918939
      ],
      [
        "yant",
        -9.581419698550759
      ],
      [
        "▁camp",
        -9.582559530231169
      ],
      [
        "4",
        -9.582885664150515
      ],
      [
        "3",
        -9.582885669159273
      ],
      [
        "obab",
        -9.583014439418163
      ],
      [
        "▁d'Abakaliki",
        -9.583019622655009
      ],
      [
        "▁privilèges",
        -9.583019622655288
      ],
      [
        "▁grâce",
        -9.58301962265546
      ],
      [
        "▁caricatural",
        -9.583019622657211
      ],
      [
        "▁trône",
        -9.583019622658517
      ],
      [
        "▁l'Adamawa",
        -9.583019622694957
      ],
      [
        "▁Aujourd'hui",
        -9.583019622694957
      ],
      [
        "▁Baterik",
        -9.583019622801512
      ],
      [
        "▁dysenterie",
        -9.583019622856114
      ],
      [
        "▁invisible",
        -9.583019622965537
      ],
      [
        "▁Fields",
        -9.583019624115956
      ],
      [
        "▁d'alcool",
        -9.583019625263749
      ],
      [
        "▁Ghana",
        -9.58301962563851
      ],
      [
        "▁impeccable",
        -9.583019625796666
      ],
      [
        "▁Bawop",
        -9.583019628113556
      ],
      [
        "▁incapable",
        -9.583019630138896
      ],
      [
        "▁excessive",
        -9.583019630426307
      ],
      [
        "▁s'éloigne",
        -9.583019644533799
      ],
      [
        "▁tribales",
        -9.583019646370866
      ],
      [
        "calpel",
        -9.583019668038917
      ],
      [
        "▁dispensaire",
        -9.583019691297514
      ],
      [
        "▁affluent",
        -9.583019694438745
      ],
      [
        "▁conservé",
        -9.58301969599586
      ],
      [
        "▁fréquenta",
        -9.583019700522314
      ],
      [
        "▁cafards",
        -9.583019730917869
      ],
      [
        "▁effray",
        -9.58301973455562
      ],
      [
        "▁Ijama",
        -9.583019738647865
      ],
      [
        "▁tambours",
        -9.583019744455948
      ],
      [
        "▁gorilles",
        -9.583019767046517
      ],
      [
        "ez-vous",
        -9.583019771314426
      ],
      [
        "▁camarades",
        -9.58301978967304
      ],
      [
        "▁latérite",
        -9.583019933421527
      ],
      [
        "▁physique",
        -9.58301993912929
      ],
      [
        "▁politique",
        -9.583019967536174
      ],
      [
        "▁chirurgi",
        -9.583020036748302
      ],
      [
        "▁serviteurs",
        -9.583020130575319
      ],
      [
        "▁ridicule",
        -9.583020227172245
      ],
      [
        "▁Sahara",
        -9.58302027016785
      ],
      [
        "▁Bénoué",
        -9.583020289938048
      ],
      [
        "▁banlieue",
        -9.583020321606835
      ],
      [
        "▁adulte",
        -9.583020355103693
      ],
      [
        "▁soixante",
        -9.583020458980142
      ],
      [
        "▁ténia",
        -9.583020706603977
      ],
      [
        "▁sèche",
        -9.583020778627578
      ],
      [
        "▁pelouse",
        -9.583020811452952
      ],
      [
        "▁brindille",
        -9.583020899350142
      ],
      [
        "▁natale",
        -9.583021077525459
      ],
      [
        "▁d'opération",
        -9.583021489864967
      ],
      [
        "▁oreilles",
        -9.583021502934201
      ],
      [
        "▁recouvert",
        -9.58302168156469
      ],
      [
        "▁contrebas",
        -9.583021754050788
      ],
      [
        "▁disparu",
        -9.583021947413382
      ],
      [
        "▁étouffante",
        -9.583022077453625
      ],
      [
        "▁ceinture",
        -9.58302263183745
      ],
      [
        "▁présence",
        -9.583023444809426
      ],
      [
        "▁Indiens",
        -9.58302436484162
      ],
      [
        "▁regret",
        -9.58302440015825
      ],
      [
        "▁popula",
        -9.583024547558946
      ],
      [
        "▁Algérie",
        -9.583024592523653
      ],
      [
        "▁habillé",
        -9.583025667302293
      ],
      [
        "▁coiff",
        -9.583025728270647
      ],
      [
        "▁visible",
        -9.583025765323509
      ],
      [
        "▁suppose",
        -9.583026701545624
      ],
      [
        "▁galeries",
        -9.583027820851163
      ],
      [
        "▁réponse",
        -9.58302820651583
      ],
      [
        "▁000",
        -9.583029034901635
      ],
      [
        "▁quartier",
        -9.583031096221504
      ],
      [
        "▁vaisselle",
        -9.583031220242187
      ],
      [
        "▁craquelée",
        -9.583031851393809
      ],
      [
        "▁minuscule",
        -9.583032319001582
      ],
      [
        "▁répandu",
        -9.58303332196373
      ],
      [
        "▁résignation",
        -9.583035588448038
      ],
      [
        "▁foyer",
        -9.58303736162053
      ],
      [
        "voûte",
        -9.583038037438534
      ],
      [
        "00",
        -9.583038811878348
      ],
      [
        "▁profit",
        -9.583040582937784
      ],
      [
        "▁trente",
        -9.583041497824171
      ],
      [
        "▁mauvais",
        -9.583046659503562
      ],
      [
        "▁neuf",
        -9.583060892489552
      ],
      [
        "▁piège",
        -9.583061777703833
      ],
      [
        "▁repris",
        -9.583066789010129
      ],
      [
        "urgence",
        -9.583073431395931
      ],
      [
        "▁fusils",
        -9.583076174727735
      ],
      [
        "▁bref",
        -9.583077404759965
      ],
      [
        "▁procur",
        -9.583082024821039
      ],
      [
        "▁consacré",
        -9.583093867121383
      ],
      [
        "▁196",
        -9.5831008857536
      ],
      [
        "▁(car",
        -9.583113985411032
      ],
      [
        "▁colonisation",
        -9.583118285185378
      ],
      [
        "▁interdit",
        -9.583135014859
      ],
      [
        "▁caract",
        -9.583137286391157
      ],
      [
        "▁m'a-t-",
        -9.583138510195543
      ],
      [
        "▁défens",
        -9.583140698169505
      ],
      [
        "▁camion",
        -9.583140925187942
      ],
      [
        "▁193",
        -9.58315359392268
      ],
      [
        "▁194",
        -9.58315359893276
      ],
      [
        "boît",
        -9.583192733580221
      ],
      [
        "▁douleur",
        -9.58320878774774
      ],
      [
        "▁colonne",
        -9.58321320300509
      ],
      [
        "▁sucre",
        -9.583235548535255
      ],
      [
        "▁sept",
        -9.583238239721434
      ],
      [
        "▁palais",
        -9.583242782397358
      ],
      [
        "▁terrain",
        -9.583266579337506
      ],
      [
        "▁sculptés",
        -9.583275751017702
      ],
      [
        "▁qu'aucun",
        -9.583276595274729
      ],
      [
        "▁surviv",
        -9.583281794928956
      ],
      [
        "▁d'Européens",
        -9.58331191541213
      ],
      [
        "▁Dieu",
        -9.58336495767266
      ],
      [
        "▁allumette",
        -9.583371322138756
      ],
      [
        "▁totale",
        -9.583379497280953
      ],
      [
        "▁chute",
        -9.58337994923112
      ],
      [
        "▁plaintes",
        -9.583384056717957
      ],
      [
        "▁torche",
        -9.58338516012331
      ],
      [
        "▁Niger",
        -9.583416120532972
      ],
      [
        "▁l'après-midi",
        -9.583501612466069
      ],
      [
        "▁moment-là",
        -9.583507080299025
      ],
      [
        "▁poing",
        -9.583521537263206
      ],
      [
        "▁chapeaux",
        -9.583525400305348
      ],
      [
        "▁vieillesse",
        -9.583598764082575
      ],
      [
        "▁vérité",
        -9.583601220525097
      ],
      [
        "▁l'inter",
        -9.583604904713306
      ],
      [
        "▁Bien",
        -9.583730776490258
      ],
      [
        "▁plage",
        -9.583740666719107
      ],
      [
        "▁l'enthousiasme",
        -9.583781449926038
      ],
      [
        "▁compagnie",
        -9.58378812875496
      ],
      [
        "▁Chin",
        -9.583792611418732
      ],
      [
        "▁parfaite",
        -9.583817617220962
      ],
      [
        "▁l'horreur",
        -9.583836499388136
      ],
      [
        "▁nombreux",
        -9.583996354676323
      ],
      [
        "▁familier",
        -9.584048029987898
      ],
      [
        "▁effect",
        -9.584130143645643
      ],
      [
        "▁lutte",
        -9.584145359246326
      ],
      [
        "▁glac",
        -9.584197571218573
      ],
      [
        "▁plonge",
        -9.584274097284856
      ],
      [
        "▁lentement",
        -9.584280684200115
      ],
      [
        "▁proie",
        -9.58445073801231
      ],
      [
        "▁là-bas",
        -9.584481445697945
      ],
      [
        "soin",
        -9.584605088125365
      ],
      [
        "▁cornes",
        -9.584606547901132
      ],
      [
        "▁géant",
        -9.584631883938055
      ],
      [
        "▁domestique",
        -9.584725044845092
      ],
      [
        "épaisse",
        -9.584740607084083
      ],
      [
        "▁brûlait",
        -9.58475387932524
      ],
      [
        "▁repas",
        -9.58476695780273
      ],
      [
        "▁relev",
        -9.584786575752197
      ],
      [
        "▁remonte",
        -9.584795472276891
      ],
      [
        "▁paille",
        -9.584796576509117
      ],
      [
        "▁crép",
        -9.584859065860675
      ],
      [
        "▁lunette",
        -9.584944258394986
      ],
      [
        "▁lançai",
        -9.58494567274208
      ],
      [
        "▁chantant",
        -9.584945749423127
      ],
      [
        "▁absent",
        -9.584985961354633
      ],
      [
        "▁poison",
        -9.585007226795664
      ],
      [
        "zar",
        -9.585050000799306
      ],
      [
        "▁temps-là",
        -9.585131590372756
      ],
      [
        "▁captur",
        -9.585206424948653
      ],
      [
        "▁jeunesse",
        -9.585313347357708
      ],
      [
        "▁pâte",
        -9.585407070405516
      ],
      [
        "▁orages",
        -9.585413504312774
      ],
      [
        "▁policier",
        -9.58546818779173
      ],
      [
        "▁John",
        -9.585515109343227
      ],
      [
        "outils",
        -9.58551556127584
      ],
      [
        "paradis",
        -9.585526620131997
      ],
      [
        "▁signifiai",
        -9.58558369624324
      ],
      [
        "▁d'après",
        -9.585732495132335
      ],
      [
        "▁Paris",
        -9.585771600027183
      ],
      [
        "▁vivaient",
        -9.585974185261458
      ],
      [
        "▁changement",
        -9.586001722351
      ],
      [
        "▁gagn",
        -9.586037903643286
      ],
      [
        "▁résidence",
        -9.586127388176376
      ],
      [
        "▁Ng",
        -9.586201107734443
      ],
      [
        "▁inventé",
        -9.586267681659892
      ],
      [
        "▁inspiré",
        -9.586383290427712
      ],
      [
        "▁recherche",
        -9.586582092145118
      ],
      [
        "▁aimer",
        -9.586609968052993
      ],
      [
        "▁hérit",
        -9.586691447207151
      ],
      [
        "▁penser",
        -9.586737710603247
      ],
      [
        "▁rejet",
        -9.586823035437979
      ],
      [
        "▁colons",
        -9.586828514243976
      ],
      [
        "▁demand",
        -9.587329128155806
      ],
      [
        "▁quitté",
        -9.587481099630352
      ],
      [
        "▁l'enfant",
        -9.587551541947192
      ],
      [
        "▁encerclé",
        -9.587567202090149
      ],
      [
        "▁manies",
        -9.587572611691684
      ],
      [
        "particulièrement",
        -9.58766429591337
      ],
      [
        "▁coucher",
        -9.587971930846345
      ],
      [
        "▁partager",
        -9.588010962768704
      ],
      [
        "▁kaki",
        -9.588061688955149
      ],
      [
        "▁enfin",
        -9.588164593560812
      ],
      [
        "▁connaissais",
        -9.588521636141383
      ],
      [
        "ck",
        -9.588693980798011
      ],
      [
        "▁ancienne",
        -9.588762761521458
      ],
      [
        "▁jup",
        -9.58881908904738
      ],
      [
        "▁causé",
        -9.588856752261758
      ],
      [
        "▁myst",
        -9.5893152280861
      ],
      [
        "▁dieu",
        -9.589364637918536
      ],
      [
        "▁tomb",
        -9.590332703851898
      ],
      [
        "▁doux",
        -9.590358975273498
      ],
      [
        "▁ju",
        -9.590432423210318
      ],
      [
        "▁prière",
        -9.590655929183532
      ],
      [
        "arrachait",
        -9.590844882279852
      ],
      [
        "▁âgés",
        -9.590847144773903
      ],
      [
        "▁pourquoi",
        -9.591040048362654
      ],
      [
        "▁vaccins",
        -9.591326723843052
      ],
      [
        "▁campagne",
        -9.59133083406452
      ],
      [
        "▁palmiers",
        -9.591430113968658
      ],
      [
        "▁moderne",
        -9.591457690876101
      ],
      [
        "▁revanche",
        -9.59150612199437
      ],
      [
        "▁équatoriale",
        -9.59154996596058
      ],
      [
        "▁pistes",
        -9.591782300404642
      ],
      [
        "▁drap",
        -9.59196616699247
      ],
      [
        "▁revenu",
        -9.592255160447912
      ],
      [
        "▁disait",
        -9.592272958602909
      ],
      [
        "▁comprends",
        -9.592318397348148
      ],
      [
        "▁luxe",
        -9.592561914930151
      ],
      [
        "▁constat",
        -9.593025799561904
      ],
      [
        "▁rencontré",
        -9.593159432234117
      ],
      [
        "▁trempé",
        -9.593444071677824
      ],
      [
        "▁complet",
        -9.593922111938442
      ],
      [
        "▁milli",
        -9.593990665024096
      ],
      [
        "▁pr",
        -9.594460452782943
      ],
      [
        "it-",
        -9.594906228101822
      ],
      [
        "▁désir",
        -9.59490871815115
      ],
      [
        "▁luisant",
        -9.595439486954788
      ],
      [
        "▁débarqu",
        -9.595672384492248
      ],
      [
        "▁poudre",
        -9.595751868036452
      ],
      [
        "nze",
        -9.595986439777244
      ],
      [
        "ungo",
        -9.596148399162612
      ],
      [
        "▁d'imagin",
        -9.596226309067728
      ],
      [
        "▁but",
        -9.59671986569597
      ],
      [
        "▁Ban",
        -9.597425427972961
      ],
      [
        "ilité",
        -9.597895715506759
      ],
      [
        "▁rem",
        -9.598497504695922
      ],
      [
        "▁revien",
        -9.598793451262495
      ],
      [
        "▁viennent",
        -9.59908864477701
      ],
      [
        "▁sortir",
        -9.599267641269
      ],
      [
        "ève",
        -9.599613034877947
      ],
      [
        "ate",
        -9.599820234374153
      ],
      [
        "▁qu'en",
        -9.600296218892243
      ],
      [
        "lit",
        -9.600689506279656
      ],
      [
        "▁On",
        -9.600860827581162
      ],
      [
        "▁mêl",
        -9.601345606048225
      ],
      [
        "▁verre",
        -9.601934712689216
      ],
      [
        "rôle",
        -9.601951520970307
      ],
      [
        "cation",
        -9.602395886021982
      ],
      [
        "ica",
        -9.60314522616952
      ],
      [
        "▁accepter",
        -9.603378958435016
      ],
      [
        "▁cli",
        -9.604289131603752
      ],
      [
        "coph",
        -9.604299144519693
      ],
      [
        "der",
        -9.60451868847216
      ],
      [
        "▁relié",
        -9.604620442678412
      ],
      [
        "▁lointains",
        -9.604770169684098
      ],
      [
        "achi",
        -9.60504280580301
      ],
      [
        "▁casque",
        -9.605650492640809
      ],
      [
        "ension",
        -9.606386757833459
      ],
      [
        "mbrées",
        -9.606461236377726
      ],
      [
        "▁secours",
        -9.606589465714647
      ],
      [
        "▁voul",
        -9.60663135790676
      ],
      [
        "▁sommet",
        -9.607180388092052
      ],
      [
        "▁Colonie",
        -9.608638279570572
      ],
      [
        "▁contrai",
        -9.609305522949075
      ],
      [
        "▁paysage",
        -9.609535719874462
      ],
      [
        "▁voyageur",
        -9.609852188995196
      ],
      [
        "▁l'anti",
        -9.609853311952225
      ],
      [
        "▁Abo",
        -9.610817259363472
      ],
      [
        "▁échange",
        -9.61091676463839
      ],
      [
        "maine",
        -9.612090357648137
      ],
      [
        "▁respect",
        -9.615048332843704
      ],
      [
        "▁chauff",
        -9.615785333428875
      ],
      [
        "▁siècle",
        -9.615926888569113
      ],
      [
        "▁bouill",
        -9.616132511711513
      ],
      [
        "▁boug",
        -9.616329190069413
      ],
      [
        "▁démo",
        -9.616402371424044
      ],
      [
        "▁ordinaire",
        -9.616807343283028
      ],
      [
        "▁int",
        -9.61687239914588
      ],
      [
        "ige",
        -9.617175745597114
      ],
      [
        "▁usé",
        -9.617626386645965
      ],
      [
        "▁mètres",
        -9.619721217975206
      ],
      [
        "prenant",
        -9.62033127310605
      ],
      [
        "▁Ni",
        -9.620802440631163
      ],
      [
        "▁al",
        -9.621016187577982
      ],
      [
        "▁perdue",
        -9.622303242554638
      ],
      [
        "▁anecdote",
        -9.622860665288469
      ],
      [
        "▁Ch",
        -9.623785998816588
      ],
      [
        "▁goyave",
        -9.624066821485622
      ],
      [
        "▁regardent",
        -9.624082244685908
      ],
      [
        "▁tournée",
        -9.624523754433238
      ],
      [
        "▁jo",
        -9.624584238686483
      ],
      [
        "agrandi",
        -9.625546086565496
      ],
      [
        "▁passer",
        -9.626381885569586
      ],
      [
        "celle",
        -9.626415003751214
      ],
      [
        "nique",
        -9.628880009368437
      ],
      [
        "▁S'il",
        -9.629298057658778
      ],
      [
        "père",
        -9.629379165517676
      ],
      [
        "▁appartement",
        -9.629741466308797
      ],
      [
        "▁étage",
        -9.632219928131201
      ],
      [
        "euses",
        -9.632543707018888
      ],
      [
        "▁mand",
        -9.632936454304708
      ],
      [
        "▁vend",
        -9.63308563337421
      ],
      [
        "▁épi",
        -9.633618804236058
      ],
      [
        "iques",
        -9.634675924812587
      ],
      [
        "ème",
        -9.63651161984691
      ],
      [
        "▁unique",
        -9.637865099146154
      ],
      [
        "▁hauteur",
        -9.638450590559708
      ],
      [
        "uée",
        -9.638725395725864
      ],
      [
        "-de",
        -9.63906885445661
      ],
      [
        "▁anciens",
        -9.64096510689604
      ],
      [
        "▁acc",
        -9.641324389141815
      ],
      [
        "▁pain",
        -9.641640820890622
      ],
      [
        "écu",
        -9.641888622648464
      ],
      [
        "ard",
        -9.642656216726937
      ],
      [
        "▁chaude",
        -9.642761769373667
      ],
      [
        "▁emport",
        -9.642811604597872
      ],
      [
        "dée",
        -9.644017321615172
      ],
      [
        "dra",
        -9.64446973933488
      ],
      [
        "poussiér",
        -9.645229625871048
      ],
      [
        "▁ici",
        -9.645606463294033
      ],
      [
        "▁amis",
        -9.646268766724242
      ],
      [
        "ends",
        -9.646855334731807
      ],
      [
        "▁manque",
        -9.65262580834693
      ],
      [
        "ave",
        -9.6532880893518
      ],
      [
        "▁mor",
        -9.656518900056112
      ],
      [
        "▁Terre-",
        -9.659683051805558
      ],
      [
        "▁île",
        -9.660166417310355
      ],
      [
        "▁gra",
        -9.660411288564193
      ],
      [
        "▁Aro",
        -9.661737031817774
      ],
      [
        "▁exc",
        -9.663267646707578
      ],
      [
        "mo",
        -9.664748174171267
      ],
      [
        "▁Mari",
        -9.664877958307892
      ],
      [
        "▁écouta",
        -9.664958355369052
      ],
      [
        "belle",
        -9.667481191115554
      ],
      [
        "▁somme",
        -9.667629233406446
      ],
      [
        "▁dépass",
        -9.668134860692723
      ],
      [
        "▁vue",
        -9.668149181809131
      ],
      [
        "▁retrouve",
        -9.668239361530052
      ],
      [
        "aisons",
        -9.668474537935966
      ],
      [
        "▁médicale",
        -9.668847376042656
      ],
      [
        "sieur",
        -9.66895146859507
      ],
      [
        "▁maga",
        -9.669004091305078
      ],
      [
        "po",
        -9.670206902885244
      ],
      [
        "▁destiné",
        -9.670496167406267
      ],
      [
        "tail",
        -9.670868772619105
      ],
      [
        "'orage",
        -9.670998352126974
      ],
      [
        "par",
        -9.671283182381892
      ],
      [
        "avions",
        -9.672912956646577
      ],
      [
        "▁s'a",
        -9.67371885786971
      ],
      [
        "zin",
        -9.676003752237522
      ],
      [
        "▁donné",
        -9.676817416208051
      ],
      [
        "▁lég",
        -9.678650768227795
      ],
      [
        "▁servai",
        -9.67896945189683
      ],
      [
        "▁four",
        -9.681978098454268
      ],
      [
        "▁combat",
        -9.68232239391608
      ],
      [
        "▁africaines",
        -9.685338442290117
      ],
      [
        "▁rouges",
        -9.68789133120291
      ],
      [
        "▁fenêtres",
        -9.689069147855744
      ],
      [
        "ois",
        -9.689986699435222
      ],
      [
        "ma",
        -9.690251646966425
      ],
      [
        "cteur",
        -9.691400615470277
      ],
      [
        "▁ha",
        -9.691415928129112
      ],
      [
        "▁rêves",
        -9.692587924274253
      ],
      [
        "▁l'aim",
        -9.6936126315044
      ],
      [
        "▁rentr",
        -9.693960702470486
      ],
      [
        "▁arriv",
        -9.69433661329382
      ],
      [
        "ailli",
        -9.696450248192646
      ],
      [
        "▁lorsqu'",
        -9.700350487112246
      ],
      [
        "cousu",
        -9.703233343480868
      ],
      [
        "▁direct",
        -9.703269256742367
      ],
      [
        "▁construi",
        -9.70533859671728
      ],
      [
        "diction",
        -9.705372554835872
      ],
      [
        "ti",
        -9.70580744523745
      ],
      [
        "▁cra",
        -9.705947091627888
      ],
      [
        "▁l'on",
        -9.706226006875335
      ],
      [
        "▁utilis",
        -9.707439527149475
      ],
      [
        "▁canne",
        -9.707572985477858
      ],
      [
        "▁souven",
        -9.70841576200107
      ],
      [
        "rgent",
        -9.709607895856555
      ],
      [
        "ailles",
        -9.710519445494585
      ],
      [
        "ence",
        -9.711757769050369
      ],
      [
        "▁tente",
        -9.712078982525124
      ],
      [
        "▁jeune",
        -9.712911663141018
      ],
      [
        "chaîn",
        -9.71531069733359
      ],
      [
        "venus",
        -9.720880325606203
      ],
      [
        "alité",
        -9.720949468805667
      ],
      [
        "alon",
        -9.724002311336083
      ],
      [
        "gation",
        -9.72450906933977
      ],
      [
        "enfance",
        -9.724657036888269
      ],
      [
        "▁allai",
        -9.726399955885338
      ],
      [
        "uits",
        -9.726777738035132
      ],
      [
        "▁pri",
        -9.726951645255088
      ],
      [
        "▁moments",
        -9.728058734335951
      ],
      [
        "changer",
        -9.728821502672055
      ],
      [
        "▁pouv",
        -9.72955005362969
      ],
      [
        "▁(il",
        -9.730077323042746
      ],
      [
        "embre",
        -9.730378324676154
      ],
      [
        "▁pratiqu",
        -9.731228956876878
      ],
      [
        "trait",
        -9.732109975708566
      ],
      [
        "source",
        -9.73274357613956
      ],
      [
        "▁comment",
        -9.732861221038522
      ],
      [
        "ue",
        -9.733537384718447
      ],
      [
        "▁lourde",
        -9.736279545982573
      ],
      [
        "▁brill",
        -9.737460664749625
      ],
      [
        "▁bac",
        -9.738547067240699
      ],
      [
        "▁bêt",
        -9.739328201663483
      ],
      [
        "avancé",
        -9.739373574224603
      ],
      [
        "ident",
        -9.745130674038865
      ],
      [
        "ers",
        -9.745356669863424
      ],
      [
        "cités",
        -9.745690678664412
      ],
      [
        "ice",
        -9.74570489833282
      ],
      [
        "isson",
        -9.749336091663599
      ],
      [
        "▁troupe",
        -9.751177432541388
      ],
      [
        "garden",
        -9.754510590091344
      ],
      [
        "erre",
        -9.75508579153187
      ],
      [
        "▁sépar",
        -9.755856103643424
      ],
      [
        "▁jusqu'au",
        -9.75592977159898
      ],
      [
        "▁serai",
        -9.755960153656233
      ],
      [
        "sus",
        -9.756307485951535
      ],
      [
        "▁souri",
        -9.756324655676085
      ],
      [
        "▁ver",
        -9.757200302928643
      ],
      [
        "▁plant",
        -9.757286135801222
      ],
      [
        "ig",
        -9.758707992099453
      ],
      [
        "▁retire",
        -9.759169212537858
      ],
      [
        "tenir",
        -9.759486356743784
      ],
      [
        "è",
        -9.761886915808216
      ],
      [
        "▁souvenirs",
        -9.762862691092465
      ],
      [
        "▁coupée",
        -9.76340293625819
      ],
      [
        "▁ro",
        -9.765049383191837
      ],
      [
        "▁circule",
        -9.766118913006745
      ],
      [
        "▁ap",
        -9.767981627107027
      ],
      [
        "▁soin",
        -9.768621849958244
      ],
      [
        "▁viv",
        -9.770397994151338
      ],
      [
        "cier",
        -9.772607794451199
      ],
      [
        "▁morte",
        -9.775890380612276
      ],
      [
        "▁détr",
        -9.778166435514363
      ],
      [
        "▁pi",
        -9.780667288857732
      ],
      [
        "agit",
        -9.780919237623412
      ],
      [
        "▁be",
        -9.782347203848463
      ],
      [
        "▁déf",
        -9.782663868068044
      ],
      [
        "iné",
        -9.783065121095948
      ],
      [
        "ho",
        -9.787027992048744
      ],
      [
        "ule",
        -9.788314021922117
      ],
      [
        "yon",
        -9.79217957794478
      ],
      [
        "▁dénu",
        -9.792352724192199
      ],
      [
        "qu'un",
        -9.793889672205205
      ],
      [
        "▁fu",
        -9.794824764780778
      ],
      [
        "▁extr",
        -9.799775221676054
      ],
      [
        "gu",
        -9.800100621980548
      ],
      [
        "uvet",
        -9.802165087668513
      ],
      [
        "▁Se",
        -9.805752206591956
      ],
      [
        "tendre",
        -9.811404930838135
      ],
      [
        "▁Am",
        -9.812854085980641
      ],
      [
        "pas",
        -9.813811490280797
      ],
      [
        "oindre",
        -9.815562230090283
      ],
      [
        "igne",
        -9.816059410616448
      ],
      [
        "coutum",
        -9.820585796320849
      ],
      [
        "▁fille",
        -9.820707003366138
      ],
      [
        "▁quitt",
        -9.821538849800627
      ],
      [
        "xte",
        -9.822004929096956
      ],
      [
        "▁enferm",
        -9.826815572228613
      ],
      [
        "gé",
        -9.826907424980321
      ],
      [
        "ole",
        -9.827373101261616
      ],
      [
        "lière",
        -9.827660355679468
      ],
      [
        "▁souffr",
        -9.829219951229879
      ],
      [
        "k",
        -9.831359512690968
      ],
      [
        "titude",
        -9.83261003961862
      ],
      [
        "ger",
        -9.834901075738834
      ],
      [
        "▁précis",
        -9.835969672324467
      ],
      [
        "ides",
        -9.838817792839464
      ],
      [
        "▁rep",
        -9.840319384770572
      ],
      [
        "▁ag",
        -9.84225024062705
      ],
      [
        "▁rés",
        -9.843180082822187
      ],
      [
        "▁disp",
        -9.844821480454586
      ],
      [
        "▁doct",
        -9.845693642863733
      ],
      [
        "▁Qu",
        -9.845941517594074
      ],
      [
        "▁ressemble",
        -9.845962068015314
      ],
      [
        "▁préfér",
        -9.84784856406964
      ],
      [
        "▁oppos",
        -9.848335372575276
      ],
      [
        "▁n'av",
        -9.854054109948466
      ],
      [
        "mbo",
        -9.855305430184682
      ],
      [
        "▁ven",
        -9.859583883281934
      ],
      [
        "▁comp",
        -9.860139032046675
      ],
      [
        "ormis",
        -9.861469242960007
      ],
      [
        "mi",
        -9.86323869184284
      ],
      [
        "mise",
        -9.865663591153144
      ],
      [
        "isé",
        -9.868263292152694
      ],
      [
        "▁l'in",
        -9.868665189062924
      ],
      [
        "▁form",
        -9.868862528658742
      ],
      [
        "ieuse",
        -9.869648355437402
      ],
      [
        "roman",
        -9.870310734891138
      ],
      [
        "▁froide",
        -9.87944072567976
      ],
      [
        "▁limit",
        -9.879572862887368
      ],
      [
        "▁pratique",
        -9.879602629950766
      ],
      [
        "▁191",
        -9.879875722222438
      ],
      [
        "▁sort",
        -9.88505573862971
      ],
      [
        "discu",
        -9.886619099267937
      ],
      [
        "occidentale",
        -9.887538050334268
      ],
      [
        "▁bru",
        -9.887743851765876
      ],
      [
        "lu",
        -9.889773494642062
      ],
      [
        "iale",
        -9.891941074481423
      ],
      [
        "ku",
        -9.894436161854934
      ],
      [
        "ta",
        -9.894715380216985
      ],
      [
        "▁utilise",
        -9.898953943423745
      ],
      [
        "▁impo",
        -9.901582323337577
      ],
      [
        "bé",
        -9.903151202122633
      ],
      [
        "ères",
        -9.903677408815692
      ],
      [
        "ut-",
        -9.903946650745091
      ],
      [
        "▁réserv",
        -9.904115147488474
      ],
      [
        "▁devi",
        -9.904431325822948
      ],
      [
        "▁cassé",
        -9.906101376594359
      ],
      [
        "▁violent",
        -9.906216353543726
      ],
      [
        "▁métal",
        -9.907949275536012
      ],
      [
        "▁Mi",
        -9.908801038544437
      ],
      [
        "▁prov",
        -9.909042862760526
      ],
      [
        "▁consul",
        -9.90910643857282
      ],
      [
        "▁bon",
        -9.909646260587621
      ],
      [
        "fond",
        -9.912470475362063
      ],
      [
        "assé",
        -9.912578921011997
      ],
      [
        "née",
        -9.914260304000267
      ],
      [
        "▁caché",
        -9.915383810689754
      ],
      [
        "yc",
        -9.91632455015167
      ],
      [
        "▁Lo",
        -9.91750627150029
      ],
      [
        "▁coupe",
        -9.918309131069092
      ],
      [
        "vres",
        -9.919422763921185
      ],
      [
        "▁brûle",
        -9.92024229283956
      ],
      [
        "'écouter",
        -9.92276814071521
      ],
      [
        "▁dép",
        -9.92383734029462
      ],
      [
        "cieux",
        -9.925543405340868
      ],
      [
        "▁ci",
        -9.926994035317065
      ],
      [
        "▁s'arrête",
        -9.930579825710726
      ],
      [
        "▁levé",
        -9.93201372990069
      ],
      [
        "ib",
        -9.933445238836848
      ],
      [
        "be",
        -9.933502500774559
      ],
      [
        "élan",
        -9.933752046830525
      ],
      [
        "d'",
        -9.934202937320439
      ],
      [
        "▁accompagne",
        -9.935470786290802
      ],
      [
        "▁ins",
        -9.937202742805663
      ],
      [
        "▁her",
        -9.937457569774832
      ],
      [
        "▁Con",
        -9.937728935767902
      ],
      [
        "iller",
        -9.93903118898642
      ],
      [
        "▁combatt",
        -9.939552686345124
      ],
      [
        "▁parl",
        -9.939797190362906
      ],
      [
        "ctions",
        -9.940853849100323
      ],
      [
        "▁embr",
        -9.941093347821187
      ],
      [
        "emelle",
        -9.941443079347309
      ],
      [
        "illon",
        -9.942928754012401
      ],
      [
        "▁j'en",
        -9.9435175553544
      ],
      [
        "prè",
        -9.944576450502852
      ],
      [
        "▁Lu",
        -9.946652059936275
      ],
      [
        "suite",
        -9.947269858783223
      ],
      [
        "onner",
        -9.95163354212578
      ],
      [
        "▁agi",
        -9.95274003629819
      ],
      [
        "▁médical",
        -9.956760760003274
      ],
      [
        "▁retrouv",
        -9.957534986242656
      ],
      [
        "▁gard",
        -9.957949950394358
      ],
      [
        "▁fra",
        -9.960637415654663
      ],
      [
        "nie",
        -9.963349661360795
      ],
      [
        "si",
        -9.964148414786576
      ],
      [
        "▁év",
        -9.964371878780868
      ],
      [
        "▁log",
        -9.964614582268068
      ],
      [
        "▁Terre",
        -9.969084645402605
      ],
      [
        "île",
        -9.9702345291342
      ],
      [
        "▁représent",
        -9.971655200310733
      ],
      [
        "▁l'or",
        -9.973245988389914
      ],
      [
        "pluie",
        -9.974595271800773
      ],
      [
        "tique",
        -9.975852226643374
      ],
      [
        "ju",
        -9.976604045813566
      ],
      [
        "origine",
        -9.976726442442061
      ],
      [
        "ments",
        -9.981009367551017
      ],
      [
        "▁fi",
        -9.984820905319658
      ],
      [
        "▁souffl",
        -9.985983448876363
      ],
      [
        "ennemi",
        -9.988522854989087
      ],
      [
        "rai",
        -9.98874018860899
      ],
      [
        "gard",
        -9.989352352570803
      ],
      [
        "bon",
        -9.990152606904378
      ],
      [
        "▁l'un",
        -9.991772265822199
      ],
      [
        "▁semblait",
        -9.994383263623085
      ],
      [
        "nd",
        -9.994683493666333
      ],
      [
        "endroit",
        -9.99573695515702
      ],
      [
        "▁aurait-",
        -9.996452903807352
      ],
      [
        "▁d'ac",
        -9.9981730524908
      ],
      [
        "time",
        -10.000918737834798
      ],
      [
        "▁sour",
        -10.001571061549232
      ],
      [
        "▁montr",
        -10.003788349744065
      ],
      [
        "▁man",
        -10.004499032327606
      ],
      [
        "▁Leur",
        -10.005910049258658
      ],
      [
        "▁résist",
        -10.006889508548594
      ],
      [
        "▁fabriqu",
        -10.007663017014465
      ],
      [
        "aurais",
        -10.009575642293061
      ],
      [
        "ndait",
        -10.009832689115775
      ],
      [
        "attend",
        -10.010504641451197
      ],
      [
        "mir",
        -10.012093383829228
      ],
      [
        "ap",
        -10.014477735247809
      ],
      [
        "meuble",
        -10.014735841609099
      ],
      [
        "fic",
        -10.015142418711612
      ],
      [
        "pos",
        -10.018252771902633
      ],
      [
        "ible",
        -10.019743861313877
      ],
      [
        "vois",
        -10.022500031954502
      ],
      [
        "stitué",
        -10.022585646099023
      ],
      [
        "issant",
        -10.022680321894102
      ],
      [
        "pis",
        -10.024585279825795
      ],
      [
        "▁vibr",
        -10.025549521659224
      ],
      [
        "▁t'",
        -10.026567174463546
      ],
      [
        "nable",
        -10.02852318937475
      ],
      [
        "▁L'a",
        -10.030328255873798
      ],
      [
        "sé",
        -10.030343309351043
      ],
      [
        "▁statue",
        -10.03189361732344
      ],
      [
        "▁choi",
        -10.033630631212393
      ],
      [
        "fort",
        -10.033775908752405
      ],
      [
        "oc",
        -10.03462088149737
      ],
      [
        "▁rap",
        -10.037873240891603
      ],
      [
        "ntrée",
        -10.038192667212376
      ],
      [
        "non",
        -10.03848725258117
      ],
      [
        "jet",
        -10.038998781744397
      ],
      [
        "rin",
        -10.039357914844512
      ],
      [
        "▁anima",
        -10.039968792825228
      ],
      [
        "▁mus",
        -10.040238677479161
      ],
      [
        "▁por",
        -10.041828768320364
      ],
      [
        "nelle",
        -10.041949666292114
      ],
      [
        "▁para",
        -10.043083887029363
      ],
      [
        "ction",
        -10.044287994403657
      ],
      [
        "▁permet",
        -10.044372534351544
      ],
      [
        "▁prépar",
        -10.044869750871063
      ],
      [
        "▁endurci",
        -10.045134560140461
      ],
      [
        "▁peuple",
        -10.045324193161738
      ],
      [
        "mêmes",
        -10.045359830079462
      ],
      [
        "ox",
        -10.045755219731497
      ],
      [
        "▁geste",
        -10.046016850022149
      ],
      [
        "rois",
        -10.046363252151835
      ],
      [
        "▁fui",
        -10.047944399296828
      ],
      [
        "ivement",
        -10.048535330855639
      ],
      [
        "▁lointain",
        -10.048887324053982
      ],
      [
        "▁kilomètre",
        -10.049124628631313
      ],
      [
        "act",
        -10.049985679205479
      ],
      [
        "▁jambe",
        -10.050138127299142
      ],
      [
        "▁d'enfant",
        -10.050145828585055
      ],
      [
        "▁fourmi",
        -10.052314849981622
      ],
      [
        "▁mêle",
        -10.053810558771909
      ],
      [
        "rable",
        -10.053930460258123
      ],
      [
        "état",
        -10.054234361154588
      ],
      [
        "ako",
        -10.054280257949664
      ],
      [
        "appartement",
        -10.055819508194022
      ],
      [
        "▁dim",
        -10.057455138805379
      ],
      [
        "▁reli",
        -10.05750666691398
      ],
      [
        "ateur",
        -10.057611181027916
      ],
      [
        "ang",
        -10.059045300011013
      ],
      [
        "▁o",
        -10.059089762752164
      ],
      [
        "naissance",
        -10.060482206613386
      ],
      [
        "▁fri",
        -10.060843801418473
      ],
      [
        "▁passion",
        -10.062692369883226
      ],
      [
        "ités",
        -10.06329798259975
      ],
      [
        "▁transport",
        -10.064639929315929
      ],
      [
        "▁exa",
        -10.064924198532825
      ],
      [
        "ul",
        -10.06527272952728
      ],
      [
        "▁passe",
        -10.06584421878152
      ],
      [
        "▁affect",
        -10.065866065776277
      ],
      [
        "venue",
        -10.066233699676966
      ],
      [
        "ies",
        -10.066322021790983
      ],
      [
        "▁tab",
        -10.06936907607004
      ],
      [
        "olu",
        -10.072849241254211
      ],
      [
        "ngli",
        -10.073477493550008
      ],
      [
        "▁arrêt",
        -10.07534412823503
      ],
      [
        "élic",
        -10.07640339498587
      ],
      [
        "mall",
        -10.077484714808172
      ],
      [
        "ongtemps",
        -10.078370743684232
      ],
      [
        "▁religi",
        -10.079782064285542
      ],
      [
        "▁pense",
        -10.079913746888478
      ],
      [
        "▁kak",
        -10.0800507201376
      ],
      [
        "▁tourbillon",
        -10.08023913502466
      ],
      [
        "▁danger",
        -10.080380042223242
      ],
      [
        "esprit",
        -10.08044229622334
      ],
      [
        "idité",
        -10.080502019930737
      ],
      [
        "▁européen",
        -10.080717863862155
      ],
      [
        "ignés",
        -10.080767929837009
      ],
      [
        "▁année",
        -10.081309241056594
      ],
      [
        "▁aime",
        -10.081315971384289
      ],
      [
        "▁emm",
        -10.081483965317512
      ],
      [
        "▁compagn",
        -10.081810384778624
      ],
      [
        "hili",
        -10.08186992848006
      ],
      [
        "▁résiden",
        -10.082102489941786
      ],
      [
        "apporte",
        -10.082279148021781
      ],
      [
        "commençait",
        -10.082311967351941
      ],
      [
        "œu",
        -10.082418783997733
      ],
      [
        "bembé",
        -10.082451015770301
      ],
      [
        "blie",
        -10.082533608449983
      ],
      [
        "▁plateau",
        -10.082563195449648
      ],
      [
        "0",
        -10.082878987767506
      ],
      [
        "6",
        -10.082886932549952
      ],
      [
        "pêch",
        -10.08293970563318
      ],
      [
        "▁Freetown",
        -10.083019622655005
      ],
      [
        "▁Yoroubas",
        -10.08301962265504
      ],
      [
        "▁Cawnpore",
        -10.08301962265533
      ],
      [
        "▁Ogilvy",
        -10.083019622656103
      ],
      [
        "▁Obubra",
        -10.083019622656224
      ],
      [
        "▁l'hygiène",
        -10.0830196226607
      ],
      [
        "▁yorouba",
        -10.083019622684313
      ],
      [
        ";",
        -10.083019622694959
      ],
      [
        "ë",
        -10.083019622694959
      ],
      [
        "▁infranchissable",
        -10.083019622694959
      ],
      [
        "▁l'Africain",
        -10.083019622694959
      ],
      [
        "▁Adekunle",
        -10.083019622696403
      ],
      [
        "▁léthargi",
        -10.083019622749505
      ],
      [
        "▁dégingandé",
        -10.083019622761865
      ],
      [
        "▁cérémonie",
        -10.083019622814447
      ],
      [
        "▁gangrène",
        -10.08301962289248
      ],
      [
        "Obukun",
        -10.08301962289992
      ],
      [
        "▁tam-tam",
        -10.083019623085518
      ],
      [
        "▁turbulen",
        -10.08301962313246
      ],
      [
        "▁musulmans",
        -10.0830196231963
      ],
      [
        "▁d'Africa",
        -10.083019623242423
      ],
      [
        "▁Monrovia",
        -10.083019623326319
      ],
      [
        "▁confronté",
        -10.083019623443738
      ],
      [
        "▁Touareg",
        -10.08301962346392
      ],
      [
        "▁pidgin",
        -10.083019623783569
      ],
      [
        "▁Kwaja",
        -10.0830196238684
      ],
      [
        "▁rectiligne",
        -10.083019623897604
      ],
      [
        "▁l'amertume",
        -10.083019623984862
      ],
      [
        "▁cancrelats",
        -10.083019624774177
      ],
      [
        "▁Conakry",
        -10.08301962512622
      ],
      [
        "▁folklor",
        -10.083019625296982
      ],
      [
        "▁BBC",
        -10.08301962534316
      ],
      [
        "▁favoris",
        -10.083019625447697
      ],
      [
        "▁admirable",
        -10.083019625661459
      ],
      [
        "▁mandibules",
        -10.083019626369035
      ],
      [
        "▁navigu",
        -10.083019626419716
      ],
      [
        "▁Kishong",
        -10.083019627508742
      ],
      [
        "▁Nigéria",
        -10.08301962865637
      ],
      [
        "açant",
        -10.083019629175949
      ],
      [
        "▁zébr",
        -10.083019629537615
      ],
      [
        "▁Hoggar",
        -10.0830196297364
      ],
      [
        "▁marécages",
        -10.083019630162376
      ],
      [
        "▁l'alcool",
        -10.083019630602731
      ],
      [
        "▁d'abandon",
        -10.083019631110037
      ],
      [
        "▁Panama",
        -10.083019633812487
      ],
      [
        "▁inflexible",
        -10.083019633875026
      ],
      [
        "▁d'ébène",
        -10.08301963588116
      ],
      [
        "▁végétation",
        -10.083019637391004
      ],
      [
        "▁agricole",
        -10.083019637399635
      ],
      [
        "▁responsab",
        -10.083019637642092
      ],
      [
        "▁l'abandon",
        -10.083019637761867
      ],
      [
        "▁bivoua",
        -10.0830196393021
      ],
      [
        "▁Ogrude",
        -10.083019639879055
      ],
      [
        "▁Foumban",
        -10.083019640516843
      ],
      [
        "âne",
        -10.083019647796021
      ],
      [
        "▁mauricien",
        -10.083019650653121
      ],
      [
        "▁suspendu",
        -10.083019653415153
      ],
      [
        "▁Accra",
        -10.083019657780827
      ],
      [
        "▁soviétique",
        -10.08301965836855
      ],
      [
        "▁clampser",
        -10.083019660152871
      ],
      [
        "▁difficulté",
        -10.083019685689228
      ],
      [
        "▁s'enfonce",
        -10.083019708008987
      ],
      [
        "▁période",
        -10.083019725702263
      ],
      [
        "▁horizon",
        -10.08301973449334
      ],
      [
        "▁sportive",
        -10.083019750334
      ],
      [
        "▁bergers",
        -10.083019758855809
      ],
      [
        "ospital",
        -10.083019760353288
      ],
      [
        "▁m'emmen",
        -10.083019764063465
      ],
      [
        "▁diamants",
        -10.083019777893426
      ],
      [
        "▁enfoncé",
        -10.083019820956219
      ],
      [
        "énergie",
        -10.083019824640305
      ],
      [
        "▁foufou",
        -10.083019948018277
      ],
      [
        "▁tragique",
        -10.083019986834337
      ],
      [
        "▁respire",
        -10.08301999924234
      ],
      [
        "▁lézard",
        -10.083020005143199
      ],
      [
        "effaçait",
        -10.083020011880695
      ],
      [
        "acacia",
        -10.083020018979221
      ],
      [
        "▁différence",
        -10.083020029310717
      ],
      [
        "▁bâtisse",
        -10.083020056021454
      ],
      [
        "▁cravate",
        -10.083020117207255
      ],
      [
        "▁spéci",
        -10.083020123994661
      ],
      [
        "▁dortoirs",
        -10.083020155077392
      ],
      [
        "économi",
        -10.083020156660314
      ],
      [
        "▁Y",
        -10.083020164025246
      ],
      [
        "▁Z",
        -10.083020164035988
      ],
      [
        "▁l'islam",
        -10.083020186516228
      ],
      [
        "▁héroï",
        -10.083020192778587
      ],
      [
        "▁ravins",
        -10.083020202875323
      ],
      [
        "▁détermination",
        -10.083020222299588
      ],
      [
        "▁ombrage",
        -10.083020474963956
      ],
      [
        "▁jusque-là",
        -10.083020646802812
      ],
      [
        "▁manifesta",
        -10.08302071652522
      ],
      [
        "▁voisinage",
        -10.083020771535127
      ],
      [
        "▁anémi",
        -10.083020855346284
      ],
      [
        "égoïs",
        -10.08302095491197
      ],
      [
        "▁l'existence",
        -10.083021034135424
      ],
      [
        "▁déformée",
        -10.083021100152415
      ],
      [
        "▁abandonn",
        -10.083021160288112
      ],
      [
        "▁hâte",
        -10.083021493080231
      ],
      [
        "▁cultiv",
        -10.083021511334305
      ],
      [
        "▁Londres",
        -10.083021682498112
      ],
      [
        "▁hasard",
        -10.083021915374927
      ],
      [
        "▁club",
        -10.083022064017188
      ],
      [
        "▁bavard",
        -10.083022116720336
      ],
      [
        "'écorch",
        -10.083022389910981
      ],
      [
        "vaincre",
        -10.083022493107151
      ],
      [
        "▁endormi",
        -10.08302267495026
      ],
      [
        "▁absurde",
        -10.08302269399788
      ],
      [
        "▁facile",
        -10.083022695182255
      ],
      [
        "▁cohorte",
        -10.083023204469056
      ],
      [
        "▁rompre",
        -10.083024465523716
      ],
      [
        "▁navire",
        -10.083024473527578
      ],
      [
        "▁calcul",
        -10.08302447548272
      ],
      [
        "▁short",
        -10.08302448480134
      ],
      [
        "fiévr",
        -10.083024620804254
      ],
      [
        "▁effort",
        -10.083024644177272
      ],
      [
        "▁possession",
        -10.083024892304
      ],
      [
        "▁suffisa",
        -10.083024965243924
      ],
      [
        "▁verticale",
        -10.083024984108
      ],
      [
        "▁bloc",
        -10.08302527715588
      ],
      [
        "▁signal",
        -10.083025281119028
      ],
      [
        "▁soldat",
        -10.083025855641523
      ],
      [
        "▁encadré",
        -10.083026023638329
      ],
      [
        "▁d'insectes",
        -10.083026286077711
      ],
      [
        "▁Boyd",
        -10.08302636485459
      ],
      [
        "▁palabres",
        -10.083026677711104
      ],
      [
        "▁serpent",
        -10.083026745135761
      ],
      [
        "▁s'embarque",
        -10.083026846405408
      ],
      [
        "▁morsures",
        -10.083026904018503
      ],
      [
        "▁n'importe",
        -10.083027646090908
      ],
      [
        "▁citad",
        -10.083028372966586
      ],
      [
        "▁assommé",
        -10.08302852882674
      ],
      [
        "escalad",
        -10.083028569110377
      ],
      [
        "▁placard",
        -10.083028642282175
      ],
      [
        "▁collection",
        -10.083029520926399
      ],
      [
        "▁mouvement",
        -10.083029587449559
      ],
      [
        "▁rassurant",
        -10.083030057893378
      ],
      [
        "▁dévorant",
        -10.083030750746271
      ],
      [
        "▁étudi",
        -10.083030863246632
      ],
      [
        "autopsie",
        -10.08303101365178
      ],
      [
        "▁souffert",
        -10.083031561525999
      ],
      [
        "▁bruyante",
        -10.083032201931973
      ],
      [
        "▁hérissé",
        -10.083032940726033
      ],
      [
        "▁littéra",
        -10.083033153270975
      ],
      [
        "▁patients",
        -10.083033605208112
      ],
      [
        "▁justifi",
        -10.083033617147947
      ],
      [
        "▁bourgeo",
        -10.083035845763613
      ],
      [
        "uscule",
        -10.083036829536406
      ],
      [
        "▁cellule",
        -10.083037190444873
      ],
      [
        "▁certitude",
        -10.083038224408638
      ],
      [
        "▁reflétai",
        -10.083039024148302
      ],
      [
        "▁distendu",
        -10.08303975989416
      ],
      [
        "▁prisonnier",
        -10.0830401514844
      ],
      [
        "▁illusion",
        -10.083040480574018
      ],
      [
        "harmoni",
        -10.083040511137582
      ],
      [
        "▁employés",
        -10.083041138448115
      ],
      [
        "▁emphase",
        -10.083043051314638
      ],
      [
        "▁crainte",
        -10.083043387878522
      ],
      [
        "▁circon",
        -10.083043732238714
      ],
      [
        "▁Sauf",
        -10.083044513615746
      ],
      [
        "▁preuve",
        -10.08304696333299
      ],
      [
        "▁explication",
        -10.083048831112592
      ],
      [
        "▁traditionnelle",
        -10.08305041483376
      ],
      [
        "▁disparaissait",
        -10.083051380508593
      ],
      [
        "▁brandiss",
        -10.083052178337665
      ],
      [
        "▁Cary",
        -10.083052402815019
      ],
      [
        "▁carrossable",
        -10.08305525858238
      ],
      [
        "▁voudrai",
        -10.083057318385364
      ],
      [
        "▁humide",
        -10.083057748541496
      ],
      [
        "ifiée",
        -10.083059676372946
      ],
      [
        "▁herbeuses",
        -10.08306001926858
      ],
      [
        "▁Mbam",
        -10.083061019367165
      ],
      [
        "pulsé",
        -10.083062687889958
      ],
      [
        "au-dehors",
        -10.083063507566365
      ],
      [
        "▁Kenya",
        -10.083063962379114
      ],
      [
        "▁désord",
        -10.083064754949806
      ],
      [
        "▁remède",
        -10.08306566831079
      ],
      [
        "▁gouttière",
        -10.0830686947473
      ],
      [
        "▁conçu",
        -10.083068935895884
      ],
      [
        "▁recouvr",
        -10.083072744807248
      ],
      [
        "▁aveugl",
        -10.083073518774562
      ],
      [
        "▁séjour",
        -10.083073908494592
      ],
      [
        "▁bataille",
        -10.083074538413026
      ],
      [
        "▁réduit",
        -10.083075787613692
      ],
      [
        "▁pauvre",
        -10.083076733333645
      ],
      [
        "▁désigne",
        -10.083077061231894
      ],
      [
        "▁classe",
        -10.083079309483667
      ],
      [
        "▁douloureu",
        -10.083083391458002
      ],
      [
        "▁essay",
        -10.083085124713756
      ],
      [
        "▁prospère",
        -10.083086575310517
      ],
      [
        "▁cargo",
        -10.08308727892449
      ],
      [
        "▁terrasse",
        -10.08308812736768
      ],
      [
        "▁moyen",
        -10.08308978862302
      ],
      [
        "▁vitesse",
        -10.08309118163271
      ],
      [
        "▁insurgé",
        -10.08309268435858
      ],
      [
        "▁migraines",
        -10.083094814082598
      ],
      [
        "▁chocra",
        -10.083103415201412
      ],
      [
        "▁châteaux",
        -10.083106005872164
      ],
      [
        "▁mouton",
        -10.083110365683396
      ],
      [
        "dehors",
        -10.083111325873514
      ],
      [
        "▁bombard",
        -10.083112664006201
      ],
      [
        "▁empêcha",
        -10.08311504075115
      ],
      [
        "▁cotonn",
        -10.083116108016544
      ],
      [
        "grippe",
        -10.083118142725127
      ],
      [
        "▁calme",
        -10.083122010418915
      ],
      [
        "éléphant",
        -10.083122202800993
      ],
      [
        "▁tromp",
        -10.0831231753967
      ],
      [
        "gonflé",
        -10.08312482378435
      ],
      [
        "▁itinérant",
        -10.08312623890948
      ],
      [
        "▁espion",
        -10.08312698097805
      ],
      [
        "▁carabine",
        -10.083130208858725
      ],
      [
        "▁singes",
        -10.083131981846588
      ],
      [
        "▁reconnaître",
        -10.08313251397719
      ],
      [
        "▁occidentaux",
        -10.083134437689633
      ],
      [
        "apparition",
        -10.083134848943175
      ],
      [
        "ologie",
        -10.08313732914776
      ],
      [
        "▁administrative",
        -10.08314496300651
      ],
      [
        "▁féti",
        -10.083160396341407
      ],
      [
        "▁redouta",
        -10.083165199275147
      ],
      [
        "▁diff",
        -10.083169672173542
      ],
      [
        "▁chacun",
        -10.083173496450552
      ],
      [
        "▁inconnu",
        -10.083178681839232
      ],
      [
        "▁grouill",
        -10.083182787171468
      ],
      [
        "▁agoni",
        -10.083190526253057
      ],
      [
        "▁Parfois",
        -10.08319439773144
      ],
      [
        "▁côtière",
        -10.083196693704572
      ],
      [
        "▁reconnu",
        -10.083199044000843
      ],
      [
        "▁vautours",
        -10.083199114133212
      ],
      [
        "▁rattach",
        -10.083200150819279
      ],
      [
        "▁orteil",
        -10.083204132718537
      ],
      [
        "tués",
        -10.083204537346298
      ],
      [
        "▁examin",
        -10.083212641430718
      ],
      [
        "▁inject",
        -10.083215059316572
      ],
      [
        "▁s'écroul",
        -10.08321930452699
      ],
      [
        "▁inaccessible",
        -10.083220171532172
      ],
      [
        "▁minut",
        -10.083235416412695
      ],
      [
        "▁indienne",
        -10.08323622521657
      ],
      [
        "▁recevoir",
        -10.083238006546011
      ],
      [
        "▁d'autrefois",
        -10.083244921734439
      ],
      [
        "▁Demerara",
        -10.083248509518668
      ],
      [
        "▁clair",
        -10.083250410446432
      ],
      [
        "▁journaux",
        -10.083258322277306
      ],
      [
        "▁demi-",
        -10.083263944763086
      ],
      [
        "▁cadeaux",
        -10.083273307448128
      ],
      [
        "obscur",
        -10.083279784323462
      ],
      [
        "▁vallée",
        -10.083285158635478
      ],
      [
        "▁savate",
        -10.08329043053692
      ],
      [
        "▁raffiné",
        -10.083300623328837
      ],
      [
        "▁pacifi",
        -10.083304173938167
      ],
      [
        "support",
        -10.0833092251991
      ],
      [
        "▁chevaux",
        -10.083312242033953
      ],
      [
        "équipe",
        -10.083313345676448
      ],
      [
        "▁pessimisme",
        -10.083313792293623
      ],
      [
        "▁indiens",
        -10.083321131283782
      ],
      [
        "▁empesé",
        -10.08332138464679
      ],
      [
        "▁d'arriver",
        -10.08333329422187
      ],
      [
        "▁d'E",
        -10.08336641854261
      ],
      [
        "▁brèche",
        -10.08336770932334
      ],
      [
        "▁relations",
        -10.083383204574044
      ],
      [
        "offens",
        -10.08338391923084
      ],
      [
        "▁hurle",
        -10.08338429123181
      ],
      [
        "oiseaux",
        -10.083384328635281
      ],
      [
        "▁active",
        -10.08338604117168
      ],
      [
        "▁Bali",
        -10.083390517183375
      ],
      [
        "▁entoure",
        -10.08339290750094
      ],
      [
        "▁reparti",
        -10.083403899925267
      ],
      [
        "▁aimait",
        -10.083404009847152
      ],
      [
        "▁loca",
        -10.083404543330733
      ],
      [
        "douze",
        -10.083405414612852
      ],
      [
        "ish",
        -10.083411084745205
      ],
      [
        "▁Tama",
        -10.083422037753005
      ],
      [
        "▁venge",
        -10.083429422164805
      ],
      [
        "inclin",
        -10.083431008242309
      ],
      [
        "▁déclar",
        -10.083433944642799
      ],
      [
        "âtre",
        -10.083442660360673
      ],
      [
        "zia",
        -10.08345614622991
      ],
      [
        "▁chapeau",
        -10.083465307119427
      ],
      [
        "▁imprim",
        -10.08347471525196
      ],
      [
        "otiques",
        -10.083487484187582
      ],
      [
        "▁ruiné",
        -10.083501194613874
      ],
      [
        "▁moitié",
        -10.083511385442822
      ],
      [
        "▁généreux",
        -10.083516127398566
      ],
      [
        "▁guerrières",
        -10.083520441564993
      ],
      [
        "▁sourcils",
        -10.083549791409872
      ],
      [
        "▁étoile",
        -10.083550648107671
      ],
      [
        "▁titre",
        -10.083550682473511
      ],
      [
        "ternel",
        -10.083564905345382
      ],
      [
        "▁capric",
        -10.083576102266093
      ],
      [
        "▁souffrance",
        -10.083580785821948
      ],
      [
        "▁Mbembé",
        -10.083589073430337
      ],
      [
        "▁cousine",
        -10.083629495033014
      ],
      [
        "▁bienfait",
        -10.083652936394309
      ],
      [
        "▁abri",
        -10.083663540708862
      ],
      [
        "▁fourni",
        -10.083679400996362
      ],
      [
        "▁haine",
        -10.083679546789227
      ],
      [
        "▁manqué",
        -10.083684567046749
      ],
      [
        "▁banan",
        -10.08371065857305
      ],
      [
        "ègre",
        -10.083716488597936
      ],
      [
        "▁recommençait",
        -10.083728570092294
      ],
      [
        "▁promena",
        -10.083737918022258
      ],
      [
        "▁s'installaient",
        -10.083747573865004
      ],
      [
        "▁réveill",
        -10.083758784298205
      ],
      [
        "rifice",
        -10.08380764768264
      ],
      [
        "▁oublié",
        -10.083827694945663
      ],
      [
        "blème",
        -10.083845567919354
      ],
      [
        "lumin",
        -10.083857933472366
      ],
      [
        "▁Bro",
        -10.083869334854787
      ],
      [
        "▁dépays",
        -10.08387244685346
      ],
      [
        "▁n'exist",
        -10.083872468413563
      ],
      [
        "▁commande",
        -10.083876201435434
      ],
      [
        "▁autrefois",
        -10.083884369362355
      ],
      [
        "▁sida",
        -10.083889711989553
      ],
      [
        "▁nacelle",
        -10.083901994045616
      ],
      [
        "▁haoussa",
        -10.083918327132178
      ],
      [
        "▁l'argent",
        -10.08392812101904
      ],
      [
        "▁profondeur",
        -10.083931505800656
      ],
      [
        "▁cirées",
        -10.083953064637084
      ],
      [
        "▁gland",
        -10.083954468632111
      ],
      [
        "▁l'angl",
        -10.08396462017476
      ],
      [
        "▁taillé",
        -10.083967191704055
      ],
      [
        "▁futur",
        -10.08399231686218
      ],
      [
        "▁Enfin",
        -10.084002425973116
      ],
      [
        "▁haie",
        -10.084011433373906
      ],
      [
        "▁gosse",
        -10.08404255057862
      ],
      [
        "▁véné",
        -10.084056983276959
      ],
      [
        "▁événements",
        -10.084080312038978
      ],
      [
        "▁parisienne",
        -10.0840827810237
      ],
      [
        "▁amoureu",
        -10.084102754266013
      ],
      [
        "▁semblables",
        -10.084111310977566
      ],
      [
        "▁superf",
        -10.084136830783144
      ],
      [
        "▁irokos",
        -10.08415522856925
      ],
      [
        "▁terminé",
        -10.084169036876961
      ],
      [
        "antenne",
        -10.084171635468614
      ],
      [
        "▁gants",
        -10.084183824592191
      ],
      [
        "▁aimé",
        -10.084187308273172
      ],
      [
        "▁voisins",
        -10.084199846172416
      ],
      [
        "▁heureux",
        -10.084271274631869
      ],
      [
        "▁dangereux",
        -10.084303905512696
      ],
      [
        "▁Mill",
        -10.084309197506176
      ],
      [
        "▁religieux",
        -10.084334888771712
      ],
      [
        "▁l'équ",
        -10.084355821725882
      ],
      [
        "▁l'étroit",
        -10.08436507431384
      ],
      [
        "▁flanc",
        -10.084370262039116
      ],
      [
        "▁œufs",
        -10.084408352835835
      ],
      [
        "▁termina",
        -10.08442032701344
      ],
      [
        "bienne",
        -10.084486049738116
      ],
      [
        "▁tirage",
        -10.084503220174735
      ],
      [
        "lé",
        -10.084516678873488
      ],
      [
        "▁savon",
        -10.084527632970435
      ],
      [
        "▁trente-",
        -10.084589024899257
      ],
      [
        "▁capit",
        -10.084597831213697
      ],
      [
        "elle-même",
        -10.08463512713964
      ],
      [
        "▁trott",
        -10.084675463563693
      ],
      [
        "▁castes",
        -10.08474382243513
      ],
      [
        "▁marchand",
        -10.084769249483806
      ],
      [
        "minist",
        -10.084811534676419
      ],
      [
        "'arc-",
        -10.084829648507002
      ],
      [
        "ssié",
        -10.084864756485942
      ],
      [
        "▁enserr",
        -10.084896595573783
      ],
      [
        "ailleurs",
        -10.084913801983516
      ],
      [
        "▁enlève",
        -10.084958392813762
      ],
      [
        "▁dangereuse",
        -10.084984710392497
      ],
      [
        "adresse",
        -10.085019095784892
      ],
      [
        "én",
        -10.085024584343252
      ],
      [
        "▁religieuse",
        -10.08502928142348
      ],
      [
        "▁permanent",
        -10.085046323821867
      ],
      [
        "▁volont",
        -10.085046796738158
      ],
      [
        "▁d'état",
        -10.085084270879697
      ],
      [
        "▁flamb",
        -10.085157931099555
      ],
      [
        "▁détest",
        -10.085221626559564
      ],
      [
        "baie",
        -10.085225102563715
      ],
      [
        "▁arrivant",
        -10.085257078919046
      ],
      [
        "▁faim",
        -10.085271250605393
      ],
      [
        "▁front",
        -10.085283873079243
      ],
      [
        "▁refaire",
        -10.085296302751768
      ],
      [
        "▁Déjà",
        -10.085330795231943
      ],
      [
        "▁ruine",
        -10.085354163147668
      ],
      [
        "▁déborda",
        -10.085367826393698
      ],
      [
        "▁proue",
        -10.085391290036146
      ],
      [
        "▁l'inv",
        -10.085442118381758
      ],
      [
        "▁atroc",
        -10.085470792948158
      ],
      [
        "trappe",
        -10.085598971816529
      ],
      [
        "▁esprits",
        -10.085612476243139
      ],
      [
        "▁principes",
        -10.085642989703107
      ],
      [
        "▁tourbillonnai",
        -10.085807712294297
      ],
      [
        "▁veine",
        -10.085857724827482
      ],
      [
        "kw",
        -10.085922356212917
      ],
      [
        "▁lourdement",
        -10.085982819303776
      ],
      [
        "▁obsédant",
        -10.086042489397792
      ],
      [
        "rak",
        -10.086167358047826
      ],
      [
        "▁s'ex",
        -10.086238772562258
      ],
      [
        "onnement",
        -10.08643283121748
      ],
      [
        "▁naiss",
        -10.086486134341127
      ],
      [
        "▁emmen",
        -10.08651842195911
      ],
      [
        "▁perçoi",
        -10.086541075254397
      ],
      [
        "▁contenu",
        -10.086572260857631
      ],
      [
        "▁l'émotion",
        -10.086620048277508
      ],
      [
        "▁l'humanité",
        -10.086622241617176
      ],
      [
        "palud",
        -10.086674564008312
      ],
      [
        "▁rond",
        -10.086826436753919
      ],
      [
        "▁lettre",
        -10.086884234139678
      ],
      [
        "▁lucid",
        -10.086936291827083
      ],
      [
        "▁livré",
        -10.086976238495081
      ],
      [
        "agaie",
        -10.087042302241926
      ],
      [
        "▁conform",
        -10.087053113215164
      ],
      [
        "▁l'aura",
        -10.087300120105121
      ],
      [
        "▁capo",
        -10.087323418492124
      ],
      [
        "▁dram",
        -10.087378850121716
      ],
      [
        "acharn",
        -10.087706552373024
      ],
      [
        "▁tâche",
        -10.087744235327442
      ],
      [
        "▁rép",
        -10.087759096676676
      ],
      [
        "▁troubl",
        -10.087873423353239
      ],
      [
        "▁incon",
        -10.087934291077737
      ],
      [
        "nkar",
        -10.087966482759779
      ],
      [
        "quetés",
        -10.088064251103678
      ],
      [
        "▁soupir",
        -10.088127448691333
      ],
      [
        "▁justement",
        -10.088169080777766
      ],
      [
        "▁rêverie",
        -10.088253648255323
      ],
      [
        "▁sorcier",
        -10.088295162864263
      ],
      [
        "▁ensuite",
        -10.08830831590148
      ],
      [
        "▁j'écoute",
        -10.088456114442149
      ],
      [
        "▁l'exemple",
        -10.088498251610508
      ],
      [
        "▁trac",
        -10.088652931184688
      ],
      [
        "itié",
        -10.088715829567178
      ],
      [
        "ulture",
        -10.08873973391813
      ],
      [
        "▁toucher",
        -10.088967164100763
      ],
      [
        "▁l'I",
        -10.089023025656488
      ],
      [
        "ocrit",
        -10.089121832214227
      ],
      [
        "▁échappé",
        -10.08923341371192
      ],
      [
        "▁avenir",
        -10.089306726113563
      ],
      [
        "▁parlaient",
        -10.08938752429431
      ],
      [
        "▁apparaît",
        -10.089563180481694
      ],
      [
        "▁perche",
        -10.089570621534094
      ],
      [
        "▁étonné",
        -10.089607760677147
      ],
      [
        "découvrant",
        -10.089741410867505
      ],
      [
        "ache",
        -10.089770802169339
      ],
      [
        "▁suivant",
        -10.089996061674155
      ],
      [
        "▁frappait",
        -10.090059922765281
      ],
      [
        "▁attir",
        -10.090126825491874
      ],
      [
        "veille",
        -10.090246748041848
      ],
      [
        "▁accent",
        -10.090285612254888
      ],
      [
        "▁l'ignor",
        -10.090303544029213
      ],
      [
        "▁fissur",
        -10.090414413335989
      ],
      [
        "qui",
        -10.090491652811913
      ],
      [
        "▁instinctive",
        -10.090676234627253
      ],
      [
        "▁exig",
        -10.090909341454022
      ],
      [
        "nya",
        -10.0910438255217
      ],
      [
        "▁épineu",
        -10.091045948925819
      ],
      [
        "umul",
        -10.091609442748089
      ],
      [
        "utisme",
        -10.091793478733479
      ],
      [
        "▁l'app",
        -10.091926831076837
      ],
      [
        "▁descente",
        -10.092193283625596
      ],
      [
        "▁trouvé",
        -10.092249931036411
      ],
      [
        "turne",
        -10.09228946902434
      ],
      [
        "▁arrivait",
        -10.092386730437203
      ],
      [
        "licat",
        -10.092435129801459
      ],
      [
        "▁transformé",
        -10.092711786976107
      ],
      [
        "▁vaine",
        -10.09279210463159
      ],
      [
        "▁folle",
        -10.092839004481393
      ],
      [
        "▁l'écla",
        -10.09292940980563
      ],
      [
        "▁occupé",
        -10.092951551644852
      ],
      [
        "▁puissant",
        -10.093014983928233
      ],
      [
        "▁bro",
        -10.093133482771831
      ],
      [
        "quiner",
        -10.09328208431491
      ],
      [
        "acle",
        -10.093294401840637
      ],
      [
        "▁papaye",
        -10.093306486622936
      ],
      [
        "▁serré",
        -10.09335106733372
      ],
      [
        "▁referm",
        -10.093363928691659
      ],
      [
        "▁préparer",
        -10.093761237505298
      ],
      [
        "▁rouillé",
        -10.09377469425358
      ],
      [
        "▁rendait",
        -10.093802161482657
      ],
      [
        "▁flotte",
        -10.093941032907667
      ],
      [
        "mandi",
        -10.094024555203626
      ],
      [
        "▁parcouru",
        -10.094349715320305
      ],
      [
        "usure",
        -10.094531237651884
      ],
      [
        "▁ref",
        -10.09463299781993
      ],
      [
        "ouilla",
        -10.094778724141323
      ],
      [
        "cher",
        -10.09485907620496
      ],
      [
        "dales",
        -10.094955905937343
      ],
      [
        "▁désespérant",
        -10.095009933283581
      ],
      [
        "▁mouch",
        -10.09522394241233
      ],
      [
        "▁saisir",
        -10.095353535378639
      ],
      [
        "▁appel",
        -10.095539702149738
      ],
      [
        "▁séc",
        -10.095681804578039
      ],
      [
        "aines",
        -10.095791557257856
      ],
      [
        "▁magie",
        -10.095940227102412
      ],
      [
        "▁remonter",
        -10.095964624827204
      ],
      [
        "▁voilé",
        -10.096074363372743
      ],
      [
        "▁odeurs",
        -10.096096324347249
      ],
      [
        "▁puni",
        -10.096236500296126
      ],
      [
        "▁brutal",
        -10.096761196402019
      ],
      [
        "yph",
        -10.096790739702733
      ],
      [
        "gorg",
        -10.09680069397939
      ],
      [
        "ung",
        -10.096861830118877
      ],
      [
        "▁battant",
        -10.096986431151247
      ],
      [
        "▁gratuite",
        -10.097592526044927
      ],
      [
        "▁nonchalante",
        -10.097672380896135
      ],
      [
        "▁sûrs",
        -10.097684499803405
      ],
      [
        "▁moqu",
        -10.097762139080334
      ],
      [
        "▁portraits",
        -10.097771417151906
      ],
      [
        "▁secrets",
        -10.097783433388374
      ],
      [
        "▁administrateurs",
        -10.09778620497682
      ],
      [
        "▁gilets",
        -10.097793600140559
      ],
      [
        "▁planche",
        -10.097841847231368
      ],
      [
        "▁défil",
        -10.098119797447087
      ],
      [
        "▁larmes",
        -10.098218728048408
      ],
      [
        "sensible",
        -10.098422566362256
      ],
      [
        "onnés",
        -10.098527288341133
      ],
      [
        "iquaient",
        -10.098562474959019
      ],
      [
        "▁parlé",
        -10.099279091435697
      ],
      [
        "▁substan",
        -10.099465148558963
      ],
      [
        "▁immobil",
        -10.099487530803192
      ],
      [
        "▁pilot",
        -10.099577163980692
      ],
      [
        "▁l'oc",
        -10.099590997815858
      ],
      [
        "▁envoy",
        -10.099796467541417
      ],
      [
        "▁raide",
        -10.099812823025658
      ],
      [
        "▁congés",
        -10.099818645694603
      ],
      [
        "▁dessine",
        -10.099873594335113
      ],
      [
        "▁compos",
        -10.099970192495556
      ],
      [
        "orant",
        -10.099997483135157
      ],
      [
        "▁Fou",
        -10.100191445696169
      ],
      [
        "▁conduit",
        -10.100219665861397
      ],
      [
        "▁remarqu",
        -10.100371087788515
      ],
      [
        "▁affection",
        -10.10052193995626
      ],
      [
        "▁vieilli",
        -10.100671700561445
      ],
      [
        "▁nombre",
        -10.100691571295437
      ],
      [
        "▁signe",
        -10.100935640366437
      ],
      [
        "▁outre",
        -10.101001612945204
      ],
      [
        "▁pap",
        -10.1015948455159
      ],
      [
        "▁l'adolescen",
        -10.10172360608169
      ],
      [
        "sses",
        -10.10195411043921
      ],
      [
        "▁enco",
        -10.101974863097011
      ],
      [
        "▁insouciant",
        -10.1020020035689
      ],
      [
        "avant",
        -10.10209169854931
      ],
      [
        "▁transmet",
        -10.102346965546442
      ],
      [
        "▁seraient",
        -10.102402469623792
      ],
      [
        "▁école",
        -10.102510494818404
      ],
      [
        "cité",
        -10.102530678737184
      ],
      [
        "aliment",
        -10.102709743575328
      ],
      [
        "eaux",
        -10.10288040752278
      ],
      [
        "'étais",
        -10.103087969308822
      ],
      [
        "▁effe",
        -10.103175684789424
      ],
      [
        "▁l'avant",
        -10.103453165628888
      ],
      [
        "▁arraché",
        -10.10378303931836
      ],
      [
        "rompt",
        -10.103993029801108
      ],
      [
        "▁salon",
        -10.10400325640944
      ],
      [
        "▁langue",
        -10.104182704629173
      ],
      [
        "▁dial",
        -10.104620934597527
      ],
      [
        "rendre",
        -10.104752997013861
      ],
      [
        "▁brûlé",
        -10.104891036826086
      ],
      [
        "▁So",
        -10.104939134466303
      ],
      [
        "▁remis",
        -10.10517911872719
      ],
      [
        "▁rides",
        -10.105373430240006
      ],
      [
        "major",
        -10.10541365425054
      ],
      [
        "▁prétend",
        -10.10555846319356
      ],
      [
        "▁siens",
        -10.105722895681273
      ],
      [
        "ffronter",
        -10.107164880519413
      ],
      [
        "▁évi",
        -10.107211280927507
      ],
      [
        "▁flo",
        -10.107257767913126
      ],
      [
        "▁inqui",
        -10.107444447815583
      ],
      [
        "oups",
        -10.107546616312526
      ],
      [
        "▁corr",
        -10.108296498435898
      ],
      [
        "▁taille",
        -10.108345739586206
      ],
      [
        "▁transporté",
        -10.108413587426876
      ],
      [
        "▁exilé",
        -10.10990504255213
      ],
      [
        "abine",
        -10.110486096369291
      ],
      [
        "▁deven",
        -10.110775302087248
      ],
      [
        "étho",
        -10.110896149130904
      ],
      [
        "tueuse",
        -10.110976001089426
      ],
      [
        "aises",
        -10.111148174281206
      ],
      [
        "▁rompu",
        -10.111428328054716
      ],
      [
        "▁bleues",
        -10.112191190147993
      ],
      [
        "Ouest",
        -10.112233335038304
      ],
      [
        "▁gâteau",
        -10.112691931715247
      ],
      [
        "▁prépare",
        -10.112773595843441
      ],
      [
        "▁mani",
        -10.112801649380893
      ],
      [
        "▁Ver",
        -10.113187372635632
      ],
      [
        "▁fut",
        -10.11357178244994
      ],
      [
        "▁rempli",
        -10.113694283601674
      ],
      [
        "▁d'enc",
        -10.114346085605487
      ],
      [
        "chures",
        -10.114707390646242
      ],
      [
        "▁passionn",
        -10.114845963296705
      ],
      [
        "gante",
        -10.114906828129529
      ],
      [
        "▁bours",
        -10.116164727381232
      ],
      [
        "▁d'agr",
        -10.116191437275095
      ],
      [
        "▁rapporte",
        -10.116271087911223
      ],
      [
        "▁accouchement",
        -10.116338646111481
      ],
      [
        "▁habite",
        -10.11650825097206
      ],
      [
        "▁gi",
        -10.116578400519403
      ],
      [
        "explosi",
        -10.11691292273484
      ],
      [
        "▁machette",
        -10.117850239646234
      ],
      [
        "basse",
        -10.117972994067562
      ],
      [
        "▁choqu",
        -10.118418391387124
      ],
      [
        "ramas",
        -10.118905499142404
      ],
      [
        "▁sév",
        -10.119146890622714
      ],
      [
        "▁soigné",
        -10.119720104582385
      ],
      [
        "▁amer",
        -10.119752178427541
      ],
      [
        "▁l'am",
        -10.119764970058386
      ],
      [
        "▁abo",
        -10.12026056913232
      ],
      [
        "▁décorés",
        -10.120571571043062
      ],
      [
        "leur",
        -10.12064918615426
      ],
      [
        "villé",
        -10.120740369176819
      ],
      [
        "toile",
        -10.120844372092774
      ],
      [
        "▁ressembler",
        -10.120981628628236
      ],
      [
        "▁mett",
        -10.12102978667133
      ],
      [
        "▁voi",
        -10.121058907165239
      ],
      [
        "▁utilisé",
        -10.121085283339907
      ],
      [
        "▁dorm",
        -10.121270875603448
      ],
      [
        "mat",
        -10.121506702026204
      ],
      [
        "▁gestes",
        -10.121740781155669
      ],
      [
        "▁vic",
        -10.122291391995926
      ],
      [
        "oudain",
        -10.122312260034915
      ],
      [
        "▁peuples",
        -10.12242318126742
      ],
      [
        "▁instrument",
        -10.122768126750616
      ],
      [
        "▁perçois",
        -10.122901219050956
      ],
      [
        "matur",
        -10.122915547282247
      ],
      [
        "▁éch",
        -10.123214373132464
      ],
      [
        "▁fatigué",
        -10.12345555273734
      ],
      [
        "▁exceptionnel",
        -10.123900051346656
      ],
      [
        "▁expérience",
        -10.12402125288104
      ],
      [
        "tilité",
        -10.124165142359262
      ],
      [
        "▁environn",
        -10.124395315517672
      ],
      [
        "▁ser",
        -10.12461831451914
      ],
      [
        "▁endurcis",
        -10.12473656847711
      ],
      [
        "▁ennemis",
        -10.125103230997953
      ],
      [
        "▁habitu",
        -10.125244099079582
      ],
      [
        "▁infirmiers",
        -10.125288460351042
      ],
      [
        "ada",
        -10.125422816238787
      ],
      [
        "ration",
        -10.125451859868662
      ],
      [
        "nois",
        -10.125668397958561
      ],
      [
        "▁gain",
        -10.125737327273301
      ],
      [
        "yo",
        -10.12632514847634
      ],
      [
        "▁ibo",
        -10.126735482418722
      ],
      [
        "▁rong",
        -10.12693810451013
      ],
      [
        "gar",
        -10.127044434187534
      ],
      [
        "?",
        -10.128206671866437
      ],
      [
        "insi",
        -10.128234533965587
      ],
      [
        "ssures",
        -10.128574396325313
      ],
      [
        "▁fuit",
        -10.129245822106311
      ],
      [
        "▁prendre",
        -10.129470056421708
      ],
      [
        "▁tir",
        -10.129579273593224
      ],
      [
        "▁immensité",
        -10.129684093036161
      ],
      [
        "▁européenne",
        -10.129702118431517
      ],
      [
        "hy",
        -10.130102197894738
      ],
      [
        "▁permettr",
        -10.1301497136061
      ],
      [
        "provision",
        -10.130276960454719
      ],
      [
        "ades",
        -10.130408438993827
      ],
      [
        "épar",
        -10.130888300364264
      ],
      [
        "▁marcher",
        -10.130909444951497
      ],
      [
        "▁rituels",
        -10.13106844817057
      ],
      [
        "▁l'aide",
        -10.131212964763652
      ],
      [
        "réelle",
        -10.131395951364011
      ],
      [
        "▁affaires",
        -10.131707894720531
      ],
      [
        "▁battu",
        -10.13206674383016
      ],
      [
        "▁Cas",
        -10.132131957845537
      ],
      [
        "▁Bar",
        -10.13219676359823
      ],
      [
        "▁décoré",
        -10.132850815303208
      ],
      [
        "▁espoir",
        -10.132905568956986
      ],
      [
        "▁éloignement",
        -10.13316478247833
      ],
      [
        "égré",
        -10.13384217703884
      ],
      [
        "▁officielle",
        -10.13465389666298
      ],
      [
        "▁irréel",
        -10.13525315834696
      ],
      [
        "▁éclairs",
        -10.135642874324098
      ],
      [
        "▁Allemagne",
        -10.135763467085036
      ],
      [
        "▁industrielle",
        -10.135822785361714
      ],
      [
        "▁civilis",
        -10.135858286212471
      ],
      [
        "habituelle",
        -10.135971095014108
      ],
      [
        "▁divi",
        -10.137605956781435
      ],
      [
        "▁march",
        -10.13766299165776
      ],
      [
        "▁rêver",
        -10.137785516134237
      ],
      [
        "▁rongé",
        -10.138556298045287
      ],
      [
        "éan",
        -10.13856411761574
      ],
      [
        "▁chass",
        -10.13952490167906
      ],
      [
        "▁élé",
        -10.139770948166042
      ],
      [
        "▁bib",
        -10.140315754834587
      ],
      [
        "yard",
        -10.140521965786032
      ],
      [
        "▁statu",
        -10.140706489438664
      ],
      [
        "dou",
        -10.140712653716554
      ],
      [
        "▁brin",
        -10.141308579667573
      ],
      [
        "▁fatal",
        -10.14138868577751
      ],
      [
        "▁parcours",
        -10.142152891926953
      ],
      [
        "▁soufflet",
        -10.142208835983958
      ],
      [
        "envahissai",
        -10.14240168734344
      ],
      [
        "▁trou",
        -10.142476644739176
      ],
      [
        "▁ennemi",
        -10.142582178480184
      ],
      [
        "écart",
        -10.143476592716773
      ],
      [
        "▁tam",
        -10.144409501382842
      ],
      [
        "▁l'isol",
        -10.144602000764083
      ],
      [
        "▁famili",
        -10.145708810694641
      ],
      [
        "ncé",
        -10.145970372151057
      ],
      [
        "rouille",
        -10.145991244200257
      ],
      [
        "▁miroirs",
        -10.146088845172935
      ],
      [
        "▁distances",
        -10.146240560326566
      ],
      [
        "▁dieux",
        -10.146465233428843
      ],
      [
        "▁autorit",
        -10.146595029314671
      ],
      [
        "▁moustiquaires",
        -10.147091323309791
      ],
      [
        "▁institu",
        -10.147486788003798
      ],
      [
        "uments",
        -10.147767202688565
      ],
      [
        "▁rassembl",
        -10.147784034291114
      ],
      [
        "êt",
        -10.148112795191627
      ],
      [
        "ange",
        -10.148301830133681
      ],
      [
        "▁Kam",
        -10.148566545257847
      ],
      [
        "roduit",
        -10.148994124304423
      ],
      [
        "di",
        -10.14993722547135
      ],
      [
        "▁ride",
        -10.150570899008498
      ],
      [
        "'appellent",
        -10.150661279318056
      ],
      [
        "esse",
        -10.151446639260431
      ],
      [
        "▁traces",
        -10.151882987517743
      ],
      [
        "▁Ngo",
        -10.152083342209465
      ],
      [
        "▁offra",
        -10.152220644792203
      ],
      [
        "lang",
        -10.1526396105103
      ],
      [
        "géni",
        -10.152829765139321
      ],
      [
        "pa",
        -10.153029611496475
      ],
      [
        "▁s'éte",
        -10.153246284738835
      ],
      [
        "vions",
        -10.15340172577073
      ],
      [
        "▁semé",
        -10.153599798265299
      ],
      [
        "▁étude",
        -10.154014720412883
      ],
      [
        "its",
        -10.154403471199295
      ],
      [
        "▁accroch",
        -10.154500624587623
      ],
      [
        "isée",
        -10.154515673988566
      ],
      [
        "je",
        -10.154746274993197
      ],
      [
        "▁chefs",
        -10.155196039720812
      ],
      [
        "uré",
        -10.155351053644072
      ],
      [
        "idée",
        -10.156216124604114
      ],
      [
        "▁vieil",
        -10.156429767460695
      ],
      [
        "gade",
        -10.156676506671328
      ],
      [
        "▁n'app",
        -10.158162389000575
      ],
      [
        "▁colport",
        -10.158238543342629
      ],
      [
        "▁décol",
        -10.160974726460196
      ],
      [
        "parts",
        -10.161142684007613
      ],
      [
        "▁positi",
        -10.161211333810375
      ],
      [
        "▁Nor",
        -10.161364365756068
      ],
      [
        "▁normal",
        -10.161565860560456
      ],
      [
        "▁écouter",
        -10.162403164356082
      ],
      [
        "▁lever",
        -10.163069450152978
      ],
      [
        "oulé",
        -10.16307133558554
      ],
      [
        "ition",
        -10.164250785647464
      ],
      [
        "aisse",
        -10.164804349102397
      ],
      [
        "▁résiste",
        -10.165628503032028
      ],
      [
        "▁serais",
        -10.166436598824692
      ],
      [
        "▁mode",
        -10.16671911553832
      ],
      [
        "ain",
        -10.168685273952592
      ],
      [
        "▁ressent",
        -10.168865024322418
      ],
      [
        "▁Mal",
        -10.168889657197841
      ],
      [
        "émie",
        -10.171191885436528
      ],
      [
        "▁ép",
        -10.171820779745726
      ],
      [
        "▁plai",
        -10.1724376782126
      ],
      [
        "▁confin",
        -10.172474390331184
      ],
      [
        "▁cesse",
        -10.173229196315276
      ],
      [
        "approch",
        -10.173348670126535
      ],
      [
        "pés",
        -10.174284447229782
      ],
      [
        "ly",
        -10.175284948412077
      ],
      [
        "▁profonde",
        -10.176879514867325
      ],
      [
        "▁d'hi",
        -10.17780142055396
      ],
      [
        "▁rac",
        -10.177897866536306
      ],
      [
        "hré",
        -10.178095084933396
      ],
      [
        "▁têtes",
        -10.1794112368977
      ],
      [
        "orpor",
        -10.180042666100723
      ],
      [
        "sultat",
        -10.180373053483091
      ],
      [
        "orage",
        -10.180459694130235
      ],
      [
        "▁organisat",
        -10.181139111937313
      ],
      [
        "▁détri",
        -10.181565646205915
      ],
      [
        "▁te",
        -10.18322108112944
      ],
      [
        "ppu",
        -10.183247334587158
      ],
      [
        "ènes",
        -10.184329252764412
      ],
      [
        "▁fédérale",
        -10.184611284816114
      ],
      [
        "écess",
        -10.18522882568514
      ],
      [
        "diale",
        -10.18561197272404
      ],
      [
        "▁sexe",
        -10.187092290136963
      ],
      [
        "attes",
        -10.187285051382176
      ],
      [
        "▁poules",
        -10.18758711120748
      ],
      [
        "réci",
        -10.187681272710124
      ],
      [
        "▁ôte",
        -10.188510671398367
      ],
      [
        "tivement",
        -10.189595915037955
      ],
      [
        "▁Nj",
        -10.190798276303846
      ],
      [
        "-tu",
        -10.190816458695368
      ],
      [
        "▁gir",
        -10.19129000957877
      ],
      [
        "▁voyai",
        -10.192218059919977
      ],
      [
        "▁justi",
        -10.192378292965259
      ],
      [
        "ler",
        -10.192478960659258
      ],
      [
        "sque",
        -10.192747563901948
      ],
      [
        "▁vert",
        -10.192890898806926
      ],
      [
        "lacés",
        -10.193127082308207
      ],
      [
        "▁réguli",
        -10.193208703420613
      ],
      [
        "▁El",
        -10.193794429457888
      ],
      [
        "houe",
        -10.194301807933199
      ],
      [
        "▁entendue",
        -10.195542245185267
      ],
      [
        "▁n'ét",
        -10.1960147710756
      ],
      [
        "▁vé",
        -10.196115763826938
      ],
      [
        "rage",
        -10.196939130237743
      ],
      [
        "▁bis",
        -10.197025615677356
      ],
      [
        "▁prête",
        -10.200044760899358
      ],
      [
        "lée",
        -10.200058837614108
      ],
      [
        "▁tac",
        -10.200239306544914
      ],
      [
        "▁origine",
        -10.201572318228973
      ],
      [
        "▁combi",
        -10.201710860262494
      ],
      [
        "▁gar",
        -10.202088873843687
      ],
      [
        "allaient",
        -10.203178757917605
      ],
      [
        "comp",
        -10.203209560680172
      ],
      [
        "▁fl",
        -10.204199209345967
      ],
      [
        "▁indig",
        -10.206306101109364
      ],
      [
        "lir",
        -10.207098814175986
      ],
      [
        "▁étrangers",
        -10.207672197371906
      ],
      [
        "▁représente",
        -10.207908515229812
      ],
      [
        "▁foul",
        -10.208103115016268
      ],
      [
        "▁cond",
        -10.211108744942505
      ],
      [
        "'ulcère",
        -10.21173629537844
      ],
      [
        "'affaire",
        -10.21242852690289
      ],
      [
        "buste",
        -10.213057709455187
      ],
      [
        "▁gardée",
        -10.213112274724834
      ],
      [
        "'y",
        -10.213408918426452
      ],
      [
        "ajouta",
        -10.213786388713423
      ],
      [
        "▁d'att",
        -10.215402619723681
      ],
      [
        "ements",
        -10.215746206283821
      ],
      [
        "▁aurais",
        -10.21580908124064
      ],
      [
        "hot",
        -10.215899595825825
      ],
      [
        "bes",
        -10.217890426015696
      ],
      [
        "▁étendue",
        -10.21836115049579
      ],
      [
        "quée",
        -10.218732045224623
      ],
      [
        "reuse",
        -10.219189220925607
      ],
      [
        "▁l'Es",
        -10.219294671278682
      ],
      [
        "▁déchi",
        -10.219734460400446
      ],
      [
        "▁roche",
        -10.22181714183462
      ],
      [
        "uer",
        -10.222902465370039
      ],
      [
        "▁écr",
        -10.223625154043376
      ],
      [
        "▁permettai",
        -10.223699278646581
      ],
      [
        "▁ja",
        -10.223803867721275
      ],
      [
        "▁gri",
        -10.226812730216656
      ],
      [
        "nier",
        -10.22698946556753
      ],
      [
        "▁arrive",
        -10.22717043281952
      ],
      [
        "ages",
        -10.227427106204244
      ],
      [
        "▁T",
        -10.228531311500127
      ],
      [
        "▁lè",
        -10.231054411021967
      ],
      [
        "gnée",
        -10.232315936640662
      ],
      [
        "itions",
        -10.232551891156962
      ],
      [
        "dit",
        -10.23289846747818
      ],
      [
        "as",
        -10.23322531799056
      ],
      [
        "▁guide",
        -10.233308093640805
      ],
      [
        "roche",
        -10.234265318552582
      ],
      [
        "▁obst",
        -10.234297790082481
      ],
      [
        "▁m'étai",
        -10.23453139487685
      ],
      [
        "▁roulé",
        -10.23467259666874
      ],
      [
        "▁animal",
        -10.235512743142056
      ],
      [
        "èrement",
        -10.235829278752805
      ],
      [
        "ivre",
        -10.236065007570847
      ],
      [
        "▁rest",
        -10.237583869602465
      ],
      [
        "teur",
        -10.237710888202255
      ],
      [
        "▁vivres",
        -10.23904942091119
      ],
      [
        "▁brûl",
        -10.241844557480166
      ],
      [
        "ède",
        -10.24199633633523
      ],
      [
        "lettes",
        -10.245317292533835
      ],
      [
        "▁bal",
        -10.24628454643317
      ],
      [
        "emporter",
        -10.246739437405965
      ],
      [
        "'endorm",
        -10.24862029023395
      ],
      [
        "▁valai",
        -10.248943663983855
      ],
      [
        "arti",
        -10.2493674342901
      ],
      [
        "don",
        -10.251317331781065
      ],
      [
        "paraître",
        -10.251631110127557
      ],
      [
        "rio",
        -10.252549244555794
      ],
      [
        "▁canc",
        -10.25456224677034
      ],
      [
        "blant",
        -10.254773039517936
      ],
      [
        "émir",
        -10.256092255578126
      ],
      [
        "▁ru",
        -10.256263004569862
      ],
      [
        "ection",
        -10.256499469641827
      ],
      [
        "ande",
        -10.257074242547178
      ],
      [
        "▁or",
        -10.25843174565252
      ],
      [
        "▁pren",
        -10.260662875474477
      ],
      [
        "▁Wi",
        -10.260851617480192
      ],
      [
        "▁golf",
        -10.261230508111948
      ],
      [
        "▁embras",
        -10.261697988975374
      ],
      [
        "▁s'arrêt",
        -10.262013930436465
      ],
      [
        "bur",
        -10.262730737480705
      ],
      [
        "▁d'art",
        -10.263193671790685
      ],
      [
        "▁risque",
        -10.263390379369831
      ],
      [
        "accompagner",
        -10.264374709276204
      ],
      [
        "quier",
        -10.267001639759522
      ],
      [
        "yait",
        -10.267038513430615
      ],
      [
        "né",
        -10.267847112105763
      ],
      [
        "▁veni",
        -10.268533636810657
      ],
      [
        "▁pla",
        -10.268913765295487
      ],
      [
        "embou",
        -10.270310662986056
      ],
      [
        "uses",
        -10.27115716364148
      ],
      [
        "rs",
        -10.27182418243112
      ],
      [
        "ommé",
        -10.273267905017414
      ],
      [
        "▁d'am",
        -10.27417458583089
      ],
      [
        "anis",
        -10.275448903493315
      ],
      [
        "onnée",
        -10.276331882030197
      ],
      [
        "▁fr",
        -10.277032399147359
      ],
      [
        "▁chap",
        -10.278566042277713
      ],
      [
        "gir",
        -10.28017732914252
      ],
      [
        "lo",
        -10.280617870843452
      ],
      [
        "▁carr",
        -10.282978375766765
      ],
      [
        "▁l'en",
        -10.283784543201506
      ],
      [
        "rop",
        -10.28423747198698
      ],
      [
        "naires",
        -10.284537357613996
      ],
      [
        "rigue",
        -10.28467758104646
      ],
      [
        "rées",
        -10.28490643720094
      ],
      [
        "▁rus",
        -10.285484169825843
      ],
      [
        "liée",
        -10.288850899344505
      ],
      [
        "▁inex",
        -10.291117865902685
      ],
      [
        "▁sorc",
        -10.291839986904336
      ],
      [
        "▁métall",
        -10.29429931121638
      ],
      [
        "▁consult",
        -10.295362741594321
      ],
      [
        "Gol",
        -10.29552489220916
      ],
      [
        "▁rencontr",
        -10.29657148256723
      ],
      [
        "chercher",
        -10.29736003524748
      ],
      [
        "▁vrais",
        -10.2979411031989
      ],
      [
        "▁violente",
        -10.3014430203818
      ],
      [
        "trices",
        -10.30214990491504
      ],
      [
        "▁fa",
        -10.303181352820335
      ],
      [
        "année",
        -10.303434402588403
      ],
      [
        "▁réserve",
        -10.304195927095707
      ],
      [
        "'infirmière",
        -10.304995977140308
      ],
      [
        "riale",
        -10.305926848109836
      ],
      [
        "▁Ta",
        -10.306867408943381
      ],
      [
        "pace",
        -10.3072709080235
      ],
      [
        "▁tenu",
        -10.30797141170583
      ],
      [
        "hanti",
        -10.308497430669444
      ],
      [
        "irland",
        -10.309267362860064
      ],
      [
        "oï",
        -10.30929699342888
      ],
      [
        "ouche",
        -10.310807685324425
      ],
      [
        "▁cachée",
        -10.311179780947864
      ],
      [
        "oi",
        -10.311916147523482
      ],
      [
        "▁apport",
        -10.312806737428822
      ],
      [
        "▁muse",
        -10.313781894513264
      ],
      [
        "▁Fa",
        -10.314069986513523
      ],
      [
        "▁masc",
        -10.314282360032148
      ],
      [
        "alheureux",
        -10.314968983455394
      ],
      [
        "▁cassée",
        -10.315518601345966
      ],
      [
        "rmée",
        -10.317044580930972
      ],
      [
        "▁naturel",
        -10.31717653154665
      ],
      [
        "▁ord",
        -10.317321871777294
      ],
      [
        "ndie",
        -10.317541378752768
      ],
      [
        "▁é",
        -10.318620903765131
      ],
      [
        "eff",
        -10.319529309169408
      ],
      [
        "gne",
        -10.321551762674723
      ],
      [
        "▁L'av",
        -10.32290545215018
      ],
      [
        "hiver",
        -10.3241608142794
      ],
      [
        "▁occidental",
        -10.324496593172645
      ],
      [
        "rans",
        -10.325216394237362
      ],
      [
        "▁paroi",
        -10.326191729737232
      ],
      [
        "tifs",
        -10.326893660516761
      ],
      [
        "▁W",
        -10.327530721645044
      ],
      [
        "écrire",
        -10.328434793004742
      ],
      [
        "▁prest",
        -10.330723226448901
      ],
      [
        "▁nationali",
        -10.33203085115929
      ],
      [
        "▁tri",
        -10.332033553021464
      ],
      [
        "▁arch",
        -10.33229676568428
      ],
      [
        "▁art",
        -10.333473573032602
      ],
      [
        "levés",
        -10.335269914460575
      ],
      [
        "▁éc",
        -10.336582181622305
      ],
      [
        "▁marches",
        -10.3375096466838
      ],
      [
        "▁exil",
        -10.338257931127433
      ],
      [
        "▁tan",
        -10.342074403815205
      ],
      [
        "▁découvr",
        -10.344611538258997
      ],
      [
        "âch",
        -10.34496252082322
      ],
      [
        "▁exempl",
        -10.348868216318047
      ],
      [
        "ouvant",
        -10.348992081965966
      ],
      [
        "'enferm",
        -10.349853778434149
      ],
      [
        "▁gre",
        -10.351927726767475
      ],
      [
        "thé",
        -10.352148754908796
      ],
      [
        "▁fouettai",
        -10.352510851173411
      ],
      [
        "▁dév",
        -10.353339641379634
      ],
      [
        "pe",
        -10.354082987259027
      ],
      [
        "▁pl",
        -10.354258781588934
      ],
      [
        "riture",
        -10.3545019673699
      ],
      [
        "▁villes",
        -10.357003903755533
      ],
      [
        "limité",
        -10.357389134678177
      ],
      [
        "▁connus",
        -10.358343433819549
      ],
      [
        "▁rois",
        -10.359040860567468
      ],
      [
        "bord",
        -10.36346169341279
      ],
      [
        "▁adolescen",
        -10.365042986994492
      ],
      [
        "ro",
        -10.366639286768406
      ],
      [
        "▁Quel",
        -10.368278755202942
      ],
      [
        "op",
        -10.369143254853395
      ],
      [
        "▁gué",
        -10.370023163947309
      ],
      [
        "▁désa",
        -10.370320746768877
      ],
      [
        "▁né",
        -10.373731476725558
      ],
      [
        "ffé",
        -10.377997308629682
      ],
      [
        "▁Te",
        -10.37979285125327
      ],
      [
        "cro",
        -10.380483292138148
      ],
      [
        "lime",
        -10.381312441035583
      ],
      [
        "ale",
        -10.382478830408182
      ],
      [
        "même",
        -10.382700413084729
      ],
      [
        "▁vais",
        -10.384525655161582
      ],
      [
        "tionné",
        -10.38466490379006
      ],
      [
        "gag",
        -10.384997284328579
      ],
      [
        "tables",
        -10.385644414865196
      ],
      [
        "termin",
        -10.386203199061832
      ],
      [
        "▁Wa",
        -10.387588605314958
      ],
      [
        "▁serv",
        -10.387809633412614
      ],
      [
        "▁préféra",
        -10.38825117894304
      ],
      [
        "ling",
        -10.388508920045844
      ],
      [
        "▁d'I",
        -10.389465209972608
      ],
      [
        "sacré",
        -10.38961025873908
      ],
      [
        "oppose",
        -10.390141867254334
      ],
      [
        "uchure",
        -10.391858703080615
      ],
      [
        "t-il",
        -10.392598285606937
      ],
      [
        "ciné",
        -10.393051788281486
      ],
      [
        "lot",
        -10.396646310799328
      ],
      [
        "sin",
        -10.397854732289748
      ],
      [
        "▁perle",
        -10.398655855390952
      ],
      [
        "▁isolée",
        -10.399150365691714
      ],
      [
        "▁Dur",
        -10.39919826471351
      ],
      [
        "pi",
        -10.400470034612098
      ],
      [
        "▁aval",
        -10.401164113770944
      ],
      [
        "tu",
        -10.402012257104115
      ],
      [
        "▁déport",
        -10.407543323933005
      ],
      [
        "ud",
        -10.407599004220078
      ],
      [
        "▁cro",
        -10.407881760893787
      ],
      [
        "liens",
        -10.407962155563235
      ],
      [
        "tombe",
        -10.409783071171585
      ],
      [
        "ipli",
        -10.410355120927763
      ],
      [
        "▁évide",
        -10.412454206477847
      ],
      [
        "ral",
        -10.413874051785749
      ],
      [
        "▁to",
        -10.414723028081122
      ],
      [
        "▁abs",
        -10.414740146829564
      ],
      [
        "oi-même",
        -10.41673882616084
      ],
      [
        "struction",
        -10.418078630062075
      ],
      [
        "leçons",
        -10.418222103461554
      ],
      [
        "▁existait",
        -10.419564444868303
      ],
      [
        "lets",
        -10.420143718460926
      ],
      [
        "hi",
        -10.420402563109212
      ],
      [
        "interrog",
        -10.422643030765354
      ],
      [
        "teau",
        -10.423885422475001
      ],
      [
        "ign",
        -10.424561611150665
      ],
      [
        "arg",
        -10.425006723156503
      ],
      [
        "rée",
        -10.427199367286377
      ],
      [
        "▁tendre",
        -10.427260060911587
      ],
      [
        "ots",
        -10.42802863198922
      ],
      [
        "▁coloni",
        -10.428916919079024
      ],
      [
        "▁plain",
        -10.430677065373366
      ],
      [
        "▁dou",
        -10.43100442226205
      ],
      [
        "robe",
        -10.432014922578638
      ],
      [
        "anté",
        -10.432849306267823
      ],
      [
        "roc",
        -10.433172430874496
      ],
      [
        "erri",
        -10.433752056979841
      ],
      [
        "▁réfl",
        -10.434935650277527
      ],
      [
        "endre",
        -10.436155495645416
      ],
      [
        "▁faite",
        -10.436594622577083
      ],
      [
        "fiance",
        -10.437352289903957
      ],
      [
        "précise",
        -10.43768634425682
      ],
      [
        "oisi",
        -10.437855768346433
      ],
      [
        "gile",
        -10.43909369282646
      ],
      [
        "im",
        -10.44130509577096
      ],
      [
        "▁autorité",
        -10.442566918277915
      ],
      [
        "milie",
        -10.445354635162072
      ],
      [
        "nations",
        -10.446745081909429
      ],
      [
        "▁mol",
        -10.448126679443284
      ],
      [
        "isse",
        -10.448719768046878
      ],
      [
        "iger",
        -10.449143458547708
      ],
      [
        "s-",
        -10.450909161082206
      ],
      [
        "estr",
        -10.451270704895373
      ],
      [
        "entraîne",
        -10.451318391038757
      ],
      [
        "ive",
        -10.45282222824506
      ],
      [
        "▁descen",
        -10.452975319520831
      ],
      [
        "▁continue",
        -10.455789522688306
      ],
      [
        "glis",
        -10.457916955989612
      ],
      [
        "exi",
        -10.458073651105366
      ],
      [
        "▁jouai",
        -10.46031244118602
      ],
      [
        "iété",
        -10.462711496883296
      ],
      [
        "▁dépla",
        -10.464953433425805
      ],
      [
        "▁ros",
        -10.465429096226755
      ],
      [
        "'infl",
        -10.467918860819095
      ],
      [
        "ssait",
        -10.472718271119176
      ],
      [
        "existe",
        -10.474912044347185
      ],
      [
        "posée",
        -10.475040293768421
      ],
      [
        "▁ve",
        -10.476010589388258
      ],
      [
        "▁lisai",
        -10.47752237822826
      ],
      [
        "▁conc",
        -10.479180785536442
      ],
      [
        "▁vou",
        -10.482314925412119
      ],
      [
        "▁bor",
        -10.48585488179145
      ],
      [
        "▁travaill",
        -10.487095098320514
      ],
      [
        "▁ém",
        -10.487555436760346
      ],
      [
        "'entraîn",
        -10.48780570948032
      ],
      [
        "▁suit",
        -10.48792107104861
      ],
      [
        "▁Jou",
        -10.490076226570423
      ],
      [
        "▁confit",
        -10.49315856835716
      ],
      [
        "▁cass",
        -10.4932857277458
      ],
      [
        "énué",
        -10.493892322277016
      ],
      [
        "rtance",
        -10.495161641779227
      ],
      [
        "ernie",
        -10.495562233355953
      ],
      [
        "▁Enf",
        -10.496842363261075
      ],
      [
        "ose",
        -10.499569315118492
      ],
      [
        "▁l'éco",
        -10.500007294375822
      ],
      [
        "▁voyag",
        -10.500871393241127
      ],
      [
        "▁ouvri",
        -10.502327972279573
      ],
      [
        "▁an",
        -10.502539686226022
      ],
      [
        "▁heur",
        -10.502850206648846
      ],
      [
        "s)",
        -10.503019848462158
      ],
      [
        "▁mar",
        -10.503143495372255
      ],
      [
        "▁(le",
        -10.50334922272689
      ],
      [
        "meut",
        -10.504639526551818
      ],
      [
        "ac",
        -10.507229249379911
      ],
      [
        "▁pensée",
        -10.511015669263173
      ],
      [
        "▁lis",
        -10.51102336099976
      ],
      [
        "iz",
        -10.511183682000018
      ],
      [
        "ries",
        -10.51121113693235
      ],
      [
        "ince",
        -10.513285148705956
      ],
      [
        "▁lave",
        -10.513614807890864
      ],
      [
        "▁nourris",
        -10.513921569436382
      ],
      [
        "▁sac",
        -10.517086741085276
      ],
      [
        "illo",
        -10.517605279997506
      ],
      [
        "merci",
        -10.518583506840406
      ],
      [
        "▁l'o",
        -10.518853597359637
      ],
      [
        "endait",
        -10.519608607509124
      ],
      [
        "▁ouvr",
        -10.520975821717718
      ],
      [
        "ran",
        -10.52098624120837
      ],
      [
        "rist",
        -10.524647350933341
      ],
      [
        "adopt",
        -10.525156442512788
      ],
      [
        "ston",
        -10.526331805505846
      ],
      [
        "offr",
        -10.527235304534289
      ],
      [
        "illes",
        -10.52862510526444
      ],
      [
        "chure",
        -10.529018070121687
      ],
      [
        "lait",
        -10.529486675850862
      ],
      [
        "▁malheur",
        -10.530283211528207
      ],
      [
        "nté",
        -10.531172729733047
      ],
      [
        "merge",
        -10.533905579483413
      ],
      [
        "▁paysan",
        -10.535545747581047
      ],
      [
        "'espoir",
        -10.536427570288062
      ],
      [
        "▁éviden",
        -10.538272176028112
      ],
      [
        "▁posé",
        -10.538584301413803
      ],
      [
        "indépendance",
        -10.540616630224598
      ],
      [
        "'accepter",
        -10.540955398759111
      ],
      [
        "▁soi",
        -10.541039381483728
      ],
      [
        "▁faisai",
        -10.542242281801855
      ],
      [
        "▁chante",
        -10.542353836037256
      ],
      [
        "pon",
        -10.542464363979956
      ],
      [
        "▁circul",
        -10.542728895341856
      ],
      [
        "▁Ki",
        -10.543203773848337
      ],
      [
        "▁sent",
        -10.544527337124423
      ],
      [
        "▁aventur",
        -10.544922377295363
      ],
      [
        "▁bé",
        -10.546347682528275
      ],
      [
        "émotion",
        -10.547416556633637
      ],
      [
        "sme",
        -10.548011025989355
      ],
      [
        "humanité",
        -10.548324533673838
      ],
      [
        "▁mienne",
        -10.550465615957563
      ],
      [
        "cru",
        -10.550481132672697
      ],
      [
        "▁attein",
        -10.55062453773568
      ],
      [
        "▁instru",
        -10.551784536109292
      ],
      [
        "▁paraiss",
        -10.552194469815454
      ],
      [
        "'entre",
        -10.552780508852655
      ],
      [
        "▁travaillai",
        -10.554043519122773
      ],
      [
        "▁retir",
        -10.55840425853469
      ],
      [
        "igné",
        -10.55912076173838
      ],
      [
        "ortir",
        -10.5614018704202
      ],
      [
        "▁d'o",
        -10.561792695819564
      ],
      [
        "▁excu",
        -10.5641041438512
      ],
      [
        "▁cap",
        -10.565042661674957
      ],
      [
        "tiers",
[...]
