{
  "version": "1.0",
  "truncation": null,
  "padding": null,
  "added_tokens": [
    {
      "id": 0,
      "content": "<cls>",
      "single_word": false,
      "lstrip": false,
      "rstrip": false,
      "normalized": false,
      "special": true
    },
    {
      "id": 1,
      "content": "<sep>",
      "single_word": false,
      "lstrip": false,
      "rstrip": false,
      "normalized": false,
      "special": true
    },
    {
      "id": 2,
      "content": "<unk>",
      "single_word": false,
      "lstrip": false,
      "rstrip": false,
      "normalized": false,
      "special": true
    },
    {
      "id": 3,
      "content": "<pad>",
      "single_word": false,
      "lstrip": false,
      "rstrip": false,
      "normalized": false,
      "special": true
    },
    {
      "id": 4,
      "content": "<mask>",
      "single_word": false,
      "lstrip": false,
      "rstrip": false,
      "normalized": false,
      "special": true
    },
    {
      "id": 5,
      "content": "<s>",
      "single_word": false,
      "lstrip": false,
      "rstrip": false,
      "normalized": false,
      "special": true
    },
    {
      "id": 6,
      "content": "</s>",
      "single_word": false,
      "lstrip": false,
      "rstrip": false,
      "normalized": false,
      "special": true
    }
  ],
  "normalizer": {
    "type": "Replace",
    "pattern": {
      "String": " {2,}"
    },
    "content": " "
  },
  "pre_tokenizer": {
    "type": "Metaspace",
    "replacement": "▁",
    "add_prefix_space": true
  },
  "post_processor": null,
  "decoder": {
    "type": "Metaspace",
    "replacement": "▁",
    "add_prefix_space": true
  },
  "model": {
    "type": "Unigram",
    "unk_id": 2,
    "vocab": [
      [
        "<cls>",
        0.0
      ],
      [
        "<sep>",
        0.0
      ],
      [
        "<unk>",
        0.0
      ],
      [
        "<pad>",
        0.0
      ],
      [
        "<mask>",
        0.0
      ],
      [
        "<s>",
        0.0
      ],
      [
        "</s>",
        0.0
      ],
      [
        "▁",
        -2.5986583673295183
      ],
      [
        ".",
        -3.1802112215573013
      ],
      [
        ",",
        -3.8554427199774928
      ],
      [
        "s",
        -3.926749901636131
      ],
      [
        "!",
        -4.012518574548661
      ],
      [
        "?",
        -4.111852520396173
      ],
      [
        "i",
        -4.411007925319136
      ],
      [
        "▁la",
        -4.4149727513593575
      ],
      [
        "▁!",
        -4.452011581539699
      ],
      [
        "t",
        -4.546310882996835
      ],
      [
        "n",
        -4.598502103278089
      ],
      [
        "est",
        -4.625712632763064
      ],
      [
        "u",
        -4.678304567605373
      ],
      [
        "e",
        -4.718793073033732
      ],
      [
        "l",
        -4.731448129503405
      ],
      [
        "▁gi",
        -4.735402352544857
      ],
      [
        "▁de",
        -4.741822208904596
      ],
      [
        "a",
        -4.7534954824643005
      ],
      [
        "▁que",
        -4.794449374233174
      ],
      [
        "▁na",
        -4.9127564603973966
      ],
      [
        "▁ŋga",
        -4.914272663549649
      ],
      [
        "▁dem",
        -4.984005381249411
      ],
      [
        "▁naa",
        -5.01931589880392
      ],
      [
        "▁pas",
        -5.045874723468083
      ],
      [
        "▁vu",
        -5.077999497815164
      ],
      [
        "▁C'",
        -5.084782729797932
      ],
      [
        "▁G",
        -5.086769394690391
      ],
      [
        "▁qui",
        -5.093661433332026
      ],
      [
        "óor",
        -5.097739611718602
      ],
      [
        "▁Gis",
        -5.1787016300014175
      ],
      [
        "▁est",
        -5.2850637453374345
      ],
      [
        "▁tu",
        -5.361322269548517
      ],
      [
        "▁L'homme",
        -5.367885630058018
      ],
      [
        "▁ne",
        -5.3867768671017195
      ],
      [
        "▁J'a",
        -5.392954124457112
      ],
      [
        "▁l'homme",
        -5.414670356764862
      ],
      [
        "▁ci",
        -5.415780186875326
      ],
      [
        "▁Tu",
        -5.475989760183065
      ],
      [
        "▁ce",
        -5.5042089199416875
      ],
      [
        "▁homme",
        -5.507927846092998
      ],
      [
        "le",
        -5.509062880706101
      ],
      [
        "▁un",
        -5.518112598810033
      ],
      [
        "▁wax",
        -5.519175415117957
      ],
      [
        "r",
        -5.52169011780598
      ],
      [
        "▁ñëw",
        -5.530889665950107
      ],
      [
        "▁Je",
        -5.560430177064453
      ],
      [
        "▁I",
        -5.565224192118097
      ],
      [
        "▁à",
        -5.593109418636348
      ],
      [
        "y",
        -5.608499672361298
      ],
      [
        "▁a",
        -5.633845504828667
      ],
      [
        "et",
        -5.674227638424757
      ],
      [
        "▁góor",
        -5.680175388654689
      ],
      [
        "▁nit",
        -5.738199775569898
      ],
      [
        "▁les",
        -5.797684258813895
      ],
      [
        "▁qu'il",
        -5.805067182836026
      ],
      [
        "▁mu",
        -5.819068480244858
      ],
      [
        "eneen",
        -5.819730541153852
      ],
      [
        "▁cet",
        -5.871703405954236
      ],
      [
        "▁yi",
        -5.876758996460579
      ],
      [
        "▁le",
        -5.920873703841029
      ],
      [
        "▁ki",
        -5.923440868413641
      ],
      [
        "▁te",
        -5.926130379998121
      ],
      [
        "▁ba",
        -5.9367207111805484
      ],
      [
        "▁parle",
        -5.963542974621283
      ],
      [
        "▁ŋgi",
        -5.990860917153762
      ],
      [
        "▁Nit",
        -5.999816407104751
      ],
      [
        "▁xale",
        -6.000573222146274
      ],
      [
        "▁été",
        -6.012899755587705
      ],
      [
        "▁di",
        -6.018376876202062
      ],
      [
        "▁bi",
        -6.06849877283884
      ],
      [
        "é",
        -6.08283406034997
      ],
      [
        "x",
        -6.130401801341999
      ],
      [
        "▁as",
        -6.135837054013875
      ],
      [
        "▁ka",
        -6.1768819973189695
      ],
      [
        "▁gis",
        -6.188999121545358
      ],
      [
        "▁celui-là",
        -6.214679940513164
      ],
      [
        "à",
        -6.2344902134446585
      ],
      [
        "▁il",
        -6.276241126768815
      ],
      [
        "▁mi",
        -6.284979358047904
      ],
      [
        "▁autre",
        -6.313703476738585
      ],
      [
        "▁ji",
        -6.314823689745813
      ],
      [
        "nt",
        -6.327626153385187
      ],
      [
        "▁ya",
        -6.328592325223267
      ],
      [
        "oon",
        -6.334114845393621
      ],
      [
        "▁dit",
        -6.3499948658681795
      ],
      [
        "▁son",
        -6.358133764808671
      ],
      [
        "▁demee",
        -6.3600850108646165
      ],
      [
        "▁bëgg",
        -6.361366330189194
      ],
      [
        "▁fi",
        -6.366650533135523
      ],
      [
        "▁ma",
        -6.375722664807511
      ],
      [
        "▁woon",
        -6.380905432037824
      ],
      [
        "▁biir",
        -6.398071569672574
      ],
      [
        "▁laa",
        -6.404894629579101
      ],
      [
        "▁je",
        -6.410433416689937
      ],
      [
        "re",
        -6.41169973098863
      ],
      [
        "▁du",
        -6.412129329016606
      ],
      [
        "o",
        -6.422944335053486
      ],
      [
        "il",
        -6.426677233932256
      ],
      [
        "▁enfants",
        -6.42815578038602
      ],
      [
        "m",
        -6.439368339241544
      ],
      [
        "▁Ci",
        -6.439864501468051
      ],
      [
        "▁là",
        -6.447943308332739
      ],
      [
        "▁xar",
        -6.451924099378265
      ],
      [
        "▁parti",
        -6.4525277718138305
      ],
      [
        "woon",
        -6.479920484699063
      ],
      [
        "▁pour",
        -6.487658604734147
      ],
      [
        "▁des",
        -6.49234924488038
      ],
      [
        "▁ag",
        -6.501325658827943
      ],
      [
        "▁y",
        -6.517149869845265
      ],
      [
        "▁lui",
        -6.521066598060523
      ],
      [
        "c",
        -6.526974105207788
      ],
      [
        "▁so",
        -6.537620007617511
      ],
      [
        "▁sa",
        -6.5395641617062745
      ],
      [
        "▁nag",
        -6.556880432275264
      ],
      [
        "▁c'",
        -6.560320227893142
      ],
      [
        "▁l'intérieur",
        -6.561282248576196
      ],
      [
        "▁ñi",
        -6.57788412709843
      ],
      [
        "▁J",
        -6.598694095123022
      ],
      [
        "▁vous",
        -6.611236656359395
      ],
      [
        "▁Sée",
        -6.617619309197378
      ],
      [
        "▁peut-",
        -6.639171515884845
      ],
      [
        "▁jigéen",
        -6.639407698971638
      ],
      [
        "ez",
        -6.646821792087836
      ],
      [
        "ont",
        -6.647760673039977
      ],
      [
        "▁nda",
        -6.662791852544891
      ],
      [
        "▁Les",
        -6.662999534922671
      ],
      [
        "▁venu",
        -6.684343467840527
      ],
      [
        "▁femme",
        -6.700731175038948
      ],
      [
        "ak",
        -6.7127482328697194
      ],
      [
        "▁ami",
        -6.726800778022374
      ],
      [
        "▁A",
        -6.72801461987852
      ],
      [
        "▁k",
        -6.7284848503538495
      ],
      [
        "▁moom",
        -6.731628816350401
      ],
      [
        "▁veux",
        -6.733146021248174
      ],
      [
        "▁partir",
        -6.734727250499235
      ],
      [
        "▁Quel",
        -6.741522120775581
      ],
      [
        "▁si",
        -6.745160383194419
      ],
      [
        "▁d",
        -6.74602634344369
      ],
      [
        "▁Cet",
        -6.746531529375976
      ],
      [
        "▁moutons",
        -6.748636994122641
      ],
      [
        "es",
        -6.749326192586635
      ],
      [
        "▁fu",
        -6.757668802720808
      ],
      [
        "▁c",
        -6.758185855358126
      ],
      [
        "▁m",
        -6.759729477149879
      ],
      [
        "▁voilà",
        -6.7693208875697195
      ],
      [
        "▁xarit",
        -6.7705948819116095
      ],
      [
        "▁n'",
        -6.771477019320065
      ],
      [
        "▁où",
        -6.779520170138259
      ],
      [
        "ne",
        -6.790568400797685
      ],
      [
        "▁toi",
        -6.8026046573694865
      ],
      [
        "▁ken",
        -6.806742822045984
      ],
      [
        "▁Ma",
        -6.813662372831876
      ],
      [
        "▁moo",
        -6.821125136712524
      ],
      [
        "▁ni",
        -6.8214930102726505
      ],
      [
        "ci",
        -6.837848468942653
      ],
      [
        "▁mouton",
        -6.8390085594555075
      ],
      [
        "▁ku",
        -6.840923749983152
      ],
      [
        "▁ŋgee",
        -6.844734201650947
      ],
      [
        "▁waa",
        -6.861128358705052
      ],
      [
        "s.",
        -6.883143409069934
      ],
      [
        "▁n'a",
        -6.8866619500805175
      ],
      [
        "▁Fa",
        -6.907256330834603
      ],
      [
        "▁Le",
        -6.909245017509267
      ],
      [
        "▁aussi",
        -6.918843736954962
      ],
      [
        "▁gens",
        -6.919691432755647
      ],
      [
        "▁vois",
        -6.921414470236078
      ],
      [
        "▁baax",
        -6.928754938036517
      ],
      [
        "▁se",
        -6.9329291162610955
      ],
      [
        "▁dan",
        -6.936905712439016
      ],
      [
        "▁K",
        -6.961465472219231
      ],
      [
        "on",
        -6.967801230854706
      ],
      [
        "▁ave",
        -6.973371030986585
      ],
      [
        "▁ceux-là",
        -6.974735166192657
      ],
      [
        "▁veut",
        -6.975919745128252
      ],
      [
        "-",
        -6.981421614028163
      ],
      [
        "▁croi",
        -6.981649093519406
      ],
      [
        "▁La",
        -6.985850841636949
      ],
      [
        "w",
        -6.986219072760511
      ],
      [
        "g",
        -6.987416922115667
      ],
      [
        "▁kooku",
        -6.992850817805186
      ],
      [
        "al",
        -6.993606759907921
      ],
      [
        "▁man",
        -7.01804239431641
      ],
      [
        "de",
        -7.019078695080284
      ],
      [
        "▁Waa",
        -7.021465643735819
      ],
      [
        "▁autres",
        -7.023429377099934
      ],
      [
        "uñu",
        -7.025644030978681
      ],
      [
        "épp",
        -7.031906507659276
      ],
      [
        "▁donné",
        -7.033088480705154
      ],
      [
        "▁maison",
        -7.033665803122107
      ],
      [
        "▁Xar",
        -7.035665432821348
      ],
      [
        "▁foofu",
        -7.036230192873976
      ],
      [
        "▁So",
        -7.038337394005445
      ],
      [
        "rç",
        -7.0389776215432995
      ],
      [
        "▁personne",
        -7.03929650818573
      ],
      [
        "▁rée",
        -7.042959842699556
      ],
      [
        "▁D",
        -7.062522758081258
      ],
      [
        "soo",
        -7.062616377485209
      ],
      [
        "it",
        -7.0638173442706575
      ],
      [
        "oo",
        -7.0738747411546
      ],
      [
        "▁n'es",
        -7.075054248677654
      ],
      [
        "▁V",
        -7.078243148131262
      ],
      [
        "▁S",
        -7.080522681328887
      ],
      [
        "▁en",
        -7.0876298113797755
      ],
      [
        "-là",
        -7.089906398236703
      ],
      [
        "tre",
        -7.091965942641713
      ],
      [
        "▁celui",
        -7.09548208222113
      ],
      [
        "▁l'autre",
        -7.095993277252738
      ],
      [
        "▁yépp",
        -7.096883234209276
      ],
      [
        "▁tout",
        -7.097181509077364
      ],
      [
        "▁jusqu'",
        -7.111394737722658
      ],
      [
        "▁chose",
        -7.132987019771402
      ],
      [
        "▁part",
        -7.1417036666354505
      ],
      [
        "ay",
        -7.1479529567835325
      ],
      [
        "te",
        -7.150446242602644
      ],
      [
        "▁moi",
        -7.151682071317884
      ],
      [
        "▁Bëgg",
        -7.161381835641606
      ],
      [
        "▁rien",
        -7.161676866784386
      ],
      [
        "▁ñu",
        -7.161689694262151
      ],
      [
        "▁dara",
        -7.1618624702705045
      ],
      [
        "▁yooyu",
        -7.163069437246509
      ],
      [
        "▁doon",
        -7.172322585414433
      ],
      [
        "▁Dem",
        -7.18801217933535
      ],
      [
        "êt",
        -7.198592127326691
      ],
      [
        "▁dul",
        -7.201234858184524
      ],
      [
        "▁dana",
        -7.207404484581639
      ],
      [
        "▁ñoo",
        -7.2204912964761965
      ],
      [
        "▁lion",
        -7.2311893502767335
      ],
      [
        "un",
        -7.23214327077414
      ],
      [
        "▁vache",
        -7.233624301005381
      ],
      [
        "▁ñan",
        -7.233680146339138
      ],
      [
        "▁t'a",
        -7.234414818468929
      ],
      [
        "▁Xa",
        -7.245652240556607
      ],
      [
        "ul",
        -7.245928392595156
      ],
      [
        "▁fait",
        -7.255669862107258
      ],
      [
        "▁quelle",
        -7.257570842087929
      ],
      [
        "▁nañu",
        -7.259519562877247
      ],
      [
        "▁fa",
        -7.260739508977346
      ],
      [
        "▁L",
        -7.279008163927149
      ],
      [
        "▁l'",
        -7.284780033397454
      ],
      [
        "▁d'autre",
        -7.291054214449521
      ],
      [
        "een",
        -7.294860236706077
      ],
      [
        "er",
        -7.307324494232349
      ],
      [
        "▁l",
        -7.308941655507919
      ],
      [
        "▁Saint-Louis",
        -7.310442282482123
      ],
      [
        "▁Na",
        -7.3152913374474
      ],
      [
        "▁Ndar",
        -7.317038449807707
      ],
      [
        "enn",
        -7.3322386807044975
      ],
      [
        "▁da",
        -7.3355596875934825
      ],
      [
        "ape",
        -7.335983517088772
      ],
      [
        "▁quel",
        -7.3363142992040125
      ],
      [
        "▁Du",
        -7.350131280556485
      ],
      [
        "▁Si",
        -7.350156446041799
      ],
      [
        "tu",
        -7.350654729929811
      ],
      [
        "▁vienne",
        -7.369140963543419
      ],
      [
        "▁d'",
        -7.371305843740158
      ],
      [
        "▁s",
        -7.371637469629906
      ],
      [
        "▁s'",
        -7.376667269445582
      ],
      [
        "une",
        -7.3795639260746935
      ],
      [
        "▁Y",
        -7.381975336113964
      ],
      [
        "ère",
        -7.383248443988711
      ],
      [
        "ent",
        -7.388331438014426
      ],
      [
        "▁Jox",
        -7.392010822449452
      ],
      [
        "▁kër",
        -7.392084471954272
      ],
      [
        "▁Defe",
        -7.393058049788001
      ],
      [
        "▁ñépp",
        -7.3931921354251955
      ],
      [
        "▁benn",
        -7.3938910267215245
      ],
      [
        "▁Mais",
        -7.394525312538083
      ],
      [
        "▁doom",
        -7.403218814302387
      ],
      [
        "▁viendra",
        -7.40794655758269
      ],
      [
        "ê",
        -7.412605123038917
      ],
      [
        "▁l'a",
        -7.43647718104925
      ],
      [
        "▁b",
        -7.438103475953736
      ],
      [
        "I",
        -7.440477911999982
      ],
      [
        "▁ja",
        -7.445015116005797
      ],
      [
        "▁bii",
        -7.445119641791846
      ],
      [
        "▁leen",
        -7.4455286440778075
      ],
      [
        "gee",
        -7.451409830855699
      ],
      [
        "▁qu'",
        -7.454829973848161
      ],
      [
        "▁par",
        -7.455510749283446
      ],
      [
        "koon",
        -7.460926397316239
      ],
      [
        "▁Ba",
        -7.461293025184039
      ],
      [
        "is",
        -7.461410504691582
      ],
      [
        "igéen",
        -7.482676292431087
      ],
      [
        "▁génn",
        -7.482766575266519
      ],
      [
        "▁matin",
        -7.483228357633633
      ],
      [
        "▁E",
        -7.483432237088832
      ],
      [
        "▁Xammee",
        -7.483452957024548
      ],
      [
        "▁question",
        -7.483798567234225
      ],
      [
        "▁ou",
        -7.484499359425391
      ],
      [
        "▁bañ",
        -7.484601637943181
      ],
      [
        "▁defe",
        -7.486336068823519
      ],
      [
        "▁gaynde",
        -7.487145852362406
      ],
      [
        "▁tou",
        -7.495866889868393
      ],
      [
        "▁n",
        -7.497476360156787
      ],
      [
        "▁dee",
        -7.502596274316073
      ],
      [
        "▁étai",
        -7.505995719491166
      ],
      [
        "▁ay",
        -7.506977287963004
      ],
      [
        "▁demul",
        -7.508435896447738
      ],
      [
        "▁Ce",
        -7.509521087348873
      ],
      [
        "ment",
        -7.509706643397287
      ],
      [
        "▁Mi",
        -7.510366362024713
      ],
      [
        "▁Su",
        -7.511765804618488
      ],
      [
        "▁Te",
        -7.517760004251054
      ],
      [
        "▁ca",
        -7.520376463975305
      ],
      [
        "▁fas",
        -7.521697092895599
      ],
      [
        "▁ban",
        -7.52650263860046
      ],
      [
        "en",
        -7.527553515162285
      ],
      [
        "ël",
        -7.529740524504934
      ],
      [
        "▁femmes",
        -7.534252116134562
      ],
      [
        "s-t",
        -7.550533939913022
      ],
      [
        "fa",
        -7.552189955127384
      ],
      [
        "óon",
        -7.557537188553521
      ],
      [
        "▁j",
        -7.575063084415432
      ],
      [
        "▁ñooñ",
        -7.57748265663611
      ],
      [
        ":",
        -7.5787714678602205
      ],
      [
        "▁doŋŋ",
        -7.582520969209172
      ],
      [
        "▁là-bas",
        -7.583258412972785
      ],
      [
        "▁d'Europe",
        -7.5833836666476016
      ],
      [
        "▁quelqu'un",
        -7.5835439332249805
      ],
      [
        "▁celui-ci",
        -7.584114540147984
      ],
      [
        "▁kii",
        -7.584832852462567
      ],
      [
        "▁C",
        -7.585381713060656
      ],
      [
        "▁yaw",
        -7.58575314385837
      ],
      [
        "▁bëggul",
        -7.588791132687225
      ],
      [
        "▁dame",
        -7.589057397771744
      ],
      [
        "▁sama",
        -7.589109560776468
      ],
      [
        "ñ",
        -7.589417756560094
      ],
      [
        "▁t",
        -7.592086797507821
      ],
      [
        "▁Bi",
        -7.599354995190444
      ],
      [
        "que",
        -7.607597502213812
      ],
      [
        "na",
        -7.609206109869001
      ],
      [
        "▁égaré",
        -7.609984835831845
      ],
      [
        "▁F",
        -7.610876621996038
      ],
      [
        "or",
        -7.6176799665916555
      ],
      [
        "G",
        -7.6213717266236785
      ],
      [
        "▁bon",
        -7.640197869868687
      ],
      [
        "quel",
        -7.641192122417891
      ],
      [
        "-ci",
        -7.647500684355634
      ],
      [
        "▁fii",
        -7.65037572455087
      ],
      [
        "▁Quelle",
        -7.657115859021669
      ],
      [
        "d",
        -7.662035246599628
      ],
      [
        "▁daa",
        -7.662279514374534
      ],
      [
        "éer",
        -7.664364215495755
      ],
      [
        "▁Ñ",
        -7.6669883370478775
      ],
      [
        "ait",
        -7.668297345885926
      ],
      [
        "▁w",
        -7.671377207676413
      ],
      [
        "▁don",
        -7.676922979129763
      ],
      [
        "▁dugg",
        -7.693339067740048
      ],
      [
        "▁cheval",
        -7.69366162732654
      ],
      [
        "▁Sérère",
        -7.693820904803527
      ],
      [
        "▁dëkk",
        -7.6938958532632675
      ],
      [
        "▁dañu",
        -7.694570092346503
      ],
      [
        "▁Ya",
        -7.695183071476224
      ],
      [
        "▁jeune",
        -7.695477007781113
      ],
      [
        "▁soi",
        -7.69556271136482
      ],
      [
        "▁biti",
        -7.6959394107798715
      ],
      [
        "▁plus",
        -7.696212473615638
      ],
      [
        "▁Woo",
        -7.696911556702377
      ],
      [
        "▁am",
        -7.699313253173089
      ],
      [
        "▁bien",
        -7.70053042544029
      ],
      [
        "▁demkoon",
        -7.700917104041198
      ],
      [
        "▁seen",
        -7.702200481154376
      ],
      [
        "▁fille",
        -7.702233672974277
      ],
      [
        "▁Xam",
        -7.708765497440516
      ],
      [
        "▁U",
        -7.708931274874072
      ],
      [
        "▁N",
        -7.7114224638524735
      ],
      [
        "am",
        -7.711787578377807
      ],
      [
        "▁partes",
        -7.71490897661359
      ],
      [
        "tes",
        -7.720044843120604
      ],
      [
        "▁viennes",
        -7.728945313881243
      ],
      [
        "▁Dan",
        -7.735042704094847
      ],
      [
        "mi",
        -7.738240160585008
      ],
      [
        "▁Sa",
        -7.738693056814706
      ],
      [
        "▁Tou",
        -7.741567508789446
      ],
      [
        "k",
        -7.7480044990942165
      ],
      [
        "eû",
        -7.753210225650161
      ],
      [
        "▁L'",
        -7.759154179014555
      ],
      [
        "ous",
        -7.770800009233319
      ],
      [
        "ra",
        -7.7712756224513155
      ],
      [
        "▁su",
        -7.774517556160095
      ],
      [
        "▁jë",
        -7.775421776744938
      ],
      [
        "▁mo",
        -7.77589907008597
      ],
      [
        "b",
        -7.782688708539683
      ],
      [
        "f",
        -7.782940424883096
      ],
      [
        "▁même",
        -7.784210216701456
      ],
      [
        "oom",
        -7.792578351298277
      ],
      [
        "▁liggéey",
        -7.797088443194723
      ],
      [
        "▁Nda",
        -7.804043644212044
      ],
      [
        "la",
        -7.806837142223497
      ],
      [
        "▁au",
        -7.809410819804885
      ],
      [
        "▁f",
        -7.814425242103631
      ],
      [
        "atim",
        -7.814759754747032
      ],
      [
        "▁Que",
        -7.816123562272672
      ],
      [
        "▁Homme",
        -7.818084003067492
      ],
      [
        "▁Laobe",
        -7.818084833284001
      ],
      [
        "▁Lawbe",
        -7.818127089223989
      ],
      [
        "▁rekk",
        -7.8182351091295725
      ],
      [
        "▁néeg",
        -7.818257367319371
      ],
      [
        "▁acheté",
        -7.8182831083612925
      ],
      [
        "▁Fatim",
        -7.818597600273666
      ],
      [
        "▁itam",
        -7.823818093534621
      ],
      [
        "▁Là",
        -7.824002114475674
      ],
      [
        "▁ŋgoon",
        -7.824420839730191
      ],
      [
        "▁seul",
        -7.824614595997843
      ],
      [
        "▁tay",
        -7.825721239562895
      ],
      [
        "▁avai",
        -7.826876961418908
      ],
      [
        "▁Yaw",
        -7.831954957837747
      ],
      [
        "▁mais",
        -7.834542291377733
      ],
      [
        "▁gan",
        -7.835516440046948
      ],
      [
        "les",
        -7.836900754513373
      ],
      [
        "ale",
        -7.836915765465763
      ],
      [
        "▁aujourd'hui",
        -7.839759175919903
      ],
      [
        "nee",
        -7.84124828735214
      ],
      [
        "▁Ken",
        -7.842475773781174
      ],
      [
        "▁nul",
        -7.847927569085067
      ],
      [
        "▁parl",
        -7.852755102402291
      ],
      [
        "▁enfant",
        -7.855501903055064
      ],
      [
        "▁re",
        -7.85896384317253
      ],
      [
        "▁vient",
        -7.864669935747394
      ],
      [
        "▁may",
        -7.876861265539765
      ],
      [
        "ée",
        -7.876967355331687
      ],
      [
        "ag",
        -7.905821273188057
      ],
      [
        "▁Ra",
        -7.9131302640097445
      ],
      [
        "▁jii",
        -7.9146624395662375
      ],
      [
        "▁égarée",
        -7.919536571120021
      ],
      [
        "▁bu",
        -7.925387980111305
      ],
      [
        "▁xam",
        -7.92697943819658
      ],
      [
        "ppelle",
        -7.930841539875663
      ],
      [
        "▁ici",
        -7.936730379217955
      ],
      [
        "vais",
        -7.944328749243603
      ],
      [
        "eux",
        -7.952063789856791
      ],
      [
        "▁ira",
        -7.957357750502819
      ],
      [
        "▁chevaux",
        -7.957739736379707
      ],
      [
        "▁rafet",
        -7.957740077868711
      ],
      [
        "▁Deŋk",
        -7.957775697416885
      ],
      [
        "▁Moussa",
        -7.957783718969889
      ],
      [
        "▁Yéen",
        -7.957826977347292
      ],
      [
        "▁subë",
        -7.957861468819473
      ],
      [
        "▁pourtant",
        -7.958423179663671
      ],
      [
        "▁dellusi",
        -7.958637901154109
      ],
      [
        "▁l'enfant",
        -7.958847088845872
      ],
      [
        "▁toog",
        -7.959064288129244
      ],
      [
        "▁tày",
        -7.959122234832376
      ],
      [
        "▁ndaw",
        -7.961016067248215
      ],
      [
        "▁mère",
        -7.962442677569838
      ],
      [
        "▁parte",
        -7.962734275799402
      ],
      [
        "▁sortir",
        -7.963041341533685
      ],
      [
        "▁serai",
        -7.965335699855155
      ],
      [
        "▁connais",
        -7.966077356633163
      ],
      [
        "▁nak",
        -7.966203346916146
      ],
      [
        "▁v",
        -7.966308805063828
      ],
      [
        "▁sax",
        -7.969095798858897
      ],
      [
        "▁gu",
        -7.97106980534507
      ],
      [
        "▁s'en",
        -7.971997747577625
      ],
      [
        "gal",
        -7.974893627586958
      ],
      [
        "▁wa",
        -7.975263949460554
      ],
      [
        "▁M",
        -7.977253429774352
      ],
      [
        "▁soir",
        -7.978011505838099
      ],
      [
        "h",
        -7.98156380394153
      ],
      [
        "▁wall",
        -7.986575231049292
      ],
      [
        "individu",
        -7.987359252722267
      ],
      [
        "▁no",
        -7.988906006868156
      ],
      [
        "▁demande",
        -7.990334144474206
      ],
      [
        "▁téer",
        -7.993030223361693
      ],
      [
        "z",
        -7.9942267507714675
      ],
      [
        "ais",
        -7.996792632886525
      ],
      [
        "▁it",
        -8.007727656476337
      ],
      [
        "▁Ben",
        -8.007872958762777
      ],
      [
        "▁fil",
        -8.009449617111192
      ],
      [
        "▁Li",
        -8.013901072434246
      ],
      [
        "▁jooju",
        -8.018198398985492
      ],
      [
        "kk",
        -8.024091317009216
      ],
      [
        "▁na.",
        -8.025055217823565
      ],
      [
        "ënd",
        -8.03442545978684
      ],
      [
        "ient",
        -8.037082219212227
      ],
      [
        "▁Wa",
        -8.037254379632719
      ],
      [
        "▁ñ",
        -8.042938454704458
      ],
      [
        "▁Da",
        -8.045433783700096
      ],
      [
        "▁entre",
        -8.050796139731728
      ],
      [
        "'il",
        -8.051618511139143
      ],
      [
        "and",
        -8.052679826516748
      ],
      [
        "ons",
        -8.062637537707676
      ],
      [
        "age",
        -8.067976399275052
      ],
      [
        "ir",
        -8.070327537778454
      ],
      [
        "▁Di",
        -8.076026335170702
      ],
      [
        "ar",
        -8.077640210232335
      ],
      [
        "▁travail",
        -8.079009168628566
      ],
      [
        "kat",
        -8.079506884355547
      ],
      [
        "fois",
        -8.080027861169276
      ],
      [
        "nd",
        -8.096017920519246
      ],
      [
        "▁O",
        -8.104428167138591
      ],
      [
        "▁Qu'",
        -8.105357593804776
      ],
      [
        "▁arrivé",
        -8.106470802816016
      ],
      [
        "pp",
        -8.107191228412674
      ],
      [
        "an",
        -8.10911453925759
      ],
      [
        "▁ñooña",
        -8.109495932077166
      ],
      [
        "ëf",
        -8.112261178910645
      ],
      [
        "▁Ch",
        -8.116282962010542
      ],
      [
        "ñu",
        -8.117054291088722
      ],
      [
        "ou",
        -8.123441632631721
      ],
      [
        "▁simplement",
        -8.124406402821526
      ],
      [
        "▁boeuf",
        -8.124406550427295
      ],
      [
        "▁Foofu",
        -8.124406776483152
      ],
      [
        "▁yeksi",
        -8.12440908821259
      ],
      [
        "▁croyai",
        -8.124445967802062
      ],
      [
        "▁Alors",
        -8.124782013746461
      ],
      [
        "▁noonu",
        -8.125163853458291
      ],
      [
        "▁allé",
        -8.12518769855903
      ],
      [
        "▁Samba",
        -8.125329883189274
      ],
      [
        "▁Tugël",
        -8.125581380928455
      ],
      [
        "près",
        -8.126110173076292
      ],
      [
        "▁alal",
        -8.126173044673651
      ],
      [
        "▁To",
        -8.126369951249846
      ],
      [
        "▁m'a",
        -8.126459825936255
      ],
      [
        "▁L'un",
        -8.126562797140888
      ],
      [
        "▁Kookule",
        -8.126848642739622
      ],
      [
        "▁Demal",
        -8.127236261759538
      ],
      [
        "nnée",
        -8.127486038189275
      ],
      [
        "▁reste",
        -8.127715158886607
      ],
      [
        "▁ju",
        -8.127747690971466
      ],
      [
        "▁ànd",
        -8.128270627994507
      ],
      [
        "connais",
        -8.128854187570859
      ],
      [
        "▁amen",
        -8.129762703819594
      ],
      [
        "▁ville",
        -8.131486933265512
      ],
      [
        "▁Mu",
        -8.131757992446504
      ],
      [
        "▁nous",
        -8.133418959792458
      ],
      [
        "▁jaŋg",
        -8.135481964330108
      ],
      [
        "▁Wax",
        -8.14189276500704
      ],
      [
        "▁boobu",
        -8.142997119800299
      ],
      [
        "▁arrivés",
        -8.145025203460744
      ],
      [
        "▁boo",
        -8.145153533859565
      ],
      [
        "▁vas",
        -8.14880473448574
      ],
      [
        "▁Yaa",
        -8.15370339104786
      ],
      [
        "▁refuse",
        -8.157928096854812
      ],
      [
        "▁bëggée",
        -8.160485598099722
      ],
      [
        "▁pay",
        -8.161194441410162
      ],
      [
        "▁d'un",
        -8.163910469399122
      ],
      [
        "aar",
        -8.165449766562332
      ],
      [
        "voir",
        -8.166054672441064
      ],
      [
        "▁Mon",
        -8.168115071158935
      ],
      [
        "as-",
        -8.186931300767302
      ],
      [
        "▁ch",
        -8.188002047982398
      ],
      [
        "▁wan",
        -8.188190939101434
      ],
      [
        "▁mes",
        -8.190497351855335
      ],
      [
        "iez",
        -8.190680764714365
      ],
      [
        "▁Sur",
        -8.194678809184097
      ],
      [
        "ces",
        -8.195395184977789
      ],
      [
        "▁B",
        -8.198146113764462
      ],
      [
        "ye",
        -8.19893207838663
      ],
      [
        "▁Am",
        -8.202210364535105
      ],
      [
        "▁De",
        -8.20624377796191
      ],
      [
        "▁Ne",
        -8.207966410748147
      ],
      [
        "▁été.",
        -8.208120281802346
      ],
      [
        "gi",
        -8.21079854121753
      ],
      [
        "ii",
        -8.212847707558929
      ],
      [
        "▁googu",
        -8.216601170365102
      ],
      [
        "moi",
        -8.223424061952976
      ],
      [
        "ce",
        -8.22425081282091
      ],
      [
        "▁toute",
        -8.230692225016524
      ],
      [
        "ien",
        -8.241416210862047
      ],
      [
        "▁jooj",
        -8.243235014457833
      ],
      [
        "r.",
        -8.249308765622343
      ],
      [
        "▁gisu",
        -8.25653482606749
      ],
      [
        "▁W",
        -8.25822865655407
      ],
      [
        "▁be",
        -8.258753605248247
      ],
      [
        "▁va",
        -8.259035687431865
      ],
      [
        "▁P",
        -8.27052828039481
      ],
      [
        "óo",
        -8.279188858299063
      ],
      [
        "▁individu",
        -8.28319477722428
      ],
      [
        "▁livre",
        -8.30081854279287
      ],
      [
        "▁moomu",
        -8.303488702139756
      ],
      [
        "▁Waxa",
        -8.304523006266333
      ],
      [
        "amba",
        -8.31277852174705
      ],
      [
        "▁më",
        -8.31392979231808
      ],
      [
        "me",
        -8.316331106850052
      ],
      [
        "▁R",
        -8.316475075263675
      ],
      [
        "ma",
        -8.318177788290633
      ],
      [
        "elle",
        -8.321361013161823
      ],
      [
        "▁p",
        -8.321524089570692
      ],
      [
        "À",
        -8.32440638854668
      ],
      [
        "▁d'esprit",
        -8.324406390511957
      ],
      [
        "▁auparavant",
        -8.324406391077208
      ],
      [
        "▁fortune",
        -8.32440643756964
      ],
      [
        "▁encore",
        -8.324408175176654
      ],
      [
        "▁courage",
        -8.324409664566002
      ],
      [
        "▁gentil",
        -8.324424175862369
      ],
      [
        "▁travailleurs",
        -8.324438964614226
      ],
      [
        "▁Waxtaan",
        -8.32444705205531
      ],
      [
        "▁taxaw",
        -8.324587102144973
      ],
      [
        "▁Ainsi",
        -8.3246377110189
      ],
      [
        "▁Celui-là",
        -8.324692836574997
      ],
      [
        "▁surtout",
        -8.324783746383702
      ],
      [
        "bout",
        -8.326906076031309
      ],
      [
        "▁revienne",
        -8.327614288655644
      ],
      [
        "▁Musaa",
        -8.328064122239953
      ],
      [
        "▁Moom",
        -8.328148203009324
      ],
      [
        "▁nekk",
        -8.328438208764782
      ],
      [
        "▁lëf",
        -8.329129640614386
      ],
      [
        "▁autre-là",
        -8.329641834671843
      ],
      [
        "▁woo",
        -8.329748886655477
      ],
      [
        "▁reconnu",
        -8.330205353101015
      ],
      [
        "▁sain",
        -8.33052775208327
      ],
      [
        "▁wet",
        -8.331558224177687
      ],
      [
        "▁ñaan",
        -8.333750283747964
      ],
      [
        "▁deey",
        -8.334062460855549
      ],
      [
        "▁caus",
        -8.33768366763532
      ],
      [
        "▁ñëwul",
        -8.338607289802638
      ],
      [
        "ee",
        -8.338932390065164
      ],
      [
        "▁lañu",
        -8.341872751108962
      ],
      [
        "▁cherche",
        -8.347784560564266
      ],
      [
        "▁aller",
        -8.348853231249166
      ],
      [
        "▁kee",
        -8.348883664491929
      ],
      [
        "habitu",
        -8.351246707903138
      ],
      [
        "▁avais",
        -8.352029849527085
      ],
      [
        "▁mag",
        -8.354401294507275
      ],
      [
        "..",
        -8.35788370310718
      ],
      [
        "fin",
        -8.358259857022396
      ],
      [
        "çon",
        -8.359067845775796
      ],
      [
        "▁ñibbi",
        -8.36409847668519
      ],
      [
        "▁kookuu",
        -8.37202890919312
      ],
      [
        "▁Gé",
        -8.38903801065677
      ],
      [
        "▁bokk",
        -8.389271557662397
      ],
      [
        "▁Ta",
        -8.392350118859756
      ],
      [
        "▁j'a",
        -8.39495439346951
      ],
      [
        "▁ye",
        -8.401202946225013
      ],
      [
        "rée",
        -8.40249764164419
      ],
      [
        "jà",
        -8.406038793499809
      ],
      [
        "tte",
        -8.40955560731104
      ],
      [
        "ŋga",
        -8.410567595404569
      ],
      [
        "▁Dis",
        -8.413593094199378
      ],
      [
        "-même",
        -8.414721992588674
      ],
      [
        "▁bir",
        -8.42041159159189
      ],
      [
        "▁choses",
        -8.422796914194949
      ],
      [
        "j",
        -8.425823015397606
      ],
      [
        "▁g",
        -8.427389376250089
      ],
      [
        "as",
        -8.43697140765042
      ],
      [
        "▁t'",
        -8.441414254538588
      ],
      [
        "▁pars",
        -8.446755481027628
      ],
      [
        "▁ré",
        -8.447189119596251
      ],
      [
        "▁ko",
        -8.449642681688575
      ],
      [
        "▁allai",
        -8.462502517770648
      ],
      [
        "ole",
        -8.463820195334064
      ],
      [
        "naa",
        -8.467523188379017
      ],
      [
        "aye",
        -8.467690600431322
      ],
      [
        "'étai",
        -8.469381398934145
      ],
      [
        "ici",
        -8.478862973502444
      ],
      [
        "mour",
        -8.481042320024342
      ],
      [
        "ier",
        -8.499240863979995
      ],
      [
        "▁con",
        -8.500772002096761
      ],
      [
        "au",
        -8.5021866941529
      ],
      [
        "our",
        -8.507404579642582
      ],
      [
        "ù",
        -8.507431318398709
      ],
      [
        "ga",
        -8.512249657354332
      ],
      [
        "▁voir",
        -8.518446880248078
      ],
      [
        "▁T",
        -8.519163096445787
      ],
      [
        "▁partis",
        -8.52269279336618
      ],
      [
        "▁vo",
        -8.525108049012497
      ],
      [
        "▁av",
        -8.528987826723657
      ],
      [
        "▁qu",
        -8.532104832510463
      ],
      [
        "obul",
        -8.53751629724408
      ],
      [
        "appartien",
        -8.540512375436968
      ],
      [
        "▁Qu",
        -8.54555004017404
      ],
      [
        "▁Vo",
        -8.551896460052365
      ],
      [
        "q",
        -8.56963528664215
      ],
      [
        "▁d'a",
        -8.57033710227977
      ],
      [
        "▁Bu",
        -8.571656796961607
      ],
      [
        "p",
        -8.57321017307973
      ],
      [
        "▁l'extérieur",
        -8.574406388506778
      ],
      [
        "Ŋ",
        -8.57440638854668
      ],
      [
        "▁accepte",
        -8.57440639871798
      ],
      [
        "▁souhaite",
        -8.574406419686394
      ],
      [
        "▁dehors",
        -8.574406519741448
      ],
      [
        "▁maître",
        -8.574407325408167
      ],
      [
        "▁Ñëw",
        -8.574407333637179
      ],
      [
        "▁Moontin",
        -8.57440763433331
      ],
      [
        "▁brave",
        -8.574409669246744
      ],
      [
        "▁haut",
        -8.57443481427521
      ],
      [
        "▁gën",
        -8.574449365068695
      ],
      [
        "▁champ",
        -8.574452460607283
      ],
      [
        "▁Alfa",
        -8.574504888671804
      ],
      [
        "▁Yooy",
        -8.574559287095987
      ],
      [
        "▁prêt",
        -8.57457349375881
      ],
      [
        "▁Donne",
        -8.574576150350687
      ],
      [
        "▁Tann",
        -8.57487309347621
      ],
      [
        "▁suba",
        -8.575123312110279
      ],
      [
        "▁Par",
        -8.575149636911343
      ],
      [
        "▁kookee",
        -8.575268292409275
      ],
      [
        "▁Moo",
        -8.575468347549908
      ],
      [
        "▁beau",
        -8.575625395669695
      ],
      [
        "▁doonkoon",
        -8.576300405864739
      ],
      [
        "▁pro",
        -8.57665187123535
      ],
      [
        "▁alors",
        -8.57746425607057
      ],
      [
        "▁t'en",
        -8.5786384078113
      ],
      [
        "us",
        -8.578763992829426
      ],
      [
        "bër",
        -8.579223528895561
      ],
      [
        "▁bépp",
        -8.580825478321863
      ],
      [
        "▁n'étai",
        -8.580962777316813
      ],
      [
        "▁woow",
        -8.581540742665487
      ],
      [
        "▁Tay",
        -8.58176388528759
      ],
      [
        "▁endroit",
        -8.582059751886916
      ],
      [
        "▁Kooku",
        -8.582640876497354
      ],
      [
        "▁jamb",
        -8.584101263420271
      ],
      [
        "▁lool",
        -8.584619157033794
      ],
      [
        "▁Noonu",
        -8.586274348643615
      ],
      [
        "▁feneen",
        -8.588001977305625
      ],
      [
        "hoisi",
        -8.588455397943914
      ],
      [
        "▁Seet",
        -8.589439970355462
      ],
      [
        "-t",
        -8.591227852792768
      ],
      [
        "▁viennent",
        -8.594032928525175
      ],
      [
        "▁kooka",
        -8.59506754299156
      ],
      [
        "tant",
        -8.598420552318355
      ],
      [
        "▁ap",
        -8.600131923016999
      ],
      [
        "▁demb",
        -8.602072011327742
      ],
      [
        "▁demuñu",
        -8.604847899923975
      ],
      [
        "▁Qui",
        -8.60612372276733
      ],
      [
        "▁sorti",
        -8.610028598231086
      ],
      [
        "ieur",
        -8.618706824441626
      ],
      [
        "▁comme",
        -8.621094859935456
      ],
      [
        "▁cela",
        -8.623141531919009
      ],
      [
        "bon",
        -8.6240906624158
      ],
      [
        "▁maye",
        -8.627103503608781
      ],
      [
        "ri",
        -8.62763400442594
      ],
      [
        "di",
        -8.629072526379039
      ],
      [
        "cc",
        -8.630870081292366
      ],
      [
        "▁gaa",
        -8.634984537856807
      ],
      [
        "▁doi",
        -8.635461994501087
      ],
      [
        "▁Bul",
        -8.636501745684088
      ],
      [
        "▁aurai",
        -8.639603550577323
      ],
      [
        "▁es",
        -8.653938605750934
      ],
      [
        "▁mon",
        -8.657786519373847
      ],
      [
        "mu",
        -8.66065602410838
      ],
      [
        "aux",
        -8.662108109187033
      ],
      [
        "▁ta",
        -8.663744383810426
      ],
      [
        "▁cla",
        -8.665331267764588
      ],
      [
        "ton",
        -8.66641159535624
      ],
      [
        "ë",
        -8.66893910199747
      ],
      [
        "▁donne",
        -8.676381608795145
      ],
      [
        "ore",
        -8.678244038627163
      ],
      [
        "nde",
        -8.686651695231674
      ],
      [
        "▁Ni",
        -8.689985908529577
      ],
      [
        "ka",
        -8.691093865949352
      ],
      [
        "▁li",
        -8.694121059967625
      ],
      [
        "▁n'ai",
        -8.696729225114924
      ],
      [
        "▁dé",
        -8.703238227358735
      ],
      [
        "▁j'",
        -8.70491900181776
      ],
      [
        "si",
        -8.711830012255934
      ],
      [
        "nent",
        -8.712497462515282
      ],
      [
        "▁mêmes",
        -8.714493400464551
      ],
      [
        "▁me",
        -8.719511546507329
      ],
      [
        "û",
        -8.720055457982028
      ],
      [
        "▁yaa",
        -8.720472614309353
      ],
      [
        "▁set",
        -8.723932782032291
      ],
      [
        "▁too",
        -8.724608000334484
      ],
      [
        "▁ŋg",
        -8.737435304330711
      ],
      [
        "▁daw",
        -8.738040138101349
      ],
      [
        "▁dey",
        -8.740077048758184
      ],
      [
        "oilà",
        -8.740125631919469
      ],
      [
        "▁Va",
        -8.741374061374556
      ],
      [
        "▁në",
        -8.742029691875292
      ],
      [
        "aay",
        -8.742688435353635
      ],
      [
        "▁ven",
        -8.748084231590303
      ],
      [
        "ur",
        -8.753773708316345
      ],
      [
        "'avai",
        -8.75485486385859
      ],
      [
        "▁ñuu",
        -8.76119195348315
      ],
      [
        "ku",
        -8.768356652173035
      ],
      [
        "ement",
        -8.770206624099744
      ],
      [
        "▁connaiss",
        -8.770318705543993
      ],
      [
        "off",
        -8.770895268992401
      ],
      [
        "▁goog",
        -8.771449029170372
      ],
      [
        "war",
        -8.7834590186015
      ],
      [
        "▁enfant-",
        -8.792083966346176
      ],
      [
        "▁est-",
        -8.802155886834242
      ],
      [
        "▁leur",
        -8.803298754086867
      ],
      [
        "▁s'i",
        -8.805164074355147
      ],
      [
        "kan",
        -8.805495460268993
      ],
      [
        "iggéeykat",
        -8.806822828871194
      ],
      [
        "▁Ka",
        -8.812226982874405
      ],
      [
        "▁Celui",
        -8.816324554875457
      ],
      [
        "rë",
        -8.817366656648945
      ],
      [
        "▁ver",
        -8.81740286683899
      ],
      [
        "▁partai",
        -8.818658639072872
      ],
      [
        "ses",
        -8.824753282431404
      ],
      [
        "appelle",
        -8.826716923176745
      ],
      [
        "ion",
        -8.834645870951215
      ],
      [
        "tout",
        -8.836211867505416
      ],
      [
        "aaw",
        -8.838001997332894
      ],
      [
        "▁seet",
        -8.838523004707946
      ],
      [
        "mbaa",
        -8.8446055137837
      ],
      [
        "▁veni",
        -8.846742215994494
      ],
      [
        "vent",
        -8.848801590478445
      ],
      [
        "▁ñen",
        -8.851055392510812
      ],
      [
        "ti",
        -8.855835752997736
      ],
      [
        "▁deva",
        -8.860933809054751
      ],
      [
        "▁quelqu",
        -8.863525811234677
      ],
      [
        "▁Kook",
        -8.891510433951375
      ],
      [
        "▁po",
        -8.895502850703558
      ],
      [
        "▁naŋg",
        -8.897400228138556
      ],
      [
        "▁Noon",
        -8.900089017091142
      ],
      [
        "▁ter",
        -8.900537404374909
      ],
      [
        "▁ñaa",
        -8.903460437297102
      ],
      [
        "ign",
        -8.904568872910442
      ],
      [
        "onfie",
        -8.904746138798075
      ],
      [
        "▁san",
        -8.905858883911293
      ],
      [
        "▁lieu",
        -8.90619204698858
      ],
      [
        "▁ressemble",
        -8.907739723973194
      ],
      [
        "▁Certaine",
        -8.907739737489752
      ],
      [
        "▁ensemble",
        -8.907739746272666
      ],
      [
        "▁chambre",
        -8.90773985153307
      ],
      [
        "▁fâch",
        -8.907739907509423
      ],
      [
        "▁meilleur",
        -8.907740033476635
      ],
      [
        "▁Birayim",
        -8.907740477420846
      ],
      [
        "èvre",
        -8.907740600953462
      ],
      [
        "▁Sëri",
        -8.90774101604629
      ],
      [
        "▁Ñooñu",
        -8.907741577573027
      ],
      [
        "▁veulent",
        -8.907758963174825
      ],
      [
        "▁regard",
        -8.907760512904666
      ],
      [
        "▁xaalis",
        -8.907784309394552
      ],
      [
        "▁Yaakaar",
        -8.907785358549752
      ],
      [
        "▁paresseu",
        -8.907813512232378
      ],
      [
        "veille",
        -8.907933108811852
      ],
      [
        "▁Comme",
        -8.907938498528027
      ],
      [
        "▁jabar",
        -8.908005995489214
      ],
      [
        "ailleurs",
        -8.9080528610274
      ],
      [
        "▁parents",
        -8.908076176377199
      ],
      [
        "▁ŋgoogu",
        -8.908092988377089
      ],
      [
        "▁Ceux-là",
        -8.908099876273138
      ],
      [
        "▁unique",
        -8.908240091067531
      ],
      [
        "▁d'entre",
        -8.908334041794944
      ],
      [
        "▁prop",
        -8.90834345394028
      ],
      [
        "▁Abal",
        -8.9083706010971
      ],
      [
        "aynde",
        -8.909398731907665
      ],
      [
        "ëkk",
        -8.909526566733929
      ],
      [
        "▁voici",
        -8.91014304472899
      ],
      [
        "écha",
        -8.910774197444852
      ],
      [
        "▁enfant-là",
        -8.911322021613412
      ],
      [
        "▁clé",
        -8.912011394287902
      ],
      [
        "▁Peul",
        -8.91212902102388
      ],
      [
        "▁eusse",
        -8.912206700651463
      ],
      [
        "▁kookale",
        -8.913498970527584
      ],
      [
        "▁sopp",
        -8.913934480129273
      ],
      [
        "t-c",
        -8.914304895417594
      ],
      [
        "dé",
        -8.915395511438412
      ],
      [
        "lors",
        -8.915453719433156
      ],
      [
        "impo",
        -8.917467791726017
      ],
      [
        "▁voya",
        -8.917613036147234
      ],
      [
        "▁Cela",
        -8.917956572777463
      ],
      [
        "▁Pr",
        -8.91880058639283
      ],
      [
        "▁homme-ci",
        -8.92124632441454
      ],
      [
        "▁buur",
        -8.921975145505382
      ],
      [
        "▁Waxul",
        -8.924843588939765
      ],
      [
        "▁Mets",
        -8.925158843942384
      ],
      [
        "▁pri",
        -8.929152479735897
      ],
      [
        "▁noppi",
        -8.930760587300142
      ],
      [
        "aamu",
        -8.933019142278415
      ],
      [
        "ches",
        -8.937178044335479
      ],
      [
        "▁roi",
        -8.937508299149727
      ],
      [
        "▁buu",
        -8.937967845669089
      ],
      [
        "▁booba",
        -8.9387852030674
      ],
      [
        "use",
        -8.938951445071362
      ],
      [
        "fi",
        -8.939637805157812
      ],
      [
        "▁S'",
        -8.94022067643627
      ],
      [
        "eur",
        -8.94180207042954
      ],
      [
        "▁pou",
        -8.942895135713467
      ],
      [
        "wul",
        -8.94384026407858
      ],
      [
        "▁voul",
        -8.944423719144712
      ],
      [
        "▁Ici",
        -8.946324611720888
      ],
      [
        "▁Daŋg",
        -8.951345623372005
      ],
      [
        "ñëw",
        -8.95155734656753
      ],
      [
        "tion",
        -8.952299212248027
      ],
      [
        "▁ñj",
        -8.953162533157162
      ],
      [
        "▁bo",
        -8.953675671268057
      ],
      [
        "ôt",
        -8.955939981716696
      ],
      [
        "é.",
        -8.958117168080069
      ],
      [
        "▁confie",
        -8.960005762093402
      ],
      [
        "▁fr",
        -8.962264923938461
      ],
      [
        "▁maa",
        -8.965326636558231
      ],
      [
        "▁n'e",
        -8.971542647012726
      ],
      [
        "▁Es",
        -8.981604354529948
      ],
      [
        "ang",
        -8.991118022963434
      ],
      [
        "▁tel",
        -8.991314544202757
      ],
      [
        "▁tax",
        -8.993249082805146
      ],
      [
        "▁désire",
        -8.995155265805305
      ],
      [
        "rage",
        -8.998655912040805
      ],
      [
        "▁sout",
        -9.000201416147009
      ],
      [
        "róo",
        -9.013869964316623
      ],
      [
        "rte",
        -9.01648605687029
      ],
      [
        "▁pu",
        -9.01835220627271
      ],
      [
        "▁ñe",
        -9.028056793327593
      ],
      [
        "ux",
        -9.038254138593832
      ],
      [
        "ki",
        -9.039998457360724
      ],
      [
        "ré",
        -9.042739855324204
      ],
      [
        "ers",
        -9.050418160849265
      ],
      [
        "âl",
        -9.051523355556675
      ],
      [
        "gé",
        -9.052475138396378
      ],
      [
        "xaw",
        -9.060651033359346
      ],
      [
        "▁entra",
        -9.0625076807857
      ],
      [
        "bi",
        -9.070381132811125
      ],
      [
        "ppé",
        -9.071247433054282
      ],
      [
        "▁heure",
        -9.07228700762305
      ],
      [
        "ew",
        -9.075338519198805
      ],
      [
        "fu",
        -9.0784331363423
      ],
      [
        "gar",
        -9.080856248926551
      ],
      [
        "▁dam",
        -9.080978449019995
      ],
      [
        "'",
        -9.08133434913134
      ],
      [
        "autrefois",
        -9.084479027799157
      ],
      [
        "▁xamu",
        -9.088923037154753
      ],
      [
        "▁Liggéey",
        -9.094089068336274
      ],
      [
        "vers",
        -9.097021016487036
      ],
      [
        "▁fo",
        -9.098654660610729
      ],
      [
        "mm",
        -9.09944733744065
      ],
      [
        "▁juu",
        -9.100958288678722
      ],
      [
        "▁rë",
        -9.10167498573945
      ],
      [
        "â",
        -9.103020056931548
      ],
      [
        "▁nd",
        -9.10466125377824
      ],
      [
        "'un",
        -9.111105153922036
      ],
      [
        "rais",
        -9.114752234174416
      ],
      [
        "waay",
        -9.115403323511519
      ],
      [
        "▁pré",
        -9.12781260511596
      ],
      [
        "ide",
        -9.131167014711373
      ],
      [
        "apprécie",
        -9.133890080328946
      ],
      [
        "ité",
        -9.138305372104089
      ],
      [
        "int",
        -9.149853699374576
      ],
      [
        "leen",
        -9.15137509306133
      ],
      [
        "ob",
        -9.153119855874971
      ],
      [
        "▁daawu",
        -9.15906126239894
      ],
      [
        "▁nëw",
        -9.164540261664984
      ],
      [
        "▁Jée",
        -9.169217836334523
      ],
      [
        "'enfant",
        -9.177294976655283
      ],
      [
        "▁vi",
        -9.184154536830135
      ],
      [
        "axul",
        -9.202747139890356
      ],
      [
        "'en",
        -9.208027685067421
      ],
      [
        "ule",
        -9.210902534743312
      ],
      [
        "▁kook",
        -9.215129523723858
      ],
      [
        "agg",
        -9.220251805944416
      ],
      [
        "vient",
        -9.223202989051787
      ],
      [
        "v",
        -9.223395146201899
      ],
      [
        "▁alla",
        -9.22454389195742
      ],
      [
        "▁Die",
        -9.224745404748528
      ],
      [
        "aw",
        -9.22707031975252
      ],
      [
        "neen",
        -9.234862923781153
      ],
      [
        "eeg",
        -9.23790472423627
      ],
      [
        "▁bëggu",
        -9.239184809533365
      ],
      [
        "bokk",
        -9.241624049014012
      ],
      [
        "vant",
        -9.247246078168835
      ],
      [
        "fait",
        -9.251456694512513
      ],
      [
        "tal",
        -9.260275384029562
      ],
      [
        "▁batt",
        -9.261484918940306
      ],
      [
        "rent",
        -9.26213657215069
      ],
      [
        "▁Ca",
        -9.262469590788552
      ],
      [
        "t-il",
        -9.263268118710524
      ],
      [
        "▁Go",
        -9.263910470874787
      ],
      [
        "▁l'o",
        -9.264047350076396
      ],
      [
        "▁mën",
        -9.26804206341484
      ],
      [
        "el",
        -9.26835757527822
      ],
      [
        "▁gr",
        -9.269060576848416
      ],
      [
        "▁Ai",
        -9.276407855470948
      ],
      [
        "illes",
        -9.28222725340372
      ],
      [
        "mar",
        -9.284538282588356
      ],
      [
        "▁bà",
        -9.290958236188187
      ],
      [
        "▁mba",
        -9.293525584670792
      ],
      [
        "in",
        -9.293727899726706
      ],
      [
        "▁xa",
        -9.300331823756908
      ],
      [
        "▁vou",
        -9.30199958366293
      ],
      [
        "▁parla",
        -9.302152848772016
      ],
      [
        "▁pai",
        -9.303528910471087
      ],
      [
        "▁wu",
        -9.304977011466425
      ],
      [
        "▁sou",
        -9.306387562972445
      ],
      [
        "▁e",
        -9.317357574358414
      ],
      [
        "dul",
        -9.323160464519297
      ],
      [
        "ày",
        -9.32665872745286
      ],
      [
        "▁enti",
        -9.327311773682766
      ],
      [
        "où",
        -9.332275378400256
      ],
      [
        "▁confi",
        -9.333310079244733
      ],
      [
        "ô",
        -9.333610160845897
      ],
      [
        "▁cherch",
        -9.342710409438588
      ],
      [
        "drai",
        -9.356003453610102
      ],
      [
        "▁ser",
        -9.359683934378328
      ],
      [
        "▁jour",
        -9.374734065074566
      ],
      [
        "▁foof",
        -9.37613279311947
      ],
      [
        "▁viendr",
        -9.379070876147686
      ],
      [
        "jóo",
        -9.381544727604444
      ],
      [
        "▁nopp",
        -9.382010978257709
      ],
      [
        "aille",
        -9.382349905234028
      ],
      [
        "▁peu",
        -9.382990892069861
      ],
      [
        "▁gaynd",
        -9.383468181444393
      ],
      [
        "▁koo",
        -9.383698967061532
      ],
      [
        "▁vill",
        -9.386127436990723
      ],
      [
        "▁wi",
        -9.3869824689371
      ],
      [
        "▁recon",
        -9.388632064853255
      ],
      [
        "uma",
        -9.388809641472026
      ],
      [
        "▁trouve",
        -9.39089556264251
      ],
      [
        "▁jaŋ",
        -9.393595586648082
      ],
      [
        "▁connaisse",
        -9.394702890992084
      ],
      [
        "▁veu",
        -9.395806753364301
      ],
      [
        "▁cu",
        -9.397603931000733
      ],
      [
        "è",
        -9.40040805343621
      ],
      [
        "rdo",
        -9.40443789912013
      ],
      [
        "▁trou",
        -9.407292423104089
      ],
      [
        "«",
        -9.407739721880013
      ],
      [
        ")",
        -9.407739721880013
      ],
      [
        "(",
        -9.407739721880013
      ],
      [
        "»",
        -9.407739721880013
      ],
      [
        "▁Aujourd'hui",
        -9.407739721880013
      ],
      [
        "▁Niominka.",
        -9.407739721963592
      ],
      [
        "▁certainement",
        -9.407739723192243
      ],
      [
        "▁habituellement",
        -9.407739750130263
      ],
      [
        "▁cultive",
        -9.407739757918621
      ],
      [
        "▁vérité",
        -9.407739854218157
      ],
      [
        "▁messager",
        -9.407739910683343
      ],
      [
        "▁yalwaan",
        -9.407739980428147
      ],
      [
        "▁gëléem",
        -9.407740087261704
      ],
      [
        "▁appelé",
        -9.407740195617787
      ],
      [
        "▁bavard",
        -9.407740341361507
      ],
      [
        "▁ëlëk",
        -9.407740345446859
      ],
      [
        "▁Cherche",
        -9.407741003920453
      ],
      [
        "▁génér",
        -9.407741784669476
      ],
      [
        "▁saŋx",
        -9.407742298711996
      ],
      [
        "▁chameau",
        -9.407752534183837
      ],
      [
        "▁moontin",
        -9.407760918383305
      ],
      [
        "▁bouge",
        -9.407761344553526
      ],
      [
        "▁petit",
        -9.407762634812045
      ],
      [
        "▁L'endroit",
        -9.407791753846222
      ],
      [
        "▁répét",
        -9.407810400375434
      ],
      [
        "▁suuf",
        -9.407860971843148
      ],
      [
        "spér",
        -9.40787231408475
      ],
      [
        "▁Dellu",
        -9.407873505505943
      ],
      [
        "▁gosse",
        -9.407881591814462
      ],
      [
        "▁oreille",
        -9.407913752126486
      ],
      [
        "âche",
        -9.407930928551174
      ],
      [
        "▁descendra",
        -9.407952658280252
      ],
      [
        "▁bëtt",
        -9.408043349556056
      ],
      [
        "▁bënn",
        -9.408047731536085
      ],
      [
        "▁form",
        -9.408069153689029
      ],
      [
        "▁inter",
        -9.408078070937725
      ],
      [
        "▁yeggee",
        -9.408123943975577
      ],
      [
        "trouvé",
        -9.408176983807717
      ],
      [
        "▁présen",
        -9.408244362497824
      ],
      [
        "▁Ngo",
        -9.40828429253913
      ],
      [
        "▁j'apprécie",
        -9.408311284818906
      ],
      [
        "▁Lebou",
        -9.408440433556331
      ],
      [
        "▁Musta",
        -9.408514935210736
      ],
      [
        "▁genre",
        -9.40857293896222
      ],
      [
        "▁cohabitent",
        -9.408716149208761
      ],
      [
        "▁t'aurai",
        -9.408766347878696
      ],
      [
        "▁crain",
        -9.408766564125125
      ],
      [
        "▁dëgg",
        -9.409110371500951
      ],
      [
        "▁assis",
        -9.409153978657457
      ],
      [
        "▁Ceux-",
        -9.409401883232476
      ],
      [
        "époque",
        -9.409467671259014
      ],
      [
        "cert",
        -9.409821938760887
      ],
      [
        "▁vrai",
        -9.409861597503285
      ],
      [
        "▁tayel",
        -9.409964766903519
      ],
      [
        "▁noir",
        -9.410024466647496
      ],
      [
        "▁jox",
        -9.410099756404412
      ],
      [
        "▁moi-même",
        -9.410179623138061
      ],
      [
        "▁jog",
        -9.410457934226843
      ],
      [
        "▁aime",
        -9.411321540282461
      ],
      [
        "▁vertu",
        -9.411424036806102
      ],
      [
        "ttends",
        -9.411488862617471
      ],
      [
        "ends",
        -9.411523174632677
      ],
      [
        "▁doomam",
        -9.41247375024711
      ],
      [
        "entre",
        -9.412989001510658
      ],
      [
        "▁lieux",
        -9.413077026084032
      ],
      [
        "▁àndal",
        -9.413439162997363
      ],
      [
        "▁ardo",
        -9.41374905190245
      ],
      [
        "▁fen",
        -9.41441702964939
      ],
      [
        "▁Leur",
        -9.41526957263983
      ],
      [
        "▁mor",
        -9.415627888113915
      ],
      [
        "kon",
        -9.416716688382039
      ],
      [
        "▁xaritam",
        -9.418007315037812
      ],
      [
        "▁dikk",
        -9.418114167470845
      ],
      [
        "▁dég",
        -9.418776374804217
      ],
      [
        "▁beg",
        -9.419014118546265
      ],
      [
        "▁vien",
        -9.419135868292242
      ],
      [
        "▁Bon",
        -9.419667433262491
      ],
      [
        "▁yeg",
        -9.419770070695485
      ],
      [
        "ez-",
        -9.41983863503434
      ],
      [
        "▁bul",
        -9.420402900311503
      ],
      [
        "▁Waaw",
        -9.420810358199933
      ],
      [
        "▁lumi",
        -9.423567188616014
      ],
      [
        "▁lan",
        -9.42431770264477
      ],
      [
        "▁trouver",
        -9.425054335181553
      ],
      [
        "ëlé",
        -9.425261996598804
      ],
      [
        "▁fee",
        -9.427079604935711
      ],
      [
        "▁wut",
        -9.430793424016874
      ],
      [
        "séd",
        -9.431198068759429
      ],
      [
        "▁h",
        -9.43168918174622
      ],
      [
        "▁n'ir",
        -9.432084244475893
      ],
      [
        "▁disp",
        -9.432162583162967
      ],
      [
        "▁partent",
        -9.432343445993443
      ],
      [
        "▁lionne",
        -9.432447407791717
      ],
      [
        "vé",
        -9.433433790024356
      ],
      [
        "▁lekku",
        -9.434889620414735
      ],
      [
        "▁rentrer",
        -9.434957119310262
      ],
      [
        "▁fenn",
        -9.435458092094148
      ],
      [
        "▁bëggé",
        -9.436255908104211
      ],
      [
        "▁desquel",
        -9.436386233921825
      ],
      [
        "demain",
        -9.438098780543394
      ],
      [
        "▁to",
        -9.43814352106507
      ],
      [
        "lui",
        -9.43815325720431
      ],
      [
        "▁kaw",
        -9.438452497247768
      ],
      [
        "▁puis",
        -9.439691463522246
      ],
      [
        "cher",
        -9.441169002812448
      ],
      [
        "baa",
        -9.442656951228035
      ],
      [
        "lé",
        -9.44339551311718
      ],
      [
        "▁voit",
        -9.445640746164237
      ],
      [
        "▁Leb",
        -9.446195967966633
      ],
      [
        "▁sort",
        -9.446873475446733
      ],
      [
        "▁née",
        -9.44999666937075
      ],
      [
        "▁def",
        -9.451972696867566
      ],
      [
        "attrap",
        -9.45373750346313
      ],
      [
        "▁mort",
        -9.455281769166358
      ],
      [
        "ver",
        -9.45534016734943
      ],
      [
        "▁jours",
        -9.45738393983028
      ],
      [
        "▁jar",
        -9.45827198591347
      ],
      [
        "▁travaill",
        -9.458794787297382
      ],
      [
        "ŋk",
        -9.460925160621105
      ],
      [
        "▁port",
        -9.462459015207624
      ],
      [
        "▁vie",
        -9.462522216476929
      ],
      [
        "pir",
        -9.465809352843566
      ],
      [
        "▁sur",
        -9.465932474297041
      ],
      [
        "▁Defa",
        -9.467482882557665
      ],
      [
        "insi",
        -9.467617658824556
      ],
      [
        "dina",
        -9.475643173170296
      ],
      [
        "▁yaay",
        -9.475736296294599
      ],
      [
        "▁xal",
        -9.477511949327905
      ],
      [
        "âg",
        -9.477626861824003
      ],
      [
        "góor",
        -9.479697474665791
      ],
      [
        "▁livres",
        -9.47974965476561
      ],
      [
        "▁all",
        -9.480278949932716
      ],
      [
        "▁Me",
        -9.480390922772315
      ],
      [
        "onvers",
        -9.480675991418265
      ],
      [
        "▁Ou",
        -9.482133911070509
      ],
      [
        "▁Be",
        -9.48500946050519
      ],
      [
        "gël",
        -9.48760353097649
      ],
      [
        "oudr",
        -9.488270481274325
      ],
      [
        "se",
        -9.489286009703665
      ],
      [
        "ppartien",
        -9.48933260812635
      ],
      [
        "▁waxtu",
        -9.49398614843547
      ],
      [
        "outer",
        -9.494506899328977
      ],
      [
        "▁yab",
        -9.497302831667687
      ],
      [
        "lig",
        -9.50507728120099
      ],
      [
        "▁Set",
        -9.515535307774043
      ],
      [
        "là",
        -9.517802337482674
      ],
      [
        "enfant",
        -9.519062548807847
      ],
      [
        "▁qu'e",
        -9.520352788523859
      ],
      [
        "▁l'as",
        -9.521102959950456
      ],
      [
        "étai",
        -9.521443415874218
      ],
      [
        "▁doo",
        -9.522214899190837
      ],
      [
        "▁lama",
        -9.52765930099835
      ],
      [
        "▁rag",
        -9.53028692732735
      ],
      [
        "▁Yen",
        -9.53530270355453
      ],
      [
        "daje",
        -9.536545099318294
      ],
      [
        "▁voie",
        -9.540547571845062
      ],
      [
        "▁fui",
        -9.54738676450707
      ],
      [
        "▁ño",
        -9.54977409592787
      ],
      [
        "▁Gisu",
        -9.55984504219042
      ],
      [
        "▁mar",
        -9.566158773202426
      ],
      [
        "▁seeta",
        -9.567296313202686
      ],
      [
        "ut",
        -9.57399226075873
      ],
      [
        "▁leneen",
        -9.575698345327375
      ],
      [
        "ax",
        -9.578669875585211
      ],
      [
        "▁parler",
        -9.58149697025898
      ],
      [
        "▁sot",
        -9.583061702678904
      ],
      [
        "▁lu",
        -9.583899751692872
      ],
      [
        "wal",
        -9.58548117098941
      ],
      [
        "▁bant",
        -9.593027592956634
      ],
      [
        "aucun",
        -9.593675348256616
      ],
      [
        "axtaan",
        -9.593760594316054
      ],
      [
        "▁Saa",
        -9.594981939713557
      ],
      [
        "▁yi.",
        -9.595551593602847
      ],
      [
        "accompagne",
        -9.596920489608348
      ],
      [
        "▁sor",
        -9.602221271287377
      ],
      [
        "▁ex",
        -9.6042728048175
      ],
      [
        "▁éc",
        -9.605673091615447
      ],
      [
        "oi",
        -9.607392334471239
      ],
      [
        "anc",
        -9.611176796798857
      ],
      [
        "▁né",
        -9.611398182695094
      ],
      [
        "▁s'assi",
        -9.618204077950313
      ],
      [
        "▁êt",
        -9.621463187900918
      ],
      [
        "▁reveni",
        -9.62392832448914
      ],
      [
        "▁mënk",
        -9.625765425875702
      ],
      [
        "'étudiant",
        -9.62812437211161
      ],
      [
        "▁l'au",
        -9.630448916068005
      ],
      [
        "▁eux",
        -9.633949469086328
      ],
      [
        "'argent",
        -9.635294356459028
      ],
      [
        "▁reconn",
        -9.637527618824455
      ],
      [
        "ffr",
        -9.639960551411194
      ],
      [
        "▁ho",
        -9.640739740028927
      ],
      [
        "irent",
        -9.64221092068998
      ],
      [
        "ffi",
        -9.644972426571275
      ],
      [
        "euse",
        -9.645336133908463
      ],
      [
        "▁rentr",
        -9.645958165245368
      ],
      [
        "i.",
        -9.648228601872345
      ],
      [
        "▁Re",
        -9.648547177949851
      ],
      [
        "oba",
        -9.651920541218535
      ],
      [
        "lu",
        -9.657399094374927
      ],
      [
        "▁s'e",
        -9.659560186217137
      ],
      [
        "enu",
        -9.661373277312268
      ],
      [
        "▁ad",
        -9.668071461320334
      ],
      [
        "ttais",
        -9.66909089996405
      ],
      [
        "aî",
        -9.672313309101629
      ],
      [
        "▁go",
        -9.681501070306448
      ],
      [
        "▁Loo",
        -9.682813563181353
      ],
      [
        "ai",
        -9.68420455875497
      ],
      [
        "igne",
        -9.687123116141622
      ],
      [
        "nañu",
        -9.695429899678286
      ],
      [
        "ros",
        -9.702660673253012
      ],
      [
        "yi",
        -9.705850769793049
      ],
      [
        "che",
        -9.7087471134812
      ],
      [
        "▁ri",
        -9.710329211602748
      ],
      [
        "▁ab",
        -9.710844366467978
      ],
      [
        "e-le",
        -9.717025444520718
      ],
      [
        "scu",
        -9.724735631671258
      ],
      [
        "tël",
        -9.73058069407176
      ],
      [
        "lóo",
        -9.731274477905988
      ],
      [
        "ff",
        -9.739152829040124
      ],
      [
        "ile",
        -9.749109486646491
      ],
      [
        "teur",
        -9.749764063041189
      ],
      [
        "▁appelle",
        -9.751231700788512
      ],
      [
        "▁donn",
        -9.75884478528817
      ],
      [
        "son",
        -9.761387505933577
      ],
      [
        "▁arriv",
        -9.767937910613401
      ],
      [
        "abal",
        -9.78748281489279
      ],
      [
        "eel",
        -9.789537354164294
      ],
      [
        "té",
        -9.79041538836999
      ],
      [
        "ooñii",
        -9.790434168193576
      ],
      [
        "▁aille",
        -9.793986317891617
      ],
      [
        "étend",
        -9.798313121125528
      ],
      [
        "bal",
        -9.798331885093596
      ],
      [
        "a.",
        -9.801124325244208
      ],
      [
        "amb",
        -9.801165407405197
      ],
      [
        "J",
        -9.804060514435125
      ],
      [
        "▁Mas",
        -9.807567748139915
      ],
      [
        "▁arrive",
        -9.808685505708212
      ],
      [
        "avant",
        -9.80990740799812
      ],
      [
        "je",
        -9.810073069134798
      ],
      [
        "▁Yo",
        -9.811780104806733
      ],
      [
        "éen",
        -9.815229381418293
      ],
      [
        "ins",
        -9.816937546322615
      ],
      [
        "▁sau",
        -9.819688911336087
      ],
      [
        "sais",
        -9.824622817775584
      ],
      [
        "▁ge",
        -9.82494810452986
      ],
      [
        "▁pa",
        -9.829142682424663
      ],
      [
        "biir",
        -9.84344959416994
      ],
      [
        "autre",
        -9.867580646680992
      ],
      [
        "▁Gan",
        -9.867856212924874
      ],
      [
        "▁seri",
        -9.87000632475019
      ],
      [
        "ser",
        -9.873960463378051
      ],
      [
        "vous",
        -9.875809196752625
      ],
      [
        "tif",
        -9.8825847676085
      ],
      [
        "wu",
        -9.886827577256986
      ],
      [
        "tend",
        -9.894304207087048
      ],
      [
        "toi",
        -9.902172666937656
      ],
      [
        "om",
        -9.914433785243313
      ],
      [
        "dit",
        -9.915217074428076
      ],
      [
        "erai",
        -9.917922018238064
      ],
      [
        "▁men",
        -9.922788578692263
      ],
      [
        "▁X",
        -9.923540098256954
      ],
      [
        "▁ceux",
        -9.927456936208095
      ],
      [
        "lle",
        -9.930864467830027
      ],
      [
        "dre",
        -9.936237754829566
      ],
      [
        "▁bule",
        -9.938330227363103
      ],
      [
        "sse-",
        -9.938419059805325
      ],
      [
        "ç",
        -9.944155516937847
      ],
      [
        "añu",
        -9.951024977281225
      ],
      [
        "heureu",
        -9.958353898767594
      ],
      [
        "veux",
        -9.968784372306619
      ],
      [
        "▁rentre",
        -9.975774752413818
      ],
      [
        "argent",
        -9.981249854110402
      ],
      [
        "du",
        -9.99055464944337
      ],
      [
        "étudiant",
        -9.991494820196133
      ],
      [
        "▁Che",
        -10.002140701851658
      ],
      [
        "▁Men",
        -10.004689500185702
      ],
      [
        "▁s'ass",
        -10.005577119006473
      ],
      [
        "▁ga",
        -10.006713133401556
      ],
      [
        "eau",
        -10.016123248680385
      ],
      [
        "contr",
        -10.016335410872006
      ],
      [
        "esquel",
        -10.017608870451028
      ],
      [
        "▁yoo",
        -10.018314555717616
      ],
      [
        "ve",
        -10.021124396049599
      ],
      [
        "ëy",
        -10.029349156230495
      ],
      [
        "ant",
        -10.02991610888961
      ],
      [
        "▁accompagn",
        -10.036602860678157
      ],
      [
        "illi",
        -10.036737735286822
      ],
      [
        "ucun",
        -10.047564774362025
      ],
      [
        "▁Ño",
        -10.054027912572224
      ],
      [
        "▁reven",
        -10.055970472939983
      ],
      [
        "ête",
        -10.05919607165683
      ],
      [
        "nu",
        -10.060046049857753
      ],
      [
        "usqu'ici",
        -10.060448076312687
      ],
      [
        "▁kaa",
        -10.066310586736263
      ],
      [
        "▁ni.",
        -10.066512170238623
      ],
      [
        "▁Ki",
        -10.06968500535567
      ],
      [
        "-le",
        -10.070810532499728
      ],
      [
        "acc",
        -10.071171533426693
      ],
      [
        "ool",
        -10.086127033402985
      ],
      [
        "eut-",
        -10.097434162346723
      ],
      [
        "▁désir",
        -10.105093439789218
      ],
      [
        "yul",
        -10.116414210246493
      ],
      [
        "s-",
        -10.12882775938485
      ],
      [
        "aujourd'hui",
        -10.139325874163019
      ],
      [
        "viendra",
        -10.141028526447363
      ],
      [
        "▁refus",
        -10.142912976268015
      ],
      [
        "ibbisi",
        -10.151052778386381
      ],
      [
        "▁yaak",
        -10.154344231671217
      ],
      [
        "▁d'o",
        -10.154596437858569
      ],
      [
        "vin",
        -10.157751993498648
      ],
      [
        "jur",
        -10.165175118288388
      ],
      [
        "▁demand",
        -10.1668387889973
      ],
      [
        "yóo",
        -10.167215533142908
      ],
      [
        "▁comm",
        -10.17199067842552
      ],
      [
        "nit",
        -10.173844711323733
      ],
      [
        "▁Ke",
        -10.179788790114209
      ],
      [
        "▁bel",
        -10.181574121414336
      ],
      [
        "éra",
        -10.187870317048304
      ],
      [
        "bëggée",
        -10.188291904755744
      ],
      [
        "bul",
        -10.191606884743583
      ],
      [
        "óol",
        -10.19500614022665
      ],
      [
        "▁wal",
        -10.195879457668008
      ],
      [
        "▁l'e",
        -10.198442375329336
      ],
      [
        "▁do",
        -10.199518864457255
      ],
      [
        "xam",
        -10.202480089914646
      ],
      [
        "ekk",
        -10.207162925651286
      ],
      [
        "ame",
        -10.213865387833382
      ],
      [
        "agit",
        -10.213972241693499
      ],
      [
        "voie",
        -10.215307931267294
      ],
      [
        "coute",
        -10.221226472569429
      ],
      [
        "ard",
        -10.222629120596656
      ],
      [
        "heur",
        -10.22502176569551
      ],
      [
        "able",
        -10.228362226910425
      ],
      [
        "homme",
        -10.229854076277206
      ],
      [
        "Ma",
        -10.230261147465217
      ],
      [
        "ukk",
        -10.234737008814234
      ],
      [
        "lut",
        -10.242092359065495
      ],
      [
        "▁Jë",
        -10.246771771992334
      ],
      [
        "▁personn",
        -10.25454976904098
      ],
      [
        "da",
        -10.254927878956295
      ],
      [
        "▁Wan",
        -10.262458913691939
      ],
      [
        "aller",
        -10.262794692437467
      ],
      [
        "▁co",
        -10.265655322844296
      ],
      [
        "con",
        -10.267226560824762
      ],
      [
        "▁Ñé",
        -10.279960696219772
      ],
      [
        "ŋ",
        -10.280046708971904
      ],
      [
        "cor",
        -10.282124950430154
      ],
      [
        "ouv",
        -10.295273848134759
      ],
      [
        "qu",
        -10.295707831009494
      ],
      [
        "app",
        -10.298992863148078
      ],
      [
        "▁r",
        -10.301333312739066
      ],
      [
        "xal",
        -10.305585079537796
      ],
      [
        "aurai",
        -10.307847002313414
      ],
      [
        "pe",
        -10.309857860069906
      ],
      [
        "avais",
        -10.323713103271173
      ],
      [
        "ière",
        -10.328866445936027
      ],
      [
        "uloo",
        -10.332796061224997
      ],
      [
        "ŋgoo",
        -10.333049590612896
      ],
      [
        "ogu",
        -10.335163075417851
      ],
      [
        "ju",
        -10.338990938245704
      ],
      [
        "dem",
        -10.339414517741245
      ],
      [
        "ba",
        -10.340671938053188
      ],
      [
        "lusi",
        -10.343629578900165
      ],
      [
        "yent",
        -10.356159806855358
      ],
      [
        "ëm",
        -10.371075025015324
      ],
      [
        "▁lekk",
        -10.380422837187043
      ],
      [
        "▁lee",
        -10.387514717975106
      ],
      [
        "ille",
        -10.389467457631401
      ],
      [
        "▁plu",
        -10.39013420820565
      ],
      [
        "uti",
        -10.391550063621937
      ],
      [
        "dd",
        -10.392113401005615
      ],
      [
        "▁ava",
        -10.392784049882371
      ],
      [
        "rès",
        -10.392866273091812
      ],
      [
        "lez",
        -10.394158642160738
      ],
      [
        "jal",
        -10.399285449781932
      ],
      [
        "▁épo",
        -10.403910150711253
      ],
      [
        "à-bas",
        -10.404886558457434
      ],
      [
        "▁cohabite",
        -10.405403950813042
      ],
      [
        "▁étudi",
        -10.407031851226572
      ],
      [
        "▁descend",
        -10.407219604918971
      ],
      [
        "droit",
        -10.40757679744789
      ],
      [
        "]",
        -10.407739721880013
      ],
      [
        "ï",
        -10.407739721880013
      ],
      [
        "[",
        -10.407739721880013
      ],
      [
        "▁H",
        -10.407742670427478
      ],
      [
        "▁Musa",
        -10.408988116204469
      ],
      [
        "mps",
        -10.409054457474666
      ],
      [
        "awbe",
        -10.409338111637037
      ],
      [
        "oobu",
        -10.409596131645456
      ],
      [
        "arac",
        -10.409822156221866
      ],
      [
        "▁indi",
        -10.410645479553217
      ],
      [
        "egarde",
        -10.4110310441766
      ],
      [
        "vid",
        -10.412466752867262
      ],
      [
        "ayim",
        -10.412497042363446
      ],
      [
        "▁yooy",
        -10.41252212395973
      ],
      [
        "▁dellu",
        -10.413421645049207
      ],
      [
        "▁revi",
        -10.41425176785492
      ],
      [
        "▁l'h",
        -10.415415346189892
      ],
      [
        "▁Tug",
        -10.416115410165485
      ],
      [
        "omp",
        -10.417040674019976
      ],
      [
        "▁Atte",
        -10.417235945209876
      ],
      [
        "▁d'i",
        -10.41854475588689
      ],
      [
        "▁Bira",
        -10.419910154862423
      ],
      [
        "▁fra",
        -10.424219448244472
      ],
      [
        "ns",
        -10.424994742226223
      ],
      [
        "min",
        -10.427233719774675
      ],
      [
        "ourr",
        -10.427662817924936
      ],
      [
        "▁conna",
        -10.429168199632427
      ],
      [
        "ëggu",
        -10.429474474185984
      ],
      [
        "entré",
        -10.432106113799755
      ],
      [
        "jii",
        -10.432542038785225
      ],
      [
        "ogul",
        -10.434199765970572
      ],
      [
        "ît",
        -10.434776203396348
      ],
      [
        "goo",
        -10.43618184912048
      ],
      [
        "▁kë",
        -10.436925242835425
      ],
      [
        "▁ense",
        -10.4383165777258
      ],
      [
        "ubë",
        -10.438614102508303
      ],
      [
        "▁Né",
        -10.441109176193985
      ],
      [
        "▁Ji",
        -10.441313795877292
      ],
      [
        "'esp",
        -10.451995221477993
      ],
      [
        "jul",
        -10.457389169048714
      ],
      [
        "▁peut",
        -10.459802464432261
      ],
      [
        "oow",
        -10.459916251758505
      ],
      [
        "ox",
        -10.462135771946238
      ],
      [
        "ddi",
        -10.4676095740767
      ],
      [
        "▁sortie",
        -10.46817035311037
      ],
      [
        "▁serais",
        -10.469512352349614
      ],
      [
        "▁sé",
        -10.475004095515905
      ],
      [
        "habite",
        -10.475145046186105
      ],
      [
        "alla",
        -10.48063969992625
      ],
      [
        "▁Se",
        -10.482177096698607
      ],
      [
        "ari",
        -10.484421087741264
      ],
      [
        "▁reg",
        -10.484919698688714
      ],
      [
        "ni",
        -10.489513008694491
      ],
      [
        "lum",
        -10.493969226765083
      ],
      [
        "llusi",
        -10.494708352209557
      ],
      [
        "adi",
        -10.499082593137969
      ],
      [
        "aru",
        -10.499103980655734
      ],
      [
        "uis",
        -10.501311358243589
      ],
      [
        "oogu",
        -10.506492780001254
      ],
      [
        "hang",
        -10.506728209697778
      ],
      [
        "rai",
        -10.50759748821013
      ],
      [
        "▁Sér",
        -10.507841175651325
      ],
      [
        "vert",
        -10.51002059860957
      ],
      [
        "ssent",
        -10.519048169089341
      ],
      [
        "▁mê",
        -10.520440419299597
      ],
      [
        "ëg",
        -10.53884833371912
      ],
      [
        "tient",
        -10.538986422322465
      ],
      [
        "pas",
        -10.540317764924414
      ],
      [
        "ëgg",
        -10.548336844551256
      ],
      [
        "anu",
        -10.551581105482043
      ],
      [
        "ence",
        -10.551909694574965
      ],
      [
        "rère",
        -10.553260841025212
      ],
      [
        "bir",
        -10.554549626093888
      ],
      [
        "ach",
        -10.558858174922095
      ],
      [
        "dab",
        -10.55915834137069
      ],
      [
        "edd",
        -10.559863191970623
      ],
      [
        "tés",
        -10.560839585928495
      ],
      [
        "mine",
        -10.560902474988033
      ],
      [
        "ch",
        -10.561979509069198
      ],
      [
        "góon",
        -10.563956119428287
      ],
      [
        "ain",
        -10.566261066711979
      ],
      [
        "ar.",
        -10.570783787484775
      ],
      [
        "awoon",
        -10.579839000047338
      ],
      [
        "op",
        -10.581535099755087
      ],
      [
        "nda",
        -10.58461466651211
      ],
      [
        "▁cont",
        -10.596321104234256
      ],
      [
        "âc",
        -10.596591992447605
      ],
      [
        "▁Sen",
        -10.600605273754205
      ],
      [
        "ble",
        -10.60387805414399
      ],
      [
        "ose",
        -10.60884816013361
      ],
      [
        "▁ŋgoo",
        -10.613058531767265
      ],
      [
        "add",
        -10.618844925471038
      ],
      [
        "ya",
        -10.625761633886878
      ],
      [
        "qui",
        -10.627299912278845
      ],
      [
        "në",
        -10.629918424701517
      ],
      [
        "▁réc",
        -10.638493889193542
      ],
      [
        "rd",
        -10.640584477175977
      ],
      [
        "▁l'ar",
        -10.644090438264193
      ],
      [
        "▁Laa",
        -10.64436497386549
      ],
      [
        "oppi",
        -10.648667597901333
      ],
      [
        "▁Mus",
        -10.65216975091677
      ],
      [
        "aan",
        -10.65327205780976
      ],
      [
        "alis",
        -10.660610253695372
      ],
      [
        "oit",
        -10.663939968298955
      ],
      [
        "▁yo",
        -10.668144648712703
      ],
      [
        "llu",
        -10.668264345751389
      ],
      [
        "'ai",
        -10.669188828574017
      ],
      [
        "uff",
        -10.67728137651904
      ],
      [
        "▁Ye",
        -10.693947342984094
      ],
      [
        "oxoo",
        -10.694824545879214
      ],
      [
        "uel",
        -10.704260353930355
      ],
      [
        "▁foo",
        -10.711718404659733
      ],
      [
        "cé",
        -10.711853912110726
      ],
      [
        "abar",
        -10.71185472278123
      ],
      [
        "▁wé",
        -10.720718282495376
      ],
      [
        "▁noo",
        -10.727030791922825
      ],
      [
        "▁pui",
        -10.732340292718426
      ],
      [
        "▁Sé",
        -10.734532900550711
      ],
      [
        "oussa",
        -10.741741311223603
      ],
      [
        "ts.",
        -10.741874203116573
      ],
      [
        "▁cha",
        -10.742908057031823
      ],
      [
        "▁See",
        -10.74489418181464
      ],
      [
        "voy",
        -10.747008642258876
      ],
      [
        "▁travaille",
        -10.747625375729285
      ],
      [
        "spa",
        -10.758528290555263
      ],
      [
        "▁l'é",
        -10.760940218026262
      ],
      [
        "Gis",
        -10.774517690552994
      ],
      [
        "▁goo",
        -10.775849089933834
      ],
      [
        "xee",
        -10.791820084185254
      ],
      [
        "st",
        -10.808963456361722
      ],
      [
        "ha",
        -10.809192561311884
      ],
      [
        "▁Peu",
        -10.815302540456825
      ],
      [
        "▁n'as",
        -10.823794749375493
      ],
      [
        "our.",
        -10.835402907060471
      ],
      [
        "▁yar",
        -10.83764500359355
      ],
      [
        "he",
        -10.837959180450316
      ],
      [
        "L'homme",
        -10.838276662407369
      ],
      [
        "amoon",
        -10.83828830092368
      ],
      [
        "aakaar",
        -10.83833655314328
      ],
      [
        "▁jus",
        -10.846704583689059
      ],
      [
        "▁dis",
        -10.84865247256391
      ],
      [
        "C'",
        -10.848941115385571
      ],
      [
        "wum",
        -10.866463158805189
      ],
      [
        "▁waxe",
        -10.869061886624078
      ],
      [
        "▁bë",
        -10.870058103079321
      ],
      [
        "▁seu",
        -10.871272634233419
      ],
      [
        "vu",
        -10.876202600868833
      ],
      [
        "auc",
        -10.877108805801207
      ],
      [
        "ond",
        -10.881649915161438
      ],
      [
        "elui-ci",
        -10.90699004743974
      ],
      [
        "réci",
        -10.912538523381771
      ],
      [
        "mais",
        -10.914962758693195
      ],
      [
        "▁ét",
        -10.917385959711085
      ],
      [
        "▁yen",
        -10.925869104223551
      ],
      [
        "amin",
        -10.926954777380885
      ],
      [
        "l'homme",
        -10.934011630517816
      ],
      [
        "▁qu'i",
        -10.94264846064077
      ],
      [
        "dik",
        -10.946412059141782
      ],
      [
        "▁daaw",
        -10.961626618176895
      ],
      [
        "os",
        -10.96305753801906
      ],
      [
        "'ici",
        -10.963099300844794
      ],
      [
        "avai",
        -10.96693530230387
      ],
      [
        "▁ña",
        -10.981040158399395
      ],
      [
        "boo",
        -10.983601656822817
      ],
      [
        "afi",
        -10.990498793264717
      ],
      [
        "uisi",
        -10.990845959020504
      ],
      [
        "tam",
        -10.99262990442523
      ],
      [
        "cu",
        -11.003408555842082
      ],
      [
        "itu",
        -11.016511074875934
      ],
      [
        "t-",
        -11.026545201444787
      ],
      [
        "gu",
        -11.035899832085713
      ],
      [
        "ert",
        -11.039465708213392
      ],
      [
        "▁voil",
        -11.039987044493431
      ],
      [
        "niez",
        -11.043918605545644
      ],
      [
        "▁ment",
        -11.044083803608784
      ],
      [
        "esse",
        -11.045776992751382
      ],
      [
        "ret",
        -11.069237999435359
      ],
      [
        "aawu",
        -11.072706289470414
      ],
      [
        "▁jig",
        -11.075190253076583
      ],
      [
        "aff",
        -11.076269942815957
      ],
      [
        "▁ren",
        -11.08445754756176
      ],
      [
        "main",
        -11.08550675843595
      ],
      [
        "nce",
        -11.090474745471528
      ],
      [
        "gir",
        -11.094345779414867
      ],
      [
        "▁lé",
        -11.094419122468006
      ],
      [
        "▁tus",
        -11.094842114016386
      ],
      [
        "▁tà",
        -11.113483945169042
      ],
      [
        "bu",
        -11.127419756080924
      ],
      [
        "ur.",
        -11.143538450916257
      ],
      [
        "um",
        -11.167298622420315
      ],
      [
        "ger",
        -11.168456688501017
      ],
      [
        "ifi",
        -11.168865929160381
      ],
      [
        "omi",
        -11.170449740165758
      ],
      [
        "eill",
        -11.171598669094463
      ],
      [
        "▁Au",
        -11.17425765354243
      ],
      [
        "allai",
        -11.17694732432822
      ],
      [
        "lam",
        -11.18291400658601
      ],
      [
        "ami",
        -11.192488167929566
      ],
      [
        "▁Al",
        -11.227491433692633
      ],
      [
        "J'a",
        -11.230268804689983
      ],
      [
        "li",
        -11.258554045300574
      ],
      [
        "leurs",
        -11.284357314793878
      ],
      [
        "yy",
        -11.294713881247125
      ],
      [
        "nte",
        -11.30509189092965
      ],
      [
        "ents",
        -11.31722335126627
      ],
      [
        "▁res",
        -11.317708299564606
      ],
      [
        "ois",
        -11.329818059602136
      ],
      [
        "aa",
        -11.331176650073042
      ],
      [
        "tais",
        -11.348265381523309
      ],
      [
        "bo",
        -11.35828823485364
      ],
      [
        "▁xe",
        -11.37008721361346
      ],
      [
        "aat",
        -11.389861210133336
      ],
      [
        "▁Daa",
        -11.429610574745862
      ],
      [
        "ët",
        -11.43224821797341
      ],
      [
        "eut",
        -11.4375947641711
      ],
      [
        "wóo",
        -11.44089798739351
      ],
      [
        "▁ac",
        -11.441780207227989
      ],
      [
        "ol",
        -11.445962910141304
      ],
      [
        "▁ceux-",
        -11.452000083083451
      ],
      [
        "ées",
        -11.492830024954342
      ],
      [
        "ire",
        -11.507032918431987
      ],
      [
        "wa",
        -11.5143733307905
      ],
      [
        "ab",
        -11.51936803790769
      ],
      [
        "wax",
        -11.530397718452393
      ],
      [
        "▁ret",
        -11.605475058146594
      ],
      [
        "▁pr",
        -11.623719255343056
      ],
      [
        "▁on",
        -11.626767075384182
      ],
      [
        "chan",
        -11.703426302193119
      ],
      [
        "oxo",
        -11.7176334575803
      ],
      [
        "impl",
        -11.717638664003502
      ],
      [
        "ge",
        -11.718873006726678
      ],
      [
        "'apprécie",
        -11.725876037550467
      ],
      [
        "Tu",
        -11.753235413225289
      ],
      [
        "▁pass",
        -11.773249808106977
      ],
      [
        "î",
        -11.78034694217395
      ],
      [
        "O",
        -11.780446942173949
      ],
      [
        "S",
        -11.780546942173949
      ],
      [
        "U",
        -11.780646942173949
      ],
      [
        "A",
        -11.780746942173948
      ],
      [
        "C",
        -11.78084694217395
      ],
      [
        "H",
        -11.78094694217395
      ],
      [
        "B",
        -11.78104694217395
      ],
      [
        "D",
        -11.78114694217395
      ],
      [
        "W",
        -11.781246942173949
      ],
      [
        "P",
        -11.781346942173949
      ],
      [
        "F",
        -11.781446942173948
      ],
      [
        "E",
        -11.781546942173948
      ],
      [
        "X",
        -11.78164694217395
      ],
      [
        "T",
        -11.78174694217395
      ],
      [
        "Q",
        -11.78184694217395
      ],
      [
        "L",
        -11.781946942173949
      ],
      [
        "Ñ",
        -11.782046942173949
      ],
      [
        "N",
        -11.782146942173949
      ],
      [
        "Y",
        -11.782246942173948
      ],
      [
        "M",
        -11.782346942173948
      ],
      [
        "K",
        -11.78244694217395
      ],
      [
        "R",
        -11.78254694217395
      ],
      [
        "ó",
        -11.78264694217395
      ],
      [
        "V",
        -11.782746942173949
      ],
      [
        "eg",
        -11.782746942173949
      ]
    ]
  }
}