<pad>	0
</s>	0
<unk>	0
<s>	0
.	-2.80955
,	-3.26876
'	-3.49681
▁la	-4.17146
▁de	-4.23912
s	-4.36912
-	-4.511
e	-4.68179
▁!	-4.70011
y	-4.7214
▁a	-4.76319
▁	-4.78961
▁ci	-4.81274
▁l	-4.84997
▁le	-4.96628
▁?	-5.04748
▁un	-5.04786
▁ko	-5.04931
▁à	-5.1155
est	-5.1407
▁ne	-5.16525
▁bi	-5.22736
▁pas	-5.24504
▁Il	-5.26559
▁les	-5.28968
▁est	-5.31846
▁qui	-5.32035
▁ma	-5.33865
▁que	-5.36762
▁na	-5.37093
▁des	-5.40488
▁d	-5.40838
▁mu	-5.43988
▁et	-5.44117
a	-5.48823
▁du	-5.50161
u	-5.50486
i	-5.52142
▁qu	-5.56705
▁C	-5.56734
▁ba	-5.60865
▁n	-5.67091
▁yi	-5.69194
▁il	-5.7241
▁en	-5.73799
il	-5.82334
▁tu	-5.84729
▁di	-5.84818
▁ak	-5.87298
▁gi	-5.88037
▁bu	-5.90098
▁ni	-5.90434
▁dans	-5.90788
▁ngi	-5.94053
▁nga	-5.94187
▁sa	-5.97917
▁pour	-6.01377
▁c	-6.02995
al	-6.03179
▁ñu	-6.03751
▁se	-6.05522
▁s	-6.05643
▁te	-6.07615
r	-6.08182
▁Je	-6.09317
ai	-6.11088
▁dem	-6.11667
▁ce	-6.15167
▁au	-6.15839
▁yu	-6.19461
▁je	-6.22731
▁ay	-6.23505
▁dafa	-6.24221
▁am	-6.25094
▁J	-6.25251
▁naa	-6.26845
▁y	-6.29163
▁ca	-6.31238
▁Le	-6.35099
▁lu	-6.39039
▁sur	-6.40518
▁lui	-6.4102
▁L	-6.42515
▁mi	-6.44175
▁Dafa	-6.45279
▁avec	-6.45314
▁sont	-6.46298
▁sama	-6.46504
é	-6.53736
t	-6.55122
▁Tu	-6.56339
▁seen	-6.57485
▁woon	-6.58788
;	-6.60234
▁par	-6.60928
▁La	-6.62407
▁j	-6.62527
▁fa	-6.62757
une	-6.63884
▁m	-6.67738
am	-6.70821
▁doon	-6.7085
en	-6.72375
▁son	-6.73892
▁plus	-6.74061
▁wax	-6.74569
d	-6.75294
tu	-6.76038
un	-6.7757
▁fait	-6.7788
on	-6.7935
▁moo	-6.80722
▁xam	-6.81211
▁daan	-6.81407
▁si	-6.8153
▁mon	-6.81827
▁:	-6.82339
▁leen	-6.82915
ette	-6.84199
▁t	-6.87437
nt	-6.87535
▁gis	-6.87827
▁vu	-6.89459
▁Les	-6.89725
le	-6.90742
er	-6.90947
ait	-6.91583
homme	-6.91981
▁def	-6.92238
oon	-6.9305
▁me	-6.93324
▁nous	-6.958
▁nekk	-6.96037
l	-6.96994
▁ji	-6.97818
ent	-6.99684
là	-7.01785
▁on	-7.02263
▁nag	-7.02859
▁ku	-7.02983
▁rekk	-7.03253
▁tout	-7.044
▁moom	-7.0445
▁Mu	-7.04897
▁père	-7.07583
▁nit	-7.07993
▁li	-7.08387
▁laa	-7.08547
▁leur	-7.09808
▁fi	-7.09824
▁D	-7.10179
▁où	-7.11401
▁Si	-7.13369
▁may	-7.13892
▁benn	-7.15366
▁été	-7.15934
▁ŋga	-7.16513
▁Góor	-7.18886
▁nu	-7.19365
▁Omar	-7.19529
▁Ku	-7.1968
ee	-7.20098
▁mel	-7.20153
▁Ce	-7.20522
▁Bu	-7.2144
es	-7.24175
oo	-7.24524
▁Sa	-7.24933
▁Un	-7.25806
▁gu	-7.25871
▁biir	-7.26284
▁as	-7.26372
▁wi	-7.26454
▁su	-7.26499
▁sax	-7.26568
▁ya	-7.26741
▁Gis	-7.2737
▁i	-7.27449
▁Baay	-7.29073
▁Am	-7.29134
▁Ci	-7.2916
▁homme	-7.29211
as	-7.30239
ul	-7.30859
and	-7.31076
▁là	-7.32603
▁faire	-7.33168
▁A	-7.33959
▁enfants	-7.34568
▁ju	-7.34879
▁avait	-7.362
ant	-7.36616
▁kër	-7.36683
ce	-7.36704
▁ab	-7.3749
▁chose	-7.37652
▁dit	-7.3809
▁peut	-7.38954
▁moi	-7.39152
▁On	-7.39651
n	-7.40417
▁comme	-7.41511
▁mën	-7.42456
▁Afrig	-7.42511
▁kenn	-7.42651
à	-7.43483
«	-7.44183
▁ndax	-7.44217
▁bii	-7.44332
ment	-7.44806
▁xale	-7.44992
▁Su	-7.45407
▁celui	-7.45842
▁Qu	-7.46099
▁dara	-7.46524
▁maison	-7.47006
te	-7.48199
▁bëgg	-7.48569
▁va	-7.48786
▁toi	-7.48841
▁nañu	-7.49252
re	-7.50392
▁Dama	-7.50633
▁ñaar	-7.50918
▁vous	-7.51607
▁dal	-7.51687
▁Lu	-7.51748
g	-7.51755
▁ñi	-7.52193
▁bien	-7.52405
b	-7.52473
k	-7.52685
▁mais	-7.53247
▁ont	-7.53733
▁baax	-7.54583
▁góor	-7.55014
▁lañu	-7.56375
▁sans	-7.56622
▁»	-7.5675
▁autre	-7.56826
▁ta	-7.57644
▁mère	-7.57752
▁ñëw	-7.58626
▁Quan	-7.58981
▁S	-7.59068
▁photo	-7.59839
▁même	-7.60091
▁dañu	-7.61414
▁dëkk	-7.61658
▁ton	-7.624
▁tax	-7.62641
▁jusqu	-7.63917
que	-7.64121
▁était	-7.64842
▁waay	-7.65386
▁ga	-7.66289
▁ou	-7.66394
eau	-7.66838
▁fu	-7.66902
it	-7.67478
▁Sama	-7.67829
▁ces	-7.6795
▁deux	-7.68342
▁cela	-7.68838
▁pays	-7.69466
elle	-7.70091
▁quelque	-7.70679
▁Ne	-7.7089
di	-7.7138
▁man	-7.7209
▁parti	-7.72152
▁Li	-7.72301
▁aux	-7.72328
▁elle	-7.72546
▁xar	-7.7264
▁Maa	-7.72814
▁Elle	-7.72834
▁nataal	-7.72865
▁bare	-7.72882
▁yépp	-7.72905
▁Ma	-7.7313
▁B	-7.73809
était	-7.73846
▁Nit	-7.7395
▁dina	-7.74341
▁grand	-7.7447
▁P	-7.74617
▁veux	-7.74924
▁cet	-7.75821
▁aussi	-7.7602
▁jigéen	-7.76033
▁temps	-7.77068
▁Nous	-7.77088
moi	-7.77162
▁Ba	-7.77314
▁lay	-7.77487
aient	-7.77499
▁être	-7.77787
uma	-7.78153
▁lool	-7.78906
▁Yàlla	-7.79055
▁Soo	-7.7941
▁ici	-7.79498
▁boo	-7.79545
▁teg	-7.82086
▁gën	-7.82528
▁it	-7.82593
▁encore	-7.82614
▁réew	-7.82765
▁yoon	-7.83047
▁suis	-7.83807
▁yaa	-7.85048
▁ñoo	-7.85397
x	-7.85787
ci	-7.86957
▁naan	-7.87009
▁À	-7.87057
▁porte	-7.89015
ñ	-7.89114
▁enfant	-7.89313
▁ki	-7.89572
▁rien	-7.89797
▁mag	-7.90106
hui	-7.90648
▁tey	-7.91494
▁Qui	-7.91521
um	-7.92698
▁vois	-7.93462
▁ça	-7.93465
▁gens	-7.93476
▁doom	-7.9389
▁fekk	-7.94027
ujour	-7.9469
▁Celui	-7.94801
▁bon	-7.94889
▁maa	-7.95545
▁mbaa	-7.95656
▁tous	-7.96071
▁Ñu	-7.96187
▁koo	-7.96429
▁En	-7.96444
▁Sur	-7.96445
▁Dieu	-7.97363
▁parle	-7.97574
▁tes	-7.97944
▁femme	-7.98821
▁néeg	-7.9921
▁sol	-7.99883
▁personne	-8.00196
▁dul	-8.00954
▁beaucoup	-8.01418
▁Du	-8.01978
▁–	-8.02805
▁monde	-8.0289
▁lépp	-8.03125
▁garab	-8.03348
▁amul	-8.03494
▁bopp	-8.04133
être	-8.04302
▁sunu	-8.04315
m	-8.04459
▁lii	-8.04901
▁mes	-8.05053
▁rafet	-8.05573
▁très	-8.05642
▁Mon	-8.06158
enfant	-8.06304
▁es	-8.06671
▁yaay	-8.06777
▁veut	-8.07093
▁Nataal	-8.07095
▁suuf	-8.07108
▁demee	-8.07945
▁liggéey	-8.08067
▁cheval	-8.08577
▁mouton	-8.08827
▁ai	-8.08933
▁loolu	-8.09182
▁war	-8.09412
▁peu	-8.09557
ŋ	-8.10002
▁Dañu	-8.10209
avoir	-8.10666
lu	-8.10966
eneen	-8.11334
▁ag	-8.11444
▁voir	-8.11802
▁avant	-8.11819
▁ceux	-8.1184
▁jour	-8.11973
▁vie	-8.11983
▁gone	-8.12414
▁fas	-8.13708
an	-8.13753
▁O	-8.13822
ée	-8.13999
▁fais	-8.14007
▁G	-8.14588
intérieur	-8.14671
▁Ndax	-8.14781
▁toog	-8.14794
bas	-8.15281
autre	-8.15716
▁weex	-8.16234
oit	-8.16487
▁vo	-8.17274
▁k	-8.1759
▁partir	-8.17853
▁walla	-8.17893
▁fois	-8.18009
▁soit	-8.18153
▁yooyu	-8.19534
▁bés	-8.19716
▁ka	-8.2
enn	-8.20305
▁Te	-8.20416
▁F	-8.21094
▁Xale	-8.21236
▁ndaw	-8.2125
▁jaay	-8.22087
▁ndox	-8.22295
kat	-8.22559
▁ciy	-8.22916
▁wu	-8.23397
▁ñuul	-8.23446
▁ja	-8.24004
▁boobu	-8.24649
▁dugg	-8.24804
▁ngeen	-8.24891
▁loxo	-8.25202
▁at	-8.25309
▁Moo	-8.25846
▁Dem	-8.25864
▁f	-8.25907
▁Waaye	-8.26355
▁tête	-8.26387
▁guerre	-8.26429
▁ñoom	-8.26431
▁Xam	-8.26443
ils	-8.26446
▁dama	-8.26452
▁Lii	-8.27647
▁ŋgi	-8.27735
ù	-8.28109
▁sous	-8.28448
▁jëm	-8.28557
▁nii	-8.28714
w	-8.28726
ante	-8.28893
eux	-8.29103
ma	-8.29259
▁venu	-8.29339
▁waa	-8.2955
▁say	-8.29892
▁soo	-8.30317
▁N	-8.30439
tre	-8.30582
▁dee	-8.3094
▁fii	-8.31608
▁Danga	-8.31812
▁lekk	-8.31984
▁dont	-8.32219
o	-8.32814
▁sais	-8.32964
▁part	-8.33125
▁Mais	-8.3375
▁yaram	-8.33815
▁donné	-8.33832
▁quelqu	-8.33883
▁entre	-8.34068
aay	-8.34074
lui	-8.34173
▁terre	-8.34346
▁ànd	-8.34682
▁kow	-8.35345
▁neex	-8.35536
▁bee	-8.35544
▁(	-8.35616
▁ñépp	-8.3563
▁Wax	-8.35922
▁couleur	-8.36328
▁yiy	-8.36369
▁xel	-8.36762
▁Que	-8.37367
▁Waaw	-8.37542
▁bois	-8.37579
▁danga	-8.37588
▁faut	-8.37591
▁lañuy	-8.38199
▁chambre	-8.38292
▁jot	-8.38327
▁travail	-8.38647
▁cause	-8.38695
▁baa	-8.38823
▁dox	-8.38997
▁taxaw	-8.39271
▁ëpp	-8.39282
▁dëgg	-8.39293
▁jox	-8.3933
▁Na	-8.39487
▁jamais	-8.39581
▁xarit	-8.39584
▁marché	-8.39623
▁après	-8.39944
▁cha	-8.39974
▁fo	-8.40165
▁mis	-8.40176
▁daw	-8.40246
▁Va	-8.40485
▁bëgga	-8.40662
▁mal	-8.40714
▁De	-8.40734
eurs	-8.41198
▁peux	-8.4169
▁réer	-8.41874
▁Ay	-8.42093
eek	-8.42147
▁àll	-8.42283
▁Man	-8.42328
▁bët	-8.42577
ale	-8.42953
tte	-8.43124
▁gii	-8.43359
▁tamit	-8.43715
▁jaar	-8.44012
▁aller	-8.44132
▁jàpp	-8.44394
▁noppi	-8.44409
▁Boo	-8.44891
▁metti	-8.45511
▁dañ	-8.4577
ation	-8.45782
▁Ogosaa	-8.45829
▁voilà	-8.45831
▁Est	-8.45857
▁Ton	-8.45931
▁re	-8.46003
▁Bul	-8.46232
Afrique	-8.47023
▁Cet	-8.47098
▁sera	-8.473
▁M	-8.47312
▁saa	-8.47322
▁Tout	-8.47382
▁yàgg	-8.47958
▁contre	-8.47976
▁bokk	-8.47976
ons	-8.48223
▁passe	-8.49084
▁Bi	-8.4967
▁tànk	-8.49675
▁yëg	-8.50044
▁bàyyi	-8.50175
aan	-8.50239
▁doŋŋ	-8.50246
▁ñax	-8.50262
▁Tugal	-8.5027
▁daal	-8.50577
▁takk	-8.50695
▁vas	-8.5127
▁nuit	-8.5132
▁aw	-8.51571
▁génn	-8.51589
▁wër	-8.5176
▁Comment	-8.52541
▁doole	-8.52647
pendant	-8.52858
▁devant	-8.52875
léeg	-8.53857
in	-8.53931
▁mer	-8.53958
▁jóge	-8.54387
▁étai	-8.55037
▁Demal	-8.5514
▁vers	-8.55314
▁poisson	-8.55954
épp	-8.56079
▁Yaa	-8.56513
▁pris	-8.56914
▁gëna	-8.57103
▁semble	-8.57204
▁jamono	-8.57218
▁Loolu	-8.57234
▁fin	-8.57251
▁tuuti	-8.573
▁Ab	-8.57549
ur	-8.57578
f	-8.57638
▁xare	-8.57743
uñu	-8.58138
▁jeex	-8.58412
▁togg	-8.58446
▁fay	-8.58602
▁petit	-8.5919
leen	-8.59262
ir	-8.59416
▁femmes	-8.59425
▁eu	-8.59492
ont	-8.59532
▁loin	-8.59659
▁dex	-8.59921
▁yeux	-8.5996
▁yee	-8.60423
▁bañ	-8.60598
▁dégg	-8.61502
▁Ta	-8.61893
▁mbir	-8.62019
▁nañ	-8.62066
▁coup	-8.62093
▁Vous	-8.62146
▁soleil	-8.62148
▁corps	-8.62148
és	-8.62275
▁itam	-8.62438
▁kanam	-8.62473
▁bari	-8.62683
wul	-8.63106
▁voiture	-8.63398
▁Y	-8.63858
je	-8.63872
▁trop	-8.64711
▁Kenn	-8.64731
▁Moom	-8.64775
▁léegi	-8.65049
▁Ni	-8.65418
▁Quel	-8.6705
▁ñów	-8.67256
▁main	-8.67261
▁manger	-8.67451
▁sorte	-8.67756
▁ban	-8.67815
▁moment	-8.68739
ions	-8.69012
▁p	-8.69454
▁àddina	-8.69539
▁travers	-8.69655
ug	-8.6978
▁acheté	-8.69947
▁Ça	-8.70041
▁milieu	-8.70051
▁topp	-8.70102
▁jël	-8.70117
▁T	-8.70118
▁Et	-8.70119
▁mëna	-8.70199
▁dóor	-8.70221
et	-8.70748
na	-8.70941
el	-8.70942
▁parler	-8.71355
▁xol	-8.71365
▁Waa	-8.71706
ez	-8.71815
▁baay	-8.71891
▁faj	-8.72393
aat	-8.72395
▁doo	-8.72631
ek	-8.72643
ak	-8.72769
▁xonq	-8.72821
▁trois	-8.72836
▁Xar	-8.72842
▁weer	-8.72885
▁Seen	-8.72894
▁Cela	-8.72901
▁noonu	-8.72983
▁gaa	-8.72987
▁ñ	-8.73263
▁toute	-8.73381
quelle	-8.73436
▁Ceux	-8.73466
▁lañ	-8.73656
▁maam	-8.74059
▁seul	-8.74353
dessus	-8.74691
ñu	-8.74771
avais	-8.74813
▁puis	-8.75149
)	-8.75278
woon	-8.75356
▁xaalis	-8.75517
▁Mën	-8.75614
▁riz	-8.75677
▁seulement	-8.7573
▁allé	-8.76414
de	-8.76575
▁fan	-8.76639
▁amis	-8.77022
▁lan	-8.77172
▁eux	-8.77274
▁route	-8.77346
▁champ	-8.77361
▁village	-8.77371
argent	-8.77392
autres	-8.77472
aa	-8.77629
▁gee	-8.77882
▁Nang	-8.77919
▁grande	-8.78158
▁non	-8.78385
▁maintenant	-8.78619
▁matin	-8.78638
▁beau	-8.78659
▁côté	-8.78669
▁demul	-8.79133
▁passé	-8.79138
▁ans	-8.79144
▁dis	-8.79248
▁mort	-8.79315
▁Loo	-8.79408
yeek	-8.79618
ais	-8.80034
▁haut	-8.80131
▁Tey	-8.80208
▁Ñ	-8.80393
...	-8.80404
▁Au	-8.80452
▁bala	-8.80679
▁dund	-8.80789
la	-8.80937
▁Def	-8.80938
▁moutons	-8.81101
▁reste	-8.81288
▁kaw	-8.81306
▁nee	-8.81526
avait	-8.81552
▁Cherche	-8.81648
▁doute	-8.81651
▁Attend	-8.81655
▁Jox	-8.8168
▁duma	-8.81705
▁ŋgeen	-8.81719
▁Ana	-8.81729
ub	-8.81782
▁fini	-8.81897
▁mieux	-8.81924
▁point	-8.82063
▁fees	-8.82084
▁mil	-8.82143
▁wara	-8.82417
▁léeg	-8.82707
▁dire	-8.82943
▁bunt	-8.82994
▁bay	-8.83358
▁gaaw	-8.83598
▁bout	-8.83892
▁ainsi	-8.84791
▁yeneen	-8.85173
▁réy	-8.85186
▁doy	-8.8562
▁da	-8.86208
▁lait	-8.86262
▁laaj	-8.86342
▁wet	-8.86696
▁pied	-8.86806
▁case	-8.87137
▁Kamerun	-8.87999
▁debout	-8.87999
▁famille	-8.88
▁foofu	-8.88013
▁Tubaab	-8.88047
▁jooju	-8.8807
▁Fais	-8.88075
▁kooku	-8.88081
vaient	-8.88081
▁Dans	-8.8809
▁Ceci	-8.88218
avons	-8.88517
ar	-8.88608
▁vient	-8.88758
▁années	-8.8876
▁wàn	-8.88995
▁Fas	-8.8908
▁lal	-8.8909
▁gaal	-8.89194
ement	-8.89314
▁jeune	-8.89439
▁partie	-8.89548
▁ville	-8.89712
▁blanc	-8.89938
▁plu	-8.8998
▁Ca	-8.90029
▁assis	-8.90266
loo	-8.9031
▁mat	-8.9062
▁jours	-8.90647
▁Des	-8.90673
▁yoo	-8.90825
▁May	-8.90831
▁defar	-8.90931
▁ginnaaw	-8.91194
▁woto	-8.91327
▁quoi	-8.91335
▁couscous	-8.91336
▁bonne	-8.91373
▁longtemps	-8.91374
▁chez	-8.91403
▁train	-8.91434
▁voit	-8.91441
▁waaw	-8.9146
▁xaar	-8.91555
▁boppam	-8.91627
▁guddi	-8.91651
▁b	-8.91767
▁arbres	-8.91989
▁yóbbu	-8.92234
mère	-8.92651
is	-8.93361
▁toutes	-8.93478
▁jél	-8.93639
▁trouve	-8.94104
▁Mi	-8.94224
▁somme	-8.94411
▁day	-8.9452
nga	-8.9462
▁daanu	-8.94717
▁yére	-8.94769
▁forêt	-8.9478
▁alors	-8.94832
▁pouvait	-8.94837
▁peau	-8.94844
▁vais	-8.94906
▁jooy	-8.94949
▁lequel	-8.94984
▁xaw	-8.95237
▁crois	-8.95985
▁dé	-8.96052
▁gar	-8.96149
▁aura	-8.96212
▁cinq	-8.96344
▁Cha	-8.9638
▁daa	-8.97158
▁solo	-8.97336
noppi	-8.97395
▁wut	-8.97678
▁leer	-8.977
▁lion	-8.98171
▁Alors	-8.98352
▁yow	-8.98352
▁fàtte	-8.98352
▁Mets	-8.98383
▁bras	-8.98395
té	-8.98717
▁habits	-8.98861
mettre	-8.98867
▁dos	-8.98923
ées	-8.99589
▁Xan	-8.99745
▁car	-8.99826
si	-8.99859
▁g	-8.99969
▁mains	-9.0015
▁belle	-9.00691
▁autres	-9.01015
▁K	-9.01126
▁donne	-9.01262
▁parce	-9.01466
▁lakk	-9.01628
▁personnes	-9.01673
▁jàng	-9.01733
▁indi	-9.01982
▁Kooku	-9.02003
▁kan	-9.02062
▁mauvais	-9.02063
▁Naka	-9.02068
▁dellu	-9.02097
▁jii	-9.02162
▁gaynde	-9.02169
▁aucun	-9.0224
▁bind	-9.02344
ès	-9.02352
▁Xaar	-9.02414
▁xamul	-9.0253
▁dikk	-9.02613
▁mets	-9.02905
▁way	-9.02922
▁ňu	-9.03085
même	-9.03341
▁nos	-9.03376
▁quelle	-9.03709
▁jénd	-9.03741
▁arrive	-9.0375
▁noir	-9.03856
▁voyage	-9.03921
▁fer	-9.04175
▁ami	-9.04374
▁co	-9.04427
▁rouge	-9.04581
▁choses	-9.04621
▁tudd	-9.05119
igéen	-9.05754
▁dagg	-9.05779
▁yem	-9.05822
▁lieu	-9.0589
▁question	-9.05905
▁Gone	-9.05906
▁arrivé	-9.0591
▁Donne	-9.05923
▁beneen	-9.05946
▁place	-9.05977
ti	-9.05979
▁dàll	-9.06019
▁Oui	-9.06072
▁verre	-9.06075
▁dois	-9.06089
▁soir	-9.06118
▁Ogoja	-9.06305
autour	-9.06656
z	-9.06848
▁far	-9.06948
▁nuy	-9.07044
ra	-9.07162
▁biti	-9.07339
▁vent	-9.07425
oŋ	-9.07453
▁Afrique	-9.07675
▁For	-9.07777
▁roi	-9.08479
▁wa	-9.08481
ku	-9.08572
▁dame	-9.08602
▁blanche	-9.0864
ukaay	-9.08803
▁médecin	-9.08922
▁hommes	-9.09212
▁tool	-9.09305
▁juróom	-9.09487
▁dana	-9.096
▁jabar	-9.09771
▁tollu	-9.09903
▁yaakaar	-9.09903
▁France	-9.09903
▁fàww	-9.09906
▁dénk	-9.09926
▁Pour	-9.09927
▁xalaat	-9.09932
▁fàttaliku	-9.09943
▁marse	-9.09962
▁mangé	-9.09964
▁daanaka	-9.10035
▁suba	-9.10059
▁demande	-9.1006
▁Dinaa	-9.10138
tax	-9.10144
▁près	-9.10181
▁ceeb	-9.10213
ati	-9.10491
▁pu	-9.10586
▁mot	-9.10896
▁ñàkk	-9.10935
▁kii	-9.10995
▁doomu	-9.11223
▁dinaa	-9.12103
▁viendra	-9.12136
▁Wut	-9.13367
▁lit	-9.13411
ata	-9.13557
▁tàng	-9.13668
▁woo	-9.1367
age	-9.13674
▁propos	-9.14068
▁paix	-9.14068
▁raison	-9.1407
▁Cameroun	-9.14076
▁force	-9.14102
▁tard	-9.14166
▁long	-9.14463
▁Da	-9.15109
▁xaj	-9.15205
▁doomi	-9.15451
▁Seet	-9.15472
▁amoon	-9.15846
ne	-9.15954
Après	-9.16078
▁demoon	-9.16103
▁so	-9.16113
▁posé	-9.1623
▁lanu	-9.16269
c	-9.16281
tôt	-9.16665
▁cuisine	-9.1676
▁Sée	-9.16873
at	-9.17174
▁loo	-9.17212
j	-9.17916
em	-9.18155
▁gàtt	-9.18176
▁Ñaar	-9.182
▁regard	-9.18387
ourquoi	-9.18398
habitude	-9.18401
▁cheveux	-9.18418
▁bëj	-9.18434
▁gannaaw	-9.18442
▁bord	-9.1849
▁xeet	-9.18498
ni	-9.18535
▁chien	-9.18613
▁Léegi	-9.18626
▁ressemble	-9.18678
▁serait	-9.18722
▁R	-9.18886
▁gudd	-9.19311
▁Dis	-9.19383
▁fut	-9.19421
▁Fii	-9.19505
▁duñu	-9.19523
▁sant	-9.19583
iñ	-9.19603
▁seule	-9.19799
▁néegu	-9.19828
▁parte	-9.19854
tt	-9.19997
▁moomu	-9.20167
▁jiit	-9.20578
▁Voi	-9.20755
▁jékk	-9.20899
▁r	-9.20974
▁nom	-9.21334
aire	-9.21396
▁prend	-9.21524
▁première	-9.2166
ay	-9.21824
père	-9.22319
▁Bëgg	-9.2249
▁tel	-9.22866
aadama	-9.22961
▁puits	-9.22962
▁Prends	-9.22963
▁tàmbalee	-9.22964
▁feuilles	-9.22965
▁yónnee	-9.2299
▁vraiment	-9.22991
▁séen	-9.22995
▁prendre	-9.23023
▁W	-9.23024
▁ngelaw	-9.23049
▁nettali	-9.23086
▁manière	-9.23087
▁tali	-9.2309
▁mii	-9.23249
▁deme	-9.23302
▁alal	-9.23448
q	-9.23532
▁buntu	-9.2359
▁saison	-9.23794
▁mënul	-9.23937
▁tudde	-9.24031
▁peur	-9.2437
▁bant	-9.24437
▁sac	-9.24599
▁montre	-9.24984
àkk	-9.25285
▁petits	-9.25343
arbre	-9.25403
h	-9.25577
▁Kan	-9.25771
▁Di	-9.25776
irai	-9.25867
▁defe	-9.26179
▁yii	-9.2637
pp	-9.26443
▁fille	-9.26551
aale	-9.26772
▁affaire	-9.26927
elles	-9.2727
▁garde	-9.27276
aller	-9.27355
▁seet	-9.27445
▁saf	-9.27671
▁boubou	-9.27723
▁Wànte	-9.27724
▁sucre	-9.27726
▁Borom	-9.27729
▁dellusi	-9.27753
▁coté	-9.27767
▁wéy	-9.27777
▁aperçu	-9.27789
▁romb	-9.27822
▁couteau	-9.27838
▁nangu	-9.2784
▁sàkk	-9.2798
▁faral	-9.28054
▁ñetti	-9.28078
▁marcher	-9.28233
▁jur	-9.2826
▁aurait	-9.28327
▁lorsqu	-9.28338
▁buur	-9.28387
jur	-9.28563
▁waral	-9.28672
▁savoir	-9.28754
▁ña	-9.29052
▁table	-9.29286
ux	-9.2929
▁miir	-9.29339
▁Là	-9.29546
▁rey	-9.29712
▁feu	-9.29795
eur	-9.29837
▁naaj	-9.29961
▁bëggul	-9.30065
góor	-9.30203
▁no	-9.30329
▁leneen	-9.30336
▁Kër	-9.30374
▁Fa	-9.30407
▁Amul	-9.30766
▁bees	-9.30937
ité	-9.31356
▁fond	-9.31441
▁xool	-9.31554
vous	-9.31766
toi	-9.31866
▁sang	-9.31871
ň	-9.31904
▁endroit	-9.31994
ère	-9.32545
▁Ak	-9.32569
hôpital	-9.32723
▁Móris	-9.32723
▁façon	-9.32723
▁premier	-9.32723
▁peine	-9.32724
▁gunóor	-9.32724
▁tabax	-9.32726
▁êtes	-9.32727
▁Saint	-9.32737
▁ragal	-9.32742
▁adulte	-9.32752
▁téere	-9.32753
▁Ñoom	-9.32757
▁longue	-9.32758
▁Keneen	-9.32768
▁sànni	-9.32773
▁Niseryaa	-9.32785
▁jén	-9.3281
▁Bés	-9.32817
▁diggu	-9.32912
▁toit	-9.32947
▁depuis	-9.32959
▁pluies	-9.33349
ras	-9.33355
▁passer	-9.33468
▁tas	-9.33544
▁marche	-9.33599
▁E	-9.33611
▁murs	-9.33676
me	-9.3396
▁nun	-9.34281
▁door	-9.34287
llement	-9.34352
mi	-9.34448
▁mas	-9.34478
▁dessus	-9.34499
▁avais	-9.34521
▁égaré	-9.34566
▁froid	-9.34584
▁nak	-9.34644
▁quel	-9.3472
▁pieds	-9.34725
arrête	-9.34729
▁tere	-9.34762
atul	-9.35437
▁kay	-9.35534
▁Fi	-9.36006
▁celle	-9.36165
▁ubbi	-9.36277
les	-9.36484
añoo	-9.36604
▁frère	-9.36607
▁singe	-9.36633
▁visage	-9.3667
▁bol	-9.36827
▁fey	-9.3696
étais	-9.37001
▁vaut	-9.37026
jj	-9.37226
▁Fu	-9.37245
woo	-9.3743
eer	-9.37446
▁bar	-9.37489
koon	-9.37659
nu	-9.37831
▁Jésus	-9.37986
▁souviens	-9.37987
▁Nigeria	-9.37987
▁colère	-9.37992
▁Garab	-9.38004
▁Bansoo	-9.38009
▁toujours	-9.38016
▁seetlu	-9.38022
▁doktoor	-9.38024
▁chaussures	-9.38025
▁xeer	-9.38033
▁faa	-9.38052
▁portes	-9.38079
▁devait	-9.38086
▁pain	-9.38099
▁sedd	-9.38101
▁feebar	-9.38139
▁Comme	-9.38167
▁Fan	-9.38171
▁mange	-9.38208
▁fourmis	-9.38226
▁font	-9.38336
▁laver	-9.38337
▁dàq	-9.38355
▁large	-9.38366
▁dinga	-9.38447
▁portent	-9.38492
▁gént	-9.38715
▁in	-9.38888
▁guy	-9.38911
▁fils	-9.38918
li	-9.3903
▁baat	-9.39296
▁cour	-9.39652
▁Son	-9.39851
▁wone	-9.39873
▁cere	-9.39997
vent	-9.4014
ël	-9.40256
herbe	-9.40843
▁laisse	-9.40856
ici	-9.41348
▁Quelle	-9.41383
▁porter	-9.41687
▁Mbaa	-9.41776
▁dog	-9.41864
▁chemise	-9.41927
aw	-9.42112
▁besoin	-9.42162
▁rivière	-9.42224
▁fleuve	-9.42278
▁année	-9.42509
▁plein	-9.4262
▁fort	-9.42624
▁Par	-9.42677
entré	-9.4269
▁daj	-9.4286
▁taal	-9.43021
▁daje	-9.43169
ji	-9.4321
▁bouche	-9.43286
▁wóor	-9.43497
▁Laobe	-9.43542
▁apporté	-9.43542
Ouest	-9.43543
▁viande	-9.43544
▁paaka	-9.4355
▁weesoo	-9.43553
▁prière	-9.43554
▁déglu	-9.43561
▁simis	-9.43561
▁vécu	-9.43574
▁Yéesu	-9.43578
▁Samba	-9.43588
▁taabal	-9.43592
▁Dëkk	-9.43596
▁màndi	-9.43604
▁plaine	-9.43622
▁Astu	-9.43628
▁jar	-9.43647
▁njëkk	-9.43659
▁jàmm	-9.43712
▁kàddu	-9.4372
▁ñaan	-9.43754
▁Ndar	-9.43758
▁heures	-9.43792
▁Buur	-9.4383
▁géej	-9.43942
▁deret	-9.43966
▁compte	-9.43978
▁wuti	-9.44237
▁sowu	-9.44314
▁yaatu	-9.44367
unu	-9.44401
▁teel	-9.44491
▁dinañu	-9.44639
uloo	-9.45437
éjà	-9.45915
▁met	-9.46074
▁dëkki	-9.46087
im	-9.46126
ng	-9.46145
▁wetu	-9.46241
air	-9.46259
▁jafe	-9.46285
▁gor	-9.46495
▁appelle	-9.46806
▁Nu	-9.47055
▁béré	-9.4764
▁vieille	-9.47832
▁Moi	-9.47848
ax	-9.47951
▁Nda	-9.48129
▁chemin	-9.48167
esprit	-9.48268
▁fukk	-9.48274
▁».	-9.48368
ngeen	-9.48446
oor	-9.4891
▁feeñ	-9.48921
▁sore	-9.48961
▁not	-9.49152
▁parles	-9.49184
▁Tou	-9.4922
Louis	-9.49344
▁Banso	-9.49399
ersonne	-9.49408
▁Liggéey	-9.49424
▁violence	-9.49424
▁Àngalteer	-9.49424
▁tefes	-9.49425
▁pagne	-9.49429
▁Àngale	-9.49429
▁borom	-9.49434
▁dernier	-9.49437
▁Gàdd	-9.49437
▁diggante	-9.49438
▁parlait	-9.49445
▁ngoon	-9.4945
▁simplement	-9.49452
▁Ici	-9.49456
▁francs	-9.49468
▁googu	-9.49477
▁vieux	-9.49477
▁viens	-9.49495
▁agsi	-9.49502
▁mbedd	-9.49505
▁cuir	-9.49506
▁Noonu	-9.49516
▁Astou	-9.49576
▁derrière	-9.49578
▁jouer	-9.49633
▁Kon	-9.49654
iers	-9.49702
▁fasse	-9.49713
voir	-9.49752
▁mbaam	-9.49802
▁faisait	-9.49831
▁dents	-9.49851
oir	-9.49884
▁fruits	-9.49998
▁bëggee	-9.5004
▁connais	-9.5019
▁niroo	-9.50275
bu	-9.50351
▁nanu	-9.50388
óor	-9.50498
▁entré	-9.50531
▁vaches	-9.50611
▁trouver	-9.50651
ri	-9.50939
▁diis	-9.50992
vient	-9.51196
▁Nga	-9.51298
▁àgg	-9.51629
▁blancs	-9.51698
der	-9.5173
▁jeunes	-9.51735
▁V	-9.51825
▁villages	-9.52005
▁trou	-9.52312
cc	-9.52568
▁pars	-9.52844
▁X	-9.52925
▁chef	-9.52963
▁vend	-9.53266
▁jëkk	-9.53331
▁neen	-9.53581
au	-9.53601
aime	-9.53643
▁jant	-9.53889
▁commence	-9.54047
▁tour	-9.54222
▁dëkke	-9.54228
▁jeu	-9.54253
▁aay	-9.54321
▁vienne	-9.54329
kër	-9.54386
▁épouse	-9.54454
▁corde	-9.5448
▁vache	-9.54493
▁jéem	-9.54548
▁petite	-9.54718
▁droit	-9.54736
▁Gor	-9.54777
où	-9.54809
▁yor	-9.54877
▁gan	-9.54896
▁set	-9.54929
▁nopp	-9.54962
▁tëdd	-9.55021
▁fecc	-9.55196
û	-9.55388
▁tekk	-9.5543
▁présent	-9.55641
▁ensemble	-9.55674
▁xanaa	-9.55674
▁jardin	-9.55675
▁Ndox	-9.55676
▁moins	-9.55684
exiler	-9.55685
▁dunyaa	-9.55686
▁mbubb	-9.55687
▁diiwaan	-9.55691
▁delloo	-9.55694
▁gerte	-9.55696
▁Foo	-9.55699
▁Yaw	-9.55709
▁moroom	-9.5571
▁ëmb	-9.55719
▁appris	-9.55726
▁soient	-9.55727
▁venir	-9.55741
▁bépp	-9.55743
▁nelaw	-9.55759
▁donc	-9.55763
▁assez	-9.5577
▁dehors	-9.55772
▁attention	-9.55772
▁café	-9.55773
▁kese	-9.55815
▁Sunu	-9.55815
▁ventre	-9.55817
▁demain	-9.55861
▁màgget	-9.55915
▁foo	-9.55927
▁màggat	-9.55974
▁queue	-9.56007
▁mépp	-9.56034
▁boog	-9.56035
▁ndey	-9.56057
▁xelam	-9.56085
▁avions	-9.56155
▁parents	-9.56322
▁montagnes	-9.56371
).	-9.56565
▁comment	-9.56767
▁ex	-9.56785
▁won	-9.56963
wu	-9.57018
▁sortir	-9.57042
▁buum	-9.57049
▁mujjee	-9.57187
▁tué	-9.57319
▁affaires	-9.57351
▁song	-9.57424
▁prends	-9.5744
▁jàll	-9.57585
▁waxtu	-9.57706
▁waaj	-9.57753
▁noirs	-9.57785
▁ciel	-9.57799
▁boole	-9.58227
eel	-9.58343
▁Bamenda	-9.58345
▁tombé	-9.58593
▁biens	-9.58751
waat	-9.58763
▁Ña	-9.59002
midi	-9.59163
portant	-9.59435
▁donner	-9.59548
▁wii	-9.5989
▁yar	-9.59936
iez	-9.60114
▁mar	-9.6017
ve	-9.60329
▁teen	-9.60385
▁per	-9.60763
▁julli	-9.60848
▁serpent	-9.60969
armée	-9.61004
▁garçon	-9.61077
▁lim	-9.61132
▁vivre	-9.61159
▁waxtaan	-9.61219
âge	-9.61337
amour	-9.61345
▁laisser	-9.61754
▁màtt	-9.61835
▁baaraam	-9.61924
▁dëgër	-9.62121
▁jën	-9.62164
▁Sénégal	-9.62318
oivent	-9.62324
▁Apporte	-9.62341
▁Maintenant	-9.62341
▁chaleur	-9.62341
▁complète	-9.62341
▁mémoire	-9.62341
▁ëe	-9.62342
▁wolof	-9.62342
▁voix	-9.62342
▁Aucun	-9.62343
▁House	-9.62343
▁Senegaal	-9.62343
▁morom	-9.6235
▁sauce	-9.62351
▁fête	-9.62352
▁passage	-9.62353
▁làrme	-9.62373
▁lëndëm	-9.62373
▁région	-9.62384
▁genn	-9.62399
▁Danu	-9.62424
▁trouvé	-9.62445
▁travailler	-9.62459
▁salle	-9.62472
▁tangor	-9.62492
▁dugub	-9.62502
▁ñan	-9.62516
▁làmp	-9.62558
▁gisee	-9.62576
▁ňaar	-9.62581
▁noire	-9.62588
▁tëj	-9.62603
▁tàll	-9.62615
▁muus	-9.62635
▁chercher	-9.62652
▁mb	-9.62667
▁Saa	-9.62671
▁tubaab	-9.62719
▁mesure	-9.6283
▁puisse	-9.62979
▁jotee	-9.63005
▁juróomi	-9.63045
▁Re	-9.63155
fin	-9.63247
▁xew	-9.63369
se	-9.63494
▁këram	-9.63539
▁nekkoon	-9.63773
▁partis	-9.63851
▁Se	-9.63857
tal	-9.64044
▁jënd	-9.64057
▁cherche	-9.6477
om	-9.64919
ét	-9.65315
▁amee	-9.65396
ine	-9.65441
ta	-9.6545
▁Teg	-9.65751
▁sonn	-9.65961
▁partira	-9.66078
▁rue	-9.66251
▁sou	-9.66365
gal	-9.66386
ag	-9.66417
▁sel	-9.66698
▁fàttali	-9.66716
ry	-9.66878
▁dayo	-9.66941
▁coupé	-9.67138
ook	-9.67247
▁baobab	-9.67877
▁fou	-9.67934
▁gros	-9.67965
▁souvenir	-9.68036
▁forme	-9.68319
kanam	-9.68444
▁jolie	-9.68458
instant	-9.68492
▁dig	-9.68642
▁Woo	-9.68957
▁pot	-9.69113
▁bakkan	-9.69341
▁noo	-9.69378
▁xëcc	-9.6939
mu	-9.69444
▁Moussa	-9.69484
▁chacun	-9.69484
▁nouveau	-9.69484
▁offert	-9.69484
▁pirogue	-9.69484
▁Êt	-9.69484
▁yéeg	-9.69485
▁palais	-9.69485
▁théière	-9.69486
▁kilifa	-9.69488
▁soldaar	-9.69491
▁booba	-9.695
▁Peut	-9.69501
▁voici	-9.69523
▁lampe	-9.69524
▁calebasse	-9.69525
▁xorom	-9.69525
▁surtout	-9.69529
▁Yéen	-9.69579
▁jaam	-9.69583
▁soow	-9.69588
▁samp	-9.69589
▁courant	-9.696
▁feneen	-9.69631
▁bouillie	-9.69647
▁relations	-9.69721
▁njaay	-9.69779
▁gendarmes	-9.69814
▁Ñii	-9.69839
▁Wall	-9.69894
us	-9.69938
▁denc	-9.70011
▁mucc	-9.70024
ion	-9.70088
▁jaan	-9.70113
herbes	-9.70145
▁seeti	-9.70204
▁taxoon	-9.70278
▁taat	-9.70476
lli	-9.70535
▁grands	-9.70835
▁ñaa	-9.71147
▁chat	-9.71263
ou	-9.71327
▁tàkk	-9.7145
▁tam	-9.71522
▁Mag	-9.71531
▁luy	-9.7164
▁Faat	-9.7171
▁saak	-9.71762
ème	-9.72055
▁taw	-9.72324
▁sori	-9.72624
rent	-9.73098
▁I	-9.73127
▁toj	-9.73501
ru	-9.73529
▁Ben	-9.73562
▁So	-9.73804
▁Bamendaa	-9.74005
▁couleurs	-9.74311
▁Ri	-9.74342
part	-9.7461
▁x	-9.7467
▁venus	-9.74729
▁baxa	-9.74754
▁séché	-9.74792
▁bleu	-9.74796
ëf	-9.74814
ses	-9.75041
▁telle	-9.7534
▁jóg	-9.75514
▁connu	-9.75577
▁Aw	-9.75709
▁difficile	-9.75727
▁mujje	-9.75742
▁poule	-9.75776
vec	-9.75863
abord	-9.76008
▁livre	-9.76091
école	-9.76161
ewul	-9.76242
après	-9.76454
tiir	-9.76508
aurais	-9.76518
▁U	-9.7656
▁mois	-9.76661
ire	-9.76751
rait	-9.76798
maa	-9.76838
▁retour	-9.76885
▁woy	-9.76903
sse	-9.76932
urs	-9.7707
▁Mecque	-9.77176
▁britannique	-9.77176
▁liberté	-9.77176
▁prochain	-9.77176
▁sokolaa	-9.77176
▁wirgo	-9.77176
▁chevaux	-9.77177
▁yuuxu	-9.77178
▁golo	-9.77179
▁ndab	-9.7718
▁Laisse	-9.77181
▁Viens	-9.77181
▁picc	-9.77181
▁màngo	-9.77185
gànnaar	-9.77193
▁gémmiñ	-9.77195
▁Moonte	-9.77196
▁weñ	-9.772
aux	-9.77205
▁journée	-9.77205
▁pourquoi	-9.77208
▁Lawbe	-9.7721
▁naqar	-9.77211
▁Maurice	-9.77216
▁damm	-9.77219
▁commencé	-9.77221
▁Frãs	-9.77222
▁animaux	-9.77223
▁yokk	-9.77227
▁propre	-9.77227
▁doxandéem	-9.77233
▁jéggi	-9.77234
▁séy	-9.77236
▁côte	-9.77244
▁sàmm	-9.7725
▁Ibo	-9.77254
▁fanaan	-9.77283
▁coucher	-9.77315
ro	-9.77319
▁fenn	-9.77349
▁yàpp	-9.77352
▁asamaan	-9.77356
▁wér	-9.77357
▁rek	-9.77374
▁yëngu	-9.77377
▁mettra	-9.77377
▁loxoom	-9.77404
▁rëdd	-9.7743
▁demkoon	-9.77444
▁Woto	-9.77449
▁sable	-9.7746
▁danu	-9.77502
▁moy	-9.77518
▁beek	-9.77563
▁jambes	-9.77741
▁Non	-9.77761
▁yaw	-9.77787
▁mba	-9.77924
▁jege	-9.77966
▁doomam	-9.77976
▁Jél	-9.77997
▁dajale	-9.78214
▁sew	-9.78224
▁yab	-9.78603
▁bool	-9.78865
▁taxul	-9.78914
▁sorti	-9.78929
▁chasse	-9.78985
▁ŋgii	-9.79048
oom	-9.79112
▁Leur	-9.79308
▁bett	-9.7945
▁ñii	-9.79462
bët	-9.7953
▁Defe	-9.79544
▁yàqu	-9.79669
▁pourra	-9.79687
▁wute	-9.79768
▁dëkku	-9.80075
anaam	-9.80123
▁defee	-9.80144
▁San	-9.80148
▁mêmes	-9.80166
or	-9.80286
▁yit	-9.80338
▁génne	-9.80388
▁téye	-9.80681
▁maye	-9.81004
ju	-9.8122
▁entier	-9.81293
▁dalal	-9.81536
▁liggéeye	-9.81606
▁pa	-9.81773
▁tund	-9.81785
endant	-9.81914
▁natte	-9.81924
ch	-9.82178
▁ré	-9.82306
▁gas	-9.82309
▁Daan	-9.83131
▁gise	-9.83227
▁regarde	-9.83275
▁coupe	-9.8342
nn	-9.8356
▁pres	-9.83714
▁pantalon	-9.8419
▁carte	-9.84283
os	-9.84285
▁dur	-9.84295
▁habit	-9.84309
▁fóot	-9.84448
2	-9.84458
Europe	-9.84459
▁wàll	-9.84464
▁entendu	-9.84499
endroit	-9.84534
réer	-9.84626
avez	-9.84765
▁Ces	-9.84826
▁ra	-9.84864
▁Ñoo	-9.84908
▁soxla	-9.85008
nd	-9.85013
▁visite	-9.85125
aj	-9.85208
▁ñett	-9.85233
▁instant	-9.85315
▁palanteer	-9.85351
âne	-9.85367
▁jëkkër	-9.85368
▁pense	-9.85378
▁Léeg	-9.85402
▁sens	-9.85412
▁fit	-9.85463
▁circoncis	-9.85502
alcool	-9.8551
▁xàmmee	-9.8551
▁jamano	-9.8551
▁lumière	-9.8551
▁silence	-9.8551
▁préparé	-9.8551
▁brousse	-9.8551
▁poste	-9.8551
▁ndaje	-9.85511
▁cosaan	-9.85514
▁tiim	-9.85514
▁pouvoir	-9.85515
saalum	-9.85518
▁Moytul	-9.85519
▁mariage	-9.85519
▁varan	-9.85521
▁mellentaan	-9.85526
▁Xaw	-9.85528
▁jëfandikoo	-9.85528
▁wépp	-9.85533
▁boroom	-9.85544
▁Musaa	-9.85547
▁mburu	-9.85556
▁réunion	-9.85557
▁élevé	-9.85557
▁xeex	-9.85558
▁fetal	-9.85559
gis	-9.85561
▁malade	-9.85563
▁mbóot	-9.85565
▁mbokk	-9.85565
▁Kañ	-9.85566
▁wutal	-9.85575
▁ràbb	-9.85582
▁tàmm	-9.85593
▁fépp	-9.8562
▁Toi	-9.85622
▁toogu	-9.85642
▁démb	-9.85651
▁chaise	-9.85657
▁parlé	-9.85684
▁clé	-9.85695
▁poudre	-9.857
▁pleurer	-9.85735
▁Bàyyil	-9.85789
▁oreilles	-9.85802
ie	-9.85804
▁bateau	-9.85825
▁ëtt	-9.85854
▁tukki	-9.85858
▁coeur	-9.85911
▁envoyée	-9.85945
▁allait	-9.86084
▁arbre	-9.86101
▁pierres	-9.86169
▁baaxul	-9.8618
▁Ñi	-9.86262
▁charge	-9.86299
▁agsee	-9.86337
▁ciment	-9.86338
▁médicaments	-9.86344
▁tar	-9.86357
▁kilo	-9.86372
▁dawal	-9.86575
▁bëggoon	-9.86599
▁jaune	-9.86632
▁devenu	-9.86641
▁dootul	-9.86643
▁monte	-9.86779
▁herbes	-9.86834
▁Mes	-9.86956
▁garçons	-9.87127
▁rab	-9.87233
een	-9.87294
▁rend	-9.87378
▁fleuves	-9.87464
▁nul	-9.87486
▁Jaam	-9.87496
▁tirer	-9.87691
▁ferme	-9.87761
entre	-9.87789
▁filles	-9.87858
▁reconnais	-9.87973
▁sor	-9.88075
▁muur	-9.88231
▁mur	-9.88392
ique	-9.88432
agul	-9.88648
tam	-9.88838
▁soog	-9.88891
gré	-9.89062
▁xéy	-9.89123
▁jàngal	-9.89182
▁elles	-9.89247
▁yax	-9.8928
▁for	-9.89379
▁nëbb	-9.89718
▁warul	-9.90221
▁fekke	-9.90363
▁ras	-9.90564
▁sii	-9.90936
▁fourn	-9.91232
▁égarée	-9.91268
kati	-9.91309
▁fil	-9.91465
▁Mas	-9.91507
▁laxas	-9.91543
▁aime	-9.91551
▁dég	-9.91607
▁fee	-9.91731
▁noon	-9.91949
àll	-9.92193
▁tombe	-9.92273
kki	-9.92323
▁miin	-9.92531
▁cassé	-9.92717
aube	-9.92755
▁booy	-9.92898
be	-9.92963
ure	-9.9299
▁sûr	-9.92995
▁Dina	-9.93095
▁conçue	-9.93208
ëkk	-9.93217
▁maladie	-9.93256
▁scorpion	-9.93322
▁maître	-9.93357
Ogoja	-9.93627
▁Jénd	-9.93751
agit	-9.93828
▁bo	-9.93846
▁bale	-9.93909
ois	-9.93981
▁dënn	-9.94071
▁manque	-9.94086
dire	-9.94325
▁gaañ	-9.94326
▁vrai	-9.94352
▁prépare	-9.94378
▁Doo	-9.94445
▁rapide	-9.94536
▁morceau	-9.94561
▁dirige	-9.94591
▁Arrête	-9.946
▁Guwiyaan	-9.946
▁Homme	-9.946
▁renversé	-9.946
▁Guyane	-9.94601
▁Passe	-9.94601
▁toppatoo	-9.94601
▁juddoo	-9.94601
▁pañe	-9.94601
▁Màkka	-9.94601
▁Xammee	-9.94601
▁wow	-9.94601
▁vérité	-9.94603
zone	-9.94603
▁yëkkati	-9.94604
▁Combi	-9.94605
▁Sérère	-9.94605
▁rawati	-9.94606
▁Appelle	-9.94607
▁xuus	-9.94608
▁dekkali	-9.94609
▁Pourtant	-9.9461
▁juste	-9.94618
▁dénd	-9.9462
▁bëñ	-9.9463
▁proche	-9.9464
▁cuit	-9.94642
▁assurément	-9.94648
▁ganaar	-9.94662
▁commerce	-9.94674
▁toogukaay	-9.94675
▁remis	-9.94679
▁kayit	-9.94715
▁bekk	-9.94737
▁Dégg	-9.94747
▁rappelle	-9.94762
▁soosu	-9.94829
▁yëf	-9.94836
▁naissance	-9.94841
▁retraite	-9.94851
▁metit	-9.94889
imagine	-9.94926
▁yenu	-9.94931
▁rage	-9.94937
▁Kii	-9.94965
▁battu	-9.94966
▁viennent	-9.94998
▁ëllëg	-9.95033
▁rendu	-9.95046
▁bëy	-9.95113
▁pax	-9.95129
▁Mo	-9.95163
▁dugal	-9.95203
▁waroon	-9.95243
▁masul	-9.95286
▁Naan	-9.9529
▁autrement	-9.95317
▁vite	-9.95323
saŋ	-9.95357
▁joor	-9.95437
▁As	-9.95448
▁dër	-9.95452
▁njiit	-9.9553
▁unique	-9.95545
▁tur	-9.9557
aar	-9.95595
▁nawet	-9.95627
taient	-9.95628
▁po	-9.95781
▁lutte	-9.95853
▁tire	-9.95872
ottali	-9.95899
▁diir	-9.95969
▁mille	-9.95977
▁âge	-9.96004
▁Sud	-9.96167
▁meloon	-9.96219
▁Bët	-9.96684
▁kon	-9.96759
▁xamoon	-9.96913
▁fall	-9.97077
▁woowu	-9.97142
▁cent	-9.9731
▁bëre	-9.97502
▁Mari	-9.97585
alal	-9.97893
▁soup	-9.97976
lo	-9.98167
▁nan	-9.98255
▁pri	-9.98411
▁Ou	-9.98454
garder	-9.98473
▁jaa	-9.98559
▁Booy	-9.98784
▁jam	-9.98934
▁raxas	-9.98972
▁cases	-9.98979
▁coups	-9.99438
sin	-9.99484
▁Lui	-9.99587
▁couper	-9.99694
vant	-9.99723
▁désert	-9.99739
▁poissons	-9.9976
▁fera	-9.99764
ter	-10.0002
▁doxe	-10.0031
▁Indi	-10.0037
gaa	-10.0038
▁é	-10.0041
▁ira	-10.0056
af	-10.0062
kk	-10.0064
àpp	-10.0066
▁suffi	-10.0074
▁tóo	-10.0118
▁boot	-10.0121
▁defare	-10.0126
▁venue	-10.0151
▁Ren	-10.0191
▁mari	-10.0198
ront	-10.0218
pe	-10.0244
▁Bii	-10.0259
▁rêve	-10.0279
▁sopp	-10.03
▁Vo	-10.0314
abri	-10.0317
▁dromadaire	-10.0326
oeil	-10.0328
▁goût	-10.0328
▁doigt	-10.0332
▁branche	-10.0335
▁wan	-10.034
▁baree	-10.0342
importe	-10.0348
able	-10.0352
impression	-10.0353
affaire	-10.0363
use	-10.0364
▁kook	-10.037
▁ven	-10.0372
atum	-10.0375
▁féex	-10.038
▁Ya	-10.0384
▁pënd	-10.0388
▁bànneex	-10.0407
▁Lekk	-10.0408
▁laissé	-10.0413
▁sabar	-10.0419
▁xob	-10.0422
▁présente	-10.0428
▁sab	-10.0439
▁sort	-10.044
▁ñor	-10.0457
▁yegg	-10.046
Angleterre	-10.046
▁Achète	-10.046
▁Casamance	-10.046
▁marmite	-10.046
▁plaît	-10.046
▁préfère	-10.046
▁société	-10.046
▁projet	-10.046
▁comport	-10.046
▁subë	-10.046
▁tranquille	-10.046
▁mosquée	-10.046
▁puissance	-10.046
▁reconnu	-10.046
▁Tabaski	-10.046
▁Wolof	-10.046
▁front	-10.046
▁piège	-10.046
▁janook	-10.0461
▁Réew	-10.0461
▁banqaas	-10.0461
▁Nord	-10.0461
▁parfois	-10.0461
▁Dakar	-10.0461
▁Fatim	-10.0461
▁douceur	-10.0461
▁resté	-10.0461
▁libre	-10.0462
▁meew	-10.0462
▁wacc	-10.0462
▁gazelle	-10.0462
▁début	-10.0463
▁nombreux	-10.0463
▁Rax	-10.0463
▁askan	-10.0463
▁fût	-10.0463
▁sentiment	-10.0463
▁ceinture	-10.0464
▁vendre	-10.0464
▁appelé	-10.0464
▁caabi	-10.0464
▁seetsi	-10.0464
▁këll	-10.0465
▁wor	-10.0465
▁féete	-10.0465
▁disparu	-10.0466
▁ndigg	-10.0466
▁partout	-10.0467
▁seetaan	-10.0468
▁étions	-10.0468
▁Noona	-10.0477
▁nombre	-10.048
▁cercle	-10.0482
▁pourtant	-10.0483
▁waañ	-10.0483
▁panier	-10.0484
aata	-10.0496
▁jë	-10.0499
▁ndànk	-10.0502
▁détourn	-10.0509
▁fleurs	-10.0509
▁dirait	-10.0511
▁neexul	-10.0514
▁Kaay	-10.0516
▁tàngal	-10.052
▁souris	-10.0523
▁jeté	-10.0524
▁bes	-10.0533
▁monter	-10.0538
▁con	-10.054
▁No	-10.0544
▁cee	-10.0545
fukk	-10.0546
▁menn	-10.055
▁tay	-10.0554
entendre	-10.0562
▁mbal	-10.0564
▁yéene	-10.0573
▁aar	-10.0577
▁Nag	-10.0587
▁or	-10.0587
▁hautes	-10.0595
▁cours	-10.0602
▁pince	-10.0604
▁taille	-10.0604
ka	-10.0604
▁tontu	-10.0607
▁balle	-10.0613
▁Yé	-10.062
▁w	-10.0626
▁cor	-10.063
▁avez	-10.0652
óon	-10.0655
▁v	-10.0655
aatu	-10.0656
▁ment	-10.0659
▁ceci	-10.0665
▁souffle	-10.0686
▁natt	-10.0688
ler	-10.0688
▁eû	-10.0698
▁Me	-10.0699
▁ét	-10.0703
▁laisses	-10.0703
▁cr	-10.0705
▁naaw	-10.0709
▁Cere	-10.0717
▁neneen	-10.0717
▁kaas	-10.0732
▁jéle	-10.0742
▁tux	-10.0752
▁tomber	-10.0758
llions	-10.0775
▁commencer	-10.0776
▁waar	-10.0776
▁garabi	-10.078
▁léeb	-10.0803
▁arrivés	-10.0808
no	-10.0812
gu	-10.0813
eŋ	-10.0815
▁mbaar	-10.0818
▁laax	-10.0823
▁partes	-10.0823
ok	-10.0836
▁joue	-10.09
▁routes	-10.0921
▁sañ	-10.0925
▁fale	-10.0932
xam	-10.0947
▁lax	-10.095
▁ñaw	-10.0953
▁kowe	-10.0963
èrent	-10.0978
too	-10.098
▁vide	-10.098
▁tëgg	-10.0987
quelles	-10.0989
▁Puis	-10.1098
▁teew	-10.1118
▁max	-10.1119
▁tëb	-10.112
▁Vas	-10.1146
▁gris	-10.1161
urno	-10.1166
▁diw	-10.1179
▁maanaa	-10.1182
▁dure	-10.1187
▁gardé	-10.1199
▁Mënul	-10.1209
▁court	-10.1212
eelu	-10.1217
▁làq	-10.1234
▁ñëwul	-10.1262
éej	-10.1277
▁ser	-10.1292
▁gëm	-10.1348
appelle	-10.1358
kom	-10.1378
▁ber	-10.1397
▁jekk	-10.1399
taal	-10.1411
▁langue	-10.1413
▁brave	-10.1427
▁ñeme	-10.1436
oiseau	-10.1438
▁bâton	-10.1443
ard	-10.1443
aura	-10.1447
▁kat	-10.1448
▁pluie	-10.145
ade	-10.1452
▁montagne	-10.1453
aide	-10.1463
▁kee	-10.1466
nekk	-10.1477
▁chaud	-10.1479
▁Koo	-10.148
enti	-10.148
▁masu	-10.1481
▁port	-10.1485
▁étranger	-10.1486
réew	-10.1486
cation	-10.1488
▁cons	-10.1505
▁tant	-10.1517
▁profit	-10.1523
epuis	-10.1525
▁bor	-10.1532
fu	-10.1535
▁sér	-10.1551
wuma	-10.1556
▁jàkk	-10.1559
▁ren	-10.156
tum	-10.1561
▁vi	-10.1562
▁entra	-10.1564
▁jariñ	-10.1564
▁touche	-10.1565
▁chapeau	-10.1569
▁failli	-10.157
▁alla	-10.157
▁Biyaafaraa	-10.1571
▁Déedéet	-10.1571
▁Laobé	-10.1571
▁enceinte	-10.1571
▁keroog	-10.1571
▁meilleur	-10.1571
▁màndarga	-10.1571
▁possible	-10.1571
▁wëndéelu	-10.1571
▁compris	-10.1571
▁tubéy	-10.1571
▁Ainsi	-10.1571
▁soudain	-10.1571
▁poitrine	-10.1571
▁magasin	-10.1571
▁wurus	-10.1571
▁sanc	-10.1571
▁Jamono	-10.1571
▁rëcc	-10.1571
▁protection	-10.1571
▁trente	-10.1571
▁faudra	-10.1571
▁boeuf	-10.1571
▁bomb	-10.1571
▁Almaañ	-10.1571
▁plage	-10.1571
▁Yow	-10.1572
▁sépar	-10.1572
▁Monsieur	-10.1572
▁tamarin	-10.1572
▁wanag	-10.1572
▁gauche	-10.1572
argile	-10.1572
▁sotti	-10.1572
▁caillé	-10.1573
▁bërëb	-10.1573
▁ŋgoon	-10.1573
▁départ	-10.1573
▁foofa	-10.1574
▁gox	-10.1574
▁dernière	-10.1574
▁déjeuner	-10.1574
▁frontière	-10.1574
▁gëléem	-10.1575
▁mbër	-10.1575
▁Teewul	-10.1576
▁morceaux	-10.1576
▁soxna	-10.1576
▁Dëgg	-10.1577
▁servir	-10.1577
▁thé	-10.1578
▁extrême	-10.1578
▁coow	-10.1579
▁savane	-10.1579
▁quatre	-10.1579
▁Mbir	-10.1579
▁meetar	-10.158
▁demandé	-10.158
▁nature	-10.158
▁woowe	-10.1581
▁foyer	-10.1581
▁sèche	-10.1582
▁Niis	-10.1583
▁weesu	-10.1584
▁jàppale	-10.1586
▁serais	-10.1587
▁suite	-10.1588
▁éclat	-10.159
▁jaŋg	-10.159
▁Bëy	-10.1591
▁tooy	-10.1592
indépendance	-10.1592
▁bënn	-10.1593
▁jaxasoo	-10.1594
▁objets	-10.1594
▁meubles	-10.1594
▁daaneel	-10.1595
▁yeew	-10.1595
▁tresses	-10.1597
▁insectes	-10.1602
▁Bala	-10.1604
▁reçu	-10.1604
▁sëkk	-10.1604
▁déggoo	-10.1606
▁Plu	-10.1608
▁Doomu	-10.161
▁jëf	-10.161
▁enfance	-10.1613
▁retrouver	-10.1618
▁gisaat	-10.1619
▁Wu	-10.1624
▁reer	-10.1627
▁dënnu	-10.1627
▁kawar	-10.1629
tant	-10.1631
liers	-10.1635
▁boy	-10.1639
▁bas	-10.164
▁lieux	-10.1643
▁canne	-10.1644
▁pouvai	-10.1647
▁arachides	-10.1649
▁kowam	-10.165
▁vendu	-10.1651
▁sauvages	-10.1655
▁ñaaw	-10.1659
▁individu	-10.1661
▁époque	-10.1662
▁pi	-10.1664
▁kàttan	-10.1664
▁kafe	-10.1665
▁Nan	-10.1668
▁gënoon	-10.1677
▁Diw	-10.1681
▁coono	-10.1683
▁six	-10.1685
▁provi	-10.1689
tey	-10.1689
▁conti	-10.1691
▁Màng	-10.1695
▁plant	-10.17
▁bâtons	-10.1701
▁meññ	-10.1702
▁attends	-10.1705
hez	-10.1707
▁Mënuma	-10.1712
▁War	-10.1716
▁doigts	-10.1716
▁jog	-10.1718
▁jeux	-10.1721
▁école	-10.1722
▁ñooñu	-10.1725
▁bul	-10.1729
▁taamu	-10.1732
▁iras	-10.1738
▁bula	-10.174
ab	-10.1745
▁yàq	-10.1774
▁Mar	-10.1786
▁tànki	-10.1797
▁Bunt	-10.1803
▁ree	-10.1813
▁viennes	-10.1816
▁digg	-10.1825
aurait	-10.1831
▁baraada	-10.1834
tti	-10.1835
ga	-10.1857
▁Sé	-10.1857
▁waxoon	-10.1883
man	-10.1884
▁accroché	-10.189
▁nez	-10.1907
▁tan	-10.1916
eñ	-10.1921
▁march	-10.1923
▁cou	-10.1925
▁faite	-10.1935
▁ub	-10.1948
▁Toute	-10.1953
▁geen	-10.1977
▁Alma	-10.1981
▁jàppe	-10.1981
▁der	-10.2009
▁Naar	-10.2012
▁Tay	-10.2012
▁bëtt	-10.2013
▁bassin	-10.2018
mes	-10.2035
▁jógee	-10.2047
▁clair	-10.2073
▁Ind	-10.2078
tul	-10.2078
quel	-10.2082
▁champs	-10.209
gue	-10.209
▁dë	-10.215
aayu	-10.2168
▁Dañ	-10.2173
▁lance	-10.2189
eg	-10.2211
▁cat	-10.2213
▁mise	-10.224
iens	-10.2251
avant	-10.2276
illes	-10.2283
▁Bar	-10.2308
onne	-10.2309
laay	-10.2338
ngi	-10.2369
▁yat	-10.2373
▁cru	-10.2396
ba	-10.2422
▁be	-10.2428
prit	-10.2438
▁pose	-10.244
▁liy	-10.245
écart	-10.2456
▁sago	-10.2472
tés	-10.2476
▁dab	-10.2476
▁ati	-10.2492
tion	-10.2492
▁attend	-10.2494
▁maak	-10.2508
ance	-10.2514
jant	-10.2522
▁lonk	-10.256
▁Kor	-10.2574
▁réewu	-10.2574
▁jubal	-10.2584
aate	-10.2585
▁français	-10.2621
▁pom	-10.2646
▁aj	-10.265
▁domaine	-10.2661
ier	-10.2661
▁Baax	-10.2662
▁bal	-10.2685
▁fen	-10.2688
▁tambour	-10.2689
odeur	-10.2691
arachide	-10.2691
▁chèvre	-10.2692
▁fenêtre	-10.2694
▁médicament	-10.2695
▁fruit	-10.2697
autorité	-10.2711
heure	-10.2711
aana	-10.2717
▁africain	-10.2717
époque	-10.272
individu	-10.272
aventure	-10.2722
Omar	-10.2726
dëgg	-10.2737
if	-10.2742
▁jànj	-10.2749
▁soi	-10.2755
benn	-10.2772
▁tiit	-10.2779
gisu	-10.2781
▁yég	-10.2781
▁kàdd	-10.2783
▁donn	-10.2785
▁sec	-10.2798
▁Doom	-10.2799
▁juum	-10.2805
▁yilif	-10.2809
▁légère	-10.2815
▁simple	-10.2817
▁chocolat	-10.2818
ów	-10.2818
▁rajo	-10.2818
eaucoup	-10.282
▁Éta	-10.2821
▁Legoos	-10.2821
▁Victoria	-10.2821
▁brusquement	-10.2821
▁ensuite	-10.2821
▁radio	-10.2821
▁veulent	-10.2821
▁beurre	-10.2821
▁période	-10.2821
▁baptême	-10.2821
▁palaat	-10.2821
▁terrain	-10.2821
▁quartier	-10.2821
▁Picc	-10.2821
▁Xool	-10.2821
▁nourriture	-10.2821
▁manguier	-10.2821
▁époux	-10.2821
▁Coran	-10.2821
▁poussière	-10.2821
▁rideau	-10.2821
▁gàncax	-10.2821
▁Chacun	-10.2821
▁Jàng	-10.2821
▁construction	-10.2821
▁Regarde	-10.2821
▁mourir	-10.2822
▁classe	-10.2822
▁tubay	-10.2822
▁Fekk	-10.2822
▁bruit	-10.2822
▁également	-10.2822
▁grosse	-10.2822
▁hutte	-10.2822
▁janeer	-10.2823
▁campement	-10.2823
▁lonet	-10.2823
▁Officer	-10.2823
▁paille	-10.2823
▁toilettes	-10.2823
▁Pose	-10.2823
▁Bokk	-10.2823
▁jinne	-10.2825
▁yëngal	-10.2825
▁fitna	-10.2825
▁maternel	-10.2826
▁frappé	-10.2826
▁courir	-10.2826
▁farine	-10.2827
▁piment	-10.2828
▁rythme	-10.2828
▁écrit	-10.2828
▁cœur	-10.2829
▁vingt	-10.2829
▁mbagg	-10.2829
▁suukar	-10.2829
▁Xaj	-10.2831
▁chaussettes	-10.2831
▁termites	-10.2831
▁choisi	-10.2831
▁Pël	-10.2832
▁oncle	-10.2832
▁Ko	-10.2833
▁camp	-10.2833
▁voisins	-10.2834
▁fajkat	-10.2835
▁riir	-10.2836
▁gàddu	-10.2836
▁kukk	-10.2836
▁kéemaane	-10.2837
▁nijaay	-10.2839
▁existe	-10.284
▁battre	-10.2841
▁cacher	-10.2842
▁honnête	-10.2842
▁prête	-10.2844
▁raconter	-10.2845
▁rencontrer	-10.2847
▁voulu	-10.2847
▁tolloo	-10.2847
▁nuages	-10.2848
▁mouillé	-10.2849
entends	-10.285
▁néew	-10.2852
▁jéll	-10.2854
image	-10.2854
▁préparer	-10.2855
▁Nice	-10.2856
▁construi	-10.2856
▁Kookule	-10.286
▁idée	-10.2867
▁histoire	-10.2869
▁ailleurs	-10.2869
▁jax	-10.2874
▁soppi	-10.2875
▁gejje	-10.2877
▁santé	-10.2879
aaxaan	-10.2881
▁baayam	-10.2884
▁hier	-10.2887
▁sës	-10.2887
▁dëj	-10.2888
▁raay	-10.2888
▁acheter	-10.289
istrict	-10.2891
fi	-10.2893
▁gàttal	-10.2894
▁regarder	-10.2894
▁mukk	-10.2896
▁xat	-10.2897
▁bëggée	-10.2899
▁palmes	-10.29
▁mangues	-10.29
▁jub	-10.29
▁xaritam	-10.2907
▁caillou	-10.2908
▁troupeau	-10.2908
▁réunis	-10.2913
▁permet	-10.2914
▁biral	-10.2916
▁sommet	-10.2919
▁cëpp	-10.292
▁Mer	-10.2929
▁darab	-10.293
▁jéndal	-10.293
▁të	-10.2934
▁paroles	-10.2935
▁sog	-10.2936
▁yaayam	-10.2942
▁tekki	-10.2942
▁Parle	-10.2945
▁chèvres	-10.2952
▁we	-10.2953
▁Jaay	-10.2954
andoo	-10.2955
▁lëf	-10.296
espère	-10.2967
▁Ki	-10.2991
▁bel	-10.2999
▁aurais	-10.3004
▁scorpions	-10.3005
▁dés	-10.3013
▁rends	-10.3017
▁viendrai	-10.3022
▁entrer	-10.3023
▁amour	-10.3033
▁rester	-10.3046
▁forte	-10.3048
▁lourd	-10.3048
▁rencontre	-10.3061
▁mbe	-10.3071
ction	-10.3071
▁os	-10.3077
▁haute	-10.3079
▁nja	-10.3083
▁wàccee	-10.3083
▁chant	-10.3086
▁rus	-10.3092
▁mett	-10.3108
▁chemins	-10.3111
rie	-10.3112
▁yóbb	-10.313
▁mala	-10.3135
▁boue	-10.3135
▁tôt	-10.3138
▁tante	-10.3156
▁dix	-10.3167
▁dexu	-10.3168
▁Nee	-10.3171
▁face	-10.3171
▁Abal	-10.3173
ngui	-10.3174
ations	-10.3177
ssent	-10.3184
▁suma	-10.3191
▁noms	-10.3202
▁mënee	-10.3222
mam	-10.3233
▁allée	-10.3245
gi	-10.3252
▁trait	-10.3254
▁seau	-10.3258
▁dunde	-10.3265
▁Nd	-10.3288
ande	-10.3293
uf	-10.3305
▁naat	-10.3317
▁ha	-10.3321
gé	-10.3323
près	-10.3332
▁photos	-10.3337
co	-10.3339
▁couche	-10.3345
ition	-10.3352
▁wiy	-10.3355
▁nekkul	-10.3359
effe	-10.3363
▁Jo	-10.337
kar	-10.3378
▁Bon	-10.3399
ànd	-10.3406
▁siiw	-10.3421
waan	-10.3424
▁oui	-10.3425
▁abal	-10.345
ŋŋ	-10.3455
qu	-10.3463
ñeen	-10.3464
▁jénde	-10.3474
▁xas	-10.349
▁mënuma	-10.3528
▁lenn	-10.356
aaka	-10.3565
▁plan	-10.3585
▁jan	-10.3601
▁connaît	-10.361
ans	-10.3623
▁jee	-10.3648
▁maisons	-10.3649
▁tàgg	-10.3651
erai	-10.3662
▁fur	-10.3685
▁Ka	-10.3689
▁gale	-10.3695
▁sonal	-10.3696
▁pan	-10.3703
vers	-10.3703
▁xe	-10.3708
oindre	-10.3727
ole	-10.3746
lé	-10.3763
▁arrivée	-10.3798
tation	-10.3799
▁sain	-10.3802
▁wadd	-10.3805
▁vol	-10.3811
vez	-10.3812
▁vus	-10.3814
▁Wa	-10.3849
óo	-10.3857
▁étais	-10.3858
ré	-10.3866
▁arrêté	-10.3868
umaa	-10.387
kaay	-10.3876
▁jou	-10.389
▁daawu	-10.3918
▁certain	-10.393
kkal	-10.3931
ille	-10.394
▁moto	-10.3964
ge	-10.3966
▁refuse	-10.3992
▁buñ	-10.4025
▁drap	-10.4034
▁më	-10.406
war	-10.4065
attend	-10.4076
▁wàcc	-10.4082
▁fusil	-10.4103
▁cuillère	-10.4105
▁fatigué	-10.4118
▁nouvelle	-10.412
▁dessin	-10.413
▁parole	-10.4137
▁pareil	-10.4137
▁Mba	-10.4144
ñax	-10.4144
▁trans	-10.415
▁joli	-10.4152
▁conduit	-10.4153
con	-10.4155
▁lor	-10.4156
▁caaxaan	-10.4166
waar	-10.4173
▁goog	-10.4176
▁col	-10.418
▁né	-10.4183
▁apporte	-10.4191
béer	-10.4193
▁tày	-10.4195
▁junni	-10.4197
▁répond	-10.4198
ňu	-10.4204
▁lesquel	-10.4207
▁reç	-10.4207
ndey	-10.4219
▁calme	-10.4221
emblant	-10.4222
▁Xare	-10.4225
▁arriva	-10.4231
▁mbind	-10.4231
ière	-10.4233
▁njariñ	-10.4234
àdd	-10.4238
▁saxaar	-10.4241
▁vit	-10.4241
▁jëkke	-10.4241
issant	-10.4246
▁Ho	-10.4249
▁vue	-10.425
▁commun	-10.425
apprécie	-10.425
extérieur	-10.425
▁Allez	-10.425
▁Attache	-10.425
▁Ayijoo	-10.425
▁Kaolack	-10.425
▁Kawlax	-10.425
▁Soudain	-10.425
▁Yaakaar	-10.425
▁bonheur	-10.425
▁bâtiment	-10.425
▁charbon	-10.425
▁excessive	-10.425
▁grâce	-10.425
▁haricot	-10.425
▁immense	-10.425
▁màrse	-10.425
▁papier	-10.425
▁proximité	-10.425
▁recherche	-10.425
▁rêvé	-10.425
▁tàmbali	-10.425
▁tâche	-10.425
▁tôle	-10.425
▁Óbudu	-10.425
▁djinn	-10.425
▁grenier	-10.425
▁sukkuraat	-10.425
▁Deŋk	-10.425
▁Waxtaan	-10.425
▁caractère	-10.425
▁condition	-10.425
▁contact	-10.425
▁enlevé	-10.425
▁kàllaama	-10.425
▁Gaynd	-10.425
▁vêtu	-10.425
▁xibaar	-10.425
▁suukër	-10.425
▁Guddi	-10.425
▁Gannaaw	-10.425
▁dóomu	-10.425
▁facile	-10.425
▁xayma	-10.425
▁docteur	-10.425
▁croyai	-10.425
arrière	-10.425
▁vaisselle	-10.425
▁Palais	-10.425
▁réalité	-10.425
▁joxoñ	-10.425
▁Prophète	-10.425
▁joie	-10.425
▁yànj	-10.425
▁peinture	-10.425
▁travailleurs	-10.425
▁solitude	-10.4251
▁gouvernement	-10.4251
▁werante	-10.4251
entourent	-10.4251
▁plateaux	-10.4251
▁Fomp	-10.4251
▁connaissais	-10.4251
Meew	-10.4251
▁daŋar	-10.4251
▁images	-10.4251
▁comprendre	-10.4251
▁doj	-10.4251
▁yeksi	-10.4251
▁boire	-10.4252
▁Gën	-10.4252
▁oublié	-10.4253
▁séq	-10.4253
▁souvent	-10.4253
▁jumtukaay	-10.4253
▁Booba	-10.4253
▁lièvre	-10.4253
▁Ndakaaru	-10.4253
▁raglu	-10.4253
▁goro	-10.4254
▁prostitu	-10.4254
▁gunge	-10.4255
▁pardonne	-10.4255
▁voudrai	-10.4256
▁Ganaar	-10.4256
▁rire	-10.4256
▁voulait	-10.4257
▁loppitaan	-10.4257
▁campagne	-10.4258
▁coude	-10.4258
▁gàddaay	-10.4258
▁000	-10.4259
▁dessous	-10.4259
▁sept	-10.4259
▁simoŋ	-10.4259
▁Suba	-10.4259
▁dirigeant	-10.4261
▁fâché	-10.4261
▁kaani	-10.4261
▁fesses	-10.4261
▁grains	-10.4261
offrir	-10.4262
bopp	-10.4262
▁cuuj	-10.4263
▁ayib	-10.4264
▁jàdd	-10.4264
▁soigner	-10.4264
▁portait	-10.4264
seoir	-10.4264
▁Ayaa	-10.4266
▁suivi	-10.4266
▁naqadi	-10.4266
▁Coupe	-10.4266
▁pourrai	-10.4267
▁charme	-10.427
▁taq	-10.427
▁alkaati	-10.4271
▁beaux	-10.4272
▁lettre	-10.4273
▁porteurs	-10.4273
▁juddu	-10.4274
▁Nj	-10.4274
▁fatt	-10.4275
▁sàcc	-10.4275
▁ňuul	-10.4278
▁dof	-10.4278
▁taaru	-10.428
▁dékku	-10.4281
▁daagu	-10.4281
▁ame	-10.4282
▁tiens	-10.4284
▁laajte	-10.4284
▁Jambaa	-10.4285
▁Foofu	-10.4285
▁comprends	-10.4287
▁yomb	-10.4288
▁Guy	-10.4289
▁ekool	-10.4289
▁kawas	-10.429
▁mokk	-10.429
▁déet	-10.429
▁àngale	-10.4293
▁créé	-10.4294
▁tuuru	-10.4294
▁bukki	-10.4295
▁Jàppal	-10.4296
▁këpp	-10.4296
▁vaste	-10.4298
arachides	-10.4299
▁gëdd	-10.4299
▁ñówee	-10.43
▁suñ	-10.43
vette	-10.43
▁militaires	-10.4301
▁boppu	-10.4302
▁mariée	-10.4305
▁Bëgguma	-10.4305
▁linge	-10.4306
▁raconte	-10.4307
▁lève	-10.4308
▁wetam	-10.4312
▁xobi	-10.4313
▁log	-10.4314
▁Yoon	-10.4315
▁humaine	-10.4315
▁neuf	-10.4316
▁làqu	-10.4317
▁courses	-10.4318
▁boutique	-10.4321
▁xoolee	-10.4324
▁seng	-10.4325
▁anglaise	-10.4328
nq	-10.4331
▁tiré	-10.4333
▁disait	-10.4334
▁travaille	-10.4335
▁district	-10.4338
▁jeeg	-10.4338
▁cesse	-10.4345
imaginer	-10.4352
▁feeñu	-10.4363
▁yaak	-10.4368
▁jóo	-10.437
▁chaude	-10.4373
▁pay	-10.4376
oto	-10.4377
▁wane	-10.439
▁fuir	-10.439
▁Aka	-10.4394
▁seetu	-10.4396
▁kaa	-10.4398
▁Dikk	-10.44
▁fenêtres	-10.4402
▁contes	-10.4407
▁finira	-10.4408
uwaay	-10.4414
▁dëkkoon	-10.4424
▁coloniale	-10.4424
▁tuur	-10.4427
géej	-10.4442
▁crise	-10.4444
▁branches	-10.4444
▁prêt	-10.4453
▁jiitu	-10.4453
huile	-10.4468
▁française	-10.4486
▁Ñàkku	-10.4489
▁pleine	-10.4502
▁létt	-10.4517
nie	-10.452
▁regardes	-10.4524
▁vivres	-10.4546
▁ŋ	-10.4555
nces	-10.4559
▁Yan	-10.4566
▁cordes	-10.4567
▁luñ	-10.4568
▁certaine	-10.4572
▁fume	-10.4573
▁cassée	-10.4578
wuñu	-10.4602
▁daaw	-10.4605
▁rendi	-10.4626
▁fett	-10.4627
sa	-10.465
▁baŋ	-10.4653
▁dirai	-10.4654
▁cherch	-10.4673
▁daawul	-10.4675
àcc	-10.4678
▁masuma	-10.4685
▁premières	-10.4692
▁dëppoo	-10.4692
▁mbaal	-10.4701
▁jote	-10.4722
nce	-10.4727
▁Car	-10.4735
▁cache	-10.4746
ières	-10.4786
▁àtte	-10.4789
raas	-10.4803
lure	-10.4805
▁jànq	-10.4807
niki	-10.4832
▁al	-10.484
▁argent	-10.484
▁grandi	-10.4844
▁ñooña	-10.4849
▁liggéeyu	-10.485
aanaka	-10.4875
▁armé	-10.4877
atu	-10.4882
▁fiir	-10.4915
mb	-10.4928
ulwoon	-10.4929
kh	-10.4958
achètera	-10.4964
iques	-10.4971
▁Buy	-10.4983
▁mbo	-10.4998
▁quitte	-10.5012
▁ñee	-10.5022
ll	-10.5031
sant	-10.5038
▁mës	-10.5043
lante	-10.5058
▁rempli	-10.5071
▁Daaw	-10.5077
▁Mbe	-10.5081
▁inter	-10.5084
ëñ	-10.5093
▁wuy	-10.5106
▁plat	-10.5115
▁Fo	-10.5116
▁levé	-10.512
▁Ñe	-10.5159
▁achète	-10.522
▁naam	-10.5233
aider	-10.5237
oof	-10.5242
jo	-10.5249
▁attaché	-10.5251
bal	-10.5263
▁outil	-10.5264
▁Gan	-10.5268
▁Xe	-10.5271
he	-10.5281
▁chambres	-10.5295
▁habite	-10.5305
▁faar	-10.5331
eeku	-10.5373
▁ñibbi	-10.5379
ooy	-10.5381
▁tir	-10.5382
ëddu	-10.5388
▁mo	-10.539
eef	-10.539
▁Quelqu	-10.5395
▁nguur	-10.5452
▁utilise	-10.5455
▁vin	-10.5464
▁marie	-10.5464
▁Ke	-10.547
▁faf	-10.5484
▁malheur	-10.5484
▁Nja	-10.5514
vons	-10.552
tions	-10.5525
▁kam	-10.5573
tim	-10.5585
▁sub	-10.5595
ts	-10.5601
▁découvert	-10.5615
▁baña	-10.5615
▁auto	-10.5618
▁petites	-10.5619
▁cultiv	-10.5626
añ	-10.5636
▁décor	-10.5639
▁Daŋg	-10.5646
▁différent	-10.5657
ban	-10.5658
▁brûle	-10.5668
▁ressembl	-10.568
▁arriver	-10.568
▁sin	-10.5685
▁gal	-10.5702
▁tomba	-10.5702
▁nañoo	-10.5705
akkal	-10.571
bande	-10.5717
ombre	-10.5722
▁sell	-10.5749
▁bavard	-10.5758
▁colonial	-10.5758
mar	-10.5763
▁wàcce	-10.5765
▁règle	-10.5772
▁couché	-10.5775
▁lem	-10.5784
▁policier	-10.5784
empêche	-10.5787
▁sauvage	-10.5789
avion	-10.5794
ënd	-10.5799
▁pierre	-10.5801
autrefois	-10.5801
▁Màgg	-10.5807
▁ouvert	-10.5809
çant	-10.581
avenir	-10.5812
▁craint	-10.5813
dolli	-10.5813
écouter	-10.5813
▁arraché	-10.5814
▁mouch	-10.5816
▁Port	-10.5816
jafe	-10.5818
tubaab	-10.5818
agir	-10.5819
jékk	-10.5819
O	-10.582
▁perdu	-10.582
Yàlla	-10.5821
▁gënal	-10.5822
▁anglais	-10.5824
▁futt	-10.5826
▁jambe	-10.583
▁envoyé	-10.5831
nde	-10.5847
ins	-10.5849
occupe	-10.5854
▁repas	-10.5855
▁Bàyyi	-10.5858
ñuy	-10.5861
▁gànnaay	-10.5863
ture	-10.5868
andiku	-10.5871
errière	-10.5871
▁marque	-10.5873
ëgg	-10.5877
ête	-10.5881
ànja	-10.5883
▁taax	-10.589
▁ayant	-10.589
llons	-10.5891
▁africaine	-10.5898
▁destin	-10.5899
ême	-10.59
▁ressenti	-10.5907
▁xërëm	-10.5913
kow	-10.5915
00	-10.5916
▁douce	-10.5916
8	-10.5916
Abakaliki	-10.5916
▁Alxuraan	-10.5916
▁Seigneur	-10.5916
▁Wiktoryaa	-10.5916
▁accompagné	-10.5916
▁auparavant	-10.5916
▁blessé	-10.5916
▁crochet	-10.5916
▁dëggëntaan	-10.5916
▁excréments	-10.5916
▁jagleel	-10.5916
▁kéwél	-10.5916
▁mbëggeel	-10.5916
▁njàng	-10.5916
▁officer	-10.5916
▁palissade	-10.5916
▁petorool	-10.5916
▁ponkal	-10.5916
▁propriétaire	-10.5916
▁présence	-10.5916
▁ressens	-10.5916
▁ressuscité	-10.5916
▁récipient	-10.5916
▁territoire	-10.5916
▁travaux	-10.5916
▁traîne	-10.5916
▁crédit	-10.5916
▁décidé	-10.5916
▁fonction	-10.5916
▁machine	-10.5916
▁terrassé	-10.5916
▁tronc	-10.5916
▁Mellentaan	-10.5916
▁jaaxal	-10.5916
▁métier	-10.5916
▁probable	-10.5916
▁réveillé	-10.5916
▁chute	-10.5916
▁nàññ	-10.5916
▁Lagos	-10.5916
▁abattu	-10.5916
▁Jabar	-10.5916
▁situation	-10.5917
▁Kaasamaas	-10.5917
▁commémor	-10.5917
▁ndënd	-10.5917
▁bàmmeel	-10.5917
▁menace	-10.5917
▁Quoi	-10.5917
▁clef	-10.5917
▁poing	-10.5917
des	-10.5917
▁compos	-10.5917
▁penku	-10.5917
▁brûlure	-10.5917
▁fowukaay	-10.5917
▁Africains	-10.5917
▁Géj	-10.5917
▁Enlève	-10.5917
▁allez	-10.5917
▁flamme	-10.5917
▁veille	-10.5917
▁ndeysaan	-10.5917
▁électrique	-10.5917
▁Yàgg	-10.5917
▁dëll	-10.5917
▁capable	-10.5917
▁ngëlén	-10.5917
▁service	-10.5917
▁bouteille	-10.5917
▁paternelle	-10.5918
▁cadeau	-10.5918
▁frais	-10.5918
▁lëkkale	-10.5918
▁géew	-10.5918
▁revenir	-10.5918
▁rakk	-10.5918
▁mébét	-10.5918
▁jaambur	-10.5918
▁soppiku	-10.5918
▁wéet	-10.5918
▁boq	-10.5918
▁fàq	-10.5918
▁poussin	-10.5919
▁dëkkandoo	-10.5919
▁semaine	-10.5919
▁jommal	-10.5919
▁dimbali	-10.592
▁supporter	-10.592
▁travaillé	-10.592
▁mbégte	-10.592
▁chocolatée	-10.5921
▁doxantu	-10.5921
▁wex	-10.5921
▁gumba	-10.5921
▁mbalka	-10.5922
▁wóolu	-10.5922
▁serré	-10.5923
▁caisse	-10.5923
▁meňň	-10.5923
▁guró	-10.5924
▁cofeel	-10.5924
▁venaient	-10.5924
▁blesser	-10.5924
▁fuuf	-10.5924
▁gërëm	-10.5924
▁souche	-10.5924
▁connaissent	-10.5925
▁njabootam	-10.5925
▁cornes	-10.5925
▁certainement	-10.5926
▁recouvr	-10.5926
▁Gorée	-10.5926
▁Tugël	-10.5927
▁pêche	-10.5927
▁kóllëre	-10.5927
▁Obudu	-10.5927
▁respect	-10.5927
▁meurt	-10.5927
▁butéel	-10.5928
▁oiseaux	-10.5928
▁croire	-10.5928
▁quitté	-10.5929
▁ger	-10.593
▁rencontré	-10.593
▁habitants	-10.593
▁tank	-10.593
▁mètres	-10.5931
▁noces	-10.5932
▁Ceeb	-10.5932
▁banaana	-10.5933
▁couvre	-10.5935
▁mbaxana	-10.5936
▁couvrir	-10.5936
▁matinée	-10.5937
▁Doole	-10.5938
▁dërëm	-10.5939
▁xur	-10.5941
▁terminé	-10.5942
▁nég	-10.5942
▁Certain	-10.5943
▁sëgg	-10.5944
▁gajj	-10.5944
▁Jënd	-10.5944
▁yéemu	-10.5945
▁oeuf	-10.5945
▁jàngoro	-10.5946
▁aada	-10.5946
▁interdit	-10.5947
▁Force	-10.5948
▁yëre	-10.5948
mp	-10.5948
▁jouent	-10.5948
▁courage	-10.5948
▁tient	-10.5948
▁xóot	-10.5951
▁surga	-10.5951
▁Yeen	-10.5953
▁nombreuses	-10.5954
▁déeg	-10.5954
▁Dana	-10.5956
▁gàkk	-10.5956
▁ressentir	-10.5963
ëg	-10.5963
▁brûlé	-10.5964
▁poulet	-10.5965
▁Foofa	-10.5966
▁daŋ	-10.5966
▁semé	-10.5969
▁marchent	-10.597
▁sombre	-10.5972
▁mouches	-10.5974
▁foq	-10.5974
▁jëw	-10.5975
▁lonku	-10.5977
▁soldats	-10.5978
▁Noo	-10.5978
▁masques	-10.5979
▁tenir	-10.598
▁Jiit	-10.598
▁tàngaay	-10.598
▁Aro	-10.5984
▁jàkka	-10.5985
▁fajar	-10.5987
▁oublier	-10.5987
▁joow	-10.599
▁animal	-10.5992
▁causé	-10.5996
ot	-10.5997
▁neexee	-10.5999
▁moyens	-10.6002
▁vagues	-10.6002
▁essayer	-10.6002
yaar	-10.6004
▁filet	-10.6007
▁prenne	-10.6007
▁jàppoon	-10.6008
▁amené	-10.6011
▁diine	-10.6012
▁càkk	-10.6013
▁fui	-10.6015
▁partage	-10.6019
ck	-10.6022
▁dijj	-10.6023
▁mode	-10.6023
▁aveugle	-10.6027
▁partant	-10.6027
▁ñaxtu	-10.6031
▁demuloo	-10.6033
▁jéema	-10.6033
mment	-10.6034
▁Kaa	-10.6034
▁toucher	-10.6037
fal	-10.6039
▁junniy	-10.604
▁dessiné	-10.6043
▁fudd	-10.6044
▁jaasi	-10.6046
lle	-10.6047
▁màgge	-10.6049
▁policiers	-10.605
▁ramen	-10.6051
▁rapporte	-10.6052
▁conduis	-10.6056
▁gaañu	-10.6062
▁plats	-10.6063
▁Nun	-10.6069
▁bey	-10.6069
▁macc	-10.607
▁fatigués	-10.6075
▁nouvelles	-10.6075
▁indil	-10.6075
xaar	-10.6075
échapper	-10.6077
▁liggéeyam	-10.608
qué	-10.6098
▁tambours	-10.61
▁Ban	-10.611
▁toolu	-10.6114
▁falu	-10.6119
nte	-10.6119
▁mos	-10.6123
mal	-10.6131
▁2	-10.6139
▁Europe	-10.6139
▁ñam	-10.614
▁étrange	-10.6144
issent	-10.6154
▁defaru	-10.6163
▁dar	-10.6171
▁àndal	-10.6175
▁yeb	-10.618
▁traverse	-10.6181
▁content	-10.6189
▁balaa	-10.6198
▁pantalons	-10.6198
▁feras	-10.6204
▁aventure	-10.621
▁siy	-10.6215
▁kë	-10.6223
▁livres	-10.6223
▁fermée	-10.6229
▁Afrigam	-10.6234
▁bë	-10.6239
▁jal	-10.624
▁nooy	-10.6248
▁mbooloo	-10.6253
do	-10.6258
wee	-10.6262
▁nus	-10.6264
▁monté	-10.6271
▁cherches	-10.6271
gelaw	-10.6271
▁muet	-10.6274
▁couverte	-10.6277
gént	-10.6281
▁fum	-10.6287
boo	-10.629
▁tours	-10.6298
▁vends	-10.63
▁envahi	-10.6303
▁waxe	-10.6312
▁ramass	-10.6312
ude	-10.6319
arbres	-10.6325
▁Yàllaa	-10.6326
▁waxee	-10.6337
▁lire	-10.6347
▁rivières	-10.6347
nj	-10.6348
▁pis	-10.635
▁àpp	-10.6357
▁Ŋg	-10.6364
▁van	-10.6366
▁visages	-10.6372
▁endroits	-10.6396
▁Al	-10.6397
anam	-10.6402
nent	-10.6403
▁deñ	-10.6406
du	-10.6413
▁dakk	-10.6446
▁Es	-10.6482
rass	-10.6483
▁mere	-10.6499
jjant	-10.6508
▁Quelque	-10.6508
▁wat	-10.6512
▁tombée	-10.6518
▁At	-10.6522
eetar	-10.6524
▁jat	-10.6526
▁blanches	-10.6527
▁lits	-10.6531
aille	-10.6532
▁saw	-10.6539
▁serv	-10.6543
ñoo	-10.6546
▁rouges	-10.6549
euse	-10.656
dar	-10.659
lóor	-10.6596
▁gat	-10.6597
▁lang	-10.6609
▁tableau	-10.6637
kku	-10.6641
▁dëpp	-10.6674
tique	-10.6675
▁Yaay	-10.6684
▁Dagg	-10.669
▁në	-10.6704
joor	-10.6711
▁bax	-10.6724
car	-10.6726
▁yare	-10.6728
aal	-10.6733
▁Dox	-10.6756
ttes	-10.6759
taay	-10.6762
▁allés	-10.6763
rab	-10.6774
▁xa	-10.6783
éeri	-10.6806
▁Yara	-10.6829
▁four	-10.6832
▁moments	-10.6833
raw	-10.6845
▁tee	-10.6862
▁Golo	-10.6868
▁Leer	-10.6877
▁voitures	-10.6886
▁soos	-10.6888
▁ndo	-10.6902
▁conte	-10.6903
ca	-10.6917
▁ru	-10.6926
▁jooja	-10.6941
rendre	-10.6941
▁quelles	-10.6965
A	-10.6977
▁Ngi	-10.6987
geen	-10.6989
tee	-10.6992
▁gom	-10.6996
▁foi	-10.7005
kof	-10.7007
oire	-10.7009
▁niir	-10.7013
▁pré	-10.7014
▁souhaite	-10.7027
▁normal	-10.7046
▁ñe	-10.7057
▁mou	-10.7059
wi	-10.7077
ule	-10.7083
▁maas	-10.7088
▁Bien	-10.7104
▁tab	-10.7111
▁gaar	-10.7114
▁accompagne	-10.7121
▁waxal	-10.7129
▁pur	-10.7141
▁guddee	-10.7173
▁mord	-10.7174
ément	-10.7181
énc	-10.7181
▁cim	-10.7182
bi	-10.7194
▁xamu	-10.7196
▁jàngale	-10.7197
▁mënu	-10.7203
orage	-10.7226
▁ware	-10.7227
bb	-10.7232
rge	-10.7239
era	-10.7241
essaie	-10.7244
▁Der	-10.7246
entiers	-10.7246
tuñu	-10.7259
▁étalé	-10.7264
▁finir	-10.7273
▁xal	-10.7286
▁dée	-10.7286
▁sauve	-10.7292
▁descend	-10.7312
▁bàyyee	-10.7317
étail	-10.7318
▁Ber	-10.7321
▁Ar	-10.7327
mm	-10.7333
▁cin	-10.7333
▁saay	-10.7341
▁go	-10.7343
ami	-10.7347
▁bé	-10.7355
▁verse	-10.7357
▁amaan	-10.7384
ko	-10.7404
▁prie	-10.7408
▁souffl	-10.7416
toon	-10.7421
▁vert	-10.7422
alaan	-10.7428
p	-10.7429
▁deey	-10.7431
▁Xamul	-10.7435
▁Gaa	-10.7436
▁ch	-10.7441
▁jus	-10.7441
▁gëmm	-10.7453
ër	-10.7466
▁wuu	-10.7468
▁prise	-10.7469
▁ëf	-10.7476
▁doonkoon	-10.7478
▁Mii	-10.7483
▁Mal	-10.7514
▁saura	-10.7527
▁doxal	-10.7529
▁jé	-10.7533
▁màgg	-10.7548
▁coll	-10.7557
▁nax	-10.7557
▁Ñàkk	-10.759
ppu	-10.759
oreille	-10.76
▁kà	-10.7605
▁sent	-10.7609
to	-10.7619
▁pardon	-10.763
occup	-10.7633
▁connaiss	-10.7639
aine	-10.7646
edd	-10.7646
train	-10.7653
▁cu	-10.7665
uni	-10.7676
▁humain	-10.7679
uri	-10.768
elu	-10.7681
▁batt	-10.7685
ttali	-10.7696
▁bindoo	-10.7703
▁jaaro	-10.7719
non	-10.774
▁Jàpp	-10.774
out	-10.7744
▁chang	-10.7748
▁condui	-10.7752
▁peuple	-10.7757
▁retrouvé	-10.7757
ndax	-10.7757
▁mûr	-10.7757
noo	-10.7767
né	-10.7768
antu	-10.777
▁chaîne	-10.7772
▁mélang	-10.7773
▁miroir	-10.7774
I	-10.7777
▁réuni	-10.7779
▁talisman	-10.7782
installe	-10.7783
vis	-10.7787
▁palme	-10.7787
▁banc	-10.7792
▁laab	-10.7794
▁mangue	-10.7796
arrive	-10.7798
▁confie	-10.7802
▁pensé	-10.7808
ã	-10.7811
aveugle	-10.7812
▁général	-10.7812
ëllëg	-10.7817
▁tenu	-10.7819
aucun	-10.782
hier	-10.7821
loxo	-10.7823
waale	-10.7825
▁gejj	-10.7825
ivement	-10.7829
indil	-10.7829
xew	-10.7831
pis	-10.7833
▁kepp	-10.7835
parents	-10.7835
jaar	-10.7836
▁conc	-10.7839
▁prendra	-10.7847
dëkk	-10.7851
éew	-10.7852
▁Vend	-10.7855
▁Avan	-10.7856
jam	-10.7863
maak	-10.7863
let	-10.7864
ëpp	-10.7865
▁Néeg	-10.7869
▁ouvr	-10.7871
▁cher	-10.7872
▁rëbb	-10.7875
▁annonce	-10.7887
ienne	-10.7894
▁kañ	-10.7898
mbax	-10.79
▁dékk	-10.7902
peur	-10.7902
▁tëral	-10.7904
▁roule	-10.7905
▁revienne	-10.7905
usqu	-10.7905
▁pouv	-10.7908
ah	-10.791
▁gâteau	-10.7912
▁trahi	-10.7915
0	-10.7915
illage	-10.7916
▁fexe	-10.7916
▁porc	-10.7916
horreur	-10.7916
mêlé	-10.7916
rologique	-10.7916
tekkaaral	-10.7916
”	-10.7916
▁Abaakaliki	-10.7916
▁Adekunle	-10.7916
▁Anglais	-10.7916
▁Biafra	-10.7916
▁Georgetown	-10.7916
▁Génnéel	-10.7916
▁Mauritanie	-10.7916
▁Prête	-10.7916
▁Sefiriis	-10.7916
▁Southampton	-10.7916
▁Tabax	-10.7916
▁Yoruba	-10.7916
▁alkol	-10.7916
▁allemande	-10.7916
▁beignets	-10.7916
▁biafrais	-10.7916
▁bracelet	-10.7916
▁camerounais	-10.7916
▁couvercle	-10.7916
▁céréales	-10.7916
▁dimanche	-10.7916
▁douleur	-10.7916
▁henné	-10.7916
▁jachère	-10.7916
▁kilomet	-10.7916
▁marjaan	-10.7916
▁njàqare	-10.7916
▁perroquet	-10.7916
▁photographi	-10.7916
▁physique	-10.7916
▁rompre	-10.7916
▁rumeur	-10.7916
▁réservé	-10.7916
▁résolu	-10.7916
▁sàndarm	-10.7916
▁zinc	-10.7916
angoisse	-10.7916
▁Téere	-10.7916
▁crépuscule	-10.7916
▁càmmoñ	-10.7916
▁hasard	-10.7916
▁jeûne	-10.7916
▁wàññi	-10.7916
▁Cross	-10.7916
▁Sorstaawun	-10.7916
▁gëlëm	-10.7916
▁paquet	-10.7916
▁répandu	-10.7916
▁Japon	-10.7916
▁bûcheron	-10.7916
▁retard	-10.7916
▁méngale	-10.7916
▁produit	-10.7916
▁atteint	-10.7916
▁terrible	-10.7916
▁Coumba	-10.7916
▁accepté	-10.7916
▁cabax	-10.7916
▁kaaraange	-10.7916
▁moitié	-10.7916
▁ndóol	-10.7916
▁sànke	-10.7916
▁collines	-10.7916
▁méngoo	-10.7916
▁samedi	-10.7916
▁bref	-10.7916
▁Juróom	-10.7916
▁yalwaan	-10.7916
▁Parfois	-10.7917
▁gueule	-10.7917
▁Sapoŋ	-10.7917
▁torche	-10.7917
▁fauve	-10.7917
▁Salut	-10.7917
▁béjjén	-10.7917
▁fuddën	-10.7917
▁àdduna	-10.7917
▁golf	-10.7917
▁plaisir	-10.7917
▁tabac	-10.7917
fayda	-10.7917
▁confiance	-10.7917
▁noyyi	-10.7917
▁musiba	-10.7917
▁jaawale	-10.7917
▁lessive	-10.7917
▁richesse	-10.7917
▁chargé	-10.7917
▁continent	-10.7917
▁Actuellement	-10.7917
▁tige	-10.7917
▁Soxna	-10.7917
▁Moontin	-10.7917
araada	-10.7917
▁rares	-10.7917
▁Partout	-10.7917
▁guyaab	-10.7917
▁kalaate	-10.7917
▁rompu	-10.7917
▁géléem	-10.7917
▁Fiche	-10.7917
▁publique	-10.7917
▁Toog	-10.7917
▁semer	-10.7917
▁larmes	-10.7917
▁xaaju	-10.7917
▁bóom	-10.7917
▁complet	-10.7917
▁Mbër	-10.7917
▁janax	-10.7918
▁mboq	-10.7918
▁gëstu	-10.7918
▁gisul	-10.7918
▁tenait	-10.7918
▁delsi	-10.7918
▁firndeel	-10.7918
▁kekk	-10.7918
▁voulez	-10.7918
▁doux	-10.7918
▁échappé	-10.7918
▁continu	-10.7918
▁marchandise	-10.7918
▁fanweer	-10.7919
▁religieux	-10.7919
▁Tëgg	-10.7919
▁tàggat	-10.7919
▁làquji	-10.7919
▁grossesse	-10.7919
▁bàq	-10.792
▁këtt	-10.7921
▁fomp	-10.7921
▁mystique	-10.7921
▁honte	-10.7921
âtre	-10.7921
pace	-10.7921
▁soxor	-10.7921
▁Weer	-10.7922
▁karaw	-10.7922
▁jullee	-10.7922
▁fourchu	-10.7922
▁tëri	-10.7922
▁daqaar	-10.7923
▁ŋgoogule	-10.7923
▁creuser	-10.7923
▁Kumba	-10.7923
▁abandonné	-10.7923
▁ñeex	-10.7923
▁xélu	-10.7923
▁puj	-10.7923
▁kaaŋ	-10.7923
▁raide	-10.7923
bin	-10.7924
▁mëdd	-10.7924
▁marqué	-10.7924
▁ondul	-10.7925
▁cousu	-10.7925
▁simila	-10.7925
▁tache	-10.7925
▁raconté	-10.7925
▁parlaient	-10.7926
▁emporté	-10.7926
▁awsa	-10.7926
▁boisson	-10.7926
▁yékk	-10.7927
▁dott	-10.7928
▁élu	-10.7928
▁këf	-10.7928
▁inspiré	-10.7928
waaw	-10.7928
▁rejoindre	-10.7928
▁ràññee	-10.7928
▁nangoo	-10.7928
▁daaj	-10.7929
▁brûlant	-10.7929
▁pipe	-10.7929
▁jàppukaay	-10.7929
▁trempé	-10.793
▁Acacia	-10.793
▁graisse	-10.793
▁niveau	-10.793
▁njort	-10.793
▁Looloo	-10.793
▁nommé	-10.793
▁police	-10.793
▁kaala	-10.793
▁abreuv	-10.793
▁naroon	-10.793
▁yàlla	-10.7931
▁xeeñ	-10.7931
▁pexe	-10.7931
▁veau	-10.7931
▁aboie	-10.7931
▁rapidement	-10.7932
▁beg	-10.7932
mbres	-10.7932
▁sóob	-10.7932
▁douche	-10.7933
▁hamacs	-10.7933
▁tawat	-10.7933
▁ustensiles	-10.7933
▁vieillards	-10.7933
▁xaraf	-10.7933
▁chance	-10.7934
▁avance	-10.7934
▁volets	-10.7934
▁aiguille	-10.7934
▁jonn	-10.7935
àŋŋ	-10.7936
▁kookee	-10.7936
▁soirée	-10.7936
rigé	-10.7936
▁tresser	-10.7936
▁safara	-10.7936
▁bokkuñu	-10.7937
▁Ñooñu	-10.7937
▁salon	-10.7937
▁sàngara	-10.7938
▁tiis	-10.7938
▁fippu	-10.7938
▁Julli	-10.7939
▁voudrait	-10.794
▁gaz	-10.794
▁gentil	-10.7941
▁signe	-10.7941
▁vertes	-10.7941
▁salaire	-10.7942
▁cessé	-10.7942
▁dun	-10.7942
▁meule	-10.7943
▁zé	-10.7943
▁direction	-10.7943
▁naaxi	-10.7944
▁galan	-10.7945
▁jaarale	-10.7947
▁lëmm	-10.7948
▁àggee	-10.7948
▁pilon	-10.7948
▁revenu	-10.795
▁jàppante	-10.795
▁Luga	-10.7951
▁Alal	-10.7951
▁bàcc	-10.7951
▁payer	-10.7951
▁égal	-10.7951
▁Lequel	-10.7951
▁fekksi	-10.7952
▁sueur	-10.7952
▁Aiya	-10.7952
obul	-10.7954
▁call	-10.7954
▁placé	-10.7955
▁foule	-10.7955
▁royau	-10.7956
▁Dund	-10.7956
▁boit	-10.7957
▁googule	-10.7958
▁éprouv	-10.7958
▁ňi	-10.796
▁Njaay	-10.7961
▁rëbbi	-10.7961
▁daara	-10.7962
▁kilomètres	-10.7962
▁exemple	-10.7963
▁armes	-10.7963
▁xamatul	-10.7964
▁miel	-10.7964
▁kawe	-10.7965
▁Ñaan	-10.7966
▁perles	-10.7966
▁sensation	-10.7969
▁Demuma	-10.797
▁sert	-10.797
▁tata	-10.7972
▁voul	-10.7972
▁Puisse	-10.7973
▁noble	-10.7974
▁màng	-10.7974
▁méchant	-10.7975
▁lutter	-10.7975
▁habiter	-10.7975
abonde	-10.7976
▁lunk	-10.7978
▁état	-10.7979
▁Won	-10.7982
▁plai	-10.7982
▁casque	-10.7983
▁cër	-10.7983
daw	-10.7984
▁gàll	-10.7986
▁Seul	-10.7986
▁yàggul	-10.7988
▁date	-10.7988
▁saxaaru	-10.7989
▁dàkk	-10.7989
▁jabaram	-10.799
▁yéeme	-10.7991
atteindr	-10.7992
▁bokkul	-10.7992
▁termitières	-10.7992
▁péchés	-10.7992
▁gestes	-10.7993
▁cure	-10.7993
▁Woy	-10.7993
▁lutteurs	-10.7994
▁repasse	-10.7995
▁fortune	-10.7996
▁Bërë	-10.7997
▁rentré	-10.7997
▁enlève	-10.7999
▁takku	-10.7999
▁dàtt	-10.8
▁dîner	-10.8001
▁hui	-10.8007
▁faax	-10.8009
urine	-10.8009
▁dalle	-10.801
▁rax	-10.8011
teem	-10.8012
▁rouler	-10.8014
▁dundam	-10.8014
▁jekku	-10.8015
habit	-10.8023
▁ñeent	-10.8023
▁bleue	-10.8023
▁durer	-10.8024
▁rafetul	-10.8026
gorge	-10.8028
▁souci	-10.8029
▁gaawa	-10.8029
▁ër	-10.8029
▁duggee	-10.803
▁retourner	-10.8032
▁gras	-10.8037
▁melax	-10.8038
jodd	-10.8038
▁défait	-10.8038
▁bég	-10.8039
▁ëpple	-10.8041
reaux	-10.8042
▁jiital	-10.805
cci	-10.8051
lla	-10.8052
▁bancs	-10.8053
▁talismans	-10.8053
▁tente	-10.8058
▁pattes	-10.8061
ignore	-10.8065
bare	-10.8067
▁guide	-10.807
▁juge	-10.8073
▁ker	-10.8076
▁añ	-10.8078
aires	-10.8083
vions	-10.8086
▁jàjj	-10.8088
▁joge	-10.8092
▁litre	-10.8092
▁biig	-10.81
arc	-10.8101
▁Kooy	-10.8105
▁rive	-10.8107
ddi	-10.8111
▁draps	-10.8116
▁an	-10.8125
▁af	-10.8125
kóon	-10.8126
▁chants	-10.8136
▁teey	-10.8139
▁bris	-10.8142
exerce	-10.8144
▁impression	-10.8146
▁dan	-10.8146
▁tor	-10.8149
lée	-10.8159
ke	-10.8159
▁donnerai	-10.816
▁raw	-10.8169
▁tenue	-10.8173
sé	-10.8174
▁yëgaat	-10.8175
ussi	-10.8176
▁defaree	-10.8184
▁jàppee	-10.8184
▁El	-10.819
ettes	-10.8191
▁pleure	-10.8203
▁dromadaires	-10.8205
▁to	-10.8206
▁nuyu	-10.8207
▁cultive	-10.8209
▁découvre	-10.8209
añse	-10.8218
▁kookuu	-10.8221
aaru	-10.8221
▁partirai	-10.8223
ono	-10.8228
esse	-10.8236
▁maladies	-10.8236
▁xu	-10.8237
▁Yóbbu	-10.8245
▁Gore	-10.8252
▁mënut	-10.8252
▁jambaa	-10.8253
▁surveillan	-10.8258
▁combat	-10.8267
▁manu	-10.8269
andis	-10.827
▁devenus	-10.8273
▁cré	-10.8276
evant	-10.8286
▁jëmm	-10.8289
▁kaay	-10.8292
▁fab	-10.8297
▁sàq	-10.83
▁bleus	-10.8302
bos	-10.8309
▁Dém	-10.8321
iront	-10.8329
▁chercheur	-10.8334
ëj	-10.834
▁tés	-10.834
▁Dugg	-10.8343
arité	-10.8344
gorn	-10.8348
▁guyy	-10.8348
▁rues	-10.835
▁Nko	-10.8352
▁dépasse	-10.8357
▁désir	-10.8366
▁leçon	-10.8369
▁mee	-10.8378
▁dikke	-10.838
▁Ru	-10.8386
▁jubale	-10.8388
ën	-10.839
▁tege	-10.8395
▁coy	-10.8397
▁soeur	-10.8405
▁pans	-10.8422
naka	-10.8425
▁ň	-10.8434
dokk	-10.8436
▁pointe	-10.8444
▁frapper	-10.8452
▁tegu	-10.8455
▁organis	-10.8456
▁rentrer	-10.8467
▁yeewe	-10.8467
ise	-10.848
▁cultiver	-10.8507
ient	-10.8514
▁nguuru	-10.8514
▁jaayu	-10.8542
▁Jam	-10.8559
▁móol	-10.8559
▁commer	-10.8571
▁fuur	-10.8571
▁demand	-10.8574
▁échange	-10.858
wax	-10.8585
▁njege	-10.8586
▁xamant	-10.8593
appellent	-10.8595
▁laine	-10.8601
▁...	-10.8614
▁Bo	-10.8616
▁séchée	-10.8621
▁vis	-10.8634
egg	-10.8639
▁jara	-10.8639
acheter	-10.8641
▁garabu	-10.8643
ali	-10.8651
ton	-10.8657
éwén	-10.8658
▁Daw	-10.8672
▁néegi	-10.8678
appelles	-10.8684
ordre	-10.8692
▁Doon	-10.8711
▁Voil	-10.8729
uur	-10.8733
▁em	-10.8737
▁demi	-10.875
▁mbu	-10.876
▁té	-10.8764
ouvrir	-10.8772
▁grise	-10.8774
▁giif	-10.8794
ële	-10.8805
▁taxa	-10.8811
▁ins	-10.8811
▁wal	-10.8831
ñaa	-10.885
▁xet	-10.8861
iiriir	-10.8882
▁attache	-10.8895
▁Mb	-10.8908
▁Xol	-10.8908
▁rem	-10.8924
naan	-10.8947
▁Far	-10.8951
▁jette	-10.8958
▁morts	-10.8959
anq	-10.896
▁jéer	-10.8962
alement	-10.8975
▁masse	-10.8979
▁puso	-10.8984
▁donnera	-10.8991
▁bir	-10.8997
▁chi	-10.9014
▁seuls	-10.9015
▁bàn	-10.9037
óoli	-10.904
▁resta	-10.9044
▁ñun	-10.9049
ó	-10.9061
▁këru	-10.909
nge	-10.9092
▁gétt	-10.9112
ène	-10.9124
▁mujj	-10.9125
oroom	-10.913
▁dikkul	-10.9132
aru	-10.9141
▁eusse	-10.9146
▁jëme	-10.9155
▁pousse	-10.9173
àmb	-10.9178
dd	-10.9183
▁cas	-10.9187
rite	-10.9202
ëtt	-10.9212
wub	-10.9213
aleel	-10.9227
ents	-10.9232
▁parent	-10.924
▁Gisu	-10.9248
envie	-10.9264
ève	-10.9273
▁kar	-10.9283
▁Bum	-10.9284
▁posée	-10.9304
▁lamb	-10.9309
▁revien	-10.932
▁enseign	-10.9339
▁chante	-10.9346
▁mbool	-10.9351
bbam	-10.9395
▁usé	-10.9412
ppati	-10.9416
▁do	-10.9418
▁récit	-10.9422
▁dëng	-10.9434
àq	-10.9434
asi	-10.9447
ral	-10.945
▁tase	-10.947
▁fourr	-10.949
▁reew	-10.9498
▁Taal	-10.9509
▁duul	-10.9514
▁Doy	-10.9521
▁suffir	-10.9522
▁fl	-10.9523
oter	-10.9529
▁pratique	-10.9539
maŋ	-10.9542
mine	-10.9548
▁Dàq	-10.9548
▁dise	-10.9557
▁Ro	-10.9566
▁noppal	-10.9572
▁Wi	-10.9583
▁dawul	-10.9605
▁terres	-10.9614
▁Laaj	-10.9614
▁Fat	-10.9636
oué	-10.9641
wuloon	-10.9653
▁tàkku	-10.9662
▁don	-10.9669
guloo	-10.9675
▁tuut	-10.9679
▁rose	-10.9682
ha	-10.9686
occi	-10.9688
get	-10.9705
ox	-10.9713
▁devenue	-10.9727
ût	-10.9728
seen	-10.9734
enez	-10.974
▁entouré	-10.9749
dog	-10.9753
▁vivant	-10.9761
uus	-10.9768
▁soigne	-10.9769
ible	-10.977
▁ndugg	-10.9773
▁Af	-10.9774
▁lions	-10.9784
ria	-10.979
vé	-10.9792
▁tama	-10.9796
été	-10.9796
gël	-10.9816
àggan	-10.982
▁nëw	-10.983
▁coton	-10.9837
▁njàmba	-10.984
tendait	-10.9842
▁Aa	-10.9853
▁baag	-10.9856
▁goo	-10.9856
▁Baat	-10.9856
iis	-10.986
▁armée	-10.9862
▁aide	-10.9866
▁couvert	-10.9873
▁ti	-10.9876
ngu	-10.9887
▁sale	-10.9899
▁jiy	-10.9912
▁attrape	-10.9918
▁làmb	-10.9925
émi	-10.9934
jum	-10.9955
occ	-10.9966
▁boob	-10.9986
▁Lé	-10.9995
rier	-10.9997
enfants	-11.0007
▁fla	-11.0019
▁accepte	-11.0021
allait	-11.0025
▁mêle	-11.0036
▁fermé	-11.004
▁cousin	-11.0066
ŋga	-11.0076
lant	-11.0076
▁një	-11.0081
▁pro	-11.0122
▁retourne	-11.0131
▁aille	-11.0135
orts	-11.0151
▁pus	-11.0151
ivre	-11.016
année	-11.016
▁gén	-11.0161
▁pleur	-11.0175
▁guéri	-11.0177
of	-11.0189
▁pren	-11.0193
▁waaja	-11.0196
▁verser	-11.0197
uw	-11.0198
éloigne	-11.0216
▁dress	-11.0218
édu	-11.0218
▁Bare	-11.0219
amatul	-11.0237
▁kaf	-11.0239
▁savon	-11.0253
▁président	-11.0257
▁antilope	-11.0257
àmm	-11.0266
arriver	-11.027
achète	-11.0272
▁musulman	-11.0272
▁âgé	-11.0272
▁flèche	-11.0272
▁griot	-11.0272
▁secret	-11.0272
▁vaccin	-11.0273
▁viv	-11.0275
▁origin	-11.0275
aka	-11.0276
▁yéem	-11.0278
▁touffe	-11.0279
aag	-11.0279
▁seconde	-11.0283
tuut	-11.0283
▁essay	-11.0285
▁Kil	-11.0286
▁ngoog	-11.0287
▁paye	-11.0288
nk	-11.0288
▁civil	-11.0289
aurai	-11.029
▁fleur	-11.029
▁gendarme	-11.0291
objet	-11.0291
▁fulla	-11.0294
ňax	-11.0294
▁fourmi	-11.0294
▁guerr	-11.0294
lin	-11.0295
▁soin	-11.0295
▁Maure	-11.0295
▁assiette	-11.0296
▁vague	-11.03
▁précédé	-11.0304
▁hôte	-11.0305
▁tasse	-11.0305
écuelle	-11.0305
aumône	-11.0307
hyène	-11.0307
ordures	-11.0308
▁patte	-11.0308
▁Ng	-11.0311
▁fat	-11.0311
àtt	-11.0314
histoire	-11.0315
enfance	-11.0316
ailleurs	-11.0316
naay	-11.0317
F	-11.0318
ndànk	-11.0319
làmmiñ	-11.032
étranger	-11.032
C	-11.0321
ange	-11.0321
xare	-11.0321
biir	-11.0322
naaw	-11.0322
▁ancien	-11.0325
▁Dog	-11.0327
▁ferai	-11.0329
appr	-11.0334
yaram	-11.0334
▁grill	-11.0334
▁moyen	-11.0335
doole	-11.0337
garde	-11.0345
▁confi	-11.0346
▁anim	-11.0347
▁Sopp	-11.0351
ures	-11.0352
nous	-11.0356
▁tomb	-11.0362
erig	-11.0363
àmmiñ	-11.0364
▁Moka	-11.037
xel	-11.0377
▁Vers	-11.0379
ho	-11.0381
art	-11.0383
cière	-11.0383
▁Dég	-11.0386
▁forox	-11.0387
àngara	-11.0389
▁résonn	-11.0389
appartien	-11.0391
àww	-11.0399
▁daraja	-11.0401
▁protège	-11.0404
▁tromp	-11.0405
accord	-11.0405
▁Ha	-11.0406
▁melo	-11.0407
innaaw	-11.0408
cture	-11.0408
▁perdue	-11.0409
▁religi	-11.0411
ňň	-11.0411
▁xii	-11.0412
per	-11.0412
assemblée	-11.0413
abandon	-11.0415
▁compagn	-11.0415
3	-11.0416
▁Kipli	-11.0416
▁Nettoie	-11.0416
embouchure	-11.0416
enthousiasme	-11.0416
humanité	-11.0416
mbëŋ	-11.0416
njikoto	-11.0416
▁1928	-11.0416
▁1948	-11.0416
▁Ahidjo	-11.0416
▁BBC	-11.0416
▁Bretagne	-11.0416
▁Bërëtaañ	-11.0416
▁Calabar	-11.0416
▁Chuku	-11.0416
▁Harcourt	-11.0416
▁Jeffries	-11.0416
▁Jikko	-11.0416
▁Kalabaar	-11.0416
▁Louga	-11.0416
▁ablutions	-11.0416
▁accompagnait	-11.0416
▁alentour	-11.0416
▁annoncé	-11.0416
▁bahut	-11.0416
▁blessure	-11.0416
▁cafards	-11.0416
▁combinaison	-11.0416
▁condoléances	-11.0416
▁cravache	-11.0416
▁cravate	-11.0416
▁cérémonie	-11.0416
▁diarrhée	-11.0416
▁discussion	-11.0416
▁excessif	-11.0416
▁football	-11.0416
▁funérailles	-11.0416
▁hanche	-11.0416
▁harceler	-11.0416
▁incapable	-11.0416
▁jóolóoli	-11.0416
▁lorgnons	-11.0416
▁manioc	-11.0416
▁marigot	-11.0416
▁ndanka	-11.0416
▁njoowaan	-11.0416
▁nécessaire	-11.0416
▁obsession	-11.0416
▁occulte	-11.0416
▁officier	-11.0416
▁particulier	-11.0416
▁privilèges	-11.0416
▁refusé	-11.0416
▁soixante	-11.0416
▁sorcellerie	-11.0416
▁souffre	-11.0416
▁trapèze	-11.0416
▁trésor	-11.0416
▁trône	-11.0416
▁végétation	-11.0416
▁véhicule	-11.0416
▁xëyee	-11.0416
▁yendoo	-11.0416
▁égaux	-11.0416
▁évidemment	-11.0416
▁île	-11.0416
▁ŋàññ	-11.0416
enclos	-11.0416
▁Sahara	-11.0416
▁Saloum	-11.0416
▁bébé	-11.0416
▁foulard	-11.0416
▁ménage	-11.0416
▁rajaxe	-11.0416
▁ruisseau	-11.0416
▁réccu	-11.0416
▁réponse	-11.0416
▁tropicale	-11.0416
▁yëngatu	-11.0416
▁ëlëk	-11.0416
Arkuur	-11.0416
énergie	-11.0416
▁Autrefois	-11.0416
▁bataaxal	-11.0416
▁berkelle	-11.0416
▁extraordinaire	-11.0416
▁fiancé	-11.0416
▁flétri	-11.0416
▁geño	-11.0416
▁luqati	-11.0416
▁légende	-11.0416
▁pénétr	-11.0416
▁règne	-11.0416
▁sibbiru	-11.0416
▁tissu	-11.0416
▁Ñëw	-11.0416
▁froiss	-11.0416
▁mâle	-11.0416
▁palaas	-11.0416
héberg	-11.0416
▁Birayim	-11.0416
▁NGo	-11.0416
▁Voyage	-11.0416
▁callweer	-11.0416
▁ceddo	-11.0416
▁njég	-11.0416
▁séjour	-11.0416
▁coutume	-11.0416
▁maladroit	-11.0416
▁xamantane	-11.0416
▁cliché	-11.0416
▁fatigue	-11.0416
▁kuddu	-11.0416
▁tàccu	-11.0416
▁Macron	-11.0416
▁ponct	-11.0416
llemands	-11.0417
éléphant	-11.0417
▁1968	-11.0417
▁discipline	-11.0417
▁effect	-11.0417
▁fauteuil	-11.0417
▁Dellu	-11.0417
▁gàmmu	-11.0417
▁lekkool	-11.0417
▁nourrisson	-11.0417
▁quantité	-11.0417
▁recevoir	-11.0417
▁inconnu	-11.0417
▁pièce	-11.0417
▁jërr	-11.0417
▁pénible	-11.0417
▁ancêtres	-11.0417
▁hors	-11.0417
▁boîte	-11.0417
▁délicieux	-11.0417
▁ayubes	-11.0417
▁juuti	-11.0417
▁secoue	-11.0417
▁Modou	-11.0417
▁bataille	-11.0417
▁viendront	-11.0417
▁Saalum	-11.0417
▁Suukar	-11.0417
▁coiffeuse	-11.0417
▁Ramasse	-11.0417
▁chauffage	-11.0417
▁waxambaane	-11.0417
▁chéri	-11.0417
ucu	-11.0417
▁compét	-11.0417
▁dajaloo	-11.0417
▁faagaagal	-11.0417
▁sorcier	-11.0417
▁foudre	-11.0417
▁kaki	-11.0417
▁firiku	-11.0417
▁épaules	-11.0417
▁fëgg	-11.0417
▁gàjj	-11.0417
▁Ragal	-11.0417
▁cuvette	-11.0417
▁Tànk	-11.0417
▁bóox	-11.0417
▁genoux	-11.0417
▁mbindeef	-11.0417
▁Mbubb	-11.0417
▁bãŋ	-11.0417
▁bëmëx	-11.0417
▁domestique	-11.0417
▁franco	-11.0417
géwél	-11.0417
ède	-11.0417
▁généreux	-11.0417
▁turban	-11.0417
▁naître	-11.0417
▁heureux	-11.0417
▁mbemb	-11.0418
▁pêcheurs	-11.0418
▁recul	-11.0418
▁dankalikoo	-11.0418
▁ňàkk	-11.0418
▁ropp	-11.0418
▁États	-11.0418
▁frappions	-11.0418
▁jouets	-11.0418
▁Él	-11.0418
▁bagaas	-11.0418
▁Topp	-11.0418
▁lislaam	-11.0418
▁lentement	-11.0418
▁pension	-11.0418
▁compagnie	-11.0418
▁désherber	-11.0418
▁muraille	-11.0418
▁tonnerre	-11.0418
▁décent	-11.0418
▁Dëkkandoo	-11.0418
ulëer	-11.0418
▁feyyu	-11.0418
▁Enduis	-11.0419
▁gedd	-11.0419
▁fureur	-11.0419
▁abso	-11.0419
▁Rao	-11.0419
▁haie	-11.0419
▁circoncision	-11.0419
▁jaaxle	-11.0419
▁Plie	-11.0419
▁aloom	-11.0419
▁doq	-11.0419
▁éru	-11.0419
▁gorgé	-11.0419
▁fëq	-11.0419
▁gosse	-11.0419
▁fièvre	-11.0419
▁habituellement	-11.0419
▁pente	-11.0419
▁ministre	-11.0419
lbéen	-11.042
▁effort	-11.042
▁humide	-11.042
▁plaisanterie	-11.042
▁jaabante	-11.042
▁Terre	-11.042
▁lobe	-11.042
▁piqué	-11.042
▁aaytal	-11.042
▁Peul	-11.042
▁satisfait	-11.042
▁salut	-11.042
▁soxal	-11.042
▁ràpp	-11.042
▁sunguf	-11.0421
▁fàŋŋ	-11.0421
▁limite	-11.0421
▁connaissance	-11.0421
▁dormir	-11.0421
▁éteint	-11.0421
▁Ndeg	-11.0421
▁contraire	-11.0421
osité	-11.0421
▁coûte	-11.0421
▁Bamako	-11.0421
▁tàbbi	-11.0421
aigre	-11.0421
▁familier	-11.0422
▁cér	-11.0422
▁roo	-11.0422
▁position	-11.0422
▁Maroc	-11.0422
▁wooye	-11.0422
▁galoper	-11.0422
▁fameuse	-11.0422
▁myst	-11.0422
▁manche	-11.0422
▁móobal	-11.0422
▁Sàmm	-11.0422
▁lég	-11.0423
▁réduit	-11.0423
▁Jaaykat	-11.0423
▁wotoom	-11.0423
▁Soldaar	-11.0423
▁portale	-11.0423
▁poche	-11.0423
lóox	-11.0424
▁absent	-11.0424
▁wert	-11.0424
▁manqué	-11.0424
▁Alfa	-11.0424
▁moteur	-11.0424
▁venin	-11.0424
▁noix	-11.0424
▁plaisante	-11.0424
▁Garde	-11.0425
▁màkkaan	-11.0425
▁sagar	-11.0425
isible	-11.0425
gumbe	-11.0425
▁Fall	-11.0425
▁décrit	-11.0425
▁descendre	-11.0425
▁jàppandal	-11.0425
àngi	-11.0425
▁miirloo	-11.0426
▁këruus	-11.0426
▁Dinga	-11.0426
habite	-11.0426
▁néc	-11.0426
▁cendre	-11.0426
kiis	-11.0427
▁attitude	-11.0427
▁chapeaux	-11.0427
▁njël	-11.0427
▁changement	-11.0427
▁nàmp	-11.0427
▁Allons	-11.0428
▁mbuus	-11.0428
▁mbëtt	-11.0428
▁voient	-11.0428
▁creusé	-11.0428
▁woowa	-11.0428
▁ministar	-11.0428
▁sorewul	-11.0428
▁prix	-11.0428
▁rejet	-11.0428
▁dank	-11.0429
▁fendi	-11.0429
▁dencukaay	-11.0429
▁recommand	-11.043
▁weg	-11.043
jekkal	-11.043
accorder	-11.043
▁Yokkal	-11.043
▁marchand	-11.043
▁beauté	-11.0431
▁sooke	-11.0431
▁postu	-11.0431
▁naturelle	-11.0431
▁ouverte	-11.0431
▁Fecc	-11.0432
▁pétrole	-11.0432
▁Demkoon	-11.0432
▁jeunesse	-11.0432
▁Demuloo	-11.0433
▁lutin	-11.0433
▁dépend	-11.0433
▁bëggóon	-11.0433
▁kas	-11.0433
tout	-11.0433
▁appartient	-11.0434
▁apparaissent	-11.0434
▁épargn	-11.0434
▁plomb	-11.0434
▁lendemain	-11.0434
▁correct	-11.0434
▁géey	-11.0434
▁perdre	-11.0434
▁importance	-11.0434
▁souri	-11.0434
▁pegg	-11.0434
▁fowu	-11.0435
ish	-11.0435
▁Suuf	-11.0435
▁colin	-11.0436
▁mbott	-11.0436
▁genre	-11.0436
▁seraient	-11.0436
▁détest	-11.0436
▁gonflé	-11.0436
▁yemale	-11.0437
▁xàll	-11.0437
▁jàq	-11.0437
▁kookale	-11.0437
▁jadd	-11.0438
▁xumb	-11.0438
épineux	-11.0438
▁coudre	-11.0438
▁Poor	-11.0438
▁Tann	-11.0439
▁bagages	-11.0439
▁fibres	-11.0439
▁sœurs	-11.0439
▁téeméer	-11.0439
▁braises	-11.0439
▁lunettes	-11.0439
▁dagan	-11.0439
▁doxalin	-11.044
▁fàcc	-11.044
▁In	-11.044
▁allaient	-11.044
▁répu	-11.0441
▁piler	-11.0441
▁yeggee	-11.0441
▁bàyyiwul	-11.0441
▁céet	-11.0441
antee	-11.0442
▁tëwa	-11.0442
▁njaboot	-11.0442
▁relié	-11.0442
▁Damm	-11.0442
▁rugi	-11.0443
▁Mbam	-11.0443
▁ŋaam	-11.0444
▁sarax	-11.0444
▁rapporté	-11.0444
rit	-11.0445
▁foog	-11.0445
▁perte	-11.0445
▁flanc	-11.0446
▁àttaaya	-11.0446
▁ramp	-11.0446
▁maasaloo	-11.0446
▁exact	-11.0447
▁trouée	-11.0447
▁ôte	-11.0447
▁tortu	-11.0447
▁aajo	-11.0448
▁tappal	-11.0448
▁paas	-11.0448
▁barque	-11.0449
▁xalam	-11.0449
▁Céy	-11.045
▁paysage	-11.0451
▁dindi	-11.0451
▁rendait	-11.0452
▁Sàkk	-11.0452
▁Deg	-11.0453
▁rassembler	-11.0455
▁làng	-11.0455
▁partons	-11.0455
▁livré	-11.0455
ngalu	-11.0456
▁nuru	-11.0456
▁installé	-11.0458
▁sienne	-11.0458
▁bouchée	-11.0459
▁tendre	-11.0459
▁boyet	-11.0459
▁aimé	-11.0459
▁xarat	-11.046
▁Takkal	-11.046
▁bitik	-11.0461
▁moytu	-11.0462
▁luppu	-11.0462
ndigal	-11.0463
▁fumée	-11.0463
▁noppee	-11.0464
▁turam	-11.0464
▁querelle	-11.0464
▁US	-11.0464
▁Mokaa	-11.0465
▁téj	-11.047
stice	-11.047
▁Xeer	-11.0471
▁kersa	-11.0471
▁jumaa	-11.0472
▁jaxase	-11.0474
▁nirool	-11.0475
▁pont	-11.0476
▁saute	-11.0476
▁lèvres	-11.0477
▁lewet	-11.0477
▁timis	-11.0477
▁segg	-11.0478
▁graines	-11.0479
▁mordu	-11.0479
▁étudie	-11.048
▁yëkk	-11.0481
intention	-11.0481
▁wala	-11.0482
▁nappe	-11.0483
▁jëmmu	-11.0483
ulli	-11.0486
▁doyul	-11.0486
▁h	-11.0487
▁law	-11.0487
▁éclairs	-11.049
▁cambar	-11.049
▁mettee	-11.049
▁Gëm	-11.049
▁sipp	-11.049
see	-11.049
onnée	-11.0491
▁dàqe	-11.0492
▁Këram	-11.0493
ose	-11.0494
▁ndeyam	-11.0494
▁science	-11.0495
▁instrument	-11.0495
juram	-11.0497
▁yombul	-11.0497
▁daamar	-11.0497
▁musal	-11.0498
▁alalam	-11.0501
▁penser	-11.0504
waay	-11.0504
▁lever	-11.0504
▁cuisse	-11.0504
▁prenant	-11.0505
▁Bateri	-11.0506
▁raŋ	-11.0506
▁reins	-11.0507
▁bête	-11.051
▁dogal	-11.0511
▁esprits	-11.0511
arci	-11.0512
▁lenge	-11.0513
▁Pari	-11.0514
alante	-11.0515
▁puur	-11.0515
▁bat	-11.0515
▁Verse	-11.0515
▁étages	-11.0516
▁Joor	-11.0516
empire	-11.0517
▁esclaves	-11.0517
▁Dogal	-11.0518
àyyee	-11.052
▁déwén	-11.0522
▁beru	-11.0522
▁heure	-11.0523
▁traces	-11.0523
▁joŋ	-11.0524
▁restent	-11.0524
maam	-11.0525
▁Cependant	-11.0526
▁aumône	-11.0527
▁ordures	-11.0527
▁hyène	-11.0527
▁lekkul	-11.0527
▁apprend	-11.0527
▁fattu	-11.0529
▁ivre	-11.0529
▁baar	-11.0532
▁tiital	-11.0533
uléet	-11.0534
particulièrement	-11.0536
▁dallu	-11.0536
▁feeñal	-11.0539
▁Cour	-11.0541
lir	-11.0541
▁Banyo	-11.0542
▁battant	-11.0543
▁waaxu	-11.0546
▁ngoogu	-11.0547
▁fullaal	-11.0548
▁kooka	-11.0548
deux	-11.055
▁jaal	-11.0551
▁préven	-11.0551
▁puiser	-11.0551
▁lëg	-11.0553
▁Kanam	-11.0554
▁assiettes	-11.0556
▁secondes	-11.0556
▁touffes	-11.0556
▁aimer	-11.0559
▁Maures	-11.0561
▁faatu	-11.0562
▁fés	-11.0562
▁Paris	-11.0566
▁drapeau	-11.0567
▁Noon	-11.0571
▁kanamam	-11.0572
▁xer	-11.0572
▁anciens	-11.0573
▁karo	-11.0573
▁ouvertes	-11.0573
▁mbartal	-11.0574
▁neexoon	-11.0578
▁réf	-11.0578
▁joy	-11.0584
▁koog	-11.0584
abandonner	-11.0585
▁exerc	-11.0586
▁enfin	-11.0586
pé	-11.0587
▁juges	-11.0589
moire	-11.0592
▁jëkka	-11.0595
▁suffisa	-11.0595
▁yemu	-11.0596
▁partait	-11.0598
▁jépp	-11.06
▁partager	-11.0603
▁Aj	-11.0604
▁apporter	-11.0604
▁verra	-11.0606
▁reten	-11.0607
▁baaraamu	-11.0607
▁bëtam	-11.0608
▁diras	-11.0608
▁nar	-11.0609
▁avenir	-11.061
▁liw	-11.0611
▁Mak	-11.0612
▁dikkee	-11.0612
▁jiin	-11.0614
▁toogoon	-11.0615
▁tentes	-11.0617
▁làmmiñ	-11.0618
kaa	-11.0622
▁porté	-11.0624
▁mësul	-11.0624
▁dolli	-11.0625
▁joo	-11.0627
▁gënn	-11.0629
▁Jaar	-11.0631
▁potu	-11.0633
ché	-11.0638
▁Con	-11.0641
side	-11.0641
▁préserve	-11.0641
yya	-11.0642
teur	-11.0642
▁peinte	-11.0643
▁range	-11.0644
▁bës	-11.0647
▁nàkk	-11.0648
ac	-11.0651
▁baň	-11.0651
▁luisant	-11.0652
▁partent	-11.0654
▁bów	-11.0659
▁pé	-11.066
jaboot	-11.0662
▁Ker	-11.0664
▁ràkkaaju	-11.0665
▁écouter	-11.0666
anu	-11.0667
▁pisse	-11.0668
▁nob	-11.0668
▁gent	-11.0671
▁Më	-11.0676
alee	-11.0678
▁dell	-11.0683
▁voyageur	-11.0684
▁dispose	-11.0699
▁demuñu	-11.0699
▁cla	-11.07
bbi	-11.07
▁autorité	-11.0704
▁gore	-11.0704
▁jeneen	-11.0706
▁chique	-11.071
▁Amin	-11.0714
▁Tam	-11.0716
▁manquer	-11.0717
▁Moy	-11.0721
▁Jénda	-11.0721
▁Jén	-11.0722
intéresse	-11.0722
▁grosses	-11.0722
àmp	-11.0723
▁féexal	-11.0723
▁Dinañu	-11.0726
▁jagal	-11.0727
▁Yal	-11.0733
▁Njiit	-11.0736
▁Ji	-11.074
metti	-11.074
àttu	-11.0742
▁maîtres	-11.0745
ards	-11.0748
andal	-11.0752
▁jomb	-11.0759
▁Kook	-11.076
▁wutale	-11.0763
▁yoonam	-11.0766
▁habité	-11.0768
▁pou	-11.0778
▁jaas	-11.0778
▁Nekk	-11.0783
poser	-11.0784
▁waxi	-11.079
▁baaxoon	-11.0791
▁press	-11.0795
▁rayonn	-11.0806
envers	-11.0806
▁Kakaa	-11.082
▁lemu	-11.0823
▁Mburu	-11.0829
▁sages	-11.0832
▁fouille	-11.0835
ula	-11.0839
appelait	-11.084
▁lël	-11.084
▁duus	-11.0843
▁nourris	-11.0844
▁jib	-11.0845
▁daar	-11.0851
ñii	-11.0852
igne	-11.0854
▁droite	-11.0859
▁yore	-11.0859
▁aju	-11.0859
activer	-11.0859
▁sib	-11.0865
gg	-11.0866
▁Dee	-11.0867
▁robe	-11.0867
ndi	-11.0876
tóor	-11.0877
▁instants	-11.0878
▁xoole	-11.0885
▁Nil	-11.0885
▁furi	-11.0885
▁mënuloo	-11.0887
▁pique	-11.0888
▁cartes	-11.089
▁toogal	-11.0895
▁mët	-11.0906
mené	-11.0906
▁découverte	-11.0908
▁refuser	-11.0912
▁luxu	-11.0918
aab	-11.0921
▁plonge	-11.0923
▁extrai	-11.0926
jal	-11.0928
▁poules	-11.0932
▁hauteur	-11.0936
▁fowe	-11.0943
ide	-11.0946
éwël	-11.0949
omm	-11.0949
▁accepter	-11.0957
▁bac	-11.0962
▁pure	-11.0966
▁form	-11.0973
about	-11.0974
▁Xamu	-11.0983
▁Wóo	-11.0989
rax	-11.0997
tenir	-11.0998
▁wëri	-11.1004
▁serpents	-11.1006
▁révolte	-11.1007
don	-11.1016
▁yiw	-11.1024
▁colli	-11.1025
▁demuma	-11.1026
▁laaf	-11.1035
attraper	-11.1046
▁épouses	-11.1047
▁Bëggul	-11.1048
uji	-11.1051
▁constat	-11.1056
eket	-11.1061
ajaa	-11.1067
▁liggéeykat	-11.1069
bar	-11.1077
▁Baal	-11.1078
▁wéeru	-11.1083
▁jotu	-11.1086
éjal	-11.1093
▁Daa	-11.1095
▁cax	-11.1096
lit	-11.1099
ari	-11.1104
▁defoon	-11.111
▁daju	-11.1113
▁assise	-11.112
ol	-11.1121
▁messe	-11.1122
lles	-11.1123
▁médecine	-11.1125
attendre	-11.1126
▁giir	-11.1129
▁dajee	-11.113
▁besoins	-11.1132
▁Faal	-11.1141
▁Pai	-11.1153
▁Mbal	-11.1153
▁dëkkee	-11.1157
julli	-11.1158
irais	-11.1161
▁dag	-11.1168
▁frères	-11.1174
▁singes	-11.1174
▁bén	-11.1187
▁dégge	-11.1192
▁jullit	-11.1196
eem	-11.1205
baana	-11.1209
rez	-11.1222
goom	-11.1224
▁répare	-11.1227
▁marches	-11.1231
▁pr	-11.1236
▁jàppandi	-11.1241
▁taxu	-11.1242
▁dépla	-11.1244
▁descendra	-11.1249
▁national	-11.1251
▁coiff	-11.1255
chi	-11.1255
▁Jaf	-11.1255
▁dàgg	-11.1262
▁doonoon	-11.1285
▁Jant	-11.13
rouler	-11.1309
ëb	-11.1312
▁change	-11.1315
▁Fil	-11.1319
▁fir	-11.1326
xe	-11.1327
▁tuutee	-11.1342
▁préfér	-11.1357
▁loos	-11.1359
ntes	-11.1365
▁morte	-11.1372
▁pratiqu	-11.1377
▁ňa	-11.1383
nqal	-11.1386
agante	-11.1388
laire	-11.1391
▁ñibbis	-11.1392
▁viendras	-11.1398
▁wee	-11.1403
avions	-11.1414
ññ	-11.142
jot	-11.142
araas	-11.1421
hasse	-11.1425
▁dames	-11.1442
awle	-11.1446
issement	-11.145
▁dikkal	-11.1456
▁conten	-11.147
▁awu	-11.147
▁éc	-11.1478
▁cuis	-11.148
asal	-11.1497
▁Ànd	-11.1501
▁sauv	-11.1505
▁sida	-11.1506
utilité	-11.1511
▁connaître	-11.1518
▁noot	-11.1521
lancé	-11.1526
▁jiwu	-11.1527
▁Bool	-11.1534
▁br	-11.1535
géeju	-11.1555
▁toile	-11.1567
▁parc	-11.1568
▁danser	-11.1582
ural	-11.1583
▁jubb	-11.1588
ikk	-11.1606
ara	-11.1613
inka	-11.1618
▁enseigne	-11.1644
▁convo	-11.165
▁bërë	-11.1677
▁souhait	-11.1686
▁muñ	-11.1689
▁imp	-11.1695
ut	-11.1722
▁can	-11.1723
▁entend	-11.1724
▁jàlle	-11.1728
engag	-11.1737
ries	-11.1741
▁fine	-11.1742
▁demb	-11.1746
ekte	-11.1753
▁tàggoo	-11.1757
ém	-11.1758
▁saisi	-11.1763
enferme	-11.1767
eetuñu	-11.1768
▁dot	-11.1781
▁kur	-11.1786
alité	-11.1789
okk	-11.1802
resser	-11.1808
▁taar	-11.1816
▁jooj	-11.1828
venant	-11.1832
▁kees	-11.1843
ëq	-11.1847
ugub	-11.1849
▁sos	-11.1856
▁nekkin	-11.1859
saan	-11.1874
▁Be	-11.1883
▁Fab	-11.19
ments	-11.1903
éri	-11.1906
ateur	-11.1914
▁trouv	-11.1927
▁manifeste	-11.1939
▁provoque	-11.1941
▁manifest	-11.1954
▁dootu	-11.1965
mbi	-11.1967
gul	-11.1986
▁senti	-11.199
▁sortie	-11.1999
▁rentre	-11.201
▁Dée	-11.2035
deur	-11.2049
ggi	-11.2064
▁Dara	-11.2072
▁yaru	-11.2076
▁rég	-11.2085
▁Agsi	-11.2123
▁xame	-11.2131
▁waxaale	-11.2132
▁Yen	-11.2155
▁Bay	-11.2155
▁Co	-11.2155
▁Jur	-11.2156
àbbe	-11.2157
▁lo	-11.2161
▁représente	-11.217
entraîne	-11.2175
▁kàcc	-11.2176
cier	-11.219
tente	-11.2197
imp	-11.2197
▁fri	-11.2229
vit	-11.2232
dul	-11.2254
pa	-11.2265
ànnal	-11.2266
▁bri	-11.2272
▁nuits	-11.2288
koo	-11.2289
▁rat	-11.2303
▁étal	-11.2303
▁layu	-11.2304
àbbal	-11.2306
▁jafee	-11.2321
▁organise	-11.233
▁devrai	-11.2335
▁ño	-11.2338
che	-11.2363
ica	-11.2371
dex	-11.2389
ants	-11.2412
tait	-11.2415
eut	-11.2417
v	-11.2422
uñ	-11.2427
▁Sor	-11.2442
▁Ami	-11.2455
▁nj	-11.2458
cé	-11.2465
▁mënoo	-11.2484
▁bos	-11.2489
▁Ara	-11.249
▁yatt	-11.2498
▁Muu	-11.2504
▁dong	-11.251
▁lawoon	-11.251
vrait	-11.2513
▁fal	-11.2522
▁To	-11.2547
gaan	-11.2565
etti	-11.2578
ngo	-11.2583
ises	-11.2586
omme	-11.2587
nit	-11.2596
our	-11.2606
▁bër	-11.2618
▁déj	-11.2623
▁Lal	-11.2626
ôt	-11.2634
ŋun	-11.2661
tron	-11.2663
▁yooy	-11.2687
▁Ye	-11.2704
ëbb	-11.2733
raan	-11.276
▁Ken	-11.2763
cle	-11.2777
inu	-11.2784
mba	-11.279
▁o	-11.2794
▁tau	-11.2828
daas	-11.2829
iste	-11.2834
xaw	-11.2835
aane	-11.2856
▁chameau	-11.2874
▁accrochée	-11.2882
éli	-11.2895
jantu	-11.2905
gam	-11.2913
daar	-11.2941
faites	-11.2946
▁arrêt	-11.296
room	-11.2982
▁rev	-11.2985
▁naar	-11.2999
▁ŋa	-11.3007
▁Ra	-11.3012
▁Sot	-11.3012
ston	-11.3013
▁biiri	-11.3029
ente	-11.3033
▁bou	-11.3034
ëm	-11.3036
éet	-11.3043
ï	-11.3072
▁teint	-11.3072
undu	-11.3074
▁Gi	-11.3078
elaw	-11.3087
▁isolé	-11.3089
▁rob	-11.3092
▁repris	-11.3092
cer	-11.3097
▁mor	-11.3107
▁tasee	-11.3108
lions	-11.3126
▁redoute	-11.3132
action	-11.3132
mmi	-11.3132
▁teer	-11.3138
▁poussé	-11.3149
▁av	-11.315
▁gare	-11.3151
aises	-11.316
ables	-11.3162
nne	-11.3165
▁tée	-11.3173
àqal	-11.3174
▁rassembl	-11.3183
▁active	-11.3188
▁sangu	-11.319
▁daas	-11.3214
▁appel	-11.3233
ewuma	-11.3234
▁étrang	-11.3235
aama	-11.3238
▁sut	-11.3248
mis	-11.3258
▁rayon	-11.3259
▁chauffe	-11.3268
ruqu	-11.3296
▁ñag	-11.3304
ttu	-11.3307
▁procur	-11.3324
▁casser	-11.3328
ggal	-11.3337
ères	-11.3339
ive	-11.3342
▁yaroo	-11.3346
isser	-11.3348
▁conf	-11.3355
▁tourné	-11.3355
▁fé	-11.3361
waa	-11.3362
▁jaww	-11.3366
▁arrache	-11.3371
ailler	-11.3371
▁laissée	-11.3371
dam	-11.3373
▁caché	-11.3378
aimes	-11.3388
habitation	-11.3398
▁écouta	-11.3403
▁Fe	-11.3403
▁pend	-11.3405
ron	-11.3406
uel	-11.341
▁dégage	-11.3422
ballax	-11.3426
eri	-11.3439
ëddal	-11.3447
tou	-11.3448
mise	-11.3458
dé	-11.346
jëkk	-11.3467
▁peint	-11.3467
▁gàdd	-11.3471
cité	-11.3479
junni	-11.3491
▁terrasse	-11.3498
isme	-11.35
▁dépouill	-11.3501
wet	-11.3503
▁conçu	-11.3503
rogn	-11.351
▁coule	-11.351
▁he	-11.3512
▁kàttanu	-11.3515
ccal	-11.3515
rément	-11.3517
▁touch	-11.3519
▁racont	-11.3519
▁dëbb	-11.352
iné	-11.3523
▁Pou	-11.3526
ph	-11.353
▁coïncide	-11.3534
▁pleu	-11.3539
▁cordon	-11.3547
uses	-11.3547
▁jalga	-11.3552
▁mëne	-11.356
▁parcour	-11.3562
rude	-11.3563
origine	-11.3572
ànq	-11.3576
▁Foof	-11.3577
cot	-11.3588
▁Européen	-11.3589
▁distance	-11.3591
▁chanson	-11.3591
▁mensonge	-11.3591
▁prospère	-11.3591
▁groupe	-11.3591
▁écriture	-11.3592
▁congé	-11.3594
ssé	-11.3594
nté	-11.36
▁vautour	-11.3602
▁hi	-11.3603
habille	-11.3604
accompagne	-11.3604
▁moustiquaire	-11.3606
▁palmier	-11.3606
▁perçoi	-11.3606
▁banane	-11.3606
allume	-11.3607
neau	-11.3607
kin	-11.361
▁bày	-11.3611
▁esclave	-11.3612
▁enf	-11.3613
▁caravane	-11.3615
▁termitière	-11.3616
▁offr	-11.3618
▁imagin	-11.3618
▁soldat	-11.3618
▁lors	-11.3618
▁péché	-11.362
▁Dio	-11.3621
▁coo	-11.3622
Européens	-11.3623
▁geste	-11.3623
émotion	-11.3623
espoir	-11.3623
▁militaire	-11.3624
▁rituel	-11.3624
étendue	-11.3624
percé	-11.3624
▁relation	-11.3625
dits	-11.3625
aaje	-11.3625
▁lutteur	-11.3626
▁Tan	-11.3626
▁monta	-11.3627
approche	-11.3634
interprète	-11.3636
occasion	-11.3636
▁repouss	-11.3638
arracher	-11.364
instrument	-11.3641
▁étage	-11.3642
science	-11.3643
utilis	-11.3644
arrivée	-11.3645
dég	-11.3647
Aro	-11.3648
lëpp	-11.3648
slaa	-11.3648
▁jébbal	-11.3648
construi	-11.3649
naissance	-11.365
yëngu	-11.3651
demain	-11.3652
épouse	-11.3652
état	-11.3652
Astou	-11.3652
ançai	-11.3652
feebar	-11.3652
▁passée	-11.3654
jàmm	-11.3654
gaañu	-11.3654
▁réconcili	-11.366
sang	-11.366
daamar	-11.3661
wàll	-11.3663
ekool	-11.3664
apporte	-11.3669
▁frapp	-11.3671
▁Nopp	-11.3672
▁tra	-11.3673
▁achet	-11.3677
óob	-11.3681
samaan	-11.3683
guiss	-11.3686
▁enfoncé	-11.3686
ñetti	-11.3686
nesi	-11.3686
▁trace	-11.3688
ooñii	-11.369
ège	-11.3693
▁masque	-11.3694
ression	-11.3695
▁wóo	-11.3696
▁Tool	-11.3698
▁reven	-11.37
eeñ	-11.3706
▁naqad	-11.3707
ssait	-11.3708
assemble	-11.3709
unique	-11.371
guñu	-11.371
ëndi	-11.371
▁tourne	-11.3715
▁paie	-11.3716
ignée	-11.3719
▁bàkk	-11.372
tuuti	-11.3721
▁creus	-11.3723
▁réchauffe	-11.3724
bles	-11.3726
▁réveille	-11.3726
▁chap	-11.3727
hoisi	-11.3727
▁Yooy	-11.3728
avane	-11.373
▁rappel	-11.3731
▁Ngon	-11.3732
▁ve	-11.3734
iser	-11.3735
baxana	-11.3736
ouc	-11.3736
▁remercie	-11.3738
▁xott	-11.3738
▁allumé	-11.3738
usion	-11.3739
eegul	-11.3739
▁danger	-11.3743
off	-11.3743
▁remonte	-11.3744
▁tourbillon	-11.3744
ndale	-11.3744
▁Confi	-11.3744
▁démo	-11.3745
▁Babungo	-11.3747
insectes	-11.3747
humid	-11.3747
▁yëge	-11.3747
envol	-11.3748
▁européen	-11.3748
eille	-11.3748
aobab	-11.3748
▁firnde	-11.3748
vêtement	-11.3749
honneur	-11.3749
▁ŋgoogu	-11.3749
oolaa	-11.3749
ension	-11.3749
sultat	-11.375
splendi	-11.375
▁tradition	-11.375
▁195	-11.375
4	-11.375
Adamawa	-11.375
Unis	-11.375
apparition	-11.375
arrachait	-11.375
calpel	-11.375
emboît	-11.375
mbrées	-11.375
urgence	-11.375
xóll	-11.375
Ô	-11.375
ébénier	-11.375
▁Algérie	-11.375
▁Bénuwe	-11.375
▁Cokkeer	-11.375
▁Colonie	-11.375
▁Fields	-11.375
▁Français	-11.375
▁Surveille	-11.375
▁Toucouleur	-11.375
▁Wàññil	-11.375
▁affluent	-11.375
▁armool	-11.375
▁assailli	-11.375
▁bandoulière	-11.375
▁banlieue	-11.375
▁benkeñenke	-11.375
▁boulevers	-11.375
▁bànxaas	-11.375
▁bêle	-11.375
▁caricatural	-11.375
▁chirurgi	-11.375
▁chrétiens	-11.375
▁cimetière	-11.375
▁circoncire	-11.375
▁climatiseurs	-11.375
▁cloche	-11.375
▁comestible	-11.375
▁conservé	-11.375
▁considère	-11.375
▁conversation	-11.375
▁corrompu	-11.375
▁crocodile	-11.375
▁difficulté	-11.375
▁différence	-11.375
▁dispañseer	-11.375
▁dispensaire	-11.375
▁dispositions	-11.375
▁douloureux	-11.375
▁dysenterie	-11.375
▁débarrasser	-11.375
▁décédé	-11.375
▁déçu	-11.375
▁efficace	-11.375
▁entorse	-11.375
▁extralucide	-11.375
▁fidélité	-11.375
▁gafaka	-11.375
▁goyave	-11.375
▁grenouille	-11.375
▁gàngiri	-11.375
▁générosité	-11.375
▁gérer	-11.375
▁gëtën	-11.375
▁immeuble	-11.375
▁incessant	-11.375
▁indisciplin	-11.375
▁indécent	-11.375
▁invisible	-11.375
▁justifi	-11.375
▁kaabaab	-11.375
▁kilifteef	-11.375
▁légitimer	-11.375
▁lépreux	-11.375
▁lézard	-11.375
▁margouillat	-11.375
▁minuscule	-11.375
▁médiocr	-11.375
▁nostalgie	-11.375
▁oblige	-11.375
▁papillon	-11.375
▁paralytique	-11.375
▁pelouse	-11.375
▁possession	-11.375
▁postérieur	-11.375
▁proverbe	-11.375
▁raciale	-11.375
▁ramadan	-11.375
▁recommencer	-11.375
▁recouvert	-11.375
▁ressources	-11.375
▁ridicule	-11.375
▁roppëlaan	-11.375
▁râpe	-11.375
▁réception	-11.375
▁réclame	-11.375
▁récompense	-11.375
▁réservoir	-11.375
▁résidence	-11.375
▁résignation	-11.375
▁scrupule	-11.375
▁serviteurs	-11.375
▁signifiai	-11.375
▁souverain	-11.375
▁sportive	-11.375
▁subitement	-11.375
▁syphilis	-11.375
▁taariix	-11.375
▁totaux	-11.375
▁treize	-11.375
▁tribales	-11.375
▁turbulent	-11.375
▁xippi	-11.375
▁yéjje	-11.375
▁Ëllëg	-11.375
▁Ëndi	-11.375
▁écrivent	-11.375
▁établi	-11.375
▁ófise	-11.375
escalad	-11.375
▁Kàttan	-11.375
▁Radiyasi	-11.375
▁commande	-11.375
▁considérable	-11.375
▁encerclé	-11.375
▁grouill	-11.375
▁popula	-11.375
▁semblait	-11.375
impossib	-11.375
▁Faranse	-11.375
▁almet	-11.375
▁biddanti	-11.375
▁brindille	-11.375
▁camarades	-11.375
▁cicatrice	-11.375
▁débrouill	-11.375
▁ginnax	-11.375
▁impeccable	-11.375
▁islamique	-11.375
▁pauvre	-11.375
▁pikiir	-11.375
▁protég	-11.375
▁racines	-11.375
▁réserve	-11.375
▁veillée	-11.375
▁méthod	-11.375
▁révél	-11.375
▁traditionnelle	-11.375
▁Génn	-11.375
▁défunt	-11.375
▁janool	-11.375
▁naaféq	-11.375
▁personnalité	-11.375
▁sautille	-11.375
▁sinemaa	-11.375
▁Place	-11.375
▁enroulé	-11.375
▁intimes	-11.375
▁problème	-11.375
▁ténia	-11.375
enfonce	-11.375
▁Delloo	-11.375
▁Saawusamton	-11.375
▁baakaar	-11.375
▁craquelée	-11.375
▁iróko	-11.375
▁sébbi	-11.375
▁sécher	-11.375
ligence	-11.375
▁précipit	-11.375
▁Aïe	-11.375
▁chauve	-11.375
▁défens	-11.375
▁fluide	-11.375
▁kàndaŋ	-11.375
▁naŋgu	-11.375
▁reetaan	-11.375
▁sigaret	-11.375
▁Keroog	-11.375
▁kàmpa	-11.375
▁latérite	-11.375
▁carafe	-11.375
▁conserve	-11.375
▁fronde	-11.375
▁ñàng	-11.375
▁décharge	-11.375
▁glacé	-11.375
▁oignons	-11.375
▁bienfait	-11.375
▁vélo	-11.375
▁étouffante	-11.375
▁ëw	-11.375
▁cinquante	-11.375
▁fell	-11.375
▁mellax	-11.375
▁Cayor	-11.375
▁jalous	-11.375
▁choeur	-11.375
▁Kaamil	-11.375
▁Riwër	-11.375
▁allongé	-11.375
▁initié	-11.375
▁intens	-11.375
▁boulettes	-11.375
▁explication	-11.375
▁politique	-11.375
▁profess	-11.375
▁peigne	-11.375
▁bambara	-11.375
▁fànn	-11.375
▁méfi	-11.375
▁suppose	-11.375
▁Fàttewu	-11.375
▁Redresse	-11.375
▁gallax	-11.375
ténué	-11.375
▁gousse	-11.375
▁jéex	-11.375
▁pacifi	-11.375
▁Alseri	-11.375
▁promesse	-11.375
▁boucles	-11.375
▁brutale	-11.375
▁grève	-11.375
achevé	-11.375
▁Polisoŋ	-11.375
▁remède	-11.375
▁public	-11.375
▁tilim	-11.375
▁sujet	-11.375
islam	-11.375
▁communauté	-11.375
▁Xë	-11.375
▁critique	-11.375
▁bougie	-11.375
▁canari	-11.375
▁Satan	-11.375
▁baraque	-11.375
▁prisonnier	-11.375
▁ñebbe	-11.375
▁baadoolo	-11.375
▁faxas	-11.375
▁galeries	-11.375
▁batã	-11.375
▁sexuel	-11.375
▁Fiild	-11.375
▁River	-11.375
▁refusai	-11.375
▁déborda	-11.375
▁saŋx	-11.375
▁Mësuma	-11.375
▁reparti	-11.375
▁préparai	-11.375
▁soppikoo	-11.375
▁évite	-11.375
▁sculptés	-11.375
pto	-11.375
▁certitude	-11.375
▁colonisation	-11.375
▁Diop	-11.375
▁respire	-11.375
▁poignée	-11.375
▁proue	-11.375
▁épais	-11.375
▁contrai	-11.375
▁noyyee	-11.375
▁xëm	-11.375
▁séddale	-11.375
▁Lorsqu	-11.375
▁mérou	-11.375
âme	-11.375
▁wol	-11.375
▁applaudi	-11.375
▁barigo	-11.375
▁aimait	-11.3751
▁gayet	-11.3751
▁ferñent	-11.3751
▁walbatiku	-11.3751
▁dedans	-11.3751
▁totale	-11.3751
▁jàmbat	-11.3751
encens	-11.3751
▁Bénoué	-11.3751
▁vibr	-11.3751
accommode	-11.3751
▁bàkkaar	-11.3751
▁jégeñante	-11.3751
▁wékk	-11.3751
▁arrivaient	-11.3751
▁colonne	-11.3751
▁géj	-11.3751
▁ruuj	-11.3751
▁tàyyi	-11.3751
▁téter	-11.3751
yaa	-11.3751
▁garbo	-11.3751
▁déclar	-11.3751
▁châti	-11.3751
amitié	-11.3751
Christ	-11.3751
▁inquiet	-11.3751
▁jafandu	-11.3751
▁visible	-11.3751
▁géant	-11.3751
▁vêtements	-11.3751
▁descente	-11.3751
▁discrète	-11.3751
taññ	-11.3751
▁karwaat	-11.3751
escalier	-11.3751
▁reconnaître	-11.3751
▁apparaître	-11.3751
▁jaadu	-11.3751
▁culotte	-11.3751
▁malhonnête	-11.3751
▁tournant	-11.3751
▁sourd	-11.3751
▁Altine	-11.3751
▁ruine	-11.3751
ddeeku	-11.3751
▁Indiens	-11.3752
poussiér	-11.3752
▁parfaitement	-11.3752
▁proie	-11.3752
éexu	-11.3752
▁gifle	-11.3752
▁yaxeet	-11.3752
▁Demain	-11.3752
▁désordre	-11.3752
▁Abdou	-11.3752
▁xamadi	-11.3752
▁Diggante	-11.3752
▁complic	-11.3752
▁jokkoo	-11.3752
▁rajoom	-11.3752
res	-11.3752
▁retrouve	-11.3752
▁inject	-11.3752
▁réconciliation	-11.3752
▁ressort	-11.3752
▁rôle	-11.3752
▁soble	-11.3752
▁crâne	-11.3752
entrelace	-11.3752
▁haine	-11.3752
▁Commence	-11.3752
▁ancienne	-11.3752
▁prétend	-11.3752
▁orages	-11.3752
▁bavardage	-11.3752
▁déris	-11.3752
▁Niseer	-11.3753
▁Wàcc	-11.3753
▁dédd	-11.3753
▁jonkon	-11.3753
▁baguette	-11.3753
▁détermination	-11.3753
▁gorilles	-11.3753
▁monument	-11.3753
demba	-11.3753
▁Ndey	-11.3753
▁cuq	-11.3753
▁coussin	-11.3753
▁xiif	-11.3753
▁piquant	-11.3753
▁mbàpp	-11.3753
▁Niger	-11.3753
▁religieuse	-11.3753
▁fexeel	-11.3753
▁redress	-11.3753
▁Jataŋ	-11.3753
▁ngunu	-11.3753
▁assassiné	-11.3753
▁dignité	-11.3753
emmène	-11.3754
▁ňoom	-11.3754
▁germe	-11.3754
▁cordonnier	-11.3754
▁taillé	-11.3754
▁Dites	-11.3754
▁entièrement	-11.3754
▁figuier	-11.3754
▁grillées	-11.3754
▁Ndem	-11.3754
▁kéwël	-11.3754
▁toux	-11.3755
▁courb	-11.3755
ddiw	-11.3755
▁Ngom	-11.3755
aleekum	-11.3755
▁Jëkkër	-11.3755
▁conco	-11.3755
▁juuyoo	-11.3755
▁nammeel	-11.3755
▁Aadamawa	-11.3755
affût	-11.3755
▁courge	-11.3755
▁veuille	-11.3755
▁renf	-11.3755
▁mbooy	-11.3755
▁vieillesse	-11.3755
▁craquer	-11.3756
▁récolter	-11.3756
utér	-11.3756
▁mortier	-11.3756
▁lottal	-11.3756
▁lugat	-11.3756
▁culture	-11.3756
méro	-11.3756
▁Gànnaar	-11.3756
▁Jaxaa	-11.3757
▁colons	-11.3757
▁Mbootaay	-11.3757
▁travaillait	-11.3757
▁duuful	-11.3757
▁wisit	-11.3757
▁voyait	-11.3757
▁promis	-11.3757
▁tooñ	-11.3758
▁fraîche	-11.3758
▁venger	-11.3758
▁mbindaan	-11.3758
rmis	-11.3758
▁fëlë	-11.3758
▁Eux	-11.3758
▁njool	-11.3759
▁mbàjj	-11.3759
▁couverture	-11.3759
▁constituée	-11.3759
▁relev	-11.376
▁surpris	-11.376
▁yëngoo	-11.376
▁raflé	-11.376
▁généralement	-11.376
▁Demande	-11.376
▁épuisé	-11.376
▁dëkkandoom	-11.376
▁honor	-11.376
iennent	-11.376
elokaan	-11.376
▁soif	-11.376
sutura	-11.376
▁cuub	-11.376
▁Jéeg	-11.3761
▁soupir	-11.3761
▁brûlait	-11.3761
▁Wiyaa	-11.3761
▁modd	-11.3761
▁allumées	-11.3761
▁manies	-11.3761
▁poison	-11.3762
▁butit	-11.3762
▁répéter	-11.3762
▁vivaient	-11.3762
▁remerciement	-11.3762
▁Ijama	-11.3762
▁geestu	-11.3762
rateur	-11.3762
▁dammat	-11.3762
▁talent	-11.3762
dée	-11.3762
▁pagaie	-11.3762
▁poux	-11.3762
▁reposer	-11.3763
▁rapprochée	-11.3763
▁siège	-11.3763
onsieur	-11.3763
▁apportai	-11.3763
▁Fàll	-11.3763
source	-11.3763
ssage	-11.3763
▁Habi	-11.3764
▁habillé	-11.3764
élève	-11.3764
▁féexlu	-11.3764
▁fóon	-11.3764
▁dénu	-11.3764
▁laabiir	-11.3764
▁digaale	-11.3764
▁yéreem	-11.3764
nore	-11.3765
▁tanc	-11.3765
▁Coono	-11.3765
▁revoir	-11.3765
▁métall	-11.3765
▁Lëkkaay	-11.3765
▁messager	-11.3766
▁tremper	-11.3766
▁kooba	-11.3766
▁rajoutes	-11.3766
▁bouillir	-11.3766
▁wenn	-11.3766
▁Aca	-11.3766
▁protègent	-11.3766
▁fuuy	-11.3767
▁cassure	-11.3767
oxoom	-11.3767
▁pàkk	-11.3767
iwo	-11.3767
▁réconcilier	-11.3767
▁pleut	-11.3767
▁crin	-11.3768
▁Riis	-11.3768
▁sérieux	-11.3768
▁Nguur	-11.3768
▁goroŋ	-11.3768
ingue	-11.3768
▁camion	-11.3769
▁pendent	-11.3769
examen	-11.3769
▁Jën	-11.377
▁bóoy	-11.377
▁film	-11.377
▁Fanaan	-11.377
▁mëq	-11.3771
▁fàll	-11.3771
entrer	-11.3771
▁etaas	-11.3772
▁pouce	-11.3772
▁Sall	-11.3772
▁moderne	-11.3773
économie	-11.3773
▁revanche	-11.3773
▁équatoriale	-11.3773
▁Ferme	-11.3773
▁Jóob	-11.3773
▁Tàngaay	-11.3773
▁gubal	-11.3773
▁forger	-11.3774
▁feem	-11.3774
▁cachai	-11.3774
▁reyante	-11.3774
▁yéy	-11.3774
▁ndoorte	-11.3775
▁yamb	-11.3775
▁attiré	-11.3775
▁consta	-11.3775
▁exploit	-11.3775
▁douze	-11.3775
▁emploi	-11.3775
▁obscur	-11.3775
▁ordinaire	-11.3775
▁siècle	-11.3775
▁jikko	-11.3775
▁paradis	-11.3775
▁entoure	-11.3775
▁nóox	-11.3775
▁saabu	-11.3775
▁parfum	-11.3775
▁pensée	-11.3776
viennent	-11.3776
▁niróo	-11.3776
éef	-11.3776
▁tënk	-11.3776
▁conju	-11.3776
▁réchauffer	-11.3776
▁jaambaar	-11.3776
▁Sàll	-11.3776
▁réveiller	-11.3776
▁Bitik	-11.3776
▁cachette	-11.3776
▁mbañ	-11.3777
▁xàmb	-11.3777
▁Bro	-11.3777
▁salue	-11.3777
▁natale	-11.3777
▁karaaf	-11.3777
▁Dugal	-11.3777
▁Serre	-11.3777
zar	-11.3778
▁Yeew	-11.3778
▁yégee	-11.3778
▁ñorul	-11.3778
▁kókkali	-11.3779
▁yegsi	-11.3779
▁jong	-11.3779
▁yàkkamti	-11.3779
▁suivant	-11.3779
pho	-11.378
▁héritier	-11.378
▁Tire	-11.378
▁combi	-11.3781
▁fem	-11.3781
▁arrivant	-11.3781
▁Togg	-11.3781
▁jebbi	-11.3781
▁yewwu	-11.3781
▁détend	-11.3782
▁exige	-11.3782
▁allumette	-11.3782
▁invités	-11.3782
▁moustiques	-11.3782
▁pire	-11.3782
▁cherchait	-11.3782
▁tukkee	-11.3782
▁Waxu	-11.3783
▁inventé	-11.3783
raake	-11.3783
▁kanna	-11.3783
▁dëmm	-11.3783
▁yewwi	-11.3783
▁fouettera	-11.3783
▁gaana	-11.3784
▁pistes	-11.3784
▁plaintes	-11.3785
▁proprement	-11.3785
existence	-11.3785
▁yó	-11.3785
▁jëpp	-11.3785
▁transporté	-11.3786
iakha	-11.3786
▁Deret	-11.3787
mall	-11.3787
▁keppaar	-11.3787
▁xiir	-11.3787
▁màcc	-11.3787
▁demkoonul	-11.3787
▁nàmpal	-11.3788
▁gamb	-11.3788
▁répondre	-11.3788
waas	-11.3788
▁secours	-11.3788
▁dajeel	-11.3789
▁luxe	-11.3789
▁gëmoon	-11.3789
▁sëriñ	-11.3789
▁Janq	-11.3789
épic	-11.3789
raŋ	-11.3789
rage	-11.379
▁montar	-11.379
▁génnaan	-11.3791
▁pet	-11.3791
▁brill	-11.3791
▁courtis	-11.3792
▁jaŋ	-11.3792
▁Autre	-11.3793
▁xañ	-11.3793
▁Kari	-11.3793
nze	-11.3793
▁mortel	-11.3793
▁ramasser	-11.3793
▁renverse	-11.3794
▁clin	-11.3794
jour	-11.3794
▁xotti	-11.3794
▁excité	-11.3794
limaan	-11.3794
▁lë	-11.3795
▁juboo	-11.3795
▁Xaal	-11.3795
▁Teggi	-11.3796
▁voler	-11.3796
▁origines	-11.3796
ttarñi	-11.3796
▁résonner	-11.3797
▁accent	-11.3797
▁Yooyu	-11.3797
▁bàkku	-11.3798
▁chair	-11.3798
▁devenir	-11.3798
▁dépe	-11.3799
▁commissa	-11.38
▁àndandoo	-11.38
▁dëgm	-11.38
▁xëccee	-11.3801
▁màggal	-11.3801
▁yaasa	-11.3802
▁débarqu	-11.3802
opération	-11.3802
▁paan	-11.3803
▁consacré	-11.3803
▁partez	-11.3803
abeilles	-11.3804
▁jafal	-11.3804
▁yàcc	-11.3806
▁reprend	-11.3807
▁adopt	-11.3807
▁xëpp	-11.3807
▁études	-11.3807
▁qualité	-11.3807
▁akara	-11.3808
entasse	-11.3808
▁laisseras	-11.3809
▁foye	-11.381
lentaan	-11.381
▁loi	-11.381
▁bientôt	-11.381
▁dënnam	-11.381
▁contenu	-11.3811
▁épines	-11.3811
▁concerne	-11.3812
▁apparue	-11.3812
▁contrebas	-11.3812
▁jaayaan	-11.3812
axum	-11.3812
▁bàyyima	-11.3813
▁sàpp	-11.3813
▁dalukaay	-11.3813
▁goûté	-11.3814
▁Solal	-11.3815
ndeer	-11.3815
▁poivr	-11.3815
▁bàjj	-11.3816
▁jëkkëram	-11.3816
▁gisu	-11.3816
▁weexaay	-11.3816
▁sache	-11.3817
▁Fenn	-11.3818
▁verset	-11.3819
▁humeur	-11.3819
▁appartement	-11.3819
▁incendie	-11.3819
▁étoile	-11.3819
▁étroit	-11.3819
▁bëccëg	-11.3819
▁Suku	-11.3819
▁mbuusu	-11.382
▁convainc	-11.3821
▁bark	-11.3821
araign	-11.3822
▁millions	-11.3822
▁épaisse	-11.3822
▁goûter	-11.3822
▁kumpa	-11.3822
naires	-11.3822
▁dàmp	-11.3822
▁Nou	-11.3822
▁montré	-11.3822
▁utilisé	-11.3823
bari	-11.3824
▁ganale	-11.3824
▁muuñ	-11.3824
efface	-11.3825
Louisien	-11.3826
▁fuite	-11.3826
wlin	-11.3826
▁entretien	-11.3827
▁pile	-11.3828
▁magie	-11.3829
▁durant	-11.3829
▁sukkandik	-11.3829
▁jéeg	-11.383
▁saisir	-11.383
▁broy	-11.383
▁Ngoy	-11.3831
▁devin	-11.3831
▁louche	-11.3831
▁saakam	-11.3831
▁comparer	-11.3832
▁différente	-11.3832
écoupe	-11.3832
▁mulet	-11.3834
agrandi	-11.3834
▁oreiller	-11.3835
▁sawar	-11.3835
nable	-11.3837
▁bouger	-11.3837
▁gang	-11.3837
figure	-11.3837
▁franchi	-11.3837
▁ennemis	-11.3837
▁gàcce	-11.3837
▁plaid	-11.3838
▁Néegu	-11.3838
▁lointains	-11.3838
▁tiroirs	-11.3838
▁démarches	-11.3838
▁pâtes	-11.3838
▁semblables	-11.3838
▁bonbons	-11.3838
▁sàqam	-11.384
▁ganesi	-11.3841
▁Jëkk	-11.3841
▁occupé	-11.3842
▁anecdote	-11.3842
▁ñaawal	-11.3842
▁plis	-11.3843
▁griffé	-11.3843
▁plumes	-11.3844
aliment	-11.3845
▁colonie	-11.3845
▁inc	-11.3846
▁Làmb	-11.3848
ât	-11.3848
▁fauc	-11.3848
hn	-11.3849
▁léebal	-11.3849
▁dieu	-11.3849
▁faim	-11.3849
▁entrait	-11.3852
▁malles	-11.3852
pus	-11.3852
▁jébbale	-11.3853
▁digne	-11.3854
▁pressé	-11.3857
▁Xarit	-11.3858
tuaire	-11.3858
▁kort	-11.3858
écu	-11.386
▁aisé	-11.3861
▁Jëf	-11.3861
▁moqu	-11.3862
▁Góox	-11.3862
yëg	-11.3864
▁occasion	-11.3865
▁interprète	-11.3865
pression	-11.3865
▁matière	-11.3865
▁bours	-11.3865
▁trouble	-11.3865
▁approche	-11.3866
▁brouiller	-11.3866
▁yaatal	-11.3867
▁Jooy	-11.3868
castés	-11.3868
▁jéndoon	-11.3868
▁baatam	-11.3868
▁Jot	-11.3869
▁leket	-11.3869
▁polis	-11.3869
▁ramollir	-11.387
xosi	-11.387
▁Ñakk	-11.3871
▁durée	-11.3872
▁njëg	-11.3872
arbaat	-11.3873
ham	-11.3873
▁dinañ	-11.3873
▁Aie	-11.3875
▁ligne	-11.3875
▁chasser	-11.3877
évalu	-11.3877
▁offre	-11.3877
tar	-11.3878
▁déq	-11.3879
▁bague	-11.388
▁googa	-11.388
▁maîtresse	-11.388
▁bindu	-11.3881
▁dibi	-11.3881
▁laxal	-11.3882
▁frotte	-11.3882
▁fondé	-11.3882
▁superposé	-11.3883
▁blo	-11.3884
awbe	-11.3884
▁woyal	-11.3885
▁labat	-11.3886
▁Sors	-11.3886
▁tourner	-11.389
▁marier	-11.389
▁tàkkal	-11.3892
▁gàñ	-11.3895
▁moustiquaires	-11.3896
▁palmiers	-11.3896
▁perçois	-11.3896
▁bananes	-11.3896
▁conçus	-11.3897
istes	-11.3899
▁parcours	-11.3899
avec	-11.3903
▁mors	-11.3903
▁jag	-11.3904
▁messie	-11.3905
▁moomee	-11.3906
▁regardent	-11.3906
▁daf	-11.3906
▁yéex	-11.3907
▁former	-11.3907
rt	-11.391
▁écuelle	-11.3911
▁sexe	-11.3912
tteel	-11.3913
trappe	-11.3915
amul	-11.3915
▁duré	-11.3918
▁détail	-11.3919
▁différentes	-11.392
▁takkee	-11.392
▁xéj	-11.3922
▁wure	-11.3923
▁duuf	-11.3925
ouille	-11.3926
▁sànneek	-11.3927
▁générale	-11.3928
▁gourde	-11.3929
▁détruit	-11.3929
abine	-11.3936
▁dundale	-11.3937
▁Soppi	-11.3941
wal	-11.3942
ňeent	-11.3943
▁guérisse	-11.3943
▁gëje	-11.3944
▁brûl	-11.3945
▁Jël	-11.3949
pulsé	-11.3949
▁niru	-11.3953
▁Mbi	-11.3954
▁flèches	-11.3954
▁griots	-11.3954
▁musulmans	-11.3954
▁vaccins	-11.3954
▁âgés	-11.3954
▁secrets	-11.3954
auté	-11.3956
▁retournes	-11.3957
ances	-11.396
▁servant	-11.3962
▁moue	-11.3962
▁yégal	-11.3963
▁joos	-11.3963
▁déey	-11.3965
▁roñ	-11.3965
▁ameel	-11.3965
▁tasses	-11.3968
xte	-11.3969
▁volé	-11.3969
▁koll	-11.3971
▁kes	-11.3973
eesu	-11.3973
▁arrachée	-11.3976
▁Porte	-11.3976
▁Firi	-11.3977
▁mbiram	-11.3978
▁soloo	-11.3978
▁soxlaa	-11.3981
▁jamu	-11.3983
▁bonul	-11.3984
gir	-11.3986
▁wees	-11.3986
réy	-11.3986
mbar	-11.399
▁Ras	-11.3992
▁guddal	-11.3993
▁cuisiner	-11.3997
▁Mbot	-11.3997
▁profonde	-11.3999
▁préjudice	-11.4002
▁médicale	-11.4002
▁ben	-11.4004
▁irrit	-11.4005
▁autrefois	-11.4007
▁cang	-11.4009
▁Tontu	-11.4011
▁collé	-11.4012
▁ho	-11.4012
▁noue	-11.4012
▁aval	-11.4012
▁dàqal	-11.4013
axa	-11.4013
▁miroirs	-11.4013
▁Ñun	-11.4013
▁chaînes	-11.4013
▁humains	-11.4015
▁jaab	-11.4017
évent	-11.4018
▁Kàddu	-11.4018
▁transe	-11.4019
▁course	-11.4019
riété	-11.4021
goj	-11.4021
▁jaamu	-11.4023
▁mélangé	-11.4023
▁Foor	-11.4025
▁xadde	-11.4026
▁verts	-11.4028
ëŋŋ	-11.4028
▁cuu	-11.4028
▁faat	-11.4029
▁Pom	-11.4029
neux	-11.4035
▁dundal	-11.404
imer	-11.4041
▁Nég	-11.4042
▁pè	-11.4043
▁fecci	-11.4051
▁Reti	-11.4052
▁jaaru	-11.4052
▁Séy	-11.4053
▁pries	-11.4054
ots	-11.4056
▁institu	-11.4061
▁diri	-11.4061
▁reen	-11.4067
▁moxoñ	-11.407
▁règles	-11.4072
▁Gumb	-11.4073
▁couchés	-11.4073
sañ	-11.4074
▁différents	-11.4076
fon	-11.4082
▁assises	-11.4083
jënd	-11.4085
▁fiable	-11.4086
▁chantant	-11.4089
▁lekke	-11.4089
▁familiari	-11.4091
hum	-11.4091
▁kiir	-11.4093
▁bouff	-11.4093
▁file	-11.41
took	-11.4103
▁béj	-11.4104
▁africaines	-11.4106
▁wuut	-11.4108
▁faw	-11.4112
ëriñ	-11.4114
samba	-11.4115
▁art	-11.4115
aïs	-11.4116
▁laalee	-11.4118
▁goûte	-11.4119
▁newu	-11.412
▁reere	-11.4123
▁raf	-11.4126
▁déplaisa	-11.413
▁cuillères	-11.4132
▁fusils	-11.4134
obtien	-11.4135
▁pareils	-11.4136
▁tag	-11.4138
▁nuque	-11.4141
▁dëkkoo	-11.4141
▁pënde	-11.4144
▁leew	-11.4151
▁jawwu	-11.4152
aboure	-11.4153
▁mit	-11.4155
▁déem	-11.4155
▁meneen	-11.416
baar	-11.4161
▁dessine	-11.4162
▁cachée	-11.4167
▁léppam	-11.4168
▁pourrais	-11.417
▁feyul	-11.4172
▁musóor	-11.4173
▁marchera	-11.4178
▁pann	-11.4178
axambaane	-11.4181
▁caar	-11.4182
▁tournée	-11.4184
▁wërale	-11.4186
jaay	-11.4191
▁joxe	-11.4202
umes	-11.4203
▁jéemant	-11.4204
▁Dàll	-11.421
▁rusé	-11.421
▁importe	-11.4214
▁vertu	-11.4219
▁cri	-11.422
▁prêter	-11.422
▁confin	-11.4223
▁char	-11.4224
▁Wée	-11.4225
▁vendeur	-11.4227
▁Ño	-11.4227
▁plants	-11.423
ueux	-11.423
▁décoré	-11.4231
▁waxtaane	-11.424
▁Ndi	-11.4241
lay	-11.4245
▁mënatu	-11.4249
▁hâte	-11.4251
▁braves	-11.4252
▁étrangers	-11.4253
▁crai	-11.4253
▁gam	-11.4255
▁Laat	-11.4256
augmente	-11.4257
▁rongé	-11.4259
▁bière	-11.4259
▁jekkali	-11.4259
colis	-11.4259
amis	-11.4277
▁turi	-11.4285
▁magam	-11.4286
▁fet	-11.4291
▁ëppal	-11.4301
▁Gu	-11.4302
▁coureur	-11.4302
lasi	-11.4303
▁Gaal	-11.431
▁ri	-11.4312
▁joues	-11.4314
èt	-11.4314
▁rêves	-11.4315
▁mayul	-11.4317
▁rassemblé	-11.4318
▁pomm	-11.4327
▁cousine	-11.4328
▁defarkat	-11.4331
▁sois	-11.4345
▁contenan	-11.4345
▁basse	-11.4347
▁noor	-11.4347
▁amu	-11.4353
▁danañ	-11.4355
ourra	-11.4361
▁caŋ	-11.4365
ndiŋ	-11.4367
▁waan	-11.4376
▁teewu	-11.4377
ers	-11.438
arrêter	-11.4386
▁abord	-11.4392
▁fam	-11.4402
▁poul	-11.4405
▁redout	-11.4408
ékk	-11.441
rés	-11.441
▁Dajale	-11.4411
▁fëll	-11.4412
pas	-11.4413
▁rot	-11.4413
tëx	-11.4413
▁paresseu	-11.4414
aaral	-11.4415
ewaan	-11.4426
ulee	-11.4429
▁risque	-11.4437
▁caw	-11.4442
▁esprit	-11.4443
▁indee	-11.4443
▁embr	-11.4444
▁lekkee	-11.4447
▁fréquent	-11.4457
▁booboo	-11.4457
lées	-11.4461
▁lepp	-11.4464
▁Bal	-11.4464
ecc	-11.4464
ces	-11.4471
▁Wo	-11.4472
amu	-11.4474
tais	-11.4475
▁taxawaay	-11.4483
jàmbaar	-11.4489
▁jëli	-11.449
▁difficiles	-11.4498
exe	-11.4501
▁Yu	-11.4506
sme	-11.4507
▁Celle	-11.4507
ceen	-11.4514
▁laisserai	-11.4519
jurukaay	-11.452
▁biiñ	-11.4532
▁Maang	-11.4533
▁Ch	-11.454
▁plante	-11.4545
rruption	-11.4547
▁làmbaa	-11.4554
▁deewe	-11.456
▁souvenirs	-11.456
isait	-11.4561
▁nécessit	-11.4564
▁mask	-11.4567
▁Maam	-11.4583
▁atam	-11.4583
esqu	-11.4588
▁jolies	-11.4591
anis	-11.4596
amaale	-11.4597
lais	-11.4597
▁partit	-11.4597
▁kóo	-11.4599
▁daanoo	-11.4601
dou	-11.4601
éteindre	-11.4602
énorme	-11.4603
▁daga	-11.4603
▁fete	-11.4611
oyez	-11.4612
lettes	-11.4614
▁welo	-11.4617
daa	-11.4627
▁maaj	-11.4629
▁mboole	-11.4641
▁Sam	-11.4644
▁defante	-11.4647
▁transhum	-11.4647
sëf	-11.465
▁dip	-11.465
ŋgeen	-11.4657
eti	-11.4663
adresse	-11.4666
▁Bariwu	-11.4668
meure	-11.4677
ui	-11.4678
pieux	-11.468
▁vieil	-11.4683
▁gob	-11.4687
po	-11.4689
▁gliss	-11.469
▁remplie	-11.4694
arale	-11.4697
saal	-11.4701
enfil	-11.4706
koonuñu	-11.4706
▁agit	-11.4715
fay	-11.4715
erait	-11.4716
▁lave	-11.4722
▁teqale	-11.4725
▁ph	-11.4727
▁Gil	-11.4732
▁wote	-11.4737
▁bouton	-11.4742
▁dëggu	-11.4745
▁noires	-11.4749
umb	-11.4749
lug	-11.4754
imoŋ	-11.4762
▁Kóo	-11.4767
▁faale	-11.4768
▁Yem	-11.4771
▁servai	-11.4784
▁captur	-11.4785
▁supp	-11.4805
▁kare	-11.4813
rand	-11.4816
▁dëdd	-11.4817
meaux	-11.4818
▁Kee	-11.4822
asig	-11.4842
▁lew	-11.4848
▁Daj	-11.4867
▁rein	-11.4868
▁arrêtée	-11.4869
▁Daawu	-11.4869
sement	-11.4875
▁utilis	-11.4875
▁And	-11.4876
▁dégoûte	-11.4877
aye	-11.4882
gub	-11.4884
▁preuve	-11.4884
▁daane	-11.4889
▁pén	-11.4895
▁nd	-11.4897
ndaw	-11.4897
▁gardes	-11.4908
bànd	-11.4908
▁plair	-11.4908
▁rapproche	-11.4924
▁fonds	-11.4933
àkkat	-11.4955
▁dëkkal	-11.4961
▁fabrique	-11.4966
▁guus	-11.4976
ord	-11.498
▁goor	-11.4995
aaki	-11.5001
▁fuñ	-11.5006
▁guette	-11.5013
ëdd	-11.502
▁Jub	-11.5022
ort	-11.503
trait	-11.5035
▁mour	-11.5036
▁waxin	-11.5049
imes	-11.5056
aŋ	-11.5062
▁caq	-11.5064
maana	-11.5107
▁ubb	-11.5112
▁ros	-11.5115
▁Defar	-11.5127
▁Bamb	-11.5128
égétu	-11.5134
ëppu	-11.5138
àqam	-11.5139
▁Mett	-11.5141
▁souten	-11.5144
▁cuisines	-11.515
▁Gue	-11.5152
▁noppalu	-11.5165
aff	-11.5174
▁Àll	-11.5184
▁amen	-11.5189
▁gardée	-11.5189
auche	-11.5191
▁née	-11.5199
▁méprise	-11.5202
▁tri	-11.5206
olé	-11.5211
▁voya	-11.5215
boŋ	-11.5219
▁copp	-11.5228
▁mees	-11.5234
▁courte	-11.5235
▁opeereka	-11.5253
▁mool	-11.5263
▁Daawul	-11.5267
▁paysan	-11.5285
aiment	-11.5292
▁rong	-11.5292
▁gagne	-11.5301
▁togge	-11.5308
▁retire	-11.5308
▁Ter	-11.5308
▁défai	-11.5308
▁Ngo	-11.5319
▁parer	-11.5324
▁gên	-11.5328
▁unis	-11.5328
▁fàttalik	-11.5334
▁rois	-11.5335
rer	-11.5359
▁her	-11.5367
ňe	-11.5375
aral	-11.5387
ssant	-11.5394
ddina	-11.5399
lan	-11.5402
▁Puisqu	-11.5415
▁fr	-11.5427
▁fâche	-11.5427
ib	-11.5428
tin	-11.5428
ttre	-11.543
ientôt	-11.5431
ñaar	-11.5434
▁belles	-11.5439
▁waajal	-11.5439
▁Gàcce	-11.5444
▁donnes	-11.5445
▁Degg	-11.5451
▁duñ	-11.5465
existe	-11.5467
▁Gej	-11.5468
ëfal	-11.5473
▁ro	-11.5476
ersi	-11.5476
▁baaw	-11.5479
▁nen	-11.548
▁cul	-11.5481
▁tànn	-11.549
▁fokk	-11.5493
ast	-11.5498
oll	-11.5503
▁pieu	-11.5509
set	-11.5512
▁normale	-11.5524
▁ram	-11.5528
isol	-11.5529
▁promen	-11.5534
▁étale	-11.5539
▁trouves	-11.5541
▁accroche	-11.5542
▁Bat	-11.5555
jou	-11.5564
ña	-11.5565
▁dib	-11.5571
▁jibe	-11.5581
▁im	-11.5583
▁cal	-11.5583
lancent	-11.5587
▁épi	-11.5588
éen	-11.5599
▁dim	-11.5604
▁Sëri	-11.5607
▁ndi	-11.5634
iwul	-11.5637
▁crue	-11.5642
oppose	-11.5672
atience	-11.569
bra	-11.569
▁Agsil	-11.5691
rions	-11.5708
▁séex	-11.5734
▁Kàcc	-11.5737
llent	-11.5749
ërëm	-11.5752
▁taa	-11.5769
porté	-11.5773
ailes	-11.579
▁leel	-11.5795
eff	-11.5803
uuf	-11.5804
prié	-11.5813
▁wonn	-11.5814
▁toje	-11.5817
yeux	-11.5832
▁chass	-11.5855
▁naanu	-11.5866
▁circule	-11.5869
bes	-11.5871
ital	-11.5873
olli	-11.5889
▁mont	-11.5902
▁nëb	-11.5903
▁frit	-11.5914
antal	-11.5918
matu	-11.5923
eetul	-11.5926
óoru	-11.593
▁diver	-11.5932
ugu	-11.5939
int	-11.5945
▁taf	-11.5948
bëtt	-11.5952
▁écoute	-11.5954
▁clou	-11.5964
▁pouss	-11.5967
▁jà	-11.5976
▁provoqu	-11.5977
▁attribu	-11.5979
▁jeng	-11.5984
óol	-11.5985
pi	-11.5996
veur	-11.5998
vie	-11.601
▁moomeel	-11.6018
ngé	-11.6023
▁circul	-11.6024
eex	-11.6031
▁rentr	-11.6044
▁saret	-11.6048
ëlu	-11.6071
▁muut	-11.6073
▁puu	-11.6085
▁Kar	-11.6092
aloo	-11.6097
nal	-11.6097
▁causer	-11.6099
osse	-11.6113
▁mien	-11.6129
ache	-11.6131
ierge	-11.6139
▁ñooñ	-11.6142
assé	-11.6147
▁fitt	-11.6149
▁nà	-11.6154
ran	-11.6159
lier	-11.6232
iri	-11.6233
▁oppos	-11.6239
▁maraa	-11.625
▁xo	-11.6263
ada	-11.6269
▁kala	-11.6277
okh	-11.6281
▁téyee	-11.6283
▁digal	-11.6284
▁xolu	-11.6291
oxaan	-11.6301
▁accroch	-11.6301
▁tal	-11.636
laient	-11.6363
rine	-11.6366
▁foy	-11.6372
▁débouch	-11.638
▁écout	-11.6383
onde	-11.6394
▁ron	-11.6396
aañ	-11.64
isole	-11.6403
erez	-11.6406
▁coupée	-11.6406
▁Kaj	-11.6409
▁yooya	-11.6413
voûte	-11.6415
▁mber	-11.6416
▁claire	-11.6418
attacher	-11.6436
agiss	-11.6438
▁suce	-11.6446
▁consul	-11.6448
ssine	-11.6454
kor	-11.6461
cteur	-11.6464
▁Suñ	-11.6469
▁spéci	-11.6485
▁Àddi	-11.649
▁gaas	-11.6503
mboo	-11.6506
▁Go	-11.6526
dunq	-11.6529
▁Av	-11.6542
▁jang	-11.6542
▁baraa	-11.6542
stique	-11.6547
▁retien	-11.6549
▁xoo	-11.6555
▁Jé	-11.6575
▁yet	-11.6577
▁koñ	-11.6578
▁opeere	-11.6585
▁Kas	-11.6591
▁jañ	-11.6615
▁Ndaa	-11.6619
▁rachet	-11.6634
▁fuy	-11.664
iable	-11.6656
engage	-11.6666
▁bël	-11.6671
qi	-11.6674
▁croisé	-11.6687
▁froide	-11.6688
igna	-11.6689
arrêt	-11.6695
▁xasa	-11.6708
vivre	-11.6709
▁bot	-11.6738
aasa	-11.6759
▁race	-11.6773
laam	-11.6776
▁tooge	-11.6792
fara	-11.6799
▁màbb	-11.6823
gguma	-11.6832
jali	-11.6836
ttal	-11.684
▁bl	-11.6864
▁lourde	-11.6866
omb	-11.6869
écroul	-11.687
eras	-11.6875
put	-11.6877
raal	-11.6878
▁enferm	-11.689
▁ruus	-11.6895
duis	-11.6899
▁erre	-11.6912
uer	-11.6915
▁direct	-11.6923
éegu	-11.6935
▁parl	-11.6941
▁Lem	-11.6956
ndre	-11.696
▁pla	-11.6969
ssante	-11.6982
▁pli	-11.6984
▁bain	-11.7004
▁fabriqu	-11.7006
rmet	-11.7014
eaux	-11.7019
lot	-11.7021
tom	-11.7024
▁Malheureu	-11.7027
▁gë	-11.7043
▁woona	-11.7048
▁aaye	-11.7053
iw	-11.7061
▁regret	-11.7063
▁lanc	-11.7063
▁mani	-11.7066
rette	-11.7077
▁reconnaiss	-11.7087
masi	-11.7096
▁dàgga	-11.7102
aguma	-11.7106
habitent	-11.7113
▁statue	-11.7113
▁soree	-11.7115
▁parla	-11.7126
▁Dé	-11.7131
▁loxoo	-11.7132
bee	-11.7134
▁sàng	-11.7135
▁Seeta	-11.7145
ooj	-11.7148
▁termin	-11.7148
▁riv	-11.7148
▁bouscul	-11.7148
exal	-11.7167
▁xul	-11.7168
▁désire	-11.7169
ampoules	-11.7193
▁xaju	-11.7198
▁éclaire	-11.7198
ttax	-11.7207
è	-11.721
▁pil	-11.7211
▁léj	-11.7222
▁ñàkke	-11.726
▁actuelle	-11.7287
▁dor	-11.7289
▁traite	-11.7301
mbu	-11.7306
▁ind	-11.7315
▁wot	-11.7317
ngale	-11.7318
toŋ	-11.7329
▁teqal	-11.7335
oŋŋ	-11.7337
gne	-11.7361
▁fâch	-11.7365
omp	-11.737
▁glisse	-11.7382
koom	-11.7383
▁croi	-11.7385
nawle	-11.7402
▁suivai	-11.743
▁dand	-11.743
▁repro	-11.7444
▁ramasse	-11.7455
▁remettra	-11.7478
▁Ñaa	-11.7481
▁gard	-11.7483
lore	-11.7485
dra	-11.7495
nement	-11.7496
ët	-11.75
▁rencontr	-11.7507
▁Sag	-11.7514
▁Want	-11.7514
▁yon	-11.752
til	-11.7522
▁Waxul	-11.7532
▁beer	-11.7533
dina	-11.754
ip	-11.7543
▁Vi	-11.7545
mësa	-11.7546
▁nécessite	-11.7546
▁Gene	-11.756
tur	-11.7565
▁rit	-11.7571
▁Baxa	-11.7576
▁devr	-11.7588
▁vente	-11.7597
▁ref	-11.7623
neer	-11.7629
bir	-11.7634
▁allume	-11.7637
▁remettr	-11.7644
ssement	-11.7644
alo	-11.7644
▁dépass	-11.7648
▁fréquente	-11.7662
▁naaf	-11.7681
▁exc	-11.7694
▁vir	-11.7694
ccroche	-11.7698
▁dóo	-11.7703
▁cris	-11.7711
gén	-11.7714
▁comp	-11.7729
▁dàkka	-11.773
▁waxtoo	-11.7732
loué	-11.7747
▁mette	-11.7767
▁naaje	-11.7776
▁combatt	-11.7785
▁fël	-11.7787
▁Gó	-11.779
▁meen	-11.7793
▁Kaw	-11.7797
loy	-11.7803
▁pl	-11.7811
ouiller	-11.7814
col	-11.7818
▁Bà	-11.7825
▁nourri	-11.7852
isse	-11.7859
▁waru	-11.786
▁tombera	-11.7862
sique	-11.7866
▁Yóbbul	-11.7867
ence	-11.7868
▁lonkoo	-11.7887
utt	-11.7888
ëtu	-11.7893
▁Kaka	-11.7895
balal	-11.7905
yaam	-11.7905
oubli	-11.7915
▁Bari	-11.7919
▁pe	-11.792
▁mbaaru	-11.7922
▁rond	-11.7928
ëx	-11.7928
▁Ram	-11.7929
bo	-11.7934
ef	-11.7938
▁Kó	-11.7953
tèrent	-11.7962
âcher	-11.7988
▁confiden	-11.7989
saa	-11.7991
▁dàqee	-11.7992
ttit	-11.7995
act	-11.8011
occidentale	-11.8016
▁yërë	-11.8018
▁lëng	-11.8023
▁fër	-11.8029
▁ép	-11.806
▁rapport	-11.8067
▁baal	-11.8074
piri	-11.8078
mines	-11.8082
▁ken	-11.8083
épi	-11.8087
▁Gara	-11.8088
ssez	-11.8089
intéress	-11.8089
▁élan	-11.809
▁kaka	-11.8093
▁devra	-11.81
lóo	-11.8113
▁jàmb	-11.8114
lever	-11.812
▁violent	-11.8122
▁Tel	-11.8131
▁suffisant	-11.8131
emal	-11.8134
inquiét	-11.815
ndul	-11.8161
▁verr	-11.8167
aines	-11.8168
aawlu	-11.818
▁som	-11.8202
▁caden	-11.8203
▁ob	-11.8216
dig	-11.8223
▁yomba	-11.824
▁garden	-11.8241
accompagner	-11.8244
ver	-11.8245
▁famili	-11.8245
dege	-11.825
▁iron	-11.8255
▁insoucian	-11.8255
▁nawe	-11.8262
én	-11.8268
aali	-11.827
▁Xo	-11.8286
▁Sax	-11.8293
utour	-11.8294
▁but	-11.8296
paré	-11.8312
▁xadd	-11.8319
stitué	-11.8321
▁crain	-11.8333
onné	-11.8338
▁rang	-11.8339
èche	-11.8339
mbo	-11.8341
▁troupe	-11.8349
▁profond	-11.835
▁préjudic	-11.8351
▁médical	-11.8351
▁ngone	-11.8354
▁Sooy	-11.8363
étal	-11.837
▁Kë	-11.8371
▁trous	-11.8392
ijji	-11.8394
inst	-11.8395
▁rép	-11.8395
▁doyu	-11.8395
diale	-11.8396
vu	-11.8402
jaa	-11.8405
wuloo	-11.8408
échapp	-11.8417
▁poli	-11.8418
ancien	-11.8426
hôte	-11.8427
▁suiv	-11.8427
êche	-11.8428
▁Seeti	-11.8429
kox	-11.8432
ilité	-11.8433
pied	-11.8438
â	-11.8441
exprim	-11.8457
▁détour	-11.8457
▁bésu	-11.8459
invent	-11.8461
▁détrui	-11.8464
vin	-11.8469
étache	-11.847
angle	-11.847
▁Mac	-11.8471
guma	-11.8476
▁xàn	-11.8477
▁bokkoo	-11.8485
▁heurt	-11.8485
coupe	-11.8488
rgent	-11.8489
old	-11.8494
Bri	-11.8495
▁gla	-11.8495
liku	-11.8497
jag	-11.8499
cal	-11.85
▁Waxat	-11.8501
▁interv	-11.8502
▁caus	-11.8505
▁amer	-11.8506
foncée	-11.8509
▁ceen	-11.851
eeguñu	-11.851
entend	-11.8515
ëppaa	-11.8516
▁jégg	-11.8517
E	-11.8519
ouvre	-11.8525
gan	-11.853
▁Sene	-11.8531
▁sànnee	-11.8532
▁remet	-11.8539
faas	-11.8542
▁làppto	-11.8545
ppe	-11.8548
bukun	-11.8553
table	-11.8558
emmen	-11.8558
▁planche	-11.8565
enlèvera	-11.8566
▁sage	-11.8567
Imi	-11.8569
àkkali	-11.857
▁Waxam	-11.8572
▁dégag	-11.8579
exil	-11.8581
▁Dóo	-11.8582
▁hérit	-11.8583
▁résist	-11.8584
ger	-11.8585
▁retrait	-11.8585
néeg	-11.8586
N	-11.8587
rog	-11.8588
embre	-11.8589
écorch	-11.859
▁spermatozoïde	-11.8593
▁endurci	-11.8593
▁tomate	-11.8593
▁utile	-11.8593
▁bouclier	-11.8593
▁pneu	-11.8593
▁mérite	-11.8593
▁crabe	-11.8593
▁morsure	-11.8594
▁gerbe	-11.8595
ccepte	-11.8596
▁reviendra	-11.8596
▁diamant	-11.8597
▁tissé	-11.8598
Africain	-11.8598
▁griff	-11.8598
▁mësu	-11.8599
sori	-11.8599
mond	-11.86
lig	-11.8604
▁nde	-11.8604
▁Loxo	-11.8604
écoute	-11.8606
tie	-11.8606
▁Tooy	-11.8607
▁démarche	-11.8607
▁semblable	-11.8607
jom	-11.8607
▁bonbon	-11.8607
insecte	-11.8608
▁lointain	-11.8609
verser	-11.861
▁barke	-11.8614
▁pâte	-11.8615
▁tiroir	-11.8616
▁kilomètre	-11.8617
▁compare	-11.8618
▁Liy	-11.8619
appel	-11.8619
▁comprend	-11.8621
féex	-11.8622
▁nombreuse	-11.8623
dë	-11.8623
▁meuble	-11.8623
▁flot	-11.8625
ŋgoo	-11.8625
attache	-11.8625
ëmm	-11.8625
abuse	-11.8625
étudiant	-11.8625
influence	-11.8625
écrire	-11.8625
étincelle	-11.8625
inéluctable	-11.8625
avancé	-11.8626
considéra	-11.8626
envoie	-11.8626
nouvel	-11.8626
▁voie	-11.8626
effray	-11.8626
ennemi	-11.8626
orange	-11.8626
bàjj	-11.8627
▁collect	-11.8627
répare	-11.8629
▁ressent	-11.8631
▁plume	-11.8632
▁renvoy	-11.8632
échappe	-11.8635
jéeg	-11.8637
▁bouilli	-11.8637
appartement	-11.8637
bëccëg	-11.8637
incendie	-11.8637
épaisse	-11.8637
étroit	-11.8637
étoile	-11.8638
kumpa	-11.8638
▁événement	-11.8638
orphelin	-11.8639
▁nonchalant	-11.8639
▁guitar	-11.8639
▁gratuit	-11.8639
humeur	-11.864
entrave	-11.8641
hadi	-11.8641
échange	-11.8642
US	-11.8642
kersa	-11.8643
donne	-11.8643
mag	-11.8643
▁pens	-11.8643
▁Certaine	-11.8643
égard	-11.8643
bër	-11.8644
étudie	-11.8644
▁sànn	-11.8644
▁caste	-11.8644
cambar	-11.8645
Aiya	-11.8645
exemple	-11.8646
oeuf	-11.8646
pattes	-11.8646
honnête	-11.8647
jàngoro	-11.8647
animal	-11.8648
▁bouge	-11.8648
jaxal	-11.8648
kàttan	-11.8648
▁tango	-11.8648
courage	-11.8649
juddu	-11.8649
▁coute	-11.8649
▁concern	-11.8649
▁apparu	-11.8649
jambe	-11.8649
cër	-11.865
éclat	-11.865
▁maîtr	-11.8651
souris	-11.8651
xóot	-11.8651
corde	-11.8651
Y	-11.8652
viendra	-11.8652
cercle	-11.8652
propre	-11.8652
P	-11.8652
kilo	-11.8653
attention	-11.8653
dehors	-11.8653
café	-11.8653
jiitl	-11.8653
jaune	-11.8653
pluies	-11.8654
Tubaab	-11.8654
▁endormi	-11.8655
▁graine	-11.8655
côté	-11.8655
▁leva	-11.8655
ñëw	-11.8655
▁cuisin	-11.8656
S	-11.8657
alors	-11.8658
▁timi	-11.8658
▁passera	-11.8659
▁querell	-11.8659
pon	-11.8659
xarit	-11.8659
▁Biram	-11.8659
lkaati	-11.866
eçon	-11.866
arrache	-11.8661
▁oublie	-11.8662
wel	-11.8663
perçu	-11.8664
▁vari	-11.8665
bëgg	-11.8665
▁Jeex	-11.8666
kum	-11.8668
face	-11.8669
apprend	-11.867
opérati	-11.8671
ongtemps	-11.8671
▁àttan	-11.8671
tànk	-11.8672
féexal	-11.8672
gris	-11.8673
cule	-11.8674
▁commis	-11.8677
▁gàcc	-11.8677
agrippe	-11.8679
jigéen	-11.8679
rop	-11.8679
fite	-11.8681
▁inex	-11.8681
▁lèvre	-11.8681
démb	-11.8681
veloppe	-11.8682
lancs	-11.8682
jaratu	-11.8682
interdit	-11.8682
flé	-11.8683
queue	-11.8683
▁tegoo	-11.8684
▁Takk	-11.8685
vois	-11.8686
imé	-11.8686
▁quitt	-11.8686
mbaam	-11.8687
▁gaja	-11.8687
mage	-11.8688
pain	-11.8689
▁arme	-11.869
▁tendu	-11.869
▁chev	-11.8691
hi	-11.8692
▁affect	-11.8694
kàlla	-11.8694
romb	-11.8694
rable	-11.8698
ttaaya	-11.8698
accepte	-11.8699
ganu	-11.8699
ourn	-11.8699
▁Demerara	-11.8699
▁yàkkamt	-11.8702
▁kókkal	-11.8703
gëm	-11.8703
ivré	-11.8703
oxandéem	-11.8704
aabi	-11.8704
oktoor	-11.8705
▁mbaxan	-11.8705
▁moq	-11.8708
▁deven	-11.8709
lière	-11.8709
▁càmm	-11.8709
▁bouché	-11.871
▁appare	-11.8711
▁Tàng	-11.8712
▁reb	-11.8713
▁mbóo	-11.8713
inage	-11.8714
interdi	-11.8715
ootul	-11.8719
ession	-11.8719
bat	-11.8721
▁réfléchi	-11.8721
tête	-11.8722
▁jo	-11.8722
kook	-11.8723
oreiller	-11.8723
ultiver	-11.8724
iiru	-11.8724
umin	-11.8724
omprends	-11.8725
ofeel	-11.8726
▁xé	-11.8728
abandonne	-11.8729
▁trempe	-11.8729
érieux	-11.873
▁environ	-11.8731
▁méchan	-11.8732
▁envoy	-11.8732
▁ennemi	-11.8732
ënfandikoo	-11.8733
▁jëfandik	-11.8733
▁mànd	-11.8734
écorc	-11.8734
ssuie	-11.8734
agg	-11.8734
major	-11.8734
▁Ganaa	-11.8734
▁Naa	-11.8735
umtukaay	-11.8736
bégte	-11.8736
dommag	-11.8736
▁Solda	-11.8736
ajouter	-11.8738
▁positi	-11.8738
▁wodd	-11.8741
▁Camero	-11.8741
▁Léeb	-11.8742
ngor	-11.8742
▁comb	-11.8743
▁perle	-11.8743
inv	-11.8744
▁entière	-11.8744
▁pâ	-11.8744
jala	-11.8744
▁wecc	-11.8745
race	-11.8745
aafu	-11.8745
ébré	-11.8745
▁jége	-11.8745
conduis	-11.8745
gàkk	-11.8746
semblé	-11.8746
▁message	-11.8746
▁Bawo	-11.8746
▁cap	-11.8746
▁tresse	-11.8747
▁passion	-11.8747
résidents	-11.8748
aawtéef	-11.8748
cain	-11.8748
cëk	-11.8748
rompt	-11.8748
▁brille	-11.8748
▁châ	-11.8748
bawo	-11.8748
rûle	-11.8748
ctif	-11.8748
ëmëx	-11.8748
épaule	-11.8748
▁croc	-11.8748
▁riche	-11.8749
sacre	-11.8749
▁trac	-11.8749
▁infirm	-11.8749
▁19	-11.8749
îte	-11.8749
▁Jubb	-11.8749
▁walbati	-11.8749
▁196	-11.8749
▁vict	-11.8749
fection	-11.875
gëjjëx	-11.875
harmoni	-11.875
proportion	-11.875
équilibr	-11.875
▁woññ	-11.875
▁10	-11.875
▁Memfo	-11.875
▁favoris	-11.875
▁folklor	-11.875
▁gâch	-11.875
▁navigu	-11.875
/	-11.875
Allemagne	-11.875
Israël	-11.875
Laper	-11.875
accroupi	-11.875
amertume	-11.875
approuve	-11.875
appuyer	-11.875
autorisation	-11.875
awanpoor	-11.875
bourbouille	-11.875
broussaille	-11.875
cohérent	-11.875
cueillir	-11.875
domodaa	-11.875
effaçait	-11.875
emmitoufl	-11.875
expéditi	-11.875
ffirme	-11.875
harmattan	-11.875
hippopotame	-11.875
hygiène	-11.875
ibbutóon	-11.875
indefondi	-11.875
infiltr	-11.875
infirmière	-11.875
inkilibaa	-11.875
intimité	-11.875
jooylu	-11.875
ovule	-11.875
raisemblablement	-11.875
stafirlaa	-11.875
ègre	-11.875
égoïs	-11.875
épervier	-11.875
étancher	-11.875
îme	-11.875
̺ŋa	-11.875
▁1913	-11.875
▁1914	-11.875
▁1939	-11.875
▁1940	-11.875
▁Albura	-11.875
▁Bayruut	-11.875
▁Bëccëg	-11.875
▁Cawnpore	-11.875
▁Corporation	-11.875
▁Dispañseer	-11.875
▁Duwaalaa	-11.875
▁Désormais	-11.875
▁Foumban	-11.875
▁Godag	-11.875
▁Géwél	-11.875
▁Hier	-11.875
▁Hoggar	-11.875
▁Hu	-11.875
▁Israyel	-11.875
▁Kamakusa	-11.875
▁Kikuyu	-11.875
▁Kishong	-11.875
▁Kwaja	-11.875
▁Kótónu	-11.875
▁Londres	-11.875
▁Mbembé	-11.875
▁Mohamed	-11.875
▁Njegemaar	-11.875
▁Pensées	-11.875
▁Petroleum	-11.875
▁Répète	-11.875
▁Sadiola	-11.875
▁Touareg	-11.875
▁Tàggoo	-11.875
▁Vingt	-11.875
▁Yoroubas	-11.875
▁abondance	-11.875
▁absurde	-11.875
▁accélérer	-11.875
▁admirable	-11.875
▁alaateret	-11.875
▁alfunni	-11.875
▁aperçoi	-11.875
▁appartenaient	-11.875
▁argument	-11.875
▁armiňoŋ	-11.875
▁assimilé	-11.875
▁association	-11.875
▁assommé	-11.875
▁aubergine	-11.875
▁bejjaaw	-11.875
▁bilimbaane	-11.875
▁biscuits	-11.875
▁bivoua	-11.875
▁brebis	-11.875
▁bànqaas	-11.875
▁bâtisse	-11.875
▁béntéñe	-11.875
▁calamité	-11.875
▁calomni	-11.875
▁cambré	-11.875
▁caméléon	-11.875
▁cancrelats	-11.875
▁capricieux	-11.875
▁carapaces	-11.875
▁carrelage	-11.875
▁catastrophes	-11.875
▁cavalier	-11.875
▁charitable	-11.875
▁charlatan	-11.875
▁chiffon	-11.875
▁chiffres	-11.875
▁châteaux	-11.875
▁clampser	-11.875
▁climat	-11.875
▁clitoris	-11.875
▁clôture	-11.875
▁cohorte	-11.875
▁conception	-11.875
▁consanguin	-11.875
▁constipé	-11.875
▁contract	-11.875
▁contrôle	-11.875
▁cormoran	-11.875
▁corrompre	-11.875
▁coûté	-11.875
▁célèbre	-11.875
▁différencie	-11.875
▁dipparñi	-11.875
▁distendu	-11.875
▁divorc	-11.875
▁domicile	-11.875
▁douloureuse	-11.875
▁drôle	-11.875
▁décapit	-11.875
▁décoché	-11.875
▁décompos	-11.875
▁décroch	-11.875
▁déedéet	-11.875
▁dégingandé	-11.875
▁dévorant	-11.875
▁embauché	-11.875
▁employés	-11.875
▁espion	-11.875
▁exaucé	-11.875
▁exposé	-11.875
▁exquis	-11.875
▁extrémité	-11.875
▁facilite	-11.875
▁faculté	-11.875
▁faraňse	-11.875
▁fentaakon	-11.875
▁fentaakoon	-11.875
▁formidable	-11.875
▁foufou	-11.875
▁foxoj	-11.875
▁fromager	-11.875
▁gapparu	-11.875
▁goyavier	-11.875
▁grelotte	-11.875
▁gringalet	-11.875
▁haoussa	-11.875
▁haïssai	-11.875
▁horizon	-11.875
▁inadvertance	-11.875
▁indésirable	-11.875
▁inflexible	-11.875
▁infranchissable	-11.875
▁inscription	-11.875
▁insignifiante	-11.875
▁introdu	-11.875
▁invulnérable	-11.875
▁jaloux	-11.875
▁jàmmaarloo	-11.875
▁jàmmarloo	-11.875
▁jébbaane	-11.875
▁kemtalaayu	-11.875
▁kitikaŋ	-11.875
▁kurpeñ	-11.875
▁kàbbar	-11.875
▁kópp	-11.875
▁liquide	-11.875
▁luqnjuur	-11.875
▁lustral	-11.875
▁léthargi	-11.875
▁mafñàndu	-11.875
▁malingre	-11.875
▁malléole	-11.875
▁manchot	-11.875
▁mandibules	-11.875
▁marécages	-11.875
▁mauricien	-11.875
▁mbiskit	-11.875
▁menuisier	-11.875
▁migraines	-11.875
▁migrateurs	-11.875
▁mollets	-11.875
▁mouvement	-11.875
▁mërgalu	-11.875
▁ndóbin	-11.875
▁ngànnaay	-11.875
▁njombor	-11.875
▁njàmburam	-11.875
▁nullard	-11.875
▁nuptiale	-11.875
▁nurool	-11.875
▁obtenu	-11.875
▁ordisawel	-11.875
▁palabres	-11.875
▁paludisme	-11.875
▁parisienne	-11.875
▁pastèque	-11.875
▁patates	-11.875
▁patienter	-11.875
▁patients	-11.875
▁paupière	-11.875
▁paître	-11.875
▁permanent	-11.875
▁permangana	-11.875
▁pharmacie	-11.875
▁pidgin	-11.875
▁pintade	-11.875
▁poobar	-11.875
▁principes	-11.875
▁prodige	-11.875
▁promiscuité	-11.875
▁propriété	-11.875
▁pustules	-11.875
▁pàpaaya	-11.875
▁pàttalik	-11.875
▁pâturage	-11.875
▁pédophilie	-11.875
▁póliti	-11.875
▁rapiécé	-11.875
▁rectiligne	-11.875
▁revêtu	-11.875
▁ràŋŋatik	-11.875
▁réflexion	-11.875
▁régurgit	-11.875
▁répète	-11.875
▁rósi	-11.875
▁rônier	-11.875
▁sarwiis	-11.875
▁scarifi	-11.875
▁signifie	-11.875
▁souffert	-11.875
▁souffrir	-11.875
▁sourcils	-11.875
▁soviétique	-11.875
▁surprenant	-11.875
▁takkarnaase	-11.875
▁talaabiir	-11.875
▁toucouleur	-11.875
▁trafic	-11.875
▁tragique	-11.875
▁tremblote	-11.875
▁turbulence	-11.875
▁tàndarma	-11.875
▁tàppandaar	-11.875
▁téléphon	-11.875
▁têtu	-11.875
▁violemment	-11.875
▁virgule	-11.875
▁vétérinaire	-11.875
▁Ësen	-11.875
▁écureuil	-11.875
▁éloigné	-11.875
▁émerveill	-11.875
▁émissaire	-11.875
▁épidémie	-11.875
▁éveillé	-11.875
▁ëcc	-11.875
▁ñànjaxeer	-11.875
▁ótó	-11.875
▁Tàmbali	-11.875
▁aménage	-11.875
▁canapé	-11.875
▁déferle	-11.875
▁gàngune	-11.875
▁pentuur	-11.875
congelé	-11.875
effondr	-11.875
expliqu	-11.875
hospitali	-11.875
ébène	-11.875
éloge	-11.875
▁Accra	-11.875
▁Angalteer	-11.875
▁Bernadet	-11.875
▁Dencal	-11.875
▁Feebar	-11.875
▁Futbal	-11.875
▁Kàngam	-11.875
▁Lëmës	-11.875
▁Mbembe	-11.875
▁Normàndi	-11.875
▁Tartar	-11.875
▁ambassade	-11.875
▁apaisée	-11.875
▁ballarñi	-11.875
▁bruyante	-11.875
▁bundux	-11.875
▁confronté	-11.875
▁deppaas	-11.875
▁discut	-11.875
▁dortoirs	-11.875
▁double	-11.875
▁gàllaaj	-11.875
▁gémir	-11.875
▁héroï	-11.875
▁interrompu	-11.875
▁laspeer	-11.875
▁maturité	-11.875
▁matériel	-11.875
▁mbootaay	-11.875
▁merveille	-11.875
▁obèse	-11.875
▁panaris	-11.875
▁papaye	-11.875
▁percept	-11.875
▁pigeons	-11.875
▁pitié	-11.875
▁prolonge	-11.875
▁rassurant	-11.875
▁recoucher	-11.875
▁rëy	-11.875
▁savate	-11.875
▁silencieuse	-11.875
▁sournois	-11.875
▁stoppe	-11.875
▁tiitaange	-11.875
▁trébuche	-11.875
▁verticale	-11.875
▁xiibon	-11.875
▁Àbbaa	-11.875
▁àjjana	-11.875
▁écorné	-11.875
▁élégante	-11.875
7	-11.875
acharn	-11.875
admir	-11.875
anthropo	-11.875
mission	-11.875
móoyu	-11.875
strum	-11.875
tëñëx	-11.875
▁Aawo	-11.875
▁Descend	-11.875
▁abondant	-11.875
▁accouru	-11.875
▁aggrav	-11.875
▁alamaan	-11.875
▁brutalité	-11.875
▁bërki	-11.875
▁dispute	-11.875
▁jàkkarloo	-11.875
▁loup	-11.875
▁lëñbët	-11.875
▁menaçant	-11.875
▁mendiant	-11.875
▁mignon	-11.875
▁moket	-11.875
▁préparatifs	-11.875
▁pâtir	-11.875
▁sëlmu	-11.875
▁teerusi	-11.875
▁wëlbati	-11.875
▁ëlëm	-11.875
ilmaxa	-11.875
▁Gambi	-11.875
▁Jamano	-11.875
▁Palestin	-11.875
▁agréable	-11.875
▁gaanuwaay	-11.875
▁gësëm	-11.875
▁indifférent	-11.875
▁journaux	-11.875
▁posséd	-11.875
▁responsabilité	-11.875
▁substan	-11.875
▁transmet	-11.875
Ermeno	-11.875
hymne	-11.875
édiction	-11.875
éperon	-11.875
▁Pikin	-11.875
▁altern	-11.875
▁beerso	-11.875
▁dérangé	-11.875
▁fagot	-11.875
▁impoli	-11.875
▁itinérant	-11.875
▁pataas	-11.875
▁pólis	-11.875
▁radier	-11.875
▁ranc	-11.875
▁relief	-11.875
▁renforc	-11.875
▁takkandeer	-11.875
▁valise	-11.875
▁Bakalu	-11.875
▁Javel	-11.875
▁Teraanga	-11.875
▁cawarte	-11.875
▁concert	-11.875
▁dépays	-11.875
▁gymnas	-11.875
▁littéra	-11.875
▁motoxal	-11.875
▁ndimbal	-11.875
▁retournant	-11.875
▁réajust	-11.875
▁xeej	-11.875
astiku	-11.875
ctifié	-11.875
▁Londar	-11.875
▁bagarre	-11.875
▁dispers	-11.875
▁déformée	-11.875
▁kanaara	-11.875
▁nylon	-11.875
▁occidentaux	-11.875
▁pijin	-11.875
▁totalité	-11.875
▁affamé	-11.875
entourant	-11.875
oulou	-11.875
▁Emmène	-11.875
▁Kaburi	-11.875
▁Tuubaa	-11.875
▁déclench	-11.875
▁emphase	-11.875
▁excisée	-11.875
▁géex	-11.875
▁yelloo	-11.875
accumul	-11.875
embarque	-11.875
gracieux	-11.875
ignés	-11.875
pëti	-11.875
▁Saxaraa	-11.875
▁arbuste	-11.875
▁croissance	-11.875
▁ficelle	-11.875
▁kerewol	-11.875
▁rewle	-11.875
▁yorouba	-11.875
▁écume	-11.875
▁Ibada	-11.875
▁chevauche	-11.875
▁empliss	-11.875
▁empêcha	-11.875
▁galéj	-11.875
▁toussote	-11.875
▁évidence	-11.875
céphal	-11.875
▁1938	-11.875
▁député	-11.875
▁fracture	-11.875
▁rogations	-11.875
▁tunnel	-11.875
▁complot	-11.875
▁épissure	-11.875
▁Toujours	-11.875
▁Yàkkamtiwuñu	-11.875
▁cinéma	-11.875
▁dénoue	-11.875
▁gouttière	-11.875
▁latérale	-11.875
▁vomir	-11.875
daaxër	-11.875
▁Kupuru	-11.875
▁côtière	-11.875
▁koddaay	-11.875
▁provisions	-11.875
▁évid	-11.875
▁Koth	-11.875
▁Rafet	-11.875
▁accueill	-11.875
▁brèche	-11.875
▁cellule	-11.875
▁daxin	-11.875
▁grue	-11.875
▁herbeuses	-11.875
▁jubadi	-11.875
▁écoulé	-11.875
▁faucher	-11.875
▁sardine	-11.875
▁agricole	-11.875
▁constitution	-11.875
▁démarr	-11.875
▁Wekki	-11.875
▁acras	-11.875
▁bastonn	-11.875
▁croyant	-11.875
▁mbonaat	-11.875
▁sàrt	-11.875
autopsie	-11.875
ignorance	-11.875
innocen	-11.875
installaient	-11.875
▁prescrit	-11.875
▁toxu	-11.875
achever	-11.875
chaussée	-11.875
▁carrossable	-11.875
▁contrée	-11.875
▁interruption	-11.875
▁lafañ	-11.875
▁yendu	-11.875
▁poulain	-11.875
▁Remets	-11.875
pasare	-11.875
▁Bokas	-11.875
▁bambou	-11.875
▁compens	-11.875
▁défend	-11.875
▁frigo	-11.875
▁koppar	-11.875
▁médd	-11.875
▁saillant	-11.875
▁1932	-11.875
▁préparati	-11.875
xuux	-11.875
▁mangions	-11.875
▁mourut	-11.875
▁Donga	-11.875
▁sacrifi	-11.875
▁Ogaar	-11.875
▁grange	-11.875
▁short	-11.875
étonnement	-11.875
▁1900	-11.875
▁Bawop	-11.875
▁administrative	-11.875
▁insult	-11.875
rection	-11.875
▁Eend	-11.875
▁Féetale	-11.875
▁austère	-11.875
▁raffiné	-11.875
▁Daraame	-11.875
▁friche	-11.875
▁gangrène	-11.875
▁valeur	-11.875
▁calleuses	-11.875
▁grave	-11.875
▁kompale	-11.875
▁trottoir	-11.875
aplati	-11.875
▁maasàllaa	-11.875
angulaire	-11.875
▁echelle	-11.875
▁marõ	-11.875
▁Congo	-11.875
bortaan	-11.875
▁inaccessible	-11.875
awriñ	-11.875
▁Xalam	-11.875
▁aérien	-11.875
▁courtoisie	-11.875
▁incliné	-11.875
▁hurle	-11.875
▁nettoie	-11.875
▁wësin	-11.875
emballe	-11.875
obscurité	-11.875
▁feq	-11.875
▁pessimisme	-11.875
▁serrure	-11.875
▁Panama	-11.875
▁Ver	-11.875
ignons	-11.875
▁canards	-11.875
acacia	-11.875
▁contribu	-11.875
▁crapaud	-11.875
▁cuisinier	-11.875
▁fej	-11.875
▁victoire	-11.875
▁Exc	-11.875
▁malaxer	-11.875
▁peser	-11.875
▁sablonneu	-11.875
illustra	-11.875
▁irokos	-11.875
▁ressortissant	-11.875
▁œufs	-11.875
▁Ekool	-11.875
▁mottaliku	-11.875
oublierai	-11.875
tërëf	-11.875
ègue	-11.875
▁empesé	-11.875
cajou	-11.875
▁dàkkental	-11.875
▁mbugël	-11.875
▁berceau	-11.875
▁nombril	-11.875
▁insurgé	-11.875
▁rido	-11.875
▁Gesam	-11.875
▁Noirs	-11.875
latel	-11.875
▁disposé	-11.875
▁brandiss	-11.875
▁informations	-11.875
▁jàkkaarloo	-11.875
▁tourmente	-11.875
▁Diouf	-11.875
▁immédiatement	-11.875
▁joqa	-11.875
▁disparaissait	-11.875
oussette	-11.875
▁crinière	-11.875
▁orteil	-11.875
▁anémi	-11.875
▁déshonneur	-11.875
▁Dénk	-11.875
▁batañse	-11.875
▁komfi	-11.875
▁transmis	-11.875
▁ñép	-11.875
▁Mësul	-11.875
▁broder	-11.875
▁délicieuse	-11.875
▁Gént	-11.875
inquiète	-11.8751
▁rangooñ	-11.8751
▁siyaare	-11.8751
▁concord	-11.8751
▁élections	-11.8751
▁àntuwul	-11.8751
▁Tombe	-11.8751
▁bourgeo	-11.8751
▁gronde	-11.8751
▁rides	-11.8751
▁Kinne	-11.8751
▁Kenya	-11.8751
▁glorifi	-11.8751
▁vallée	-11.8751
fiévr	-11.8751
offens	-11.8751
▁antip	-11.8751
gramme	-11.8751
▁fanane	-11.8751
▁matadi	-11.8751
▁protect	-11.8751
verrez	-11.8751
▁arête	-11.8751
▁crépi	-11.8751
▁ñambaan	-11.8751
▁ginnaa	-11.8751
▁lagaj	-11.8751
▁Agwu	-11.8751
clite	-11.8751
▁imprim	-11.8751
▁Yekkal	-11.8751
▁Fanweer	-11.8751
▁batise	-11.8751
▁ubbeeku	-11.8751
▁navire	-11.8751
▁inouï	-11.8751
▁truc	-11.8751
▁Roule	-11.8751
▁dënk	-11.8751
identité	-11.8751
▁porche	-11.8751
▁véritable	-11.8751
égorgé	-11.8751
▁gereew	-11.8751
▁hache	-11.8751
▁machette	-11.8751
▁dukkat	-11.8751
▁keww	-11.8751
▁désigne	-11.8751
▁rebord	-11.8751
agace	-11.8751
▁cafko	-11.8751
▁guerrières	-11.8751
▁poson	-11.8751
▁cargo	-11.8751
▁jabraan	-11.8751
jaillir	-11.8751
▁fiftin	-11.8751
▁frôlé	-11.8751
▁crochu	-11.8751
▁Berbi	-11.8751
▁club	-11.8751
▁incantat	-11.8751
▁volontaire	-11.8751
▁privé	-11.8751
▁tigi	-11.8751
▁waaso	-11.8751
▁sukk	-11.8751
▁découvrir	-11.8751
▁ràgg	-11.8751
hell	-11.8751
▁détri	-11.8751
▁veine	-11.8751
▁Born	-11.8751
▁neige	-11.8751
▁reto	-11.8751
chures	-11.8751
▁grume	-11.8751
▁naawantu	-11.8752
▁opprim	-11.8752
▁pepp	-11.8752
▁cornet	-11.8752
▁colport	-11.8752
▁flamb	-11.8752
▁complé	-11.8752
▁brac	-11.8752
▁fissur	-11.8752
▁maamaati	-11.8752
▁décol	-11.8752
▁marron	-11.8752
jóol	-11.8752
▁ñaawtéef	-11.8752
▁salué	-11.8752
▁Tubay	-11.8752
▁précéde	-11.8752
▁dédai	-11.8752
▁embouteillée	-11.8752
▁requi	-11.8752
oseille	-11.8752
letmaa	-11.8752
▁mbàq	-11.8752
▁prompt	-11.8752
▁bëqët	-11.8752
▁bloc	-11.8752
▁magnifique	-11.8752
▁mbugal	-11.8752
▁cadre	-11.8752
▁soppeeku	-11.8752
jectif	-11.8752
nuwaa	-11.8752
▁woyantu	-11.8752
autom	-11.8752
▁Seytaane	-11.8752
▁tabaski	-11.8752
▁examin	-11.8752
autobus	-11.8752
▁tembe	-11.8752
▁implora	-11.8752
▁Guppa	-11.8752
▁rouille	-11.8752
▁recommençait	-11.8752
▁replié	-11.8752
▁santaane	-11.8752
voque	-11.8752
▁carabine	-11.8752
sting	-11.8752
ifiée	-11.8753
▁Marok	-11.8753
▁appui	-11.8753
▁grapp	-11.8753
▁obst	-11.8753
turne	-11.8753
▁coggal	-11.8753
▁débattons	-11.8753
▁suscit	-11.8753
▁neuve	-11.8753
▁Tëng	-11.8753
▁souffrance	-11.8753
▁Juug	-11.8753
▁xocc	-11.8753
▁sëqat	-11.8753
temporai	-11.8753
▁entrailles	-11.8753
▁compliqu	-11.8753
aakiri	-11.8753
etourne	-11.8753
▁menteñ	-11.8753
opérer	-11.8753
▁aboli	-11.8753
▁agress	-11.8753
▁métal	-11.8753
▁bombard	-11.8753
▁indienne	-11.8753
politesse	-11.8753
▁samdi	-11.8753
▁démonté	-11.8753
▁rattach	-11.8753
suppo	-11.8753
▁signal	-11.8753
otiques	-11.8753
▁placard	-11.8753
rves	-11.8753
▁séance	-11.8753
▁féewal	-11.8753
aimerai	-11.8753
▁habitué	-11.8753
▁Yawut	-11.8753
▁mbamb	-11.8753
▁Griot	-11.8753
oltron	-11.8753
hili	-11.8753
▁refaire	-11.8753
▁développ	-11.8753
jayaŋ	-11.8753
▁como	-11.8753
▁fëx	-11.8753
auteur	-11.8753
▁envolé	-11.8753
▁boddi	-11.8754
▁enserr	-11.8754
▁wéñ	-11.8754
éthér	-11.8754
commode	-11.8754
▁Diminue	-11.8754
▁Paas	-11.8754
▁fidèle	-11.8754
▁digaaleel	-11.8754
▁ndékkee	-11.8754
▁aadawoo	-11.8754
▁saaga	-11.8754
oriente	-11.8754
▁maltrait	-11.8754
▁John	-11.8754
▁Kiné	-11.8754
▁mbów	-11.8754
▁Pardonne	-11.8754
▁libéré	-11.8754
▁màkka	-11.8754
nicher	-11.8754
mili	-11.8754
▁weddi	-11.8754
▁courageux	-11.8754
▁Juif	-11.8754
▁architectur	-11.8754
▁lëmës	-11.8754
▁rougeâtre	-11.8754
▁referme	-11.8754
▁parasit	-11.8754
▁maritim	-11.8754
▁trahison	-11.8754
▁mbell	-11.8754
▁tripes	-11.8754
érité	-11.8754
▁cirées	-11.8754
▁Mouille	-11.8754
▁indiens	-11.8755
▁jigad	-11.8755
▁accél	-11.8755
▁carreaux	-11.8755
▁wanteer	-11.8755
▁Musta	-11.8755
joute	-11.8755
▁tuumaal	-11.8755
▁distinguer	-11.8755
▁kurus	-11.8755
▁Kiris	-11.8755
▁acca	-11.8755
applique	-11.8755
olof	-11.8755
▁réparti	-11.8755
▁ongle	-11.8755
▁góob	-11.8755
▁moytuwul	-11.8755
▁Yàq	-11.8755
▁voisinage	-11.8755
kànkarla	-11.8755
▁dimaas	-11.8755
▁zébr	-11.8755
▁Babungoo	-11.8755
▁jànkonteel	-11.8755
▁Mesure	-11.8755
▁frisson	-11.8755
▁dangereux	-11.8755
▁profondeur	-11.8755
▁dëddale	-11.8755
▁frange	-11.8755
▁mbañeel	-11.8755
éléem	-11.8755
rrache	-11.8755
óg	-11.8755
▁Geenu	-11.8755
▁ñall	-11.8755
mburam	-11.8755
▁xottiku	-11.8755
ëtuñu	-11.8755
quilles	-11.8756
▁grimace	-11.8756
▁réveilla	-11.8756
lô	-11.8756
▁xàjj	-11.8756
▁cigarette	-11.8756
▁ñow	-11.8756
▁agoni	-11.8756
▁karne	-11.8756
océ	-11.8756
▁Kaani	-11.8756
▁Fett	-11.8756
▁ŋaamaan	-11.8756
encre	-11.8756
▁bàjjan	-11.8756
▁siso	-11.8756
▁Këpp	-11.8756
▁loca	-11.8756
▁jaloore	-11.8756
▁jinax	-11.8756
absence	-11.8756
arrange	-11.8756
▁visais	-11.8756
▁vitesse	-11.8756
▁ràcc	-11.8756
▁inné	-11.8756
▁dangereuse	-11.8756
▁carence	-11.8756
▁insur	-11.8756
▁délaissé	-11.8756
▁razzié	-11.8756
iyeer	-11.8757
▁voulais	-11.8757
▁vénéré	-11.8757
▁palp	-11.8757
▁Bawob	-11.8757
▁dîné	-11.8757
▁excuse	-11.8757
▁faneetar	-11.8757
▁mbej	-11.8757
▁juubu	-11.8757
▁cubb	-11.8757
▁battais	-11.8757
▁leble	-11.8757
konte	-11.8757
▁effray	-11.8757
▁futbal	-11.8757
▁njatt	-11.8757
▁naxantee	-11.8757
▁Muñal	-11.8757
▁refera	-11.8757
pérer	-11.8757
▁Rappelle	-11.8757
▁beyaat	-11.8757
▁attrapé	-11.8757
▁jujub	-11.8757
▁dégain	-11.8757
▁coord	-11.8758
▁Ital	-11.8758
▁kaso	-11.8758
▁woomal	-11.8758
lekk	-11.8758
▁Mawdo	-11.8758
▁musalkat	-11.8758
▁nacelle	-11.8758
▁Miinante	-11.8758
▁bec	-11.8758
▁cahot	-11.8758
éfique	-11.8758
▁kulëer	-11.8758
▁réjj	-11.8758
▁maabo	-11.8758
njaan	-11.8758
hiver	-11.8759
kaw	-11.8759
▁bronz	-11.8759
▁Dinanu	-11.8759
▁woddoo	-11.8759
▁tourbillonnai	-11.8759
▁ñakk	-11.8759
▁tirage	-11.8759
▁fën	-11.8759
▁moontin	-11.8759
▁ňaw	-11.8759
▁emmené	-11.8759
▁Change	-11.8759
▁keppukaay	-11.8759
èce	-11.8759
▁Gaaw	-11.876
▁capit	-11.876
▁Njoya	-11.876
▁Xadi	-11.876
▁Lëmb	-11.876
▁Dàgg	-11.876
▁Màr	-11.876
▁yegs	-11.876
▁fëggës	-11.876
importune	-11.876
▁weccee	-11.876
assoupir	-11.876
observer	-11.876
▁dodeliner	-11.876
▁roussir	-11.876
▁réaliser	-11.876
▁sondeel	-11.876
▁verrouill	-11.876
▁appâte	-11.876
▁carpe	-11.8761
▁titre	-11.8761
▁Sànni	-11.8761
▁Abdu	-11.8761
▁participer	-11.8761
étagère	-11.8761
▁geg	-11.8761
▁poutre	-11.8761
▁Tagg	-11.8761
▁jàngalekat	-11.8761
▁contemple	-11.8761
▁Baol	-11.8762
▁sëllu	-11.8762
▁Xew	-11.8762
▁jabb	-11.8762
▁poigne	-11.8762
▁diffus	-11.8762
dëngaañ	-11.8762
▁Certainement	-11.8762
▁xërëmkat	-11.8762
▁aigu	-11.8762
▁Farm	-11.8762
usure	-11.8762
ëkkoo	-11.8762
▁Ahm	-11.8762
▁adore	-11.8762
▁gàpp	-11.8762
mero	-11.8762
lika	-11.8763
▁limaale	-11.8763
▁commentaire	-11.8763
▁Condui	-11.8763
▁suivent	-11.8763
▁medaay	-11.8763
▁póon	-11.8763
▁njëgg	-11.8763
écorchure	-11.8763
▁Cap	-11.8763
▁cohabitent	-11.8763
ommages	-11.8763
▁gaññ	-11.8763
▁bàyyeeku	-11.8763
▁jógewaan	-11.8763
▁minut	-11.8763
▁Wër	-11.8763
▁déeyante	-11.8763
▁sevr	-11.8763
okkale	-11.8763
▁heureuse	-11.8764
▁dyna	-11.8764
▁kidd	-11.8764
▁jaxaay	-11.8764
quiner	-11.8764
▁péter	-11.8764
▁jamp	-11.8764
▁gâteaux	-11.8764
▁lucid	-11.8765
▁nettaliji	-11.8765
▁conform	-11.8765
▁duggsee	-11.8765
▁principal	-11.8765
▁sottee	-11.8765
▁tayel	-11.8765
lacés	-11.8765
▁démon	-11.8765
cycl	-11.8765
▁caraxam	-11.8765
▁jéllale	-11.8765
▁coxor	-11.8766
▁ndimmal	-11.8766
▁remit	-11.8766
▁njaw	-11.8766
▁bëreel	-11.8766
▁céq	-11.8766
fide	-11.8766
artifi	-11.8766
▁Wutël	-11.8766
▁summi	-11.8766
▁volont	-11.8766
▁motte	-11.8766
équat	-11.8766
issons	-11.8766
▁consis	-11.8766
▁taché	-11.8766
▁turist	-11.8767
▁Yaasin	-11.8767
▁Lebou	-11.8767
▁jënfandikoo	-11.8767
arrêtait	-11.8767
ginaar	-11.8767
▁badamier	-11.8767
▁téyewul	-11.8767
ipite	-11.8767
▁bëkk	-11.8767
▁fowal	-11.8767
▁cohabiter	-11.8767
ukwu	-11.8767
▁cadeaux	-11.8767
▁Fic	-11.8767
▁ennuy	-11.8768
▁Coow	-11.8768
▁judduwaale	-11.8768
▁xultu	-11.8768
▁passionn	-11.8768
▁carac	-11.8768
▁lourdement	-11.8768
▁màggetloo	-11.8768
▁chocra	-11.8768
▁Laissez	-11.8768
▁guigne	-11.8768
▁Lundi	-11.8768
▁jalaal	-11.8768
oyer	-11.8768
▁Taxawa	-11.8768
▁pleurant	-11.8769
▁baisse	-11.8769
▁raccord	-11.8769
▁ruum	-11.8769
▁fàddu	-11.8769
▁citadin	-11.8769
apparence	-11.8769
▁revenant	-11.8769
▁farata	-11.8769
▁fulaaru	-11.8769
▁combattant	-11.8769
arrose	-11.8769
▁superf	-11.8769
▁défil	-11.8769
▁jommi	-11.8769
▁pipi	-11.8769
ération	-11.877
▁désor	-11.877
▁ngee	-11.877
▁colo	-11.877
▁terme	-11.877
▁boivent	-11.877
▁nuage	-11.877
▁Filee	-11.877
▁frappait	-11.8771
▁cuuraay	-11.8771
▁plateau	-11.8771
▁frappes	-11.8771
emmeeku	-11.8771
▁apparent	-11.8771
▁habitudes	-11.8772
▁xeeb	-11.8772
▁Onits	-11.8772
▁faatoo	-11.8772
antenne	-11.8772
▁sautant	-11.8772
aigle	-11.8772
▁tât	-11.8772
onnaie	-11.8773
▁tuwaal	-11.8773
▁étonné	-11.8773
▁gants	-11.8773
opin	-11.8773
▁industrielle	-11.8773
▁officielle	-11.8773
▁résister	-11.8773
obtiendra	-11.8773
▁tisser	-11.8773
exila	-11.8774
▁xuloo	-11.8774
vier	-11.8774
▁Sénégalais	-11.8774
▁échou	-11.8774
▁déjj	-11.8774
oppite	-11.8774
▁Nguu	-11.8775
fils	-11.8775
▁yeeru	-11.8775
▁laytaay	-11.8775
▁mbaq	-11.8775
▁Liber	-11.8775
▁brad	-11.8776
▁caaxoñ	-11.8776
nom	-11.8776
▁chasserait	-11.8776
▁lumineuse	-11.8776
▁relative	-11.8776
audit	-11.8777
▁binage	-11.8777
▁keb	-11.8777
zia	-11.8777
▁fegu	-11.8777
▁luqi	-11.8777
▁traitement	-11.8777
assure	-11.8777
▁kàll	-11.8777
▁arrivait	-11.8778
▁réfléchir	-11.8778
▁déggatul	-11.8778
injuri	-11.8778
▁obéi	-11.8779
▁plancher	-11.8779
▁céeb	-11.8779
▁wallu	-11.8779
▁éteintes	-11.8779
rtes	-11.8779
amina	-11.8779
▁impun	-11.8779
ciller	-11.8779
▁dram	-11.8779
ngooñ	-11.8779
▁choir	-11.878
▁tunique	-11.878
▁Durba	-11.878
▁poils	-11.878
▁junki	-11.878
noui	-11.878
ciel	-11.878
auvais	-11.8781
bét	-11.8781
▁lançant	-11.8781
▁Maman	-11.8782
▁taaxum	-11.8782
sung	-11.8782
▁trompent	-11.8783
▁fréquentation	-11.8783
▁dimmali	-11.8783
doorte	-11.8783
▁avaler	-11.8783
▁Mànd	-11.8783
▁chevr	-11.8783
▁juuy	-11.8783
plexe	-11.8783
Écri	-11.8783
atement	-11.8783
▁fabriquent	-11.8783
meet	-11.8783
▁làmboo	-11.8783
▁diigal	-11.8784
▁fajukaay	-11.8784
▁barbe	-11.8784
▁révoltent	-11.8784
▁suspendu	-11.8784
autr	-11.8784
▁safaan	-11.8784
▁coin	-11.8785
▁gadd	-11.8785
▁Monro	-11.8785
entonn	-11.8785
▁fufu	-11.8785
igueur	-11.8785
▁Jubbanti	-11.8785
▁statut	-11.8785
▁excise	-11.8785
▁sëq	-11.8785
uló	-11.8786
▁darajaam	-11.8786
▁vendredi	-11.8786
▁Yaali	-11.8786
▁flan	-11.8786
▁baatin	-11.8786
▁tëraloon	-11.8787
agin	-11.8787
▁Juuf	-11.8787
▁battent	-11.8787
eeño	-11.8787
▁indiqué	-11.8787
▁laaxira	-11.8787
▁légèrement	-11.8787
▁yóot	-11.8788
▁verb	-11.8788
▁màww	-11.8788
àppaa	-11.8788
▁Jëm	-11.8788
▁beñ	-11.8788
▁roche	-11.8788
▁ruiné	-11.8788
ubbanti	-11.8789
déwén	-11.8789
▁vanne	-11.8789
▁Gine	-11.8789
▁Tellement	-11.8789
quetés	-11.8789
éebéer	-11.8789
mandat	-11.8789
▁débatt	-11.8789
▁caï	-11.879
▁dooleem	-11.879
gàmbi	-11.879
évita	-11.879
▁chère	-11.879
▁habituelle	-11.8791
▁màngaan	-11.8791
▁pilote	-11.8791
▁wujje	-11.8791
▁automobile	-11.8791
▁vermoulue	-11.8791
▁tempe	-11.8791
éññ	-11.8791
▁reelu	-11.8791
▁devinette	-11.8791
▁chaux	-11.8792
▁refil	-11.8792
▁Sauf	-11.8792
▁guddaay	-11.8792
▁Enfin	-11.8792
hnique	-11.8792
▁armeel	-11.8793
▁faillite	-11.8793
▁recroquevillé	-11.8793
▁exterminé	-11.8793
▁affolé	-11.8793
▁transformé	-11.8793
▁asperg	-11.8794
▁Ñooñ	-11.8794
▁reviennent	-11.8794
▁ëlëb	-11.8795
▁dundaat	-11.8795
▁Gaw	-11.8795
▁jaarukaay	-11.8795
▁rawante	-11.8795
▁Africaine	-11.8795
▁Faj	-11.8795
▁accompli	-11.8796
▁existait	-11.8796
▁immensité	-11.8796
▁étourdi	-11.8796
▁confortable	-11.8796
▁exceptionnel	-11.8796
▁élevage	-11.8796
▁maigri	-11.8796
▁obligation	-11.8796
▁ombrage	-11.8796
▁accus	-11.8796
▁expérience	-11.8796
▁rêverie	-11.8796
▁échelle	-11.8796
iguë	-11.8796
▁brin	-11.8796
▁conseil	-11.8796
raiment	-11.8796
▁infirmiers	-11.8796
uvée	-11.8797
▁joote	-11.8797
▁amiin	-11.8797
▁njàpp	-11.8797
▁mbana	-11.8797
▁gënaloon	-11.8797
▁éduque	-11.8797
▁féey	-11.8798
▁illusion	-11.8798
▁essu	-11.8798
▁nuróo	-11.8798
oyyanti	-11.8798
▁éloignement	-11.8798
▁plaigne	-11.8798
▁européenne	-11.8798
▁sév	-11.8798
▁añaan	-11.8799
▁Lonk	-11.88
▁ganesee	-11.88
▁fàkk	-11.88
ouche	-11.88
énètre	-11.88
▁gépp	-11.88
erreurs	-11.88
▁précision	-11.8801
▁Couvre	-11.8801
▁misaal	-11.8801
élever	-11.8801
▁étendue	-11.8801
▁jéggalu	-11.8801
▁jariñoo	-11.8801
▁tàqal	-11.8801
▁accouchement	-11.8801
▁remonter	-11.8802
▁Tekk	-11.8802
équipe	-11.8802
▁paume	-11.8802
▁xelli	-11.8802
▁justement	-11.8802
▁brisé	-11.8803
▁tegtal	-11.8804
▁carax	-11.8804
▁sànq	-11.8804
▁Demeraraa	-11.8804
▁lëmb	-11.8804
ëngal	-11.8804
▁alxa	-11.8805
▁choqu	-11.8805
▁épa	-11.8805
▁jegeyoo	-11.8806
▁tàngaayam	-11.8806
omu	-11.8806
▁mâcher	-11.8806
raies	-11.8806
▁céy	-11.8806
▁mukàlla	-11.8806
▁rivalis	-11.8807
▁délic	-11.8807
▁défie	-11.8807
trave	-11.8807
▁léem	-11.8807
▁pairs	-11.8808
igation	-11.8808
▁Mills	-11.8808
▁perd	-11.8808
▁lugg	-11.8808
▁fripes	-11.8808
▁portraits	-11.8808
▁bergers	-11.8808
▁entassés	-11.8808
▁administrateurs	-11.8808
▁défauts	-11.8808
▁paraboles	-11.8808
▁ravins	-11.8808
▁presti	-11.8808
utisme	-11.8808
▁créatures	-11.8808
▁mienne	-11.8808
▁buddat	-11.8808
▁Jàmm	-11.8809
▁àttanul	-11.8809
jjuma	-11.8809
▁Pey	-11.8809
▁touristes	-11.881
ayim	-11.881
ophag	-11.881
▁sandale	-11.8811
▁bottes	-11.8811
▁Sox	-11.8811
tanu	-11.8811
onner	-11.8811
▁yilifoon	-11.8811
▁conven	-11.8811
acide	-11.8812
▁ordonne	-11.8812
armat	-11.8812
▁teggin	-11.8812
▁ës	-11.8813
ŋat	-11.8813
uré	-11.8813
▁éclairée	-11.8814
▁dóox	-11.8814
▁conséquen	-11.8814
onc	-11.8814
zz	-11.8814
▁songe	-11.8814
▁pét	-11.8814
▁ñoree	-11.8815
ëléem	-11.8815
▁valets	-11.8815
▁yombut	-11.8815
▁puni	-11.8816
gana	-11.8816
▁sécuri	-11.8817
▁Jarul	-11.8817
▁njariñam	-11.8817
▁farlu	-11.8817
▁lenqali	-11.8817
▁Bukki	-11.8818
▁durci	-11.8818
▁déport	-11.8818
▁fusillé	-11.8818
▁puissant	-11.8819
▁Faye	-11.8819
▁ardo	-11.8819
▁tissées	-11.8819
▁càq	-11.8819
▁foroxal	-11.8819
Agade	-11.8819
itude	-11.8821
doles	-11.8821
crète	-11.8822
ëqët	-11.8822
érige	-11.8823
▁Sol	-11.8823
▁bouillant	-11.8824
▁gland	-11.8824
▁remplit	-11.8825
▁sainte	-11.8825
▁Gann	-11.8825
▁obsédant	-11.8825
▁récu	-11.8826
▁enterr	-11.8826
▁Chin	-11.8827
▁régn	-11.8827
▁Yées	-11.8827
▁dawsi	-11.8827
onnés	-11.8828
analete	-11.8828
▁intégrale	-11.8828
quets	-11.8828
▁ànduñu	-11.8829
uvet	-11.8829
▁paire	-11.8829
▁kaaf	-11.8829
▁jélloo	-11.8829
▁perce	-11.883
▁Suwee	-11.883
▁autorit	-11.883
▁sukku	-11.8831
▁perch	-11.8831
▁siraas	-11.8831
ttéen	-11.8831
vision	-11.8832
▁Mbóo	-11.8832
▁pico	-11.8833
ëri	-11.8833
environnement	-11.8833
▁canal	-11.8834
▁jekka	-11.8834
▁doyad	-11.8834
attaqu	-11.8834
▁instinctive	-11.8835
▁Gii	-11.8836
▁sàppi	-11.8836
▁Toolu	-11.8836
▁impé	-11.8836
▁noirci	-11.8836
▁Xee	-11.8836
▁parcouru	-11.8836
▁accompagnent	-11.8836
▁paraître	-11.8837
▁gindi	-11.8837
▁occup	-11.8838
▁soigné	-11.8838
ullaa	-11.8838
▁ramollisse	-11.8838
▁jekkul	-11.8839
▁défonc	-11.884
▁féticheur	-11.8841
▁bugg	-11.8841
▁nuire	-11.8841
▁lekkin	-11.8841
▁affection	-11.8841
ènes	-11.8842
ntôt	-11.8842
▁coincé	-11.8842
gile	-11.8843
▁souill	-11.8843
▁touchent	-11.8843
▁matel	-11.8844
▁gont	-11.8844
▁gilets	-11.8844
▁wóorul	-11.8845
▁saaf	-11.8845
▁adapt	-11.8845
▁Miin	-11.8845
▁tardera	-11.8845
▁yëddu	-11.8846
▁lànk	-11.8847
▁piquet	-11.8847
▁mariera	-11.8847
▁sank	-11.8848
▁kiri	-11.8849
▁sonnee	-11.8849
adou	-11.8849
▁diisoo	-11.8849
▁seddul	-11.885
▁Masur	-11.8851
▁Nattal	-11.8851
wut	-11.8852
▁découp	-11.8852
▁trembl	-11.8852
ûte	-11.8852
▁féq	-11.8853
▁Ah	-11.8853
▁soutien	-11.8853
▁dort	-11.8853
ulsion	-11.8854
▁succ	-11.8854
▁joxante	-11.8856
isons	-11.8857
baru	-11.8857
▁Ngu	-11.8859
lusi	-11.886
▁baisser	-11.886
▁Laaf	-11.886
▁reyul	-11.8861
▁coutur	-11.8861
▁endormie	-11.8862
▁cof	-11.8862
orpheline	-11.8862
▁gratuite	-11.8862
▁guitare	-11.8862
▁nonchalante	-11.8862
▁Mbon	-11.8862
▁paiera	-11.8863
▁jaf	-11.8863
▁Birame	-11.8863
▁nouvel	-11.8864
oti	-11.8864
tifs	-11.8864
▁remplir	-11.8864
▁sensible	-11.8865
taaba	-11.8866
▁Mfo	-11.8866
▁exilé	-11.8866
▁mbuum	-11.8866
▁tendue	-11.8867
▁destinée	-11.8867
▁confier	-11.8867
▁effrayé	-11.8868
▁ajag	-11.8868
▁palanteeram	-11.8868
▁renvoyé	-11.8869
▁Déjà	-11.8869
▁wàllam	-11.887
▁Mel	-11.887
▁hérité	-11.887
▁noonam	-11.887
▁bla	-11.887
pin	-11.8871
▁lionne	-11.8871
▁lox	-11.8871
▁bokku	-11.8872
▁calmer	-11.8872
▁soufflet	-11.8872
▁Kepp	-11.8872
cte	-11.8873
▁Bira	-11.8873
▁épuis	-11.8873
▁dóore	-11.8874
▁boobale	-11.8874
▁kën	-11.8875
▁càcc	-11.8875
▁envoie	-11.8875
milie	-11.8875
▁avancé	-11.8875
▁considéra	-11.8876
▁inéluctable	-11.8876
▁écrire	-11.8876
▁étincelle	-11.8876
▁égard	-11.8876
▁tenq	-11.8876
▁xewoon	-11.8877
▁vaine	-11.8877
ulcère	-11.8878
▁influence	-11.8879
▁Genn	-11.8879
▁collection	-11.888
▁opeeree	-11.888
▁hérissé	-11.888
▁annoncer	-11.8881
▁étudiant	-11.8882
▁grandeur	-11.8883
▁fof	-11.8884
▁ňoo	-11.8885
sexe	-11.8886
égré	-11.8887
▁fakk	-11.8889
▁bakkanam	-11.889
oint	-11.889
▁kel	-11.889
▁déb	-11.889
▁digle	-11.889
égorge	-11.8891
▁Baje	-11.8892
▁Sér	-11.8892
hos	-11.8893
▁Baali	-11.8893
▁merci	-11.8893
▁lëm	-11.8893
▁gaaf	-11.8894
▁jayee	-11.8895
▁orange	-11.8895
▁fande	-11.8896
▁embarrass	-11.8896
▁Bépp	-11.8896
▁giiru	-11.8897
maag	-11.8898
▁duppati	-11.8898
▁flotte	-11.8898
kasaw	-11.8898
▁kara	-11.8898
àmbara	-11.8898
tivement	-11.8898
▁Gisewu	-11.8899
▁rëb	-11.89
▁wëraa	-11.89
▁dàmb	-11.89
▁jéggal	-11.8901
nesil	-11.8901
▁odeurs	-11.8902
▁noppale	-11.8902
▁barkeel	-11.8903
▁mbar	-11.8903
▁liise	-11.8906
ration	-11.8906
▁étendues	-11.8907
▁Ngonka	-11.8907
ndal	-11.8908
▁fru	-11.8909
▁événements	-11.8909
▁Mbu	-11.8909
▁castes	-11.8909
▁endurcis	-11.8909
▁mérites	-11.8909
▁pneus	-11.8909
▁spermatozoïdes	-11.8909
▁tomates	-11.8909
▁utiles	-11.8909
▁diamants	-11.8909
▁reviendras	-11.8909
▁boucliers	-11.8909
▁morsures	-11.891
▁njar	-11.891
▁planches	-11.891
▁gerbes	-11.891
▁Jana	-11.891
▁objet	-11.8911
▁voies	-11.8911
▁bandit	-11.8911
▁mbé	-11.8912
▁Pont	-11.8913
▁seef	-11.8913
▁liyaar	-11.8913
eeñeer	-11.8914
▁Tooyal	-11.8914
▁daag	-11.8915
gation	-11.8915
quette	-11.8916
urant	-11.8917
élic	-11.8917
▁boyal	-11.8917
▁rapports	-11.8918
▁gerce	-11.8918
cules	-11.8919
▁désespérant	-11.8919
▁mottes	-11.892
udduwaale	-11.8922
grillage	-11.8923
▁entrave	-11.8923
zin	-11.8924
▁kutt	-11.8924
▁Bali	-11.8924
unóor	-11.8924
▁pey	-11.8925
▁ndoxum	-11.8926
▁namm	-11.8926
▁tonne	-11.8927
▁daggu	-11.8928
▁rêver	-11.8928
interroge	-11.8929
▁ñawal	-11.893
▁Gumbe	-11.893
nivers	-11.893
génie	-11.8931
▁taaxu	-11.8934
ssantes	-11.8934
▁sañul	-11.8935
▁repousse	-11.8935
liis	-11.8936
▁jàmbaar	-11.8937
▁crabes	-11.8939
▁filé	-11.8939
▁Wer	-11.894
▁màngi	-11.894
▁brou	-11.8941
▁meeb	-11.8941
▁gànnaayu	-11.8942
oppaliku	-11.8943
▁yett	-11.8943
▁askanam	-11.8945
▁Bës	-11.8945
▁siens	-11.8946
▁jàmbure	-11.8946
bënn	-11.8947
▁destitué	-11.8947
kurti	-11.895
Obukun	-11.8951
▁pomp	-11.8952
▁Dax	-11.8952
▁raam	-11.8952
▁bouse	-11.8952
avo	-11.8952
laawaal	-11.8952
appal	-11.8954
▁mënuñu	-11.8955
▁metital	-11.8955
glis	-11.8955
▁defati	-11.8957
▁Digg	-11.8958
▁kuti	-11.8958
▁fétiche	-11.8958
▁espoir	-11.8959
▁émotion	-11.8959
▁heurtant	-11.8959
▁lamaan	-11.896
▁percé	-11.896
lets	-11.8961
▁Lom	-11.8962
▁sc	-11.8963
bill	-11.8964
nçait	-11.8964
hin	-11.8966
▁baram	-11.8966
lie	-11.8967
ëlé	-11.8967
▁circon	-11.8967
érén	-11.8968
▁clous	-11.8968
▁blanch	-11.8968
kyst	-11.8969
▁amène	-11.897
▁Yàkk	-11.8971
découvrant	-11.8971
▁discr	-11.8973
▁wer	-11.8974
▁agripp	-11.8975
▁Joue	-11.8975
▁coiffe	-11.8975
▁bó	-11.8975
këri	-11.8977
▁retourné	-11.8977
▁kaar	-11.8977
oyée	-11.8979
▁rom	-11.898
▁korn	-11.8981
ives	-11.8982
▁deqi	-11.8984
laañaan	-11.8986
▁ŋgoo	-11.8986
urisé	-11.8986
▁présenta	-11.8986
▁oreille	-11.8987
▁chape	-11.8987
▁enco	-11.8987
▁lèp	-11.8988
ooñ	-11.8988
▁remarque	-11.8989
▁Ogil	-11.8991
▁relai	-11.8992
gase	-11.8993
immisce	-11.8993
▁fédérale	-11.8994
▁nkom	-11.8995
▁Tonn	-11.8996
▁bootal	-11.8996
rén	-11.8996
racle	-11.8996
àpptoo	-11.8997
▁xoolin	-11.8997
▁Kowe	-11.8999
▁Xay	-11.9001
▁futti	-11.9001
▁déch	-11.9003
inet	-11.9004
▁lourdes	-11.9006
▁toolam	-11.9006
▁téene	-11.9007
▁juuge	-11.9007
▁croisés	-11.9007
▁lëlu	-11.9007
▁ñefe	-11.9008
aut	-11.9008
éeru	-11.9009
xale	-11.901
▁précédée	-11.901
▁fugue	-11.9011
▁décorés	-11.9011
▁guérie	-11.9012
▁enfoncés	-11.9012
▁rituels	-11.9014
▁vautours	-11.9014
▁congés	-11.9014
▁groupes	-11.9014
▁chansons	-11.9014
▁mensonges	-11.9014
▁prospères	-11.9014
▁firi	-11.9016
▁kili	-11.9017
▁décl	-11.9017
▁épis	-11.9017
daay	-11.9017
èbres	-11.9018
▁quitter	-11.9018
adique	-11.9018
▁caravanes	-11.9019
▁profiter	-11.9021
▁jaxal	-11.9024
àttalikuwu	-11.9025
▁Ré	-11.9026
▁cola	-11.9027
▁mesurer	-11.9027
années	-11.9027
▁waxtaanee	-11.9028
▁distances	-11.9028
▁Wau	-11.9029
▁sun	-11.9029
▁jàppoo	-11.903
▁koste	-11.903
▁Ag	-11.9031
▁outre	-11.9031
▁dëgëral	-11.9034
▁magum	-11.9034
▁cajj	-11.9036
▁Bàmb	-11.9039
▁xaleel	-11.9041
formation	-11.9041
▁mouche	-11.9041
rel	-11.9041
▁visiteur	-11.9042
interroger	-11.9043
▁dogale	-11.9044
bëtu	-11.9044
▁gratt	-11.9045
▁salaam	-11.9047
àllaa	-11.9049
▁civilis	-11.905
▁pensées	-11.9051
▁meloy	-11.9051
▁Demul	-11.9054
▁xaritoo	-11.9055
▁hy	-11.9056
▁jotul	-11.9057
ñett	-11.9057
▁ginnaawam	-11.9058
▁laalo	-11.9059
▁ňax	-11.9059
ituée	-11.906
▁muusal	-11.9061
▁déchiré	-11.9062
galaas	-11.9062
▁écritures	-11.9063
▁sarcl	-11.9064
ffronter	-11.9065
▁léebu	-11.9068
▁Dada	-11.9068
▁teral	-11.9069
▁taafa	-11.907
▁éliminer	-11.907
▁voilé	-11.9071
▁plantes	-11.9072
▁jarul	-11.9072
▁bénit	-11.9072
▁jóor	-11.9073
▁tou	-11.9078
▁bànneexu	-11.908
tivités	-11.9081
▁bañoon	-11.9082
▁boucher	-11.9083
▁achetée	-11.9085
▁loot	-11.9086
▁Boy	-11.9086
ilyaan	-11.9086
▁coyy	-11.9087
aŋas	-11.9088
▁àbb	-11.9088
▁ombre	-11.9089
▁lij	-11.909
▁kawam	-11.909
▁feeň	-11.9092
▁buntam	-11.9092
▁Jàkk	-11.9093
▁fital	-11.9094
pris	-11.9095
▁añe	-11.9098
▁raté	-11.91
▁poi	-11.9103
▁couler	-11.9103
▁choi	-11.9104
▁brûlera	-11.9104
▁abus	-11.9105
▁encadré	-11.9105
ooje	-11.9106
▁entendron	-11.9108
▁biiw	-11.911
▁càllala	-11.911
▁degg	-11.911
▁siti	-11.9111
▁xaalisam	-11.9111
▁Tim	-11.9112
▁coïncid	-11.9113
quée	-11.9113
▁finit	-11.9113
oulé	-11.9113
▁jalgandi	-11.9114
▁sabaru	-11.9115
▁rincer	-11.9118
▁microb	-11.9121
▁antilopes	-11.9121
▁zi	-11.9123
▁présidents	-11.9123
ànjaŋ	-11.9124
▁soins	-11.9126
▁yoot	-11.9128
sedd	-11.9128
àbbi	-11.9129
▁ruy	-11.9129
▁batteur	-11.9131
▁fermés	-11.9133
▁nëbbu	-11.9134
oreilles	-11.9134
skan	-11.9134
▁Pousse	-11.9135
mbës	-11.9136
▁nuyoo	-11.9137
▁roulé	-11.9137
beau	-11.9141
wale	-11.9141
idée	-11.9142
▁vac	-11.9143
▁jubu	-11.9143
ŋŋaaral	-11.9146
hari	-11.9148
▁mbuu	-11.9148
atteler	-11.9148
uniform	-11.9149
▁ânes	-11.9153
▁ap	-11.9153
▁glo	-11.9154
▁maamam	-11.9155
▁sortent	-11.9156
▁colle	-11.9157
▁kal	-11.9158
▁perdues	-11.9165
▁souple	-11.9165
▁hôtes	-11.9167
▁fuit	-11.9167
ndait	-11.9168
▁juumul	-11.9169
▁lëpp	-11.917
▁crainte	-11.9171
▁terrasserai	-11.9174
▁centim	-11.9181
▁sentir	-11.9181
▁buru	-11.9182
▁exil	-11.9184
▁Gol	-11.9184
▁Kawóo	-11.9185
▁menti	-11.9192
▁Ek	-11.9192
▁fowan	-11.9193
▁dér	-11.9197
▁làññ	-11.9197
▁Fiir	-11.9199
▁hu	-11.9201
▁désirs	-11.9203
▁yées	-11.9204
▁maandu	-11.9206
▁meram	-11.9208
▁prendrai	-11.9208
▁Ax	-11.9213
▁prest	-11.9215
juumte	-11.9216
▁Dunu	-11.922
wees	-11.922
▁tànkam	-11.9222
▁empêche	-11.9223
jee	-11.9224
rabes	-11.9225
▁Dàtt	-11.9225
▁app	-11.9227
▁retrouvés	-11.9229
▁mûrs	-11.9229
▁peuples	-11.9229
▁ressembler	-11.923
▁occupe	-11.9231
pha	-11.9233
▁Européens	-11.9234
▁boude	-11.9235
emb	-11.9238
▁canc	-11.9239
▁caaxaane	-11.9239
ëbbin	-11.9242
▁pë	-11.9242
blant	-11.9243
▁jélaat	-11.9246
ambar	-11.9247
▁aise	-11.9248
sóor	-11.9249
▁odeur	-11.9252
▁Gent	-11.926
▁confies	-11.926
▁conduite	-11.9263
▁datte	-11.9264
▁jàmbu	-11.9265
▁répar	-11.9268
▁insouciant	-11.9269
▁portion	-11.9271
ouï	-11.9274
ñoñ	-11.928
óobal	-11.928
bbal	-11.9283
▁capo	-11.9285
ankal	-11.9289
▁Lekku	-11.929
▁Bile	-11.9294
aaxoñ	-11.9294
iner	-11.9296
patam	-11.9301
▁Akara	-11.9302
▁péni	-11.9302
▁tombant	-11.9306
régnait	-11.9307
▁màttat	-11.9308
kale	-11.9315
antoo	-11.9316
▁lekkam	-11.9316
▁yeen	-11.9316
anges	-11.9318
▁Puu	-11.9327
oublie	-11.9327
▁barre	-11.9328
▁Joy	-11.9329
▁bavards	-11.9331
▁chanter	-11.9332
rté	-11.9333
▁bleues	-11.9334
▁malheurs	-11.9336
▁fumeur	-11.9337
▁marques	-11.9338
▁cadenc	-11.9339
▁perche	-11.9339
attends	-11.9342
▁yeww	-11.9346
▁Lim	-11.9349
▁feyu	-11.9349
▁sot	-11.9351
▁bindal	-11.9357
▁suit	-11.9364
▁cage	-11.9367
▁doxin	-11.9367
▁amaat	-11.9374
iyaar	-11.9374
▁dawalkat	-11.9375
▁habille	-11.9375
ouest	-11.9377
▁fent	-11.9378
▁fument	-11.9381
▁Gl	-11.9381
▁inqui	-11.9384
ifs	-11.9385
▁Kuma	-11.9387
▁defaral	-11.9387
▁Way	-11.9387
kërëb	-11.9393
▁baye	-11.9395
teg	-11.9396
▁install	-11.9397
yo	-11.9397
▁Fara	-11.9401
▁levés	-11.9402
▁cli	-11.9404
▁organisé	-11.9407
▁caches	-11.9407
▁ful	-11.942
ennui	-11.9424
▁liggéeyi	-11.9425
▁ng	-11.9426
▁violente	-11.9435
▁koko	-11.9438
pour	-11.9447
▁gajaf	-11.9448
tueuse	-11.9452
▁atroc	-11.9454
ompa	-11.9458
▁suffisante	-11.946
limité	-11.9465
▁destiné	-11.9465
▁dalul	-11.9467
▁visé	-11.9472
venue	-11.9473
anique	-11.9477
▁soppe	-11.948
tuwaale	-11.9481
▁Gàng	-11.9482
▁sommeil	-11.9482
▁matuwaa	-11.9482
wér	-11.9483
▁procure	-11.9489
▁baaxoo	-11.9489
▁Bind	-11.9489
fet	-11.9491
tère	-11.9492
béeru	-11.9493
▁Mey	-11.9494
▁pointes	-11.9498
▁moomoo	-11.9501
▁péri	-11.9502
▁oiseau	-11.9505
▁Giiru	-11.9508
▁napp	-11.9509
▁solide	-11.9512
▁agg	-11.9515
▁làpp	-11.9516
▁dégager	-11.9518
▁géer	-11.952
isoŋ	-11.9522
abab	-11.9523
▁lourds	-11.9528
▁cassera	-11.9532
▁gross	-11.9536
▁ñemee	-11.9538
▁occidental	-11.954
▁ganu	-11.9542
digg	-11.9547
▁hant	-11.9549
estom	-11.955
▁reflétai	-11.9556
▁princes	-11.9559
kadd	-11.9562
▁domaines	-11.9563
aaya	-11.9564
▁toggal	-11.9571
▁maab	-11.9572
chaîn	-11.9574
tip	-11.9579
xaam	-11.958
▁confident	-11.9585
dde	-11.9593
▁bibe	-11.9597
▁Bë	-11.9597
▁joueur	-11.9598
▁agir	-11.9599
nalité	-11.96
▁tak	-11.9608
nstruction	-11.9609
▁oeil	-11.9612
▁mène	-11.9622
▁gro	-11.9628
▁new	-11.9633
jab	-11.9633
▁wàlle	-11.9636
tribut	-11.9636
▁entendue	-11.9636
▁fóote	-11.9638
▁chauff	-11.9641
▁Bir	-11.9642
▁dép	-11.9647
tem	-11.9652
▁Law	-11.9655
éprouv	-11.966
▁ronde	-11.9671
▁mêler	-11.9672
▁éme	-11.9672
ident	-11.9673
▁réewam	-11.9676
▁langues	-11.9678
fant	-11.9678
iaux	-11.9687
▁fouett	-11.969
▁fenk	-11.9695
▁mbi	-11.9698
▁root	-11.971
ornes	-11.971
▁tend	-11.9711
rñi	-11.9711
▁jëmment	-11.9711
abit	-11.9713
▁permettra	-11.9717
▁Tàmm	-11.9719
alul	-11.972
▁goree	-11.9723
▁vieillis	-11.9728
▁ibo	-11.9744
▁mokkal	-11.9747
uloon	-11.9749
▁doŋ	-11.975
fit	-11.9762
▁laide	-11.9774
▁Jar	-11.9774
▁xelal	-11.9783
▁feign	-11.9783
▁Tari	-11.9784
▁cub	-11.9814
céd	-11.9815
sier	-11.9817
▁Astoo	-11.9824
▁consulte	-11.9825
▁Ñaare	-11.9825
▁acco	-11.9827
gard	-11.9827
▁lib	-11.9832
dés	-11.984
nay	-11.9842
▁manee	-11.9852
▁laissés	-11.9855
ttant	-11.9857
▁tru	-11.9862
▁arracher	-11.9864
▁Wooy	-11.9865
▁kombo	-11.9869
▁koň	-11.9869
sensible	-11.987
▁regrette	-11.9873
▁buub	-11.9873
▁dépose	-11.9875
▁minist	-11.9885
terai	-11.9885
▁vrais	-11.9888
yez	-11.9895
reuse	-11.9898
▁doc	-11.9901
▁Kawa	-11.9908
▁sûrs	-11.991
▁dëkkam	-11.9925
▁reprise	-11.9926
jub	-11.9926
irland	-11.9927
▁conçues	-11.9934
▁isolée	-11.9935
ëgë	-11.9937
commençait	-11.9937
▁dresser	-11.994
bàcc	-11.9942
rbi	-11.9944
▁courbé	-11.9949
▁digaloo	-11.9949
▁tombes	-11.9953
▁Xa	-11.9953
▁tëdde	-11.9959
parts	-11.996
▁sati	-11.9962
jus	-11.9964
kal	-11.9989
▁sta	-11.9992
▁rival	-11.9995
▁pédo	-12.0004
▁gane	-12.0009
àgg	-12.001
▁Wutkat	-12.0012
▁poussée	-12.0013
ibb	-12.0022
einture	-12.0027
issé	-12.0032
▁fég	-12.0054
changer	-12.0057
him	-12.0068
ago	-12.007
▁rés	-12.0071
▁excl	-12.0078
isée	-12.0091
▁ŋaa	-12.0091
rendra	-12.0091
▁amulette	-12.0091
▁àddinaa	-12.0099
▁Gal	-12.0102
leb	-12.0109
▁entrai	-12.0113
▁irréel	-12.0114
ndoor	-12.0122
▁mudd	-12.0123
▁puisqu	-12.0125
▁Nuy	-12.0132
ong	-12.0137
▁garg	-12.0141
▁versera	-12.0141
▁connus	-12.0147
▁Doxa	-12.0165
ompaa	-12.0173
aq	-12.0185
▁Cam	-12.0186
amène	-12.0186
▁Ti	-12.0193
▁indig	-12.0201
▁Angal	-12.0202
ison	-12.0208
▁cotonn	-12.0209
▁Bant	-12.0209
slaay	-12.0215
▁rees	-12.0218
▁faju	-12.0227
▁Jamm	-12.0231
élague	-12.0234
▁amaa	-12.0238
sii	-12.0246
▁bëggé	-12.0247
▁soor	-12.0253
▁Wute	-12.0254
▁waxul	-12.0263
allumer	-12.0264
▁baobabs	-12.027
plaça	-12.0271
▁emporte	-12.0271
▁dieux	-12.0274
wó	-12.0281
ngasin	-12.0283
▁déserté	-12.0298
▁corn	-12.0307
▁senn	-12.0317
▁déta	-12.034
▁écrase	-12.0344
▁rempliss	-12.0345
aamu	-12.0345
▁wag	-12.0348
▁calcule	-12.0358
▁emprunte	-12.0359
▁multiplie	-12.036
▁voil	-12.036
▁dëgë	-12.0371
marin	-12.0377
jekk	-12.0382
formé	-12.0383
▁ndugge	-12.0398
occupera	-12.0398
▁yà	-12.0398
aani	-12.04
▁xelu	-12.0403
▁éclair	-12.0404
han	-12.0415
▁Pri	-12.042
▁engendre	-12.0422
ob	-12.0445
▁entourée	-12.045
▁jànkoontee	-12.0451
▁vivante	-12.0451
▁tombés	-12.0454
▁ém	-12.0469
▁enveloppe	-12.0471
▁rasé	-12.0471
▁herbe	-12.0476
▁manoo	-12.0476
▁gain	-12.0489
ertificat	-12.051
▁jale	-12.0515
▁chatouille	-12.0524
▁tress	-12.0525
▁Yi	-12.0536
▁gisagum	-12.0545
noué	-12.0553
▁abri	-12.0562
nou	-12.0563
▁termina	-12.0572
fini	-12.0575
Làbbe	-12.0575
▁ampoule	-12.0584
▁Cum	-12.0589
▁chefs	-12.059
▁mars	-12.0616
àngoo	-12.0629
▁emporter	-12.0643
▁couru	-12.0655
▁dëñ	-12.0667
▁vieilles	-12.0669
▁devoir	-12.0672
▁dogoo	-12.0676
▁selle	-12.0679
ukki	-12.0681
▁hé	-12.0683
▁wé	-12.0703
poto	-12.0705
▁montra	-12.0705
▁bistr	-12.0709
▁transport	-12.0716
▁mball	-12.0733
▁bëlu	-12.0739
▁écar	-12.0739
▁effe	-12.0741
▁App	-12.0744
ass	-12.0745
terre	-12.0748
▁miim	-12.0764
▁attire	-12.0768
▁chemises	-12.0774
Roug	-12.0777
woŋ	-12.0781
mbaalu	-12.0786
▁jàllal	-12.0803
▁Abo	-12.0812
▁capp	-12.0814
▁soq	-12.0815
ndiir	-12.0839
araa	-12.0839
riante	-12.0851
ukat	-12.0857
▁bëtu	-12.0859
qatu	-12.0869
▁bols	-12.0875
▁ouvre	-12.0877
▁immobil	-12.0881
bba	-12.0891
▁embras	-12.0901
enivr	-12.0902
ddulee	-12.0904
▁jiba	-12.0909
feutre	-12.0911
plié	-12.0912
▁naw	-12.0926
isal	-12.0926
bul	-12.0938
amen	-12.0947
baay	-12.0954
isive	-12.0955
▁xala	-12.0955
▁terr	-12.0966
▁statu	-12.0975
▁donk	-12.0984
▁coque	-12.0984
ute	-12.0987
dànk	-12.0995
▁Asee	-12.1024
duit	-12.103
▁essai	-12.1032
stéri	-12.1045
▁Pin	-12.1057
▁ndoxu	-12.1061
▁endui	-12.1066
▁naax	-12.1077
▁waxu	-12.1077
▁permettr	-12.1079
aati	-12.108
accepterai	-12.1081
reux	-12.109
gori	-12.1102
▁Natt	-12.1102
▁lonkal	-12.1104
aayaan	-12.1109
▁étalée	-12.1129
▁carré	-12.1137
▁miinee	-12.1149
irig	-12.1156
ett	-12.1169
èvre	-12.1172
tesse	-12.1172
ank	-12.1186
ndandoo	-12.1191
asante	-12.1194
tables	-12.1207
siti	-12.1211
kkale	-12.1212
▁allai	-12.1212
▁band	-12.1223
hameaux	-12.1226
▁bér	-12.1231
él	-12.1233
ooke	-12.1248
rdo	-12.1263
nati	-12.1282
▁tables	-12.1292
guru	-12.1294
▁Sang	-12.1299
▁préc	-12.1299
góorl	-12.13
▁Gaan	-12.1301
accouchée	-12.1333
baane	-12.1337
euses	-12.1344
rate	-12.1348
▁jëkkant	-12.1364
same	-12.1367
▁arrivera	-12.1372
atique	-12.1374
▁ruu	-12.138
imper	-12.138
▁ingr	-12.1391
▁conv	-12.1402
tortill	-12.1404
explose	-12.1426
adeau	-12.1434
jante	-12.1437
▁mbas	-12.1437
iole	-12.144
▁récite	-12.1455
usée	-12.1459
▁gaawe	-12.1465
▁doxale	-12.1469
▁Léb	-12.1469
outils	-12.1513
▁Set	-12.152
▁attachée	-12.154
▁ouvri	-12.1541
naase	-12.1551
▁plate	-12.1552
▁Dam	-12.1554
ntin	-12.1554
▁jaayaat	-12.1556
▁Fey	-12.1569
axasoo	-12.1588
▁travaillai	-12.1595
àlli	-12.1596
▁déy	-12.16
▁levée	-12.1611
précise	-12.1615
umba	-12.1628
jax	-12.1637
ngl	-12.1639
▁soosoo	-12.1646
▁solu	-12.1657
▁spécial	-12.1657
anneau	-12.1673
▁xaru	-12.1688
uróo	-12.1694
▁amère	-12.1715
▁inde	-12.1725
mêmes	-12.174
▁surviv	-12.1761
attax	-12.1775
ullee	-12.1775
gresse	-12.1783
bii	-12.1797
oy	-12.18
▁att	-12.1804
àjji	-12.1804
▁magi	-12.1812
▁Lëkk	-12.1826
oci	-12.1832
▁rouillé	-12.1844
yaan	-12.1866
▁njaa	-12.1879
▁mbur	-12.1881
▁arrives	-12.1895
▁cont	-12.1895
▁attel	-12.1896
▁sco	-12.1897
ayu	-12.1911
▁gàn	-12.1928
▁Dan	-12.1931
muuti	-12.194
▁joll	-12.1943
▁réguli	-12.1949
▁Ngóo	-12.1962
▁mince	-12.1968
iendras	-12.1972
▁dormai	-12.1981
kkaa	-12.1992
axental	-12.1994
▁représent	-12.2004
ëfinam	-12.2032
bride	-12.2039
ww	-12.2046
nés	-12.2053
araam	-12.2057
▁Mujj	-12.2073
▁voût	-12.2075
ndombo	-12.2095
èrement	-12.2117
▁penche	-12.2119
▁bru	-12.2122
mple	-12.2122
asseye	-12.2138
vel	-12.2154
affe	-12.2164
vite	-12.2168
▁mënal	-12.2168
yyi	-12.2173
▁bëm	-12.2175
▁Malheur	-12.2175
▁Cin	-12.2177
uwaal	-12.2178
▁kul	-12.2192
▁Tamar	-12.2193
▁mettiwul	-12.2194
▁Deñ	-12.2222
▁gànj	-12.2271
▁wë	-12.228
yons	-12.2288
mique	-12.2302
▁voyager	-12.2305
▁com	-12.2311
▁balay	-12.2315
kas	-12.2326
▁convi	-12.2343
▁dinde	-12.2346
▁pul	-12.236
▁dons	-12.2369
▁Rid	-12.2375
▁prison	-12.2382
adolescent	-12.2394
▁muusant	-12.2397
endorm	-12.2402
▁Sere	-12.2418
ñoom	-12.2428
accompagnera	-12.2434
itu	-12.2437
óot	-12.244
▁Mala	-12.2444
▁déboucha	-12.2483
▁villes	-12.2509
▁fourni	-12.2523
▁Cola	-12.2529
▁géttu	-12.2529
guer	-12.2533
▁emmen	-12.2536
àngóor	-12.2539
ëngoo	-12.2541
ssie	-12.2546
▁attribue	-12.255
▁xari	-12.2562
▁nib	-12.2578
retam	-12.2578
▁ñañ	-12.2599
▁mbaru	-12.261
▁gaay	-12.2616
rique	-12.2621
ause	-12.2655
▁yóbba	-12.2684
mouvant	-12.2695
▁Kasa	-12.2695
og	-12.2724
▁suul	-12.2744
loque	-12.277
awaan	-12.2771
▁Ib	-12.2771
etto	-12.278
laata	-12.2796
▁tëgge	-12.2797
endorme	-12.2805
▁points	-12.2833
diir	-12.2842
▁mujju	-12.2844
▁dépi	-12.2846
▁emport	-12.2859
goñ	-12.2865
rëb	-12.2867
▁vider	-12.2937
▁fra	-12.2938
▁jàn	-12.294
▁revi	-12.2957
▁carn	-12.2969
ndeel	-12.2999
▁épie	-12.3031
oque	-12.304
istique	-12.3063
isin	-12.3069
▁safatu	-12.3078
asoŋ	-12.309
assey	-12.3122
▁gà	-12.3124
▁Patien	-12.3126
▁able	-12.3127
▁pench	-12.3132
▁raxase	-12.3176
oro	-12.3212
▁paroi	-12.3228
▁dàjj	-12.3238
▁jëfin	-12.3265
ayoo	-12.3284
▁Namm	-12.3294
ànk	-12.3307
goneem	-12.3334
óom	-12.3336
▁jouai	-12.3364
▁lumb	-12.3373
▁permett	-12.3378
▁wà	-12.3385
oupe	-12.3398
ites	-12.3407
rewul	-12.342
▁emb	-12.3431
ndomb	-12.3436
▁bro	-12.3446
▁Mëne	-12.345
▁mé	-12.3462
égal	-12.3472
uwuñu	-12.3516
ouons	-12.3524
andi	-12.353
▁promena	-12.3545
▁Bam	-12.3546
téri	-12.3571
isson	-12.3575
vait	-12.3579
uuj	-12.3583
▁noc	-12.3584
ielle	-12.3592
ejje	-12.3606
raam	-12.3612
chent	-12.3614
▁couch	-12.3639
▁muuroo	-12.3642
▁xéye	-12.365
▁trouva	-12.3655
éebam	-12.3656
▁Gàcc	-12.3671
▁foto	-12.3672
▁jér	-12.37
▁Premi	-12.3732
ànni	-12.3733
ain	-12.3748
▁précis	-12.3791
▁entraîn	-12.3811
▁Xola	-12.3825
bés	-12.3829
naat	-12.3885
gêne	-12.3902
▁janaa	-12.3916
▁fiiri	-12.3927
exist	-12.3937
▁émou	-12.3947
yéwén	-12.3949
▁suff	-12.3949
▁Mbañ	-12.3952
▁acqui	-12.3953
▁explos	-12.3958
▁Mënuñ	-12.3984
▁cohabit	-12.4003
bou	-12.4011
eñu	-12.4032
indre	-12.4037
▁cél	-12.4056
▁accouché	-12.407
ressée	-12.4079
▁rajout	-12.4123
▁jànqu	-12.4136
ànjar	-12.4139
opp	-12.4164
sser	-12.4172
▁Feg	-12.4191
▁mépris	-12.4198
ewande	-12.42
caaf	-12.4205
arme	-12.4228
▁goŋ	-12.4232
viens	-12.4236
uuraay	-12.426
ngali	-12.4266
bbant	-12.427
▁tol	-12.4282
▁Feya	-12.4286
▁ňaa	-12.4293
▁taxi	-12.4305
acoch	-12.4316
▁rade	-12.4321
vèrent	-12.4324
▁eff	-12.4331
▁feel	-12.4335
▁quinte	-12.434
dolescent	-12.4341
▁Dagga	-12.4342
ngoo	-12.4345
▁all	-12.4347
▁cok	-12.4356
étend	-12.4358
▁balanç	-12.4389
éshabill	-12.4423
mais	-12.4446
▁soriwu	-12.4446
iffés	-12.4467
këy	-12.4471
iki	-12.4498
aupoudr	-12.4506
likoo	-12.4523
▁retir	-12.4526
▁Lë	-12.453
▁reewan	-12.4534
ieuse	-12.4545
activ	-12.4574
por	-12.4579
▁allusi	-12.4582
tale	-12.4624
aaxental	-12.4624
galee	-12.4634
ñal	-12.4659
faire	-12.468
assi	-12.4696
▁cous	-12.4698
▁Boolee	-12.4712
▁dooñ	-12.4723
▁kobo	-12.4725
immobilis	-12.4742
▁Doyl	-12.475
ndar	-12.4759
accepter	-12.4764
▁jala	-12.4781
bayre	-12.4781
ordonne	-12.4793
▁tambaa	-12.48
▁Monte	-12.4802
▁terewu	-12.4805
ë	-12.4807
important	-12.4809
▁saan	-12.4809
lbati	-12.4811
▁transporta	-12.4823
▁fanq	-12.4894
égo	-12.4901
óli	-12.4915
▁feg	-12.492
▁directe	-12.4926
qam	-12.4927
▁espéra	-12.4968
preuves	-12.4996
éro	-12.5005
eexal	-12.5005
ñse	-12.5006
▁dégoût	-12.5015
aajo	-12.5021
▁donna	-12.5032
keek	-12.5043
angasin	-12.5055
▁dét	-12.5071
▁Góo	-12.5098
▁échangea	-12.51
parenté	-12.51
▁croie	-12.5115
iraas	-12.5115
añuma	-12.5168
nationale	-12.5184
salaat	-12.5214
▁geenu	-12.5214
arch	-12.5218
▁Anda	-12.5268
▁capture	-12.5285
éq	-12.5314
tilité	-12.5327
▁jànkoonte	-12.5334
▁ling	-12.5344
▁dégét	-12.5354
▁Fó	-12.5356
▁Ŋgo	-12.5357
ode	-12.538
▁attir	-12.5381
▁rep	-12.5381
▁tëw	-12.5409
dresse	-12.5456
▁gagn	-12.5462
▁engendr	-12.5471
diku	-12.5471
▁xaa	-12.5472
▁envelopp	-12.5475
▁multipli	-12.548
▁emprunt	-12.5482
▁répara	-12.5482
▁calcul	-12.5483
lique	-12.5497
ép	-12.5507
▁int	-12.5508
▁écras	-12.5511
ndiku	-12.5524
▁frappera	-12.5536
▁rentrera	-12.5538
nées	-12.5543
▁Judd	-12.5552
▁futur	-12.5554
▁wéer	-12.5558
▁Bàkk	-12.5561
▁jigu	-12.5568
jàppul	-12.557
▁chatouill	-12.557
▁cultivera	-12.5579
▁béni	-12.5595
raadaam	-12.5614
laça	-12.5626
ékkee	-12.5628
▁exemp	-12.5637
▁mainten	-12.5641
▁transhu	-12.5651
illet	-12.5672
élagu	-12.5689
afu	-12.5703
▁Jékk	-12.5719
▁xub	-12.572
ristes	-12.5723
envahissai	-12.5755
▁révolt	-12.5772
nfant	-12.5773
rbe	-12.5777
▁énorm	-12.5778
▁éteindr	-12.578
ernie	-12.5796
phil	-12.5855
▁dépl	-12.5857
titu	-12.5879
▁masc	-12.588
oxo	-12.5883
▁Daay	-12.5901
▁irré	-12.5911
mmali	-12.5918
lë	-12.5928
▁Mboo	-12.5943
ruption	-12.5943
▁paraissai	-12.5952
oqi	-12.599
pertine	-12.6
njaay	-12.6001
entraîn	-12.6001
oxor	-12.6026
▁jumeau	-12.6034
jar	-12.6058
▁insens	-12.6101
▁géw	-12.6104
▁occuper	-12.6107
▁remp	-12.6133
▁rapproch	-12.6134
▁tort	-12.6156
ication	-12.6161
rig	-12.6175
▁sàqu	-12.6179
▁torti	-12.6187
usante	-12.6194
▁plong	-12.6203
ilier	-12.6217
▁këc	-12.6219
landaise	-12.6225
▁Juddu	-12.626
ouvant	-12.6267
▁fâcha	-12.6272
▁risqu	-12.628
▁wel	-12.6292
▁có	-12.6315
▁fëri	-12.6372
të	-12.6374
▁minis	-12.6378
luñ	-12.6385
anaan	-12.6393
exerc	-12.6393
▁découvr	-12.6398
▁Deful	-12.6399
gner	-12.6418
▁nëg	-12.6444
▁Bëgguloo	-12.6451
prouve	-12.6468
skal	-12.6473
▁accout	-12.648
eignent	-12.649
▁surveill	-12.65
▁mokku	-12.6505
ànte	-12.651
outir	-12.6534
▁appren	-12.6541
ayum	-12.6543
▁fouettai	-12.6556
vraie	-12.6558
ekum	-12.6562
▁survi	-12.6582
àmmul	-12.6597
astique	-12.6612
▁vieilli	-12.6617
▁Kànd	-12.6652
▁déf	-12.6654
▁nëwu	-12.6656
▁emp	-12.6679
▁adolescen	-12.6687
habita	-12.6696
aaleel	-12.6716
ancent	-12.6717
▁Lor	-12.6721
mati	-12.6731
▁Mbur	-12.6731
éttu	-12.6737
tends	-12.6738
ienvenue	-12.6744
nière	-12.6755
▁tribu	-12.6796
lkolaat	-12.6805
▁Dig	-12.681
saň	-12.6815
▁sikk	-12.6819
rè	-12.6837
ployer	-12.6849
aliku	-12.6865
augment	-12.6866
▁hât	-12.6881
struction	-12.6886
▁pinc	-12.6887
aînés	-12.6891
enferm	-12.6891
▁veni	-12.69
ënn	-12.6903
▁servi	-12.6912
mpa	-12.6915
bën	-12.6935
▁Ànda	-12.6941
▁prince	-12.6943
▁Revi	-12.6953
▁inf	-12.6953
bib	-12.6987
▁jigé	-12.6991
▁ferm	-12.6995
mo	-12.6999
éche	-12.7001
▁piqu	-12.7005
rid	-12.7008
▁Mbo	-12.7019
▁solid	-12.7044
ërëx	-12.7044
▁càng	-12.7045
leçons	-12.7051
iig	-12.7052
orale	-12.7068
denté	-12.7069
▁réel	-12.7072
wwu	-12.7094
iger	-12.7107
▁folle	-12.7115
▁Njii	-12.7123
▁Giir	-12.7136
▁lançai	-12.7141
approchait	-12.7153
roces	-12.7156
▁lâche	-12.7159
▁Met	-12.7166
▁épine	-12.7181
▁Gë	-12.7183
▁yew	-12.7183
jafal	-12.7197
óok	-12.7203
▁só	-12.7235
naxe	-12.7235
aboot	-12.7236
allai	-12.7241
réparer	-12.7244
▁yéen	-12.7248
ryaa	-12.7251
gh	-12.7257
▁chiqu	-12.728
rist	-12.7288
▁extra	-12.7298
uxus	-12.7313
niers	-12.7317
mol	-12.7322
mbaar	-12.7331
▁gó	-12.7332
trict	-12.7337
▁doxat	-12.7337
▁partag	-12.7342
umés	-12.7344
ewwi	-12.7362
fermées	-12.7366
oix	-12.7367
àngaan	-12.7373
donc	-12.7386
ciné	-12.7408
▁ràkkaaj	-12.7408
ouffant	-12.7432
ggu	-12.7435
▁restera	-12.7453
bouché	-12.749
oxoñu	-12.751
ination	-12.7514
▁Kanaa	-12.7514
neuses	-12.7521
karaa	-12.7526
▁préserv	-12.753
oyal	-12.7532
coor	-12.7547
▁habi	-12.7549
ës	-12.7552
tari	-12.7554
çons	-12.7557
nni	-12.7557
égét	-12.7568
▁Massa	-12.7569
▁commenç	-12.7578
venir	-12.7595
réol	-12.7632
▁aventur	-12.764
▁neveu	-12.7652
gat	-12.7654
tirer	-12.766
hère	-12.7666
ombo	-12.7675
har	-12.7676
traire	-12.7687
xaan	-12.7689
tiens	-12.769
posées	-12.7693
imagin	-12.7708
arrage	-12.7711
uxuri	-12.7715
mène	-12.7716
▁Kàdd	-12.7724
wii	-12.7725
▁yakk	-12.7739
▁attrap	-12.7749
ignor	-12.7749
▁njii	-12.7753
uuka	-12.776
▁njuum	-12.776
iture	-12.7764
neen	-12.777
▁vainc	-12.779
▁caillo	-12.78
bës	-12.7802
▁coloni	-12.7805
àbbali	-12.7813
vais	-12.7818
àtti	-12.7822
▁juun	-12.7822
mmee	-12.7823
▁tiendra	-12.783
▁marqu	-12.7841
▁abandonn	-12.7843
▁roul	-12.7844
▁micro	-12.7857
moom	-12.7867
mbuuj	-12.7873
▁fée	-12.7877
▁càllal	-12.7883
bartalu	-12.7895
▁Esp	-12.7901
▁Móo	-12.7904
▁ngonee	-12.7907
▁furt	-12.7914
appren	-12.7918
▁somm	-12.7921
arab	-12.7922
uche	-12.7944
eusement	-12.795
ñàdd	-12.7951
▁Diri	-12.7956
▁navet	-12.7958
plaisait	-12.7964
▁élimine	-12.7972
▁rince	-12.7975
expuls	-12.7978
▁ndée	-12.7981
▁auxquel	-12.7987
ireeku	-12.7987
hanti	-12.7993
amine	-12.7995
▁affront	-12.7999
bienne	-12.8002
autant	-12.8015
▁fétich	-12.8018
axasaay	-12.8023
ësu	-12.8023
▁gëj	-12.8025
ratté	-12.804
▁encadr	-12.8042
▁ramolli	-12.8052
xàll	-12.8053
fla	-12.8057
accept	-12.8062
stituer	-12.8064
sibir	-12.8064
▁Fàttali	-12.8073
ññi	-12.8083
▁particulière	-12.8083
tumb	-12.8088
vre	-12.8091
▁gourd	-12.8091
nèbre	-12.8095
igné	-12.8095
annes	-12.8096
▁retrou	-12.81
▁gra	-12.8101
▁déchir	-12.8104
loqu	-12.8105
▁Tera	-12.8106
mmal	-12.8111
▁Wé	-12.8116
▁yéexa	-12.8117
▁coro	-12.812
mball	-12.8124
▁Ava	-12.8128
▁dëg	-12.813
yonn	-12.8136
cade	-12.8144
▁fédéral	-12.8151
immisc	-12.8154
▁ñef	-12.8154
▁Njo	-12.8156
▁remarqu	-12.8163
ect	-12.8167
▁montr	-12.8172
union	-12.8179
embarras	-12.8179
ô	-12.8181
ddal	-12.8185
araan	-12.8188
▁plac	-12.8195
wunu	-12.8196
comp	-12.8199
lume	-12.8203
vienne	-12.8205
▁interrog	-12.8207
▁frott	-12.8215
nañu	-12.8217
rure	-12.8218
vo	-12.8219
▁superpos	-12.8221
▁tac	-12.8227
▁fatal	-12.8232
▁déva	-12.8235
onnette	-12.8238
▁bêt	-12.824
urgente	-12.8242
▁ân	-12.8245
▁fà	-12.8254
éc	-12.8257
▁gen	-12.8264
▁méc	-12.8265
▁guid	-12.8267
baax	-12.8268
ouis	-12.8271
melon	-12.8271
créti	-12.8275
mbët	-12.8275
▁brouille	-12.828
rets	-12.828
▁Kaar	-12.8286
▁jaxas	-12.8297
puiser	-12.8301
▁sarc	-12.8303
uinée	-12.8304
pide	-12.8324
▁saurai	-12.8326
▁fugu	-12.833
venu	-12.8333
Chant	-12.8336
illon	-12.8337
óoxal	-12.8348
▁Sen	-12.836
oritaire	-12.836
tif	-12.8361
àmba	-12.8367
▁Sung	-12.8372
▁anecdot	-12.8373
vid	-12.8378
▁baara	-12.8379
▁troubl	-12.8382
ddee	-12.8388
meri	-12.8389
ëjj	-12.8389
▁plain	-12.839
▁Soppu	-12.8395
▁ŋg	-12.8397
nda	-12.8398
ddat	-12.8399
àccoor	-12.84
interrogea	-12.8402
▁téen	-12.8404
▁Boro	-12.8404
oppee	-12.8407
▁Yó	-12.8411
▁dîn	-12.8412
his	-12.8412
constance	-12.842
▁Bóo	-12.8423
▁gaynd	-12.8426
▁hériss	-12.8426
▁bouill	-12.8426
conciliant	-12.8426
ibbisi	-12.8427
waal	-12.8435
cères	-12.8438
éclair	-12.8439
▁franch	-12.8444
▁tollo	-12.8449
▁plaisant	-12.8449
pierre	-12.8453
▁dîne	-12.8453
stic	-12.8454
▁échapp	-12.8455
entrait	-12.8457
issez	-12.8463
stricts	-12.8464
▁indépendan	-12.8469
posée	-12.8472
interrog	-12.8473
ayloo	-12.8475
▁devienne	-12.8477
ordonné	-12.8479
▁sàmba	-12.8481
siwaat	-12.8485
plant	-12.8486
▁insta	-12.8486
échanc	-12.8491
adapt	-12.8491
oin	-12.8493
uille	-12.8494
▁avala	-12.8496
weer	-12.8496
rod	-12.8499
isante	-12.85
▁jamb	-12.8502
céder	-12.8505
ëng	-12.8505
vir	-12.8505
oogu	-12.851
parent	-12.8512
▁exig	-12.8513
adopti	-12.8515
erri	-12.8517
ranger	-12.8517
▁grain	-12.852
import	-12.8524
▁sukkandi	-12.8526
▁cherchai	-12.8527
aventur	-12.8527
naissent	-12.8528
agripp	-12.8529
iigal	-12.853
pax	-12.8531
ourt	-12.8532
étra	-12.8532
struct	-12.8533
léem	-12.8533
▁màn	-12.8533
cre	-12.8534
▁instinct	-12.8534
▁aveugl	-12.8537
éroule	-12.8538
forme	-12.854
chance	-12.8541
▁idé	-12.8542
▁recon	-12.8546
▁sav	-12.8548
coup	-12.8551
▁consacr	-12.8554
▁Niserya	-12.8554
▁voudra	-12.8556
inform	-12.8557
ñaan	-12.8558
▁débar	-12.8559
▁obséd	-12.8559
Ele	-12.8561
▁kéemaan	-12.8563
▁ava	-12.8563
quinz	-12.8563
▁intégr	-12.8566
▁bà	-12.8567
▁coinc	-12.8569
bord	-12.857
oph	-12.857
▁franc	-12.8574
rète	-12.8575
mance	-12.8577
àjjee	-12.858
emporte	-12.8581
▁gaw	-12.8582
apport	-12.8585
Africa	-12.8586
Arab	-12.8587
idol	-12.8587
ttrape	-12.8587
grippe	-12.8588
baat	-12.8589
▁préca	-12.859
administrati	-12.859
alagu	-12.859
encadr	-12.8591
inspir	-12.8591
médi	-12.8591
séquence	-12.8594
extermin	-12.8595
pêch	-12.8595
▁galop	-12.8597
▁tien	-12.8598
▁repos	-12.8598
▁support	-12.8598
▁paresse	-12.8598
adolescen	-12.86
▁administrateur	-12.8602
▁parabole	-12.8602
▁gayn	-12.8603
aspir	-12.8603
▁défaut	-12.8603
▁entassé	-12.8603
▁créature	-12.8603
▁citro	-12.8604
jó	-12.8604
▁berger	-12.8604
▁ravin	-12.8605
chauff	-12.8605
arade	-12.8606
ncline	-12.8607
▁parfait	-12.8608
bidaa	-12.8608
▁touriste	-12.8608
▁fripe	-12.861
ouch	-12.8612
couvre	-12.8613
appellerai	-12.8614
titude	-12.8615
▁invité	-12.8616
aabalu	-12.8617
▁portrait	-12.8617
▁móo	-12.8618
▁moustique	-12.8618
kob	-12.8618
abeille	-12.8619
▁secour	-12.8619
faal	-12.862
droit	-12.862
odes	-12.8622
▁sœur	-12.8622
▁braise	-12.8622
vres	-12.8623
▁bagage	-12.8623
▁fibre	-12.8623
van	-12.8624
▁ustensile	-12.8625
▁vieillard	-12.8625
▁hamac	-12.8625
écrit	-12.8625
fond	-12.8626
qët	-12.8626
engendre	-12.8627
▁pip	-12.8627
stè	-12.8627
▁mètre	-12.8628
aataang	-12.8628
▁Yo	-12.8628
ngal	-12.8628
dugg	-12.8628
▁appri	-12.8629
hila	-12.8629
▁séc	-12.8629
▁charm	-12.863
▁termite	-12.863
étrange	-12.863
▁chaussette	-12.863
▁Mill	-12.8631
cours	-12.8631
Mah	-12.8632
▁prome	-12.8633
rincer	-12.8633
vertes	-12.8633
annoncer	-12.8634
européenne	-12.8634
exceptionnel	-12.8634
expérience	-12.8634
immensité	-12.8634
obligation	-12.8634
àttanul	-12.8634
élevage	-12.8634
accouchement	-12.8634
infirmiers	-12.8634
étourdi	-12.8634
paraître	-12.8634
accompli	-12.8634
confortable	-12.8634
écritures	-12.8634
événement	-12.8634
habituelle	-12.8634
déc	-12.8634
rrive	-12.8635
▁chaussure	-12.8635
ombrage	-12.8635
▁depui	-12.8635
avala	-12.8635
entoure	-12.8635
maigri	-12.8637
▁àngal	-12.8637
adult	-12.8637
▁recroquevill	-12.8639
sperge	-12.864
chement	-12.864
njàpp	-12.864
Mal	-12.8641
fut	-12.8641
▁affol	-12.8642
exc	-12.8642
obscur	-12.8643
écouta	-12.8644
accus	-12.8644
taxawaay	-12.8644
cris	-12.8644
parfum	-12.8644
▁étudi	-12.8644
▁caravan	-12.8644
exploit	-12.8644
jikko	-12.8644
paradis	-12.8644
siècle	-12.8644
emploi	-12.8644
douze	-12.8645
niróo	-12.8645
nóox	-12.8645
épines	-12.8645
jaambaar	-12.8645
tënk	-12.8645
ordinaire	-12.8645
gàcce	-12.8645
▁paraîtr	-12.8645
▁automobil	-12.8646
nvironnement	-12.8646
▁vermoulu	-12.8646
équip	-12.8646
organise	-12.8646
excité	-12.8646
trouv	-12.8647
enseigne	-12.8648
correcte	-12.8648
apparaissent	-12.8649
plomb	-12.8649
épargn	-12.8649
lendemain	-12.8649
exact	-12.865
importance	-12.865
alheureux	-12.865
mbali	-12.8651
grill	-12.8651
▁fotta	-12.8652
dàqe	-12.8652
genre	-12.8652
soeur	-12.8652
aboie	-12.8652
Acacia	-12.8652
graisse	-12.8652
éteint	-12.8652
niveau	-12.8652
trempé	-12.8652
tawat	-12.8652
nommé	-12.8652
monté	-12.8652
naaxi	-12.8652
abreuv	-12.8653
aiguille	-12.8653
avance	-12.8653
rends	-12.8653
fof	-12.8653
njort	-12.8654
mode	-12.8654
kóllëre	-12.8654
▁herb	-12.8654
mouches	-12.8654
Obudu	-12.8654
▁débat	-12.8654
jëmm	-12.8654
mbott	-12.8654
jadd	-12.8655
ffer	-12.8655
dessous	-12.8655
sept	-12.8655
▁équatorial	-12.8655
labat	-12.8655
▁revanch	-12.8656
rmeel	-12.8656
▁Ferm	-12.8656
cœur	-12.8656
vingt	-12.8656
fippu	-12.8656
prend	-12.8656
économi	-12.8656
extrême	-12.8657
quatre	-12.8657
▁embarras	-12.8657
dinaa	-12.8657
panier	-12.8657
existait	-12.8657
▁montagn	-12.8657
échelle	-12.8657
G	-12.8657
oirie	-12.8657
bëy	-12.8658
Kii	-12.8658
▁branch	-12.8658
béré	-12.8658
mariée	-12.8658
Bamendaa	-12.8658
animaux	-12.8658
commencé	-12.8658
Frãs	-12.8658
calebasse	-12.8658
chaise	-12.8659
banaana	-12.8659
pexe	-12.8659
chemin	-12.8659
igle	-12.8659
parlé	-12.8659
ŋaam	-12.8659
Samba	-12.8659
▁pétrol	-12.8659
lourd	-12.8659
D	-12.866
toujours	-12.866
petits	-12.866
pla	-12.866
vécu	-12.866
champ	-12.866
blanc	-12.866
froid	-12.866
▁recou	-12.866
gannaaw	-12.866
chambre	-12.8661
femmes	-12.8661
poisson	-12.8661
Afrig	-12.8661
accou	-12.8661
solo	-12.8661
000	-12.8661
Est	-12.8662
dénk	-12.8662
▁ràññe	-12.8662
ville	-12.8662
▁rejoindr	-12.8662
allumette	-12.8662
couvrant	-12.8662
butéel	-12.8662
respect	-12.8662
temps	-12.8662
▁personn	-12.8663
▁suspend	-12.8663
Góor	-12.8663
cache	-12.8663
▁modern	-12.8663
cheval	-12.8663
jamono	-12.8663
K	-12.8663
nijaay	-12.8664
kaaf	-12.8664
yàlla	-12.8664
illusion	-12.8664
▁campagn	-12.8664
▁Coup	-12.8664
dessin	-12.8665
Alma	-12.8665
▁pilot	-12.8665
peint	-12.8666
thé	-12.8666
▁rythm	-12.8666
jél	-12.8666
▁remont	-12.8666
▁Éc	-12.8666
Par	-12.8667
ganaar	-12.8667
aaxira	-12.8667
rac	-12.8667
▁dispar	-12.8667
fokk	-12.8667
mobilisé	-12.8667
▁fesse	-12.8667
ssurément	-12.8667
▁pair	-12.8667
kepp	-12.8668
génne	-12.8668
gonflé	-12.8668
▁valet	-12.8669
admet	-12.8669
mpire	-12.8669
▁yónne	-12.867
marché	-12.867
peut	-12.867
nopp	-12.867
▁waax	-12.867
compte	-12.8671
emporter	-12.8671
comme	-12.8671
alistes	-12.8671
assiette	-12.8671
cëpp	-12.8671
xorom	-12.8671
▁provo	-12.8671
oppitaan	-12.8671
▁Peu	-12.8672
alaama	-12.8672
enlève	-12.8672
ifice	-12.8672
bleu	-12.8672
ainsi	-12.8672
suñe	-12.8673
ecommande	-12.8673
passe	-12.8674
géey	-12.8675
magum	-12.8675
xeet	-12.8676
ëndëm	-12.8676
sonn	-12.8677
êté	-12.8677
nangu	-12.8678
gajj	-12.8679
dayo	-12.8679
téeméer	-12.868
ndox	-12.868
▁mesur	-12.868
enveloppe	-12.868
▁viendr	-12.8681
▁cercl	-12.8681
chef	-12.8681
në	-12.8682
▁gémm	-12.8683
▁blesse	-12.8683
maamu	-12.8683
op	-12.8683
dund	-12.8683
lunk	-12.8684
▁aff	-12.8684
walla	-12.8684
▁Mauric	-12.8684
fàcc	-12.8684
trois	-12.8685
bouche	-12.8685
fecté	-12.8685
offre	-12.8685
hus	-12.8686
xeeñ	-12.8686
éduque	-12.8686
bëggée	-12.8687
séché	-12.8687
échoue	-12.8688
kaani	-12.8688
jiwu	-12.8688
étage	-12.8688
damm	-12.8689
▁industriel	-12.869
▁officiel	-12.869
▁environn	-12.869
takk	-12.8692
gëmm	-12.8693
wër	-12.8693
louche	-12.8693
▁forge	-12.8693
▁déc	-12.8695
▁Afri	-12.8695
▁volet	-12.8695
fois	-12.8695
éloignement	-12.8696
agera	-12.8698
▁Yokk	-12.8698
feu	-12.8698
▁Raj	-12.8698
misme	-12.8698
▁transform	-12.8698
mée	-12.8699
óotal	-12.8699
attrape	-12.8699
taax	-12.8699
nsectes	-12.8699
entrai	-12.8699
màtt	-12.8699
▁piq	-12.87
ccat	-12.87
ňaar	-12.8701
gaaf	-12.8701
accent	-12.8702
coudre	-12.8702
buur	-12.8703
ternel	-12.8703
connais	-12.8703
▁mélan	-12.8703
burg	-12.8703
oudrais	-12.8703
▁fulaar	-12.8704
mën	-12.8704
▁choc	-12.8704
fuir	-12.8706
▁fóo	-12.8706
merge	-12.8706
▁citad	-12.8707
efare	-12.8707
éjeuner	-12.8707
ccorde	-12.8707
▁botte	-12.8707
▁Wiya	-12.8708
xumb	-12.8708
agaies	-12.8708
▁patt	-12.8708
▁gëlée	-12.8708
accompagnent	-12.8709
▁Ndakaar	-12.871
cax	-12.871
laaj	-12.871
aqaar	-12.871
▁constitu	-12.871
amulette	-12.871
▁ragl	-12.8711
▁lunette	-12.8711
emplac	-12.8711
fëj	-12.8711
▁principa	-12.8712
▁fàttal	-12.8713
▁véné	-12.8713
dagg	-12.8713
oyant	-12.8713
▁upp	-12.8714
futt	-12.8714
ourris	-12.8714
ukkandi	-12.8714
jool	-12.8715
éeméer	-12.8715
▁rédui	-12.8716
góo	-12.8716
▁poursui	-12.8716
ginnaaw	-12.8717
ggul	-12.8717
ëlëb	-12.8717
fraîch	-12.8717
▁rap	-12.8717
▁inju	-12.8717
lakk	-12.8717
▁yër	-12.8718
uillée	-12.8718
▁fourch	-12.8718
oudre	-12.8719
siira	-12.8719
▁diff	-12.8719
ébut	-12.8719
suba	-12.872
▁tourn	-12.872
▁access	-12.872
ontemple	-12.8721
ànnaar	-12.8721
tombe	-12.8722
▁participe	-12.8722
endance	-12.8722
xañ	-12.8722
robe	-12.8722
appât	-12.8723
dégg	-12.8723
▁réveil	-12.8723
▁réalise	-12.8723
▁piste	-12.8723
assoupi	-12.8723
▁dodeline	-12.8723
observe	-12.8723
Ag	-12.8724
av	-12.8725
▁roussi	-12.8725
aaxle	-12.8725
▁Gànnaa	-12.8725
▁récolte	-12.8725
corpion	-12.8726
▁crac	-12.8726
encukaay	-12.8726
heval	-12.8726
olonial	-12.8726
▁craque	-12.8727
pture	-12.8727
ouscous	-12.8727
▁Office	-12.8728
cinq	-12.8728
▁Aadama	-12.8728
▁tàl	-12.873
óbbu	-12.873
▁excit	-12.873
▁venge	-12.8731
▁équi	-12.8731
àjja	-12.8732
▁razzi	-12.8733
▁autori	-12.8733
▁satisfai	-12.8733
suukar	-12.8733
▁souven	-12.8733
▁délaiss	-12.8734
▁assassin	-12.8734
▁viol	-12.8734
▁reli	-12.8735
▁préci	-12.8735
▁gonfl	-12.8735
▁wall	-12.8735
▁compren	-12.8735
▁grima	-12.8735
▁accouche	-12.8735
▁Alf	-12.8736
▁jànkontee	-12.8736
explosi	-12.8737
pressi	-12.8737
tilisa	-12.8737
▁mâch	-12.8737
▁actuel	-12.8737
affronte	-12.8737
▁détermin	-12.8737
orable	-12.8737
▁lott	-12.8738
rempe	-12.8738
É	-12.8738
lève	-12.8738
rompent	-12.8738
▁juug	-12.8738
spect	-12.8739
ètres	-12.8739
▁distingu	-12.8739
▁archite	-12.8739
ssorti	-12.8739
▁désherb	-12.8739
ortir	-12.8739
bëggum	-12.8739
▁Acco	-12.8739
dèle	-12.874
▁gouverne	-12.874
rniche	-12.874
yaxu	-12.874
▁paternel	-12.874
▁trip	-12.8741
iminue	-12.8742
ardées	-12.8742
▁souffran	-12.8742
laax	-12.8742
onnant	-12.8742
àmbalee	-12.8743
In	-12.8743
ëcce	-12.8743
rganisation	-12.8743
ecto	-12.8743
énégalais	-12.8743
▁apparaît	-12.8744
▁reconnaît	-12.8744
suis	-12.8744
▁magnifi	-12.8744
▁naît	-12.8744
ernité	-12.8744
roie	-12.8744
▁embouteil	-12.8744
▁déten	-12.8744
eytaane	-12.8744
▁dignit	-12.8745
enegaal	-12.8745
spora	-12.8745
alaak	-12.8745
opprima	-12.8745
rophète	-12.8745
onfident	-12.8745
exoti	-12.8746
baski	-12.8746
▁ndékk	-12.8746
▁banqa	-12.8746
logie	-12.8746
õ	-12.8749
È	-12.875
$	-12.875
&	-12.875
°	-12.875
Ò	-12.875
í	-12.875
ā	-12.875
ń	-12.875
ò	-12.875
̺	-14.2271
á	-14.2272
Z	-14.2273
5	-14.2274
“	-14.2275
Ŋ	-14.2276
6	-14.2277
Ó	-14.2278
Ê	-14.2279
Ë	-14.228
œ	-14.2281
Ç	-14.2282
9	-14.2283
1	-14.2284
(	-14.2285
H	-14.2286
–	-14.2287
î	-14.2288
À	-14.2289
»	-14.229
R	-14.2291
U	-14.2292
V	-14.2293
:	-14.2294
Ñ	-14.2295
ç	-14.2296
X	-14.2297
W	-14.2298
Q	-14.2299
ê	-14.23
T	-14.2301
B	-14.2302
J	-14.2303
M	-14.2304
?	-14.2305
L	-14.2306
!	-14.2307
