{
  "version": "1.0",
  "truncation": null,
  "padding": null,
  "added_tokens": [
    {
      "id": 0,
      "content": "<cls>",
      "single_word": false,
      "lstrip": false,
      "rstrip": false,
      "normalized": false,
      "special": true
    },
    {
      "id": 1,
      "content": "<sep>",
      "single_word": false,
      "lstrip": false,
      "rstrip": false,
      "normalized": false,
      "special": true
    },
    {
      "id": 2,
      "content": "<unk>",
      "single_word": false,
      "lstrip": false,
      "rstrip": false,
      "normalized": false,
      "special": true
    },
    {
      "id": 3,
      "content": "<pad>",
      "single_word": false,
      "lstrip": false,
      "rstrip": false,
      "normalized": false,
      "special": true
    },
    {
      "id": 4,
      "content": "<mask>",
      "single_word": false,
      "lstrip": false,
      "rstrip": false,
      "normalized": false,
      "special": true
    },
    {
      "id": 5,
      "content": "<s>",
      "single_word": false,
      "lstrip": false,
      "rstrip": false,
      "normalized": false,
      "special": true
    },
    {
      "id": 6,
      "content": "</s>",
      "single_word": false,
      "lstrip": false,
      "rstrip": false,
      "normalized": false,
      "special": true
    }
  ],
  "normalizer": {
    "type": "Replace",
    "pattern": {
      "String": " {2,}"
    },
    "content": " "
  },
  "pre_tokenizer": {
    "type": "Metaspace",
    "replacement": "▁",
    "add_prefix_space": true
  },
  "post_processor": null,
  "decoder": {
    "type": "Metaspace",
    "replacement": "▁",
    "add_prefix_space": true
  },
  "model": {
    "type": "Unigram",
    "unk_id": 2,
    "vocab": [
      [
        "<cls>",
        0.0
      ],
      [
        "<sep>",
        0.0
      ],
      [
        "<unk>",
        0.0
      ],
      [
        "<pad>",
        0.0
      ],
      [
        "<mask>",
        0.0
      ],
      [
        "<s>",
        0.0
      ],
      [
        "</s>",
        0.0
      ],
      [
        "▁",
        -2.5690251586574435
      ],
      [
        ".",
        -3.521858128265208
      ],
      [
        "?",
        -3.9130966527371838
      ],
      [
        "!",
        -3.979831877742435
      ],
      [
        "s",
        -4.061175389708537
      ],
      [
        ",",
        -4.217626207293873
      ],
      [
        "i",
        -4.587105185307571
      ],
      [
        "▁de",
        -4.612582302301492
      ],
      [
        "u",
        -4.640184287740439
      ],
      [
        "▁!",
        -4.686295616779458
      ],
      [
        "e",
        -4.691807580087424
      ],
      [
        "▁la",
        -4.740246205275934
      ],
      [
        "'est",
        -4.753168328762756
      ],
      [
        "▁dem",
        -4.809036435959863
      ],
      [
        "r",
        -4.828730870047354
      ],
      [
        "t",
        -4.908802874685525
      ],
      [
        "a",
        -4.942165236936388
      ],
      [
        "▁pas",
        -4.971216253747514
      ],
      [
        "n",
        -5.013306877554187
      ],
      [
        "▁qui",
        -5.031245228679792
      ],
      [
        "▁C",
        -5.039320559677362
      ],
      [
        "▁que",
        -5.06020431184155
      ],
      [
        "▁gi",
        -5.13671226151908
      ],
      [
        "▁na",
        -5.212309776237362
      ],
      [
        "▁õga",
        -5.234891666409913
      ],
      [
        "▁est",
        -5.291127943049544
      ],
      [
        "▁G",
        -5.318301958942767
      ],
      [
        "óor",
        -5.341370176113557
      ],
      [
        "▁un",
        -5.415625842629309
      ],
      [
        "▁vu",
        -5.4282853868909555
      ],
      [
        "▁naa",
        -5.452226684713916
      ],
      [
        "▁ne",
        -5.454736210423275
      ],
      [
        "▁homme",
        -5.501471646767328
      ],
      [
        "▁Il",
        -5.537915054973889
      ],
      [
        "▁ce",
        -5.549149801981396
      ],
      [
        "▁Gis",
        -5.564760237409507
      ],
      [
        "le",
        -5.594590031869264
      ],
      [
        "▁Tu",
        -5.626219871807493
      ],
      [
        "▁été",
        -5.627535513762191
      ],
      [
        "l",
        -5.641138619252597
      ],
      [
        "er",
        -5.64214537483694
      ],
      [
        "▁L'homme",
        -5.658877951229806
      ],
      [
        "▁tu",
        -5.691019582627805
      ],
      [
        "▁à",
        -5.703375637241581
      ],
      [
        "▁a",
        -5.7536996672734
      ],
      [
        "▁ci",
        -5.809302166725001
      ],
      [
        "▁wax",
        -5.811964022479373
      ],
      [
        "y",
        -5.823335603860577
      ],
      [
        "é",
        -5.842141765180869
      ],
      [
        "▁Je",
        -5.868526273554955
      ],
      [
        "▁J'a",
        -5.871596017349606
      ],
      [
        "▁le",
        -5.875936278738846
      ],
      [
        "et",
        -5.886653286219942
      ],
      [
        "▁ñëw",
        -5.898476210693664
      ],
      [
        "▁l'homme",
        -5.903677277440011
      ],
      [
        "▁nit",
        -5.911355603797781
      ],
      [
        "▁mu",
        -5.916298643439242
      ],
      [
        "▁te",
        -5.980495155862969
      ],
      [
        "▁góor",
        -5.990736422823331
      ],
      [
        "▁se",
        -6.005347335744873
      ],
      [
        "x",
        -6.02080615133674
      ],
      [
        "▁les",
        -6.040421984930967
      ],
      [
        "▁c",
        -6.042231715088205
      ],
      [
        "al",
        -6.042660325210702
      ],
      [
        "▁qu'il",
        -6.084830688850281
      ],
      [
        "▁Nit",
        -6.093871216969812
      ],
      [
        "▁di",
        -6.111830034507819
      ],
      [
        "à",
        -6.114125210415022
      ],
      [
        "▁cet",
        -6.130615624350329
      ],
      [
        "▁en",
        -6.138333743824949
      ],
      [
        "▁parti",
        -6.140889351864756
      ],
      [
        "▁ba",
        -6.192152594323774
      ],
      [
        "▁autre",
        -6.232695890277967
      ],
      [
        "▁tout",
        -6.250473617292413
      ],
      [
        "c",
        -6.25923651051482
      ],
      [
        "▁yi",
        -6.282166682216442
      ],
      [
        "▁õgi",
        -6.291683629807348
      ],
      [
        "eneen",
        -6.314356379388565
      ],
      [
        "▁ki",
        -6.331917441570068
      ],
      [
        "▁sont",
        -6.336510462122007
      ],
      [
        "..",
        -6.361953236976133
      ],
      [
        "▁gis",
        -6.365687539264446
      ],
      [
        "▁bëgg",
        -6.366808181847481
      ],
      [
        "▁woon",
        -6.3861708875904295
      ],
      [
        "▁as",
        -6.423214118881166
      ],
      [
        "▁xale",
        -6.44835586002622
      ],
      [
        "▁bi",
        -6.460455974823576
      ],
      [
        "▁xar",
        -6.464619011924623
      ],
      [
        "▁je",
        -6.494910388251543
      ],
      [
        "▁du",
        -6.496172246655991
      ],
      [
        "▁n",
        -6.510540742669216
      ],
      [
        "▁là",
        -6.527804553309554
      ],
      [
        "ci",
        -6.534034235616867
      ],
      [
        "▁ka",
        -6.536508150167618
      ],
      [
        "▁pour",
        -6.537035102043398
      ],
      [
        "re",
        -6.544463648698136
      ],
      [
        "▁celui-là",
        -6.544787446466527
      ],
      [
        "▁A",
        -6.54948150179409
      ],
      [
        "▁parle",
        -6.558606385996747
      ],
      [
        "oon",
        -6.560532207572217
      ],
      [
        "▁nag",
        -6.5633434453010215
      ],
      [
        "▁Dem",
        -6.5711970279217855
      ],
      [
        "▁il",
        -6.580060337053432
      ],
      [
        "▁mi",
        -6.605422678456972
      ],
      [
        "▁des",
        -6.606110198274516
      ],
      [
        "▁mouton",
        -6.613185356996617
      ],
      [
        "m",
        -6.613386325842573
      ],
      [
        "woon",
        -6.614629791749268
      ],
      [
        "▁d",
        -6.616915774985268
      ],
      [
        "▁lui",
        -6.625090770715309
      ],
      [
        "▁la.",
        -6.648947876587112
      ],
      [
        "▁toi",
        -6.650101669367739
      ],
      [
        "▁voilà",
        -6.661573721468702
      ],
      [
        "o",
        -6.664580809143102
      ],
      [
        "▁biir",
        -6.680105860880484
      ],
      [
        "▁l'intérieur",
        -6.687016603890866
      ],
      [
        "▁ma",
        -6.7005371487749965
      ],
      [
        "-",
        -6.7016492076216245
      ],
      [
        "▁s",
        -6.713710714254795
      ],
      [
        "▁ji",
        -6.720859440823403
      ],
      [
        "▁partir",
        -6.724006430128863
      ],
      [
        "▁l",
        -6.7242843401275305
      ],
      [
        "il",
        -6.746577555570142
      ],
      [
        "que",
        -6.757907942483222
      ],
      [
        "▁ag",
        -6.760733092093082
      ],
      [
        "épp",
        -6.762178024959271
      ],
      [
        "▁quelqu'un",
        -6.76581442460469
      ],
      [
        "▁fi",
        -6.769499662400459
      ],
      [
        "▁venu",
        -6.770098862562339
      ],
      [
        "▁demee",
        -6.7713516582738755
      ],
      [
        "▁kenn",
        -6.793704247094518
      ],
      [
        "▁demul",
        -6.794200085749438
      ],
      [
        "▁moi",
        -6.796872709005036
      ],
      [
        "▁sa",
        -6.805326624692761
      ],
      [
        "▁enfants",
        -6.827608335932933
      ],
      [
        "▁k",
        -6.834185323142211
      ],
      [
        "▁J",
        -6.851448387715907
      ],
      [
        "▁laa",
        -6.851512343475144
      ],
      [
        "tu",
        -6.8636994939207705
      ],
      [
        "▁ami",
        -6.8647478863120615
      ],
      [
        "▁moom",
        -6.867222359795816
      ],
      [
        "▁Quel",
        -6.8708824678889355
      ],
      [
        "être",
        -6.874039780020986
      ],
      [
        "▁O",
        -6.878266529125574
      ],
      [
        "▁jigéen",
        -6.881720935255084
      ],
      [
        "▁Ci",
        -6.882959793048246
      ],
      [
        "▁dit",
        -6.887235838012054
      ],
      [
        "▁Cet",
        -6.890118904047412
      ],
      [
        "▁chose",
        -6.892219931932335
      ],
      [
        "▁fait",
        -6.892748971486342
      ],
      [
        "▁fa",
        -6.895499126032587
      ],
      [
        "▁waa",
        -6.9014844241126525
      ],
      [
        "f",
        -6.9216979019389
      ],
      [
        "s-t",
        -6.9227307712880695
      ],
      [
        "ak",
        -6.9332232368245315
      ],
      [
        "▁vous",
        -6.933931265186608
      ],
      [
        "▁õgeen",
        -6.934142550515244
      ],
      [
        "une",
        -6.934352245181098
      ],
      [
        "te",
        -6.94131501939634
      ],
      [
        "▁aussi",
        -6.944417323047011
      ],
      [
        "▁n'a",
        -6.947859187049556
      ],
      [
        "ment",
        -6.94918002129033
      ],
      [
        "▁peut-",
        -6.949801153814072
      ],
      [
        "▁femme",
        -6.956699448887184
      ],
      [
        "▁dans",
        -6.961926698164607
      ],
      [
        "▁ñi",
        -6.964658800804138
      ],
      [
        "ù",
        -6.966782179217085
      ],
      [
        "-là",
        -6.966870598300433
      ],
      [
        "▁celui",
        -6.977221430524565
      ],
      [
        "▁foofu",
        -6.983999731483229
      ],
      [
        "▁ave",
        -7.000216904819835
      ],
      [
        "▁Le",
        -7.006074872949641
      ],
      [
        "▁si",
        -7.007923349837604
      ],
      [
        "▁ku",
        -7.008455811208508
      ],
      [
        "▁xarit",
        -7.014169955373131
      ],
      [
        "▁où",
        -7.018507857036379
      ],
      [
        "▁Xar",
        -7.0200012633228095
      ],
      [
        "▁veux",
        -7.020897109892476
      ],
      [
        "▁Ce",
        -7.038671342798622
      ],
      [
        "▁E",
        -7.039259621663341
      ],
      [
        "nt",
        -7.051882764477397
      ],
      [
        "▁réer",
        -7.05514988897888
      ],
      [
        "▁part",
        -7.056486017074324
      ],
      [
        "▁nda",
        -7.062986036576297
      ],
      [
        "▁m",
        -7.07216903535538
      ],
      [
        "▁Fa",
        -7.077927324473828
      ],
      [
        "▁par",
        -7.0781406246222325
      ],
      [
        "▁L",
        -7.083723585110574
      ],
      [
        "▁là-bas",
        -7.085102576305683
      ],
      [
        "d",
        -7.090060454816341
      ],
      [
        "▁Qui",
        -7.090479151987162
      ],
      [
        "on",
        -7.092647154271615
      ],
      [
        "w",
        -7.095589211251232
      ],
      [
        "▁Les",
        -7.096181763074844
      ],
      [
        "est",
        -7.103237574627046
      ],
      [
        "▁kooku",
        -7.106922348188896
      ],
      [
        "▁Sée",
        -7.113484371143365
      ],
      [
        "ez",
        -7.120957912638213
      ],
      [
        "ont",
        -7.124656058119244
      ],
      [
        "▁soo",
        -7.136652566454011
      ],
      [
        "ne",
        -7.145823248904712
      ],
      [
        "oo",
        -7.148475249436899
      ],
      [
        "-ci",
        -7.152137020085274
      ],
      [
        "▁b",
        -7.1577616602861145
      ],
      [
        "▁moutons",
        -7.164442431991521
      ],
      [
        "voir",
        -7.165360768161273
      ],
      [
        "▁gens",
        -7.166381697970948
      ],
      [
        "▁ni",
        -7.176861530774262
      ],
      [
        "ent",
        -7.183966040841106
      ],
      [
        "▁veut",
        -7.185868100525356
      ],
      [
        "ay",
        -7.186690613529125
      ],
      [
        "ir",
        -7.189241357152583
      ],
      [
        "is",
        -7.193185907738306
      ],
      [
        "▁Su",
        -7.193722646552018
      ],
      [
        "it",
        -7.203618105073998
      ],
      [
        "▁maison",
        -7.205573658813055
      ],
      [
        "▁personne",
        -7.20825234110447
      ],
      [
        "▁Que",
        -7.213991151132543
      ],
      [
        "▁manière",
        -7.2205031849832935
      ],
      [
        "▁Na",
        -7.2228471790015805
      ],
      [
        "▁fu",
        -7.222974575933719
      ],
      [
        "▁So",
        -7.223226823698183
      ],
      [
        "▁ceux-là",
        -7.248430280108934
      ],
      [
        "▁alors",
        -7.24844265427316
      ],
      [
        "▁D",
        -7.254217692110245
      ],
      [
        "▁ya",
        -7.255192590700306
      ],
      [
        "▁F",
        -7.258207092904321
      ],
      [
        "▁moo",
        -7.265878898195121
      ],
      [
        "▁ñu",
        -7.274522757909874
      ],
      [
        "▁j",
        -7.276961011606328
      ],
      [
        "g",
        -7.281690944130894
      ],
      [
        "▁Maa",
        -7.289511813619965
      ],
      [
        "▁araf",
        -7.29306736379702
      ],
      [
        "▁Vous",
        -7.293187460708893
      ],
      [
        "▁man",
        -7.2952245527974515
      ],
      [
        "▁nak",
        -7.297028135343663
      ],
      [
        "▁itam",
        -7.300957107390646
      ],
      [
        "na",
        -7.309670830978407
      ],
      [
        "▁baax",
        -7.311947721916502
      ],
      [
        "quel",
        -7.337724187243047
      ],
      [
        "▁jusqu'",
        -7.339581934568269
      ],
      [
        "▁l'autre",
        -7.341487785920588
      ],
      [
        "faire",
        -7.34165290014586
      ],
      [
        "▁celui-ci",
        -7.342490393132426
      ],
      [
        "▁yépp",
        -7.342630647112665
      ],
      [
        "▁K",
        -7.343432511620533
      ],
      [
        "▁y",
        -7.348824680313499
      ],
      [
        "▁doon",
        -7.352156820826789
      ],
      [
        "ul",
        -7.357389674082782
      ],
      [
        "▁aller",
        -7.360159478737774
      ],
      [
        "▁bon",
        -7.368445646440154
      ],
      [
        "▁dee",
        -7.3705894377931696
      ],
      [
        "es",
        -7.370960353267412
      ],
      [
        "▁su",
        -7.372056706788433
      ],
      [
        "koon",
        -7.3773684986611485
      ],
      [
        "en",
        -7.377977278864098
      ],
      [
        "▁Du",
        -7.382502380879022
      ],
      [
        "▁être",
        -7.387810897961726
      ],
      [
        "▁dana",
        -7.398509822406579
      ],
      [
        "▁S",
        -7.4060267480058055
      ],
      [
        "ée",
        -7.408918417691815
      ],
      [
        "▁vois",
        -7.418116496879451
      ],
      [
        "▁quelle",
        -7.425185409152725
      ],
      [
        "uñu",
        -7.429556299490625
      ],
      [
        "▁Va",
        -7.438786918316021
      ],
      [
        "▁doõõ",
        -7.4429855601324135
      ],
      [
        "▁donné",
        -7.443529505161669
      ],
      [
        "▁Keneen",
        -7.4452393076690555
      ],
      [
        "▁Te",
        -7.445456183415713
      ],
      [
        "▁lequel",
        -7.445547343905089
      ],
      [
        "dre",
        -7.449036152992738
      ],
      [
        "▁t",
        -7.449635731187447
      ],
      [
        "▁son",
        -7.450549586542097
      ],
      [
        "▁Yaa",
        -7.4533733542672245
      ],
      [
        "▁croi",
        -7.453977487855125
      ],
      [
        "▁tou",
        -7.470312135363271
      ],
      [
        "ç",
        -7.474441785945873
      ],
      [
        "▁ca",
        -7.481293012797888
      ],
      [
        "kat",
        -7.4826475501183065
      ],
      [
        "p",
        -7.485142230436724
      ],
      [
        "or",
        -7.495321185175077
      ],
      [
        "▁La",
        -7.495511601920687
      ],
      [
        "▁ñoo",
        -7.495703284295139
      ],
      [
        "▁soi",
        -7.496008429760769
      ],
      [
        "▁lion",
        -7.497076750479822
      ],
      [
        "▁rekk",
        -7.498685823383859
      ],
      [
        "▁Samba",
        -7.498686627918753
      ],
      [
        "▁cheval",
        -7.498864403286786
      ],
      [
        "▁Xale",
        -7.499033083774265
      ],
      [
        "▁égaré",
        -7.500140697014385
      ],
      [
        "▁Nda",
        -7.504643905713079
      ],
      [
        "▁mais",
        -7.505565973633189
      ],
      [
        "▁Laobe",
        -7.507339579524155
      ],
      [
        "▁es",
        -7.508569997631153
      ],
      [
        "un",
        -7.526779403280649
      ],
      [
        "▁leen",
        -7.528762667263336
      ],
      [
        "▁kan",
        -7.5298063450367625
      ],
      [
        "▁seul",
        -7.5326819959969695
      ],
      [
        "▁ou",
        -7.533900165638984
      ],
      [
        "ël",
        -7.5361670486342645
      ],
      [
        "▁t'a",
        -7.54135960930598
      ],
      [
        "s.",
        -7.541430499984923
      ],
      [
        "ce",
        -7.546915148200995
      ],
      [
        "près",
        -7.548253030796445
      ],
      [
        "▁comme",
        -7.55405996239474
      ],
      [
        "▁Moo",
        -7.555139918313462
      ],
      [
        "▁rien",
        -7.558100508142469
      ],
      [
        "▁ñépp",
        -7.55820292168563
      ],
      [
        "▁moment",
        -7.5582870910013344
      ],
      [
        "▁Mais",
        -7.558741634461022
      ],
      [
        "▁mépp",
        -7.5609435170054375
      ],
      [
        "▁yooyu",
        -7.561340942765272
      ],
      [
        "▁f",
        -7.561489701129558
      ],
      [
        "▁gii",
        -7.561668219965088
      ],
      [
        "▁kër",
        -7.564683454832985
      ],
      [
        "▁ñan",
        -7.567284501532475
      ],
      [
        "▁Waa",
        -7.569981700468861
      ],
      [
        "▁autres",
        -7.57228849113344
      ],
      [
        "▁fut",
        -7.572904838760154
      ],
      [
        "▁bien",
        -7.580507345188601
      ],
      [
        "▁Mi",
        -7.580958482153993
      ],
      [
        "▁Bëgg",
        -7.584837860279571
      ],
      [
        "▁dul",
        -7.584878506537901
      ],
      [
        "▁Seet",
        -7.586557591081087
      ],
      [
        "▁Ma",
        -7.6024030283246145
      ],
      [
        "▁d'",
        -7.6024128564408
      ],
      [
        "k",
        -7.610728280747789
      ],
      [
        "▁n'es",
        -7.612115226498506
      ],
      [
        "igéen",
        -7.61868726984093
      ],
      [
        "ale",
        -7.618747009315376
      ],
      [
        "▁Un",
        -7.619265870344279
      ],
      [
        "▁benn",
        -7.620611509368368
      ],
      [
        "▁vache",
        -7.620799178275185
      ],
      [
        "▁sax",
        -7.621355238434523
      ],
      [
        "▁génn",
        -7.621844246797313
      ],
      [
        "▁dara",
        -7.6221467694907865
      ],
      [
        "▁demkoon",
        -7.626830749264245
      ],
      [
        "yan",
        -7.62824449745349
      ],
      [
        "▁cha",
        -7.631013390676825
      ],
      [
        "▁Ndar",
        -7.632680772303323
      ],
      [
        "▁cela",
        -7.634238356569188
      ],
      [
        "▁lañu",
        -7.6348304335652575
      ],
      [
        "▁quelque",
        -7.641510366048669
      ],
      [
        "▁parte",
        -7.643730063778724
      ],
      [
        "▁l'",
        -7.643736749323251
      ],
      [
        "ement",
        -7.645236942751653
      ],
      [
        "▁gan",
        -7.649374644970698
      ],
      [
        "ette",
        -7.654025479189155
      ],
      [
        "▁fii",
        -7.66097380363467
      ],
      [
        "mi",
        -7.663418893798735
      ],
      [
        "ante",
        -7.6658681678270355
      ],
      [
        "▁même",
        -7.665927429149653
      ],
      [
        "▁w",
        -7.66608390164726
      ],
      [
        "▁Si",
        -7.666748669565267
      ],
      [
        "▁Y",
        -7.672621219734751
      ],
      [
        "▁De",
        -7.673169107436133
      ],
      [
        "ation",
        -7.680272772869956
      ],
      [
        "▁Kooku",
        -7.685977134599177
      ],
      [
        "▁Ba",
        -7.686919241901748
      ],
      [
        "▁Yaw",
        -7.691657004407206
      ],
      [
        "▁Ya",
        -7.701431586038558
      ],
      [
        "▁nee",
        -7.704342675830362
      ],
      [
        "▁Da",
        -7.704912967729524
      ],
      [
        "▁n'",
        -7.7069829155500225
      ],
      [
        "aper",
        -7.70752817823855
      ],
      [
        "▁xam",
        -7.711040133675715
      ],
      [
        "b",
        -7.721695424994564
      ],
      [
        "té",
        -7.737673931179235
      ],
      [
        "▁da",
        -7.739489802613945
      ],
      [
        "▁fas",
        -7.7511162070465485
      ],
      [
        "▁l'a",
        -7.754980667691701
      ],
      [
        "▁au",
        -7.756125890518438
      ],
      [
        "▁do",
        -7.756536913945929
      ],
      [
        "▁S'il",
        -7.757199416745591
      ],
      [
        "▁Aucun",
        -7.7574080627838
      ],
      [
        "▁habitant",
        -7.757861174806132
      ],
      [
        "▁nul",
        -7.758014819988644
      ],
      [
        "▁Celui-là",
        -7.758047229518915
      ],
      [
        "▁simplement",
        -7.758064827659332
      ],
      [
        "▁gaynde",
        -7.760593720570592
      ],
      [
        "▁liggéey",
        -7.760944983676976
      ],
      [
        "▁bañ",
        -7.761396223767636
      ],
      [
        "▁pars",
        -7.762153284433705
      ],
      [
        "▁endroit",
        -7.762922522071273
      ],
      [
        "▁dame",
        -7.76480323752675
      ],
      [
        "an",
        -7.765711397356648
      ],
      [
        "▁Tout",
        -7.765739694532071
      ],
      [
        "▁voir",
        -7.767167616565072
      ],
      [
        "▁jeune",
        -7.77284344607622
      ],
      [
        "▁dé",
        -7.773353101970072
      ],
      [
        "elle",
        -7.774046887096189
      ],
      [
        "▁d'autres",
        -7.7758386292424415
      ],
      [
        "ant",
        -7.787806014468574
      ],
      [
        "fin",
        -7.795360339338021
      ],
      [
        "▁Bi",
        -7.79931538122676
      ],
      [
        "in",
        -7.800687451253146
      ],
      [
        "▁no",
        -7.80671650394474
      ],
      [
        "▁vas",
        -7.808198647799529
      ],
      [
        "di",
        -7.8098612563897305
      ],
      [
        "▁avait",
        -7.813102261123143
      ],
      [
        ":",
        -7.830437772940334
      ],
      [
        "▁jëm",
        -7.8330697568230345
      ],
      [
        "ar",
        -7.83324974081482
      ],
      [
        "▁matin",
        -7.834154349995143
      ],
      [
        "▁encore",
        -7.834289740589654
      ],
      [
        "▁Qu'il",
        -7.834537644248587
      ],
      [
        "▁Saint-Louis",
        -7.83454386784747
      ],
      [
        "▁Yéen",
        -7.835219295412548
      ],
      [
        "▁Mu",
        -7.836552132360749
      ],
      [
        "ul.",
        -7.838051009798748
      ],
      [
        "▁bëggul",
        -7.838574189519241
      ],
      [
        "▁kii",
        -7.838740912505089
      ],
      [
        "▁nañu",
        -7.839964370636181
      ],
      [
        "▁def",
        -7.842060694380653
      ],
      [
        "▁viendra",
        -7.847337333632795
      ],
      [
        "▁À",
        -7.848564770004991
      ],
      [
        "▁wall",
        -7.860107347458562
      ],
      [
        "▁re",
        -7.861724155799344
      ],
      [
        "▁Di",
        -7.862325411347584
      ],
      [
        "▁Wax",
        -7.865566062872279
      ],
      [
        "▁ici",
        -7.866460285603852
      ],
      [
        "▁ban",
        -7.874899510258869
      ],
      [
        "▁bii",
        -7.875246212588481
      ],
      [
        "▁bu",
        -7.880016493868439
      ],
      [
        "▁li",
        -7.882459536174524
      ],
      [
        "▁femmes",
        -7.885569536390808
      ],
      [
        "waay",
        -7.886123256085867
      ],
      [
        "▁va",
        -7.886247570914281
      ],
      [
        "▁étai",
        -7.886248824972212
      ],
      [
        "▁qu'",
        -7.88864559765158
      ],
      [
        "▁plus",
        -7.892690103409603
      ],
      [
        "▁dugg",
        -7.895457762964368
      ],
      [
        "▁aux",
        -7.895557771784841
      ],
      [
        "é.",
        -7.896032853312464
      ],
      [
        "ñ",
        -7.896841031261111
      ],
      [
        "▁vienne",
        -7.898356544502351
      ],
      [
        "ère",
        -7.898618191334494
      ],
      [
        "▁toog",
        -7.899248568869417
      ],
      [
        "▁Ken",
        -7.89971533616397
      ],
      [
        "ser",
        -7.899740430040216
      ],
      [
        "▁Quelle",
        -7.901835280179494
      ],
      [
        "age",
        -7.902225014352011
      ],
      [
        "▁rafet",
        -7.907424315048349
      ],
      [
        "▁am",
        -7.9094890862357285
      ],
      [
        "▁Jox",
        -7.916671545157854
      ],
      [
        "▁Lawbe",
        -7.917259247441683
      ],
      [
        "▁Cherche",
        -7.917520079523566
      ],
      [
        "▁R",
        -7.917610345575595
      ],
      [
        "▁question",
        -7.917654685640951
      ],
      [
        "▁Defe",
        -7.9178456594608
      ],
      [
        "▁yaw",
        -7.919710370828369
      ],
      [
        "tre",
        -7.919727864870749
      ],
      [
        "aay",
        -7.919877590686125
      ],
      [
        "▁bépp",
        -7.920946872526059
      ],
      [
        "▁Demal",
        -7.92471328872522
      ],
      [
        "▁noonu",
        -7.927924716584152
      ],
      [
        "▁gee",
        -7.929905542787774
      ],
      [
        "▁doom",
        -7.9300559931624415
      ],
      [
        "▁l'un",
        -7.935853472231775
      ],
      [
        "me",
        -7.936472071588062
      ],
      [
        "▁sur",
        -7.939091224112828
      ],
      [
        "▁leneen",
        -7.942373350077005
      ],
      [
        "ier",
        -7.943560588919411
      ],
      [
        "▁d'un",
        -7.945877322893008
      ],
      [
        "enn",
        -7.946798738801695
      ],
      [
        "fois",
        -7.9502671119750215
      ],
      [
        "ter",
        -7.952530278350883
      ],
      [
        "and",
        -7.955689425652718
      ],
      [
        "▁parles",
        -7.956531068849744
      ],
      [
        "▁õgii",
        -7.96281018794962
      ],
      [
        "▁quel",
        -7.965907731744091
      ],
      [
        "óon",
        -7.96613358344614
      ],
      [
        "ais",
        -7.969939973102677
      ],
      [
        "▁na.",
        -7.970152709906412
      ],
      [
        "am",
        -7.972775027647028
      ],
      [
        "ou",
        -7.976608692068654
      ],
      [
        "▁daõ",
        -7.979370559974601
      ],
      [
        "s-",
        -7.981626902729418
      ],
      [
        "les",
        -7.988129961413051
      ],
      [
        "▁j'a",
        -7.9917753294245655
      ],
      [
        "eux",
        -7.992796232834962
      ],
      [
        "fa",
        -7.993725491283425
      ],
      [
        "▁P",
        -7.999137995174163
      ],
      [
        "▁p",
        -8.000581383509596
      ],
      [
        "▁qu",
        -8.004268075221479
      ],
      [
        "▁Sa",
        -8.004895729935452
      ],
      [
        "▁égarée",
        -8.005499451462008
      ],
      [
        "▁petit",
        -8.00781836351187
      ],
      [
        "▁ainsi",
        -8.007820863367844
      ],
      [
        "▁Homme",
        -8.007821556120838
      ],
      [
        "▁Moussa",
        -8.008002795547755
      ],
      [
        "▁Xammee",
        -8.008016695528841
      ],
      [
        "▁Alors",
        -8.008069612776932
      ],
      [
        "▁jaõg",
        -8.008446545714797
      ],
      [
        "▁daa",
        -8.00944786989144
      ],
      [
        "▁g",
        -8.009816829497373
      ],
      [
        "ee",
        -8.010451395848463
      ],
      [
        "▁dañu",
        -8.011602931869431
      ],
      [
        "naa",
        -8.013491188396584
      ],
      [
        "▁néeg",
        -8.014859921872555
      ],
      [
        "▁Nou",
        -8.015123203279252
      ],
      [
        "▁fille",
        -8.017117370297658
      ],
      [
        "▁Ra",
        -8.017247186431481
      ],
      [
        "▁ira",
        -8.024269140909395
      ],
      [
        "éew",
        -8.0250425494512
      ],
      [
        "▁partira",
        -8.030346574826982
      ],
      [
        "▁defe",
        -8.032053333610232
      ],
      [
        "▁toute",
        -8.03394736626091
      ],
      [
        "est-ce",
        -8.034144025881432
      ],
      [
        "▁ja",
        -8.037942423114215
      ],
      [
        "▁may",
        -8.040565152128645
      ],
      [
        "▁loolu",
        -8.045091226379892
      ],
      [
        "▁wa",
        -8.049680312819676
      ],
      [
        "▁Bu",
        -8.050034810297259
      ],
      [
        "▁cause",
        -8.054664237516151
      ],
      [
        "▁C'",
        -8.06207795621469
      ],
      [
        "▁Li",
        -8.068015882676196
      ],
      [
        "réer",
        -8.076148510215754
      ],
      [
        "▁M",
        -8.07724097799587
      ],
      [
        "vais",
        -8.082183652723646
      ],
      [
        "▁ta",
        -8.082786500211984
      ],
      [
        "oi",
        -8.085338687638775
      ],
      [
        "ax",
        -8.086930285450599
      ],
      [
        "▁v",
        -8.087695377972091
      ],
      [
        "▁celle",
        -8.095359721392965
      ],
      [
        "▁parl",
        -8.103073098245497
      ],
      [
        "esquel",
        -8.103258292912766
      ],
      [
        "atim",
        -8.104630382820556
      ],
      [
        "▁subë",
        -8.107303941422783
      ],
      [
        "▁lan",
        -8.107676173757453
      ],
      [
        "▁d'Europe",
        -8.107921202274616
      ],
      [
        "▁ñenn",
        -8.10792183119581
      ],
      [
        "▁ensemble",
        -8.107926605090075
      ],
      [
        "▁Fatim",
        -8.108121809646228
      ],
      [
        "▁pourtant",
        -8.108126231413234
      ],
      [
        "▁ndaw",
        -8.109635739772951
      ],
      [
        "▁Xam",
        -8.109946547064627
      ],
      [
        "▁serai",
        -8.112015859140351
      ],
      [
        "▁sortir",
        -8.113122912503338
      ],
      [
        "▁yeneen",
        -8.115384691715239
      ],
      [
        "▁biti",
        -8.121013494173116
      ],
      [
        "pp",
        -8.122587793459683
      ],
      [
        "▁aujourd'hui",
        -8.124186238542915
      ],
      [
        "▁Koo",
        -8.125847059215811
      ],
      [
        "▁sama",
        -8.126462438114945
      ],
      [
        "▁ñooñu",
        -8.12862270882967
      ],
      [
        "▁Man",
        -8.128869364679678
      ],
      [
        "▁Mon",
        -8.129089574462675
      ],
      [
        "▁xa",
        -8.134489265042305
      ],
      [
        "C",
        -8.136715272554898
      ],
      [
        "▁Voil",
        -8.138349564224221
      ],
      [
        "▁partes",
        -8.13908745115118
      ],
      [
        "as-",
        -8.141435475658689
      ],
      [
        "ii",
        -8.141772940270991
      ],
      [
        "▁so",
        -8.146351943242937
      ],
      [
        "▁fil",
        -8.148159737683677
      ],
      [
        "▁mbaa",
        -8.15233479301991
      ],
      [
        "▁V",
        -8.153090167662263
      ],
      [
        "de",
        -8.156723044195035
      ],
      [
        "▁pay",
        -8.1729834614728
      ],
      [
        "ñu",
        -8.180038387538115
      ],
      [
        "▁ñëwul",
        -8.180417764847057
      ],
      [
        "▁Ñ",
        -8.183844074477001
      ],
      [
        "q",
        -8.18798691646647
      ],
      [
        "uma",
        -8.194879692218159
      ],
      [
        "è",
        -8.195269877103797
      ],
      [
        "óo",
        -8.195879235535505
      ],
      [
        "tal",
        -8.202556422405845
      ],
      [
        "▁N",
        -8.204013868398668
      ],
      [
        "▁ñooña",
        -8.207874112050025
      ],
      [
        "▁prend",
        -8.216227665033804
      ],
      [
        "▁dëkk",
        -8.216572264176524
      ],
      [
        "▁jam",
        -8.216613692761015
      ],
      [
        "▁seet",
        -8.21726963301288
      ],
      [
        "▁Musaa",
        -8.217280822543998
      ],
      [
        "▁acheté",
        -8.218442318170105
      ],
      [
        "▁Sérère",
        -8.21847895566
      ],
      [
        "▁Tay",
        -8.218536256495959
      ],
      [
        "▁jii",
        -8.21967864695277
      ],
      [
        "nd",
        -8.223579075374566
      ],
      [
        "▁s'en",
        -8.223976600302876
      ],
      [
        "▁Woo",
        -8.22430812455881
      ],
      [
        "▁õgoon",
        -8.224599116113307
      ],
      [
        "▁Noonu",
        -8.229060839289948
      ],
      [
        "▁tay",
        -8.230121176804595
      ],
      [
        "▁vient",
        -8.231119942401374
      ],
      [
        "▁enfant",
        -8.234479481040873
      ],
      [
        "▁Ne",
        -8.234980461053429
      ],
      [
        "▁gu",
        -8.237191327330724
      ],
      [
        "aan",
        -8.237324600383824
      ],
      [
        "'habitude",
        -8.238417643701922
      ],
      [
        "▁Là",
        -8.238972839198205
      ],
      [
        "▁W",
        -8.240278068838574
      ],
      [
        "▁seen",
        -8.24136293649447
      ],
      [
        "ka",
        -8.243094599993794
      ],
      [
        "▁téer",
        -8.244129721320089
      ],
      [
        "▁ch",
        -8.245269411783955
      ],
      [
        "eur",
        -8.246807125142785
      ],
      [
        "▁bokk",
        -8.246824818343505
      ],
      [
        "oom",
        -8.246840172618613
      ],
      [
        "'étai",
        -8.24734501902239
      ],
      [
        "▁viennes",
        -8.247712378849718
      ],
      [
        "ver",
        -8.248948927664543
      ],
      [
        "▁ñ",
        -8.2506424747778
      ],
      [
        "ma",
        -8.253972291044118
      ],
      [
        "ile",
        -8.2618653473135
      ],
      [
        "kk",
        -8.263162522761428
      ],
      [
        "▁d'a",
        -8.263218585301107
      ],
      [
        "▁daf",
        -8.265299230813545
      ],
      [
        "▁d'autre",
        -8.26796638781139
      ],
      [
        "▁ay",
        -8.274333616836717
      ],
      [
        "z",
        -8.282489214462348
      ],
      [
        "ait",
        -8.286450064778546
      ],
      [
        "▁demande",
        -8.287941181821214
      ],
      [
        "▁Comme",
        -8.289164439792582
      ],
      [
        "▁eû",
        -8.29367220841127
      ],
      [
        "mer",
        -8.296129541500221
      ],
      [
        "ag",
        -8.29615342494127
      ],
      [
        "▁travail",
        -8.2965264792142
      ],
      [
        "aaw",
        -8.2978032512404
      ],
      [
        "t-il",
        -8.298181691235074
      ],
      [
        "▁avais",
        -8.29980772382981
      ],
      [
        "▁parti.",
        -8.30513902512636
      ],
      [
        "▁Doo",
        -8.309707421012494
      ],
      [
        "▁sort",
        -8.321743213256559
      ],
      [
        "▁woo",
        -8.321828058765496
      ],
      [
        "▁av",
        -8.324538569630125
      ],
      [
        "▁arrivé",
        -8.326612460867175
      ],
      [
        "▁Noon",
        -8.329184792308606
      ],
      [
        "õga",
        -8.331022824914033
      ],
      [
        "▁mo",
        -8.337037460752132
      ],
      [
        "▁lieu",
        -8.339030188868236
      ],
      [
        "▁Par",
        -8.340772659249712
      ],
      [
        "▁boeuf",
        -8.34079197992614
      ],
      [
        "▁moontin",
        -8.340794988447703
      ],
      [
        "▁chevaux",
        -8.340801356288402
      ],
      [
        "▁entier",
        -8.341081294674257
      ],
      [
        "▁Loolu",
        -8.34117558546643
      ],
      [
        "▁Waaye",
        -8.341242288755453
      ],
      [
        "▁surtout",
        -8.341631318856681
      ],
      [
        "ces",
        -8.341923465368097
      ],
      [
        "▁allé",
        -8.342680164502202
      ],
      [
        "ance",
        -8.342825909708054
      ],
      [
        "▁Kookule",
        -8.346925844971558
      ],
      [
        "▁moomu",
        -8.347325878430961
      ],
      [
        "▁Toi",
        -8.349450609597685
      ],
      [
        "ire",
        -8.351317761937748
      ],
      [
        "▁Qu",
        -8.352886537802506
      ],
      [
        "able",
        -8.355655028030206
      ],
      [
        "▁May",
        -8.356013517398669
      ],
      [
        "▁ñaar",
        -8.35643118089023
      ],
      [
        "▁cas",
        -8.36026343923593
      ],
      [
        "▁celles-",
        -8.36782186730932
      ],
      [
        "st-ce",
        -8.37040090206271
      ],
      [
        "▁bëggée",
        -8.371204845213596
      ],
      [
        "leen",
        -8.372194112184097
      ],
      [
        "rir",
        -8.37320198525879
      ],
      [
        "at",
        -8.375637707422705
      ],
      [
        "tte",
        -8.376843744555714
      ],
      [
        "taan",
        -8.377543151118749
      ],
      [
        "▁cherche",
        -8.378562155860495
      ],
      [
        "▁lu",
        -8.378774385526807
      ],
      [
        "▁kookuu",
        -8.383359036665592
      ],
      [
        "sieur",
        -8.388024004595648
      ],
      [
        "▁soir",
        -8.388722202797492
      ],
      [
        "▁Loo",
        -8.393216994951436
      ],
      [
        "▁parler",
        -8.396779818640107
      ],
      [
        "▁connais",
        -8.398986135922877
      ],
      [
        "cher",
        -8.402374625988706
      ],
      [
        "h",
        -8.402427375066592
      ],
      [
        "con",
        -8.41023134021579
      ],
      [
        "▁bir",
        -8.412646256118878
      ],
      [
        "G",
        -8.413264493255552
      ],
      [
        "▁wu",
        -8.415345570394221
      ],
      [
        "ppelle",
        -8.416149527556568
      ],
      [
        "▁tes",
        -8.41876394442324
      ],
      [
        "ête",
        -8.424739281079257
      ],
      [
        "▁Ou",
        -8.425371395684618
      ],
      [
        "▁nañu.",
        -8.428703634429255
      ],
      [
        "▁choses",
        -8.429389974653953
      ],
      [
        "ndoo",
        -8.435003806342678
      ],
      [
        "▁don",
        -8.440068602094493
      ],
      [
        "lu",
        -8.442124126517578
      ],
      [
        "▁it",
        -8.444143230379902
      ],
      [
        "ku",
        -8.445403290182535
      ],
      [
        "▁be",
        -8.451370853665644
      ],
      [
        "▁Laob",
        -8.460366001275236
      ],
      [
        "▁s'",
        -8.466348702480285
      ],
      [
        "een",
        -8.469354100638652
      ],
      [
        "▁L'",
        -8.469556312913108
      ],
      [
        "ien",
        -8.471528663859145
      ],
      [
        "▁foofa",
        -8.472073365233332
      ],
      [
        "▁ànd",
        -8.473027860350054
      ],
      [
        "la",
        -8.476169101354762
      ],
      [
        "-t",
        -8.478349383059419
      ],
      [
        "▁n'ai",
        -8.47980443400851
      ],
      [
        "▁nous",
        -8.480991691908551
      ],
      [
        "▁allai",
        -8.482956781849067
      ],
      [
        "▁yeksi",
        -8.483648902179727
      ],
      [
        "▁Ainsi",
        -8.483655862029874
      ],
      [
        "▁Mbaa",
        -8.48369067517668
      ],
      [
        "ëf",
        -8.483718721275576
      ],
      [
        "▁Deõk",
        -8.48372539255169
      ],
      [
        "▁gentil",
        -8.483788546032526
      ],
      [
        "▁gémin",
        -8.483891718966795
      ],
      [
        "▁dellusi",
        -8.484282271402384
      ],
      [
        "▁l'enfant",
        -8.484565964031594
      ],
      [
        "▁tày",
        -8.48555778137186
      ],
      [
        "▁yenn",
        -8.486212853241879
      ],
      [
        "▁lëf",
        -8.48664410823131
      ],
      [
        "▁reste",
        -8.487421918171579
      ],
      [
        "▁mère",
        -8.48750055528144
      ],
      [
        "▁nd",
        -8.487646512666403
      ],
      [
        "▁wépp",
        -8.487993929460421
      ],
      [
        "▁êtes",
        -8.490498665647017
      ],
      [
        "▁Moom",
        -8.491178524765362
      ],
      [
        "▁Cela",
        -8.491388418083782
      ],
      [
        "▁celui-là.",
        -8.49221100574194
      ],
      [
        "mps",
        -8.492601138625504
      ],
      [
        "▁ville",
        -8.49274175651874
      ],
      [
        "▁dogal",
        -8.493418805791173
      ],
      [
        "▁Foofu",
        -8.493553009744499
      ],
      [
        "iez",
        -8.495710191522042
      ],
      [
        "çon",
        -8.499642459504003
      ],
      [
        "▁beau",
        -8.500277807980332
      ],
      [
        "aw",
        -8.500848580547062
      ],
      [
        "▁amen",
        -8.50196434713707
      ],
      [
        "▁cou",
        -8.502491037273444
      ],
      [
        "▁arrivés",
        -8.503452503103565
      ],
      [
        "▁co",
        -8.504962124618633
      ],
      [
        "▁entre",
        -8.515780540900838
      ],
      [
        "individu",
        -8.51741360341093
      ],
      [
        "▁bare",
        -8.518304768622691
      ],
      [
        "as",
        -8.51850038259606
      ],
      [
        "aale",
        -8.519021314287057
      ],
      [
        "▁yee",
        -8.523122259391904
      ],
      [
        "ule",
        -8.523578060277211
      ],
      [
        "▁B",
        -8.53330261617898
      ],
      [
        "gi",
        -8.534075829087595
      ],
      [
        "▁Ben",
        -8.536206241232168
      ],
      [
        "▁kuu",
        -8.546890409853237
      ],
      [
        "▁m'a",
        -8.549057498170015
      ],
      [
        "ñee",
        -8.551557950875415
      ],
      [
        "▁vers",
        -8.551582292413654
      ],
      [
        "ité",
        -8.552280891966893
      ],
      [
        "ënd",
        -8.552736242237657
      ],
      [
        "▁porte",
        -8.55283391724819
      ],
      [
        "là",
        -8.554502701126372
      ],
      [
        "▁san",
        -8.55749952641358
      ],
      [
        "▁jooju",
        -8.558142713631058
      ],
      [
        "éel",
        -8.559197770975281
      ],
      [
        "▁mour",
        -8.56292311103379
      ],
      [
        "ux",
        -8.564913853035023
      ],
      [
        "connais",
        -8.565126178443675
      ],
      [
        "▁ña",
        -8.565170010918003
      ],
      [
        "▁Ch",
        -8.56568486471161
      ],
      [
        "▁alli",
        -8.567620414555721
      ],
      [
        "▁homme.",
        -8.570505315951799
      ],
      [
        "▁loola",
        -8.57143798653699
      ],
      [
        "▁veni",
        -8.571632478900597
      ],
      [
        "▁X",
        -8.572613953696152
      ],
      [
        "▁tax",
        -8.577325142349853
      ],
      [
        "ë",
        -8.58092521310024
      ],
      [
        "ur",
        -8.582447599589008
      ],
      [
        "▁yu",
        -8.587081903803204
      ],
      [
        "▁wan",
        -8.59187679706916
      ],
      [
        "▁Moi",
        -8.592517820834452
      ],
      [
        "▁daw",
        -8.600241241418537
      ],
      [
        "▁far",
        -8.602729802829467
      ],
      [
        "▁individu",
        -8.611853166303177
      ],
      [
        "iller",
        -8.612960743105619
      ],
      [
        "▁partis",
        -8.617935372075252
      ],
      [
        "▁Men",
        -8.626687142370388
      ],
      [
        "▁livre",
        -8.631017857620973
      ],
      [
        "▁partie",
        -8.634304256193763
      ],
      [
        "▁fan",
        -8.636292961311344
      ],
      [
        "gal",
        -8.647943237896211
      ],
      [
        "ambaar",
        -8.650201656504679
      ],
      [
        "▁Aujourd'hui",
        -8.650315117870363
      ],
      [
        "▁goroõ",
        -8.65031561128892
      ],
      [
        "▁d'esprit",
        -8.650362231987348
      ],
      [
        "▁Génn",
        -8.650369230605317
      ],
      [
        "▁fortune",
        -8.650384119944633
      ],
      [
        "▁amour",
        -8.65056860843686
      ],
      [
        "▁Waxtaan",
        -8.650653349597805
      ],
      [
        "▁phon",
        -8.650676873355463
      ],
      [
        "▁suuf",
        -8.650777022716522
      ],
      [
        "▁Donne",
        -8.651061683721785
      ],
      [
        "▁ceux-ci",
        -8.65128166614172
      ],
      [
        "▁L'un",
        -8.65176269840999
      ],
      [
        "▁doonkoon",
        -8.65180802015563
      ],
      [
        "▁Tugël",
        -8.651858041478402
      ],
      [
        "▁dëgg",
        -8.652015912527979
      ],
      [
        "▁dagg",
        -8.653556265499851
      ],
      [
        "▁Waaw",
        -8.653647232502232
      ],
      [
        "▁n'étai",
        -8.655475217501701
      ],
      [
        "▁fépp",
        -8.65789985919867
      ],
      [
        "▁boo",
        -8.661643594429531
      ],
      [
        "ût",
        -8.661653179370289
      ],
      [
        "▁fenn",
        -8.6618236416362
      ],
      [
        "▁më",
        -8.663074034402015
      ],
      [
        "▁sain",
        -8.663463026988973
      ],
      [
        "▁mag",
        -8.66545500218155
      ],
      [
        "se",
        -8.665775116406127
      ],
      [
        "là.",
        -8.667755976979253
      ],
      [
        "▁autre-là",
        -8.667776503589732
      ],
      [
        "▁deux",
        -8.670950337575952
      ],
      [
        "▁wet",
        -8.67197554643113
      ],
      [
        "▁croyai",
        -8.673002685213302
      ],
      [
        "▁jaambur",
        -8.67651911608053
      ],
      [
        "▁boobu",
        -8.677280252887863
      ],
      [
        "▁certaine",
        -8.67855447469681
      ],
      [
        "▁gor",
        -8.680439164715697
      ],
      [
        "▁ñaan",
        -8.68369164115641
      ],
      [
        "▁kook",
        -8.68435442289913
      ],
      [
        "▁Dana",
        -8.6862782857423
      ],
      [
        "▁wàn",
        -8.687030447482815
      ],
      [
        "ient",
        -8.688447770160177
      ],
      [
        "▁pu",
        -8.69432776852453
      ],
      [
        "▁kon",
        -8.695550383927241
      ],
      [
        "▁lekk",
        -8.697111542885098
      ],
      [
        "▁Ki",
        -8.699975462519514
      ],
      [
        "▁att",
        -8.70076609250813
      ],
      [
        "estime",
        -8.701214744207943
      ],
      [
        "▁Dan",
        -8.702824542488615
      ],
      [
        "▁aime",
        -8.703539886195092
      ],
      [
        "▁t'",
        -8.703738912973197
      ],
      [
        "▁pi",
        -8.705213758072349
      ],
      [
        "▁J'",
        -8.708577482252654
      ],
      [
        "moi",
        -8.709261071187566
      ],
      [
        "▁partis.",
        -8.709263319165025
      ],
      [
        "▁alal",
        -8.709385982557714
      ],
      [
        "▁aurai",
        -8.712177778081216
      ],
      [
        "ici",
        -8.72032034251565
      ],
      [
        "▁yaa",
        -8.72319117044973
      ],
      [
        "▁ko",
        -8.724399226866218
      ],
      [
        "▁leer",
        -8.727115241776854
      ],
      [
        "▁yooya",
        -8.728690312608224
      ],
      [
        "▁sopp",
        -8.729113888718826
      ],
      [
        "▁Daõg",
        -8.733181493308273
      ],
      [
        "▁Dis",
        -8.735264362160745
      ],
      [
        "ñaan",
        -8.738819531832043
      ],
      [
        "ner",
        -8.743626525312136
      ],
      [
        "ide",
        -8.744548575206887
      ],
      [
        "wal",
        -8.744870490000308
      ],
      [
        "góor",
        -8.745831956498856
      ],
      [
        "▁n'avai",
        -8.746501277942844
      ],
      [
        "ons",
        -8.747616999141185
      ],
      [
        "▁jooj",
        -8.753280390653574
      ],
      [
        "ré",
        -8.7548391903659
      ],
      [
        "acher",
        -8.757301293675464
      ],
      [
        "ion",
        -8.757565226065953
      ],
      [
        "eel",
        -8.758933443977572
      ],
      [
        "▁me",
        -8.760226715010262
      ],
      [
        "per",
        -8.762120969859009
      ],
      [
        "▁joo",
        -8.769984436792022
      ],
      [
        "▁vo",
        -8.770092445407558
      ],
      [
        "▁devan",
        -8.773170153855315
      ],
      [
        "mb",
        -8.77753531049689
      ],
      [
        "nce",
        -8.782113510370094
      ],
      [
        "▁r",
        -8.786987196427056
      ],
      [
        "ller",
        -8.789693935798283
      ],
      [
        "nde",
        -8.79475789424116
      ],
      [
        "▁change",
        -8.796499575792504
      ],
      [
        "sse",
        -8.799279548249663
      ],
      [
        "▁mën",
        -8.801416854097006
      ],
      [
        "▁dey",
        -8.801634235278271
      ],
      [
        "▁Ñe",
        -8.802798297086737
      ],
      [
        "▁Sur",
        -8.805087182155578
      ],
      [
        "▁pa",
        -8.81341492054375
      ],
      [
        "▁voici",
        -8.814259748887215
      ],
      [
        "▁mii",
        -8.814403716885744
      ],
      [
        "▁leur",
        -8.822052932507281
      ],
      [
        "▁con",
        -8.824156295982869
      ],
      [
        "▁lool",
        -8.831020146638776
      ],
      [
        "▁n'e",
        -8.84043777868327
      ],
      [
        "▁l'extérieur",
        -8.850315117830473
      ],
      [
        "»",
        -8.850315117870364
      ],
      [
        "«",
        -8.850315117870364
      ],
      [
        "▁auparavant",
        -8.850315117897038
      ],
      [
        "▁bûcheron",
        -8.850315118000236
      ],
      [
        "▁grâce",
        -8.850315138339738
      ],
      [
        "▁maître",
        -8.850315215711888
      ],
      [
        "▁baobab",
        -8.850315295463492
      ],
      [
        "▁morceau",
        -8.8503154881229
      ],
      [
        "▁accepte",
        -8.850316784725546
      ],
      [
        "▁raññe",
        -8.850317575631074
      ],
      [
        "▁Moontin",
        -8.850317999013388
      ],
      [
        "▁mâle",
        -8.850321406919116
      ],
      [
        "▁xaalis",
        -8.850353505820948
      ],
      [
        "pendan",
        -8.850434793039575
      ],
      [
        "▁prêt",
        -8.850445740823405
      ],
      [
        "▁concert",
        -8.85047021480727
      ],
      [
        "▁retourne",
        -8.850478841202943
      ],
      [
        "▁mesure",
        -8.850513219504249
      ],
      [
        "▁Ceux-là",
        -8.85054596710549
      ],
      [
        "▁parents",
        -8.850614835339623
      ],
      [
        "▁courage",
        -8.850639983756833
      ],
      [
        "▁jabar",
        -8.85067051004392
      ],
      [
        "▁taxaw",
        -8.850710909397634
      ],
      [
        "▁revienne",
        -8.851072035970432
      ],
      [
        "▁saõx",
        -8.851250058399424
      ],
      [
        "▁Ñii",
        -8.851359089395054
      ],
      [
        "▁õgoogule",
        -8.8522024818868
      ],
      [
        "▁côt",
        -8.852517381210491
      ],
      [
        "▁pou",
        -8.85277413626313
      ],
      [
        "▁travailleurs",
        -8.852826016812301
      ],
      [
        "▁gën",
        -8.85283799665549
      ],
      [
        "▁wér",
        -8.853190427486986
      ],
      [
        "▁unique",
        -8.85352078604691
      ],
      [
        "▁Foo",
        -8.854122759101681
      ],
      [
        "▁reconnu",
        -8.85550630161684
      ],
      [
        "▁ñuul",
        -8.855579936430061
      ],
      [
        "▁donc",
        -8.856015240455763
      ],
      [
        "je",
        -8.856736574880388
      ],
      [
        "▁nekk",
        -8.85685094352049
      ],
      [
        "varié",
        -8.858942871195428
      ],
      [
        "▁eusse",
        -8.86037078525143
      ],
      [
        "▁jou",
        -8.860742033881152
      ],
      [
        "▁goree",
        -8.860871682526392
      ],
      [
        "▁refuser",
        -8.860971434607979
      ],
      [
        "raî",
        -8.86203336122841
      ],
      [
        "▁Dama",
        -8.86313200043519
      ],
      [
        "▁noppi",
        -8.86411797786969
      ],
      [
        "▁deey",
        -8.864881569430382
      ],
      [
        "googule",
        -8.865008170281026
      ],
      [
        "▁Am",
        -8.865172297193496
      ],
      [
        "▁buur",
        -8.86702687885211
      ],
      [
        "▁ñooñ",
        -8.869455290060426
      ],
      [
        "ri",
        -8.873485829268441
      ],
      [
        "▁paroles",
        -8.874423957135585
      ],
      [
        "▁kooka",
        -8.87676718695836
      ],
      [
        "▁wër",
        -8.879958663178222
      ],
      [
        "egarde",
        -8.883545040960076
      ],
      [
        "ruit",
        -8.883989147967892
      ],
      [
        "▁été.",
        -8.885325176425003
      ],
      [
        "vait",
        -8.887542581986818
      ],
      [
        "▁mbë",
        -8.889924394619262
      ],
      [
        "au",
        -8.89130764802724
      ],
      [
        "▁ga",
        -8.89242072008148
      ],
      [
        "v",
        -8.894103622233814
      ],
      [
        "▁ree",
        -8.895430233240088
      ],
      [
        "▁fo",
        -8.897067764076699
      ],
      [
        "▁souhaite",
        -8.89967126224336
      ],
      [
        "▁ñibbi",
        -8.899993380011843
      ],
      [
        "ai",
        -8.90228293652563
      ],
      [
        "▁roi",
        -8.905193127556196
      ],
      [
        "▁Tou",
        -8.911004522993693
      ],
      [
        "ji",
        -8.911920338414923
      ],
      [
        "teur",
        -8.916785482462053
      ],
      [
        "▁Ta",
        -8.920611591162983
      ],
      [
        "bi",
        -8.921152552690076
      ],
      [
        "lors",
        -8.921750505533575
      ],
      [
        "▁cu",
        -8.922344502165718
      ],
      [
        "▁n'as",
        -8.923630406505948
      ],
      [
        "▁mau",
        -8.92765900637495
      ],
      [
        "▁mon",
        -8.93113889092552
      ],
      [
        "▁plante",
        -8.932574506790747
      ],
      [
        "▁sou",
        -8.934787784900223
      ],
      [
        "rends",
        -8.93981488099251
      ],
      [
        "▁mou",
        -8.941379990845856
      ],
      [
        "ure",
        -8.942347413513694
      ],
      [
        "qui",
        -8.944173573668564
      ],
      [
        "kóon",
        -8.944707996259181
      ],
      [
        "oir",
        -8.944782310161509
      ],
      [
        "▁Waxa",
        -8.945116231538567
      ],
      [
        "▁bou",
        -8.946091270616996
      ],
      [
        "ssion",
        -8.947875215509574
      ],
      [
        "▁sorti",
        -8.948674038442888
      ],
      [
        "▁Com",
        -8.9521258209886
      ],
      [
        "▁Lu",
        -8.953621989278238
      ],
      [
        "▁T",
        -8.955126832592448
      ],
      [
        "▁fe",
        -8.957816303692534
      ],
      [
        "▁h",
        -8.961585139591211
      ],
      [
        "▁s'a",
        -8.962411781555032
      ],
      [
        "▁addu",
        -8.965467866947984
      ],
      [
        "▁puis",
        -8.971671474975045
      ],
      [
        "rait",
        -8.971970802304234
      ],
      [
        "▁alla",
        -8.97210208090237
      ],
      [
        "▁mes",
        -8.97609101789225
      ],
      [
        "cer",
        -8.976764860192782
      ],
      [
        "bët",
        -8.97933960471245
      ],
      [
        "▁Bul",
        -8.98336266553912
      ],
      [
        "▁to",
        -8.98649729435598
      ],
      [
        "õ",
        -8.986516913427081
      ],
      [
        "▁Wa",
        -8.986708906957551
      ],
      [
        "om",
        -8.991261730286698
      ],
      [
        "cas",
        -8.992701118470938
      ],
      [
        "▁kee",
        -8.993939825538181
      ],
      [
        "▁yar",
        -8.996248421892187
      ],
      [
        "rent",
        -8.997895749289867
      ],
      [
        "appartien",
        -9.001004344489699
      ],
      [
        "▁men",
        -9.0052622459381
      ],
      [
        "▁vi",
        -9.015193571307629
      ],
      [
        "▁Go",
        -9.025760754086956
      ],
      [
        "cc",
        -9.030850338716867
      ],
      [
        "ñu.",
        -9.030953372373554
      ],
      [
        "espè",
        -9.03161102650803
      ],
      [
        "of",
        -9.036113900403238
      ],
      [
        "▁fen",
        -9.040304874511644
      ],
      [
        "▁saf",
        -9.042405956326633
      ],
      [
        "obul",
        -9.042414950935717
      ],
      [
        "-il",
        -9.042866543633117
      ],
      [
        "quo",
        -9.044168377156486
      ],
      [
        "igne",
        -9.045428023332155
      ],
      [
        "nte",
        -9.047758993221343
      ],
      [
        "▁wà",
        -9.049714453808337
      ],
      [
        "▁enfant-",
        -9.052718262393261
      ],
      [
        "▁H",
        -9.053249397320513
      ],
      [
        "▁war",
        -9.059966222597762
      ],
      [
        "▁gisu",
        -9.062894644309264
      ],
      [
        "▁pla",
        -9.062958411431886
      ],
      [
        "▁Õg",
        -9.063506138136997
      ],
      [
        "nité",
        -9.064386564444924
      ],
      [
        "par",
        -9.06619738682382
      ],
      [
        "▁ju",
        -9.068287826482717
      ],
      [
        "▁regard",
        -9.072142873760011
      ],
      [
        "min",
        -9.072522125597967
      ],
      [
        "-sa",
        -9.072966421321548
      ],
      [
        "ër",
        -9.07785260197741
      ],
      [
        "▁ren",
        -9.082930053315064
      ],
      [
        "▁met",
        -9.096031661295248
      ],
      [
        "tive",
        -9.098065400749013
      ],
      [
        "▁wàl",
        -9.09821241715673
      ],
      [
        "▁pro",
        -9.099116358638245
      ],
      [
        ")",
        -9.100315117870364
      ],
      [
        "▁habituellement",
        -9.100315227908471
      ],
      [
        "▁entrefaites",
        -9.100315253673774
      ],
      [
        "▁totalité",
        -9.100315288800767
      ],
      [
        "▁meilleur",
        -9.100315344375936
      ],
      [
        "▁(",
        -9.100315392007596
      ],
      [
        "▁naqadi",
        -9.100315559489976
      ],
      [
        "▁Ñëw",
        -9.100315970009762
      ],
      [
        "▁dehors",
        -9.100315983157836
      ],
      [
        "▁Birayim",
        -9.100316642303634
      ],
      [
        "▁région",
        -9.100317794327946
      ],
      [
        "▁phonéti",
        -9.100319796815919
      ],
      [
        "▁trépi",
        -9.100331380290784
      ],
      [
        "▁science",
        -9.100336610508307
      ],
      [
        "▁ëlëk",
        -9.100338672927657
      ],
      [
        "▁veulent",
        -9.100342416545775
      ],
      [
        "▁chambre",
        -9.10036011060205
      ],
      [
        "▁montrer",
        -9.10036444390648
      ],
      [
        "▁Alfa",
        -9.100376239250107
      ],
      [
        "▁garçon",
        -9.100397230544475
      ],
      [
        "▁cadeau",
        -9.100401325390294
      ],
      [
        "▁donne",
        -9.100427205732966
      ],
      [
        "▁marchand",
        -9.100493870330757
      ],
      [
        "▁Gaynd",
        -9.100632278956086
      ],
      [
        "▁nourri",
        -9.100637142656847
      ],
      [
        "▁NGo",
        -9.100656808604224
      ],
      [
        "▁Tann",
        -9.100780431794206
      ],
      [
        "▁servi",
        -9.100793336777976
      ],
      [
        "▁vrai",
        -9.100863509633438
      ],
      [
        "▁grand",
        -9.101006682185155
      ],
      [
        "▁assis",
        -9.101037226987991
      ],
      [
        "▁Saint-Louisien",
        -9.101212096003135
      ],
      [
        "▁somme",
        -9.101275711451532
      ],
      [
        "▁Qu'",
        -9.10169352436575
      ],
      [
        "▁libre",
        -9.101846873416761
      ],
      [
        "▁në",
        -9.101916126228316
      ],
      [
        "▁noble",
        -9.102123882505225
      ],
      [
        "▁Ñooñu",
        -9.10216022492975
      ],
      [
        "▁rang",
        -9.102200806918056
      ],
      [
        "▁Demuma",
        -9.102231179433556
      ],
      [
        "▁séex",
        -9.102258382213725
      ],
      [
        "▁occ",
        -9.102494590677615
      ],
      [
        "▁wàññ",
        -9.102837999668148
      ],
      [
        "j",
        -9.103611377448164
      ],
      [
        "▁viennent",
        -9.104359351025632
      ],
      [
        "▁fra",
        -9.105045660536991
      ],
      [
        "ûr",
        -9.10537899685731
      ],
      [
        "▁champ",
        -9.105738135561513
      ],
      [
        "▁kookale",
        -9.105963881843667
      ],
      [
        "▁Demkoon",
        -9.106042043888579
      ],
      [
        "▁suba",
        -9.10616553949254
      ],
      [
        "▁cacher",
        -9.10622930635934
      ],
      [
        "▁voisin",
        -9.10630212706166
      ],
      [
        "▁wày",
        -9.10630902371311
      ],
      [
        "▁guy",
        -9.106789098613614
      ],
      [
        "▁e",
        -9.106946803095358
      ],
      [
        "▁jëf",
        -9.10700111207294
      ],
      [
        "▁serais",
        -9.107050398669696
      ],
      [
        "▁d'habitude",
        -9.107165287671622
      ],
      [
        "▁magg",
        -9.107710155779742
      ],
      [
        "▁jog",
        -9.108532998810226
      ],
      [
        "▁gaa",
        -9.109395995729583
      ],
      [
        "'agit",
        -9.110903857487372
      ],
      [
        "onde",
        -9.111001897794928
      ],
      [
        "▁terre",
        -9.111142734509874
      ],
      [
        "▁mor",
        -9.11121072756151
      ],
      [
        "▁manque",
        -9.111347352593775
      ],
      [
        "▁ñaaw",
        -9.11213167027605
      ],
      [
        "▁pris",
        -9.112254628051135
      ],
      [
        "▁add",
        -9.113046791507738
      ],
      [
        "▁trouver",
        -9.113140773576326
      ],
      [
        "▁j'",
        -9.113159736234929
      ],
      [
        "▁fon",
        -9.1133455088409
      ],
      [
        "▁partez",
        -9.114870300886416
      ],
      [
        "'ailleurs",
        -9.115006633273099
      ],
      [
        "▁t'en",
        -9.116523319470305
      ],
      [
        "▁rappel",
        -9.116746853202105
      ],
      [
        "▁Yee",
        -9.117140897351545
      ],
      [
        "▁Ni",
        -9.117694326212376
      ],
      [
        "▁naõg",
        -9.117886751082146
      ],
      [
        "▁Kan",
        -9.120035382064714
      ],
      [
        "▁Nil",
        -9.120250350562282
      ],
      [
        "▁après",
        -9.124019318554119
      ],
      [
        "▁jur",
        -9.125520518991149
      ],
      [
        "ral",
        -9.133076673891383
      ],
      [
        "▁dét",
        -9.134705023274726
      ],
      [
        "▁n'ira",
        -9.139594471226559
      ],
      [
        "▁demuñu",
        -9.143858025747782
      ],
      [
        "ous",
        -9.144550350752818
      ],
      [
        "▁bor",
        -9.145246725205011
      ],
      [
        "▁demain",
        -9.14574271090212
      ],
      [
        "▁daj",
        -9.146629764162721
      ],
      [
        "el",
        -9.14742902069123
      ],
      [
        "▁peu",
        -9.147473330583194
      ],
      [
        "▁four",
        -9.148342424434071
      ],
      [
        "▁kaw",
        -9.148441377159044
      ],
      [
        "▁bra",
        -9.148682386770153
      ],
      [
        "e.",
        -9.14870017766733
      ],
      [
        "ñi",
        -9.1493472436443
      ],
      [
        "biir",
        -9.149746498777894
      ],
      [
        "▁kile",
        -9.150156447679523
      ],
      [
        "▁ñaa",
        -9.155900189743184
      ],
      [
        "▁désir",
        -9.156067946093437
      ],
      [
        "aar",
        -9.156177086417141
      ],
      [
        "▁doi",
        -9.157207190367396
      ],
      [
        "▁maigre",
        -9.157671232030543
      ],
      [
        "▁goog",
        -9.15972199448836
      ],
      [
        "▁Sama",
        -9.16236436777275
      ],
      [
        "vous",
        -9.162921321374954
      ],
      [
        "▁demb",
        -9.168860479446755
      ],
      [
        "▁noona",
        -9.169261406471268
      ],
      [
        "tout",
        -9.170344231090505
      ],
      [
        "hoisi",
        -9.170835118118841
      ],
      [
        "▁ven",
        -9.171255302101976
      ],
      [
        "▁lanu",
        -9.173423888048543
      ],
      [
        "▁bout",
        -9.173990059436884
      ],
      [
        "▁connaiss",
        -9.17447045038133
      ],
      [
        "lé",
        -9.176678399321485
      ],
      [
        "▁comm",
        -9.177563171639282
      ],
      [
        "▁fer",
        -9.177921022624924
      ],
      [
        "▁appelle",
        -9.179540998133458
      ],
      [
        "▁s'es",
        -9.186215915766548
      ],
      [
        "afa",
        -9.187854763392338
      ],
      [
        "cle",
        -9.18922875562594
      ],
      [
        "▁piqu",
        -9.193016242567115
      ],
      [
        "▁tel",
        -9.19449756195505
      ],
      [
        "▁set",
        -9.194583033555318
      ],
      [
        "▁bavard",
        -9.196153029228356
      ],
      [
        "addu",
        -9.198027906344969
      ],
      [
        "baat",
        -9.199450526016294
      ],
      [
        "▁Ñu",
        -9.199939900951264
      ],
      [
        "vé",
        -9.200570431737512
      ],
      [
        "ence",
        -9.201764049713885
      ],
      [
        "õgeen",
        -9.201795741356527
      ],
      [
        "▁të",
        -9.205492067010917
      ],
      [
        "▁lawoon",
        -9.207572418264355
      ],
      [
        "ber",
        -9.208515519822692
      ],
      [
        "▁mba",
        -9.20944195911037
      ],
      [
        "ày",
        -9.209585872541304
      ],
      [
        "▁maye",
        -9.209806792681345
      ],
      [
        "▁heure",
        -9.21324242417907
      ],
      [
        "▁Me",
        -9.214147756641408
      ],
      [
        "▁maa",
        -9.21561868969508
      ],
      [
        "▁To",
        -9.215660878298667
      ],
      [
        "es.",
        -9.219187507875695
      ],
      [
        "sses",
        -9.219693396355906
      ],
      [
        "▁jar",
        -9.219845820049365
      ],
      [
        "▁ex",
        -9.219976672352765
      ],
      [
        "▁dog",
        -9.221654854768095
      ],
      [
        "▁confie",
        -9.224243844462665
      ],
      [
        "▁Kaj",
        -9.231259656759095
      ],
      [
        "▁pars.",
        -9.233190686545434
      ],
      [
        "▁haut",
        -9.233882978069511
      ],
      [
        "aux",
        -9.234233995055877
      ],
      [
        "▁mal",
        -9.234413501979686
      ],
      [
        "▁Lo",
        -9.23654258687512
      ],
      [
        "▁Ña",
        -9.236847276902004
      ],
      [
        "ez.",
        -9.240068139950209
      ],
      [
        "▁jë",
        -9.242631850368568
      ],
      [
        "sembl",
        -9.243546164613324
      ],
      [
        "▁plu",
        -9.243630632419018
      ],
      [
        "▁veu",
        -9.24431039054887
      ],
      [
        "ge",
        -9.248118245386726
      ],
      [
        "che",
        -9.25271087519275
      ],
      [
        "▁po",
        -9.257493274320353
      ],
      [
        "lles",
        -9.259404309901239
      ],
      [
        "ëcc",
        -9.260429032545446
      ],
      [
        "▁fui",
        -9.261315087375321
      ],
      [
        "wul",
        -9.265719417209421
      ],
      [
        "▁ñaana",
        -9.26944452111811
      ],
      [
        "nent",
        -9.269817750985844
      ],
      [
        "nt.",
        -9.270275890346522
      ],
      [
        "pay",
        -9.270513724937716
      ],
      [
        "▁foof",
        -9.272568157934616
      ],
      [
        "rie",
        -9.274143246602133
      ],
      [
        "gul",
        -9.282150300536223
      ],
      [
        "atu",
        -9.282750976154961
      ],
      [
        "uire",
        -9.286663768637908
      ],
      [
        "▁rem",
        -9.286687754601818
      ],
      [
        "▁confi",
        -9.28683288172252
      ],
      [
        "▁ré",
        -9.289927200522202
      ],
      [
        "tes",
        -9.291764058663466
      ],
      [
        "uloo",
        -9.292507258021573
      ],
      [
        "▁pai",
        -9.29550658595767
      ],
      [
        "ve",
        -9.297309033741566
      ],
      [
        "▁pie",
        -9.298286306605991
      ],
      [
        "▁Jë",
        -9.299124709448984
      ],
      [
        "▁naw",
        -9.30049818686635
      ],
      [
        "▁mêmes",
        -9.301430706596463
      ],
      [
        "▁nëw",
        -9.302142825400423
      ],
      [
        "▁mange",
        -9.305811922233731
      ],
      [
        "▁doo",
        -9.306502540171028
      ],
      [
        "▁gé",
        -9.307155469091008
      ],
      [
        "alheureusement",
        -9.307378161740523
      ],
      [
        "nda",
        -9.307407095970868
      ],
      [
        "▁waxal",
        -9.316719824175696
      ],
      [
        "▁mang",
        -9.317293387303486
      ],
      [
        "▁ñj",
        -9.318020706699883
      ],
      [
        "▁cour",
        -9.31940721939732
      ],
      [
        "▁trai",
        -9.320636517837295
      ],
      [
        "▁õga.",
        -9.32081117561625
      ],
      [
        "▁ser",
        -9.322342914701355
      ],
      [
        "abar",
        -9.325963671561013
      ],
      [
        "bou",
        -9.32699118178709
      ],
      [
        "donner",
        -9.329309152513673
      ],
      [
        "▁sui",
        -9.334961208038075
      ],
      [
        "▁daaw",
        -9.337040492430447
      ],
      [
        "▁sañ",
        -9.33717272839636
      ],
      [
        "▁õg",
        -9.338742359666524
      ],
      [
        "clair",
        -9.34080239564317
      ],
      [
        "▁voul",
        -9.349756002699309
      ],
      [
        "aller",
        -9.35056533046858
      ],
      [
        "mporte",
        -9.353705385492727
      ],
      [
        "ler",
        -9.354525873909282
      ],
      [
        "▁batt",
        -9.355164411703642
      ],
      [
        "uff",
        -9.359873247333727
      ],
      [
        "▁désire",
        -9.361984669560824
      ],
      [
        "vent",
        -9.36243461903118
      ],
      [
        "▁arr",
        -9.36362421064092
      ],
      [
        "▁ton",
        -9.363624483180478
      ],
      [
        "▁éle",
        -9.36628826089713
      ],
      [
        "ave",
        -9.367041484980465
      ],
      [
        "onore",
        -9.369503138723646
      ],
      [
        "use",
        -9.370233173923273
      ],
      [
        "▁part.",
        -9.37092766608263
      ],
      [
        "▁Liggéey",
        -9.378418726093265
      ],
      [
        "nn",
        -9.38689458372116
      ],
      [
        "ouille",
        -9.389090328039577
      ],
      [
        "▁gr",
        -9.389093378924713
      ],
      [
        "▁Seeti",
        -9.39217340918954
      ],
      [
        "oudre",
        -9.394234723616238
      ],
      [
        "▁raõ",
        -9.396646628105255
      ],
      [
        "▁kookee",
        -9.403040269440208
      ],
      [
        "ois",
        -9.4031701280694
      ],
      [
        "▁eux",
        -9.40419393821874
      ],
      [
        "bouche",
        -9.404270343995359
      ],
      [
        "ëgg",
        -9.404283441463248
      ],
      [
        "rëb",
        -9.405623303027271
      ],
      [
        "▁too",
        -9.406328112729941
      ],
      [
        "'enfant",
        -9.40688308128166
      ],
      [
        "▁che",
        -9.40706398778412
      ],
      [
        "ó",
        -9.409378993634373
      ],
      [
        "▁mb",
        -9.409843247131183
      ],
      [
        "õk",
        -9.410173169043551
      ],
      [
        "▁Yooy",
        -9.412799440342951
      ],
      [
        "▁nopp",
        -9.414335473698156
      ],
      [
        "bo",
        -9.414698432446999
      ],
      [
        "gne",
        -9.414748041588215
      ],
      [
        "▁we",
        -9.416016131907583
      ],
      [
        "▁déj",
        -9.417473822224554
      ],
      [
        "▁vill",
        -9.417866216413856
      ],
      [
        "▁nii",
        -9.424389294724566
      ],
      [
        "fi",
        -9.426280686741457
      ],
      [
        "▁feneen",
        -9.426567053847327
      ],
      [
        "onfie",
        -9.430400219576942
      ],
      [
        "chance",
        -9.431565994893976
      ],
      [
        "▁impoli",
        -9.433646164326069
      ],
      [
        "▁substitu",
        -9.433648476600991
      ],
      [
        "considér",
        -9.433648492046412
      ],
      [
        "▁fâch",
        -9.433648670548168
      ],
      [
        "▁gaddaay",
        -9.43364867127522
      ],
      [
        "▁Certaine",
        -9.43364872060264
      ],
      [
        "▁connaît",
        -9.433648776622963
      ],
      [
        "▁humain",
        -9.433648876420369
      ],
      [
        "▁quémande",
        -9.433648931656094
      ],
      [
        "▁appelé",
        -9.433649327757006
      ],
      [
        "▁humid",
        -9.433649520281964
      ],
      [
        "▁messager",
        -9.433649726344678
      ],
      [
        "▁gëléem",
        -9.433649933338469
      ],
      [
        "▁posséd",
        -9.43365540094065
      ],
      [
        "▁lutteur",
        -9.433655872905126
      ],
      [
        "échapp",
        -9.433658187234204
      ],
      [
        "▁oreille",
        -9.433659621801954
      ],
      [
        "▁instant",
        -9.433667858681499
      ],
      [
        "▁jóg",
        -9.433674407194239
      ],
      [
        "▁ressemble",
        -9.433686437653426
      ],
      [
        "▁cultive",
        -9.433690942081618
      ],
      [
        "▁trahi",
        -9.433693180544832
      ],
      [
        "▁xott",
        -9.43370694396159
      ],
      [
        "▁Yaakaar",
        -9.433721329243856
      ],
      [
        "▁chameau",
        -9.433732835964829
      ],
      [
        "▁défini",
        -9.43374100161787
      ],
      [
        "▁paresseu",
        -9.43374239507389
      ],
      [
        "▁poulet",
        -9.433754073335635
      ],
      [
        "▁Peul",
        -9.433758105709822
      ],
      [
        "▁honore",
        -9.433767958991297
      ],
      [
        "▁Peut-",
        -9.43380693511852
      ],
      [
        "▁Autre",
        -9.433835334947974
      ],
      [
        "▁initi",
        -9.43387251136079
      ],
      [
        "frayer",
        -9.43391825221283
      ],
      [
        "énégal",
        -9.433972418351903
      ],
      [
        "▁secour",
        -9.434050512229286
      ],
      [
        "▁Qu'est-ce",
        -9.434084835609154
      ],
      [
        "▁dikkul",
        -9.434127010904842
      ],
      [
        "▁jalou",
        -9.434154761731353
      ],
      [
        "▁interdi",
        -9.434260765325972
      ],
      [
        "▁Sëri",
        -9.43432154268476
      ],
      [
        "▁l'argent",
        -9.434330566951317
      ],
      [
        "▁carac",
        -9.434371568735646
      ],
      [
        "▁céex",
        -9.434375769906872
      ],
      [
        "▁tambour",
        -9.434449405807442
      ],
      [
        "▁ë",
        -9.43447992836127
      ],
      [
        "▁pousse",
        -9.434603701525717
      ],
      [
        "▁trou",
        -9.434606428628022
      ],
      [
        "▁googu",
        -9.434660065927773
      ],
      [
        "▁Abal",
        -9.43485299031993
      ],
      [
        "▁õgoogu",
        -9.435050383426624
      ],
      [
        "▁xéew",
        -9.435225780388205
      ],
      [
        "èvre",
        -9.43527113884202
      ],
      [
        "▁frapp",
        -9.435357229111606
      ],
      [
        "▁bopp",
        -9.435727624117115
      ],
      [
        "▁vérité",
        -9.435871539678494
      ],
      [
        "▁crain",
        -9.436020326881506
      ],
      [
        "▁jambaar",
        -9.436327130037013
      ],
      [
        "▁Pour",
        -9.436348633261591
      ],
      [
        "▁debout",
        -9.436425159685827
      ],
      [
        "▁yëf",
        -9.436964905095342
      ],
      [
        "▁jiital",
        -9.437081836213254
      ],
      [
        "▁Ici",
        -9.437278876359265
      ],
      [
        "▁jox",
        -9.437956659931551
      ],
      [
        "▁wex",
        -9.438136139051133
      ],
      [
        "▁form",
        -9.438373254307226
      ],
      [
        "llez",
        -9.438900749607766
      ],
      [
        "▁beg",
        -9.439399047783487
      ],
      [
        "▁juge",
        -9.439490118005981
      ],
      [
        "▁eff",
        -9.439818008665775
      ],
      [
        "▁waxaale",
        -9.439824024075321
      ],
      [
        "▁sëgg",
        -9.440077575850927
      ],
      [
        "▁contre",
        -9.440610021348352
      ],
      [
        "eku",
        -9.441475341799473
      ],
      [
        "▁d'entre",
        -9.44163550588173
      ],
      [
        "▁fem",
        -9.441747062227396
      ],
      [
        "▁salu",
        -9.442363731840128
      ],
      [
        "▁méchant",
        -9.442385091953298
      ],
      [
        "ique",
        -9.442413030320605
      ],
      [
        "▁Gisu",
        -9.442435435967752
      ],
      [
        "▁clé",
        -9.442450014932483
      ],
      [
        "▁refuse",
        -9.443237937720685
      ],
      [
        "kki",
        -9.443302532229984
      ],
      [
        "▁rentrer",
        -9.444025418240983
      ],
      [
        "▁wóo",
        -9.445482868957857
      ],
      [
        "ëkk",
        -9.445906733129044
      ],
      [
        "▁arrive",
        -9.44638484138741
      ],
      [
        "▁Ngo",
        -9.446610335000788
      ],
      [
        "▁dents",
        -9.446775195390364
      ],
      [
        "▁enfant-là",
        -9.447809638606957
      ],
      [
        "▁juut",
        -9.44877052624854
      ],
      [
        "▁amoon",
        -9.449573169352194
      ],
      [
        "éné",
        -9.44970397701818
      ],
      [
        "▁provi",
        -9.449721750269038
      ],
      [
        "▁naaru",
        -9.449741360810096
      ],
      [
        "▁passé",
        -9.44977913987055
      ],
      [
        "rach",
        -9.449813571207404
      ],
      [
        "▁laid",
        -9.450797775038975
      ],
      [
        "oow",
        -9.458129438314739
      ],
      [
        "ôt",
        -9.458131039061255
      ],
      [
        "▁bâti",
        -9.45946817037103
      ],
      [
        "▁gen",
        -9.459751846342721
      ],
      [
        "olal",
        -9.462075090280281
      ],
      [
        "▁yaru",
        -9.462325412517025
      ],
      [
        "▁Lui",
        -9.462880883493767
      ],
      [
        "▁gaaw",
        -9.463343036179324
      ],
      [
        "▁aji",
        -9.464802527296268
      ],
      [
        "▁Waxu",
        -9.46611256722578
      ],
      [
        "▁kookee.",
        -9.468111715374981
      ],
      [
        "▁feneen.",
        -9.469490045992757
      ],
      [
        "▁homme-ci",
        -9.469782664923615
      ],
      [
        "▁taf",
        -9.46993791657465
      ],
      [
        "▁général",
        -9.470612226389708
      ],
      [
        "ncer",
        -9.470943169103169
      ],
      [
        "lam",
        -9.471604069865887
      ],
      [
        "oupe",
        -9.471877881617175
      ],
      [
        "▁bonul",
        -9.473930587561613
      ],
      [
        "▁épo",
        -9.474828306089202
      ],
      [
        "tendu",
        -9.476005758163675
      ],
      [
        "▁regarde",
        -9.476271167912538
      ],
      [
        "▁booba",
        -9.476362873890462
      ],
      [
        "lo",
        -9.47860802550141
      ],
      [
        "join",
        -9.480029326472089
      ],
      [
        "neen",
        -9.482086998865936
      ],
      [
        "▁daal",
        -9.483261893841178
      ],
      [
        "▁ànda",
        -9.483560232381636
      ],
      [
        "▁law",
        -9.48361719822548
      ],
      [
        "▁daawul",
        -9.484249541030888
      ],
      [
        "ëri",
        -9.484748524910149
      ],
      [
        "mal",
        -9.485431425299002
      ],
      [
        "▁coule",
        -9.485769087092132
      ],
      [
        "▁defar",
        -9.486952542971336
      ],
      [
        "▁Õgo",
        -9.487207697064123
      ],
      [
        "▁déey",
        -9.487433995106239
      ],
      [
        "▁woowu",
        -9.488202072559869
      ],
      [
        "réci",
        -9.488992243745791
      ],
      [
        "▁noir",
        -9.489146840216602
      ],
      [
        "ñëw",
        -9.490986533199775
      ],
      [
        "▁woowa",
        -9.49259501932211
      ],
      [
        "▁buu",
        -9.492662051260364
      ],
      [
        "▁waxtu",
        -9.492950139648846
      ],
      [
        "▁attend",
        -9.493645523118197
      ],
      [
        "tan",
        -9.495338198945085
      ],
      [
        "▁faj",
        -9.496193227949185
      ],
      [
        "gël",
        -9.49675092283926
      ],
      [
        "▁boot",
        -9.497901899373304
      ],
      [
        "▁Kook",
        -9.504576650184854
      ],
      [
        "▁Celui",
        -9.506067749473964
      ],
      [
        "eegu",
        -9.506826916945212
      ],
      [
        "▁looli",
        -9.506907485490856
      ],
      [
        "▁taille",
        -9.508689178269245
      ],
      [
        "agoni",
        -9.51015243644487
      ],
      [
        "▁n'aur",
        -9.510423129306261
      ],
      [
        "▁xaj",
        -9.511706531896179
      ],
      [
        "lusi",
        -9.51436136255945
      ],
      [
        "mu",
        -9.514703079860968
      ],
      [
        "▁dois",
        -9.518617589876138
      ],
      [
        "▁jà",
        -9.519104950122177
      ],
      [
        "▁sol",
        -9.523850492290354
      ],
      [
        "▁amee",
        -9.524744965589646
      ],
      [
        "agg",
        -9.525181970957167
      ],
      [
        "▁bax",
        -9.527377457993222
      ],
      [
        "▁ubb",
        -9.53439700659884
      ],
      [
        "ain",
        -9.53553442481502
      ],
      [
        "▁Defa",
        -9.53604513109666
      ],
      [
        "▁wàñ",
        -9.539585119789308
      ],
      [
        "▁Mets",
        -9.5397173972911
      ],
      [
        "▁muu",
        -9.540199232220456
      ],
      [
        "▁ndem",
        -9.540989735223876
      ],
      [
        "us",
        -9.542697241354666
      ],
      [
        "cul",
        -9.542706902892293
      ],
      [
        "ëju",
        -9.5435609981963
      ],
      [
        "tonner",
        -9.54479991300488
      ],
      [
        "▁vou",
        -9.544864027988085
      ],
      [
        "▁nooni",
        -9.546867983844354
      ],
      [
        "tion",
        -9.547076215198992
      ],
      [
        "▁lekku",
        -9.549330605872909
      ],
      [
        "▁Waxul",
        -9.549847830868458
      ],
      [
        "▁gra",
        -9.550998237322371
      ],
      [
        "▁gri",
        -9.55154860588622
      ],
      [
        "▁reew",
        -9.55207170372072
      ],
      [
        "aamu",
        -9.553041312740493
      ],
      [
        "▁xee",
        -9.554446344564363
      ],
      [
        "ais-t",
        -9.55491623098465
      ],
      [
        "▁partai",
        -9.55568100824238
      ],
      [
        "▁tor",
        -9.555918912021228
      ],
      [
        "▁sau",
        -9.55889597385426
      ],
      [
        "lou",
        -9.559290992335198
      ],
      [
        "▁xer",
        -9.559819190876603
      ],
      [
        "tuel",
        -9.560986969857677
      ],
      [
        "▁verr",
        -9.56235747283376
      ],
      [
        "ton",
        -9.563915052599178
      ],
      [
        "▁éclat",
        -9.564672333052696
      ],
      [
        "eau",
        -9.569853422714294
      ],
      [
        "▁ver",
        -9.571446127781535
      ],
      [
        "ulte",
        -9.571497731118923
      ],
      [
        "elui-ci",
        -9.572681094001668
      ],
      [
        "▁ñar",
        -9.57337330782834
      ],
      [
        "▁Jée",
        -9.574513106463195
      ],
      [
        "▁bo",
        -9.574652653678383
      ],
      [
        "uufu",
        -9.578672625522795
      ],
      [
        "ord",
        -9.580089563758879
      ],
      [
        "▁xamul",
        -9.581411603591487
      ],
      [
        "'aumône",
        -9.583746617203056
      ],
      [
        "▁sii",
        -9.58379780278388
      ],
      [
        "eut",
        -9.584719208018473
      ],
      [
        "bëgg",
        -9.587731547932727
      ],
      [
        "▁x",
        -9.589023750972615
      ],
      [
        "▁Nee",
        -9.589101925286688
      ],
      [
        "ajoo",
        -9.589337064612597
      ],
      [
        "▁fad",
        -9.594495271654766
      ],
      [
        "ki",
        -9.595241009816837
      ],
      [
        "ef",
        -9.59629382978291
      ],
      [
        "▁bala",
        -9.59772868818643
      ],
      [
        "▁s'i",
        -9.600418467762829
      ],
      [
        "andi",
        -9.601838022488641
      ],
      [
        "ta",
        -9.603601927049498
      ],
      [
        "entre",
        -9.613585437259985
      ],
      [
        "avait",
        -9.615602032883087
      ],
      [
        "▁ñe",
        -9.616640854704192
      ],
      [
        "olo",
        -9.617274253280534
      ],
      [
        "▁gisóo",
        -9.621742111957833
      ],
      [
        "off",
        -9.622579396115698
      ],
      [
        "▁jo",
        -9.62688654818277
      ],
      [
        "aat",
        -9.626967748331488
      ],
      [
        "-lu",
        -9.627246175636959
      ],
      [
        "▁pl",
        -9.627677465578557
      ],
      [
        "nu",
        -9.633520070630071
      ],
      [
        "man",
        -9.63466574800598
      ],
      [
        "▁bant",
        -9.635536342183281
      ],
      [
        "▁fus",
        -9.636372895682921
      ],
      [
        "tën",
        -9.63658362952113
      ],
      [
        "son",
        -9.637023740428067
      ],
      [
        "couv",
        -9.637596812455898
      ],
      [
        "fic",
        -9.637673577632858
      ],
      [
        "alal",
        -9.640963721993867
      ],
      [
        "gam",
        -9.645024018738496
      ],
      [
        "nañu",
        -9.648819354502868
      ],
      [
        "dans",
        -9.65128771019485
      ],
      [
        "▁abs",
        -9.652094196806642
      ],
      [
        "▁mir",
        -9.65349222720614
      ],
      [
        "ange",
        -9.654470922400279
      ],
      [
        "▁and",
        -9.656325431900072
      ],
      [
        "▁nde",
        -9.656703423629192
      ],
      [
        "óom",
        -9.656723556048197
      ],
      [
        "▁mil",
        -9.656877966516188
      ],
      [
        "▁donner",
        -9.657322214998143
      ],
      [
        "dab",
        -9.659652560578875
      ],
      [
        "ooñii",
        -9.659793274102245
      ],
      [
        "▁Nag",
        -9.66048884233187
      ],
      [
        "oolal",
        -9.66194156961253
      ],
      [
        "õ-daõ",
        -9.66446399614957
      ],
      [
        "▁d'o",
        -9.665212144012715
      ],
      [
        "été",
        -9.666470759890764
      ],
      [
        "ooy",
        -9.667869817959394
      ],
      [
        "der",
        -9.669695337921816
      ],
      [
        "▁dend",
        -9.670692087267437
      ],
      [
        "▁ru",
        -9.67112900558165
      ],
      [
        "▁causer",
        -9.67524896708866
      ],
      [
        "▁sout",
        -9.675372706935981
      ],
      [
        "war",
        -9.679247664293317
      ],
      [
        "▁waaj",
        -9.68085983794358
      ],
      [
        "▁dag",
        -9.682007860018935
      ],
      [
        "▁sage",
        -9.682258628182892
      ],
      [
        "▁haute",
        -9.68294545364552
      ],
      [
        "ra",
        -9.687081653075012
      ],
      [
        "▁See",
        -9.688037427181428
      ],
      [
        "▁pré",
        -9.688802476713114
      ],
      [
        "autrefois",
        -9.689900013327758
      ],
      [
        "▁parla",
        -9.692414822907184
      ],
      [
        "propr",
        -9.693054979010707
      ],
      [
        "õx",
        -9.695542333671087
      ],
      [
        "ande",
        -9.701144751270105
      ],
      [
        "irai",
        -9.702044197419596
      ],
      [
        "ti",
        -9.703336346828879
      ],
      [
        "heur",
        -9.710067459857013
      ],
      [
        "apprécie",
        -9.71202723337788
      ],
      [
        "orte",
        -9.715218187893345
      ],
      [
        "▁wo",
        -9.716523623092009
      ],
      [
        "fu",
        -9.718349867409726
      ],
      [
        "plat",
        -9.721117503716654
      ],
      [
        "bien",
        -9.722100479166798
      ],
      [
        "rveille",
        -9.722967386589422
      ],
      [
        "homme",
        -9.723418863811187
      ],
      [
        "▁ceet",
        -9.728503197353467
      ],
      [
        "car",
        -9.730927008295575
      ],
      [
        "kër",
        -9.732767784325812
      ],
      [
        "aaye",
        -9.733564184060384
      ],
      [
        "▁entra",
        -9.734081003480949
      ],
      [
        "onte",
        -9.740985330823765
      ],
      [
        "mo",
        -9.74139244838226
      ],
      [
        "ba",
        -9.742095128911313
      ],
      [
        "ignore",
        -9.742734023405058
      ],
      [
        "▁waar",
        -9.744550817498544
      ],
      [
        "▁nu",
        -9.746827650070127
      ],
      [
        "ns",
        -9.75133854963197
      ],
      [
        "'en",
        -9.752560770444772
      ],
      [
        "étend",
        -9.757851524605918
      ],
      [
        "▁bouche",
        -9.76320010981885
      ],
      [
        "▁wàt",
        -9.765654364299765
      ],
      [
        "ñj",
        -9.768382953197454
      ],
      [
        "erre",
        -9.768885848473204
      ],
      [
        "long",
        -9.771125539969082
      ],
      [
        "▁cherch",
        -9.772707342081237
      ],
      [
        "añc",
        -9.77280011494632
      ],
      [
        "wuñu",
        -9.775550265753097
      ],
      [
        "▁retrou",
        -9.775911434266408
      ],
      [
        "offe",
        -9.777709334463822
      ],
      [
        "▁seme",
        -9.77805643610011
      ],
      [
        "▁vend",
        -9.778135063856944
      ],
      [
        "part",
        -9.779604052248144
      ],
      [
        "ntu",
        -9.780584640505756
      ],
      [
        "▁dam",
        -9.781723461461189
      ],
      [
        "▁fat",
        -9.784187679939073
      ],
      [
        "▁tiit",
        -9.786146293981657
      ],
      [
        "sonne",
        -9.786292899321506
      ],
      [
        "i.",
        -9.790515698483086
      ],
      [
        "▁pr",
        -9.791025002764943
      ],
      [
        "bal",
        -9.793549883769344
      ],
      [
        "▁fro",
        -9.796019008966452
      ],
      [
        "acc",
        -9.796191929062468
      ],
      [
        "▁dép",
        -9.8005350146244
      ],
      [
        "bokk",
        -9.801623119620315
      ],
      [
        "ubb",
        -9.802202789273545
      ],
      [
        "õg",
        -9.802241093535212
      ],
      [
        "▁bà",
        -9.803811677500269
      ],
      [
        "▁mos",
        -9.806716248073194
      ],
      [
        "▁aba",
        -9.812039898162723
      ],
      [
        "▁laõ",
        -9.812128356652995
      ],
      [
        "▁Nu",
        -9.812858186534363
      ],
      [
        "▁ratt",
        -9.813015366349731
      ],
      [
        "eux-ci",
        -9.814767494776342
      ],
      [
        "-to",
        -9.817794599453537
      ],
      [
        "▁all",
        -9.821048847992948
      ],
      [
        "▁Ñaa",
        -9.82131176777279
      ],
      [
        "illes",
        -9.8238625060369
      ],
      [
        "nit",
        -9.827137882643406
      ],
      [
        "-même",
        -9.830507969390062
      ],
      [
        "▁Ko",
        -9.830814814948349
      ],
      [
        "cun",
        -9.83544569148074
      ],
      [
        "opp",
        -9.837071308690534
      ],
      [
        "rain",
        -9.839999782345645
      ],
      [
        "nement",
        -9.840514983603935
      ],
      [
        "▁fee",
        -9.844332968727217
      ],
      [
        "ie",
        -9.845559341221039
      ],
      [
        "▁nan",
        -9.849165510230911
      ],
      [
        "▁xama",
        -9.851999068333898
      ],
      [
        "itu",
        -9.854102772816926
      ],
      [
        "▁danse",
        -9.854179128527143
      ],
      [
        "▁õgeen.",
        -9.854248936182882
      ],
      [
        "ttache",
        -9.855479153290077
      ],
      [
        "iè",
        -9.855696358298168
      ],
      [
        "▁cons",
        -9.858107304656452
      ],
      [
        "▁sais",
        -9.858645906208832
      ],
      [
        "eeku",
        -9.859007763733002
      ],
      [
        "ches",
        -9.860174875600112
      ],
      [
        "▁parole",
        -9.867398177172968
      ],
      [
        "hi",
        -9.87071001162648
      ],
      [
        "õ-raõ",
        -9.873158606040326
      ],
      [
        "▁saw",
        -9.874075391216401
      ],
      [
        "▁év",
        -9.87511848592508
      ],
      [
        "yaal",
        -9.879848122806461
      ],
      [
        "onvers",
        -9.886482029480005
      ],
      [
        "▁march",
        -9.886806867472655
      ],
      [
        "be",
        -9.887306594746358
      ],
      [
        "ê",
        -9.887660740773464
      ],
      [
        "▁wal",
        -9.891210830483262
      ],
      [
        "sax",
        -9.89488049102118
      ],
      [
        "wé",
        -9.895236443281092
      ],
      [
        "▁Foof",
        -9.898350197951572
      ],
      [
        "▁connaisse",
        -9.899525817571412
      ],
      [
        "nir",
        -9.901030127380968
      ],
      [
        "▁ob",
        -9.901370283237766
      ],
      [
        "▁écla",
        -9.901565436784345
      ],
      [
        "inter",
        -9.901624544559462
      ],
      [
        "▁n'ir",
        -9.903324197539279
      ],
      [
        "▁arriv",
        -9.904431927644993
      ],
      [
        "▁rép",
        -9.905629362543724
      ],
      [
        "▁gaynd",
        -9.906744251745462
      ],
      [
        "▁viendr",
        -9.907627960832475
      ],
      [
        "▁file",
        -9.908586557730414
      ],
      [
        "▁õgoo",
        -9.908996967785399
      ],
      [
        "▁trouve",
        -9.910258665811625
      ],
      [
        "arab",
        -9.911370351080844
      ],
      [
        "▁disp",
        -9.911634484063338
      ],
      [
        "▁voya",
        -9.911833894948241
      ],
      [
        "▁brave",
        -9.91266873685861
      ],
      [
        "▁pri",
        -9.912945235031513
      ],
      [
        "▁qu'e",
        -9.919083857434549
      ],
      [
        "▁go",
        -9.921094587545443
      ],
      [
        "▁bëggu",
        -9.922016982777945
      ],
      [
        "kkan",
        -9.922564221171008
      ],
      [
        "▁partent",
        -9.924954382346623
      ],
      [
        "vu",
        -9.92507504265617
      ],
      [
        "rappe",
        -9.925791120615202
      ],
      [
        "bre",
        -9.925973764141721
      ],
      [
        "▁dañ",
        -9.926912305145692
      ],
      [
        "▁génér",
        -9.927263475871127
      ],
      [
        "rica",
        -9.928545543951653
      ],
      [
        "wande",
        -9.931921988825332
      ],
      [
        "ivre",
        -9.933287694181418
      ],
      [
        "▁descend",
        -9.933310723598954
      ],
      [
        "É",
        -9.933648451203698
      ],
      [
        "▁Niominka.",
        -9.933648451242776
      ],
      [
        "▁apiko-",
        -9.933648452925386
      ],
      [
        "▁bëkknéeg",
        -9.933648512920957
      ],
      [
        "▁yalwaan",
        -9.933648731066302
      ],
      [
        "▁médian",
        -9.93364879615757
      ],
      [
        "▁respire",
        -9.933648905274952
      ],
      [
        "▁émigr",
        -9.933649783942416
      ],
      [
        "▁résidu",
        -9.933649824035308
      ],
      [
        "▁brûl",
        -9.933649862250066
      ],
      [
        "▁contact",
        -9.933650458240955
      ],
      [
        "▁gaññ",
        -9.933650731522855
      ],
      [
        "▁compagn",
        -9.933650768994422
      ],
      [
        "▁sablonneu",
        -9.933652530913031
      ],
      [
        "▁turbulen",
        -9.933653258723641
      ],
      [
        "▁apico",
        -9.933653434245073
      ],
      [
        "▁wërsëg",
        -9.933654146487186
      ],
      [
        "Mark",
        -9.933654743691413
      ],
      [
        "▁Dites-l",
        -9.933658157935863
      ],
      [
        "▁xarxarle",
        -9.933658657219624
      ],
      [
        "▁écorc",
        -9.933658908938808
      ],
      [
        "nnobli",
        -9.933660924394967
      ],
      [
        "▁jeûne",
        -9.933661853406402
      ],
      [
        "▁figure",
        -9.933662421172222
      ],
      [
        "▁fattalik",
        -9.933663980089865
      ],
      [
        "▁warugar",
        -9.933667729902346
      ],
      [
        "▁construct",
        -9.933674321697792
      ],
      [
        "impolitesse",
        -9.933676392904538
      ],
      [
        "▁limite",
        -9.933684468605996
      ],
      [
        "▁lâche",
        -9.933688474254637
      ],
      [
        "▁crisp",
        -9.933691867656684
      ],
      [
        "▁maccaat",
        -9.933703336353986
      ],
      [
        "▁propos",
        -9.933715252804703
      ],
      [
        "▁yeggee",
        -9.933731321178259
      ],
      [
        "▁déchi",
        -9.93374837272696
      ],
      [
        "▁portion",
        -9.933765163235583
      ],
      [
        "▁wecci",
        -9.933766272007068
      ],
      [
        "▁excessive",
        -9.933781835916772
      ],
      [
        "▁s'assi",
        -9.933781999769566
      ],
      [
        "▁soleil",
        -9.93379808645254
      ],
      [
        "▁pioche",
        -9.933800999191085
      ],
      [
        "▁L'endroit",
        -9.933810072339183
      ],
      [
        "▁droit",
        -9.933818391421573
      ],
      [
        "▁guéri",
        -9.933822470528206
      ],
      [
        "▁weddi",
        -9.933885714300153
      ],
      [
        "▁mutuelle",
        -9.933905250296174
      ],
      [
        "▁Dellu",
        -9.933934712578564
      ],
      [
        "▁savant",
        -9.933965795228568
      ],
      [
        "▁redress",
        -9.93396780995976
      ],
      [
        "▁Wutël",
        -9.93399702759253
      ],
      [
        "▁gabb",
        -9.934005069663446
      ],
      [
        "▁descendra",
        -9.934005739400323
      ],
      [
        "▁Ibra",
        -9.934087577002293
      ],
      [
        "▁bënn",
        -9.934126005008492
      ],
      [
        "▁j'apprécie",
        -9.934152428726257
      ],
      [
        "▁Musta",
        -9.934154913224816
      ],
      [
        "▁étudi",
        -9.934223255559939
      ],
      [
        "▁d'ét",
        -9.934232015136391
      ],
      [
        "à-bas",
        -9.93426963110632
      ],
      [
        "▁simule",
        -9.934352376160575
      ],
      [
        "▁désert",
        -9.934356333867454
      ],
      [
        "▁jéex",
        -9.934554098244758
      ],
      [
        "lle",
        -9.934609963865443
      ],
      [
        "▁vous-même",
        -9.934648725755167
      ],
      [
        "ovin",
        -9.93468042035989
      ],
      [
        "▁moi-même",
        -9.934703380402313
      ],
      [
        "▁xool",
        -9.93473650539122
      ],
      [
        "▁coppeeku",
        -9.934815453226797
      ],
      [
        "▁ganaar",
        -9.934822321139896
      ],
      [
        "▁soxor",
        -9.93488694614745
      ],
      [
        "▁toi-même",
        -9.934892569691193
      ],
      [
        "▁s'asse",
        -9.935005896942323
      ],
      [
        "▁ndogal",
        -9.935257831937895
      ],
      [
        "▁présen",
        -9.935272759335488
      ],
      [
        "▁L'autre",
        -9.935358149041631
      ],
      [
        "▁année",
        -9.935396979564192
      ],
      [
        "▁tayel",
        -9.93568474791742
      ],
      [
        "▁vien",
        -9.935707307290736
      ],
      [
        "▁raison",
        -9.935781006117987
      ],
      [
        "▁cohabitent",
        -9.935951124192872
      ],
      [
        "▁s'ex",
        -9.93602877122898
      ],
      [
        "▁Lebou",
        -9.936155009766798
      ],
      [
        "▁nëb",
        -9.93638241495749
      ],
      [
        "▁sëg",
        -9.93675694576196
      ],
      [
        "▁foofile",
        -9.936805372727926
      ],
      [
        "▁yeg",
        -9.936937244277912
      ],
      [
        "▁segg",
        -9.936964426501586
      ],
      [
        "▁certainement",
        -9.937057884336085
      ],
      [
        "▁doomam",
        -9.937081847093586
      ],
      [
        "▁concurrence",
        -9.937102290798256
      ],
      [
        "▁gro",
        -9.937120276257618
      ],
      [
        "gëñ",
        -9.93712563617517
      ],
      [
        "▁t'aurai",
        -9.937155746332236
      ],
      [
        "▁s'exil",
        -9.937194929968836
      ],
      [
        "▁renvers",
        -9.937370587157508
      ],
      [
        "▁affi",
        -9.937433132815693
      ],
      [
        "▁patien",
        -9.937576406558573
      ],
      [
        "▁ardo",
        -9.937584253691792
      ],
      [
        "▁poli",
        -9.937873729303675
      ],
      [
        "▁dawul",
        -9.93808793855068
      ],
      [
        "▁raf",
        -9.938269468087483
      ],
      [
        "▁sortie",
        -9.938475526302764
      ],
      [
        "▁genre",
        -9.93866300110956
      ],
      [
        "cider",
        -9.938699558796062
      ],
      [
        "rrière",
        -9.938768144871556
      ],
      [
        "▁bris",
        -9.939286195758635
      ],
      [
        "▁souffle",
        -9.939503735720379
      ],
      [
        "▁lib",
        -9.939561370982918
      ],
      [
        "▁gosse",
        -9.93959933668832
      ],
      [
        "▁travailler",
        -9.939677145221063
      ],
      [
        "▁tâche",
        -9.940328226935602
      ],
      [
        "▁s'épan",
        -9.940616631365419
      ],
      [
        "▁ricane",
        -9.94096020844208
      ],
      [
        "▁Kaay",
        -9.941095441410777
      ],
      [
        "▁méchan",
        -9.941208862509148
      ],
      [
        "▁yéen",
        -9.941241071600082
      ],
      [
        "▁bouger",
        -9.941481423446675
      ],
      [
        "▁s'enf",
        -9.941864696404245
      ],
      [
        "gor",
        -9.942022449939472
      ],
      [
        "▁dikk",
        -9.94236691050033
      ],
      [
        "▁travaillait",
        -9.942374992183208
      ],
      [
        "▁avare",
        -9.94240396123233
      ],
      [
        "▁n'allai",
        -9.942676675355026
      ],
      [
        "écéd",
        -9.942778167979485
      ],
      [
        "▁samp",
        -9.94291510548973
      ],
      [
        "▁liggéeykat",
        -9.943165461276035
      ],
      [
        "▁wenn",
        -9.943261039727373
      ],
      [
        "ëyn",
        -9.943267035761732
      ],
      [
        "▁avant",
        -9.94338431862399
      ],
      [
        "▁ouvr",
        -9.943715035688863
      ],
      [
        "▁noyy",
        -9.943738615884698
      ],
      [
        "▁partons",
        -9.94397039249724
      ],
      [
        "ière-",
        -9.944164453471572
      ],
      [
        "▁vertu",
        -9.944325849316659
      ],
      [
        "▁peut",
        -9.944688148645744
      ],
      [
        "paci",
        -9.944846786745547
      ],
      [
        "époque",
        -9.945289158076758
      ],
      [
        "▁xaritam",
        -9.945344623498556
      ],
      [
        "▁cemp",
        -9.945427977426862
      ],
      [
        "▁Amin",
        -9.945971387306667
      ],
      [
        "ooku",
        -9.946828639247135
      ],
      [
        "affaire",
        -9.947045239662447
      ],
      [
        "▁jëment",
        -9.94733668459052
      ],
      [
        "ersonne",
        -9.947415479319824
      ],
      [
        "▁sop",
        -9.947761065448049
      ],
      [
        "tifie",
        -9.948141930479247
      ],
      [
        "romp",
        -9.948348498972207
      ],
      [
        "▁voulez",
        -9.948520504378594
      ],
      [
        "▁ab",
        -9.948564043199248
      ],
      [
        "▁dindi",
        -9.94864865282685
      ],
      [
        "mp",
        -9.948731329385216
      ],
      [
        "âg",
        -9.948877391426272
      ],
      [
        "xaw",
        -9.949395964100297
      ],
      [
        "▁xajj",
        -9.949482468536415
      ],
      [
        "▁jour",
        -9.94995763507008
      ],
      [
        "ogal",
        -9.950344426880248
      ],
      [
        "▁kanda",
        -9.950379530530533
      ],
      [
        "▁lieux",
        -9.950786948657258
      ],
      [
        "▁bëtt",
        -9.952683197362767
      ],
      [
        "pas",
        -9.953833137794993
      ],
      [
        "▁tra",
        -9.953982288748364
      ],
      [
        "▁jusqu'ici",
        -9.954083987433593
      ],
      [
        "▁série",
        -9.955195607097593
      ],
      [
        "▁élu",
        -9.955389219213243
      ],
      [
        "▁wol",
        -9.956237984476331
      ],
      [
        "▁arg",
        -9.957053723761938
      ],
      [
        "▁nuy",
        -9.957121195885044
      ],
      [
        "▁disc",
        -9.957346773639518
      ],
      [
        "dresse",
        -9.958277989032867
      ],
      [
        "ttends",
        -9.958287222885787
      ],
      [
        "▁vis",
        -9.958486712696544
      ],
      [
        "▁àndal",
        -9.958564770437246
      ],
      [
        "▁Daawul",
        -9.958685732125526
      ],
      [
        "▁envie",
        -9.958832140367273
      ],
      [
        "▁Leur",
        -9.959151987493467
      ],
      [
        "▁yab",
        -9.959834537574826
      ],
      [
        "▁goo",
        -9.95983798554438
      ],
      [
        "spér",
        -9.959861226271887
      ],
      [
        "▁acid",
        -9.962800294357564
      ],
      [
        "▁fatta",
        -9.96285763141914
      ],
      [
        "▁tamm",
        -9.964022072979159
      ],
      [
        "otti",
        -9.964883585950155
      ],
      [
        "▁mpa",
        -9.965010693572353
      ],
      [
        "bu",
        -9.965346292707588
      ],
      [
        "▁allez",
        -9.966444076694959
      ],
      [
        "▁répét",
        -9.966760870886224
      ],
      [
        "▁aucun",
        -9.96694466076451
      ],
      [
        "▁seri",
        -9.969079551783205
      ],
      [
        "▁Yooyu",
        -9.969886362770557
      ],
      [
        "▁tuuru",
        -9.9702635202818
      ],
      [
        "jambe",
        -9.97127012037903
      ],
      [
        "▁braves",
        -9.97134238029375
      ],
      [
        "▁muñ",
        -9.971395241349002
      ],
      [
        "▁gaal",
        -9.971621910166714
      ],
      [
        "▁lionne",
        -9.971677038657857
      ],
      [
        "lott",
        -9.972248634515172
      ],
      [
        "▁jours",
        -9.973680929287603
      ],
      [
        "▁bande",
        -9.974949118039406
      ],
      [
        "▁koo",
        -9.975465879587398
      ],
      [
        "nstru",
        -9.976011160522969
      ],
      [
        "▁ado",
        -9.9763968521983
      ],
      [
        "▁pair",
        -9.976538754477515
      ],
      [
        "▁soppe",
        -9.97666468759444
      ],
      [
        "▁waru",
        -9.976743216382362
      ],
      [
        "▁doyu",
        -9.977529060989102
      ],
      [
        "▁partent.",
        -9.979264610437765
      ],
      [
        "ëlé",
        -9.980110342912987
      ],
      [
        "▁yaay",
        -9.980358698739167
      ],
      [
        "▁morts",
        -9.981153366959587
      ],
      [
        "qu",
        -9.98162707714556
      ],
      [
        "▁par-là",
        -9.981657296076104
      ],
      [
        "▁wàll",
        -9.98199354327291
      ],
      [
        "aa",
        -9.982304803226357
      ],
      [
        "▁tooy",
        -9.982594146199805
      ],
      [
        "dem",
        -9.983462942065689
      ],
      [
        "▁vieille",
        -9.9837958739121
      ],
      [
        "inq",
        -9.983983812719213
      ],
      [
        "▁l'ét",
        -9.984002592886096
      ],
      [
        "▁envo",
        -9.984103937626317
      ],
      [
        "▁soppal",
        -9.984106055735733
      ],
      [
        "▁ceux",
        -9.984626744376886
      ],
      [
        "▁Dent",
        -9.986038992577525
      ],
      [
        "▁fût",
        -9.98605074383443
      ],
      [
        "oyager",
        -9.986604081279829
      ],
      [
        "▁indig",
        -9.987300614800107
      ],
      [
        "pho",
        -9.988060873547322
      ],
      [
        "àll",
        -9.988088893124491
      ],
      [
        "▁pur",
        -9.988308349919796
      ],
      [
        "▁ma.",
        -9.989089668495978
      ],
      [
        "▁voit",
        -9.989550371013772
      ],
      [
        "▁bë",
        -9.99095627557208
      ],
      [
        "▁foo",
        -9.991008048532501
      ],
      [
        "▁Pr",
        -9.991418714603991
      ],
      [
        "ëbb",
        -9.992885832654604
      ],
      [
        "▁ailleurs",
        -9.993162942812816
      ],
      [
        "ec",
        -9.993844876474688
      ],
      [
        "▁mer",
        -9.995801806230931
      ],
      [
        "▁jale",
        -9.99739812594996
      ],
      [
        "▁gar",
        -9.998608811580773
      ],
      [
        "▁Bë",
        -10.001261037862696
      ],
      [
        "rage",
        -10.00209917203818
      ],
      [
        "▁bëggé",
        -10.002403085093533
      ],
      [
        "▁ëñ",
        -10.002465025320792
      ],
      [
        "▁xew",
        -10.004716568636022
      ],
      [
        "▁Xa",
        -10.004778235989516
      ],
      [
        "èv",
        -10.004879399752353
      ],
      [
        "▁Bon",
        -10.00654818366328
      ],
      [
        "awbe",
        -10.007587380990227
      ],
      [
        "▁livres",
        -10.007898405042717
      ],
      [
        "ni",
        -10.008838272719371
      ],
      [
        "cond",
        -10.01031624658601
      ],
      [
        "rdo",
        -10.010553242023601
      ],
      [
        "urus",
        -10.010764796209346
      ],
      [
        "▁rafetul",
        -10.010832487768198
      ],
      [
        "▁bër",
        -10.011197219914203
      ],
      [
        "▁yi.",
        -10.011470837464266
      ],
      [
        "dd",
        -10.011640932913233
      ],
      [
        "▁jambuur",
        -10.013323930222866
      ],
      [
        "li",
        -10.013402671138973
      ],
      [
        "▁waalo",
        -10.015488653076257
      ],
      [
        "ès",
        -10.016304035354878
      ],
      [
        "bóol",
        -10.016568723028858
      ],
      [
        "▁tam",
        -10.016815760040842
      ],
      [
        "▁ép",
        -10.016906800747755
      ],
      [
        "▁oos",
        -10.017864352988102
      ],
      [
        "▁mort",
        -10.02069408638313
      ],
      [
        "mar",
        -10.022563073012869
      ],
      [
        "trer",
        -10.023228107237937
      ],
      [
        "▁wuut",
        -10.023321925077218
      ],
      [
        "▁õgë",
        -10.023896198823255
      ],
      [
        "▁t'e",
        -10.023967235164655
      ],
      [
        "xam",
        -10.025561515940687
      ],
      [
        "iggéeykat",
        -10.025917271226335
      ],
      [
        "lóo",
        -10.031707653536486
      ],
      [
        "▁reeaa",
        -10.032714526486435
      ],
      [
        "▁Leb",
        -10.03362125902041
      ],
      [
        "▁desquel",
        -10.034108159180784
      ],
      [
        "▁Be",
        -10.034971772730865
      ],
      [
        "cien",
        -10.03791613162489
      ],
      [
        "odd",
        -10.038054562948906
      ],
      [
        "▁wut",
        -10.03851314928529
      ],
      [
        "ine",
        -10.040216118644297
      ],
      [
        "eex",
        -10.040834484687421
      ],
      [
        "▁Sen",
        -10.042012382597797
      ],
      [
        "▁colle",
        -10.042698230594635
      ],
      [
        "wu",
        -10.043500278527027
      ],
      [
        "▁Ñen",
        -10.0445897450997
      ],
      [
        "urre",
        -10.04617292072099
      ],
      [
        "▁éc",
        -10.047882214682689
      ],
      [
        "▁vil",
        -10.048447350322187
      ],
      [
        "ërëm",
        -10.049585032783387
      ],
      [
        "óox",
        -10.052400202126206
      ],
      [
        "▁xal",
        -10.052529067470793
      ],
      [
        "▁fal",
        -10.053826211340674
      ],
      [
        "▁voici.",
        -10.054696484279551
      ],
      [
        "▁donn",
        -10.054964601245558
      ],
      [
        "▁wi",
        -10.056017965201011
      ],
      [
        "hme",
        -10.05640907935598
      ],
      [
        "rme",
        -10.057500911532658
      ],
      [
        "▁nëbb",
        -10.059761376423383
      ],
      [
        "éer",
        -10.063936406119833
      ],
      [
        "si",
        -10.066207782149116
      ],
      [
        "tière",
        -10.070037776583419
      ],
      [
        "rç",
        -10.071078558692314
      ],
      [
        "▁fot",
        -10.074299276096292
      ],
      [
        "▁coy",
        -10.075527877127804
      ],
      [
        "ause",
        -10.077940254658621
      ],
      [
        "ers",
        -10.079145446626043
      ],
      [
        "▁toogu",
        -10.0802356933259
      ],
      [
        "▁dar",
        -10.084453430532413
      ],
      [
        "épuis",
        -10.086902286210575
      ],
      [
        "du",
        -10.08762359165972
      ],
      [
        "édu",
        -10.090291305990954
      ],
      [
        "▁l'as",
        -10.092841734118693
      ],
      [
        "af",
        -10.093339676118939
      ],
      [
        "▁xañ",
        -10.094923492977937
      ],
      [
        "'étudiant",
        -10.095382787473682
      ],
      [
        "▁Bule",
        -10.096541306176302
      ],
      [
        "if",
        -10.097515462053119
      ],
      [
        "▁seeta",
        -10.099467200896996
      ],
      [
        "▁noo",
        -10.10163900093784
      ],
      [
        "▁bul",
        -10.10168727438334
      ],
      [
        "raayim",
        -10.103170697672812
      ],
      [
        "▁née",
        -10.104500164252073
      ],
      [
        "▁lé",
        -10.105102947365507
      ],
      [
        "ages",
        -10.105150406625299
      ],
      [
        "▁abal",
        -10.10560364053341
      ],
      [
        "iche",
        -10.105693691964898
      ],
      [
        "▁Té",
        -10.10597190822556
      ],
      [
        "mm",
        -10.106267055730164
      ],
      [
        "ëg",
        -10.107621909658969
      ],
      [
        "lui",
        -10.10864498265445
      ],
      [
        "▁duggo",
        -10.10925364790194
      ],
      [
        "gii",
        -10.110337540742385
      ],
      [
        "▁étend",
        -10.112578569837453
      ],
      [
        "▁travaill",
        -10.11424213264832
      ],
      [
        "aisse",
        -10.11548766259549
      ],
      [
        "▁chang",
        -10.117172150267676
      ],
      [
        "▁dée",
        -10.121829048369424
      ],
      [
        "uter",
        -10.124131638183362
      ],
      [
        "tant",
        -10.127033901398107
      ],
      [
        "▁ñuu",
        -10.131871708165066
      ],
      [
        "aison",
        -10.132269066326375
      ],
      [
        "▁dem-",
        -10.132596290130017
      ],
      [
        "▁él",
        -10.133650120951824
      ],
      [
        "'impo",
        -10.134137644198091
      ],
      [
        "trait",
        -10.13431593800845
      ],
      [
        "▁voie",
        -10.136007965377669
      ],
      [
        "▁voulai",
        -10.136118825146681
      ],
      [
        "▁reveni",
        -10.139535805247386
      ],
      [
        "▁meneen",
        -10.139542850868631
      ],
      [
        "efois",
        -10.140865140472378
      ],
      [
        "õõ",
        -10.14187481343374
      ],
      [
        "longe",
        -10.144477331160562
      ],
      [
        "▁tere",
        -10.145607776150868
      ],
      [
        "▁pui",
        -10.148436436827813
      ],
      [
        "cet",
        -10.149397674646503
      ],
      [
        "▁Set",
        -10.151537340731188
      ],
      [
        "▁ñooñe",
        -10.15222240123035
      ],
      [
        "▁jiit",
        -10.156790925239093
      ],
      [
        "▁Naa",
        -10.158127279003034
      ],
      [
        "▁feeñ",
        -10.158358919787775
      ],
      [
        "▁n'i",
        -10.162574760318808
      ],
      [
        "▁safa",
        -10.163926406356294
      ],
      [
        "ddu",
        -10.16514823312094
      ],
      [
        "ab",
        -10.166112738823076
      ],
      [
        "ati",
        -10.166270494849535
      ],
      [
        "▁Ceux-",
        -10.16664090879928
      ],
      [
        "▁reewa",
        -10.167009918706015
      ],
      [
        "▁tis",
        -10.167581680743188
      ],
      [
        "▁Yen",
        -10.168407689648443
      ],
      [
        "▁ignor",
        -10.169606632304856
      ],
      [
        "▁aille",
        -10.169819556415288
      ],
      [
        "▁ño",
        -10.170852184494706
      ],
      [
        "▁oblig",
        -10.173632904650914
      ],
      [
        "trouvé",
        -10.174023375161143
      ],
      [
        "cci",
        -10.176139022848792
      ],
      [
        "▁rentr",
        -10.177510140505742
      ],
      [
        "dence",
        -10.183438683242674
      ],
      [
        "abal",
        -10.186303030072846
      ],
      [
        "ent.",
        -10.18747896847304
      ],
      [
        "ool",
        -10.187583658576868
      ],
      [
        "'esp",
        -10.187844434033833
      ],
      [
        "ol",
        -10.189720003654427
      ],
      [
        "anche",
        -10.19093111479621
      ],
      [
        "▁gëmm",
        -10.191259750108403
      ],
      [
        "-le",
        -10.191477875464704
      ],
      [
        "axul",
        -10.193992467841683
      ],
      [
        "pt",
        -10.197187355816379
      ],
      [
        "veille",
        -10.199070924159193
      ],
      [
        "▁Ño",
        -10.199273565145784
      ],
      [
        "▁l'e",
        -10.19970464220119
      ],
      [
        "▁fou",
        -10.199709709256062
      ],
      [
        "ye",
        -10.1998985648557
      ],
      [
        "▁mu.",
        -10.201411286482774
      ],
      [
        "▁d'an",
        -10.201457660707074
      ],
      [
        "ppartien",
        -10.203270423533917
      ],
      [
        "lumine",
        -10.210342469815645
      ],
      [
        "qu'il",
        -10.212208649322166
      ],
      [
        "sul",
        -10.212737854187534
      ],
      [
        "onc",
        -10.214453342917373
      ],
      [
        "aññi",
        -10.217122891680969
      ],
      [
        "▁ri",
        -10.219875258899124
      ],
      [
        "▁rag",
        -10.223322850513936
      ],
      [
        "outer",
        -10.225279550629342
      ],
      [
        "▁ndo",
        -10.225609042492495
      ],
      [
        "▁pourri",
        -10.22618802088059
      ],
      [
        "presse",
        -10.231738814748859
      ],
      [
        "da",
        -10.23251848208241
      ],
      [
        "▁jiy",
        -10.23333223755127
      ],
      [
        "int",
        -10.234510466776465
      ],
      [
        "lan",
        -10.24232199698121
      ],
      [
        "▁Ai",
        -10.242675877306885
      ],
      [
        "▁ét",
        -10.251705828429138
      ],
      [
        "▁lal",
        -10.252569372173227
      ],
      [
        "▁õgii.",
        -10.253883708251033
      ],
      [
        "▁dent",
        -10.264450838541272
      ],
      [
        "tance",
        -10.264899547843703
      ],
      [
        "uy",
        -10.26908358170014
      ],
      [
        "▁Xan",
        -10.270873213629674
      ],
      [
        "étai",
        -10.274510837357711
      ],
      [
        "▁demi",
        -10.284429809398416
      ],
      [
        "tac",
        -10.290937976578316
      ],
      [
        "elqu'un",
        -10.295003197012772
      ],
      [
        "▁lama",
        -10.295593309725094
      ],
      [
        "▁sor",
        -10.297182190005998
      ],
      [
        "leurs",
        -10.301815073370204
      ],
      [
        "ke",
        -10.311041095992822
      ],
      [
        "▁s'é",
        -10.311795082778302
      ],
      [
        "▁demand",
        -10.312497282082195
      ],
      [
        "gir",
        -10.314904569767263
      ],
      [
        "J",
        -10.315306688702208
      ],
      [
        "ñoo",
        -10.315769173851749
      ],
      [
        "aye",
        -10.317934294477611
      ],
      [
        "sard",
        -10.319245239994366
      ],
      [
        "ttais",
        -10.319986909834135
      ],
      [
        "▁cl",
        -10.320582065275746
      ],
      [
        "▁Die",
        -10.321344593000678
      ],
      [
        "▁tawa",
        -10.321415166037005
      ],
      [
        "▁mar",
        -10.325020712514762
      ],
      [
        "app",
        -10.325603518920127
      ],
      [
        "t.",
        -10.326506669374174
      ],
      [
        "nee",
        -10.32782902930441
      ],
      [
        "▁off",
        -10.330572549445252
      ],
      [
        "▁ava",
        -10.331834257511668
      ],
      [
        "ng",
        -10.333181443428034
      ],
      [
        "ina",
        -10.336035978342151
      ],
      [
        "▁é",
        -10.336089587166086
      ],
      [
        "▁Mas",
        -10.33610673757798
      ],
      [
        "orsqu",
        -10.338461829640963
      ],
      [
        "ffi",
        -10.340113566665021
      ],
      [
        "▁tus",
        -10.34047525395838
      ],
      [
        "▁ñja",
        -10.343143456489573
      ],
      [
        "▁yooy",
        -10.344193415708611
      ],
      [
        "▁accompagn",
        -10.34569496198642
      ],
      [
        "▁len",
        -10.350014975509819
      ],
      [
        "▁jee",
        -10.350877832595833
      ],
      [
        "▁Laa",
        -10.352025259639207
      ],
      [
        "yi",
        -10.352670093075957
      ],
      [
        "▁poi",
        -10.356205367768942
      ],
      [
        "bili",
        -10.35638266126541
      ],
      [
        "▁daawu",
        -10.35775570084624
      ],
      [
        "gu",
        -10.359975975433736
      ],
      [
        "ard",
        -10.360035814471429
      ],
      [
        "▁Bëggu",
        -10.362610032687062
      ],
      [
        "squel",
        -10.363359612121407
      ],
      [
        "▁Yo",
        -10.363773991409424
      ],
      [
        "▁Che",
        -10.363798158452035
      ],
      [
        "▁accompagne",
        -10.364606521138548
      ],
      [
        "ind",
        -10.367160109180208
      ],
      [
        "ekk",
        -10.367360659102502
      ],
      [
        "▁vent",
        -10.370464876024167
      ],
      [
        "attrape",
        -10.370618258216014
      ],
      [
        "▁jaa",
        -10.370953190905318
      ],
      [
        "ndal",
        -10.372222753788547
      ],
      [
        "▁évi",
        -10.37608536575915
      ],
      [
        "met",
        -10.377444298297089
      ],
      [
        "▁ins",
        -10.378091074527779
      ],
      [
        "nation",
        -10.378774822539038
      ],
      [
        "▁tak",
        -10.38119340547179
      ],
      [
        "▁Don",
        -10.381883079049658
      ],
      [
        "▁ha",
        -10.383375793784596
      ],
      [
        "yul",
        -10.384364495704233
      ],
      [
        "▁couv",
        -10.385211816561753
      ],
      [
        "▁vac",
        -10.388824620660676
      ],
      [
        "▁jeu",
        -10.391952769027709
      ],
      [
        "ch",
        -10.394311892604374
      ],
      [
        "nter",
        -10.39772210820748
      ],
      [
        "▁lit",
        -10.403692565312259
      ],
      [
        "▁suc",
        -10.404558247207868
      ],
      [
        "▁bel",
        -10.405089019330935
      ],
      [
        "▁sép",
        -10.4062208697871
      ],
      [
        "quelle",
        -10.410551901072045
      ],
      [
        "▁lekka",
        -10.410873735570911
      ],
      [
        "▁noon",
        -10.414190786166845
      ],
      [
        "bon",
        -10.418178417438352
      ],
      [
        "▁wé",
        -10.419966959219476
      ],
      [
        "iy",
        -10.421873529536512
      ],
      [
        "-j",
        -10.422794678220534
      ],
      [
        "'euss",
        -10.430303008033494
      ],
      [
        "vers",
        -10.430565081102378
      ],
      [
        "▁suu",
        -10.43110733862908
      ],
      [
        "tóo",
        -10.432298149974926
      ],
      [
        "▁char",
        -10.432904971138084
      ],
      [
        "▁ng",
        -10.43452415263125
      ],
      [
        "▁pil",
        -10.444890534588051
      ],
      [
        "éeg",
        -10.445166445254243
      ],
      [
        "aõõ-",
        -10.446338591175003
      ],
      [
        "añ",
        -10.45427425528546
      ],
      [
        "▁Saa",
        -10.454859872805208
      ],
      [
        "▁vaca",
        -10.455811844182323
      ],
      [
        "▁lumi",
        -10.459131596946508
      ],
      [
        "▁Tug",
        -10.464328654691363
      ],
      [
        "▁jaõ",
        -10.466270027462478
      ],
      [
        "aumône",
        -10.466867402808218
      ],
      [
        "▁Gë",
        -10.468184728349533
      ],
      [
        "▁Celui-",
        -10.47252249066282
      ],
      [
        "dac",
        -10.472882628271748
      ],
      [
        "▁gëm",
        -10.473781273845594
      ],
      [
        "yóo",
        -10.473958992564647
      ],
      [
        "ari",
        -10.474195008182418
      ],
      [
        "nche",
        -10.474993555605943
      ],
      [
        "étour",
        -10.477905722501706
      ],
      [
        "tend",
        -10.479905596128049
      ],
      [
        "▁acc",
        -10.480742341635885
      ],
      [
        "▁plant",
        -10.483123909546823
      ],
      [
        "▁sawa",
        -10.484658204338762
      ],
      [
        "ger",
        -10.486229438118992
      ],
      [
        "veux",
        -10.488990434091821
      ],
      [
        "ins",
        -10.49222301705057
      ],
      [
        "▁or",
        -10.49764350496758
      ],
      [
        "▁rentre",
        -10.498588111195698
      ],
      [
        "▁bavarda",
        -10.500852227186678
      ],
      [
        "indé",
        -10.503991152754711
      ],
      [
        "▁jig",
        -10.510167708044298
      ],
      [
        "ah",
        -10.512217735105812
      ],
      [
        "llum",
        -10.513722517007395
      ],
      [
        "tt",
        -10.516805583446498
      ],
      [
        "▁ple",
        -10.52178909535134
      ],
      [
        "▁lo",
        -10.527669854239832
      ],
      [
        "▁nob",
        -10.531309608115063
      ],
      [
        "va",
        -10.53829718620472
      ],
      [
        "ima",
        -10.543084060577508
      ],
      [
        "▁passe",
        -10.545847377480525
      ],
      [
        "▁obligat",
        -10.551209039836325
      ],
      [
        "▁xaa",
        -10.554392197120952
      ],
      [
        "loo",
        -10.559371739571686
      ],
      [
        "muloo",
        -10.562034731052403
      ],
      [
        "ole",
        -10.563356076261615
      ],
      [
        "▁fab",
        -10.581914261876996
      ],
      [
        "▁ra",
        -10.582880749670045
      ],
      [
        "axkoon",
        -10.583802769770418
      ],
      [
        "▁Ve",
        -10.585257663756192
      ],
      [
        "▁õ",
        -10.585944664939396
      ],
      [
        "▁bouch",
        -10.594921099630483
      ],
      [
        "▁Voi",
        -10.595765694454613
      ],
      [
        "▁ni.",
        -10.597775721420977
      ],
      [
        "▁yoo",
        -10.59783772275865
      ],
      [
        "▁itt",
        -10.598322071426075
      ],
      [
        "luka",
        -10.598329880448311
      ],
      [
        "▁Ñoo",
        -10.598333460378088
      ],
      [
        "▁voi",
        -10.600137423501211
      ],
      [
        "tient",
        -10.60234470614641
      ],
      [
        "éem",
        -10.602354590052236
      ],
      [
        "▁l'ac",
        -10.605372198678998
      ],
      [
        "▁ter",
        -10.608605951834065
      ],
      [
        "▁sóo",
        -10.610111852482426
      ],
      [
        "étudiant",
        -10.610609190741439
      ],
      [
        "▁cult",
        -10.614525491955092
      ],
      [
        "▁Xarit",
        -10.61780638557918
      ],
      [
        "cous",
        -10.621180118660602
      ],
      [
        "ibbisi",
        -10.62202703471349
      ],
      [
        "woo",
        -10.622238815344192
      ],
      [
        "▁souhait",
        -10.623377317345772
      ],
      [
        "jal",
        -10.623853676592773
      ],
      [
        "▁ina",
        -10.626204761186774
      ],
      [
        "▁reven",
        -10.632986775188822
      ],
      [
        "mes",
        -10.636697885993266
      ],
      [
        "co",
        -10.639453967967507
      ],
      [
        "ayim",
        -10.639981861168069
      ],
      [
        "▁hon",
        -10.64140591198365
      ],
      [
        "daõ",
        -10.642317814503668
      ],
      [
        "▁m'as",
        -10.643418610390084
      ],
      [
        "ñca",
        -10.644923683562435
      ],
      [
        "▁taõ",
        -10.645845252679978
      ],
      [
        "▁sp",
        -10.646880399368836
      ],
      [
        "▁act",
        -10.647132469969689
      ],
      [
        "▁dég",
        -10.648722603411324
      ],
      [
        "argent",
        -10.648749573277176
      ],
      [
        "▁maigr",
        -10.650522268048219
      ],
      [
        "stin",
        -10.65126067410591
      ],
      [
        "wax",
        -10.65227898745942
      ],
      [
        "▁fà",
        -10.654778779947298
      ],
      [
        "▁lë",
        -10.659522546258795
      ],
      [
        "où",
        -10.66250651370274
      ],
      [
        "lop",
        -10.663301910198589
      ],
      [
        "oy",
        -10.664930336881692
      ],
      [
        "▁woow",
        -10.665092567903288
      ],
      [
        "aujourd'hui",
        -10.66635240786589
      ],
      [
        "▁brou",
        -10.666695047084541
      ],
      [
        "-r",
        -10.666975481277252
      ],
      [
        "▁Se",
        -10.667848204472248
      ],
      [
        "xal",
        -10.670184447220967
      ],
      [
        "daay",
        -10.670390464406875
      ],
      [
        "alé",
        -10.670849104207566
      ],
      [
        "iitël",
        -10.67486815418505
      ],
      [
        "onne",
        -10.675799324620815
      ],
      [
        "bbël",
        -10.678641308977465
      ],
      [
        "u.",
        -10.679737920556372
      ],
      [
        "ond",
        -10.68077860425929
      ],
      [
        "ëm",
        -10.682566586589063
      ],
      [
        "viendra",
        -10.68774118974064
      ],
      [
        "geen",
        -10.693239621392758
      ],
      [
        "enfant",
        -10.693805481268758
      ],
      [
        "▁sera",
        -10.694169701634612
      ],
      [
        "gis",
        -10.694608854140373
      ],
      [
        "mule",
        -10.696902490619669
      ],
      [
        "▁d'au",
        -10.698148883876408
      ],
      [
        "▁certain",
        -10.698924121683323
      ],
      [
        "'il",
        -10.699212980798272
      ],
      [
        "ñii",
        -10.69940906713139
      ],
      [
        "moon",
        -10.700657402098068
      ],
      [
        "yy",
        -10.70317322162395
      ],
      [
        "▁dig",
        -10.703792877601648
      ],
      [
        "▁reconn",
        -10.704302265773524
      ],
      [
        "aladie",
        -10.709871817044743
      ],
      [
        "gée",
        -10.712064623939964
      ],
      [
        "enie",
        -10.713284812494049
      ],
      [
        "eillir",
        -10.714447328688584
      ],
      [
        "inte",
        -10.716893695242732
      ],
      [
        "▁bule",
        -10.716995051618463
      ],
      [
        "bëggée",
        -10.717724100849683
      ],
      [
        "▁tag",
        -10.720110795853119
      ],
      [
        "▁laq",
        -10.720203026871497
      ],
      [
        "jaambur",
        -10.720703611779596
      ],
      [
        "ur.",
        -10.72081980868701
      ],
      [
        "▁yaak",
        -10.725840262604992
      ],
      [
        "▁aim",
        -10.728968806990384
      ],
      [
        "H",
        -10.73131145410602
      ],
      [
        "jeune",
        -10.732531299986999
      ],
      [
        "▁Est",
        -10.73395880362311
      ],
      [
        "um",
        -10.735884277417357
      ],
      [
        "a.",
        -10.737901404048607
      ],
      [
        "õgoo",
        -10.739043383938158
      ],
      [
        "pose",
        -10.742787149500659
      ],
      [
        "uel",
        -10.74344044181828
      ],
      [
        "demain",
        -10.74372862447828
      ],
      [
        "▁Re",
        -10.750125107228165
      ],
      [
        "ccu",
        -10.750774558071539
      ],
      [
        "att",
        -10.750822643308776
      ],
      [
        "wër",
        -10.752720886371922
      ],
      [
        "▁naa.",
        -10.752819790094696
      ],
      [
        "waalo",
        -10.754935114197435
      ],
      [
        "▁croya",
        -10.755294321977619
      ],
      [
        "defar",
        -10.756330078067144
      ],
      [
        "▁baa",
        -10.757728184125975
      ],
      [
        "▁fac",
        -10.758695428686746
      ],
      [
        "naiss",
        -10.760969913584843
      ],
      [
        "jambuur",
        -10.761691268356468
      ],
      [
        "xe",
        -10.764599412503374
      ],
      [
        "▁Ag",
        -10.766292303359819
      ],
      [
        "▁kat",
        -10.772434062056163
      ],
      [
        "â",
        -10.773391674189295
      ],
      [
        "marche",
        -10.774454272727358
      ],
      [
        "pter",
        -10.779625799640852
      ],
      [
        "xew",
        -10.78204308156335
      ],
      [
        "▁Ka",
        -10.782220082902697
      ],
      [
        "▁waxi",
        -10.783040821496826
      ],
      [
        "▁Xo",
        -10.785383900807613
      ],
      [
        "▁éta",
        -10.788380209110242
      ],
      [
        "më",
        -10.79539850639092
      ],
      [
        "contr",
        -10.796354656492538
      ],
      [
        "ape",
        -10.797344059048445
      ],
      [
        "cu",
        -10.799419565985533
      ],
      [
        "sage",
        -10.80012725220747
      ],
      [
        "▁wañ",
        -10.800799478170555
      ],
      [
        "rab",
        -10.801392044991669
      ],
      [
        "gg",
        -10.801648799338052
      ],
      [
        "ac",
        -10.806360821508306
      ],
      [
        "éralement",
        -10.806642427046109
      ],
      [
        "kaw",
        -10.808559343028785
      ],
      [
        "bul",
        -10.811959764852293
      ],
      [
        "rrache",
        -10.812348722125023
      ],
      [
        "indig",
        -10.813372711684544
      ],
      [
        "▁personn",
        -10.814409493929944
      ],
      [
        "▁kañ",
        -10.817678375807514
      ],
      [
        "accompagne",
        -10.818114026504059
      ],
      [
        "nañu.",
        -10.819713466594756
      ],
      [
        "▁refus",
        -10.821081790790574
      ],
      [
        "xor",
        -10.821303889647412
      ],
      [
        "vis",
        -10.821387330307369
      ],
      [
        "ô",
        -10.822275781124748
      ],
      [
        "▁lée",
        -10.822343375065511
      ],
      [
        "▁dis",
        -10.825850400773172
      ],
      [
        "▁ass",
        -10.829820935996871
      ],
      [
        "▁bât",
        -10.83242130747822
      ],
      [
        "▁fû",
        -10.833547149488638
      ],
      [
        "▁dés",
        -10.83466197408371
      ],
      [
        "jóo",
        -10.83685374879471
      ],
      [
        "illir",
        -10.839497433606688
      ],
      [
        "veni",
        -10.84145551572681
      ],
      [
        "ajj",
        -10.841991349427154
      ],
      [
        "quant",
        -10.842153393807445
      ],
      [
        "▁com",
        -10.843031590226166
      ],
      [
        "▁pardon",
        -10.843326213146751
      ],
      [
        "jud",
        -10.843553521366161
      ],
      [
        "ph",
        -10.847376723076355
      ],
      [
        "obligat",
        -10.847768005696649
      ],
      [
        "▁s'im",
        -10.848550900570281
      ],
      [
        "▁Fo",
        -10.850709405912475
      ],
      [
        "éen",
        -10.85343843807358
      ],
      [
        "kkat",
        -10.853774991966878
      ],
      [
        "auf",
        -10.854716768768608
      ],
      [
        "jiit",
        -10.85888698582299
      ],
      [
        "emuloo",
        -10.860004912505865
      ],
      [
        "boot",
        -10.860443004839345
      ],
      [
        "dé",
        -10.861707553173641
      ],
      [
        "épi",
        -10.861902768737934
      ],
      [
        "bë",
        -10.864179103413719
      ],
      [
        "▁pos",
        -10.866435023285169
      ],
      [
        "▁Ñé",
        -10.868849596272412
      ],
      [
        "jar",
        -10.870636576846273
      ],
      [
        "▁dan",
        -10.871574243149292
      ],
      [
        "▁Daawu",
        -10.873235629165384
      ],
      [
        "▁br",
        -10.875322503477546
      ],
      [
        "ww",
        -10.87883030762735
      ],
      [
        "▁uuf",
        -10.878888653744541
      ],
      [
        "▁Gisul",
        -10.880543637210518
      ],
      [
        "▁Né",
        -10.882186189761883
      ],
      [
        "▁s'e",
        -10.886239053574618
      ],
      [
        "yee",
        -10.889263207248096
      ],
      [
        "nif",
        -10.893624703445337
      ],
      [
        "rais",
        -10.893634838521393
      ],
      [
        "ggi",
        -10.901366274566643
      ],
      [
        "aajo",
        -10.901994983695282
      ],
      [
        "▁brav",
        -10.902117417764995
      ],
      [
        "'aurai",
        -10.906314175055993
      ],
      [
        "▁Àn",
        -10.907341261261122
      ],
      [
        "▁U",
        -10.907873153054737
      ],
      [
        "mbour",
        -10.911798361607781
      ],
      [
        "▁deg",
        -10.911829082335824
      ],
      [
        "itam",
        -10.91196332744177
      ],
      [
        "iter",
        -10.913193879179618
      ],
      [
        "▁caus",
        -10.91432729646501
      ],
      [
        "▁piq",
        -10.916057491731985
      ],
      [
        "dam",
        -10.917236039169318
      ],
      [
        "▁travailleur",
        -10.917537222782451
      ],
      [
        "▁bouge",
        -10.917726074162333
      ],
      [
        "▁jé",
        -10.917847388035
      ],
      [
        "▁Yée",
        -10.92059535917822
      ],
      [
        "kon",
        -10.92088976016655
      ],
      [
        "urtout",
        -10.921316146178043
      ],
      [
        "▁déte",
        -10.922074934928805
      ],
      [
        "stru",
        -10.922292436392166
      ],
      [
        "▁souff",
        -10.922995731859594
      ],
      [
        "▁s'épa",
        -10.924360793361428
      ],
      [
        "▁concurren",
        -10.924888707289142
      ],
      [
        "▁vie",
        -10.924960610357857
      ],
      [
        "óol",
        -10.925721124929145
      ],
      [
        "▁tâ",
        -10.925824879372447
      ],
      [
        "-jam",
        -10.926088367290001
      ],
      [
        "▁wuu",
        -10.926238212808846
      ],
      [
        "dul",
        -10.92671785524347
      ],
      [
        "▁tuur",
        -10.927381136932675
      ],
      [
        "▁vérit",
        -10.927745846010854
      ],
      [
        "arlat",
        -10.928109744279752
      ],
      [
        "'autre",
        -10.928149871085495
      ],
      [
        "▁cohabite",
        -10.928176400289408
      ],
      [
        "bax",
        -10.928589774951291
      ],
      [
        "'habi",
        -10.929203821968237
      ],
      [
        "▁tal",
        -10.929964270088425
      ],
      [
        "▁revien",
        -10.931181188287665
      ],
      [
        "▁seu",
        -10.931556664265852
      ],
      [
        "ctive",
        -10.931833857224838
      ],
      [
        "abille",
        -10.932297282281393
      ],
      [
        "usqu'ici",
        -10.932547557636951
      ],
      [
        "àññ",
        -10.932935457051354
      ],
      [
        "▁simple",
        -10.93302209466442
      ],
      [
        "▁revi",
        -10.933039890909777
      ],
      [
        "esprit",
        -10.933241348900445
      ],
      [
        "ême",
        -10.933331736441275
      ],
      [
        "▁excessi",
        -10.933380574826517
      ],
      [
        "politesse",
        -10.933600283038174
      ],
      [
        "▁accomp",
        -10.933634621889187
      ],
      [
        "ï",
        -10.933648451203696
      ],
      [
        "]",
        -10.933648451203696
      ],
      [
        "[",
        -10.933648451203696
      ],
      [
        "ä",
        -10.933648451203696
      ],
      [
        "▁habitue",
        -10.933648599907151
      ],
      [
        "déed",
        -10.933895414279688
      ],
      [
        "▁dind",
        -10.93469080563932
      ],
      [
        "véri",
        -10.936457191399903
      ],
      [
        "▁Musa",
        -10.937656512569372
      ],
      [
        "vid",
        -10.937868856547322
      ],
      [
        "'affai",
        -10.937891181821994
      ],
      [
        "▁Pou",
        -10.938248062563947
      ],
      [
        "▁chev",
        -10.93837329110893
      ],
      [
        "igno",
        -10.939472586011272
      ],
      [
        "tëli",
        -10.93992428205517
      ],
      [
        "abb",
        -10.940181443924837
      ],
      [
        "habite",
        -10.940343544105131
      ],
      [
        "oobu",
        -10.94117400207994
      ],
      [
        "▁n'av",
        -10.941439231476824
      ],
      [
        "ddoo",
        -10.943289525399486
      ],
      [
        "▁õgee",
        -10.943325478137035
      ],
      [
        "ouge",
        -10.94381457100061
      ],
      [
        "▁l'h",
        -10.943928049983171
      ],
      [
        "▁exce",
        -10.94434236108089
      ],
      [
        "▁coh",
        -10.9448128757632
      ],
      [
        "▁mê",
        -10.945526821605597
      ],
      [
        "▁kë",
        -10.946677571671847
      ],
      [
        "googee",
        -10.946804856719982
      ],
      [
        "▁fatt",
        -10.94736127967576
      ],
      [
        "▁dellu",
        -10.947755422412307
      ],
      [
        "▁Wut",
        -10.948624728961065
      ],
      [
        "▁Part",
        -10.949221320910121
      ],
      [
        "em-",
        -10.949855005758202
      ],
      [
        "étud",
        -10.950205549144524
      ],
      [
        "ace",
        -10.951087791187128
      ],
      [
        "▁coppe",
        -10.952115626929048
      ],
      [
        "ambour",
        -10.953132280336366
      ],
      [
        "glóo",
        -10.953840491405007
      ],
      [
        "nière",
        -10.954261204870878
      ],
      [
        "▁rap",
        -10.95427672995331
      ],
      [
        "▁l'ar",
        -10.955944054365206
      ],
      [
        "▁obs",
        -10.955974125462395
      ],
      [
        "▁jaam",
        -10.956723147934516
      ],
      [
        "latan",
        -10.957155327321008
      ],
      [
        "miné",
        -10.95752701984982
      ],
      [
        "▁macc",
        -10.958138092721073
      ],
      [
        "▁d'h",
        -10.958349928023896
      ],
      [
        "▁conce",
        -10.959155893270264
      ],
      [
        "▁indi",
        -10.959503841180101
      ],
      [
        "rtis",
        -10.960791626649524
      ],
      [
        "ogu",
        -10.961149631483346
      ],
      [
        "ective",
        -10.961644966328775
      ],
      [
        "▁lem",
        -10.963316899461383
      ],
      [
        "laire",
        -10.963359413035965
      ],
      [
        "añu",
        -10.963863159266925
      ],
      [
        "cole",
        -10.96517817723805
      ],
      [
        "arti",
        -10.967601461550426
      ],
      [
        "isine",
        -10.96761170805564
      ],
      [
        "omme",
        -10.969219987712991
      ],
      [
        "ents",
        -10.969379584199606
      ],
      [
        "▁Atte",
        -10.970378915560755
      ],
      [
        "▁Ca",
        -10.971376297054551
      ],
      [
        "divi",
        -10.971778803710427
      ],
      [
        "▁copp",
        -10.97182701243879
      ],
      [
        "ez-",
        -10.971863400039517
      ],
      [
        "impl",
        -10.972047765780747
      ],
      [
        "▁prol",
        -10.973020433015687
      ],
      [
        "oncer",
        -10.973524779795527
      ],
      [
        "ff",
        -10.974964866111838
      ],
      [
        "alla",
        -10.97503003364747
      ],
      [
        "▁fata",
        -10.97710631714651
      ],
      [
        "llu",
        -10.978409372740492
      ],
      [
        "njam",
        -10.978947137993533
      ],
      [
        "'ai",
        -10.981286674838232
      ],
      [
        "res",
        -10.981374893617975
      ],
      [
        "itude",
        -10.98303936783202
      ],
      [
        "eddi",
        -10.984329974086288
      ],
      [
        "▁déf",
        -10.984914623564343
      ],
      [
        "▁appr",
        -10.98558963192528
      ],
      [
        "nég",
        -10.98664559036149
      ],
      [
        "up",
        -10.98952409730526
      ],
      [
        "abi",
        -10.990023484806931
      ],
      [
        "rvit",
        -10.99200159665495
      ],
      [
        "érit",
        -10.992238446950667
      ],
      [
        "tif",
        -10.993082008842935
      ],
      [
        "oogu",
        -10.99326937881399
      ],
      [
        "dant",
        -10.993724805796578
      ],
      [
        "▁dev",
        -10.994379891316077
      ],
      [
        "▁l'é",
        -10.995523234527816
      ],
      [
        "fka",
        -10.996169254374093
      ],
      [
        "rès",
        -10.998713781397027
      ],
      [
        "attali",
        -10.99915436242703
      ],
      [
        "enu",
        -11.00005114037741
      ],
      [
        "ogul",
        -11.000533032491536
      ],
      [
        "▁I",
        -11.001911269869003
      ],
      [
        "vo",
        -11.002275073822773
      ],
      [
        "autre",
        -11.00437110255764
      ],
      [
        "ctif",
        -11.005524261629848
      ],
      [
        "▁cop",
        -11.005674570537785
      ],
      [
        "égal",
        -11.005773557108514
      ],
      [
        "isson",
        -11.006228632459717
      ],
      [
        "rê",
        -11.006349104636342
      ],
      [
        "hé",
        -11.007616072931294
      ],
      [
        "noir",
        -11.00810336015206
      ],
      [
        "ours",
        -11.008711306891344
      ],
      [
        "ço",
        -11.008991199061446
      ],
      [
        "▁leq",
        -11.010168656365451
      ],
      [
        "▁Gan",
        -11.010349496357458
      ],
      [
        "bri",
        -11.010437563335518
      ],
      [
        "ewande",
        -11.011246413277808
      ],
      [
        "▁atte",
        -11.016300219730383
      ],
      [
        "awar",
        -11.017538122293264
      ],
      [
        "góon",
        -11.021677313787464
      ],
      [
        "fal",
        -11.02516127525132
      ],
      [
        "▁xe",
        -11.02590143643563
      ],
      [
        "alo",
        -11.027590547981694
      ],
      [
        "raõõ",
        -11.028329441096608
      ],
      [
        "alik",
        -11.030176547490036
      ],
      [
        "lait",
        -11.030306781436304
      ],
      [
        "assé",
        -11.032409501056412
      ],
      [
        "uleen",
        -11.03277475908538
      ],
      [
        "née",
        -11.034412801543276
      ],
      [
        "bli",
        -11.034735805962336
      ],
      [
        "▁travaillai",
        -11.034854513496953
      ],
      [
        "-xa",
        -11.038147264298233
      ],
      [
        "bout",
        -11.040522480298527
      ],
      [
        "▁gos",
        -11.043756274368949
      ],
      [
        "entré",
        -11.04658008475414
      ],
      [
        "exil",
        -11.047018990914863
      ],
      [
        "ect",
        -11.0480113797264
      ],
      [
        "▁ad",
        -11.050526248858716
      ],
      [
        "prié",
        -11.050593250311307
      ],
      [
        "'aime",
        -11.052403582385397
      ],
      [
        "kku",
        -11.053640253513427
      ],
      [
        "gay",
        -11.055056275003965
      ],
      [
        "▁ap",
        -11.056244222952646
      ],
      [
        "por",
        -11.059742389396087
      ],
      [
        "ëggu",
        -11.060503641188971
      ],
      [
        "▁rée",
        -11.061241448980539
      ],
      [
        "ous-même",
        -11.061306713838214
      ],
      [
        "adi",
        -11.06250200548076
      ],
      [
        "âl",
        -11.0652476264344
      ],
      [
        "egg",
        -11.067123529179765
      ],
      [
        "r.",
        -11.06946356111522
      ],
      [
        "▁gén",
        -11.0701149085836
      ],
      [
        "ér",
        -11.070460154987737
      ],
      [
        "▁ense",
        -11.07794279346228
      ],
      [
        "ici.",
        -11.083122246009582
      ],
      [
        "▁Sér",
        -11.083151291740691
      ],
      [
        "riv",
        -11.08412114763284
      ],
      [
        "jambaa",
        -11.085286144083502
      ],
      [
        "lum",
        -11.086429523569528
      ],
      [
        "euse",
        -11.087911433651303
      ],
      [
        "uite",
        -11.092837796247965
      ],
      [
        "nversé",
        -11.09587948792228
      ],
      [
        "▁dim",
        -11.096418662616522
      ],
      [
        "▁choi",
        -11.097031940296928
      ],
      [
        "▁juu",
        -11.09841298312205
      ],
      [
        "erai",
        -11.101008413100521
      ],
      [
        "amant",
        -11.10270113416112
      ],
      [
        "empi",
        -11.106403183216873
      ],
      [
        "ang",
        -11.107064003079973
      ],
      [
        "aõk",
        -11.110931376297263
      ],
      [
        "oint",
        -11.112622496959517
      ],
      [
        "▁kaa",
        -11.114032134800583
      ],
      [
        "▁reg",
        -11.114732005267085
      ],
      [
        "saw",
        -11.115106293425498
      ],
      [
        "▁contr",
        -11.11530953367727
      ],
      [
        "▁Ji",
        -11.119503753990461
      ],
      [
        "iden",
        -11.121813016994263
      ],
      [
        "ex",
        -11.131242148660267
      ],
      [
        "▁rë",
        -11.138061590832013
      ],
      [
        "uve",
        -11.140529977920776
      ],
      [
        "▁déc",
        -11.14077541423396
      ],
      [
        "ut",
        -11.143305395528916
      ],
      [
        "▁jus",
        -11.149799649260416
      ],
      [
        "émi",
        -11.153839589657736
      ],
      [
        "▁poss",
        -11.15415963723313
      ],
      [
        "▁atti",
        -11.15427639465663
      ],
      [
        "sa",
        -11.155029385005001
      ],
      [
        "▁sér",
        -11.157115876761777
      ],
      [
        "▁comp",
        -11.157319034580645
      ],
      [
        "▁nj",
        -11.157413846609375
      ],
      [
        "yent",
        -11.158298848867666
      ],
      [
        "obal",
        -11.158656618762896
      ],
      [
        "aww",
        -11.16306828495599
      ],
      [
        "xar",
        -11.1656467493618
      ],
      [
        "mée",
        -11.166477342446246
      ],
      [
        "auc",
        -11.169872737795496
      ],
      [
        "uche",
        -11.175427924227055
      ],
      [
        "toi",
        -11.176044859717507
      ],
      [
        "▁rés",
        -11.179175764794593
      ],
      [
        "▁vieill",
        -11.180935408758172
      ],
      [
        "biti",
        -11.181279779363727
      ],
      [
        "nnée",
        -11.183335644827148
      ],
      [
        "▁õgoog",
        -11.184503072058297
      ],
      [
        "mos",
        -11.187702147399255
      ],
      [
        "etourne",
        -11.192011496150837
      ],
      [
        "mbre",
        -11.19429502910113
      ],
      [
        "hère",
        -11.201689779215544
      ],
      [
        "anaa",
        -11.203560920894232
      ],
      [
        "▁om",
        -11.207309382440764
      ],
      [
        "appelle",
        -11.21683289011472
      ],
      [
        "▁dém",
        -11.21792736202333
      ],
      [
        "▁fais",
        -11.222185251038947
      ],
      [
        "▁Av",
        -11.226152353630791
      ],
      [
        "oxor",
        -11.231655925888598
      ],
      [
        "▁terr",
        -11.235518785197073
      ],
      [
        "naissa",
        -11.242740744655292
      ],
      [
        "▁conn",
        -11.243285746108743
      ],
      [
        "▁lig",
        -11.244490648696924
      ],
      [
        "ndi",
        -11.247814294159602
      ],
      [
        "▁atten",
        -11.248079423897135
      ],
      [
        "▁trav",
        -11.251206495375556
      ],
      [
        "rère",
        -11.252185706510168
      ],
      [
        "uu",
        -11.262274981898555
      ],
      [
        "arée",
        -11.267490316216314
      ],
      [
        "▁ub",
        -11.27255774703919
      ],
      [
        "rte",
        -11.275475880981379
      ],
      [
        "L'homme",
        -11.279265209275573
      ],
      [
        "▁sé",
        -11.286542605400665
      ],
      [
        "mine",
        -11.29286050158332
      ],
      [
        "oppi",
        -11.297085063380198
      ],
      [
        "▁chau",
        -11.299500498346356
      ],
      [
        "sé",
        -11.302251234888471
      ],
      [
        "llusi",
        -11.30310271233859
      ],
      [
        "▁vert",
        -11.304009258244342
      ],
      [
        "nore",
        -11.305468922083268
      ],
      [
        "tudi",
        -11.311431398219055
      ],
      [
        "à-",
        -11.312568225994177
      ],
      [
        "ons.",
        -11.329786872882318
      ],
      [
        "▁jama",
        -11.334024242026421
      ],
      [
        "oppeeku",
        -11.334711469747816
      ],
      [
        "onnai",
        -11.3356545987229
      ],
      [
        "ifie",
        -11.337470668182403
      ],
      [
        "'argent",
        -11.337492500870216
      ],
      [
        "▁noy",
        -11.343531687496213
      ],
      [
        "▁xamu",
        -11.344673702242416
      ],
      [
        "pi",
        -11.348220652506518
      ],
      [
        "▁mooma",
        -11.353189762830596
      ],
      [
        "▁ai",
        -11.353528026653017
      ],
      [
        "sag",
        -11.359134067330542
      ],
      [
        "▁Mus",
        -11.363540756759889
      ],
      [
        "▁gent",
        -11.369251409407795
      ],
      [
        "rousse",
        -11.371693068985723
      ],
      [
        "▁yo",
        -11.37283821134166
      ],
      [
        "▁fort",
        -11.374360592768559
      ],
      [
        "▁marche",
        -11.374429967996711
      ],
      [
        "▁inter",
        -11.375994218345024
      ],
      [
        "yil",
        -11.376955594808516
      ],
      [
        "caa",
        -11.381001587681828
      ],
      [
        "goo",
        -11.384526471021783
      ],
      [
        "aõx",
        -11.3853399956401
      ],
      [
        "alli",
        -11.391360975402902
      ],
      [
        "ggoo",
        -11.393944945671583
      ],
      [
        "illi",
        -11.395285674008948
      ],
      [
        "▁enc",
        -11.398199451117701
      ],
      [
        "eek",
        -11.398432010605474
      ],
      [
        "ata",
        -11.398529719184529
      ],
      [
        "drai",
        -11.40399372584372
      ],
      [
        "Gis",
        -11.404636274802298
      ],
      [
        "▁mé",
        -11.405850367274196
      ],
      [
        "lqu'un",
        -11.408366119511411
      ],
      [
        "jug",
        -11.41155235142714
      ],
      [
        "lie",
        -11.414285258650295
      ],
      [
        "nko",
        -11.414877606287545
      ],
      [
        "▁nou",
        -11.419208807685987
      ],
      [
        "▁fit",
        -11.419362319803488
      ],
      [
        "quit",
        -11.421969731684857
      ],
      [
        "▁cont",
        -11.423051651029121
      ],
      [
        "oure",
        -11.424598999089731
      ],
      [
        "roir",
        -11.426352983142213
      ],
      [
        "des",
        -11.427479019429981
      ],
      [
        "bab",
        -11.43123723646672
      ],
      [
        "boi",
        -11.433353047059642
      ],
      [
        "coute",
        -11.436327234967651
      ],
      [
        "aakaar",
        -11.437499264242268
      ],
      [
        "▁seco",
        -11.441273021929902
      ],
      [
        "▁es-",
        -11.446713179851013
      ],
      [
        "▁Sé",
        -11.450016269473867
      ],
      [
        "▁tà",
        -11.454023470495235
      ],
      [
        "-là.",
        -11.45693840030868
      ],
      [
        "okka",
        -11.461049511734734
      ],
      [
        "aal",
        -11.465541658900133
      ],
      [
        "ses",
        -11.465653696084342
      ],
      [
        "▁env",
        -11.468523024893543
      ],
      [
        "olul",
        -11.471406653681662
      ],
      [
        "aucun",
        -11.474799020272886
      ],
      [
        "▁góo",
        -11.476952797627522
      ],
      [
        "yer",
        -11.479169629336276
      ],
      [
        "▁yée",
        -11.480597382685033
      ],
      [
        "jeu",
        -11.481400926563524
      ],
      [
        "lig",
        -11.487168372223316
      ],
      [
        "né",
        -11.489487456469032
      ],
      [
        "mee",
        -11.494825025160624
      ],
      [
        "▁ana",
        -11.499524826121462
      ],
      [
        "L",
        -11.504020107018702
      ],
      [
        "ein",
        -11.505205636864385
      ],
      [
        "▁soppa",
        -11.507279696036536
      ],
      [
        "uf",
        -11.51185717585627
      ],
      [
        "sent",
        -11.512762268502236
      ],
      [
        "▁sub",
        -11.515324741073144
      ],
      [
        "ndée",
        -11.516206016204379
      ],
      [
        "▁pres",
        -11.517998308464895
      ],
      [
        "ors",
        -11.52082020684293
      ],
      [
        "▁app",
        -11.52750418977356
      ],
      [
        "ot",
        -11.528798174910216
      ],
      [
        "▁pre",
        -11.529043660240042
      ],
      [
        "tée",
        -11.530141675300257
      ],
      [
        "l.",
        -11.534526523096307
      ],
      [
        "'ici",
        -11.545125688644644
      ],
      [
        "mande",
        -11.54748393068729
      ],
      [
        "qu'un",
        -11.547574333353767
      ],
      [
        "O",
        -11.547788585925648
      ],
      [
        "su",
        -11.55169979975819
      ],
      [
        "ëñ",
        -11.560817288663067
      ],
      [
        "es-",
        -11.562426748051864
      ],
      [
        "▁mënk",
        -11.565577389113049
      ],
      [
        "uis",
        -11.569650496168705
      ],
      [
        "ourri",
        -11.573625393655085
      ],
      [
        "aõ",
        -11.574757444411285
      ],
      [
        "culte",
        -11.582038750070764
      ],
      [
        "lir",
        -11.584488516069511
      ],
      [
        "▁lak",
        -11.585858316465284
      ],
      [
        "▁Ho",
        -11.589519584492086
      ],
      [
        "aka",
        -11.5924882297537
      ],
      [
        "Il",
        -11.599709615404738
      ],
      [
        "op",
        -11.607660171948552
      ],
      [
        "▁d'i",
        -11.612032321063657
      ],
      [
        "▁qu'est",
        -11.615597294729344
      ],
      [
        "▁jée",
        -11.618246929954996
      ],
      [
        "▁éte",
        -11.6214576179269
      ],
      [
        "▁ye",
        -11.623495335442744
      ],
      [
        "▁tii",
        -11.627564262259698
      ],
      [
        "-ce",
        -11.633693598411579
      ],
      [
        "▁on",
        -11.634956623136071
      ],
      [
        "aajoo",
        -11.639350569325666
      ],
      [
        "ga",
        -11.650573045834978
      ],
      [
        "user",
        -11.651017437443274
      ],
      [
        "▁Wu",
        -11.651385248817826
      ],
      [
        "ges",
        -11.657718390324789
      ],
      [
        "n.",
        -11.6604333661568
      ],
      [
        "▁foofi",
        -11.660582542516183
      ],
      [
        "asse",
        -11.660632131408569
      ],
      [
        "tam",
        -11.661027868785867
      ],
      [
        "lecti",
        -11.668396251614132
      ],
      [
        "oit",
        -11.672812340200554
      ],
      [
        "mul",
        -11.673082276774844
      ],
      [
        "ami",
        -11.67917757441658
      ],
      [
        "ager",
        -11.692764955043346
      ],
      [
        "lheureusement",
        -11.696959149339015
      ],
      [
        "dit",
        -11.702105032457794
      ],
      [
        "nez",
        -11.702576706482533
      ],
      [
        "▁reco",
        -11.709262545305933
      ],
      [
        "ten",
        -11.717797196509618
      ],
      [
        "oxoo",
        -11.719515969541092
      ],
      [
        "▁moomi",
        -11.723336953578574
      ],
      [
        "irent",
        -11.731412468349792
      ],
      [
        "▁fet",
        -11.737568997632835
      ],
      [
        "ouver",
        -11.739820600988637
      ],
      [
        "alis",
        -11.739913713196524
      ],
      [
        "ar.",
        -11.75632271490333
      ],
      [
        "oui",
        -11.759180586644405
      ],
      [
        "▁ten",
        -11.76209050567202
      ],
      [
        "▁quan",
        -11.766438355352209
      ],
      [
        "aurai",
        -11.777825004684292
      ],
      [
        "▁chan",
        -11.779122440603752
      ],
      [
        "aide",
        -11.783551216768375
      ],
      [
        "▁cla",
        -11.789067660999004
      ],
      [
        "tés",
        -11.794840299415569
      ],
      [
        "esse",
        -11.79562797928945
      ],
      [
        "l'homme",
        -11.799573505653477
      ],
      [
        "em",
        -11.800249215568613
      ],
      [
        "Tu",
        -11.806418218652047
      ],
      [
        "boo",
        -11.811340392787395
      ],
      [
        "▁ar",
        -11.813943600201881
      ],
      [
        "ive",
        -11.819912470304407
      ],
      [
        "pl",
        -11.826722874004334
      ],
      [
        "gar",
        -11.827079932189367
      ],
      [
        "▁fai",
        -11.827879309672289
      ],
      [
        "▁waxe",
        -11.833048212645982
      ],
      [
        "rête",
        -11.833266624570996
      ],
      [
        "▁voil",
        -11.83346295537877
      ],
      [
        "erie",
        -11.833542779438616
      ],
      [
        "'apprécie",
        -11.835974540598338
      ],
      [
        "lal",
        -11.841952852834854
      ],
      [
        "▁elle",
        -11.845316156618699
      ],
      [
        "okk",
        -11.846718884245474
      ],
      [
        "rge",
        -11.85211717904018
      ],
      [
        "fini",
        -11.861325623905133
      ],
      [
        "ets-t",
        -11.862061447449438
      ],
      [
        "ñc",
        -11.866036782231452
      ],
      [
        "róo",
        -11.867734195243482
      ],
      [
        "erc",
        -11.869802099123389
      ],
      [
        "nar",
        -11.874107768477934
      ],
      [
        "▁lam",
        -11.876694394332018
      ],
      [
        "▁ment",
        -11.87678975609619
      ],
      [
        "▁Bo",
        -11.881852569969846
      ],
      [
        "tourne",
        -11.886934989306509
      ],
      [
        "rer",
        -11.890337834540743
      ],
      [
        "st",
        -11.899116314107669
      ],
      [
        "t-ce",
        -11.90286215739303
      ],
      [
        "▁bar",
        -11.914032525526071
      ],
      [
        "tali",
        -11.916012978810905
      ],
      [
        "aaré",
        -11.916213363939335
      ],
      [
        "gee",
        -11.922739526618653
      ],
      [
        "▁tend",
        -11.924057092977918
      ],
      [
        "aill",
        -11.940662737210484
      ],
      [
        "uwu",
        -11.960997915249074
      ],
      [
        "ayer",
        -11.965432360525796
      ],
      [
        "▁né",
        -11.97078235047215
      ],
      [
        "▁qu'i",
        -11.97957024398102
      ],
      [
        "▁prop",
        -11.981018707614629
      ],
      [
        "mati",
        -11.988518609601755
      ],
      [
        "▁Ke",
        -11.990287148162956
      ],
      [
        "do",
        -11.998641714357223
      ],
      [
        "▁Dema",
        -12.001489405424973
      ],
      [
        "▁an",
        -12.003172572059478
      ],
      [
        "▁entr",
        -12.016209482358144
      ],
      [
        "ûte",
        -12.020601583070023
      ],
      [
        "qué",
        -12.02671476121768
      ],
      [
        "ya",
        -12.045563580671356
      ],
      [
        "he",
        -12.045845675109511
      ],
      [
        "▁Wan",
        -12.058158892299694
      ],
      [
        "uvr",
        -12.05836218488803
      ],
      [
        "▁sat",
        -12.05930974385231
      ],
      [
        "ssent",
        -12.076614548945622
      ],
      [
        "ouve",
        -12.087942637249258
      ],
      [
        "▁bët",
        -12.097782974922454
      ],
      [
        "▁naar",
        -12.101768207905844
      ],
      [
        "tin",
        -12.113178984790585
      ],
      [
        "ental",
        -12.113475318365873
      ],
      [
        "▁bat",
        -12.1289725823326
      ],
      [
        "J'a",
        -12.134848439637233
      ],
      [
        "les-",
        -12.137205251664184
      ],
      [
        "kule",
        -12.139210748837849
      ],
      [
        "yé",
        -12.145697422597411
      ],
      [
        "akk",
        -12.153091896147343
      ],
      [
        "nag",
        -12.156124141943192
      ],
      [
        "daõõ",
        -12.1672962129071
      ],
      [
        "tala",
        -12.168206368448288
      ],
      [
        "aggi",
        -12.175710750162434
      ],
      [
        "awaay",
        -12.179274982622955
      ],
      [
        "entrer",
        -12.180634987696617
      ],
      [
        "amul",
        -12.183541239771989
      ],
      [
        "aõg",
        -12.183975676072508
      ],
      [
        "parti",
        -12.198987866170164
      ],
      [
        "▁in",
        -12.20150602011306
      ],
      [
        "▁d'es",
        -12.213979209940602
      ],
      [
        "may",
        -12.22502886714979
      ],
      [
        "oi-même",
        -12.22571016399273
      ],
      [
        "ll",
        -12.23333546067581
      ],
      [
        "rée",
        -12.240817107203153
      ],
      [
        "▁nie",
        -12.249742779982164
      ],
      [
        "essa",
        -12.272280133063255
      ],
      [
        "joo",
        -12.275757116128972
      ],
      [
        "ttu",
        -12.280884773714337
      ],
      [
        "▁Fat",
        -12.281306428746854
      ],
      [
        "hie",
        -12.291855803773895
      ],
      [
        "▁car",
        -12.309297072842881
      ],
      [
        "(",
        -12.312059177925631
      ],
      [
        "Ñ",
        -12.312159177925631
      ],
      [
        "À",
        -12.31225917792563
      ],
      [
        "R",
        -12.31235917792563
      ],
      [
        "I",
        -12.31245917792563
      ],
      [
        "W",
        -12.312559177925632
      ],
      [
        "î",
        -12.312659177925632
      ],
      [
        "V",
        -12.312759177925631
      ],
      [
        "X",
        -12.312859177925631
      ],
      [
        "N",
        -12.31295917792563
      ],
      [
        "D",
        -12.31305917792563
      ],
      [
        "A",
        -12.31315917792563
      ],
      [
        "S",
        -12.31325917792563
      ],
      [
        "T",
        -12.313359177925632
      ],
      [
        "F",
        -12.313459177925631
      ],
      [
        "Õ",
        -12.313559177925631
      ],
      [
        "û",
        -12.313659177925631
      ],
      [
        "E",
        -12.313730195385947
      ],
      [
        "Q",
        -12.31375917792563
      ],
      [
        "K",
        -12.31385917792563
      ],
      [
        "B",
        -12.31395917792563
      ],
      [
        "M",
        -12.31405917792563
      ],
      [
        "Y",
        -12.314159177925632
      ],
      [
        "'",
        -12.314259177925631
      ],
      [
        "U",
        -12.314359177925631
      ],
      [
        "P",
        -12.314459177925631
      ],
      [
        "▁sar",
        -12.314459177925631
      ]
    ]
  }
}