<pad>	0
</s>	0
<unk>	0
<s>	0
,	-3.05969
.	-3.23668
'	-3.55295
s	-4.13231
▁de	-4.1721
▁la	-4.22938
▁	-4.54311
▁ci	-4.59792
-	-4.59901
y	-4.71146
e	-4.72218
▁a	-4.75269
▁!	-4.82779
▁l	-4.89472
▁?	-4.93701
▁et	-5.11234
▁un	-5.14574
▁à	-5.15706
▁les	-5.1797
▁des	-5.22114
▁d	-5.28442
▁qui	-5.31021
i	-5.31684
▁le	-5.32284
▁mu	-5.3666
u	-5.36695
▁na	-5.38649
▁ni	-5.3882
est	-5.41877
▁ne	-5.43328
▁ma	-5.44903
r	-5.45835
▁que	-5.46866
▁bi	-5.48015
▁ko	-5.50277
▁di	-5.54024
▁du	-5.54914
▁ba	-5.56161
▁ak	-5.58381
▁yi	-5.63893
▁pas	-5.68654
▁est	-5.69144
▁qu	-5.70769
a	-5.71644
▁ñu	-5.72515
▁yu	-5.76455
▁C	-5.78628
▁gi	-5.78804
▁bu	-5.78911
▁en	-5.79541
▁n	-5.7965
▁Il	-5.83767
▁il	-5.83913
▁ay	-5.85852
▁dans	-5.86341
▁dem	-5.89185
il	-5.94764
▁c	-5.96785
▁ngi	-5.99337
▁naa	-6.03877
▁s	-6.07148
▁ce	-6.11021
▁am	-6.1103
▁lu	-6.13486
▁pour	-6.13691
▁te	-6.15366
▁seen	-6.16466
▁y	-6.1729
▁fa	-6.18741
ai	-6.20632
▁woon	-6.2114
▁au	-6.22287
▁L	-6.22463
▁se	-6.25816
▁sama	-6.31276
▁J	-6.31653
▁ca	-6.32864
homme	-6.33834
▁sa	-6.33906
▁sur	-6.34248
une	-6.34641
▁je	-6.38358
▁sont	-6.40688
al	-6.41518
▁gis	-6.41738
▁vu	-6.41743
:	-6.42135
▁Je	-6.42487
▁avec	-6.42686
▁daan	-6.42782
oon	-6.43669
▁doon	-6.46358
▁par	-6.48967
▁nag	-6.49002
▁xam	-6.49217
▁leen	-6.52462
▁j	-6.52586
▁mi	-6.52593
▁ŋga	-6.53254
ent	-6.53379
n	-6.58673
▁mon	-6.60047
▁père	-6.60565
am	-6.61831
ul	-6.61986
er	-6.63819
▁wax	-6.64499
▁nekk	-6.6458
▁benn	-6.65096
▁Góo	-6.65203
▁si	-6.65464
ait	-6.67155
là	-6.6748
▁tu	-6.67515
▁nit	-6.69353
▁Baay	-6.69778
é	-6.69884
▁ya	-6.70499
un	-6.70528
▁mel	-6.70629
▁nga	-6.70677
▁été	-6.72634
▁Gis	-6.74322
▁moom	-6.77599
▁sax	-6.77736
nt	-6.77753
es	-6.77993
▁leur	-6.78426
▁où	-6.79315
▁Afrig	-6.79823
tu	-6.80498
▁moo	-6.80535
▁homme	-6.81129
▁son	-6.81623
▁lui	-6.81705
ee	-6.84481
▁biir	-6.86659
▁nu	-6.86805
▁Tu	-6.8722
▁plus	-6.87324
▁def	-6.88213
▁i	-6.89106
▁m	-6.89313
t	-6.89664
ette	-6.91429
on	-6.91687
▁su	-6.92911
▁ku	-6.94796
▁ñëw	-6.96847
▁photo	-6.96859
▁tout	-6.97491
«	-6.97508
▁nous	-6.99371
le	-6.99623
▁avait	-6.99835
▁Le	-7.00013
ant	-7.00078
▁La	-7.00494
▁li	-7.01066
▁mën	-7.02953
▁Les	-7.05053
▁kenn	-7.05117
te	-7.05542
▁ab	-7.05573
▁là	-7.07582
▁góor	-7.08145
▁gu	-7.08234
▁Ci	-7.08368
▁A	-7.09248
▁ou	-7.10188
▁»	-7.10277
▁bii	-7.11182
▁nataal	-7.11227
▁autre	-7.11369
▁enfants	-7.14879
en	-7.15733
▁fi	-7.15881
▁cet	-7.16387
k	-7.17443
▁D	-7.1746
▁t	-7.183
▁may	-7.183
ment	-7.18832
l	-7.18898
▁ñi	-7.20802
▁celui	-7.22253
▁ces	-7.2283
▁dal	-7.23119
▁aussi	-7.23426
▁it	-7.24091
▁on	-7.25004
▁comme	-7.25534
▁dafa	-7.25831
▁rekk	-7.25836
▁Am	-7.26511
▁lool	-7.26636
▁me	-7.26867
▁ji	-7.27199
▁dara	-7.28219
▁mère	-7.28619
▁dëkk	-7.29565
▁Nit	-7.30845
▁ju	-7.30881
▁fu	-7.32581
▁moi	-7.32956
▁teg	-7.33322
▁san	-7.33488
▁Sur	-7.33764
▁laa	-7.34116
▁bëgg	-7.35037
à	-7.3566
▁parti	-7.35923
▁même	-7.36105
▁ñaar	-7.3634
▁kër	-7.37512
que	-7.38102
▁ki	-7.38573
▁jigéen	-7.38783
▁S	-7.39472
g	-7.39708
ce	-7.39838
était	-7.40046
▁maison	-7.40257
▁gën	-7.41382
▁xale	-7.41571
▁ndax	-7.41617
oo	-7.41685
▁boo	-7.41792
▁pays	-7.41971
x	-7.42821
▁Su	-7.42861
▁était	-7.44274
▁–	-7.44416
▁Nataal	-7.44419
▁mbaa	-7.45664
▁xar	-7.46118
▁war	-7.47181
▁ñoo	-7.47195
ci	-7.47916
ñ	-7.48403
▁peut	-7.48968
d	-7.49495
▁À	-7.51483
di	-7.51711
▁chose	-7.53639
b	-7.5417
eneen	-7.54513
▁man	-7.5518
▁jusqu	-7.55213
▁Ma	-7.55357
▁Un	-7.55391
▁lépp	-7.55591
intérieur	-7.56835
▁vois	-7.56887
▁Ce	-7.57026
▁Mu	-7.57204
enn	-7.58483
▁weex	-7.585
▁walla	-7.58518
▁loolu	-7.59219
is	-7.59389
m	-7.59781
▁baax	-7.60216
être	-7.60703
▁De	-7.62524
▁G	-7.62859
▁fait	-7.63435
▁mag	-7.64197
elle	-7.64333
▁ŋgi	-7.64959
▁bien	-7.65044
▁Waaye	-7.65463
▁as	-7.6564
▁vous	-7.65654
▁réew	-7.65842
▁aux	-7.66296
▁En	-7.67091
and	-7.67191
▁Te	-7.67266
▁très	-7.6728
▁cela	-7.67311
▁ñoom	-7.67374
eek	-7.67764
▁yaay	-7.67876
▁ont	-7.67964
▁ñuul	-7.68201
ŋ	-7.68634
aient	-7.69084
▁parle	-7.69444
▁Li	-7.69498
▁yoon	-7.699
▁garab	-7.69965
▁koo	-7.70054
▁yooyu	-7.71051
▁mais	-7.71543
▁Maa	-7.7164
▁temps	-7.72958
▁dit	-7.7341
▁deux	-7.74208
▁(	-7.74902
▁monde	-7.74966
▁yépp	-7.7504
▁Waaw	-7.75199
▁couleur	-7.7534
▁ag	-7.75584
re	-7.75628
...	-7.75652
▁vie	-7.75712
▁demee	-7.75869
▁dul	-7.76752
▁porte	-7.76794
;	-7.76902
▁Mais	-7.7699
▁guerre	-7.77007
▁sunu	-7.77057
▁ceux	-7.77241
▁lañu	-7.78039
▁ka	-7.78097
▁tax	-7.78618
▁k	-7.78802
▁suuf	-7.7896
▁maa	-7.79956
▁gone	-7.80099
autre	-7.8042
▁yiy	-7.80455
▁bés	-7.8077
▁sol	-7.80988
▁tamit	-7.81031
ée	-7.81802
▁lii	-7.82221
▁tou	-7.8255
▁Ñu	-7.83052
▁Ogosaa	-7.83153
▁Du	-7.83274
▁at	-7.84188
▁bopp	-7.84316
▁néeg	-7.84329
na	-7.84976
▁femme	-7.86014
▁toog	-7.87048
▁partir	-7.87395
▁xel	-7.87451
▁ndaw	-7.87601
▁noppi	-7.87638
▁fekk	-7.87756
▁Nou	-7.87805
um	-7.8794
▁tey	-7.88117
▁waay	-7.88382
▁dañ	-7.8848
Afrique	-7.88595
▁quelque	-7.88877
▁cha	-7.89203
▁yaram	-7.89887
▁Qu	-7.89951
▁grand	-7.90634
▁wi	-7.91028
▁ga	-7.9111
▁être	-7.91451
▁toi	-7.91937
▁Tugal	-7.92162
▁P	-7.92291
▁jëm	-7.92386
▁O	-7.93664
▁yëg	-7.93676
▁ànd	-7.93989
▁wër	-7.9428
▁Dem	-7.94423
▁doŋŋ	-7.94546
▁boobu	-7.94556
▁faire	-7.94572
▁gens	-7.94582
▁soo	-7.95318
▁àll	-7.95364
▁mouton	-7.95425
eux	-7.95426
it	-7.95505
▁B	-7.96272
▁naan	-7.9646
▁jamono	-7.96968
▁encore	-7.9697
▁veux	-7.9699
▁doole	-7.97005
▁semble	-7.97462
▁amul	-7.97828
▁Ba	-7.97856
ils	-7.98311
▁p	-7.98458
▁nañ	-7.98983
▁ñax	-7.99547
▁réer	-7.99758
▁dont	-7.99809
ma	-7.99841
▁nañu	-8.00241
▁saa	-8.00315
▁venu	-8.00597
léeg	-8.00821
és	-8.00983
▁kow	-8.01501
▁rafet	-8.01864
▁voilà	-8.02035
o	-8.02086
ation	-8.02468
▁Moo	-8.03311
▁Si	-8.04131
eurs	-8.0422
▁liggéey	-8.04308
▁daal	-8.04934
▁peu	-8.05079
▁part	-8.05486
▁ñépp	-8.0739
▁Ndax	-8.07426
▁dex	-8.07507
▁sous	-8.07731
w	-8.07857
▁dañu	-8.08205
ante	-8.08346
▁bët	-8.08589
▁jot	-8.0862
▁rien	-8.08776
woon	-8.09066
▁xare	-8.09728
ù	-8.10109
pendant	-8.10271
▁Mon	-8.10287
▁bari	-8.10326
▁Cet	-8.10386
▁elle	-8.1049
▁itam	-8.10512
▁ban	-8.10897
▁doom	-8.11973
ak	-8.12051
▁lañ	-8.12069
hui	-8.12222
▁jël	-8.12236
▁N	-8.12643
▁àddina	-8.12657
▁taxaw	-8.12683
▁génn	-8.12998
▁jamais	-8.13002
▁mes	-8.13042
▁Xam	-8.13453
▁waa	-8.13593
▁loxo	-8.13666
▁dee	-8.13678
▁va	-8.13754
▁personne	-8.14414
▁léeg	-8.1448
▁jour	-8.14586
)	-8.14852
tre	-8.14896
bas	-8.15026
▁femmes	-8.15038
▁xonq	-8.15943
▁corps	-8.15961
▁Daf	-8.16013
▁après	-8.16408
▁neex	-8.16416
ujour	-8.17091
▁nii	-8.17475
ions	-8.17873
▁dugg	-8.1801
▁jóge	-8.18204
yeek	-8.18377
▁Quel	-8.18454
ale	-8.18782
▁xarit	-8.18862
▁doute	-8.18988
▁ŋgeen	-8.19057
▁yaa	-8.19575
épp	-8.20878
▁sui	-8.21243
▁wu	-8.21805
▁noonu	-8.22276
▁dëgg	-8.22493
quelle	-8.22505
▁demul	-8.22567
kat	-8.23572
▁jaar	-8.23742
as	-8.23837
▁ja	-8.24124
▁waaw	-8.24335
▁F	-8.24829
▁kaw	-8.2513
▁mbir	-8.25162
▁sorte	-8.25253
▁Kamerun	-8.25323
▁loin	-8.25324
▁Tubaab	-8.25388
▁terre	-8.25407
▁fii	-8.26223
▁M	-8.264
autres	-8.26494
▁daw	-8.26682
▁Lu	-8.26758
▁bare	-8.26824
uñu	-8.27502
▁Bu	-8.27641
▁ñ	-8.27922
▁ginnaaw	-8.28509
▁foofu	-8.28673
▁fois	-8.28748
▁yeneen	-8.29115
▁étai	-8.2935
▁Lii	-8.29607
▁Xar	-8.31814
▁Fa	-8.3193
aan	-8.31971
▁Et	-8.32127
▁bois	-8.32131
▁es	-8.32591
▁voir	-8.32614
tte	-8.3315
eau	-8.3409
dessus	-8.34352
▁ai	-8.34379
▁Ku	-8.34619
▁enfant	-8.34977
▁dégg	-8.35348
▁mas	-8.3537
▁beaucoup	-8.35678
▁takk	-8.35896
▁On	-8.35897
▁nee	-8.35897
▁boppam	-8.35903
▁crois	-8.3591
▁entre	-8.36155
▁arbres	-8.36417
▁daa	-8.36889
▁bunt	-8.36913
▁non	-8.37188
▁Ni	-8.37515
▁route	-8.37782
▁dund	-8.38055
avait	-8.38206
▁dox	-8.38303
▁Y	-8.38586
▁bañ	-8.39341
▁veut	-8.39381
▁Loolu	-8.39399
▁gii	-8.39436
▁années	-8.39494
▁f	-8.39544
▁Xale	-8.39637
▁xaw	-8.39691
▁ňu	-8.39822
▁travers	-8.39825
▁devant	-8.39962
ug	-8.40539
▁ans	-8.41185
▁chambre	-8.41579
▁Sée	-8.42039
▁yoo	-8.42144
▁solo	-8.42492
▁da	-8.42682
▁mer	-8.4307
▁forêt	-8.43226
▁topp	-8.43229
▁g	-8.4326
▁Mi	-8.43381
▁Oui	-8.43413
▁way	-8.43517
ux	-8.43551
ir	-8.43666
▁Ogoja	-8.43733
▁avant	-8.43776
▁Ceux	-8.43809
▁lan	-8.43898
▁Qui	-8.44075
▁wàn	-8.44426
▁lal	-8.44603
vaient	-8.45133
▁wet	-8.45219
▁Afrique	-8.45356
▁haut	-8.4536
▁rouge	-8.45582
▁nuit	-8.45705
▁moutons	-8.45726
▁vers	-8.46649
▁Man	-8.46708
▁contre	-8.47214
▁jooju	-8.47315
▁daanaka	-8.47368
▁Ceci	-8.47376
▁kooku	-8.4754
▁re	-8.47854
ook	-8.48431
▁amis	-8.48889
▁quelqu	-8.48986
▁vo	-8.49085
▁Bi	-8.4912
▁Au	-8.49376
▁eux	-8.49477
▁in	-8.49661
▁blanche	-8.4972
▁fas	-8.49859
▁case	-8.50093
▁médecin	-8.50437
▁Soo	-8.50536
▁tànk	-8.5058
▁tudd	-8.50589
▁France	-8.51393
▁fàww	-8.51397
▁Cameroun	-8.51401
▁voit	-8.5143
▁matin	-8.51438
▁pouvait	-8.51442
▁Elle	-8.51447
▁Sama	-8.5147
▁aucun	-8.51591
▁nuy	-8.52007
▁Que	-8.5282
▁metti	-8.52919
uma	-8.53186
ées	-8.53189
ek	-8.53506
▁day	-8.53529
▁Tout	-8.53594
omment	-8.53887
▁blanc	-8.54204
▁autres	-8.5501
vait	-8.55457
▁Vous	-8.55742
▁Celui	-8.55745
▁fàttaliku	-8.55806
▁kan	-8.55884
▁soit	-8.56045
▁xol	-8.56134
▁donné	-8.5618
▁ici	-8.56511
▁néegu	-8.56748
▁Sa	-8.56782
f	-8.57027
▁jàpp	-8.57155
iers	-8.57699
▁noir	-8.57701
▁personnes	-8.58093
avoir	-8.58936
▁port	-8.59141
▁jox	-8.59143
▁Na	-8.59144
▁ëpp	-8.59153
▁Ay	-8.59688
autour	-8.59719
▁K	-8.59865
mère	-8.59963
▁yaakaar	-8.60287
▁Naka	-8.60295
▁verre	-8.60297
▁weer	-8.60357
▁bout	-8.60452
▁lequel	-8.60516
▁Dan	-8.60551
▁gaal	-8.60712
▁dóor	-8.60761
▁lay	-8.61042
aat	-8.61083
▁doomi	-8.61176
▁bokk	-8.616
▁xamul	-8.61608
ont	-8.61653
in	-8.61744
▁dana	-8.61881
▁passé	-8.61991
▁fin	-8.62086
▁vas	-8.62484
▁Ca	-8.63035
▁posé	-8.63282
▁seul	-8.63798
oit	-8.64133
▁leer	-8.64216
ñu	-8.64382
▁Seet	-8.64568
▁say	-8.64626
▁hommes	-8.64965
aadama	-8.65048
▁Wànte	-8.6505
▁bëj	-8.6505
▁xalaat	-8.65052
▁milieu	-8.65052
▁soleil	-8.65054
▁tali	-8.65075
▁yàgg	-8.65082
▁coté	-8.65087
▁seulement	-8.65103
▁For	-8.66146
geen	-8.66335
▁quelle	-8.66487
aa	-8.66584
▁parler	-8.67039
▁fan	-8.67424
▁defar	-8.67563
té	-8.67599
▁demoon	-8.67639
lu	-8.68027
▁moment	-8.68246
▁mat	-8.68367
▁village	-8.68482
▁passe	-8.68669
▁pu	-8.68813
▁gaa	-8.69218
▁ndox	-8.6955
an	-8.69649
igéen	-8.69903
▁bind	-8.69929
▁Móris	-8.70048
▁ñàkk	-8.70058
▁bord	-8.70089
▁Niseryaa	-8.70119
▁ressemble	-8.70162
▁debout	-8.70165
▁reste	-8.7023
▁jeex	-8.70404
▁réy	-8.7041
▁dina	-8.70422
▁jaay	-8.70442
▁murs	-8.70571
▁guddi	-8.7064
wul	-8.70694
▁Wax	-8.70873
▁doomu	-8.70904
em	-8.71709
▁puis	-8.72456
▁yee	-8.7262
ub	-8.73185
▁vrai	-8.73291
▁ville	-8.73324
▁seet	-8.73494
▁maam	-8.74217
je	-8.74224
▁Waa	-8.74618
▁regard	-8.74662
▁b	-8.75259
▁Bëgg	-8.75303
hôpital	-8.75311
▁souviens	-8.75311
▁Nigeria	-8.75313
▁question	-8.75313
▁gàtt	-8.75315
▁Cela	-8.75335
▁dellu	-8.75335
▁Bansoo	-8.75342
▁wéy	-8.75345
▁nettali	-8.75352
▁Keneen	-8.75379
▁beneen	-8.75388
▁côté	-8.75421
▁manière	-8.75468
▁Yaa	-8.7548
▁lorsqu	-8.75529
▁bay	-8.75616
▁door	-8.7576
▁yeux	-8.75885
▁fo	-8.75963
▁baay	-8.7635
ère	-8.77153
▁kii	-8.77418
ine	-8.77441
même	-8.77663
enfant	-8.77947
▁quel	-8.78553
▁eu	-8.7884
▁poisson	-8.78884
▁voyage	-8.79052
▁aw	-8.79054
▁rivière	-8.79219
ry	-8.79237
▁bé	-8.79354
avais	-8.79597
▁bon	-8.79947
▁faa	-8.79959
▁faj	-8.80237
▁juróom	-8.80329
▁jiit	-8.80551
▁bàyyi	-8.80822
▁Laobe	-8.80867
▁séen	-8.80871
▁cheval	-8.80872
▁Samba	-8.80872
▁xeer	-8.80893
▁téere	-8.809
▁dénk	-8.80923
loo	-8.80934
▁no	-8.80944
▁fourmis	-8.81004
▁Moom	-8.81009
▁soir	-8.81152
▁long	-8.81155
▁njëkk	-8.81189
▁mot	-8.81223
▁vache	-8.81251
▁près	-8.81285
ng	-8.81286
koon	-8.81475
▁aller	-8.81578
▁tel	-8.8179
▁aperç	-8.81791
▁tudde	-8.82031
ne	-8.82428
▁égaré	-8.82874
rait	-8.83022
▁dëkki	-8.83161
at	-8.83284
▁amoon	-8.83325
▁jours	-8.8391
▁dé	-8.84059
▁ubbi	-8.84128
exil	-8.8433
▁lanu	-8.84352
der	-8.84687
▁mii	-8.8486
▁toute	-8.84952
▁montre	-8.85204
ň	-8.85233
▁gee	-8.85413
▁nun	-8.85619
▁mal	-8.85718
▁Banso	-8.86715
▁Alors	-8.86749
▁Àngalteer	-8.86749
▁tàmbal	-8.86749
réb	-8.8675
Ouest	-8.8675
▁gunóor	-8.86752
▁quoi	-8.86753
▁Àngale	-8.86761
▁seetlu	-8.86771
▁Ñoom	-8.86784
▁trois	-8.86792
▁peau	-8.86812
▁plaine	-8.86843
▁dàll	-8.86966
▁tuuti	-8.86999
▁yaatu	-8.87072
▁assis	-8.87138
▁bant	-8.87176
▁gaynde	-8.87205
▁aurait	-8.8729
▁ña	-8.87347
▁mujje	-8.87358
▁toit	-8.874
jur	-8.87406
▁dama	-8.87587
▁maanaa	-8.87621
▁wut	-8.87785
▁gudd	-8.87864
▁mains	-8.87968
▁miir	-8.88029
▁lit	-8.88071
▁garde	-8.88629
or	-8.88704
).	-8.89
▁Comme	-8.89104
▁dire	-8.89198
▁Ken	-8.89233
▁Là	-8.90768
ans	-8.9122
▁plu	-8.91321
maa	-8.91397
▁X	-8.91438
ité	-8.91546
▁portes	-8.91703
▁parles	-8.92009
▁lion	-8.92129
▁yor	-8.92293
tôt	-8.9246
▁yére	-8.92526
▁Ñ	-8.92816
▁W	-8.92887
▁Kooku	-8.92978
àddaay	-8.92979
▁jardin	-8.92999
▁sowu	-8.93011
▁dunyaa	-8.93013
▁moroom	-8.93025
avez	-8.93051
▁xeet	-8.93054
▁marché	-8.93116
▁trop	-8.93123
▁Kon	-8.9317
▁feebar	-8.9321
▁grande	-8.9332
▁fut	-8.93517
age	-8.93692
▁laaj	-8.9373
▁montagnes	-8.93771
▁vient	-8.93991
▁kanam	-8.9414
▁jeune	-8.94359
▁parte	-8.94364
h	-8.94596
▁moomu	-8.9503
▁Bamenda	-8.95035
▁nos	-8.95213
▁wone	-8.9523
ses	-8.95837
▁waaj	-8.9601
ur	-8.96019
▁leneen	-8.9616
ez	-8.96695
▁mort	-8.96731
▁ami	-8.9695
▁Di	-8.97224
▁biti	-8.97427
▁...	-8.97755
ukaay	-8.97849
▁Mën	-8.97879
de	-8.98
armée	-8.98081
kk	-8.98169
▁Va	-8.98186
▁won	-8.98504
ata	-8.9853
▁fond	-8.98808
▁defe	-8.98952
▁so	-8.9914
▁jii	-8.99339
▁trouve	-8.99415
▁lieu	-8.99638
▁violence	-8.99666
▁Aucun	-8.99668
▁House	-8.99668
▁tollu	-8.99668
Louis	-8.99669
▁fàtte	-8.99669
▁Saint	-8.9967
▁jéem	-8.99677
▁doktoor	-8.99686
▁baa	-8.99687
▁làrme	-8.99696
▁yónnee	-8.99699
▁ëe	-8.99699
▁Yaw	-8.997
▁simplement	-8.99701
habitude	-8.99729
▁gént	-8.99757
▁salle	-8.99767
▁cause	-8.99778
▁Ak	-8.99806
▁romb	-8.99817
▁ta	-8.99817
▁tëj	-8.99835
avons	-8.99862
▁ñan	-8.99878
▁ňaar	-8.99903
▁deret	-8.99921
▁Noonu	-8.99944
▁boog	-8.99988
▁Dama	-9.00042
▁allé	-9.00206
▁portent	-9.003
▁bëggul	-9.0036
▁buntu	-9.00581
▁ciel	-9.00595
▁Kan	-9.00701
▁Fu	-9.00886
▁villages	-9.01811
▁marche	-9.0212
▁blancs	-9.02146
faral	-9.02934
▁sais	-9.02947
▁Boo	-9.03011
▁neen	-9.03245
ons	-9.03503
▁niroo	-9.04271
c	-9.04306
▁tur	-9.0431
eur	-9.04405
▁forme	-9.04553
▁pars	-9.04601
▁souvenir	-9.04999
si	-9.05016
▁jolie	-9.05282
ël	-9.05548
▁deme	-9.05687
leen	-9.06024
▁partie	-9.06089
▁travail	-9.0614
herbes	-9.06192
▁noire	-9.06462
▁choses	-9.06551
▁song	-9.06767
▁famille	-9.06809
▁mémoire	-9.06809
▁togg	-9.06809
▁paix	-9.06816
▁Peut	-9.06824
▁diiwaan	-9.06831
▁parlait	-9.06832
▁tangor	-9.06837
▁dellusi	-9.06839
▁ngelaw	-9.06843
▁vécu	-9.06862
▁Pour	-9.06862
▁heures	-9.06875
▁Seen	-9.06881
▁gaaw	-9.06889
▁Da	-9.06892
▁wóor	-9.06897
▁dame	-9.06951
▁Ndar	-9.07056
▁mépp	-9.07066
▁bras	-9.07096
▁endroit	-9.07134
▁Yàlla	-9.07134
▁tard	-9.07186
atul	-9.072
▁gendarmes	-9.07222
aire	-9.07342
▁taxoon	-9.07395
▁Wall	-9.07418
▁daj	-9.07521
▁Fan	-9.07604
▁jënd	-9.07606
▁lekk	-9.0785
▁tabax	-9.08481
▁petit	-9.08567
▁Nga	-9.0876
▁sore	-9.09038
▁dëkku	-9.09178
▁noirs	-9.09396
Est	-9.09399
▁sori	-9.09477
▁toutes	-9.10069
elles	-9.10093
▁celle	-9.10792
▁yit	-9.11223
▁vieille	-9.11411
▁xool	-9.1188
▁Bamendaa	-9.12088
▁connu	-9.12494
▁àgg	-9.12734
▁fille	-9.12857
nu	-9.13105
kanam	-9.13191
et	-9.13335
▁Par	-9.13364
où	-9.13399
▁Ra	-9.13442
▁».	-9.13493
waat	-9.13621
añoo	-9.13623
étai	-9.13689
voir	-9.13781
ke	-9.13945
▁dëkke	-9.1414
▁tàng	-9.14167
▁tekk	-9.14244
▁feeñ	-9.14316
imagine	-9.14358
▁britannique	-9.14501
▁liberté	-9.14501
▁sokolaa	-9.14501
▁palais	-9.14501
▁weesoo	-9.14501
▁soldaar	-9.14501
▁wirgo	-9.14502
▁Mbaa	-9.14502
▁théière	-9.14502
▁tëdd	-9.14505
▁kese	-9.14507
▁sucre	-9.14512
▁surtout	-9.14524
▁Maurice	-9.1454
▁asamaan	-9.14542
▁Ibo	-9.14557
▁Frãs	-9.14558
▁ainsi	-9.14559
▁ça	-9.14571
▁sedd	-9.14575
▁faut	-9.14585
▁Yéen	-9.14594
▁acheté	-9.14609
▁Bés	-9.14612
▁rek	-9.14613
▁googu	-9.14613
▁Jox	-9.14631
▁viendra	-9.14642
▁café	-9.14654
▁demkoon	-9.14752
▁yëngu	-9.14753
▁xelam	-9.14995
▁jëkk	-9.15034
▁géej	-9.15062
▁avions	-9.15269
▁habits	-9.15312
▁sàkk	-9.15381
▁suba	-9.15528
▁nanu	-9.15777
▁bee	-9.15812
▁po	-9.16086
ral	-9.16167
ement	-9.16223
▁noo	-9.1625
ance	-9.16431
▁Xan	-9.16745
▁ŋgii	-9.16812
ra	-9.16884
les	-9.16975
oŋ	-9.17126
▁Ne	-9.17378
os	-9.17709
▁yem	-9.1786
▁per	-9.17883
▁pris	-9.17935
mu	-9.17954
▁jant	-9.1831
▁ñii	-9.18348
▁wetu	-9.18741
▁May	-9.19104
▁appelle	-9.19216
me	-9.19557
ais	-9.19839
▁coup	-9.20075
▁Ta	-9.20093
▁grands	-9.20098
▁pres	-9.20431
▁couleurs	-9.20955
▁baat	-9.21004
▁vienne	-9.21106
▁carte	-9.21184
▁garçon	-9.21241
▁woo	-9.21369
Europe	-9.21437
2	-9.21515
▁U	-9.21858
▁x	-9.22084
▁main	-9.22184
woo	-9.22485
▁Cherche	-9.22834
▁doxandéem	-9.22834
▁làmp	-9.22834
▁mellentaan	-9.22834
▁région	-9.22835
▁xanaa	-9.22838
▁déglu	-9.2284
▁Kër	-9.22841
▁boroom	-9.22842
▁manger	-9.22846
▁raison	-9.22849
▁passage	-9.22851
▁yuuxu	-9.22857
▁Jaam	-9.22864
▁longue	-9.22864
▁delloo	-9.22871
▁Lawbe	-9.2288
▁envoyée	-9.22883
▁ngoon	-9.22903
▁appris	-9.22912
▁fépp	-9.22913
▁nangu	-9.22921
▁kàddu	-9.23004
▁R	-9.23073
▁derrière	-9.23087
▁màgget	-9.23116
▁Defe	-9.23142
▁màggat	-9.23192
▁large	-9.23204
▁yaw	-9.23427
▁Demal	-9.2344
▁Moi	-9.23602
▁Ben	-9.23696
el	-9.23876
▁pieds	-9.2388
▁fees	-9.23943
▁fleuves	-9.243
▁mêmes	-9.24328
▁herbes	-9.24335
▁seule	-9.24401
▁jàng	-9.24796
▁duñu	-9.25134
iez	-9.25151
atum	-9.25205
▁ira	-9.25207
▁telle	-9.25344
▁we	-9.25387
▁So	-9.25763
▁Quelle	-9.26001
▁mis	-9.26261
▁vent	-9.26343
midi	-9.26581
▁arrivé	-9.26746
▁fàttali	-9.27009
q	-9.27088
▁masu	-9.2745
▁w	-9.27693
agit	-9.27797
okk	-9.28062
▁të	-9.281
▁kaa	-9.28322
▁égarée	-9.28668
étais	-9.2921
▁séché	-9.29249
▁Koo	-9.29676
fin	-9.29953
▁conçue	-9.30121
j	-9.30177
▁roi	-9.30211
▁première	-9.30298
▁fleuve	-9.30345
▁dayo	-9.30443
kati	-9.30602
▁doy	-9.30633
Ogoja	-9.30707
kër	-9.30733
▁lakk	-9.30937
▁fais	-9.31008
beek	-9.31527
▁dagg	-9.31641
▁tan	-9.31878
▁Guwiyaan	-9.31925
▁Guyane	-9.31925
▁Homme	-9.31925
▁Moussa	-9.31925
▁Sénégal	-9.31925
▁yëkkati	-9.31925
▁lumière	-9.31925
▁silence	-9.31926
zone	-9.31926
▁feuilles	-9.31926
▁Xammee	-9.31927
▁rawati	-9.31927
▁chevaux	-9.31929
▁frère	-9.3193
▁tiim	-9.31931
▁force	-9.31937
▁Gone	-9.3194
▁Moonte	-9.31945
▁téye	-9.31947
▁jëfandikoo	-9.31948
▁yéeg	-9.3195
▁jéggi	-9.31961
▁xéy	-9.31977
▁toogukaay	-9.31986
▁toujours	-9.31993
▁poste	-9.31996
▁xaar	-9.31998
▁bateau	-9.32007
saalum	-9.32014
▁tàll	-9.32017
▁tàkk	-9.32028
▁kilifa	-9.32054
▁faisait	-9.32059
▁yóbbu	-9.32086
▁feneen	-9.32093
▁chez	-9.32094
ewul	-9.321
▁Ñii	-9.32103
▁bépp	-9.32111
▁rëdd	-9.32117
▁fenn	-9.32125
▁Léeg	-9.3217
▁retraite	-9.3223
▁sortir	-9.32237
▁teel	-9.32278
▁Sud	-9.32339
▁ñetti	-9.32556
▁pierres	-9.32615
▁miin	-9.32624
▁tund	-9.32778
▁yab	-9.32862
▁cuir	-9.33267
ka	-9.3329
▁tay	-9.33422
ag	-9.33565
▁partis	-9.33686
tes	-9.3382
▁toogu	-9.34002
▁meloon	-9.3423
ati	-9.34279
ri	-9.34363
ti	-9.3452
▁fall	-9.34546
▁baxa	-9.34696
▁ragal	-9.34863
▁jàll	-9.34969
▁mb	-9.35106
▁set	-9.35157
▁naaj	-9.35763
nga	-9.35951
vant	-9.36068
▁cases	-9.36087
aale	-9.36221
▁Me	-9.36239
euse	-9.36312
belle	-9.36355
▁sera	-9.36537
▁sang	-9.37012
▁nan	-9.37184
kkali	-9.37289
▁petite	-9.37297
▁Loo	-9.37314
ax	-9.375
▁ven	-9.37696
▁tere	-9.37866
aw	-9.37907
uis	-9.38551
▁cons	-9.38743
quel	-9.39124
▁point	-9.39221
▁kon	-9.39313
▁cuisine	-9.39617
ient	-9.39682
▁soi	-9.39981
▁visage	-9.40275
▁livre	-9.40485
▁arbre	-9.40588
âge	-9.4063
aller	-9.40726
▁waxtaan	-9.40818
ngi	-9.40951
fukk	-9.4107
óon	-9.41243
▁jeu	-9.41479
▁Foo	-9.41528
ts	-9.41575
û	-9.41619
unu	-9.41689
▁San	-9.41741
▁r	-9.4187
▁Ri	-9.41873
gànnaar	-9.41925
▁nouveau	-9.41925
▁pirogue	-9.41925
▁chaussures	-9.41925
▁voix	-9.41926
▁Nord	-9.41932
▁mbóot	-9.41932
▁sentiment	-9.41934
▁Ñàkk	-9.41936
▁façon	-9.41938
▁samp	-9.41942
▁subë	-9.41942
▁diggante	-9.41943
▁train	-9.41944
▁janook	-9.41945
▁Fatim	-9.41962
▁metit	-9.41968
▁danga	-9.4197
▁moins	-9.41985
▁jege	-9.41989
▁fanaan	-9.41993
▁bonne	-9.42011
▁xuus	-9.42011
▁morceau	-9.4204
▁Daan	-9.42056
▁loxoom	-9.42083
▁donc	-9.42086
▁genn	-9.42089
atim	-9.42117
▁yëf	-9.42133
▁gor	-9.42179
▁tubaab	-9.42273
▁fer	-9.42319
▁Non	-9.42402
▁joor	-9.42478
▁buur	-9.42617
▁fils	-9.42617
▁njiit	-9.42791
▁wuti	-9.42852
▁xëcc	-9.42935
▁hautes	-9.43233
▁bes	-9.43244
▁feu	-9.43265
éy	-9.43446
entre	-9.43538
▁tefes	-9.43734
▁garçons	-9.43889
▁ét	-9.43954
▁neneen	-9.44071
▁avais	-9.44328
jant	-9.44364
▁Ou	-9.44451
wu	-9.44662
▁vi	-9.44723
▁garabi	-9.4487
▁pou	-9.45259
▁partes	-9.45341
▁connais	-9.45366
▁Saa	-9.45373
▁eû	-9.45738
▁bool	-9.45757
ool	-9.45769
▁kook	-9.45856
oom	-9.45856
mettre	-9.45891
▁waral	-9.45904
dé	-9.45985
▁partira	-9.46361
▁Ña	-9.46629
ès	-9.471
iñ	-9.47229
▁bo	-9.47392
vent	-9.47633
▁fukk	-9.48009
▁noon	-9.48101
▁nul	-9.48369
ique	-9.48472
tant	-9.48646
▁froid	-9.48816
▁entier	-9.49045
ture	-9.49238
tés	-9.49519
▁table	-9.49751
lon	-9.4978
us	-9.5007
▁ñëwul	-9.50079
▁Bon	-9.50224
ar	-9.50236
▁cour	-9.50298
▁Fi	-9.50396
lo	-9.50685
bar	-9.5086
éri	-9.50925
ëf	-9.50936
▁chef	-9.51229
▁kee	-9.51246
▁nom	-9.51393
impression	-9.51697
amour	-9.51794
vous	-9.51934
après	-9.5207
ëgg	-9.52181
réer	-9.52227
▁ciment	-9.52276
▁bol	-9.52445
sse	-9.52507
▁palanteer	-9.52862
▁dënn	-9.52878
▁entrai	-9.5292
éjà	-9.52936
▁foo	-9.52945
▁drap	-9.52984
▁juste	-9.52991
▁yegg	-9.53007
▁Biyaafaraa	-9.53036
▁Jamono	-9.53036
▁Senegaal	-9.53036
▁Sérère	-9.53036
▁bànneex	-9.53036
▁lëndëm	-9.53036
▁médicaments	-9.53036
▁savane	-9.53036
▁société	-9.53036
▁wëndéelu	-9.53036
▁Ainsi	-9.53037
▁complète	-9.53037
▁paaka	-9.53037
▁yow	-9.53037
▁comport	-9.53037
▁jàmm	-9.53037
▁Almaañ	-9.5304
▁cosaan	-9.5304
▁lampe	-9.53041
▁Déedéet	-9.53042
▁woto	-9.53043
▁chaleur	-9.53045
▁baraada	-9.53047
▁parfois	-9.53048
▁wow	-9.53053
▁wanag	-9.53056
▁naqar	-9.53058
▁Musaa	-9.53062
▁reconna	-9.53065
▁Ici	-9.53068
▁ŋgoon	-9.53073
▁gémmiñ	-9.53074
▁woowe	-9.53086
▁wépp	-9.53088
▁Teewul	-9.53099
▁weñ	-9.53105
▁jaŋg	-9.53115
▁alors	-9.5312
▁Toi	-9.53134
▁sànni	-9.53151
▁étions	-9.53153
▁ràbb	-9.5316
▁côte	-9.53165
▁prend	-9.5318
▁longtemps	-9.53181
▁tukki	-9.53184
tiir	-9.53192
▁parlé	-9.53202
▁mucc	-9.53213
▁Niis	-9.53249
▁insectes	-9.53272
▁car	-9.53272
▁pourtant	-9.53282
▁vais	-9.53315
▁meubles	-9.53325
▁teew	-9.53337
▁place	-9.53361
▁far	-9.53373
▁bula	-9.53408
▁objets	-9.53409
kkee	-9.53425
▁gisaat	-9.53481
▁booba	-9.53489
▁fleurs	-9.53526
▁ñooñu	-9.53564
▁enfance	-9.53564
▁ndànk	-9.53564
▁Fii	-9.53593
▁ñaan	-9.5364
▁demande	-9.53669
▁alal	-9.53703
▁Doo	-9.53755
▁lieux	-9.53757
abord	-9.53817
▁sew	-9.53838
▁jan	-9.53863
▁bâtons	-9.53898
▁Alma	-9.54122
▁këram	-9.54258
▁Tay	-9.54303
▁wan	-9.54577
▁Ki	-9.54721
▁yar	-9.54824
▁ceci	-9.54917
ici	-9.55046
▁Jo	-9.5528
▁viennes	-9.55335
▁bees	-9.55437
▁Ya	-9.55448
▁tóo	-9.5548
▁Noon	-9.55568
▁petits	-9.55684
▁ri	-9.55732
▁doo	-9.55765
▁rey	-9.5593
▁jeunes	-9.55999
▁jé	-9.56072
▁gan	-9.56258
▁cherche	-9.56314
entré	-9.56518
▁diis	-9.56762
▁xew	-9.56988
▁pa	-9.57009
Après	-9.57711
▁mar	-9.58126
▁routes	-9.58185
▁pos	-9.5822
▁kay	-9.5837
aay	-9.58532
▁sañ	-9.58562
▁dakk	-9.58992
▁donne	-9.59084
ois	-9.59119
eŋ	-9.59486
▁yat	-9.59518
▁wa	-9.59542
quelles	-9.59547
ch	-9.59633
▁Go	-9.59786
▁gise	-9.60142
▁raconte	-9.60352
oivent	-9.60453
óor	-9.60793
▁Nu	-9.60846
▁Nda	-9.60959
▁wute	-9.6099
ku	-9.6135
part	-9.61362
▁gardé	-9.6138
▁nature	-9.61469
ok	-9.61796
▁réewu	-9.62118
▁elles	-9.62139
▁pro	-9.62279
▁Woo	-9.62366
▁bleu	-9.62744
▁jafe	-9.62883
▁lim	-9.6301
▁rêve	-9.63121
ji	-9.63122
taal	-9.6327
▁guy	-9.63328
gré	-9.63454
▁tête	-9.63528
ni	-9.63545
▁ex	-9.6377
▁montagne	-9.64038
▁pied	-9.64055
▁tar	-9.64145
▁Ñoo	-9.64172
ble	-9.64274
▁fee	-9.64304
▁africain	-9.64466
gisu	-9.64503
▁jën	-9.6462
▁nopp	-9.64865
▁instant	-9.64934
▁tool	-9.6496
àkk	-9.65316
▁yilif	-9.65332
▁chocolat	-9.65492
ourquoi	-9.65497
istrict	-9.65497
esprit	-9.65513
Angleterre	-9.65536
▁Victoria	-9.65536
▁accroché	-9.65536
▁assurément	-9.65536
▁difficile	-9.65536
▁ensemble	-9.65536
▁kéemaane	-9.65536
▁mauvais	-9.65536
▁pantalon	-9.65536
▁xaalis	-9.65536
▁xàmmee	-9.65536
▁yëngal	-9.65536
▁Laobé	-9.65537
▁Monsieur	-9.65537
▁chaussettes	-9.65537
▁Legoos	-9.65537
▁présent	-9.65538
▁dernier	-9.65538
▁keroog	-9.65539
▁palaat	-9.65539
▁janeer	-9.65541
▁puissance	-9.65541
▁Réew	-9.65542
▁juddoo	-9.65542
▁frontière	-9.65545
▁douceur	-9.65546
▁dénd	-9.65548
▁colère	-9.65552
▁départ	-9.65556
▁bomb	-9.65568
▁Officer	-9.65569
▁bouche	-9.65569
▁Dëkk	-9.65578
▁fajkat	-9.65602
▁plein	-9.6562
▁cœur	-9.65632
▁goût	-9.65633
▁yenu	-9.65638
▁Plu	-9.65713
▁gejje	-9.65725
▁Kookule	-9.65737
▁proche	-9.65741
▁riir	-9.65743
▁Nice	-9.65777
▁bekk	-9.6578
▁lonk	-9.65784
▁histoire	-9.65797
▁viennent	-9.65833
▁allait	-9.65916
▁dehors	-9.65919
▁Sunu	-9.65945
▁soppi	-9.6602
▁Tou	-9.66026
▁ton	-9.66038
▁jur	-9.66125
▁parents	-9.66173
▁compte	-9.66177
▁ndey	-9.66215
▁regarder	-9.66226
▁bëggée	-9.66244
▁êtes	-9.66308
▁Wu	-9.66315
▁raay	-9.6634
▁unique	-9.66381
▁sauvages	-9.6652
▁boy	-9.66643
▁mill	-9.6666
▁dóo	-9.66698
▁six	-9.66747
▁jaune	-9.66803
▁Buur	-9.66816
ter	-9.67025
▁sës	-9.67051
nie	-9.67246
z	-9.67318
▁noms	-9.67399
▁waar	-9.67565
▁waxtu	-9.67963
au	-9.68011
argent	-9.68165
▁T	-9.68275
tam	-9.68551
▁yii	-9.68665
ppelle	-9.68724
▁Vas	-9.6875
▁dexu	-9.68781
▁kaas	-9.68917
▁beau	-9.68943
▁commence	-9.69351
▁cont	-9.6943
importe	-9.69443
▁më	-9.69717
▁peur	-9.69766
▁max	-9.69774
kom	-9.69795
▁nëbb	-9.69807
▁ser	-9.70804
▁ré	-9.70809
qu	-9.71112
▁luy	-9.71537
▁inter	-9.71591
▁Mas	-9.71712
▁ru	-9.71744
▁dalal	-9.71797
▁ati	-9.72113
▁sonal	-9.72239
▁daawu	-9.72251
tt	-9.7238
▁Tey	-9.72572
▁Jam	-9.72867
▁ro	-9.73386
▁retour	-9.74194
▁buñ	-9.74251
▁Dañ	-9.74545
aata	-9.74562
baar	-9.74783
ñeen	-9.74899
▁photos	-9.75502
▁sou	-9.75539
mi	-9.75559
▁not	-9.75713
▁nak	-9.75945
▁muur	-9.76342
tions	-9.766
▁gris	-9.76887
▁provi	-9.76939
ande	-9.77035
▁conti	-9.77218
nce	-9.7728
▁français	-9.7763
▁baree	-9.77672
▁dessin	-9.77723
àll	-9.77737
▁tày	-9.77764
▁vivre	-9.7813
▁Cha	-9.78151
▁scorpion	-9.78166
autorité	-9.78176
aventure	-9.78482
instant	-9.78548
▁auto	-9.78612
moi	-9.78656
aurais	-9.78679
▁pënd	-9.78828
▁cherch	-9.78889
dëgg	-9.78914
▁Re	-9.78997
dire	-9.7915
▁lesquel	-9.79375
▁ñett	-9.7941
naka	-9.79623
▁jàkk	-9.79627
aux	-9.79762
▁simple	-9.79764
odeur	-9.79807
▁Ayijoo	-9.79822
▁Casamance	-9.79822
▁Yaakaar	-9.79822
▁besoin	-9.79822
▁bonheur	-9.79822
▁calebasse	-9.79822
▁gouvernement	-9.79822
▁gàncax	-9.79822
▁immense	-9.79822
▁loppitaan	-9.79822
▁màndarga	-9.79822
▁màrse	-9.79822
▁sukkuraat	-9.79822
▁tôle	-9.79822
▁Óbudu	-9.79822
▁premier	-9.79822
▁Ó	-9.79822
▁terrain	-9.79822
▁visite	-9.79822
▁magasin	-9.79823
▁Deŋk	-9.79823
▁rëcc	-9.79823
▁pañe	-9.79823
▁suukër	-9.79823
▁trente	-9.79823
▁wurus	-9.79823
▁reconnu	-9.79823
▁égale	-9.79823
▁bâtiment	-9.79824
▁askan	-9.79825
▁réalité	-9.79825
▁bett	-9.79828
▁Palais	-9.79828
▁mourir	-9.79832
▁solitude	-9.79832
▁campement	-9.79835
▁servir	-9.79835
▁plateaux	-9.79837
▁simoŋ	-9.7984
▁Fekk	-9.7984
argile	-9.79841
▁yeksi	-9.79842
▁mbedd	-9.79847
▁nelaw	-9.79853
▁xeex	-9.79854
▁màndi	-9.7986
▁Xaw	-9.79865
▁raglu	-9.79865
▁dëgër	-9.79869
▁dajale	-9.79888
▁malade	-9.79889
▁journée	-9.79898
thme	-9.799
▁droit	-9.799
▁Pël	-9.79903
▁croyai	-9.79907
▁Ayaa	-9.79922
▁ensuite	-9.79927
▁jeeg	-9.79932
▁000	-9.79933
▁vêtu	-9.79934
▁assiette	-9.79934
▁jàppale	-9.79935
▁sàmm	-9.79935
▁sens	-9.7994
▁wàll	-9.79947
▁fût	-9.79954
▁pom	-9.79955
▁serais	-9.79961
▁couteau	-9.79963
▁termites	-9.79964
▁palmes	-9.79964
▁porteurs	-9.79988
hez	-9.79993
▁moto	-9.80001
▁reçu	-9.80017
▁propre	-9.8002
▁nuages	-9.80022
▁images	-9.80025
▁naqadi	-9.80028
▁yànj	-9.80032
▁courant	-9.8004
▁ventre	-9.8005
▁kukk	-9.80056
▁tub	-9.8006
uukar	-9.80067
▁laisser	-9.80086
▁sorti	-9.80106
▁depuis	-9.80112
im	-9.80126
espère	-9.80156
▁woy	-9.80183
▁chaise	-9.80227
▁venir	-9.80252
▁danu	-9.80286
▁Fais	-9.80288
▁Foofu	-9.80371
▁seng	-9.80371
▁jooy	-9.80373
▁ňuul	-9.80381
exe	-9.80385
▁xoolee	-9.80393
▁wor	-9.80407
▁àngale	-9.80446
▁Bunt	-9.80507
▁H	-9.80515
▁chasse	-9.80529
▁donner	-9.80563
▁fuir	-9.8057
▁anglaise	-9.80588
▁cru	-9.80642
▁kowam	-9.8068
▁vaste	-9.80767
▁district	-9.80807
▁cours	-9.80832
▁dirait	-9.80866
▁jag	-9.80875
▁lëf	-9.80914
▁époque	-9.80928
▁Parle	-9.80941
▁mukk	-9.80966
▁wane	-9.80986
▁yaak	-9.8109
gis	-9.81099
entendre	-9.81174
▁chemins	-9.81222
ga	-9.81268
lle	-9.81584
▁regardes	-9.81678
▁defare	-9.81679
▁coloniale	-9.81725
▁âge	-9.81745
▁doxe	-9.81788
éeri	-9.81791
▁bëggoon	-9.81807
▁në	-9.81884
▁nja	-9.81888
aanaka	-9.81904
▁aar	-9.81935
▁française	-9.82064
existe	-9.8217
ire	-9.8218
nde	-9.82226
▁comment	-9.82258
▁tànki	-9.82281
▁tour	-9.82327
▁premières	-9.82509
ables	-9.82619
▁arrivés	-9.8266
jékk	-9.82791
ay	-9.83
▁crise	-9.83038
▁wutal	-9.83186
▁tir	-9.83494
▁jou	-9.83495
▁siiw	-9.83555
▁gros	-9.83704
▁ndi	-9.83741
vient	-9.83747
▁Yan	-9.83769
▁men	-9.83808
▁waxoon	-9.83857
▁do	-9.84036
▁loo	-9.84089
use	-9.84116
▁pouvai	-9.84134
▁tas	-9.84187
ll	-9.84325
ie	-9.84682
ches	-9.84687
▁ñibbi	-9.84743
bu	-9.84845
▁taabal	-9.84948
▁jànq	-9.84957
ure	-9.84961
▁dàq	-9.85423
▁cee	-9.85495
▁cinq	-9.85509
▁kowe	-9.85521
▁sant	-9.85546
▁habit	-9.85568
▁dessus	-9.85648
▁refuse	-9.85844
▁Car	-9.8616
▁arrivée	-9.86552
bi	-9.86656
▁donn	-9.87006
rie	-9.87547
▁kàttan	-9.87895
près	-9.88159
▁mari	-9.88368
garde	-9.88425
▁soxna	-9.88514
▁hu	-9.8855
p	-9.88753
ngui	-9.89042
▁arrive	-9.89043
▁masuma	-9.89282
▁nguur	-9.89397
▁mbë	-9.89599
▁boue	-9.89712
▁tam	-9.89741
▁faite	-9.89809
la	-9.89925
▁venus	-9.89983
aide	-9.9006
jaa	-9.90087
▁ñooña	-9.90776
image	-9.90945
ène	-9.91344
▁met	-9.91356
eel	-9.91393
kaay	-9.91424
▁jàngal	-9.9148
endant	-9.91736
▁jo	-9.91739
▁nañoo	-9.92514
gal	-9.92853
▁E	-9.92878
▁té	-9.92919
▁Daŋg	-9.92949
▁utilise	-9.92984
▁destin	-9.9316
een	-9.93583
individu	-9.93826
ëpp	-9.93895
pe	-9.93923
▁coupé	-9.94088
▁V	-9.94481
oir	-9.94527
▁sago	-9.94615
indre	-9.94634
▁colonial	-9.94674
▁maladie	-9.94763
▁Xe	-9.948
▁fenêtre	-9.94873
kki	-9.9491
▁ti	-9.94912
▁regarde	-9.9492
herbe	-9.94929
▁tab	-9.94953
▁étranger	-9.94973
▁chemin	-9.94992
ànj	-9.9502
autrefois	-9.95042
entend	-9.95101
gé	-9.95136
A	-9.95149
ñax	-9.95198
époque	-9.95199
O	-9.95279
▁anglais	-9.95592
▁Aw	-9.95828
niki	-9.95841
benn	-9.95889
▁daanu	-9.95903
rt	-9.95905
▁africaine	-9.9591
▁xob	-9.95936
▁sopp	-9.95961
errière	-9.95969
aal	-9.96017
▁jar	-9.96115
ngóor	-9.96129
▁fey	-9.96129
▁féex	-9.96143
▁ressenti	-9.96221
▁frapp	-9.96298
ières	-9.96316
añse	-9.96355
▁chapeau	-9.96432
00	-9.96451
▁tiit	-9.96465
8	-9.96487
▁mbind	-9.96488
Abakaliki	-9.96489
▁Mellentaan	-9.96489
▁Wiktoryaa	-9.96489
▁accompagné	-9.96489
▁auparavant	-9.96489
▁boeuf	-9.96489
▁chemise	-9.96489
▁dëggëntaan	-9.96489
▁jaxasoo	-9.96489
▁ngëlén	-9.96489
▁officer	-9.96489
▁petorool	-9.96489
▁ponkal	-9.96489
▁rideau	-9.96489
▁règle	-9.96489
▁territoire	-9.96489
▁veulent	-9.96489
▁Waxtaan	-9.96489
▁adulte	-9.96489
▁chacun	-9.96489
▁coiff	-9.96489
▁rêvé	-9.96489
▁féete	-9.96489
▁ressens	-9.96489
▁tàmm	-9.96489
▁Lagos	-9.96489
▁désert	-9.96489
▁vingt	-9.96489
▁domaine	-9.9649
▁xibaar	-9.9649
▁fetal	-9.9649
▁Wolof	-9.9649
▁travailleurs	-9.9649
▁vérité	-9.96491
▁contact	-9.96491
▁ndeysaan	-9.96491
▁bërëb	-9.96491
▁construction	-9.96491
▁cheveux	-9.96493
▁séq	-9.96493
▁peinture	-9.96494
▁comprendre	-9.96494
▁Port	-9.96495
▁Africains	-9.96495
▁sotti	-9.96495
▁légère	-9.96497
▁commun	-9.96503
▁werante	-9.96508
▁mbokk	-9.96508
▁wéet	-9.96513
▁lonet	-9.96514
▁léeb	-9.96514
▁gox	-9.96516
▁cofeel	-9.96517
▁Donne	-9.96519
▁Tugël	-9.96521
▁njabootam	-9.96529
▁coucher	-9.9653
▁courir	-9.96531
▁jumtukaay	-9.96533
▁jabar	-9.96534
▁meňň	-9.96535
▁partout	-9.96539
▁déet	-9.96541
▁revenir	-9.96541
▁Jënd	-9.96542
▁gunge	-9.96543
▁début	-9.96546
▁chocolatée	-9.9655
▁viens	-9.96561
▁caaxaan	-9.96569
▁sëkk	-9.9657
▁certainement	-9.96577
▁seetaan	-9.9658
▁brousse	-9.96582
indépendance	-9.96585
▁écrit	-9.96585
▁connaissent	-9.96614
▁junniy	-9.9662
▁thé	-9.9662
▁démb	-9.96621
▁Obudu	-9.96622
▁mangé	-9.96623
▁baaraam	-9.96634
▁sanc	-9.96644
▁habitants	-9.96662
▁taaru	-9.96673
▁jouer	-9.96676
▁juum	-9.96686
▁tàngaay	-9.96686
▁soosu	-9.96687
▁comprends	-9.96688
▁kawas	-9.96695
▁agsi	-9.96698
▁taamu	-9.967
▁bir	-9.9671
▁taw	-9.9673
▁tata	-9.96733
▁Force	-9.96736
▁surga	-9.96739
▁arrêté	-9.96754
▁monter	-9.9679
▁ñor	-9.96815
▁yéemu	-9.96818
▁yëre	-9.96828
▁sor	-9.96835
▁néew	-9.96837
▁rencontrer	-9.96856
▁tàngal	-9.9688
▁h	-9.96886
▁Kor	-9.96903
▁kafe	-9.96928
▁dog	-9.96991
▁com	-9.96999
▁tolloo	-9.96999
▁Dina	-9.97017
▁goog	-9.9702
▁ressentir	-9.9705
▁humaine	-9.97073
▁rage	-9.97136
▁Aro	-9.97147
▁wetam	-9.97158
▁taal	-9.97184
▁somme	-9.97192
▁tontu	-9.97193
▁jambes	-9.97253
▁policiers	-9.97254
▁naat	-9.9726
▁masques	-9.97283
▁Mag	-9.97328
▁jotee	-9.97357
▁Dañu	-9.97404
▁dois	-9.97406
▁naissance	-9.97414
▁dawal	-9.97432
▁darab	-9.97448
▁àpp	-9.97484
▁ñaxtu	-9.97493
▁yéene	-9.97656
▁tekki	-9.97917
▁ŋ	-9.97936
▁ra	-9.97982
▁Ver	-9.9799
▁certaine	-9.98023
▁reer	-9.98024
▁aurais	-9.9807
▁fenêtres	-9.98167
▁souffle	-9.98202
▁juróomi	-9.98217
oc	-9.98307
▁duma	-9.98333
ou	-9.98337
waale	-9.98342
▁tours	-9.98463
▁passer	-9.98466
andoo	-9.98527
▁yax	-9.98542
▁jaam	-9.98637
hoisi	-9.98759
▁amour	-9.98802
▁entré	-9.9887
▁haute	-9.98881
été	-9.98983
▁buum	-9.98997
▁tableau	-9.99233
▁2	-9.99298
▁visages	-9.994
▁tomb	-9.9942
ooy	-9.99484
▁souhaite	-9.99486
▁charge	-9.99543
▁Liggéey	-9.99626
▁indi	-9.99638
▁jekk	-9.99708
▁yeew	-9.99774
▁Ar	-9.99846
▁Afrigam	-9.99986
▁àtte	-10.0008
▁coups	-10.0012
enti	-10.0019
▁Ngi	-10.0044
▁aime	-10.0061
iy	-10.0063
▁coono	-10.0074
olli	-10.0082
▁No	-10.0084
▁co	-10.0093
▁Quelque	-10.0117
lli	-10.0125
▁yàq	-10.0144
▁Dis	-10.0158
▁woowu	-10.0173
▁waxe	-10.0173
▁rivières	-10.0191
eelu	-10.0191
▁Voil	-10.0196
état	-10.0204
▁xamoon	-10.0211
▁dinaa	-10.0218
▁suñ	-10.0222
▁Dana	-10.0262
▁rue	-10.0298
▁chang	-10.035
▁wàcce	-10.0367
▁individu	-10.0386
ion	-10.0406
▁rouges	-10.0414
nement	-10.0417
▁daje	-10.0432
▁suiv	-10.0479
▁tee	-10.0492
oto	-10.0501
▁pis	-10.0506
rends	-10.0521
▁soup	-10.0525
▁siy	-10.0527
entiers	-10.0543
▁alla	-10.0546
▁Ñe	-10.0558
▁lenn	-10.0566
aana	-10.0585
our	-10.0593
▁quelles	-10.0595
aas	-10.0598
▁sain	-10.0603
▁Toute	-10.0619
galu	-10.0621
▁connaiss	-10.0637
▁xet	-10.0713
▁mise	-10.0714
ta	-10.0744
▁ha	-10.0748
appartien	-10.0752
▁pri	-10.0769
géej	-10.08
▁Yara	-10.083
▁ñe	-10.0843
wuñu	-10.0846
▁Fo	-10.0875
▁devenu	-10.0895
ton	-10.0904
ru	-10.0905
asi	-10.0907
ulwoon	-10.0939
▁prêt	-10.0954
gi	-10.0961
▁maître	-10.0968
▁Mar	-10.0975
▁xamant	-10.0997
▁clair	-10.103
▁Voi	-10.1034
ňu	-10.1068
▁Nko	-10.1071
gu	-10.1081
père	-10.1084
art	-10.1093
li	-10.1103
▁bë	-10.1128
▁dikk	-10.1133
ŋŋ	-10.116
▁Ka	-10.1172
▁doonkoon	-10.1188
▁couvert	-10.1203
waan	-10.1211
nd	-10.1216
sin	-10.1248
be	-10.1253
▁liggéeye	-10.1278
aayu	-10.1285
▁outil	-10.131
irai	-10.1313
ole	-10.1323
wi	-10.1332
▁ressembl	-10.1352
▁ñaa	-10.1359
ille	-10.137
▁traverse	-10.1392
▁Wa	-10.1406
occup	-10.1409
▁Gu	-10.1423
▁sûr	-10.1449
▁voiture	-10.1472
▁grandi	-10.1474
▁champ	-10.1476
▁sauvage	-10.1488
▁bâton	-10.1489
▁pierre	-10.149
▁mba	-10.1492
▁denc	-10.1494
▁Abo	-10.1495
▁col	-10.1498
vec	-10.1503
entoure	-10.1511
▁ñeme	-10.1515
jafe	-10.1522
ndax	-10.1531
▁fit	-10.1533
▁fort	-10.1546
▁joli	-10.1548
▁chaud	-10.1552
kow	-10.1558
ré	-10.1563
uf	-10.1564
▁affaire	-10.1574
ootul	-10.1577
▁entendu	-10.1579
arbres	-10.1585
▁daawul	-10.1594
▁Luga	-10.1601
▁bleue	-10.1604
▁taax	-10.1613
▁digg	-10.1616
▁bou	-10.1617
installe	-10.1621
▁sec	-10.1623
▁Xare	-10.1623
aurait	-10.1625
▁nus	-10.1631
ëddu	-10.1634
ersonne	-10.1646
ï	-10.1647
▁Certain	-10.1647
waay	-10.1648
▁At	-10.1648
alcool	-10.1649
apprécie	-10.1649
extérieur	-10.1649
tekkaaral	-10.1649
Ç	-10.1649
”	-10.1649
▁Abaakaliki	-10.1649
▁Adekunle	-10.1649
▁Biafra	-10.1649
▁Georgetown	-10.1649
▁Génnéel	-10.1649
▁Sefiriis	-10.1649
▁Southampton	-10.1649
▁Yoruba	-10.1649
▁alkaati	-10.1649
▁alkol	-10.1649
▁allemande	-10.1649
▁biafrais	-10.1649
▁bûcheron	-10.1649
▁camerounais	-10.1649
▁kalaate	-10.1649
▁mosquée	-10.1649
▁métier	-10.1649
▁njàqare	-10.1649
▁photographi	-10.1649
▁retrouve	-10.1649
▁termitières	-10.1649
▁ustensile	-10.1649
angoisse	-10.1649
▁Anglais	-10.1649
▁Cross	-10.1649
▁Salut	-10.1649
▁mélang	-10.1649
▁tronc	-10.1649
▁zinc	-10.1649
▁“	-10.1649
▁Sorstaawun	-10.1649
▁terrible	-10.1649
▁Moontin	-10.1649
▁compris	-10.1649
▁fonction	-10.1649
▁soxla	-10.1649
▁sàndarm	-10.1649
▁xayma	-10.1649
▁fauve	-10.1649
▁rejoindre	-10.1649
▁probable	-10.1649
▁branche	-10.1649
▁collines	-10.1649
▁douche	-10.1649
▁service	-10.1649
▁xaaju	-10.1649
▁ndóol	-10.1649
▁brûlure	-10.1649
▁poussière	-10.1649
arrière	-10.1649
▁gentil	-10.1649
▁ndigg	-10.1649
▁Viens	-10.1649
▁karaw	-10.1649
▁gànnaay	-10.1649
▁Guddi	-10.1649
▁yàlla	-10.1649
▁ëmb	-10.1649
▁ondul	-10.1649
▁rares	-10.1649
▁gannaaw	-10.1649
▁continent	-10.1649
▁këll	-10.1649
▁doxantu	-10.1649
▁noyyi	-10.1649
▁fecc	-10.165
▁dékku	-10.165
▁delsi	-10.165
▁fowukaay	-10.165
▁soppiku	-10.165
▁ndab	-10.165
▁taille	-10.1651
▁connaissais	-10.1651
▁douce	-10.1651
▁làquji	-10.1651
▁awsa	-10.1651
▁causé	-10.1651
▁juddu	-10.1651
▁Pourtant	-10.1651
▁semaine	-10.1652
▁maintenant	-10.1652
science	-10.1652
▁oncle	-10.1652
nore	-10.1652
▁dirigeant	-10.1652
▁courage	-10.1653
▁mbégte	-10.1653
▁hutte	-10.1653
▁voici	-10.1653
▁puj	-10.1654
▁fitna	-10.1654
▁tap	-10.1654
▁Ho	-10.1654
▁wér	-10.1654
▁ŋgoogule	-10.1655
abond	-10.1655
orage	-10.1655
▁jàppukaay	-10.1656
▁nàññ	-10.1656
▁beg	-10.1657
▁gàddaay	-10.1658
▁sàcc	-10.1658
▁brave	-10.1659
▁raxas	-10.1659
▁yàpp	-10.1659
▁simis	-10.166
▁Ñooñu	-10.1661
▁prendre	-10.1661
▁assez	-10.1661
▁mbaxana	-10.1662
▁cercl	-10.1662
▁xaj	-10.1663
▁saxaaru	-10.1664
▁panier	-10.1666
▁vivant	-10.1666
▁voulu	-10.1667
▁cacher	-10.1667
▁sensation	-10.1667
▁tawat	-10.1668
▁rire	-10.1669
▁avance	-10.1669
▁apporté	-10.167
▁hamacs	-10.167
▁armes	-10.167
▁volets	-10.1671
▁tiis	-10.1671
▁pince	-10.1671
▁njort	-10.1671
▁wóolu	-10.1673
▁fortune	-10.1674
▁Ñaar	-10.1674
daa	-10.1675
▁vertes	-10.1675
▁kookee	-10.1676
▁déci	-10.1676
▁googule	-10.1677
▁pans	-10.1681
▁làq	-10.1682
▁daaneel	-10.1682
▁melax	-10.1683
▁naaxi	-10.1683
▁Garab	-10.1684
▁recherche	-10.1687
▁njaay	-10.1688
▁nijaay	-10.1689
▁resté	-10.169
▁déggoo	-10.169
▁xur	-10.1691
▁Aiya	-10.1695
▁demuloo	-10.1698
app	-10.1702
▁màgge	-10.1703
▁marchent	-10.1705
▁pluie	-10.1705
▁exemple	-10.1706
▁nouvelles	-10.1707
▁ňi	-10.1708
▁sombre	-10.1708
▁rappelle	-10.1709
▁sommet	-10.1709
▁casque	-10.1713
dar	-10.1713
▁cat	-10.1719
▁joge	-10.1719
▁rive	-10.172
▁im	-10.1721
▁yéeme	-10.1722
▁làqu	-10.1725
▁revienne	-10.1725
▁idée	-10.1736
▁mënut	-10.174
▁ras	-10.1741
▁militaires	-10.1744
▁soldats	-10.1744
▁bancs	-10.1744
▁étage	-10.1746
▁mesure	-10.1752
▁forte	-10.1753
▁xaritam	-10.1757
▁parole	-10.1758
▁pareil	-10.176
▁I	-10.176
▁doomam	-10.1764
▁all	-10.1767
▁ñeent	-10.177
▁feeñu	-10.1796
▁rajo	-10.1797
▁éclat	-10.1805
▁marcher	-10.1808
hier	-10.1808
▁troupeau	-10.1815
▁fermée	-10.1817
atoo	-10.183
laam	-10.183
▁yëgaat	-10.1833
▁vide	-10.1835
▁defaree	-10.1838
▁guyy	-10.1838
▁devenus	-10.1838
▁nourri	-10.184
kóon	-10.1842
▁savoir	-10.185
ommé	-10.1851
▁mbooloo	-10.1856
▁Yo	-10.1875
▁pré	-10.1875
▁retourne	-10.1877
▁taxu	-10.1877
▁seetu	-10.1879
nn	-10.1889
▁julli	-10.1889
▁kë	-10.1891
fippu	-10.1895
▁Bum	-10.1895
▁scorpions	-10.1896
▁dessiné	-10.1897
▁lire	-10.1902
oindre	-10.1903
▁impression	-10.1907
▁kam	-10.1909
goom	-10.1912
toon	-10.192
aatu	-10.1923
▁kookuu	-10.1929
▁bleus	-10.1938
tal	-10.194
▁rencontre	-10.1953
▁trou	-10.1954
▁dëkkoon	-10.1962
▁rayon	-10.198
aumes	-10.199
cteur	-10.2007
▁ndo	-10.2011
▁livres	-10.2014
▁saf	-10.2023
mar	-10.2035
pp	-10.2042
▁yé	-10.2068
▁mënee	-10.2083
▁këru	-10.21
▁Leer	-10.2102
▁dos	-10.2123
obul	-10.2146
▁con	-10.2148
▁désir	-10.2155
ins	-10.2162
▁baŋ	-10.2165
▁face	-10.2174
▁wara	-10.2202
▁v	-10.221
▁vari	-10.2222
▁néegi	-10.2224
▁eusse	-10.2238
▁pointe	-10.2244
▁march	-10.2259
▁gisul	-10.2289
▁monté	-10.2297
▁séchée	-10.2306
▁lits	-10.2314
▁cas	-10.2316
appelles	-10.2329
▁laine	-10.2329
nent	-10.2332
tul	-10.2338
sement	-10.2338
maana	-10.2341
▁sàn	-10.2375
▁maîtres	-10.2379
▁ño	-10.2391
▁four	-10.2403
▁prise	-10.2408
▁pé	-10.2423
▁Ŋg	-10.2453
▁seuls	-10.2457
tin	-10.2464
bé	-10.2498
▁Mii	-10.2503
▁tus	-10.2504
ttre	-10.2519
▁Bii	-10.2519
eut	-10.2563
▁blanches	-10.2568
▁dàtt	-10.2572
▁nguuru	-10.2589
nte	-10.2646
▁Def	-10.2648
▁niir	-10.2651
▁chambres	-10.2653
▁xu	-10.2686
êtes	-10.2689
▁suffi	-10.2735
àbbe	-10.2773
avions	-10.2785
▁deey	-10.2789
▁wiy	-10.2795
▁nd	-10.281
tation	-10.2826
anti	-10.2832
▁mënuma	-10.2837
erre	-10.2875
▁dugal	-10.2881
aak	-10.2889
uru	-10.292
anaa	-10.2938
ju	-10.2954
▁armé	-10.2973
▁rend	-10.2997
iques	-10.3
▁plan	-10.3006
▁bas	-10.3008
▁dure	-10.301
ñoo	-10.3011
▁posée	-10.3018
▁sonn	-10.3018
▁be	-10.3027
sion	-10.3027
▁Se	-10.3069
avant	-10.3076
ër	-10.3083
▁Toog	-10.3084
ssent	-10.3086
▁jàppe	-10.3105
▁wàcc	-10.3119
mbaar	-10.3144
▁cou	-10.3165
ût	-10.3175
▁trait	-10.3177
bët	-10.3189
▁fur	-10.3194
▁croi	-10.3198
▁Gan	-10.3209
vions	-10.3209
0	-10.3216
air	-10.3228
eti	-10.3247
▁armée	-10.3257
oor	-10.3258
▁ndugg	-10.3274
uits	-10.3347
▁gr	-10.3349
umaa	-10.3351
ëm	-10.3379
▁pensé	-10.339
▁entouré	-10.3393
▁étalé	-10.3394
tim	-10.3403
▁doxal	-10.3405
▁tegu	-10.3435
▁Aa	-10.3449
àngi	-10.3499
▁Es	-10.3505
▁jooja	-10.3508
ard	-10.3545
▁Quelqu	-10.355
▁sub	-10.3553
óo	-10.3575
▁mêl	-10.3579
▁toj	-10.3588
▁mur	-10.3589
▁conten	-10.3605
▁pourra	-10.3607
▁pouss	-10.3609
▁em	-10.3619
▁ñaw	-10.362
▁bala	-10.363
ssant	-10.3638
ah	-10.3646
▁fui	-10.3659
▁sépar	-10.3665
▁Daawu	-10.3666
▁dan	-10.3669
▁taa	-10.369
▁As	-10.3699
góor	-10.37
▁waxi	-10.3708
to	-10.3714
▁yóbb	-10.3717
ŋga	-10.3727
affaire	-10.3738
▁décor	-10.377
▁xamu	-10.3774
▁faf	-10.3778
▁quitte	-10.3783
▁différent	-10.379
▁découvert	-10.3807
▁Leur	-10.3808
▁vus	-10.3821
▁natt	-10.3841
auté	-10.3842
aube	-10.3843
ã	-10.3866
▁kà	-10.3869
▁éta	-10.3876
aloon	-10.3896
▁certain	-10.39
▁Pu	-10.391
eef	-10.3919
▁Bul	-10.392
ombre	-10.3921
▁accepte	-10.3929
orts	-10.3943
▁président	-10.395
▁miroir	-10.3952
▁laissé	-10.3978
▁tasse	-10.3982
▁ancien	-10.3987
abri	-10.3988
celle	-10.3989
ngale	-10.399
wuma	-10.399
▁gendarme	-10.3992
fu	-10.3993
ňax	-10.3993
▁nombre	-10.3999
▁yéem	-10.401
écouter	-10.4013
▁guerr	-10.4013
dou	-10.4015
enfance	-10.4023
ndànk	-10.4023
endroit	-10.4025
Yàlla	-10.4025
leel	-10.4026
F	-10.4028
aucun	-10.4028
▁xii	-10.4028
xare	-10.4031
con	-10.4041
▁précédé	-10.4041
xam	-10.4041
▁ouvert	-10.4042
xew	-10.4042
▁rëbb	-10.4044
▁humain	-10.4058
car	-10.406
▁général	-10.4061
▁ouverte	-10.4063
▁pren	-10.4065
▁Foof	-10.4068
réew	-10.4068
▁coupe	-10.4072
▁golf	-10.4074
▁entend	-10.4079
des	-10.4081
▁Ko	-10.4085
toi	-10.4086
ddina	-10.4095
▁Néeg	-10.4095
▁kàdd	-10.41
get	-10.4103
▁Moka	-10.4111
ver	-10.4119
deux	-10.4121
▁Doom	-10.4126
fi	-10.4127
▁méng	-10.4128
▁tente	-10.4132
▁révolte	-10.4133
mbres	-10.4137
innaaw	-10.4138
isme	-10.4138
egg	-10.4138
▁gëm	-10.414
war	-10.414
cture	-10.4141
▁xërëm	-10.4146
àww	-10.4147
araada	-10.4148
abandon	-10.4148
3	-10.4149
▁njege	-10.4149
▁njàng	-10.4149
Arkuur	-10.4149
arachide	-10.4149
aumône	-10.4149
enthousiasme	-10.4149
horreur	-10.4149
humanité	-10.4149
llemands	-10.4149
▁1928	-10.4149
▁1948	-10.4149
▁Ahidjo	-10.4149
▁BBC	-10.4149
▁Bretagne	-10.4149
▁Bërëtaañ	-10.4149
▁Calabar	-10.4149
▁Chuku	-10.4149
▁Harcourt	-10.4149
▁Jeffries	-10.4149
▁Kalabaar	-10.4149
▁Louga	-10.4149
▁NGo	-10.4149
▁Voyage	-10.4149
▁accepté	-10.4149
▁alentour	-10.4149
▁bavarda	-10.4149
▁béjjén	-10.4149
▁combinaison	-10.4149
▁discipline	-10.4149
▁disparu	-10.4149
▁excessive	-10.4149
▁grâce	-10.4149
▁incapable	-10.4149
▁kaaraange	-10.4149
▁lorgnons	-10.4149
▁légende	-10.4149
▁ndanka	-10.4149
▁officier	-10.4149
▁privilèges	-10.4149
▁proximité	-10.4149
▁présence	-10.4149
▁radio	-10.4149
▁ruisseau	-10.4149
▁sibbiru	-10.4149
▁sèche	-10.4149
▁trapèze	-10.4149
▁tropicale	-10.4149
▁trésor	-10.4149
▁véhicule	-10.4149
▁yëngatu	-10.4149
▁Ñëw	-10.4149
▁éprouv	-10.4149
▁accroche	-10.4149
▁cliché	-10.4149
▁obsession	-10.4149
▁rajaxe	-10.4149
▁répond	-10.4149
▁soixante	-10.4149
▁Alfa	-10.4149
▁Birayim	-10.4149
▁extraordinaire	-10.4149
▁kilomet	-10.4149
▁pénétr	-10.4149
▁vieillard	-10.4149
▁ëlëk	-10.4149
▁bakkan	-10.4149
▁fauteuil	-10.4149
▁ràññe	-10.4149
▁sept	-10.4149
▁Juróom	-10.4149
▁guyaab	-10.4149
▁chèvres	-10.4149
▁toilettes	-10.4149
▁xamantane	-10.4149
▁Confi	-10.4149
▁Macron	-10.4149
▁règne	-10.4149
▁Gaynd	-10.4149
▁coow	-10.4149
▁daŋar	-10.4149
▁possible	-10.4149
▁Demuloo	-10.4149
▁dëll	-10.4149
▁weesu	-10.4149
▁1968	-10.4149
▁Kipli	-10.4149
▁jërr	-10.4149
▁poitrine	-10.4149
▁ayubes	-10.4149
▁effect	-10.4149
▁compos	-10.4149
▁interdit	-10.4149
▁Agsil	-10.4149
▁conduis	-10.4149
▁firndeel	-10.4149
▁mbindeef	-10.4149
▁larmes	-10.415
▁bënn	-10.415
▁soxal	-10.415
▁Combi	-10.415
▁caract	-10.415
▁peine	-10.415
▁naître	-10.415
▁ňàkk	-10.415
▁perdre	-10.415
▁gazelle	-10.415
▁ràpp	-10.415
▁heureux	-10.415
▁moyen	-10.415
▁revenu	-10.415
▁États	-10.415
▁lëmm	-10.415
▁flamme	-10.415
▁bãŋ	-10.415
itié	-10.415
▁habituellement	-10.415
▁foudre	-10.415
▁électrique	-10.415
▁fureur	-10.415
▁riz	-10.415
▁mbemb	-10.415
▁meetar	-10.4151
▁ropp	-10.4151
▁bruit	-10.4151
▁lentement	-10.4151
▁repas	-10.4151
▁fomp	-10.4151
▁njariñ	-10.4151
▁móobal	-10.4151
▁dencukaay	-10.4151
▁voudrait	-10.4151
▁Dieu	-10.4151
▁verra	-10.4151
▁échappé	-10.4151
▁fièvre	-10.4151
▁commencé	-10.4151
▁maasaloo	-10.4151
▁tàggat	-10.4151
▁Mbam	-10.4152
▁pension	-10.4152
▁dimbali	-10.4153
▁fanweer	-10.4153
▁contraire	-10.4153
▁sauce	-10.4153
▁meññ	-10.4153
▁Bateri	-10.4153
▁taq	-10.4153
▁pegg	-10.4153
▁genre	-10.4153
▁Terre	-10.4153
▁capable	-10.4153
▁Poor	-10.4154
▁caisse	-10.4154
▁gëléem	-10.4154
▁frappions	-10.4154
▁Bamako	-10.4154
▁appelé	-10.4155
lbéen	-10.4155
▁surveill	-10.4155
▁absent	-10.4156
▁gosse	-10.4156
▁wert	-10.4156
▁simila	-10.4156
▁oublier	-10.4156
▁miirloo	-10.4157
▁pourquoi	-10.4157
▁Looloo	-10.4158
▁màtt	-10.4158
▁Dégg	-10.4158
▁décrit	-10.4158
▁prière	-10.4158
▁chapeaux	-10.4159
▁ràkkaaju	-10.416
▁woowa	-10.416
▁poudre	-10.4161
▁yemale	-10.4161
▁raconté	-10.4161
▁Rao	-10.4162
▁drapeau	-10.4162
▁marqué	-10.4162
▁Tann	-10.4162
▁soxor	-10.4162
▁nangoo	-10.4162
saŋ	-10.4163
▁tubay	-10.4163
▁charme	-10.4163
▁rose	-10.4163
▁pétrole	-10.4164
erig	-10.4164
cation	-10.4165
▁serré	-10.4165
▁sooke	-10.4165
▁disp	-10.4166
▁partez	-10.4167
▁baobab	-10.4168
▁remis	-10.4168
▁tëwa	-10.4168
▁dëppoo	-10.4168
▁bëggóon	-10.4169
▁Demkoon	-10.4169
▁travailler	-10.4169
▁kookale	-10.417
▁dress	-10.417
▁muraille	-10.417
▁portale	-10.417
▁méngale	-10.4171
▁apparaissent	-10.4171
▁Banyo	-10.4171
▁penku	-10.4171
▁élevé	-10.4171
▁dijj	-10.4172
▁soirée	-10.4173
▁Demuma	-10.4174
▁pain	-10.4174
▁tuuru	-10.4174
▁aigu	-10.4175
▁sœurs	-10.4177
▁oreilles	-10.4177
▁Joor	-10.4177
▁plats	-10.4177
▁tëgg	-10.4177
▁móol	-10.4178
▁kaki	-10.4178
▁dég	-10.4178
▁yeggee	-10.418
▁matinée	-10.4181
ñaa	-10.4181
▁cultive	-10.4181
▁clé	-10.4184
▁puur	-10.4185
▁Mbir	-10.4186
▁brûlant	-10.4187
▁Mokaa	-10.4187
kkati	-10.4188
▁att	-10.4188
▁install	-10.419
▁jaa	-10.4193
▁fum	-10.4193
▁fowu	-10.4196
▁libre	-10.4199
▁sell	-10.42
▁battu	-10.4203
ish	-10.4203
▁rendu	-10.4204
▁neuf	-10.4206
tiens	-10.4208
▁US	-10.4209
▁càkk	-10.4209
▁Cependant	-10.4211
▁étrange	-10.4212
▁corde	-10.4212
▁demain	-10.4213
▁fen	-10.4215
▁amené	-10.4215
▁nuru	-10.4216
▁diggu	-10.4217
▁weg	-10.4217
▁jàkka	-10.4218
juram	-10.422
tóor	-10.4221
▁battant	-10.4222
▁allez	-10.4222
▁fameuse	-10.4224
▁kilomètres	-10.4225
▁fruits	-10.4225
▁juges	-10.4225
▁ñaaw	-10.4226
metti	-10.423
empire	-10.4232
roule	-10.4233
▁marque	-10.4233
▁kayit	-10.4235
▁xobi	-10.4238
▁xóot	-10.424
▁construi	-10.4248
▁gar	-10.425
▁kooka	-10.4257
▁courses	-10.4258
▁rëbbi	-10.4258
uver	-10.4258
▁joow	-10.4259
▁jàppoon	-10.4265
▁dundam	-10.4265
oroom	-10.4269
▁neexee	-10.4269
▁patte	-10.427
▁ger	-10.4272
ose	-10.4274
▁secondes	-10.4274
▁gës	-10.4275
▁vagues	-10.4276
pa	-10.4281
▁serv	-10.4282
▁El	-10.4284
▁Amin	-10.4284
▁waaxu	-10.4289
engag	-10.4291
▁faax	-10.4291
▁toolu	-10.4293
▁créé	-10.4293
ailles	-10.4293
▁xer	-10.4298
▁éc	-10.4299
▁tenue	-10.4303
▁prenant	-10.4305
▁jog	-10.4307
▁manque	-10.4307
▁partait	-10.4308
▁xa	-10.4311
elu	-10.4311
▁ho	-10.4319
ignore	-10.432
exerce	-10.4322
▁Aka	-10.4326
▁dig	-10.4326
▁Nun	-10.4329
▁roo	-10.4333
▁rob	-10.4343
▁ceeb	-10.4344
▁anciens	-10.4346
▁cré	-10.4347
▁Ñi	-10.4352
aff	-10.4354
▁baň	-10.4358
▁sii	-10.4358
échapper	-10.4363
▁champs	-10.4375
▁pax	-10.4376
▁toogoon	-10.4379
▁partent	-10.4383
▁Njiit	-10.4398
▁diine	-10.4399
rass	-10.44
ouille	-10.4402
▁confie	-10.4402
▁demuñu	-10.4409
▁peinte	-10.4414
▁maladies	-10.4425
▁manifest	-10.4427
▁mbal	-10.4432
▁exerc	-10.4433
naissance	-10.4441
tum	-10.4443
ddi	-10.4451
▁sib	-10.4454
andis	-10.4456
cousu	-10.446
gante	-10.4463
▁brill	-10.4465
▁char	-10.4466
▁ker	-10.4467
▁cri	-10.4473
uwaay	-10.4475
▁accepter	-10.4479
eri	-10.4481
▁muus	-10.4497
▁découverte	-10.4503
▁jeux	-10.4515
▁Éta	-10.452
▁imagin	-10.4524
▁instants	-10.4525
▁diir	-10.4525
▁guis	-10.4538
▁Nag	-10.454
▁ñee	-10.4545
prè	-10.4549
▁xat	-10.4554
▁né	-10.4558
▁wuut	-10.4567
▁dib	-10.4572
ages	-10.4581
amm	-10.4582
▁bég	-10.4585
▁dikkul	-10.4591
▁sot	-10.4608
boo	-10.4614
▁yare	-10.4615
▁Europe	-10.4619
▁bàn	-10.4634
▁court	-10.4638
▁gale	-10.4642
▁Kakaa	-10.4653
▁Lui	-10.4653
▁leçon	-10.4655
▁Doon	-10.4678
aires	-10.4679
sant	-10.4682
ards	-10.4711
▁envahi	-10.4712
▁br	-10.4726
seen	-10.4731
uñ	-10.4733
▁cartes	-10.4737
▁press	-10.474
Européens	-10.4746
▁chi	-10.4765
▁ree	-10.4767
ekte	-10.4771
▁waxee	-10.4773
▁filles	-10.4792
▁grise	-10.4809
▁médecine	-10.4811
▁sipp	-10.4821
éer	-10.4871
▁Mak	-10.4873
▁demb	-10.4881
▁rab	-10.4885
sme	-10.4894
ca	-10.4916
appellent	-10.4916
▁Waxu	-10.492
enfants	-10.4927
▁répu	-10.4938
▁her	-10.4948
▁nekkoon	-10.4957
▁Sor	-10.4967
noo	-10.4967
stique	-10.4971
▁jafee	-10.4979
▁garabu	-10.4981
▁dunde	-10.4987
rab	-10.5008
▁àndal	-10.5012
▁defee	-10.5018
allaient	-10.5039
éew	-10.5053
▁Mari	-10.5056
▁jógee	-10.5082
lée	-10.5093
▁devenue	-10.5098
▁Ànd	-10.5111
ëtt	-10.5115
▁fil	-10.5126
géeju	-10.5138
arc	-10.5197
ants	-10.5212
do	-10.5245
▁bri	-10.5258
▁Gisu	-10.5296
sait	-10.5303
▁ňa	-10.5317
▁form	-10.5331
▁racont	-10.534
waa	-10.5351
▁dun	-10.5363
agir	-10.5369
▁soog	-10.5376
▁mett	-10.5386
ets	-10.5401
co	-10.5413
able	-10.5433
tee	-10.5434
▁quitt	-10.545
▁Mac	-10.5451
oire	-10.5458
▁boot	-10.547
▁continu	-10.5473
▁nuits	-10.5479
▁fow	-10.5485
▁vol	-10.549
▁aventure	-10.5499
embou	-10.5511
mba	-10.5532
urant	-10.5536
añ	-10.5548
om	-10.5569
▁déf	-10.5582
▁rec	-10.5585
nge	-10.5605
▁chauff	-10.5614
rge	-10.5619
ñii	-10.5628
ien	-10.5636
cc	-10.5639
aj	-10.5645
▁bale	-10.5651
▁yooy	-10.5655
▁natte	-10.5655
àllaam	-10.5673
kàlla	-10.5692
▁tant	-10.5695
kkal	-10.571
aaw	-10.572
ivre	-10.5784
▁kat	-10.58
ŋun	-10.5848
ol	-10.5851
uni	-10.5868
▁écout	-10.5871
▁accompagne	-10.5876
▁melo	-10.5888
fant	-10.5891
urs	-10.5901
lal	-10.5926
▁pratique	-10.5957
▁lions	-10.5964
▁jë	-10.5983
ko	-10.6001
maŋ	-10.6029
▁av	-10.6045
tion	-10.6054
appelle	-10.6086
▁gëna	-10.6094
▁tama	-10.6115
▁wal	-10.6122
▁Xo	-10.6126
▁lawoon	-10.6135
▁fini	-10.6159
aanu	-10.6171
▁nëw	-10.6177
laay	-10.6188
ston	-10.6203
faites	-10.6204
▁chameau	-10.6231
▁yatt	-10.6238
bal	-10.626
wal	-10.6262
▁Ji	-10.6282
ami	-10.6284
▁Ng	-10.6286
è	-10.6294
▁fowe	-10.6317
po	-10.6318
▁dur	-10.6321
▁souffr	-10.6322
▁sida	-10.6337
rgent	-10.6342
eem	-10.6347
we	-10.6354
▁représente	-10.6361
▁noppal	-10.6398
oque	-10.6444
stitué	-10.6448
▁yàqu	-10.6488
▁ñun	-10.6513
ét	-10.6521
rent	-10.6524
▁touch	-10.6553
ction	-10.6565
ersi	-10.6568
mm	-10.6575
ekk	-10.6583
sses	-10.6611
vi	-10.6616
asse	-10.6619
wee	-10.6627
table	-10.6643
ier	-10.6666
▁yemu	-10.667
▁bel	-10.6672
▁tée	-10.6687
écu	-10.669
stice	-10.6698
the	-10.67
▁isolé	-10.6727
rète	-10.6758
▁yaroo	-10.6773
▁connaît	-10.6774
▁xe	-10.6783
mes	-10.6784
ba	-10.6802
see	-10.6822
inu	-10.6844
▁Noo	-10.6865
▁anima	-10.6899
▁cor	-10.6921
euses	-10.6932
ële	-10.6951
naay	-10.6959
oyd	-10.6964
og	-10.6969
▁tra	-10.6982
▁É	-10.6986
ad	-10.6998
▁confi	-10.7
▁qua	-10.7019
▁teewu	-10.7045
eeku	-10.7058
▁teqal	-10.706
ph	-10.7064
▁cris	-10.7072
▁njàmba	-10.7076
ib	-10.7094
▁një	-10.71
▁bindoo	-10.7109
▁danañ	-10.7121
▁laisse	-10.7122
du	-10.7126
aises	-10.7127
▁jëmm	-10.7127
ivement	-10.7132
aura	-10.7141
àtt	-10.7146
lot	-10.7149
▁anim	-10.7155
▁maye	-10.7167
▁permet	-10.7168
▁peint	-10.7168
alal	-10.7169
▁var	-10.7177
▁gro	-10.7179
ide	-10.718
▁ouvr	-10.7181
▁coll	-10.7186
I	-10.7186
▁moomee	-10.7194
▁conçu	-10.7196
▁Nd	-10.7201
▁tran	-10.721
▁fermé	-10.7218
off	-10.7222
▁parcour	-10.7225
ît	-10.7246
umes	-10.7249
heure	-10.7251
étendue	-10.7251
rëb	-10.7272
ront	-10.7274
arrêt	-10.7281
▁distance	-10.7284
▁moustiquaire	-10.7284
▁peuple	-10.7284
chure	-10.7291
etti	-10.7299
▁âgé	-10.7302
▁vert	-10.7305
▁seconde	-10.731
▁vague	-10.7312
ňň	-10.7312
ordre	-10.7314
▁soldat	-10.7315
ing	-10.7316
▁policier	-10.7318
▁militaire	-10.7319
▁jambe	-10.7319
▁civil	-10.7322
junni	-10.7323
émotion	-10.7324
école	-10.7324
▁fatigu	-10.7324
▁rituel	-10.7325
▁fleur	-10.7326
▁fulla	-10.7329
lève	-10.7335
▁banc	-10.7336
ailleurs	-10.7339
ooñii	-10.734
utilis	-10.7342
habite	-10.7345
daamar	-10.7347
▁trace	-10.735
arrivée	-10.735
Aro	-10.7353
naaw	-10.7356
▁épi	-10.7356
taay	-10.7357
yëngu	-10.7359
joor	-10.736
feebar	-10.736
tubaab	-10.7362
dëkk	-10.7365
â	-10.7366
peur	-10.7369
▁fabriqu	-10.737
▁attend	-10.7371
La	-10.7372
ève	-10.7376
ñetti	-10.7376
tey	-10.7377
construi	-10.7383
▁Bien	-10.7387
llez	-10.7392
▁jubal	-10.7393
▁gë	-10.7394
tuuti	-10.7402
ndait	-10.7405
▁ň	-10.7406
inter	-10.7408
kum	-10.7411
àdd	-10.7413
mb	-10.7413
yëg	-10.7417
uwaa	-10.7418
▁ñooñ	-10.7423
ssait	-10.7424
▁wë	-10.7424
▁Gara	-10.7427
▁naqad	-10.7429
▁reç	-10.7433
óox	-10.7433
▁pense	-10.7434
▁kaf	-10.7435
▁coule	-10.7437
rément	-10.7438
nesi	-10.744
angue	-10.7442
▁Yooy	-10.7442
▁Ño	-10.7444
ème	-10.7446
▁remonte	-10.7451
▁sàpp	-10.7451
jekkal	-10.7454
▁masque	-10.7455
▁prépare	-10.7456
▁dinañ	-10.7457
▁génér	-10.7458
ême	-10.7466
▁danger	-10.7466
ption	-10.7467
▁tege	-10.7469
éloigne	-10.7469
▁daf	-10.7473
rveille	-10.7474
▁Jën	-10.7475
▁rés	-10.7477
dog	-10.7478
àbbal	-10.7478
▁Babungo	-10.7478
awbe	-10.7478
▁1	-10.7479
▁tàgg	-10.748
essaie	-10.7482
obscur	-10.7482
4	-10.7482
Adamawa	-10.7482
approche	-10.7482
calpel	-10.7482
▁195	-10.7482
▁6	-10.7482
▁Aadamawa	-10.7482
▁Bénoué	-10.7482
▁Bénuwe	-10.7482
▁Colonie	-10.7482
▁Fields	-10.7482
▁Français	-10.7482
▁Kàttan	-10.7482
▁Radiyasi	-10.7482
▁Riwër	-10.7482
▁Sahara	-10.7482
▁Tàngaay	-10.7482
▁achète	-10.7482
▁affluent	-10.7482
▁banlieue	-10.7482
▁bànxaas	-10.7482
▁cafards	-10.7482
▁callweer	-10.7482
▁caricatural	-10.7482
▁chirurgi	-10.7482
▁climatiseurs	-10.7482
▁couscous	-10.7482
▁couvercle	-10.7482
▁dankalikoo	-10.7482
▁dispensaire	-10.7482
▁dysenterie	-10.7482
▁dëj	-10.7482
▁encerclé	-10.7482
▁gàngiri	-10.7482
▁habillé	-10.7482
▁invisible	-10.7482
▁jaabante	-10.7482
▁justifi	-10.7482
▁lézard	-10.7482
▁mébét	-10.7482
▁njoowaan	-10.7482
▁pelouse	-10.7482
▁physique	-10.7482
▁protection	-10.7482
▁période	-10.7482
▁recouvert	-10.7482
▁respire	-10.7482
▁ridicule	-10.7482
▁roppëlaan	-10.7482
▁réponse	-10.7482
▁résidence	-10.7482
▁résignation	-10.7482
▁serviteurs	-10.7482
▁spéci	-10.7482
▁totaux	-10.7482
▁treize	-10.7482
▁tribales	-10.7482
▁trône	-10.7482
▁viendront	-10.7482
▁waxambaane	-10.7482
▁xorom	-10.7482
▁yendoo	-10.7482
▁yëngoo	-10.7482
▁étouffante	-10.7482
▁ëllëg	-10.7482
▁ófise	-10.7482
enfonce	-10.7482
▁brindille	-10.7482
▁lëkkale	-10.7482
▁minuscule	-10.7482
▁pikiir	-10.7482
▁reetaan	-10.7482
▁taariix	-10.7482
▁ténia	-10.7482
▁visible	-10.7482
▁xadde	-10.7482
incendie	-10.7482
▁Algérie	-10.7482
▁assailli	-10.7482
▁beurre	-10.7482
▁camarades	-10.7482
▁ginnax	-10.7482
▁hasard	-10.7482
▁impeccable	-10.7482
▁mboq	-10.7482
▁meilleur	-10.7482
▁propos	-10.7482
▁réccu	-10.7482
sultat	-10.7482
▁Faranse	-10.7482
▁bataaxal	-10.7482
▁joxoñ	-10.7482
▁procur	-10.7482
considéra	-10.7482
▁latérite	-10.7482
▁veuille	-10.7482
▁xàmb	-10.7482
▁Téere	-10.7482
▁bahut	-10.7482
▁cuisini	-10.7482
▁naŋgu	-10.7482
▁écrivent	-10.7482
éwén	-10.7482
▁Indiens	-10.7482
▁yaxeet	-10.7482
▁popula	-10.7482
ospital	-10.7482
▁craquelée	-10.7482
▁dispañseer	-10.7482
poussiér	-10.7482
▁douleur	-10.7482
▁répandu	-10.7482
▁yalwaan	-10.7482
▁Dellu	-10.7482
▁Saawusamton	-10.7482
▁politique	-10.7482
▁totale	-10.7482
▁trouvé	-10.7482
▁ñàng	-10.7482
▁méthod	-10.7482
▁Jàng	-10.7482
▁piège	-10.7482
▁hérit	-10.7482
▁défens	-10.7482
▁plaît	-10.7482
▁rapporté	-10.7482
▁suppose	-10.7482
▁Fàttewu	-10.7482
▁mûr	-10.7482
▁galeries	-10.7482
▁Fiild	-10.7482
▁yàkkamt	-10.7482
mbrées	-10.7482
▁ŋàññ	-10.7482
▁Polisoŋ	-10.7482
▁glac	-10.7482
▁essay	-10.7483
▁parfaite	-10.7483
▁batã	-10.7483
▁iróko	-10.7483
▁vaisselle	-10.7483
▁Yéesu	-10.7483
▁kéwël	-10.7483
▁fréquenta	-10.7483
▁dajaloo	-10.7483
▁pacifi	-10.7483
▁plaintes	-10.7483
▁Alseri	-10.7483
▁bref	-10.7483
▁quartier	-10.7483
interrog	-10.7483
▁colonne	-10.7483
▁saŋx	-10.7483
▁tënk	-10.7483
▁chute	-10.7483
▁wékk	-10.7483
urgence	-10.7483
▁Kaasamaas	-10.7483
▁karaaf	-10.7483
▁mbagg	-10.7483
▁descente	-10.7483
▁gëdd	-10.7483
▁plonge	-10.7483
▁gorilles	-10.7483
▁carafe	-10.7483
nze	-10.7483
▁ndaje	-10.7483
ilip	-10.7483
▁souten	-10.7483
▁colonisation	-10.7483
▁Partout	-10.7483
▁soppikoo	-10.7483
plomb	-10.7483
▁Tabax	-10.7483
▁déborda	-10.7483
▁jouets	-10.7483
▁sculptés	-10.7483
▁voulez	-10.7483
▁Ndox	-10.7483
▁prétend	-10.7483
▁foyer	-10.7483
▁noyyee	-10.7483
▁rajoom	-10.7483
▁xélu	-10.7483
mall	-10.7483
▁aimait	-10.7483
aleekum	-10.7484
▁poing	-10.7484
▁River	-10.7484
▁Bro	-10.7484
▁profit	-10.7484
▁laxas	-10.7484
▁gauche	-10.7484
▁tâche	-10.7484
▁travaillé	-10.7484
Unis	-10.7484
▁jadd	-10.7484
▁paille	-10.7484
▁Ngom	-10.7484
▁wecc	-10.7484
▁plage	-10.7484
▁fàcc	-10.7484
▁tooñ	-10.7484
▁natale	-10.7484
▁Laaj	-10.7484
▁wacc	-10.7484
▁fusils	-10.7485
opération	-10.7485
▁wotoom	-10.7485
▁ŋgoogu	-10.7485
▁cuit	-10.7485
▁domestique	-10.7485
avancé	-10.7485
islam	-10.7485
▁wisit	-10.7485
▁couchés	-10.7485
▁mëdd	-10.7485
▁colons	-10.7485
rmis	-10.7485
▁janool	-10.7485
▁réuni	-10.7485
▁compagnie	-10.7485
▁chaîne	-10.7485
▁jaawale	-10.7485
▁préparé	-10.7485
▁xàll	-10.7485
▁camp	-10.7486
zar	-10.7486
▁proie	-10.7486
▁këruus	-10.7486
▁njël	-10.7486
▁repris	-10.7486
▁doj	-10.7486
▁bouill	-10.7486
▁toppatoo	-10.7486
▁voyait	-10.7486
▁Niseer	-10.7486
▁orages	-10.7486
▁ceinture	-10.7486
▁généreux	-10.7487
▁vieillesse	-10.7487
▁Kari	-10.7487
▁Niger	-10.7487
▁consacré	-10.7487
▁ňoom	-10.7487
▁ganesi	-10.7487
▁ruine	-10.7488
▁dajeel	-10.7488
▁signifiai	-10.7488
▁crép	-10.7488
▁daagu	-10.7488
▁semblait	-10.7488
▁Sall	-10.7488
▁ŋaam	-10.7489
▁fourni	-10.7489
▁tëral	-10.7489
▁contrai	-10.749
▁brûlait	-10.749
▁màkkaan	-10.749
▁travaillait	-10.749
▁rejet	-10.749
▁Sëri	-10.749
▁Mets	-10.749
▁payer	-10.749
taññ	-10.7491
▁souvent	-10.7491
étroit	-10.7491
▁film	-10.7491
▁superposé	-10.7491
▁Wiyaa	-10.7491
▁fexe	-10.7491
▁siège	-10.7492
épaisse	-10.7492
▁Ngon	-10.7492
▁familier	-10.7492
▁relev	-10.7492
pace	-10.7492
▁allumette	-10.7492
▁cornes	-10.7492
▁Laisse	-10.7492
▁ñeex	-10.7492
▁jeunesse	-10.7492
▁complet	-10.7493
▁messager	-10.7493
▁généralement	-10.7493
sting	-10.7493
▁monument	-10.7493
▁écriture	-10.7493
▁changement	-10.7493
uvet	-10.7493
▁nawet	-10.7494
▁revoir	-10.7494
▁reyante	-10.7494
▁sujet	-10.7495
édu	-10.7495
▁Dugg	-10.7495
▁pàkk	-10.7495
▁Peul	-10.7495
▁nombreux	-10.7496
▁tëri	-10.7496
▁vivaient	-10.7496
▁manies	-10.7496
▁gerte	-10.7497
▁arrivant	-10.7497
▁Nil	-10.7497
▁fatt	-10.7497
axum	-10.7497
▁camion	-10.7497
paradis	-10.7498
▁lutteur	-10.7498
▁ancienne	-10.7498
▁lunette	-10.7499
▁torche	-10.7499
▁bày	-10.75
▁quitté	-10.75
▁Suuf	-10.75
abax	-10.75
▁poison	-10.7501
▁yaatal	-10.7501
▁moqu	-10.7501
▁weexaay	-10.7501
▁ver	-10.7503
▁Sàll	-10.7503
▁ndoorte	-10.7504
▁revanche	-10.7504
▁moderne	-10.7504
▁équatoriale	-10.7504
▁campagne	-10.7504
▁Suku	-10.7506
▁géant	-10.7506
▁seraient	-10.7507
▁rencontré	-10.7508
▁police	-10.7508
▁gëmoon	-10.7508
▁wóo	-10.7509
▁foog	-10.7509
▁fem	-10.7509
▁pâte	-10.7511
▁Riis	-10.7512
▁doux	-10.7512
umeur	-10.7512
▁direction	-10.7514
▁effray	-10.7514
▁respect	-10.7514
▁siècle	-10.7514
▁ordinaire	-10.7514
▁mètres	-10.7514
▁géey	-10.7515
▁usé	-10.7515
▁niróo	-10.7515
▁ñorul	-10.7515
▁contrebas	-10.7516
xosi	-10.7516
▁Autre	-10.7517
▁yegsi	-10.7518
écroul	-10.752
▁Ijama	-10.752
▁luxe	-10.7521
▁génnaan	-10.7521
▁partager	-10.7521
acle	-10.7522
élan	-10.7522
▁prot	-10.7523
▁vaccins	-10.7523
▁palmiers	-10.7523
ente	-10.7523
▁pistes	-10.7525
▁gëj	-10.7525
▁oreiller	-10.7525
▁tanc	-10.7525
▁jouent	-10.7526
▁saisir	-10.7527
▁détest	-10.7527
▁secours	-10.7528
▁yàcc	-10.7528
▁inspiré	-10.7528
▁inventé	-10.7528
jji	-10.7528
▁marchand	-10.7528
▁conservé	-10.7529
▁sages	-10.7529
▁ram	-10.753
▁gàddu	-10.753
▁wala	-10.7531
jet	-10.7531
▁penser	-10.7531
▁rax	-10.7532
▁tepp	-10.7533
▁dalukaay	-10.7533
gnes	-10.7533
isol	-10.7533
ension	-10.7533
▁brûlé	-10.7533
commode	-10.7533
▁préparer	-10.7536
▁Wée	-10.7536
▁alalam	-10.7536
▁dënnam	-10.7536
▁sànneek	-10.7536
▁Yooyu	-10.7537
▁Weer	-10.7537
ggal	-10.7538
jënd	-10.7539
▁chantant	-10.754
▁soow	-10.754
▁habiter	-10.754
▁segg	-10.7542
▁xarat	-10.7542
▁nirool	-10.7542
edd	-10.7544
▁Ah	-10.7546
ho	-10.7546
▁In	-10.7547
tuaire	-10.7549
▁tendre	-10.755
▁tukkee	-10.755
▁nóox	-10.755
▁aada	-10.755
▁myst	-10.7552
méeri	-10.7555
anis	-10.7556
▁demkoonul	-10.7558
▁enfoncé	-10.7558
▁dieu	-10.7559
oti	-10.756
▁Néegu	-10.756
pas	-10.756
pression	-10.7561
▁débarqu	-10.7561
▁or	-10.7561
▁Abal	-10.7562
▁tàkkal	-10.7563
▁contenu	-10.7563
▁salon	-10.7564
▁sukkandik	-10.7565
▁perçois	-10.7566
▁lever	-10.7567
▁dépass	-10.7567
kh	-10.7567
▁rendi	-10.7568
▁fés	-10.7569
▁île	-10.757
▁waañ	-10.757
▁appartement	-10.7571
▁xë	-10.7573
▁tient	-10.7574
▁newu	-10.7577
▁utilisé	-10.7577
ngalu	-10.758
▁raŋ	-10.7582
▁vé	-10.7582
yaa	-10.7585
▁excl	-10.7587
▁perdue	-10.7588
▁goyave	-10.7588
▁anecdote	-10.7588
▁dinañu	-10.7588
▁échange	-10.7589
voûte	-10.759
▁bonul	-10.759
▁lointains	-10.7593
▁tambours	-10.7593
▁tiroirs	-10.7593
agrandi	-10.7594
▁ben	-10.7596
▁trempé	-10.7596
▁disait	-10.7598
▁jawwu	-10.7598
gation	-10.7598
▁attaché	-10.7598
rôle	-10.76
▁lepp	-10.76
▁restent	-10.7601
▁Pari	-10.7602
▁colonie	-10.7602
▁tournée	-10.7606
▁Yeew	-10.7606
trappe	-10.7606
▁karo	-10.7606
▁voyageur	-10.7607
▁gras	-10.7608
▁Deg	-10.7609
ndey	-10.7609
▁bokkul	-10.7612
▁xal	-10.7612
▁aimer	-10.7613
trait	-10.7614
uw	-10.7615
▁générale	-10.7617
▁Jël	-10.7622
dée	-10.7622
▁cli	-10.7625
▁ailleurs	-10.7627
▁waxtoo	-10.7627
▁mour	-10.7627
▁rentrer	-10.7628
sañ	-10.7632
▁daamar	-10.7633
▁terminé	-10.7636
inv	-10.7637
▁regardent	-10.7639
rude	-10.7639
▁rem	-10.7639
▁fullaal	-10.7642
▁joo	-10.7652
▁xiir	-10.7657
▁soin	-10.7657
▁duuf	-10.7658
▁màng	-10.7658
particulièrement	-10.7659
▁chaude	-10.7663
▁pén	-10.7663
antee	-10.7663
▁gagne	-10.7663
▁relié	-10.7665
▁âgés	-10.7666
▁conçus	-10.7668
▁enfin	-10.7671
▁cuisiner	-10.7671
hn	-10.7673
▁Pom	-10.7673
arrachait	-10.768
▁perle	-10.768
aaya	-10.7684
▁arriv	-10.7686
▁Yoon	-10.769
▁canne	-10.769
▁Guy	-10.7692
▁cra	-10.7695
▁dents	-10.7697
▁Paris	-10.7699
▁écouter	-10.7702
▁partant	-10.7706
▁jépp	-10.7706
ud	-10.7707
liers	-10.7708
▁yëge	-10.7713
▁bëtam	-10.7713
▁yaru	-10.7718
▁liggéeyam	-10.7721
▁féexal	-10.7724
▁Baal	-10.7728
▁voie	-10.7729
▁paysage	-10.7736
▁tentes	-10.7736
▁pënde	-10.7743
source	-10.7743
▁tasses	-10.7748
jàmbaar	-10.7752
▁dessine	-10.7755
▁ñam	-10.7756
▁remplie	-10.7759
jaar	-10.7764
▁ouvertes	-10.7764
▁Ek	-10.7765
▁médicale	-10.7771
gub	-10.7777
▁fâch	-10.7778
▁ubb	-10.7784
▁trouver	-10.7785
▁lutte	-10.7793
▁autrefois	-10.7808
▁voitures	-10.7815
▁yoonam	-10.7824
euss	-10.7834
▁kawar	-10.7839
▁affaires	-10.7841
▁guide	-10.7843
boît	-10.7848
fal	-10.7848
▁nez	-10.7855
▁décoré	-10.7861
▁luisant	-10.7862
▁bra	-10.7869
eeñ	-10.7887
▁étrangers	-10.7888
▁préfér	-10.7889
agiss	-10.7893
ifs	-10.7895
▁biiri	-10.7906
▁xoole	-10.791
hum	-10.7912
éger	-10.7914
▁Ai	-10.7914
mag	-10.7924
▁limit	-10.7925
▁tonn	-10.7932
▁africaines	-10.7938
▁taxawaay	-10.7943
rendre	-10.7949
ns	-10.7949
▁goo	-10.7956
ener	-10.796
garder	-10.7962
▁vivres	-10.7964
ous	-10.7964
tuñu	-10.7966
▁tri	-10.7968
▁wërale	-10.7969
▁partirai	-10.799
▁ëf	-10.7995
cieux	-10.8007
alement	-10.8015
▁demi	-10.8026
ourn	-10.8032
▁wéeru	-10.804
▁rêves	-10.8042
▁coc	-10.8043
kke	-10.8043
▁yóbba	-10.8046
àyyee	-10.805
▁sortie	-10.805
▁Wóo	-10.8053
issent	-10.8064
▁mand	-10.8065
entraîne	-10.8067
da	-10.8071
ilité	-10.8082
▁mor	-10.8084
oy	-10.8085
▁balle	-10.8094
▁fameu	-10.8097
▁seri	-10.8099
rit	-10.8102
ades	-10.8103
ière	-10.8106
mmoon	-10.8108
èt	-10.8112
rées	-10.8112
▁mala	-10.8117
▁souri	-10.8117
▁yore	-10.8118
▁new	-10.8129
▁vir	-10.813
▁Aie	-10.8133
aix	-10.8143
▁conc	-10.8155
énorme	-10.8162
▁cuisines	-10.8196
▁dab	-10.822
lé	-10.8223
▁fuñ	-10.8246
▁Boob	-10.8246
ence	-10.8281
▁fl	-10.8295
▁constat	-10.8301
▁plante	-10.8306
▁retire	-10.8307
▁née	-10.831
son	-10.8313
▁captur	-10.8316
▁extr	-10.8322
▁toje	-10.8322
▁couverte	-10.8332
ram	-10.8333
▁hauteur	-10.8339
▁utilis	-10.8342
▁content	-10.8342
▁cent	-10.836
▁dét	-10.8374
▁waajal	-10.8374
exu	-10.838
▁jooj	-10.8385
▁destiné	-10.8397
▁Bariwu	-10.8397
▁imp	-10.8401
àngaan	-10.8405
▁nà	-10.8408
▁prie	-10.8411
koo	-10.8412
habitation	-10.8417
▁atte	-10.8443
illi	-10.8445
▁plant	-10.8447
▁opeereka	-10.8447
▁tôt	-10.8455
▁lourde	-10.848
ët	-10.8486
▁parc	-10.8494
▁Malheureu	-10.8502
▁Ru	-10.8506
▁souvenirs	-10.8507
koonuñu	-10.851
nace	-10.8526
▁nde	-10.8531
▁jolies	-10.854
àddu	-10.8545
gguma	-10.8547
▁Sooy	-10.8558
▁ub	-10.8563
▁nju	-10.8568
▁liggéeykat	-10.8569
▁parent	-10.8579
▁wii	-10.859
▁marches	-10.859
▁Nes	-10.8618
▁morts	-10.8622
▁ava	-10.863
▁Waxat	-10.8646
▁noppalu	-10.8655
▁defante	-10.8657
▁noires	-10.867
▁rus	-10.867
▁vic	-10.8678
omp	-10.8691
iale	-10.8695
diction	-10.8695
▁métall	-10.8699
▁claire	-10.87
▁naň	-10.8703
▁Wut	-10.8704
rage	-10.8706
ewaan	-10.8709
▁Daawul	-10.8711
▁mask	-10.8711
▁fr	-10.8715
ŋgeen	-10.8722
ugu	-10.8728
▁coupée	-10.873
▁ém	-10.8732
jje	-10.8733
ii	-10.8742
▁ap	-10.8744
▁Kook	-10.8753
▁int	-10.8758
▁duñ	-10.8765
▁gisee	-10.8796
▁jàngale	-10.8797
ers	-10.881
▁pli	-10.8811
▁jà	-10.8821
▁tuutee	-10.8824
▁ch	-10.8825
adi	-10.8837
▁Waxul	-10.8868
▁Suñ	-10.8879
▁circule	-10.888
ser	-10.8885
▁wuy	-10.8888
▁combat	-10.8891
andu	-10.8894
mon	-10.8897
nique	-10.8915
▁gardée	-10.8917
▁Tont	-10.8919
▁kas	-10.8919
ñaar	-10.8948
▁doonoon	-10.8955
▁jëli	-10.8986
▁bag	-10.8991
▁moments	-10.8997
ef	-10.9
▁emport	-10.9006
ëlu	-10.9014
▁dép	-10.9023
▁taar	-10.9047
▁froide	-10.905
oppose	-10.906
élu	-10.9068
nable	-10.9076
▁dim	-10.9086
▁toogal	-10.9118
anté	-10.9127
▁go	-10.9129
commencer	-10.9136
ds	-10.9137
xe	-10.9146
▁sóob	-10.9152
▁recommenc	-10.9154
▁noot	-10.9175
mené	-10.9194
lëer	-10.9199
egarde	-10.9218
ejje	-10.9225
▁nax	-10.926
▁pratiqu	-10.9279
▁Ro	-10.928
▁bul	-10.9305
▁appart	-10.9323
▁nob	-10.933
omm	-10.9335
▁tué	-10.9346
▁pouv	-10.9353
▁précis	-10.9381
tais	-10.9381
▁écouta	-10.9392
opp	-10.9394
▁refus	-10.9408
jaay	-10.9409
resse	-10.9497
nou	-10.9499
ck	-10.9518
ama	-10.9545
antes	-10.9565
▁jal	-10.9569
enferme	-10.9591
ňeent	-10.9618
▁rentre	-10.9624
sé	-10.9632
▁kàttanu	-10.9653
acc	-10.9679
▁paresseu	-10.9703
▁Der	-10.9726
▁Njo	-10.9751
aaxaan	-10.9752
▁fàttalik	-10.9754
acre	-10.9754
▁jaaxa	-10.9758
arriver	-10.9766
bbe	-10.9776
▁nekkin	-10.9795
▁mette	-10.98
▁sos	-10.9806
han	-10.9822
▁làmb	-10.9827
▁xame	-10.9832
kku	-10.9836
én	-10.984
onne	-10.9845
▁apport	-10.9865
▁sel	-10.9872
▁danser	-10.9875
▁teen	-10.9886
▁vibr	-10.9886
▁eau	-10.9916
ëri	-10.9937
▁occ	-10.9958
ssures	-10.9987
▁cr	-11.0001
oupe	-11.0024
▁mënoo	-11.0027
▁embr	-11.0047
iné	-11.0049
assé	-11.0088
isons	-11.0094
pérer	-11.0095
▁puiss	-11.0132
▁mode	-11.0156
▁napp	-11.0178
▁xolu	-11.0196
▁fà	-11.0203
▁détr	-11.0228
tique	-11.0231
▁lait	-11.0231
▁environ	-11.024
▁bac	-11.0255
▁Bo	-11.0275
▁termin	-11.0278
jj	-11.0288
eer	-11.0291
non	-11.0314
eñ	-11.034
▁oppos	-11.0342
▁viv	-11.0344
igne	-11.0348
eetul	-11.0349
ises	-11.0351
▁enferm	-11.0366
aarloo	-11.0379
roon	-11.0392
▁bêt	-11.0404
▁Ab	-11.0415
▁Ter	-11.0415
mies	-11.0418
▁résist	-11.0419
▁dàqee	-11.0445
▁Ŋgo	-11.0447
ord	-11.0456
ari	-11.0457
▁év	-11.049
nité	-11.0505
cé	-11.0524
▁combatt	-11.0532
uleen	-11.0543
ppu	-11.0546
sique	-11.0555
▁fourr	-11.0569
jum	-11.0575
▁Ton	-11.0592
▁soree	-11.0626
jjant	-11.0631
ya	-11.0632
ots	-11.0642
▁nëb	-11.0679
▁safar	-11.0694
wale	-11.0708
▁tuut	-11.071
▁emporte	-11.0721
▁gard	-11.0723
▁dawul	-11.0739
nes	-11.0756
▁métal	-11.0767
▁agg	-11.0787
▁fël	-11.0806
▁amu	-11.0841
chettes	-11.0842
▁import	-11.0848
▁Wute	-11.0857
▁batt	-11.0866
mbo	-11.0875
▁consul	-11.0877
omin	-11.0927
▁Gi	-11.0957
▁teint	-11.096
gar	-11.0966
ërëm	-11.0967
▁sangl	-11.1038
naire	-11.1053
▁Sen	-11.1055
▁dénu	-11.1059
▁nj	-11.1079
▁Bam	-11.1094
▁discu	-11.1111
mboo	-11.1114
▁Degg	-11.1118
▁jouai	-11.1128
saal	-11.1133
ññ	-11.114
▁fë	-11.1151
ôt	-11.1164
goo	-11.1166
ile	-11.1182
▁désire	-11.1183
ada	-11.1203
▁Bari	-11.1224
cher	-11.1242
matu	-11.1246
▁sort	-11.1277
ó	-11.1332
▁doyu	-11.1335
▁Daa	-11.1337
iggéeykat	-11.1344
▁para	-11.135
▁Dóo	-11.1373
ouvant	-11.1375
aimes	-11.1381
orange	-11.1417
▁Kaka	-11.1426
▁Be	-11.1429
manche	-11.1439
▁conv	-11.1481
▁Celle	-11.1489
▁rong	-11.1513
gg	-11.1515
▁Want	-11.1517
▁brûle	-11.1518
▁montr	-11.1556
tip	-11.1569
▁yooya	-11.1571
rabi	-11.1602
igna	-11.162
▁fra	-11.162
aines	-11.1626
aar	-11.1646
▁gra	-11.1649
kaa	-11.1651
onnement	-11.1666
Im	-11.1669
changer	-11.1674
▁Xamu	-11.1681
occidentale	-11.17
ast	-11.1703
roulée	-11.1704
▁guddee	-11.1705
▁Salaa	-11.1707
enez	-11.1729
ffrir	-11.1734
▁choi	-11.1736
kook	-11.1737
▁caché	-11.1742
▁daju	-11.1748
hré	-11.1755
▁violent	-11.1758
▁sta	-11.1762
▁réserv	-11.1764
ësu	-11.1779
▁cassé	-11.1783
▁allum	-11.1788
undu	-11.1789
èrement	-11.1789
lière	-11.1791
▁kak	-11.1792
laa	-11.1812
naa	-11.1812
àpp	-11.1816
▁lég	-11.1822
afe	-11.1829
▁lë	-11.1838
▁souffl	-11.1847
▁màgg	-11.1856
ànd	-11.1861
uire	-11.1868
aguma	-11.1871
▁xëcce	-11.1885
▁ngone	-11.1887
▁mbool	-11.1908
pill	-11.1911
ve	-11.1913
alité	-11.1923
▁sab	-11.1926
▁Mo	-11.1927
iiru	-11.1927
ica	-11.1934
ures	-11.1948
▁fekke	-11.1967
habit	-11.198
ob	-11.1983
go	-11.1994
ttache	-11.2007
▁troupe	-11.2014
ful	-11.2021
▁médical	-11.2028
piri	-11.2039
lla	-11.2043
accompagne	-11.2045
rel	-11.2046
▁abal	-11.2049
envo	-11.2051
année	-11.2055
he	-11.2063
chet	-11.2068
lop	-11.2071
▁rempli	-11.2071
imis	-11.2073
▁jóg	-11.2081
▁ac	-11.2083
▁vue	-11.2089
banaan	-11.2091
avion	-11.21
échapp	-11.2104
▁Bë	-11.2112
eguñu	-11.2122
ément	-11.213
onnée	-11.2144
▁sëq	-11.2146
▁To	-11.2149
▁deseetu	-11.2154
▁statue	-11.2161
îte	-11.2164
▁prov	-11.2167
bare	-11.2175
ddu	-11.2187
▁Xa	-11.2193
arbre	-11.2193
▁làppto	-11.2195
▁reli	-11.2202
ëg	-11.2217
ngue	-11.2226
gël	-11.2238
▁pata	-11.2243
saient	-11.2244
songe	-11.2248
omu	-11.2255
▁for	-11.2256
dra	-11.2265
ive	-11.227
▁puisqu	-11.2278
imp	-11.2279
▁pla	-11.2281
▁retrait	-11.2282
▁endurci	-11.2286
▁caravane	-11.2286
nti	-11.2289
bukun	-11.2289
inte	-11.2289
venir	-11.2292
▁Sopp	-11.2293
▁geste	-11.2294
tuut	-11.2299
▁jaww	-11.2304
▁tambour	-11.2304
▁lointain	-11.2305
emmen	-11.2309
▁tiroir	-11.231
▁kilomètre	-11.2312
▁fruit	-11.2312
▁levé	-11.2315
ssure	-11.232
▁nouvelle	-11.2321
aime	-11.2321
chauff	-11.2323
arrête	-11.2324
▁transport	-11.2325
étudiant	-11.2326
jàngoro	-11.2326
espoir	-11.2326
origine	-11.2326
19	-11.2326
meuble	-11.2327
ennemi	-11.2327
▁juge	-11.2328
▁fourmi	-11.2331
ŋgoo	-11.2332
▁bouge	-11.2332
féex	-11.2334
tout	-11.2334
Africain	-11.2334
allu	-11.2335
hi	-11.2335
game	-11.2336
onc	-11.2337
▁deven	-11.2339
appartement	-11.2341
échange	-11.2341
▁mont	-11.2343
attend	-11.2344
▁tàkku	-11.2345
île	-11.2346
chais	-11.2347
US	-11.2348
demain	-11.2349
xóot	-11.235
éclat	-11.2352
Aiya	-11.2352
accepter	-11.2352
▁éclair	-11.2352
exemple	-11.2352
▁Gene	-11.2353
pluie	-11.2356
histoire	-11.2357
jaune	-11.2357
dehors	-11.2357
café	-11.236
cle	-11.2361
féexal	-11.2361
côté	-11.2362
C	-11.2362
lancs	-11.2363
foncée	-11.2363
Tubaab	-11.2363
▁affect	-11.2363
ñëw	-11.2364
jag	-11.2367
lëpp	-11.2368
▁regret	-11.237
romb	-11.2371
sori	-11.2372
Br	-11.2372
jou	-11.2372
ttends	-11.2374
vert	-11.2374
óol	-11.2376
insectes	-11.2381
ccepte	-11.2382
ëkk	-11.2382
▁objet	-11.2382
goog	-11.2383
▁to	-11.2388
▁yomb	-11.2389
Ja	-11.239
raŋ	-11.2394
▁gejj	-11.2395
ndaw	-11.2396
fite	-11.2399
élic	-11.2403
ongtemps	-11.2403
oxoom	-11.2405
▁ressent	-11.2405
oulé	-11.241
endorm	-11.2415
▁tenu	-11.2416
▁xott	-11.2417
▁kókkal	-11.2419
trop	-11.2424
allume	-11.2431
▁tourbillon	-11.2437
▁rappel	-11.2439
obab	-11.244
▁gàdd	-11.2442
cru	-11.2442
▁Demerara	-11.2443
▁ennemi	-11.2443
▁démo	-11.2444
▁Mbi	-11.2444
▁mbaxan	-11.2445
téen	-11.2447
ces	-11.2448
onvers	-11.2448
ouvre	-11.245
éro	-11.245
▁sàq	-11.2451
act	-11.2451
▁neñ	-11.2452
▁chat	-11.2452
▁trava	-11.2455
▁étudi	-11.2458
baat	-11.2459
exi	-11.246
▁Solda	-11.246
itude	-11.2461
oxor	-11.2462
ënfandikoo	-11.2463
▁jëfandik	-11.2464
▁Pou	-11.2464
ex	-11.2466
ëk	-11.2466
▁cohabit	-11.2467
umtukaay	-11.2467
ngli	-11.2467
▁religi	-11.2467
▁njaboot	-11.2468
doorte	-11.2468
cité	-11.2468
ërë	-11.2469
blie	-11.247
bégte	-11.2471
▁Camero	-11.2472
▁moomoo	-11.2473
ouff	-11.2474
▁envoy	-11.2475
▁compl	-11.2475
▁famili	-11.2476
oudre	-11.2476
ège	-11.2477
ilifa	-11.2477
usqu	-11.2477
▁tor	-11.2477
▁compagn	-11.2477
▁plateau	-11.2478
résidents	-11.2478
▁couch	-11.2478
œu	-11.2479
wel	-11.2479
ngasin	-11.248
▁européen	-11.248
eaucoup	-11.248
▁ginnaa	-11.248
àttalikuwu	-11.248
activ	-11.2481
▁publi	-11.2481
▁meuble	-11.2481
humid	-11.2481
pêch	-11.2481
▁firnde	-11.2482
▁196	-11.2482
possib	-11.2482
▁autorit	-11.2482
▁ñép	-11.2482
▁Ë	-11.2482
▁porc	-11.2482
▁bërki	-11.2482
▁folklor	-11.2482
égoïs	-11.2482
▁Diggante	-11.2482
▁Kamakusa	-11.2482
▁Sadiola	-11.2482
▁Tartar	-11.2482
▁agricole	-11.2482
▁aveugl	-11.2482
▁berkelle	-11.2482
▁collection	-11.2482
▁douloureu	-11.2482
▁gàngune	-11.2482
▁gâteau	-11.2482
▁héroï	-11.2482
▁mauricien	-11.2482
▁musulmans	-11.2482
▁navigu	-11.2482
▁permangana	-11.2482
▁principa	-11.2482
▁ràŋŋatik	-11.2482
▁serpent	-11.2482
▁tàndarma	-11.2482
▁xàjj	-11.2482
7	-11.2482
Allemagne	-11.2482
Christ	-11.2482
amertume	-11.2482
appuyer	-11.2482
awanpoor	-11.2482
blème	-11.2482
bourbouille	-11.2482
congelé	-11.2482
effaçait	-11.2482
harmoni	-11.2482
hygiène	-11.2482
inclin	-11.2482
indefondi	-11.2482
infirmière	-11.2482
installaient	-11.2482
ologie	-11.2482
raisemblablement	-11.2482
tëñëx	-11.2482
uscule	-11.2482
ègre	-11.2482
économi	-11.2482
énergie	-11.2482
équat	-11.2482
▁1913	-11.2482
▁1914	-11.2482
▁1939	-11.2482
▁1940	-11.2482
▁Accra	-11.2482
▁Bakalu	-11.2482
▁Bawob	-11.2482
▁Bawop	-11.2482
▁Cawnpore	-11.2482
▁Corporation	-11.2482
▁Dispañseer	-11.2482
▁Duwaalaa	-11.2482
▁Foumban	-11.2482
▁Hoggar	-11.2482
▁Ibada	-11.2482
▁Kikuyu	-11.2482
▁Kishong	-11.2482
▁Kupuru	-11.2482
▁Kwaja	-11.2482
▁Kótónu	-11.2482
▁Londres	-11.2482
▁Mbembé	-11.2482
▁Memfo	-11.2482
▁Normàndi	-11.2482
▁Petroleum	-11.2482
▁Saxaraa	-11.2482
▁Touareg	-11.2482
▁Yoroubas	-11.2482
▁Yàkkamtiwuñu	-11.2482
▁Z	-11.2482
▁absurde	-11.2482
▁accompagnait	-11.2482
▁admirable	-11.2482
▁alaateret	-11.2482
▁armiňoŋ	-11.2482
▁automobile	-11.2482
▁bavards	-11.2482
▁beerso	-11.2482
▁berceau	-11.2482
▁bergers	-11.2482
▁brèche	-11.2482
▁bàmmeel	-11.2482
▁bànqaas	-11.2482
▁bâtisse	-11.2482
▁cancrelats	-11.2482
▁carapaces	-11.2482
▁cellule	-11.2482
▁châteaux	-11.2482
▁clampser	-11.2482
▁colport	-11.2482
▁conception	-11.2482
▁confronté	-11.2482
▁cotonn	-11.2482
▁cravate	-11.2482
▁cérémonie	-11.2482
▁difficulté	-11.2482
▁différence	-11.2482
▁distendu	-11.2482
▁doigt	-11.2482
▁dortoirs	-11.2482
▁déformée	-11.2482
▁dégingandé	-11.2482
▁détermination	-11.2482
▁empesé	-11.2482
▁faagaagal	-11.2482
▁faraňse	-11.2482
▁favoris	-11.2482
▁foufou	-11.2482
▁gangrène	-11.2482
▁grenier	-11.2482
▁gên	-11.2482
▁horizon	-11.2482
▁hâte	-11.2482
▁hérissé	-11.2482
▁impoli	-11.2482
▁inflexible	-11.2482
▁infranchissable	-11.2482
▁inscription	-11.2482
▁interrompu	-11.2482
▁jàmbat	-11.2482
▁jàmmarloo	-11.2482
▁jànkoontee	-11.2482
▁jóolóoli	-11.2482
▁kompale	-11.2482
▁laaxira	-11.2482
▁léthargi	-11.2482
▁maasàllaa	-11.2482
▁magnifique	-11.2482
▁mandibules	-11.2482
▁marécages	-11.2482
▁mbañeel	-11.2482
▁mbëggeel	-11.2482
▁migrateurs	-11.2482
▁morsures	-11.2482
▁mouvement	-11.2482
▁njàmburam	-11.2482
▁ombrage	-11.2482
▁palabres	-11.2482
▁particulier	-11.2482
▁patients	-11.2482
▁pentuur	-11.2482
▁permanent	-11.2482
▁pidgin	-11.2482
▁preuve	-11.2482
▁principes	-11.2482
▁pàpaaya	-11.2482
▁pólis	-11.2482
▁póliti	-11.2482
▁ravins	-11.2482
▁reconnaître	-11.2482
▁rectiligne	-11.2482
▁renversé	-11.2482
▁retrouvé	-11.2482
▁rompre	-11.2482
▁récipient	-11.2482
▁sarwiis	-11.2482
▁savate	-11.2482
▁souffert	-11.2482
▁sourcils	-11.2482
▁soviétique	-11.2482
▁sportive	-11.2482
▁suspendu	-11.2482
▁tabaski	-11.2482
▁takkarnaase	-11.2482
▁teerusi	-11.2482
▁tiitaange	-11.2482
▁trafic	-11.2482
▁tragique	-11.2482
▁utiles	-11.2482
▁verticale	-11.2482
▁végétation	-11.2482
▁walbatiku	-11.2482
▁zébr	-11.2482
▁étoile	-11.2482
▁évidemment	-11.2482
▁ñambaan	-11.2482
▁ótó	-11.2482
▁Pensées	-11.2482
▁cafko	-11.2482
▁cohorte	-11.2482
▁parisienne	-11.2482
▁truc	-11.2482
▁épouse	-11.2482
ffirme	-11.2482
▁Yàggu	-11.2482
▁anémi	-11.2482
▁bataille	-11.2482
▁bloc	-11.2482
▁climat	-11.2482
▁espion	-11.2482
▁jaxase	-11.2482
▁moket	-11.2482
▁papaye	-11.2482
▁pijin	-11.2482
▁possession	-11.2482
▁posséd	-11.2482
▁prisonnier	-11.2482
▁pàttalik	-11.2482
▁raffiné	-11.2482
▁responsab	-11.2482
▁silencieuse	-11.2482
▁trott	-11.2482
▁voisinage	-11.2482
autopsie	-11.2482
rifice	-11.2482
ébène	-11.2482
▁Berbi	-11.2482
▁Bokas	-11.2482
▁Congo	-11.2482
▁Kaburi	-11.2482
▁Mbembe	-11.2482
▁Soxna	-11.2482
▁Taxawa	-11.2482
▁caraxam	-11.2482
▁dévorant	-11.2482
▁ndimbal	-11.2482
▁rangooñ	-11.2482
▁rassurant	-11.2482
▁rompu	-11.2482
▁savon	-11.2482
▁Àbbaa	-11.2482
oiseaux	-11.2482
▁càmm	-11.2482
▁employés	-11.2482
▁implora	-11.2482
▁jàkkarloo	-11.2482
▁radier	-11.2482
▁xeej	-11.2482
▁Eend	-11.2482
▁jaaxle	-11.2482
▁jikko	-11.2482
▁manqué	-11.2482
▁takkandeer	-11.2482
▁tàbbi	-11.2482
/	-11.2482
Laper	-11.2482
gonflé	-11.2482
oblig	-11.2482
▁dépays	-11.2482
▁frigo	-11.2482
▁journaux	-11.2482
▁occidentaux	-11.2482
▁réfl	-11.2482
▁séjour	-11.2482
▁tromp	-11.2482
▁effort	-11.2482
▁itinérant	-11.2482
▁pauvre	-11.2482
▁réguli	-11.2482
▁totalité	-11.2482
Ermeno	-11.2482
ecto	-11.2482
infl	-11.2482
▁Londar	-11.2482
▁Toujours	-11.2482
▁administrative	-11.2482
▁certitude	-11.2482
▁classe	-11.2482
▁keppaar	-11.2482
▁lottal	-11.2482
▁rewle	-11.2482
▁ràgg	-11.2482
▁yorouba	-11.2482
▁Ogaar	-11.2482
▁naawantu	-11.2482
▁constituée	-11.2482
▁dëmm	-11.2482
▁komfi	-11.2482
▁littéra	-11.2482
▁traditionnelle	-11.2482
▁Donga	-11.2482
▁côtière	-11.2482
▁diff	-11.2482
▁gouttière	-11.2482
▁ngànnaay	-11.2482
▁turbulen	-11.2482
áa	-11.2482
▁bienfait	-11.2482
▁bruyante	-11.2482
▁canapé	-11.2482
▁carrossable	-11.2482
▁encadré	-11.2482
▁herbeuses	-11.2482
▁kerewol	-11.2482
▁xocc	-11.2482
▁almet	-11.2482
▁repos	-11.2482
acacia	-11.2482
fiévr	-11.2482
▁emphase	-11.2482
▁obst	-11.2482
▁Ësen	-11.2482
admir	-11.2482
▁serrure	-11.2482
▁terrasse	-11.2482
▁toxu	-11.2482
latel	-11.2482
▁gymnas	-11.2482
▁siyaare	-11.2482
▁vautours	-11.2482
entourant	-11.2482
▁grouill	-11.2482
▁porche	-11.2482
▁brandiss	-11.2482
▁Panama	-11.2482
▁1938	-11.2482
▁aajo	-11.2482
▁diamants	-11.2482
▁medaay	-11.2482
▁picc	-11.2482
ordures	-11.2482
▁disparaissait	-11.2482
▁vallée	-11.2482
▁cubb	-11.2482
▁orteil	-11.2482
▁remède	-11.2482
▁veille	-11.2482
accorde	-11.2483
ororo	-11.2483
▁désigne	-11.2483
écorch	-11.2483
▁explication	-11.2483
▁Lorsqu	-11.2483
▁assommé	-11.2483
▁bivoua	-11.2483
▁nurool	-11.2483
▁short	-11.2483
▁remarqu	-11.2483
▁xiibon	-11.2483
▁Musta	-11.2483
▁moontin	-11.2483
▁Agwu	-11.2483
▁tuumaal	-11.2483
▁woyantu	-11.2483
▁hurle	-11.2483
▁marõ	-11.2483
▁semblables	-11.2483
▁1932	-11.2483
▁echelle	-11.2483
▁livré	-11.2483
▁cousine	-11.2483
▁Parfois	-11.2483
▁fanane	-11.2483
▁refaire	-11.2483
▁cadre	-11.2483
embarque	-11.2483
▁pessimisme	-11.2483
▁Quoi	-11.2483
▁club	-11.2483
▁moitié	-11.2483
▁1900	-11.2483
▁fàŋŋ	-11.2483
▁inconnu	-11.2483
▁carreaux	-11.2483
ternel	-11.2483
▁allongé	-11.2483
▁oublié	-11.2483
▁aérien	-11.2483
▁véritable	-11.2483
▁rëy	-11.2483
▁empêcha	-11.2483
▁tamarin	-11.2483
▁citad	-11.2483
▁inject	-11.2483
▁épuis	-11.2483
▁àntuwul	-11.2483
▁cargo	-11.2483
ouilla	-11.2483
▁commande	-11.2483
▁gland	-11.2483
▁irokos	-11.2483
▁vêtements	-11.2483
▁événements	-11.2483
▁œufs	-11.2483
éthér	-11.2483
▁singes	-11.2483
▁Chacun	-11.2483
▁insur	-11.2483
pulsé	-11.2483
▁insurgé	-11.2483
▁marron	-11.2483
▁Gesam	-11.2483
▁inaccessible	-11.2483
▁réduit	-11.2483
▁rapide	-11.2483
▁facile	-11.2483
▁bëccëg	-11.2483
▁carabine	-11.2483
▁déclar	-11.2483
▁substan	-11.2483
▁transmet	-11.2483
opho	-11.2483
▁soppeeku	-11.2483
apparition	-11.2483
▁humeur	-11.2483
▁veine	-11.2483
▁calme	-11.2483
▁féti	-11.2483
▁karwaat	-11.2483
▁chocra	-11.2483
▁digaalee	-11.2483
▁ruuj	-11.2483
hell	-11.2483
▁circon	-11.2483
▁ñaawtéef	-11.2483
▁humide	-11.2483
▁recevoir	-11.2483
▁active	-11.2483
▁ardo	-11.2484
▁navire	-11.2484
▁redouta	-11.2484
▁vitesse	-11.2484
▁indiqué	-11.2484
▁ñefe	-11.2484
tërëf	-11.2484
▁xó	-11.2484
▁reparti	-11.2484
ndomb	-11.2484
▁njëgg	-11.2484
▁mbuus	-11.2484
▁waaso	-11.2484
▁tenir	-11.2484
aakiri	-11.2484
▁public	-11.2484
▁Ital	-11.2484
▁indiens	-11.2484
▁relations	-11.2484
▁demandé	-11.2484
▁bourgeo	-11.2484
▁plaisir	-11.2484
▁referm	-11.2484
ifiée	-11.2484
cueilli	-11.2484
cheur	-11.2484
▁imprim	-11.2484
▁moytu	-11.2484
▁Born	-11.2484
▁rapporte	-11.2484
▁véné	-11.2484
▁venge	-11.2484
▁rapprochée	-11.2484
açant	-11.2484
▁intégr	-11.2484
▁guerrières	-11.2484
▁moytuwul	-11.2484
▁aadawoo	-11.2484
▁Wutël	-11.2484
▁antip	-11.2484
▁rattach	-11.2484
▁indienne	-11.2484
▁souffrance	-11.2484
▁Monro	-11.2484
▁attitude	-11.2485
▁tigi	-11.2485
▁àttan	-11.2485
▁abandonn	-11.2485
▁dedans	-11.2485
pita	-11.2485
▁musiba	-11.2485
▁confiance	-11.2485
▁geestu	-11.2485
▁profondeur	-11.2485
▁proue	-11.2485
éléphant	-11.2485
▁Onits	-11.2485
▁aboli	-11.2485
▁recommençait	-11.2485
▁xeeñ	-11.2485
▁bóoy	-11.2485
existence	-11.2485
veau	-11.2485
ède	-11.2485
opin	-11.2486
▁njatt	-11.2486
▁rides	-11.2486
▁signal	-11.2486
▁conversation	-11.2486
insti	-11.2486
▁cap	-11.2486
▁front	-11.2486
zia	-11.2486
support	-11.2486
▁bombard	-11.2486
bootaay	-11.2486
▁jànkonteel	-11.2486
▁taillé	-11.2487
▁bassin	-11.2487
▁Certainement	-11.2487
▁heureuse	-11.2487
▁Lebou	-11.2487
gnait	-11.2487
ëtuñu	-11.2487
▁karne	-11.2487
▁aimé	-11.2487
▁summi	-11.2487
▁Pardon	-11.2487
▁coyy	-11.2487
▁religieux	-11.2487
▁cadeau	-11.2487
▁placard	-11.2487
▁haie	-11.2487
▁excité	-11.2487
▁mbàjj	-11.2487
▁wujje	-11.2487
rompt	-11.2487
▁Gént	-11.2487
▁concert	-11.2488
grippe	-11.2488
▁Nguu	-11.2488
▁déeyante	-11.2488
▁effe	-11.2488
▁10	-11.2488
politesse	-11.2488
▁ngunu	-11.2488
haïs	-11.2488
▁rakk	-11.2488
kànkarla	-11.2488
▁John	-11.2488
turne	-11.2489
▁limaale	-11.2489
▁Sauf	-11.2489
▁Farm	-11.2489
▁agoni	-11.2489
▁bours	-11.2489
▁fentaakon	-11.2489
▁siso	-11.2489
▁butit	-11.2489
▁capit	-11.2489
▁Babungoo	-11.2489
▁haine	-11.2489
▁daraja	-11.2489
mond	-11.2489
▁cadeaux	-11.2489
▁castes	-11.249
▁Durba	-11.249
▁volont	-11.249
▁Kenya	-11.249
▁xërëmkat	-11.249
▁jàmbure	-11.249
▁ñall	-11.249
otiques	-11.249
▁haoussa	-11.249
▁dangereux	-11.249
▁attir	-11.249
offens	-11.249
▁naxantee	-11.2491
▁Liber	-11.2491
onnés	-11.2491
▁architectur	-11.2491
▁Yaali	-11.2491
âtre	-11.2491
▁vieilli	-11.2491
▁minut	-11.2491
usure	-11.2491
quiner	-11.2491
▁tayel	-11.2491
▁dirige	-11.2492
butéel	-11.2492
hiver	-11.2492
bienne	-11.2492
▁flamb	-11.2492
▁bro	-11.2492
▁rond	-11.2492
▁féexlu	-11.2492
▁odeurs	-11.2492
▁xultu	-11.2492
▁ňaw	-11.2492
▁année	-11.2492
▁safaan	-11.2492
équipe	-11.2492
▁ñow	-11.2492
ukwu	-11.2493
▁faneetar	-11.2493
ayim	-11.2493
▁religieuse	-11.2493
▁folle	-11.2493
▁tuwaal	-11.2493
▁esprits	-11.2494
ocrit	-11.2494
▁enserr	-11.2494
▁capric	-11.2494
▁jubb	-11.2494
▁jàq	-11.2494
▁éviden	-11.2494
grillage	-11.2494
▁loca	-11.2494
▁Tool	-11.2494
écrire	-11.2495
cal	-11.2495
▁Eux	-11.2495
▁siraas	-11.2495
▁màcc	-11.2495
hili	-11.2495
▁sédd	-11.2495
▁Chin	-11.2496
▁léj	-11.2496
▁tàqal	-11.2496
ffronter	-11.2496
▁conform	-11.2496
▁conduit	-11.2496
▁ŋaa	-11.2496
▁emm	-11.2496
▁poign	-11.2496
aliment	-11.2497
nationale	-11.2497
▁màggetloo	-11.2497
▁yegs	-11.2497
▁fajar	-11.2497
▁titre	-11.2497
dales	-11.2497
▁lourdement	-11.2497
▁yewwi	-11.2497
▁dorm	-11.2497
▁Gëm	-11.2498
uré	-11.2498
▁foofa	-11.2498
âne	-11.2498
▁verrouill	-11.2499
▁Kaay	-11.2499
▁sànq	-11.25
ailler	-11.25
▁chap	-11.25
▁reelu	-11.25
▁ruiné	-11.25
▁dangereuse	-11.25
▁sukku	-11.25
agin	-11.25
▁mienne	-11.2501
▁agsee	-11.2501
▁kulëer	-11.2501
▁cohabitent	-11.2501
▁Màr	-11.2501
▁fajukaay	-11.2501
▁jënfandikoo	-11.2501
▁xelli	-11.2501
▁migraines	-11.2501
▁yóot	-11.2502
▁appel	-11.2502
▁pleurer	-11.2502
▁tissées	-11.2502
▁rentré	-11.2502
▁bëre	-11.2502
acharn	-11.2503
▁voisins	-11.2503
▁keppukaay	-11.2503
▁yombul	-11.2503
ucu	-11.2503
▁voulait	-11.2503
▁fufu	-11.2504
karaa	-11.2504
palud	-11.2504
▁bàyyeeku	-11.2504
▁Bali	-11.2504
▁canal	-11.2504
▁examin	-11.2504
▁industrielle	-11.2505
▁officielle	-11.2505
▁parlaient	-11.2505
▁bàkk	-11.2506
▁Soldaar	-11.2506
▁mortel	-11.2506
▁jafal	-11.2506
▁gants	-11.2506
▁rom	-11.2507
ëfinam	-11.2508
ations	-11.2508
graines	-11.2508
▁gënaloon	-11.2508
antenne	-11.2508
▁Dém	-11.2508
adopt	-11.2509
▁Jàpp	-11.251
▁tegtal	-11.251
▁arrivait	-11.251
▁wallu	-11.251
▁accompagnent	-11.2511
ginaar	-11.2511
vier	-11.2511
▁beru	-11.2511
▁Bëgguma	-11.2511
▁poulet	-11.2512
▁sécuri	-11.2512
Agade	-11.2513
▁xañ	-11.2513
▁crain	-11.2513
rmeel	-11.2513
gues	-11.2513
▁ôte	-11.2513
woŋ	-11.2514
▁bàq	-11.2514
▁pip	-11.2514
▁Bokk	-11.2514
▁Faj	-11.2514
▁couvre	-11.2515
àjjan	-11.2516
▁lumineuse	-11.2516
▁sév	-11.2516
▁Tan	-11.2517
▁étonné	-11.2517
▁révoltent	-11.2517
▁sànga	-11.2517
ignés	-11.2518
▁rêverie	-11.2518
▁xasa	-11.2518
▁soupir	-11.2519
esseur	-11.252
▁këf	-11.2521
éej	-11.2521
▁àndandoo	-11.2522
▁raide	-11.2522
auche	-11.2522
▁gratuite	-11.2522
▁pilote	-11.2522
▁nonchalante	-11.2522
▁sorcier	-11.2523
▁salut	-11.2523
▁iron	-11.2523
dex	-11.2524
▁Bira	-11.2524
▁rouillé	-11.2524
ydina	-11.2524
iyeer	-11.2524
▁Enfin	-11.2524
retam	-11.2525
ppét	-11.2525
▁descendra	-11.2525
▁dof	-11.2525
▁Ngonka	-11.2525
▁flotte	-11.2525
▁démon	-11.2525
▁rendait	-11.2525
▁partons	-11.2525
▁Demeraraa	-11.2526
▁réveill	-11.2526
nivers	-11.2527
▁ganesee	-11.2527
▁kañ	-11.2527
▁promena	-11.2527
óoy	-11.2527
▁saaf	-11.2527
▁tourbillonnai	-11.2527
▁Xaj	-11.2528
▁bidd	-11.2529
▁Mfo	-11.253
fara	-11.253
▁And	-11.2531
▁opeeree	-11.2531
abab	-11.2532
▁offra	-11.2532
escalad	-11.2532
tilité	-11.2532
▁passionn	-11.2533
▁sàqam	-11.2533
quetés	-11.2534
▁crainte	-11.2534
▁soufflet	-11.2534
▁statut	-11.2534
balee	-11.2534
▁exig	-11.2535
▁bàyyima	-11.2535
▁voul	-11.2535
▁sawar	-11.2535
▁fuuy	-11.2536
▁justement	-11.2536
étend	-11.2536
▁tissé	-11.2537
vois	-11.2537
oudain	-11.2537
gase	-11.2537
▁Nguur	-11.2539
▁Déjà	-11.254
nière	-11.254
▁confortable	-11.254
▁douze	-11.254
▁exceptionnel	-11.254
▁expérience	-11.254
▁immensité	-11.254
▁infirmiers	-11.254
▁instrument	-11.254
▁lançant	-11.254
▁Africaine	-11.254
▁pilon	-11.254
▁échelle	-11.254
▁existait	-11.254
▁frappait	-11.254
▁illusion	-11.254
▁njàpp	-11.254
▁éloignement	-11.254
▁xumb	-11.254
▁étude	-11.2541
▁transformé	-11.2541
deur	-11.2541
ige	-11.2542
▁européenne	-11.2542
kurti	-11.2542
▁Njoya	-11.2542
▁inqui	-11.2542
pëti	-11.2543
▁yombut	-11.2544
zin	-11.2544
▁vendu	-11.2544
▁trac	-11.2544
▁liise	-11.2544
érige	-11.2544
▁gépp	-11.2544
▁toucher	-11.2544
▁tàngaayam	-11.2544
▁accent	-11.2545
▁position	-11.2545
▁élevage	-11.2545
▁accouchement	-11.2545
▁mouch	-11.2546
▁Ngu	-11.2547
▁kókkali	-11.2547
▁wenn	-11.2547
▁tirage	-11.2547
▁ibo	-11.2547
▁choqu	-11.2547
▁soutien	-11.2548
▁exact	-11.2548
▁fuite	-11.2548
▁enlève	-11.2549
abine	-11.2549
▁étendues	-11.2549
▁lunk	-11.2549
▁passion	-11.255
▁xotti	-11.255
trices	-11.2552
▁faatoo	-11.2552
▁Suwee	-11.2552
▁baraa	-11.2553
▁lèp	-11.2554
▁poson	-11.2554
▁Ndey	-11.2554
▁Coono	-11.2555
▁meurt	-11.2555
▁Mills	-11.2555
▁congés	-11.2555
▁administrateurs	-11.2555
▁boucliers	-11.2555
▁prospères	-11.2555
▁secrets	-11.2555
▁portraits	-11.2555
pha	-11.2555
▁instinctive	-11.2556
kasaw	-11.2556
▁tiital	-11.2556
▁poules	-11.2556
▁cond	-11.2557
iquaient	-11.2557
ky	-11.2559
▁teggin	-11.256
utisme	-11.256
▁détail	-11.256
▁troubl	-11.256
▁ganale	-11.2561
▁enco	-11.2562
écart	-11.2562
licat	-11.2563
▁banan	-11.2563
▁endormi	-11.2563
ndiŋ	-11.2565
▁suivent	-11.2565
▁ombre	-11.2565
▁maandu	-11.2566
analete	-11.2566
▁siens	-11.2567
▁jaŋ	-11.2568
▁xaleel	-11.2568
▁Masur	-11.257
▁futur	-11.257
tesse	-11.257
▁ňoo	-11.2571
▁kersa	-11.2574
▁tappal	-11.2575
▁divi	-11.2576
▁lâche	-11.2576
▁colin	-11.2576
▁vaine	-11.2576
▁remonter	-11.2577
▁obsédant	-11.2577
uence	-11.2577
▁palanteeram	-11.2579
ulture	-11.2579
▁Seul	-11.258
▁gang	-11.2582
kor	-11.2582
▁sànn	-11.2582
▁brin	-11.2583
▁parcouru	-11.2583
▁attrape	-11.2583
▁yilifoon	-11.2583
▁gilets	-11.2585
mane	-11.2586
▁faim	-11.2587
▁Sere	-11.2587
▁sàppi	-11.2588
▁dundale	-11.2588
▁noirci	-11.2589
▁Yee	-11.2589
▁gëmm	-11.2589
▁marse	-11.2589
unóor	-11.259
▁noonam	-11.259
▁pl	-11.2591
ndeer	-11.2592
▁waxaale	-11.2592
▁Baali	-11.2592
▁élé	-11.2592
▁différentes	-11.2594
▁vend	-11.2595
▁regrette	-11.2596
▁wante	-11.2596
lite	-11.2596
▁kili	-11.2597
▁fattu	-11.2598
▁défil	-11.2598
▁lionne	-11.2599
▁menti	-11.2599
▁suivant	-11.2599
▁vit	-11.2601
▁flanc	-11.2602
▁puni	-11.2602
▁pey	-11.2603
▁affection	-11.2603
buste	-11.2603
▁salaam	-11.2603
▁magie	-11.2604
ule	-11.2604
▁soigné	-11.2605
▁travaille	-11.2605
leur	-11.2606
épète	-11.2606
dit	-11.2607
▁vertu	-11.2607
bàcc	-11.2607
▁juumul	-11.2608
▁doyul	-11.2609
▁Jaay	-11.2609
▁laaf	-11.2609
▁seef	-11.2609
▁planche	-11.2609
▁Lom	-11.2611
jóol	-11.2612
rcl	-11.2612
▁jumaa	-11.2614
▁jup	-11.2614
umanda	-11.2614
▁dogal	-11.2614
▁mokk	-11.2615
▁exilé	-11.2617
gard	-11.2617
ewuma	-11.262
▁maaj	-11.2621
éññ	-11.2622
▁répét	-11.2622
▁askanam	-11.2624
▁décol	-11.2624
▁permettai	-11.2625
▁plume	-11.2625
▁lettre	-11.2626
▁dram	-11.2626
▁nacelle	-11.2628
lacés	-11.2629
▁Doomu	-11.2629
▁àggee	-11.2631
▁datte	-11.2631
▁nemm	-11.2632
ible	-11.2634
nelle	-11.2635
▁siga	-11.2636
▁déchi	-11.2638
gaas	-11.2638
▁occupé	-11.2639
▁19	-11.2639
▁détri	-11.264
▁espoir	-11.2641
▁origine	-11.2641
▁jàngoro	-11.2641
ànja	-11.2641
▁koste	-11.2642
▁transporté	-11.2643
▁capo	-11.2643
▁rest	-11.2644
▁tag	-11.2645
▁Bool	-11.2646
▁caq	-11.2647
ortir	-11.2649
▁ŋgoo	-11.2649
▁xaritoo	-11.2651
are	-11.2654
▁avenir	-11.2655
▁téj	-11.2655
entrer	-11.2657
▁perche	-11.2658
▁kanamam	-11.2658
▁Wer	-11.2659
▁dër	-11.266
▁taaxu	-11.2661
▁organisat	-11.2663
▁jëf	-11.2663
diale	-11.2664
▁nkom	-11.2664
▁étudiant	-11.2666
▁jubale	-11.2667
taraa	-11.2668
▁fabrique	-11.2668
alla	-11.2668
èrent	-11.2669
▁arraché	-11.2669
▁Miin	-11.267
nçait	-11.2673
▁toro	-11.2673
hot	-11.2674
sensible	-11.2675
▁sëgg	-11.2677
▁brutal	-11.2677
aine	-11.2678
▁dikkal	-11.2679
Obukun	-11.2679
▁ennemis	-11.268
▁levés	-11.2682
▁caravanes	-11.2682
▁gestes	-11.2684
▁Wau	-11.2684
▁tol	-11.2688
▁cirées	-11.269
▁ress	-11.2691
ulcère	-11.2693
▁spa	-11.2693
▁Soppi	-11.2693
▁roche	-11.2696
▁he	-11.2696
▁endurcis	-11.2697
rouille	-11.2698
▁feyu	-11.2701
old	-11.2706
▁apparaît	-11.2708
▁courb	-11.271
nesil	-11.271
▁faatu	-11.2711
ëlé	-11.2711
anal	-11.2713
▁sangu	-11.2713
oyée	-11.2719
▁sexe	-11.272
venu	-11.2722
▁jàmbaar	-11.2729
▁convainc	-11.273
▁outre	-11.2731
▁monta	-11.2733
▁Sung	-11.2734
▁séy	-11.2735
▁degg	-11.2736
ulëer	-11.2737
▁précédée	-11.2738
▁descendr	-11.2738
▁voya	-11.2739
▁éclairs	-11.274
vers	-11.2741
▁endo	-11.2742
illées	-11.2743
raî	-11.2743
▁épineu	-11.2743
▁désespérant	-11.2745
▁rêver	-11.2745
▁rëb	-11.2745
▁fatigué	-11.2746
▁émotion	-11.2747
▁école	-11.2748
▁tànkam	-11.2754
éan	-11.2758
▁bouger	-11.2758
▁cesse	-11.2759
illo	-11.2761
▁feeň	-11.2762
▁meloy	-11.2762
sions	-11.2762
▁voies	-11.2763
▁normal	-11.2763
▁profonde	-11.2764
▁civilis	-11.2766
utt	-11.2767
▁fédérale	-11.2768
idée	-11.277
▁Kee	-11.2772
▁insouciant	-11.2772
naires	-11.2772
àkkaan	-11.2773
uments	-11.2774
▁matière	-11.2775
▁lèv	-11.2777
▁dro	-11.2777
xte	-11.2781
▁course	-11.2783
▁taafa	-11.2784
kar	-11.2786
uji	-11.2786
▁désord	-11.2786
itation	-11.2789
▁Jur	-11.2793
kin	-11.2794
yph	-11.2799
mé	-11.2799
▁attenti	-11.2799
▁décorés	-11.2807
chures	-11.2807
▁souci	-11.2808
reg	-11.2808
▁liw	-11.281
▁rituels	-11.2814
▁moustiquaires	-11.2815
▁peuples	-11.2815
▁sortent	-11.2815
▁boug	-11.2815
▁Dunu	-11.2816
▁toile	-11.2816
▁entendue	-11.2816
▁verts	-11.2818
emal	-11.2818
▁Ogil	-11.2821
▁ginnaawam	-11.2822
▁parcours	-11.2822
▁dugge	-11.2823
▁Dogal	-11.2824
▁corr	-11.2825
▁Xay	-11.2827
▁sëqat	-11.283
otoom	-11.2832
▁traces	-11.2833
▁mbiram	-11.2834
formation	-11.2834
▁puissant	-11.2834
▁distances	-11.2835
lir	-11.2841
▁bëy	-11.2842
▁bañoon	-11.2847
portion	-11.2851
▁Conte	-11.2851
ini	-11.2856
▁téene	-11.2856
yaam	-11.286
▁voil	-11.2864
yyi	-11.2865
découvrant	-11.2865
don	-11.2869
coutum	-11.287
▁mbaam	-11.2871
ban	-11.2871
▁Sors	-11.2872
▁ňax	-11.2874
jus	-11.2875
gelaw	-11.2877
▁dëkkoo	-11.2881
▁emmen	-11.29
rain	-11.2901
bra	-11.2904
▁Sà	-11.2908
▁foul	-11.2908
▁rafetul	-11.2909
▁ñemee	-11.2909
bon	-11.291
▁sac	-11.2911
sous	-11.2915
itions	-11.2916
▁travaillai	-11.2918
urisé	-11.2921
▁dawalkat	-11.2922
▁prome	-11.2922
▁montré	-11.2924
maam	-11.2927
▁attends	-11.293
▁neexoon	-11.2933
abit	-11.2942
▁entoure	-11.2946
▁revien	-11.2948
▁laissés	-11.295
ammeel	-11.295
▁miroirs	-11.295
res	-11.295
▁présidents	-11.2955
▁langue	-11.2956
▁différents	-11.2958
▁voilé	-11.2958
▁arrêt	-11.296
▁prest	-11.2967
ris	-11.2968
ramas	-11.2974
▁Al	-11.298
▁ruu	-11.298
▁soos	-11.2982
▁hy	-11.2983
gén	-11.2991
ettes	-11.2995
▁wer	-11.2996
▁super	-11.2998
pët	-11.3003
bir	-11.3004
patam	-11.3004
chaîn	-11.3005
aider	-11.3007
tivement	-11.3013
illes	-11.3013
▁doct	-11.3019
▁lëpp	-11.3021
▁Dinañ	-11.3023
▁Way	-11.3025
bba	-11.3028
▁xoolin	-11.3032
cier	-11.3034
tées	-11.3035
oyeux	-11.3046
çai	-11.3047
▁saisi	-11.3048
rtal	-11.3048
uuti	-11.3051
▁Bërë	-11.3054
roy	-11.3054
▁gen	-11.3059
commençait	-11.306
▁réci	-11.3061
▁meneen	-11.3065
aññ	-11.3075
▁koň	-11.3077
▁saxaar	-11.3078
roduit	-11.3085
nalité	-11.3085
▁sûrs	-11.3087
▁Is	-11.309
▁Dada	-11.3094
▁rawa	-11.3094
oobar	-11.3095
▁rac	-11.31
▁àtt	-11.3106
▁réewam	-11.3109
àcc	-11.3117
plié	-11.3119
▁Set	-11.312
▁mbe	-11.3133
▁Nuy	-11.3133
▁Wooy	-11.3135
bout	-11.3148
▁jub	-11.3151
hos	-11.3158
▁puu	-11.316
uň	-11.3163
▁anti	-11.3167
▁Sin	-11.3172
alheureux	-11.3175
▁bëggé	-11.3176
▁Mer	-11.3176
juumte	-11.3181
▁bleues	-11.3182
▁atroc	-11.3188
▁waxtaane	-11.3189
nqam	-11.3197
poto	-11.3207
àngóor	-11.3214
atique	-11.3217
mor	-11.322
▁semé	-11.3221
▁teqale	-11.3224
▁teey	-11.3229
▁fouett	-11.3242
▁Tim	-11.3243
▁ressembler	-11.3245
lui	-11.3255
viendra	-11.3258
▁Xarit	-11.3259
▁papi	-11.3259
agaie	-11.3265
▁bëlu	-11.3266
allumer	-11.328
▁violente	-11.3282
▁réserve	-11.3285
▁lucid	-11.3296
▁cassée	-11.3298
▁fat	-11.33
▁paras	-11.3301
▁déport	-11.331
àpptoo	-11.3315
▁rassemblé	-11.3324
▁occidental	-11.3328
wó	-11.3329
▁géttu	-11.3331
▁jale	-11.3343
uy	-11.3345
▁brûl	-11.3345
▁dell	-11.3356
ries	-11.3358
▁mets	-11.336
lions	-11.3361
▁autorité	-11.3363
▁roulé	-11.3366
▁permettr	-11.3367
gukaay	-11.3386
stem	-11.3399
▁Foor	-11.3405
▁signe	-11.3407
dol	-11.341
ènes	-11.341
▁parl	-11.3413
▁dëkkam	-11.3418
▁lor	-11.342
▁Sam	-11.3422
semblé	-11.3423
▁àddinaa	-11.3425
tueuse	-11.3444
▁jonn	-11.3444
▁lis	-11.3449
ém	-11.3451
évent	-11.3462
ienne	-11.3482
▁risque	-11.3495
▁calcule	-11.3501
▁pil	-11.3504
parts	-11.3504
àppaa	-11.3518
▁booboo	-11.3519
aalif	-11.3524
iens	-11.3536
▁Tà	-11.3539
▁Yu	-11.3548
▁Mal	-11.3548
▁têtes	-11.3549
outils	-11.3553
velo	-11.3558
ités	-11.3562
▁tombé	-11.3563
▁fe	-11.3563
▁exa	-11.3573
▁rongé	-11.3577
▁désa	-11.3579
▁pay	-11.3594
▁mujju	-11.3594
aamu	-11.3594
ukat	-11.3599
▁atam	-11.36
ration	-11.3603
▁Ara	-11.3608
▁morte	-11.3617
▁bey	-11.3618
▁cachée	-11.3618
waas	-11.3621
tait	-11.3631
▁carré	-11.3632
▁bols	-11.3635
▁yitte	-11.364
épar	-11.3643
▁vieil	-11.3647
▁Far	-11.3649
▁masc	-11.3651
apparu	-11.3652
▁chefs	-11.3656
endu	-11.366
▁gisu	-11.3661
waaw	-11.3664
▁cere	-11.3667
▁refusai	-11.3681
▁pr	-11.3689
ecc	-11.3694
▁entrer	-11.3696
▁ber	-11.37
▁statu	-11.3707
▁surviv	-11.3708
▁sépare	-11.3708
▁bru	-11.3719
▁connaîtr	-11.3756
ayu	-11.3756
▁waru	-11.378
▁Tamar	-11.3784
anam	-11.3785
▁tables	-11.3798
▁gri	-11.3804
▁consta	-11.3805
apporte	-11.3821
suite	-11.3821
irland	-11.3828
▁abri	-11.3836
▁jotu	-11.384
▁mars	-11.3845
mam	-11.3845
mant	-11.3847
▁isolée	-11.3851
▁bat	-11.3853
nnu	-11.3859
ofla	-11.3863
▁dou	-11.3864
▁digal	-11.3894
▁tegal	-11.3902
▁mêle	-11.3908
issant	-11.3918
▁lek	-11.3921
étour	-11.3931
▁mënal	-11.3935
utour	-11.3951
▁déplai	-11.3958
▁cime	-11.3966
▁Hu	-11.3983
▁conçues	-11.3997
▁mé	-11.4002
encé	-11.4006
no	-11.4015
▁reflétai	-11.4016
▁gain	-11.4027
▁rois	-11.4031
béré	-11.4036
nati	-11.405
▁senn	-11.405
▁discut	-11.4065
▁hant	-11.4077
int	-11.4078
ge	-11.4086
pon	-11.4094
▁Xee	-11.4099
isée	-11.4118
eh	-11.4142
gor	-11.415
ki	-11.416
▁naaw	-11.4172
énué	-11.4182
range	-11.4236
prenant	-11.4237
rac	-11.4253
▁joxe	-11.4256
▁defoon	-11.426
oŋŋ	-11.4262
▁animal	-11.4263
▁mbu	-11.4265
▁saan	-11.4267
▁connus	-11.4268
paraître	-11.4279
▁supp	-11.4286
▁irréel	-11.4304
giiru	-11.4311
▁dieux	-11.4317
▁sér	-11.4326
▁Mëne	-11.4332
▁kaay	-11.4345
▁layu	-11.4348
▁tendu	-11.4354
▁amee	-11.4366
▁pâ	-11.4367
▁allai	-11.4383
anche	-11.4393
andi	-11.4394
isoŋ	-11.4397
▁naax	-11.4399
▁rassembl	-11.4427
▁institu	-11.4434
tëx	-11.4439
▁entourée	-11.4441
adolescent	-11.4444
▁étalée	-11.4449
▁pensée	-11.4452
▁safatu	-11.4454
chent	-11.4465
▁machette	-11.4472
▁solu	-11.4508
▁consult	-11.451
ides	-11.451
nstruction	-11.4515
lets	-11.4527
▁gàñ	-11.4531
▁jam	-11.4542
explose	-11.4564
ullee	-11.4571
alee	-11.4586
▁immobil	-11.4598
aaral	-11.4616
▁représent	-11.4626
▁num	-11.4631
▁jëw	-11.4634
▁yàkk	-11.4635
nég	-11.4679
adresse	-11.4689
roc	-11.4719
▁indig	-11.4721
venue	-11.4723
▁taf	-11.4723
▁ëppal	-11.4733
ements	-11.4735
rée	-11.4747
▁gas	-11.4749
nté	-11.4755
▁seeti	-11.4764
▁Àll	-11.4785
▁habite	-11.4786
▁exil	-11.48
▁ndugge	-11.4801
isé	-11.4808
▁sent	-11.4818
ettali	-11.4824
bbi	-11.4831
provision	-11.4832
▁mâ	-11.4833
▁furi	-11.4839
▁Tama	-11.486
▁Pé	-11.4871
eeru	-11.4875
▁prête	-11.4883
▁paj	-11.4897
▁chante	-11.491
oko	-11.4913
her	-11.4919
ert	-11.4922
ache	-11.4925
hameaux	-11.4925
▁puso	-11.4946
▁tasa	-11.4946
mêmes	-11.4949
▁jus	-11.4953
iyee	-11.4966
▁see	-11.497
aaki	-11.4975
▁valai	-11.5007
assi	-11.5008
gra	-11.5024
▁poussé	-11.5036
▁évi	-11.5044
▁Sig	-11.5048
▁doxale	-11.5058
▁naturel	-11.5063
▁résiste	-11.5067
▁découvr	-11.5085
▁Lé	-11.5086
▁poissons	-11.5091
▁waxin	-11.5095
▁jaare	-11.5099
▁bëggu	-11.5103
gnent	-11.5109
▁termina	-11.5118
▁Jamm	-11.5124
rg	-11.5132
▁Sé	-11.5149
ments	-11.515
▁guus	-11.5165
échan	-11.5167
ncer	-11.5171
rale	-11.5172
lise	-11.5229
▁ubbee	-11.5236
ali	-11.5237
▁vrais	-11.5261
▁poli	-11.527
▁villes	-11.5276
ass	-11.5307
oyal	-11.5316
▁environn	-11.5352
▁nationali	-11.5358
▁revi	-11.5384
▁Nde	-11.542
évit	-11.5446
▁déeg	-11.545
ument	-11.5458
▁voyager	-11.5476
identi	-11.5491
né	-11.553
▁veni	-11.5536
▁mois	-11.5546
▁mod	-11.5586
opér	-11.5603
ielle	-11.5628
▁aube	-11.5668
▁xoo	-11.567
▁embras	-11.5678
▁recouvr	-11.5684
atle	-11.5691
▁malle	-11.5703
qui	-11.5706
xcuse	-11.5713
▁ñañ	-11.5725
éeg	-11.5801
uuf	-11.5805
▁fri	-11.5821
▁magi	-11.5836
▁souffre	-11.5837
dd	-11.5848
mente	-11.5851
▁sin	-11.5896
fil	-11.5899
▁nib	-11.5904
▁final	-11.591
oulever	-11.5922
magul	-11.5938
▁kar	-11.5949
▁paroi	-11.5953
▁dalu	-11.5975
ssés	-11.5986
mou	-11.599
▁dés	-11.5997
ëer	-11.6007
▁fissur	-11.607
▁perçoi	-11.6158
ppe	-11.6195
▁rentr	-11.6207
ice	-11.6216
rigue	-11.6243
cre	-11.6263
ig	-11.6264
▁daay	-11.6291
▁kur	-11.6341
▁mani	-11.6341
▁Rid	-11.6369
▁paresse	-11.6381
ouché	-11.6385
accompagner	-11.6398
▁tamba	-11.64
bill	-11.6416
réelle	-11.6439
▁perç	-11.6468
âch	-11.6468
▁porté	-11.6481
mine	-11.6491
▁Pe	-11.6502
ewande	-11.6512
bii	-11.6513
▁é	-11.6557
id	-11.6606
ind	-11.6609
amin	-11.663
▁confin	-11.6653
▁suffisa	-11.6675
saan	-11.6684
▁irri	-11.6695
▁tooge	-11.672
▁sun	-11.6735
▁chauffe	-11.6767
▁ňe	-11.6769
ox	-11.6798
▁entr	-11.6798
▁Gaa	-11.6821
voi	-11.6822
iger	-11.6822
uur	-11.6834
cro	-11.6863
reuse	-11.6884
▁pur	-11.6885
▁Sene	-11.6897
▁Boy	-11.6929
précise	-11.6955
▁continue	-11.6961
âle	-11.6962
▁suit	-11.7004
▁pi	-11.7018
rukaayam	-11.7024
▁manu	-11.7034
boute	-11.7044
ëb	-11.7055
bidaa	-11.7066
ute	-11.7075
gir	-11.7158
ñoom	-11.7159
ddaay	-11.7214
▁tëw	-11.7215
▁découvre	-11.7222
▁reewan	-11.7226
▁bëtt	-11.7247
baab	-11.7253
ooj	-11.7263
▁ind	-11.7269
▁ennu	-11.7283
uwul	-11.7289
▁o	-11.7298
ànk	-11.7299
ères	-11.7357
jour	-11.7364
▁rassemble	-11.738
▁Bar	-11.7387
ha	-11.7393
▁tourne	-11.7401
reux	-11.7431
che	-11.7449
aate	-11.7462
óobu	-11.7463
yit	-11.7464
ilis	-11.7489
ause	-11.7502
▁Gej	-11.751
ieur	-11.7513
▁ins	-11.7519
alistes	-11.7541
ab	-11.7556
termin	-11.7592
ãs	-11.76
▁sorc	-11.7604
▁occup	-11.7609
esse	-11.7612
ball	-11.7613
jort	-11.7619
▁dépo	-11.7622
▁sour	-11.7632
atu	-11.7648
osse	-11.7674
eexul	-11.7706
quante	-11.7725
▁Mel	-11.7753
▁terewu	-11.7758
cul	-11.7759
▁defaral	-11.7763
ervent	-11.7798
▁parla	-11.7799
àttu	-11.7801
bër	-11.7851
éch	-11.7856
▁malheur	-11.7856
▁Ke	-11.7857
▁paysan	-11.7871
goneem	-11.7873
▁Deñ	-11.7873
▁cache	-11.7891
ngoo	-11.79
sés	-11.7904
▁canc	-11.7929
▁aventur	-11.7936
▁ňaa	-11.7938
▁sembl	-11.7977
kub	-11.7988
▁Nj	-11.8
yé	-11.801
▁gà	-11.8019
laient	-11.8032
rions	-11.8034
ttali	-11.8043
▁xul	-11.8047
▁circul	-11.806
▁ve	-11.8069
com	-11.8097
ala	-11.811
▁taabalu	-11.8118
▁jànqu	-11.8123
dresse	-11.8152
nées	-11.8174
▁muuroo	-11.8203
ienvenue	-11.8231
▁lance	-11.8271
ibbisi	-11.8273
▁Masu	-11.8282
ler	-11.8302
▁tombe	-11.8302
ies	-11.8323
▁soriwu	-11.8343
▁rép	-11.8349
▁jàlle	-11.8351
▁ragale	-11.8359
ànte	-11.8377
siye	-11.8395
▁but	-11.8395
igné	-11.8403
kii	-11.8404
▁gaar	-11.8428
mple	-11.8451
onni	-11.8494
▁ndon	-11.8497
▁paraîtr	-11.8511
iň	-11.8563
inam	-11.8566
immobilis	-11.8569
jub	-11.8607
struction	-11.8619
mbi	-11.8635
▁nda	-11.8665
▁explos	-11.8667
ac	-11.867
airs	-11.8679
ut	-11.8695
tri	-11.8697
àññ	-11.8699
his	-11.8712
▁tac	-11.8732
liques	-11.8732
ndé	-11.875
▁passée	-11.8753
saň	-11.8756
▁adolescen	-11.8793
▁Ha	-11.8816
▁chant	-11.8845
▁mo	-11.8854
couvrir	-11.8885
▁pen	-11.8916
▁irré	-11.8934
▁fir	-11.8962
appren	-11.8966
▁jànge	-11.8968
individus	-11.9066
▁aille	-11.9077
▁lourd	-11.9084
▁opeere	-11.9099
lë	-11.9109
▁mujj	-11.911
▁rencontra	-11.9121
ron	-11.9135
por	-11.9139
rête	-11.9163
▁hi	-11.9195
▁bokku	-11.9204
chercher	-11.9233
ise	-11.9245
▁mës	-11.9245
▁Jon	-11.9258
▁vente	-11.9275
rand	-11.9285
ippi	-11.9332
▁tabaxi	-11.9333
gh	-11.9345
allait	-11.9345
▁tase	-11.9354
cide	-11.936
aley	-11.9369
xal	-11.941
▁refl	-11.9428
yonn	-11.9444
▁change	-11.9484
assoupi	-11.9527
▁Européen	-11.9545
▁dér	-11.9562
riti	-11.9582
▁Bule	-11.9596
▁retir	-11.9598
▁kote	-11.9601
èvre	-11.9614
fe	-11.9627
amp	-11.9633
iété	-11.9646
▁capture	-11.9652
landaise	-11.9659
impu	-11.9662
envahissai	-11.9689
▁coutu	-11.969
àkkal	-11.9707
▁Dog	-11.971
ncé	-11.9716
rich	-11.972
▁loxoo	-11.9751
▁entra	-11.9754
▁trous	-11.9769
attu	-11.9771
▁lekke	-11.9809
▁ng	-11.9812
▁nombr	-11.9856
ident	-11.9868
tère	-11.99
▁appar	-11.9937
ganu	-11.9969
ewwi	-11.9973
leçons	-11.9978
▁jaf	-11.9979
▁tefesu	-11.9983
njaay	-11.9984
neen	-12.0005
▁touche	-12.0007
parable	-12.001
roit	-12.002
▁énorm	-12.0034
▁lave	-12.0047
goon	-12.0051
▁souhait	-12.0082
marin	-12.0105
▁bal	-12.0139
nions	-12.014
▁senti	-12.0162
▁arriva	-12.0193
▁aperçoi	-12.0198
▁dév	-12.0202
óom	-12.0231
vé	-12.0241
▁calcul	-12.0248
éria	-12.0285
vivre	-12.0286
indiffér	-12.0289
▁yakk	-12.0291
▁risqu	-12.0291
▁Tàm	-12.0311
ume	-12.0316
amu	-12.033
ctif	-12.0331
net	-12.0333
entraîn	-12.0336
ssé	-12.0342
exerc	-12.0383
lit	-12.0396
iw	-12.0429
exist	-12.0433
cui	-12.0438
▁directe	-12.0453
▁boob	-12.0454
▁wéer	-12.0455
aut	-12.0461
gul	-12.0463
▁don	-12.0463
▁Wo	-12.0466
▁cro	-12.0474
▁comp	-12.0496
bes	-12.0511
▁Fr	-12.0527
▁dégge	-12.0538
àq	-12.0559
of	-12.0573
▁gétt	-12.0578
▁tasee	-12.0579
▁répar	-12.059
bul	-12.0598
onde	-12.0683
uill	-12.0695
enferm	-12.0699
unique	-12.0712
▁nëwu	-12.0729
emul	-12.0737
▁sau	-12.0754
▁fouettai	-12.0755
▁préc	-12.0761
▁paraissai	-12.0774
ria	-12.0777
lles	-12.0781
▁lançai	-12.0784
imagin	-12.0785
mbës	-12.0809
ànq	-12.0821
iki	-12.0822
▁kaasam	-12.0828
ost	-12.083
▁coloni	-12.0854
illants	-12.0858
mée	-12.0861
▁pourrai	-12.0865
▁direct	-12.0877
aloom	-12.0879
ieux	-12.0884
▁poti	-12.0894
▁ngonee	-12.0897
▁excu	-12.0902
tière	-12.0903
▁bël	-12.091
▁reew	-12.0914
arden	-12.0933
▁préféra	-12.0936
rne	-12.0945
réol	-12.0963
roces	-12.0971
ça	-12.0973
▁manifeste	-12.0993
ques	-12.1012
roog	-12.1015
gner	-12.1018
▁Jé	-12.1027
▁dépla	-12.1056
ouvrir	-12.1076
céde	-12.1077
agère	-12.1101
waal	-12.1133
▁jull	-12.1135
▁ñj	-12.1139
ances	-12.1147
▁ŋa	-12.1164
rine	-12.1189
▁nourris	-12.12
▁Njii	-12.1218
ernie	-12.1219
▁creu	-12.1225
posés	-12.1228
stère	-12.123
▁waroo	-12.1231
sinu	-12.1239
aînés	-12.1242
▁superf	-12.1246
v	-12.1254
pptoo	-12.1255
oux	-12.1259
umés	-12.1261
▁njii	-12.1267
yard	-12.1272
▁bokkoo	-12.1275
nesbu	-12.1278
▁pe	-12.1278
▁guid	-12.1284
posées	-12.1292
kim	-12.1302
▁dépl	-12.1304
▁mang	-12.1311
▁fâcha	-12.1334
téri	-12.1337
duit	-12.1344
cor	-12.1349
leb	-12.1352
▁gaynd	-12.1367
eykat	-12.1377
▁croie	-12.1429
arro	-12.1433
▁extra	-12.1442
hanti	-12.1456
▁réel	-12.1461
laire	-12.1465
rique	-12.148
ivr	-12.1481
kale	-12.1489
met	-12.1494
▁ñaare	-12.1494
▁monte	-12.1502
▁Namm	-12.1506
ajouta	-12.1507
écha	-12.151
ignor	-12.1543
▁amen	-12.1546
itam	-12.1547
▁ray	-12.155
▁exemp	-12.1575
óf	-12.1578
limité	-12.1579
exprim	-12.1587
bord	-12.1589
▁somm	-12.1589
abi	-12.1597
▁yéen	-12.1604
▁assise	-12.1604
angu	-12.1611
▁ndée	-12.1616
▁arrach	-12.164
▁fatal	-12.1658
▁Mb	-12.1663
pés	-12.1664
▁éclate	-12.1698
out	-12.1717
emporter	-12.1723
vre	-12.1736
naissent	-12.1741
▁foto	-12.1741
cad	-12.1751
▁descend	-12.1754
elaw	-12.1757
chées	-12.1764
▁particulière	-12.1775
▁insoucian	-12.1777
meri	-12.1779
ciné	-12.1782
▁aura	-12.1786
▁fédéral	-12.1786
▁profond	-12.1789
î	-12.1806
▁aff	-12.1818
ô	-12.1839
trict	-12.1841
▁norma	-12.1842
pai	-12.1848
villé	-12.1874
vaincre	-12.1875
▁jigé	-12.1879
▁attrap	-12.1894
robe	-12.1895
av	-12.1898
ëy	-12.1899
mmee	-12.1901
▁patt	-12.1908
▁tourn	-12.1913
merge	-12.1922
▁auxquel	-12.1926
▁cann	-12.1943
▁sonde	-12.195
nañu	-12.1955
cade	-12.1958
▁fon	-12.1959
cères	-12.1967
▁Gó	-12.1981
viennent	-12.1985
▁étrang	-12.1987
wii	-12.199
uri	-12.1996
▁riv	-12.2006
ssorti	-12.2009
▁survi	-12.2011
stic	-12.2011
▁empi	-12.2015
▁tremp	-12.202
aree	-12.2024
▁organis	-12.2035
▁tollo	-12.2047
▁anecdot	-12.2051
▁goyav	-12.2051
▁upp	-12.2052
cho	-12.206
▁tourné	-12.2072
op	-12.2076
In	-12.2078
▁plac	-12.2082
éclair	-12.2085
objet	-12.2085
rrache	-12.2085
▁insens	-12.2092
▁voyag	-12.2097
▁marqu	-12.2097
ancien	-12.2104
▁rempla	-12.2118
▁lox	-12.2119
▁Wil	-12.2124
ott	-12.2127
▁perdu	-12.2132
oritaire	-12.2136
më	-12.2137
ayloo	-12.214
▁sukkandi	-12.2145
ssante	-12.2146
pé	-12.215
ailli	-12.2154
▁prom	-12.2154
▁souve	-12.2161
stricts	-12.2165
▁désespéran	-12.2172
échir	-12.2176
imité	-12.2177
bib	-12.2184
olu	-12.2185
gne	-12.2186
odes	-12.2187
onné	-12.2188
▁Ñooñ	-12.2205
óot	-12.2212
machi	-12.2213
struct	-12.2213
▁àngal	-12.2217
cax	-12.2217
espérance	-12.2218
ercé	-12.2226
Mah	-12.2231
arade	-12.2231
puis	-12.2231
extr	-12.2231
▁plain	-12.2236
Ele	-12.2236
aventur	-12.2237
çu	-12.2237
neuses	-12.2244
▁obséd	-12.2244
embre	-12.2244
▁explo	-12.2245
▁débar	-12.2248
échappe	-12.2252
▁séc	-12.2256
▁mànga	-12.2257
▁Niserya	-12.2258
▁arme	-12.2266
dent	-12.2267
▁waax	-12.2267
eff	-12.2267
anguie	-12.227
isante	-12.227
import	-12.2271
nant	-12.2272
▁propr	-12.2272
bou	-12.2272
comp	-12.2273
Gol	-12.2273
Africa	-12.2276
▁oreille	-12.2276
emporte	-12.2278
habituelle	-12.2278
▁terr	-12.228
énk	-12.2281
administrati	-12.2281
nouvel	-12.2282
▁kilif	-12.2282
inspir	-12.2284
Ma	-12.2284
▁Dë	-12.2287
▁cultiv	-12.2296
▁instinct	-12.2297
▁administrateur	-12.2298
▁bouclier	-12.2298
▁prospère	-12.2298
▁secret	-12.2298
mobilisé	-12.2298
nombr	-12.2298
▁conserv	-12.2299
▁ép	-12.23
adolescen	-12.2305
▁congé	-12.2306
face	-12.2306
R	-12.2308
écrit	-12.2308
médi	-12.2309
▁gilet	-12.231
▁palmier	-12.2315
▁vaccin	-12.2315
▁proch	-12.2317
seeti	-12.2319
▁secour	-12.2322
arrive	-12.2323
▁sœur	-12.2323
fond	-12.2324
apportai	-12.2324
forme	-12.2325
▁hamac	-12.2327
▁wo	-12.2328
tombe	-12.233
cache	-12.2331
▁depui	-12.2331
▁heur	-12.2332
▁palme	-12.2332
néeg	-12.2334
▁comprend	-12.2334
vu	-12.2334
L	-12.2335
▁appri	-12.2336
njàpp	-12.2336
attrape	-12.2337
óotal	-12.2337
accouchement	-12.2337
élevage	-12.2337
européenne	-12.2337
exceptionnel	-12.2337
expérience	-12.2337
immensité	-12.2337
infirmiers	-12.2337
instrument	-12.2337
lançant	-12.2337
▁volet	-12.2337
confortable	-12.2337
douze	-12.2337
poules	-12.2337
illusion	-12.2337
suivant	-12.2337
étude	-12.2337
position	-12.2337
appel	-12.2338
exact	-12.2338
▁kó	-12.2338
kersa	-12.2339
mise	-12.2339
▁Mill	-12.234
lunk	-12.234
▁élev	-12.2342
Mal	-12.2343
▁transform	-12.2343
animal	-12.2345
inqui	-12.2346
plat	-12.2346
jo	-12.2346
stè	-12.2348
quaient	-12.2348
▁xo	-12.2349
pla	-12.2349
ordinaire	-12.235
niróo	-12.235
respect	-12.235
siècle	-12.235
effray	-12.235
▁téen	-12.2351
mètres	-12.2352
▁ë	-12.2352
oreiller	-12.2353
hô	-12.2354
aaje	-12.2354
▁yeg	-12.2354
peint	-12.2356
laissé	-12.2356
libre	-12.2356
apparaissent	-12.2356
waxee	-12.2357
étrange	-12.2357
anima	-12.2358
Es	-12.2358
panier	-12.236
tawat	-12.236
wóolu	-12.236
naaxi	-12.2361
existait	-12.2361
avance	-12.2362
chemin	-12.2362
Obudu	-12.2362
exc	-12.2362
tements	-12.2363
Ki	-12.2363
vêtu	-12.2364
▁prépar	-12.2364
Un	-12.2364
dain	-12.2364
sàmm	-12.2364
pied	-12.2365
cœur	-12.2365
nijaay	-12.2365
parents	-12.2365
parlé	-12.2365
petits	-12.2366
viennes	-12.2366
▁termite	-12.2366
në	-12.2366
ville	-12.2366
cris	-12.2367
toujours	-12.2367
Bamendaa	-12.2368
bres	-12.2368
Frãs	-12.2368
monté	-12.2368
Par	-12.2368
Ibo	-12.2368
vécu	-12.2368
poisson	-12.2369
Ni	-12.2369
blanc	-12.2369
▁temp	-12.2369
chambre	-12.237
yàgg	-12.237
trois	-12.237
dessin	-12.237
lâche	-12.237
▁escal	-12.2371
Góo	-12.2371
femmes	-12.2371
Mon	-12.2371
désir	-12.2371
géey	-12.2371
Afrig	-12.2371
En	-12.2372
bëggée	-12.2372
thé	-12.2373
goût	-12.2373
étage	-12.2373
échelle	-12.2373
cours	-12.2373
Alma	-12.2373
▁tapp	-12.2373
comme	-12.2374
ainsi	-12.2374
D	-12.2375
dund	-12.2375
▁invent	-12.2376
chef	-12.2376
ouillée	-12.2377
marché	-12.2378
onstru	-12.2378
ddoo	-12.2379
yaram	-12.2379
donné	-12.238
alors	-12.238
peut	-12.238
▁nonchalant	-12.2381
aperç	-12.2381
▁portrait	-12.2382
taax	-12.2384
rop	-12.2384
fois	-12.2384
laaj	-12.2385
000	-12.2386
élém	-12.2386
▁montagn	-12.2387
dayo	-12.2388
ggat	-12.2388
veux	-12.2388
xumb	-12.2389
ssembler	-12.2389
▁ngon	-12.2389
▁remont	-12.239
▁campagn	-12.239
▁revanch	-12.239
▁équatorial	-12.239
ënd	-12.2391
éloignement	-12.2391
▁personn	-12.2391
takk	-12.2391
walla	-12.2392
njort	-12.2392
▁réveil	-12.2392
▁Pas	-12.2392
▁flot	-12.2393
habitent	-12.2393
▁màn	-12.2394
▁pétrol	-12.2394
nangu	-12.2394
assiette	-12.2396
xaar	-12.2396
▁gratuit	-12.2396
donc	-12.2396
rtif	-12.2398
▁homm	-12.2398
▁polic	-12.2398
▁brouss	-12.2399
couvrant	-12.2401
cu	-12.2401
écoute	-12.2401
▁pilot	-12.2401
rëdd	-12.2402
▁Og	-12.2402
angle	-12.2402
▁yónne	-12.2402
sang	-12.2403
▁Mauric	-12.2403
▁teggi	-12.2403
effa	-12.2404
bàjj	-12.2404
▁espéra	-12.2406
çon	-12.2407
▁tiss	-12.2408
Ab	-12.2409
coté	-12.2412
écess	-12.2413
▁sànnee	-12.2414
teegul	-12.2415
nsectes	-12.2415
▁chev	-12.2415
▁baaraa	-12.2416
▁côt	-12.2416
neus	-12.2417
▁lumineu	-12.2417
tifs	-12.2418
vertes	-12.2418
▁ràkkaaj	-12.242
wàll	-12.2421
dressa	-12.2423
pax	-12.2423
issantes	-12.2424
▁modern	-12.2424
▁industriel	-12.2424
▁officiel	-12.2424
accent	-12.2425
Ru	-12.2425
▁indépendan	-12.2425
▁tàl	-12.2426
ouch	-12.2426
tànk	-12.2428
Mar	-12.2428
ewuñ	-12.2429
ceaux	-12.243
poudr	-12.243
élé	-12.243
deret	-12.243
eintes	-12.2431
▁gémmi	-12.2431
harma	-12.2431
ébut	-12.2432
▁craint	-12.2432
asques	-12.2432
▁plat	-12.2432
▁pleure	-12.2433
êté	-12.2433
oktoor	-12.2434
ëgër	-12.2434
▁piste	-12.2434
▁saura	-12.2435
▁masqu	-12.2435
stances	-12.2435
▁cord	-12.2435
rnée	-12.2435
ginnaaw	-12.2435
▁fû	-12.2436
▁ragl	-12.2437
▁yër	-12.2437
ibo	-12.2438
▁jégg	-12.2438
aurai	-12.2439
▁arb	-12.2439
àndal	-12.2439
tudd	-12.2441
▁reveni	-12.2441
▁insta	-12.2441
▁Office	-12.2442
thm	-12.2442
▁remp	-12.2443
êt	-12.2443
muur	-12.2444
plu	-12.2444
▁épais	-12.2446
▁Wiya	-12.2446
skan	-12.2447
▁Yó	-12.2449
▁bàyyeek	-12.2449
affronte	-12.245
▁lors	-12.2451
rmite	-12.2451
emplissa	-12.2452
jom	-12.2453
▁envoyé	-12.2455
ricot	-12.2455
olents	-12.2456
nóox	-12.2456
ardées	-12.2456
corpion	-12.2456
▁fla	-12.2456
ubë	-12.2456
olonial	-12.2457
oups	-12.2457
invente	-12.2457
▁équi	-12.2458
ofeel	-12.2458
àmbu	-12.2459
signifia	-12.2459
▁gëlée	-12.2459
ançai	-12.2459
omprends	-12.246
▁archite	-12.246
▁échapp	-12.2461
samaan	-12.2462
ormais	-12.2462
aoussas	-12.2462
▁tonne	-12.2463
▁franc	-12.2463
▁partage	-12.2464
▁access	-12.2464
nweer	-12.2464
exoti	-12.2465
▁Më	-12.2465
▁précéd	-12.2465
▁ŋgoog	-12.2466
major	-12.2467
▁repr	-12.2467
nkarla	-12.2468
▁rap	-12.2468
▁accouche	-12.2468
exp	-12.2468
▁rév	-12.2468
▁tàq	-12.2468
ensation	-12.2469
▁impré	-12.247
ërngal	-12.247
éggi	-12.247
▁positi	-12.2471
▁voudrai	-12.2471
pressi	-12.2471
néegu	-12.2471
▁jànkontee	-12.2471
▁froi	-12.2472
▁fentaako	-12.2472
▁viol	-12.2472
aqar	-12.2472
▁domesti	-12.2472
▁compren	-12.2473
▁coute	-12.2473
vou	-12.2474
óobal	-12.2474
▁électri	-12.2474
éedéet	-12.2475
▁mainten	-12.2475
rection	-12.2476
dàqe	-12.2476
flamm	-12.2476
emerara	-12.2476
explosi	-12.2476
gnée	-12.2476
▁kepp	-12.2476
▁móo	-12.2477
aintenant	-12.2477
▁rapproch	-12.2477
▁mesur	-12.2477
▁oublie	-12.2477
hasse	-12.2478
▁miné	-12.2478
laisir	-12.2478
▁sculpt	-12.2478
oubli	-12.2479
▁wall	-12.2479
remière	-12.2479
aawtéef	-12.2479
neetar	-12.2479
éexlu	-12.2479
parer	-12.2479
▁tó	-12.2479
ànnaay	-12.248
ëccëg	-12.248
▁décl	-12.248
vêtement	-12.248
événement	-12.248
âtiment	-12.248
autori	-12.248
encontré	-12.2481
▁pessimis	-12.2481
▁éloign	-12.2481
suppo	-12.2481
▁relati	-12.2481
etourne	-12.2481
õ	-12.2481
▁message	-12.2481
ovin	-12.2481
▁sép	-12.2481
allong	-12.2481
▁kéw	-12.2481
▁rê	-12.2482
▁recev	-12.2482
plication	-12.2482
▁Saawusam	-12.2482
▁193	-12.2482
mnasti	-12.2482
àmbaa	-12.2482
▁carross	-12.2482
ssaille	-12.2482
épis	-12.2482
▁tradition	-12.2482
écriv	-12.2482
ccidentaux	-12.2482
îner	-12.2482
employ	-12.2482
▁emplo	-12.2482
$	-12.2482
&	-12.2482
90	-12.2482
[	-12.2482
]	-12.2482
etown	-12.2482
répan	-12.2482
°	-12.2482
Ò	-12.2482
í	-12.2482
ò	-12.2482
ā	-12.2482
ń	-12.2482
▁George	-12.2482
écédé	-12.2482
itinéra	-12.2482
cepti	-12.2482
arché	-12.2482
▁rejoin	-12.2482
trave	-12.2482
urgie	-12.2482
▁Kaasa	-12.2483
ograph	-12.2483
▁piè	-12.2483
fection	-12.2483
▁Génn	-12.2483
▁njabo	-12.2483
▁transp	-12.2483
▁lép	-12.2483
coph	-12.2483
uvés	-12.2484
tuellement	-12.2484
▁expé	-12.2484
ilwi	-12.2484
auteur	-12.2484
ëddoo	-12.2484
longeai	-12.2484
▁ndó	-12.2484
olof	-12.2484
éche	-12.2484
intér	-12.2484
▁Polis	-12.2484
ouge	-12.2484
▁Norm	-12.2484
équent	-12.2484
▁mémo	-12.2484
vén	-12.2484
▁habitant	-12.2484
sionnelle	-12.2484
▁ŋgee	-12.2484
nsulta	-12.2485
▁Abaak	-12.2485
▁choc	-12.2485
wiyaa	-12.2485
▁chauss	-12.2486
dox	-12.2486
wolu	-12.2486
agno	-12.2487
lóo	-12.2487
ppatoo	-12.2487
iroko	-12.2487
▁jàmbu	-12.2487
culté	-12.2488
phase	-12.2488
▁Bëc	-12.2488
œuf	-12.2488
olloo	-12.2488
chements	-12.2489
▁transf	-12.2489
▁idé	-12.2489
expl	-12.249
bites	-12.249
hett	-12.249
avenir	-12.249
irgo	-12.2491
▁poitr	-12.2491
▁jëfandiko	-12.2491
revi	-12.2491
▁réali	-12.2491
ogue	-12.2492
clée	-12.2492
▁inspir	-12.2492
ókoo	-12.2492
▁goutt	-12.2492
fiance	-12.2493
lines	-12.2493
imisme	-12.2493
endance	-12.2493
elloo	-12.2494
lime	-12.2495
ssié	-12.2496
tard	-12.2496
aňoo	-12.2497
mmiñ	-12.2498
accessible	-12.2498
▁bâ	-12.2498
ppo	-12.2499
▁bëc	-12.2499
balan	-12.2499
afal	-12.2499
▁véri	-12.2499
▁ref	-12.2499
quji	-12.2499
xantu	-12.25
▁moust	-12.25
doole	-12.25
fut	-12.25
grill	-12.25
▁bã	-12.2501
▁vaut	-12.2501
issais	-12.2501
taawun	-12.2501
mero	-12.2501
mbarde	-12.2501
▁chan	-12.2502
▁Vie	-12.2502
▁incon	-12.2502
franchi	-12.2502
▁préf	-12.2503
▁Bén	-12.2503
iroir	-12.2503
artic	-12.2503
konte	-12.2503
aves	-12.2504
fise	-12.2504
raphi	-12.2504
njal	-12.2504
ciel	-12.2505
bbale	-12.2506
éenne	-12.2506
▁Bret	-12.2506
aillé	-12.2506
▁rang	-12.2508
▁coh	-12.2508
ssez	-12.2508
lbati	-12.2508
dical	-12.2509
ccabl	-12.2509
iraas	-12.251
cat	-12.2511
▁wot	-12.2511
istait	-12.2511
dienne	-12.2511
▁transm	-12.2512
nnel	-12.2512
▁raf	-12.2512
feu	-12.2515
blant	-12.2517
▁flan	-12.2517
▁Ija	-12.2517
▁herb	-12.2517
▁wóol	-12.2518
ajoom	-12.2519
▁prof	-12.2519
tàn	-12.252
▁déta	-12.252
▁Alse	-12.252
ëro	-12.2521
cident	-12.2521
▁palan	-12.2521
vid	-12.2521
▁clam	-12.2522
àrme	-12.2522
rill	-12.2522
▁yombu	-12.2523
sacrée	-12.2524
igeria	-12.2525
▁confo	-12.2525
▁Casa	-12.2525
illage	-12.2525
ëcce	-12.2526
titude	-12.2526
▁yew	-12.2526
caak	-12.2526
ouffant	-12.2527
▁mó	-12.2528
▁comm	-12.2528
ãŋ	-12.2528
▁craque	-12.2528
acée	-12.2531
gence	-12.2532
éduit	-12.2533
▁chevau	-12.2533
rences	-12.2534
ecte	-12.2534
▁ňà	-12.2534
cukaay	-12.2535
lline	-12.2537
aajuloo	-12.2537
bor	-12.2537
ètre	-12.2538
▁Musa	-12.2539
Aba	-12.2541
mbax	-12.2541
mul	-12.2541
▁décou	-12.2542
étho	-12.2542
cifi	-12.2543
ñaxtu	-12.2544
▁rej	-12.2545
durcis	-12.2547
bo	-12.2548
diens	-12.2548
▁déch	-12.2552
rrompu	-12.2553
gori	-12.2553
▁ferm	-12.2553
▁gaz	-12.2556
ât	-12.2558
▁Obu	-12.2558
iiwaan	-12.2558
ggatu	-12.256
▁concer	-12.2561
quée	-12.2563
lations	-12.2563
iyaar	-12.2564
uris	-12.2564
▁ndà	-12.2564
riir	-12.2565
étique	-12.2565
araan	-12.2566
rè	-12.2566
ingt	-12.2567
▁grat	-12.2568
gène	-12.2569
ddo	-12.257
dénk	-12.2571
▁Kab	-12.2572
▁prév	-12.2572
har	-12.2574
orat	-12.2575
▁Ex	-12.2576
chelle	-12.2578
▁déey	-12.2579
reaux	-12.258
▁Nise	-12.258
ficiel	-12.2581
vir	-12.2581
eegul	-12.2581
▁enfa	-12.2583
eiller	-12.2584
aimer	-12.2585
éreux	-12.2585
▁Alg	-12.2589
ensité	-12.2589
déc	-12.259
vra	-12.2591
ggoon	-12.2591
lisse	-12.2592
oogu	-12.2593
kkoo	-12.2594
éclairs	-12.2595
phant	-12.2597
uwaal	-12.2599
fique	-12.26
taires	-12.26
enfin	-12.26
pagne	-12.2601
ouer	-12.2603
nérale	-12.2604
fami	-12.2606
▁mous	-12.2607
▁Gau	-12.2607
▁infi	-12.2608
▁perd	-12.2611
▁dev	-12.2611
paraissent	-12.2611
▁Tuba	-12.2611
biir	-12.2612
aww	-12.2615
onner	-12.2616
anciens	-12.2618
érent	-12.2619
▁àntu	-12.2621
oser	-12.2621
ouc	-12.2622
▁préte	-12.2624
objets	-12.2624
diku	-12.2626
lusi	-12.2626
▁Nji	-12.2627
lee	-12.2629
urions	-12.2629
mirat	-12.2631
▁décha	-12.2631
bien	-12.2632
lique	-12.2632
bati	-12.2632
étions	-12.2633
xel	-12.2639
ciens	-12.264
▁Aga	-12.264
ulóo	-12.2644
tab	-12.2646
adeau	-12.2651
cieuse	-12.2652
ssage	-12.2653
▁pét	-12.2653
ajoo	-12.2655
yoona	-12.2655
ession	-12.2661
▁plate	-12.2661
ndik	-12.2662
ort	-12.2662
terie	-12.2665
▁dëg	-12.2666
▁exer	-12.2668
▁Kó	-12.267
▁pet	-12.2671
▁éche	-12.2674
▁nouvel	-12.2674
orp	-12.2675
maine	-12.2676
ogra	-12.2677
të	-12.268
ñet	-12.268
▁Mbe	-12.2681
aigu	-12.2684
▁tëg	-12.2684
vres	-12.2684
▁Africa	-12.2685
iennent	-12.2686
▁effa	-12.2686
▁administrati	-12.2687
maté	-12.2687
cevoir	-12.269
▁Ac	-12.2693
diine	-12.2697
oration	-12.2698
▁baar	-12.27
affai	-12.27
▁arg	-12.2703
▁Peu	-12.2704
rice	-12.2708
▁médi	-12.2709
▁Ñé	-12.2711
▁carre	-12.2711
lotte	-12.2712
arch	-12.2713
▁hô	-12.2713
erbe	-12.2714
pant	-12.2715
enroul	-12.2716
▁destruct	-12.2717
mettes	-12.2719
Africaine	-12.272
néel	-12.2722
aawam	-12.2723
▁org	-12.2727
gile	-12.2728
oute	-12.2729
▁bà	-12.2733
yàcc	-12.2733
chaise	-12.2737
lement	-12.2741
icité	-12.2751
ète	-12.2752
meuse	-12.2755
▁Pala	-12.2756
urém	-12.2757
eksi	-12.2759
jul	-12.276
xet	-12.2762
rde	-12.2763
▁ñag	-12.2764
aakoon	-12.2765
▁Té	-12.2766
égré	-12.277
verne	-12.2778
iture	-12.2781
ystè	-12.2783
▁Yée	-12.2785
llé	-12.2787
ssim	-12.2788
ww	-12.2791
salaam	-12.2791
▁couleu	-12.2792
▁souven	-12.2795
▁déb	-12.2795
ritures	-12.2795
arades	-12.2796
▁achet	-12.2797
▁mënu	-12.2799
▁rà	-12.2801
illonn	-12.2804
ourris	-12.2804
alisme	-12.2807
▁nuage	-12.2809
bóot	-12.2812
▁pie	-12.2813
▁consti	-12.2815
étal	-12.2816
liku	-12.2817
▁convers	-12.2825
▁habituelle	-12.2825
avec	-12.2827
▁foof	-12.2828
angl	-12.2828
neuse	-12.2832
▁naît	-12.2834
▁Mang	-12.2852
▁résu	-12.2852
lekk	-12.2853
él	-12.2853
▁xuu	-12.2863
▁call	-12.2866
litaire	-12.2868
▁jàppoo	-12.2875
amba	-12.2876
▁xon	-12.2877
nq	-12.2889
hors	-12.2889
ppukaayam	-12.2891
▁rô	-12.2897
▁wé	-12.2898
▁bëm	-12.2898
▁daŋ	-12.2899
▁gém	-12.29
gule	-12.29
tóo	-12.2909
ryaa	-12.2909
▁tont	-12.291
xamu	-12.291
▁ext	-12.2912
assis	-12.2916
icieux	-12.2917
rable	-12.2917
ňaar	-12.2918
cine	-12.2918
▁sco	-12.292
▁gén	-12.2921
▁golfe	-12.2925
aasaloo	-12.293
oppi	-12.2931
▁avion	-12.2933
▁voulai	-12.2935
glis	-12.2935
kkukaay	-12.2937
hal	-12.2944
▁exc	-12.2947
lage	-12.2949
exte	-12.295
▁Sol	-12.2963
ition	-12.2965
tem	-12.2967
▁séch	-12.2974
▁noppale	-12.2982
▁namm	-12.2985
nee	-12.2994
uaires	-12.2994
qal	-12.2998
mbe	-12.3007
èvres	-12.3008
uettes	-12.3013
ggatoon	-12.3015
▁habitu	-12.3017
▁term	-12.3017
àyyi	-12.3031
junniy	-12.3045
▁góo	-12.3045
▁rais	-12.3048
dool	-12.3051
ôn	-12.3052
leine	-12.306
ueil	-12.3062
▁Nig	-12.3068
mmi	-12.3068
was	-12.307
ssantes	-12.3071
onfit	-12.3074
▁Mà	-12.3076
cha	-12.3077
usion	-12.3079
▁vac	-12.3081
mbar	-12.3082
jud	-12.3086
jal	-12.3089
cée	-12.3089
cale	-12.3092
▁plai	-12.3095
baree	-12.3097
habits	-12.3098
années	-12.31
ró	-12.3101
▁tegoo	-12.3103
emment	-12.3108
▁xub	-12.3108
dante	-12.311
naan	-12.3114
eetar	-12.3121
▁corn	-12.3129
quette	-12.3134
oulés	-12.3136
laires	-12.3136
▁chass	-12.3138
antan	-12.3139
nyaa	-12.3141
rants	-12.3142
dieux	-12.3143
per	-12.3147
guma	-12.3151
▁nap	-12.3151
orant	-12.3153
▁recon	-12.3159
ives	-12.3161
▁endu	-12.3163
érer	-12.3168
ign	-12.317
démb	-12.3171
acheté	-12.3177
aalum	-12.3189
▁Lool	-12.3193
▁tuur	-12.3193
ornes	-12.3199
inée	-12.3203
raay	-12.3211
taa	-12.3211
rou	-12.3218
kkat	-12.322
▁jigée	-12.322
▁doc	-12.3221
▁Ag	-12.3222
▁inex	-12.3224
eňň	-12.3225
▁poul	-12.3233
▁différente	-12.3236
▁Yé	-12.3241
añseer	-12.3246
▁fanee	-12.3248
▁sc	-12.3257
ombreux	-12.3257
nous	-12.326
▁off	-12.3261
erri	-12.3262
▁attach	-12.3275
▁Ch	-12.3277
rru	-12.3287
▁soign	-12.3288
▁ñé	-12.3289
andise	-12.3299
érie	-12.3304
obs	-12.3306
ñuul	-12.3316
▁étendue	-12.3322
deek	-12.3329
ibaar	-12.3335
yaar	-12.3341
▁Atte	-12.3342
mouch	-12.3354
▁yée	-12.336
▁exempl	-12.3375
▁moy	-12.3383
anie	-12.3384
gay	-12.3385
ngalee	-12.3399
ñse	-12.3428
Ind	-12.3437
oul	-12.3439
▁colonis	-12.3443
primé	-12.345
mir	-12.3451
▁baaxoo	-12.3458
lëm	-12.3472
rien	-12.3478
phy	-12.3479
umb	-12.3483
iller	-12.3485
▁cher	-12.349
arde	-12.3493
á	-13.6298
Z	-13.6299
5	-13.63
Ë	-13.6301
“	-13.6302
Ŋ	-13.6303
6	-13.6304
É	-13.6305
Ó	-13.6306
œ	-13.6307
9	-13.6308
1	-13.6309
H	-13.631
(	-13.6311
–	-13.6312
U	-13.6313
V	-13.6314
À	-13.6315
»	-13.6316
ç	-13.6317
Ñ	-13.6318
Q	-13.6319
Y	-13.632
X	-13.6321
P	-13.6322
E	-13.6323
K	-13.6324
W	-13.6325
ê	-13.6326
T	-13.6327
G	-13.6328
J	-13.6329
B	-13.633
N	-13.6331
S	-13.6332
M	-13.6333
?	-13.6334
!	-13.6335
ë	-13.6336
