{
  "version": "1.0",
  "truncation": null,
  "padding": null,
  "added_tokens": [
    {
      "id": 0,
      "content": "<cls>",
      "single_word": false,
      "lstrip": false,
      "rstrip": false,
      "normalized": false,
      "special": true
    },
    {
      "id": 1,
      "content": "<sep>",
      "single_word": false,
      "lstrip": false,
      "rstrip": false,
      "normalized": false,
      "special": true
    },
    {
      "id": 2,
      "content": "<unk>",
      "single_word": false,
      "lstrip": false,
      "rstrip": false,
      "normalized": false,
      "special": true
    },
    {
      "id": 3,
      "content": "<pad>",
      "single_word": false,
      "lstrip": false,
      "rstrip": false,
      "normalized": false,
      "special": true
    },
    {
      "id": 4,
      "content": "<mask>",
      "single_word": false,
      "lstrip": false,
      "rstrip": false,
      "normalized": false,
      "special": true
    },
    {
      "id": 5,
      "content": "<s>",
      "single_word": false,
      "lstrip": false,
      "rstrip": false,
      "normalized": false,
      "special": true
    },
    {
      "id": 6,
      "content": "</s>",
      "single_word": false,
      "lstrip": false,
      "rstrip": false,
      "normalized": false,
      "special": true
    }
  ],
  "normalizer": {
    "type": "Replace",
    "pattern": {
      "String": " {2,}"
    },
    "content": " "
  },
  "pre_tokenizer": {
    "type": "Metaspace",
    "replacement": "▁",
    "add_prefix_space": true
  },
  "post_processor": null,
  "decoder": {
    "type": "Metaspace",
    "replacement": "▁",
    "add_prefix_space": true
  },
  "model": {
    "type": "Unigram",
    "unk_id": 2,
    "vocab": [
      [
        "<cls>",
        0.0
      ],
      [
        "<sep>",
        0.0
      ],
      [
        "<unk>",
        0.0
      ],
      [
        "<pad>",
        0.0
      ],
      [
        "<mask>",
        0.0
      ],
      [
        "<s>",
        0.0
      ],
      [
        "</s>",
        0.0
      ],
      [
        "▁",
        -2.6013069787897436
      ],
      [
        ".",
        -3.1554446307497255
      ],
      [
        ",",
        -3.7375570430371736
      ],
      [
        "?",
        -4.123214678991761
      ],
      [
        "!",
        -4.230915708529034
      ],
      [
        "s",
        -4.233801836795974
      ],
      [
        "▁la",
        -4.414411789803241
      ],
      [
        "▁de",
        -4.5613106718135805
      ],
      [
        "e",
        -4.678363659257359
      ],
      [
        "a",
        -4.74264341701584
      ],
      [
        "▁ci",
        -4.77627710182249
      ],
      [
        "▁qui",
        -4.963209894769984
      ],
      [
        "y",
        -4.997290082421156
      ],
      [
        "u",
        -5.010618887165914
      ],
      [
        "i",
        -5.025807362286961
      ],
      [
        "▁na",
        -5.039355513090504
      ],
      [
        "n",
        -5.059308596698535
      ],
      [
        "▁est",
        -5.1076376292480585
      ],
      [
        "▁!",
        -5.1434769834301575
      ],
      [
        "▁dem",
        -5.1725798013816
      ],
      [
        "▁que",
        -5.212289523261045
      ],
      [
        "▁ne",
        -5.222158352734662
      ],
      [
        "▁pas",
        -5.249744730119266
      ],
      [
        "▁un",
        -5.26403032573094
      ],
      [
        "t",
        -5.298304235742098
      ],
      [
        "▁C'est",
        -5.301409965112764
      ],
      [
        "▁Il",
        -5.313032748056987
      ],
      [
        "▁gi",
        -5.314930199958406
      ],
      [
        "▁a",
        -5.3172129340154735
      ],
      [
        "▁des",
        -5.373584349387801
      ],
      [
        "et",
        -5.396668732885402
      ],
      [
        "▁naa",
        -5.468389116945168
      ],
      [
        "▁bi",
        -5.482467575060934
      ],
      [
        "▁vu",
        -5.505787781924639
      ],
      [
        "▁ay",
        -5.561742448933265
      ],
      [
        "▁ŋga",
        -5.595686649110239
      ],
      [
        "▁G",
        -5.620438669074014
      ],
      [
        "une",
        -5.620507137242312
      ],
      [
        "óor",
        -5.684542770164115
      ],
      [
        "▁le",
        -5.725393801825918
      ],
      [
        "▁am",
        -5.726482936465989
      ],
      [
        "▁y",
        -5.728938570114082
      ],
      [
        "▁ce",
        -5.7809643317161745
      ],
      [
        "l",
        -5.792653994035231
      ],
      [
        "▁à",
        -5.803032223687624
      ],
      [
        "▁mu",
        -5.813470406925263
      ],
      [
        "▁tu",
        -5.813686168889009
      ],
      [
        "▁Gis",
        -5.816204019078255
      ],
      [
        "▁Je",
        -5.839442511815184
      ],
      [
        "▁bu",
        -5.87171596610216
      ],
      [
        "r",
        -5.874375277896886
      ],
      [
        "▁di",
        -5.880957461895547
      ],
      [
        "▁gis",
        -5.895081629549569
      ],
      [
        "▁sont",
        -5.915872229638517
      ],
      [
        "▁ñu",
        -5.919248814533953
      ],
      [
        "▁les",
        -5.928551585567187
      ],
      [
        "▁Tu",
        -5.933515890039133
      ],
      [
        "▁homme",
        -5.948045428707183
      ],
      [
        "▁nag",
        -5.968155650666888
      ],
      [
        "▁été",
        -5.9907268369897215
      ],
      [
        "▁du",
        -6.01095534028542
      ],
      [
        "on",
        -6.013321684608939
      ],
      [
        "▁L'homme",
        -6.01915706543461
      ],
      [
        "▁yu",
        -6.043650727201523
      ],
      [
        "▁ak",
        -6.081974672038855
      ],
      [
        "▁c",
        -6.093042360868933
      ],
      [
        "▁J'ai",
        -6.094612092831076
      ],
      [
        "▁ko",
        -6.102574203451803
      ],
      [
        "▁ngi",
        -6.114651077712174
      ],
      [
        "▁ni",
        -6.120146531021244
      ],
      [
        "▁photo",
        -6.123505397831403
      ],
      [
        "▁wax",
        -6.123717374570667
      ],
      [
        "▁xam",
        -6.132727233971168
      ],
      [
        "▁yi",
        -6.155671932367882
      ],
      [
        "▁ba",
        -6.158766057001198
      ],
      [
        "▁ñëw",
        -6.18485256024548
      ],
      [
        "▁nit",
        -6.190926991236255
      ],
      [
        "le",
        -6.198342546028682
      ],
      [
        "▁ma",
        -6.209475791363781
      ],
      [
        "▁il",
        -6.229230502407697
      ],
      [
        "▁en",
        -6.243218670023924
      ],
      [
        "▁l'homme",
        -6.263901698240159
      ],
      [
        "à",
        -6.274762734319103
      ],
      [
        "▁nekk",
        -6.280468941356871
      ],
      [
        "▁bii",
        -6.284016154214055
      ],
      [
        "▁avec",
        -6.322621192412995
      ],
      [
        "▁qu'il",
        -6.330206078872027
      ],
      [
        "▁lu",
        -6.345351874095585
      ],
      [
        "il",
        -6.347964147416069
      ],
      [
        "▁góor",
        -6.370853265399629
      ],
      [
        "▁c'est",
        -6.375131020922432
      ],
      [
        "m",
        -6.385486663189301
      ],
      [
        "▁Nit",
        -6.4126803822500715
      ],
      [
        "▁pour",
        -6.4260846268702565
      ],
      [
        "▁parti",
        -6.427938430600107
      ],
      [
        "nt",
        -6.444847520944204
      ],
      [
        "▁benn",
        -6.454286067577692
      ],
      [
        "é",
        -6.46484432660426
      ],
      [
        "▁d",
        -6.48063404032209
      ],
      [
        "▁biir",
        -6.495044856745068
      ],
      [
        "▁Sur",
        -6.500137643480961
      ],
      [
        "▁te",
        -6.506364146450708
      ],
      [
        "▁sur",
        -6.506721991962136
      ],
      [
        "▁ab",
        -6.5161535607095535
      ],
      [
        "▁dans",
        -6.520858105649709
      ],
      [
        "▁la.",
        -6.535123020801199
      ],
      [
        "▁autre",
        -6.535395480094537
      ],
      [
        "▁mi",
        -6.539932887818778
      ],
      [
        "▁boo",
        -6.566756935884848
      ],
      [
        "▁je",
        -6.570983646520647
      ],
      [
        "▁se",
        -6.607886869586414
      ],
      [
        "▁Le",
        -6.615967869962917
      ],
      [
        "▁aussi",
        -6.6206288931119035
      ],
      [
        "▁si",
        -6.636811533789181
      ],
      [
        "▁Nataal",
        -6.637547833926134
      ],
      [
        "▁O",
        -6.653237383682544
      ],
      [
        "▁cet",
        -6.653887953018745
      ],
      [
        "▁n",
        -6.654640133618972
      ],
      [
        "▁nataal",
        -6.671966858268888
      ],
      [
        "▁moom",
        -6.694627158447351
      ],
      [
        "▁ñi",
        -6.70111322207219
      ],
      [
        "▁ŋgi",
        -6.701847952262213
      ],
      [
        "▁bëgg",
        -6.702871765873778
      ],
      [
        "▁A",
        -6.722496042996756
      ],
      [
        "▁ki",
        -6.728296814344797
      ],
      [
        "▁mel",
        -6.744228393222132
      ],
      [
        "▁fi",
        -6.7458940476654705
      ],
      [
        "ette",
        -6.745941152690273
      ],
      [
        "▁ñoo",
        -6.753294651765515
      ],
      [
        "eneen",
        -6.753676485489095
      ],
      [
        "▁xale",
        -6.763422813922215
      ],
      [
        "▁def",
        -6.763605072565685
      ],
      [
        "▁Am",
        -6.780905253052783
      ],
      [
        "▁là",
        -6.7906243953732375
      ],
      [
        "x",
        -6.796713521585885
      ],
      [
        "▁woon",
        -6.79952282247686
      ],
      [
        "▁l'intérieur",
        -6.80199905409026
      ],
      [
        "▁Ce",
        -6.803996673805107
      ],
      [
        "▁parle",
        -6.8053976438310375
      ],
      [
        "▁vois",
        -6.81054677823455
      ],
      [
        "▁nga",
        -6.817992839336199
      ],
      [
        "▁tout",
        -6.822559611941664
      ],
      [
        "▁Ci",
        -6.838927339277559
      ],
      [
        "o",
        -6.842949161231758
      ],
      [
        "s.",
        -6.845745888432077
      ],
      [
        "al",
        -6.849185615683933
      ],
      [
        "oon",
        -6.857463613199471
      ],
      [
        "▁La",
        -6.865759277852439
      ],
      [
        "▁lui",
        -6.866153142572599
      ],
      [
        "▁sa",
        -6.880067904554082
      ],
      [
        "es",
        -6.882693384834573
      ],
      [
        "▁moo",
        -6.900317949282341
      ],
      [
        "▁qu'",
        -6.90362633068618
      ],
      [
        "am",
        -6.904182018763981
      ],
      [
        "▁celui-là",
        -6.905943742760307
      ],
      [
        "▁néeg",
        -6.908217537009945
      ],
      [
        "▁as",
        -6.909115888282589
      ],
      [
        "▁seen",
        -6.918656442164587
      ],
      [
        "▁chose",
        -6.934233816554297
      ],
      [
        "▁E",
        -6.936412321875402
      ],
      [
        "ne",
        -6.936995084047309
      ],
      [
        "ay",
        -6.944510111457543
      ],
      [
        "▁ka",
        -6.947680814050541
      ],
      [
        "▁weex",
        -6.949775905709534
      ],
      [
        "'",
        -6.950221710926366
      ],
      [
        "woon",
        -6.9658013598903885
      ],
      [
        "▁couleur",
        -6.969476596787185
      ],
      [
        "▁Waaw",
        -6.980479428622104
      ],
      [
        "▁ji",
        -6.9878166633194105
      ],
      [
        "ment",
        -7.004138711606066
      ],
      [
        "▁Les",
        -7.020213502983448
      ],
      [
        "▁xar",
        -7.021262248088408
      ],
      [
        "▁vous",
        -7.031134128943586
      ],
      [
        "▁moi",
        -7.035036040465249
      ],
      [
        "▁l",
        -7.038264630563308
      ],
      [
        "▁voilà",
        -7.046535483199348
      ],
      [
        "▁mouton",
        -7.046938180483638
      ],
      [
        "'est",
        -7.050790167472732
      ],
      [
        "▁enfants",
        -7.052393821661896
      ],
      [
        "▁dit",
        -7.061828638756465
      ],
      [
        "▁toi",
        -7.064201424159299
      ],
      [
        "▁s",
        -7.064484654450453
      ],
      [
        "▁ca",
        -7.0698676548900705
      ],
      [
        "ñ",
        -7.072869062728207
      ],
      [
        "▁da",
        -7.07518589990088
      ],
      [
        "▁C",
        -7.082920848054231
      ],
      [
        "▁Dem",
        -7.094262250618971
      ],
      [
        "▁au",
        -7.097588335898742
      ],
      [
        "▁kenn",
        -7.0987649652935225
      ],
      [
        "▁Un",
        -7.099526865279362
      ],
      [
        "▁demee",
        -7.110544017808619
      ],
      [
        "▁laa",
        -7.112238843181049
      ],
      [
        "eux",
        -7.118825358011284
      ],
      [
        "ci",
        -7.129433894585764
      ],
      [
        "▁venu",
        -7.135688119188672
      ],
      [
        "▁fa",
        -7.137087289201565
      ],
      [
        "▁partir",
        -7.158990953476805
      ],
      [
        "▁veux",
        -7.16035453144367
      ],
      [
        "▁porte",
        -7.160425454944976
      ],
      [
        "▁ag",
        -7.161522899664277
      ],
      [
        "▁lool",
        -7.1659534416027775
      ],
      [
        "▁Quel",
        -7.171862509005955
      ],
      [
        "...",
        -7.175457582910836
      ],
      [
        "te",
        -7.178587895955471
      ],
      [
        "▁demul",
        -7.182514528264463
      ],
      [
        "▁maison",
        -7.182614562620175
      ],
      [
        "▁jigéen",
        -7.182811211848817
      ],
      [
        "▁ku",
        -7.186431845193029
      ],
      [
        "▁part",
        -7.187803181393454
      ],
      [
        "▁plus",
        -7.192809319506139
      ],
      [
        "▁Cet",
        -7.1961359333623145
      ],
      [
        "▁où",
        -7.203135659276731
      ],
      [
        "-",
        -7.2066055134705245
      ],
      [
        "▁Maa",
        -7.220366307816338
      ],
      [
        "▁bien",
        -7.222199741027941
      ],
      [
        "s-tu",
        -7.222300242358932
      ],
      [
        "▁j'",
        -7.224726693919369
      ],
      [
        "▁leen",
        -7.225560656484031
      ],
      [
        "ant",
        -7.226446321167134
      ],
      [
        "▁De",
        -7.227865218195319
      ],
      [
        "▁ŋgeen",
        -7.232537103247756
      ],
      [
        "ù",
        -7.248661485230819
      ],
      [
        "k",
        -7.257318852841382
      ],
      [
        "▁n'es",
        -7.266797985845846
      ],
      [
        "▁rafet",
        -7.26797816155354
      ],
      [
        "▁m",
        -7.268944572777318
      ],
      [
        "ez",
        -7.273547220733773
      ],
      [
        "en",
        -7.283481732443091
      ],
      [
        "ont",
        -7.293590216481355
      ],
      [
        "▁très",
        -7.304228500739322
      ],
      [
        "▁garab",
        -7.304683962568054
      ],
      [
        "▁ou",
        -7.312629235440486
      ],
      [
        "▁man",
        -7.315002866830749
      ],
      [
        "▁kaw",
        -7.338499513082992
      ],
      [
        "w",
        -7.341526492408347
      ],
      [
        "▁doon",
        -7.347598113316154
      ],
      [
        "▁lii",
        -7.350737121023666
      ],
      [
        "▁personne",
        -7.355915001518923
      ],
      [
        "▁soo",
        -7.368198089874632
      ],
      [
        "▁xarit",
        -7.370206240840644
      ],
      [
        "er",
        -7.377693310987594
      ],
      [
        "▁Lii",
        -7.379227164053727
      ],
      [
        "▁sol",
        -7.383070862308662
      ],
      [
        "g",
        -7.38611307345804
      ],
      [
        "▁Xar",
        -7.393663567772089
      ],
      [
        "oo",
        -7.398614798576471
      ],
      [
        "▁ñax",
        -7.407944578048681
      ],
      [
        "▁là-bas",
        -7.4083048067642885
      ],
      [
        "▁gens",
        -7.415379863619214
      ],
      [
        "▁J",
        -7.416615415312226
      ],
      [
        "▁réer",
        -7.417380709981178
      ],
      [
        "▁Comme",
        -7.4251137670096
      ],
      [
        "▁femme",
        -7.425654563895693
      ],
      [
        "▁j'ai",
        -7.445868703000193
      ],
      [
        "▁b",
        -7.450770860442446
      ],
      [
        "▁À",
        -7.4533480278640445
      ],
      [
        "▁Fa",
        -7.460459020146339
      ],
      [
        "▁waaw",
        -7.463666824044841
      ],
      [
        "▁Si",
        -7.464728800074383
      ],
      [
        "fa",
        -7.467482280961077
      ],
      [
        "▁Su",
        -7.471681605905664
      ],
      [
        "▁semble",
        -7.4814819181131496
      ],
      [
        "▁veut",
        -7.483505213576434
      ],
      [
        "▁rekk",
        -7.483599847279221
      ],
      [
        "▁n'a",
        -7.484142383422151
      ],
      [
        "▁teg",
        -7.487765890359405
      ],
      [
        "▁Qui",
        -7.487918742399566
      ],
      [
        "▁ñaar",
        -7.49482449612608
      ],
      [
        "▁fu",
        -7.498343044608721
      ],
      [
        "ent",
        -7.501054141638025
      ],
      [
        "▁dañ",
        -7.503371718832906
      ],
      [
        "▁lañu",
        -7.505257582928952
      ],
      [
        "▁maa",
        -7.507976034965705
      ],
      [
        "la",
        -7.514265215196538
      ],
      [
        "épp",
        -7.515683387095302
      ],
      [
        "▁Ba",
        -7.517633127355374
      ],
      [
        "▁gu",
        -7.5199156447749615
      ],
      [
        "▁on",
        -7.520183635302731
      ],
      [
        "▁jusqu'",
        -7.5215177194295535
      ],
      [
        "▁k",
        -7.5237598600101006
      ],
      [
        "▁Oui",
        -7.5244616636525485
      ],
      [
        "▁noppi",
        -7.525479335622874
      ],
      [
        "▁moutons",
        -7.525553663694494
      ],
      [
        "▁Ceci",
        -7.526558484269467
      ],
      [
        "▁yépp",
        -7.526755092468527
      ],
      [
        "▁kër",
        -7.52773734799259
      ],
      [
        "▁F",
        -7.529485702256547
      ],
      [
        "leurs",
        -7.52984375163848
      ],
      [
        "▁ami",
        -7.530541454978023
      ],
      [
        "re",
        -7.5343481948288105
      ],
      [
        "▁mën",
        -7.535366825980436
      ],
      [
        "▁Sée",
        -7.536475700734041
      ],
      [
        "it",
        -7.5371358198379745
      ],
      [
        "un",
        -7.537533307732684
      ],
      [
        "▁waa",
        -7.543602383459831
      ],
      [
        "▁Mi",
        -7.550281822184264
      ],
      [
        "de",
        -7.551705790543497
      ],
      [
        "▁So",
        -7.553196455610416
      ],
      [
        "▁yoo",
        -7.556978435495209
      ],
      [
        "▁Du",
        -7.562353441157784
      ],
      [
        "▁l'a",
        -7.564802368417769
      ],
      [
        "▁l'autre",
        -7.565277683967482
      ],
      [
        "▁ceux-là",
        -7.565310021378947
      ],
      [
        "▁peut-être",
        -7.565513237660463
      ],
      [
        "▁D",
        -7.565804654860171
      ],
      [
        "b",
        -7.566779984524848
      ],
      [
        "▁nañu",
        -7.566999124677382
      ],
      [
        "▁d'autres",
        -7.573019186007115
      ],
      [
        "▁Ma",
        -7.573194305022799
      ],
      [
        "is",
        -7.574487647384322
      ],
      [
        "▁kooku",
        -7.5777785297874125
      ],
      [
        "quelle",
        -7.589677604835155
      ],
      [
        "▁toog",
        -7.593993174201872
      ],
      [
        "▁Que",
        -7.598738694365416
      ],
      [
        "▁L",
        -7.60607352653978
      ],
      [
        "▁dara",
        -7.606999385696554
      ],
      [
        "▁Vous",
        -7.607866448226183
      ],
      [
        "▁tamit",
        -7.608121150781637
      ],
      [
        "▁Xale",
        -7.608656219075431
      ],
      [
        "▁quelqu'un",
        -7.608958965167341
      ],
      [
        "▁wet",
        -7.609150416114479
      ],
      [
        "▁Mais",
        -7.609174857687391
      ],
      [
        "▁sax",
        -7.611363001920354
      ],
      [
        "▁qu",
        -7.618832106548426
      ],
      [
        "▁Na",
        -7.621315706826341
      ],
      [
        "▁su",
        -7.629240411806615
      ],
      [
        "▁chambre",
        -7.630188443833991
      ],
      [
        "▁personnes",
        -7.633042519359901
      ],
      [
        "voir",
        -7.6344205235505544
      ],
      [
        "est",
        -7.638237412333673
      ],
      [
        "h",
        -7.638249911168009
      ],
      [
        "▁nii",
        -7.642045226886715
      ],
      [
        "▁ñuul",
        -7.643068641541394
      ],
      [
        "▁ya",
        -7.64624483581449
      ],
      [
        "▁baax",
        -7.646979447298428
      ],
      [
        "▁d'un",
        -7.654806618929005
      ],
      [
        "▁daal",
        -7.663146453669761
      ],
      [
        "▁s'",
        -7.671503195255901
      ],
      [
        "que",
        -7.673808445884306
      ],
      [
        "▁coté",
        -7.700671866948265
      ],
      [
        "▁Moo",
        -7.700903337083837
      ],
      [
        "▁foofu",
        -7.703526690339714
      ],
      [
        "▁Te",
        -7.704742993716232
      ],
      [
        "▁voit",
        -7.705423995965171
      ],
      [
        "▁bari",
        -7.709333446545072
      ],
      [
        "▁fii",
        -7.713128396358943
      ],
      [
        "▁d'",
        -7.715876781123358
      ],
      [
        "uñu",
        -7.718340220111656
      ],
      [
        "▁même",
        -7.721749244171189
      ],
      [
        "▁dana",
        -7.725143823274077
      ],
      [
        "di",
        -7.730271540506262
      ],
      [
        "▁fait",
        -7.733335826068519
      ],
      [
        "▁ont",
        -7.744597029096365
      ],
      [
        "-là",
        -7.745443150406676
      ],
      [
        "▁Ndax",
        -7.750908862947792
      ],
      [
        "▁donné",
        -7.750950927649675
      ],
      [
        "▁quelque",
        -7.753241981014373
      ],
      [
        "▁n'",
        -7.753628392538014
      ],
      [
        "r.",
        -7.756216760430639
      ],
      [
        "ul",
        -7.7642666407630845
      ],
      [
        "▁autres",
        -7.769854925378336
      ],
      [
        "▁dañu",
        -7.774669291481144
      ],
      [
        "▁posé",
        -7.778429860587748
      ],
      [
        "▁quelle",
        -7.781613686146709
      ],
      [
        "na",
        -7.7822431609002445
      ],
      [
        "▁daa",
        -7.783035619088293
      ],
      [
        "▁passe",
        -7.783167025812826
      ],
      [
        "c",
        -7.788119852468249
      ],
      [
        "▁peut",
        -7.795349720432584
      ],
      [
        "▁tou",
        -7.801772330596624
      ],
      [
        "▁crois",
        -7.803905955913811
      ],
      [
        "▁beaucoup",
        -7.80395570177153
      ],
      [
        "▁ñépp",
        -7.80401935877732
      ],
      [
        "▁celui",
        -7.804062665108976
      ],
      [
        "▁Keneen",
        -7.804419243115415
      ],
      [
        "▁taxaw",
        -7.804541472555215
      ],
      [
        "▁yooyu",
        -7.804793331996999
      ],
      [
        "▁verre",
        -7.809023515030447
      ],
      [
        "▁soit",
        -7.809887396373199
      ],
      [
        "▁Yaa",
        -7.816375426621097
      ],
      [
        "▁Bëgg",
        -7.828060598375915
      ],
      [
        "▁Ñu",
        -7.831331723897119
      ],
      [
        "▁femmes",
        -7.831830935200859
      ],
      [
        "koon",
        -7.836420179185865
      ],
      [
        "▁dëkk",
        -7.838920159603418
      ],
      [
        "▁égaré",
        -7.8419431575792125
      ],
      [
        "e.",
        -7.849590734603666
      ],
      [
        "ependant",
        -7.854160511605462
      ],
      [
        "oi",
        -7.856783994491213
      ],
      [
        "▁doŋŋ",
        -7.858407122795359
      ],
      [
        "▁Samba",
        -7.858748786365949
      ],
      [
        "▁aperç",
        -7.858925710872947
      ],
      [
        "ee",
        -7.86060148923891
      ],
      [
        "▁m'a",
        -7.868229897014525
      ],
      [
        "▁Mu",
        -7.870259494419315
      ],
      [
        "▁itam",
        -7.871168567359071
      ],
      [
        "tte",
        -7.877494608023399
      ],
      [
        "▁p",
        -7.88306766212068
      ],
      [
        "▁blanc",
        -7.883613524605703
      ],
      [
        "▁rouge",
        -7.88694881323486
      ],
      [
        "▁Daf",
        -7.8873032836061086
      ],
      [
        "▁ai",
        -7.889912725941196
      ],
      [
        "▁poisson",
        -7.891542744620008
      ],
      [
        "▁son",
        -7.8932796532592
      ],
      [
        "▁dee",
        -7.8944406074728395
      ],
      [
        "pp",
        -7.897576352360407
      ],
      [
        "▁kan",
        -7.89818858387204
      ],
      [
        "▁blanche",
        -7.899544426879242
      ],
      [
        "▁avait",
        -7.9021360287840645
      ],
      [
        "▁lion",
        -7.902733901018136
      ],
      [
        "▁Waa",
        -7.906233892601124
      ],
      [
        "▁dul",
        -7.9073025286515115
      ],
      [
        "▁ban",
        -7.907573889040952
      ],
      [
        "▁t",
        -7.911975647555627
      ],
      [
        ";",
        -7.912060796922867
      ],
      [
        "ël",
        -7.912159695759561
      ],
      [
        "igéen",
        -7.912558430253936
      ],
      [
        "▁bunt",
        -7.913068606522307
      ],
      [
        "d",
        -7.9158993693337605
      ],
      [
        "▁jëm",
        -7.9169831002167435
      ],
      [
        "as-tu",
        -7.91730796420027
      ],
      [
        "▁suuf",
        -7.91753054606632
      ],
      [
        "▁ressemble",
        -7.918080163897293
      ],
      [
        "▁qu'elle",
        -7.920253609850528
      ],
      [
        "▁rien",
        -7.921494818439218
      ],
      [
        "▁ndaw",
        -7.922439934657472
      ],
      [
        "▁par",
        -7.931915390434497
      ],
      [
        "▁Seet",
        -7.934791920216564
      ],
      [
        "▁va",
        -7.937784690659436
      ],
      [
        "▁arbres",
        -7.93891676208457
      ],
      [
        "naa",
        -7.94386664770623
      ],
      [
        "ux",
        -7.949285513427677
      ],
      [
        "ir",
        -7.962004937127279
      ],
      [
        "▁P",
        -7.965177875853822
      ],
      [
        "▁re",
        -7.968482953021566
      ],
      [
        "▁lañ",
        -7.973021978634025
      ],
      [
        "▁yeneen",
        -7.9779567408599625
      ],
      [
        "▁génn",
        -7.979707233918884
      ],
      [
        "▁Naka",
        -7.979745038853096
      ],
      [
        "▁<mask>",
        -7.9799652799101075
      ],
      [
        "▁lequel",
        -7.980877611059165
      ],
      [
        "▁Laobe",
        -7.981117572031122
      ],
      [
        "▁vache",
        -7.981196336331221
      ],
      [
        "▁parte",
        -7.981432805639987
      ],
      [
        "▁gaynde",
        -7.9833589792008475
      ],
      [
        "▁leur",
        -7.9838751721877586
      ],
      [
        "▁sorte",
        -7.984201809592342
      ],
      [
        "ale",
        -7.984346886563376
      ],
      [
        "▁demkoon",
        -7.9845118220254125
      ],
      [
        "▁M",
        -7.984556962838866
      ],
      [
        "▁yor",
        -7.985257853507168
      ],
      [
        "▁peu",
        -7.986711416061594
      ],
      [
        "▁dénk",
        -7.99064497867095
      ],
      [
        "▁v",
        -7.991341733222853
      ],
      [
        "▁j",
        -7.999381484977737
      ],
      [
        "▁nda",
        -8.002498549759782
      ],
      [
        "▁pars",
        -8.006434430096455
      ],
      [
        "▁liggéey",
        -8.009720127587716
      ],
      [
        "ma",
        -8.013738736133224
      ],
      [
        "▁li",
        -8.015480517645859
      ],
      [
        "tu",
        -8.021376566212016
      ],
      [
        "▁noir",
        -8.02504781880556
      ],
      [
        "ukaay",
        -8.025715784144232
      ],
      [
        "▁J'",
        -8.031857770990728
      ],
      [
        "était",
        -8.03200833641091
      ],
      [
        "▁lay",
        -8.032740442048416
      ],
      [
        "▁pa",
        -8.038181539155689
      ],
      [
        "elle",
        -8.0381829096862
      ],
      [
        "▁Va",
        -8.038865008750996
      ],
      [
        ":",
        -8.041227463589546
      ],
      [
        "▁dugg",
        -8.042064142852308
      ],
      [
        "▁xonq",
        -8.045868491913245
      ],
      [
        "▁S'il",
        -8.045958782587375
      ],
      [
        "▁Aucun",
        -8.046212921516542
      ],
      [
        "▁Kooku",
        -8.046592736147357
      ],
      [
        "▁Ya",
        -8.046646961816295
      ],
      [
        "▁Celui-là",
        -8.046835444689492
      ],
      [
        "▁au-dessus",
        -8.046855260944398
      ],
      [
        "les",
        -8.048302462706713
      ],
      [
        "▁bois",
        -8.04915540171445
      ],
      [
        "▁ñan",
        -8.050013224189593
      ],
      [
        "▁Yaw",
        -8.053256608476826
      ],
      [
        "▁ici",
        -8.054199411166605
      ],
      [
        "▁doom",
        -8.055186241851796
      ],
      [
        "▁Tout",
        -8.0578459970769
      ],
      [
        "▁lal",
        -8.063358257399964
      ],
      [
        "▁koo",
        -8.064194933707078
      ],
      [
        "▁ëe",
        -8.065401568363418
      ],
      [
        "▁Xam",
        -8.065664077340598
      ],
      [
        "▁waay",
        -8.066116601848014
      ],
      [
        "▁Li",
        -8.069355638472018
      ],
      [
        "or",
        -8.069626456550596
      ],
      [
        "▁wall",
        -8.072850655905977
      ],
      [
        "aw",
        -8.072955017152667
      ],
      [
        "▁l'",
        -8.076579734811355
      ],
      [
        "▁parles",
        -8.077415572055992
      ],
      [
        "▁Nou",
        -8.088135716648713
      ],
      [
        "afa",
        -8.089301858988758
      ],
      [
        "▁B",
        -8.095495085252425
      ],
      [
        "▁jolie",
        -8.100796976380444
      ],
      [
        "être",
        -8.111137828544724
      ],
      [
        "▁gii",
        -8.111302962309644
      ],
      [
        "▁Bu",
        -8.111517692410747
      ],
      [
        "▁matin",
        -8.117451108234537
      ],
      [
        "▁simplement",
        -8.11813810651125
      ],
      [
        "▁celui-ci",
        -8.118710717030384
      ],
      [
        "▁mépp",
        -8.120738905386762
      ],
      [
        "▁quel",
        -8.120739937604155
      ],
      [
        "▁nee",
        -8.122359744847305
      ],
      [
        "▁may",
        -8.122580250484546
      ],
      [
        "lu",
        -8.123286904325973
      ],
      [
        "▁dame",
        -8.126650476054875
      ],
      [
        "dax",
        -8.128010048816124
      ],
      [
        "▁S",
        -8.128213103588951
      ],
      [
        "▁Bi",
        -8.128627801181405
      ],
      [
        "ñu",
        -8.130203947566375
      ],
      [
        "▁mais",
        -8.13190115931915
      ],
      [
        "p",
        -8.138963836629653
      ],
      [
        "▁Ken",
        -8.140574880070693
      ],
      [
        "gi",
        -8.143526310766987
      ],
      [
        "vais",
        -8.149320190459118
      ],
      [
        "▁t'a",
        -8.15343079222522
      ],
      [
        "▁bon",
        -8.156749946803767
      ],
      [
        "▁comme",
        -8.157963340632753
      ],
      [
        "ak",
        -8.16774260105193
      ],
      [
        "▁'",
        -8.175712908874383
      ],
      [
        "ag",
        -8.178377035768507
      ],
      [
        "▁jeune",
        -8.179062963207782
      ],
      [
        "ée",
        -8.180274678852523
      ],
      [
        "▁kii",
        -8.184505968676179
      ],
      [
        "▁nous",
        -8.193305130100345
      ],
      [
        "▁paix",
        -8.193914421129536
      ],
      [
        "▁wirgo",
        -8.194087353586607
      ],
      [
        "▁seulement",
        -8.194971955230846
      ],
      [
        "▁Yéen",
        -8.195040149421851
      ],
      [
        "▁Y",
        -8.195560201080786
      ],
      [
        "▁habits",
        -8.196672029240771
      ],
      [
        "▁vas-tu",
        -8.196831322022193
      ],
      [
        "▁fas",
        -8.197154970608802
      ],
      [
        "▁bëggul",
        -8.197530752252604
      ],
      [
        "▁Moom",
        -8.199450231926857
      ],
      [
        "-ci",
        -8.199619908682815
      ],
      [
        "▁bañ",
        -8.200784676964183
      ],
      [
        "▁viendra",
        -8.208641711078336
      ],
      [
        "▁f",
        -8.208887651064522
      ],
      [
        "óon",
        -8.210396178210132
      ],
      [
        "▁gendarmes",
        -8.21165398891074
      ],
      [
        "yan",
        -8.213540900928674
      ],
      [
        "▁fut",
        -8.213918791214745
      ],
      [
        "▁mag",
        -8.216335815196924
      ],
      [
        "▁ça",
        -8.21704167966165
      ],
      [
        "▁xaw",
        -8.217915685058829
      ],
      [
        "▁café",
        -8.219084540231071
      ],
      [
        "▁Ben",
        -8.22012413463841
      ],
      [
        "▁W",
        -8.225359650971228
      ],
      [
        "▁vo",
        -8.22822146682378
      ],
      [
        "▁Mon",
        -8.230363779221946
      ],
      [
        "ri",
        -8.230488719786388
      ],
      [
        "▁sui",
        -8.23583126561565
      ],
      [
        "▁ta",
        -8.238161715769843
      ],
      [
        "▁es",
        -8.23874335900957
      ],
      [
        "▁fille",
        -8.239497007171437
      ],
      [
        "▁g",
        -8.246763950836803
      ],
      [
        "▁Man",
        -8.253169764695828
      ],
      [
        "▁ŋgii",
        -8.25432345747702
      ],
      [
        "▁Ñoo",
        -8.254440292083295
      ],
      [
        "▁voir",
        -8.258638986068284
      ],
      [
        "▁vienne",
        -8.25880125387424
      ],
      [
        "▁trouve",
        -8.264766011522209
      ],
      [
        "ab",
        -8.270009553305645
      ],
      [
        "mi",
        -8.2709372215625
      ],
      [
        "faire",
        -8.274829162180623
      ],
      [
        "▁Ku",
        -8.274871759397588
      ],
      [
        "▁ñ",
        -8.275567535610659
      ],
      [
        "aada",
        -8.276824442245747
      ],
      [
        "▁trois",
        -8.277098798972915
      ],
      [
        "▁encore",
        -8.277342172753775
      ],
      [
        "▁Waaye",
        -8.277363893483844
      ],
      [
        "▁Jaam",
        -8.277364850874404
      ],
      [
        "▁Cherche",
        -8.277518433411252
      ],
      [
        "▁théière",
        -8.277522124024642
      ],
      [
        "▁Jox",
        -8.277543295722452
      ],
      [
        "▁question",
        -8.277677355503172
      ],
      [
        "▁Ceux-là",
        -8.277742127370656
      ],
      [
        "▁debout",
        -8.277923545486205
      ],
      [
        "▁Saint-Louis",
        -8.277924341297698
      ],
      [
        "▁Quelle",
        -8.278491444666955
      ],
      [
        "▁pays",
        -8.278563573220065
      ],
      [
        "▁jël",
        -8.278580866208062
      ],
      [
        "▁yónnee",
        -8.27936466911907
      ],
      [
        "▁Demal",
        -8.280748110522214
      ],
      [
        "▁Defe",
        -8.2813348167497
      ],
      [
        "▁Ndar",
        -8.282196106935299
      ],
      [
        "▁yaw",
        -8.28303381101153
      ],
      [
        "ul.",
        -8.283907769182665
      ],
      [
        "▁beneen",
        -8.286495842772172
      ],
      [
        "ais",
        -8.287301214358447
      ],
      [
        "▁mon",
        -8.287901089677739
      ],
      [
        "▁envoyée",
        -8.288961386939036
      ],
      [
        "ses",
        -8.297737845055352
      ],
      [
        "ou",
        -8.29862989812129
      ],
      [
        "▁assis",
        -8.304648195668516
      ],
      [
        "f",
        -8.305416319725126
      ],
      [
        "▁dëkku",
        -8.308257624409698
      ],
      [
        "ient",
        -8.310625308141153
      ],
      [
        "▁ñuul.",
        -8.313127096481004
      ],
      [
        "▁Wax",
        -8.314487463514627
      ],
      [
        "nt.",
        -8.315244975103031
      ],
      [
        "▁sama",
        -8.317883284055611
      ],
      [
        "▁defe",
        -8.32603805374805
      ],
      [
        "uma",
        -8.326062137132878
      ],
      [
        "ngi",
        -8.328308838840375
      ],
      [
        "▁entre",
        -8.33122654161235
      ],
      [
        "▁conçue",
        -8.337930319634255
      ],
      [
        "▁wi",
        -8.338250444002197
      ],
      [
        "▁réew",
        -8.343146689775487
      ],
      [
        "kat",
        -8.34591746169245
      ],
      [
        "tre",
        -8.348715232007976
      ],
      [
        "près",
        -8.349969140416006
      ],
      [
        "▁dal",
        -8.356366404528735
      ],
      [
        "gee",
        -8.36241945053166
      ],
      [
        "▁T",
        -8.36357034208526
      ],
      [
        "▁nul",
        -8.365947536498673
      ],
      [
        "▁séché",
        -8.367695982472746
      ],
      [
        "▁Homme",
        -8.367724247495149
      ],
      [
        "▁cheval",
        -8.367820287602573
      ],
      [
        "▁tabax",
        -8.367924891773175
      ],
      [
        "▁tudd",
        -8.367925213739642
      ],
      [
        "▁Moussa",
        -8.36794316945571
      ],
      [
        "▁Xammee",
        -8.367948733142482
      ],
      [
        "▁manière",
        -8.368693044164948
      ],
      [
        "▁Qu'il",
        -8.368852990628202
      ],
      [
        "▁toogukaay",
        -8.368934607766139
      ],
      [
        "▁noonu",
        -8.371224678580663
      ],
      [
        "▁Di",
        -8.371262760291764
      ],
      [
        "▁ñett",
        -8.371471707948157
      ],
      [
        "▁portent",
        -8.373441426798928
      ],
      [
        "▁kow",
        -8.374096261876796
      ],
      [
        "▁bind",
        -8.379431597674209
      ],
      [
        "tes",
        -8.379468867972399
      ],
      [
        "▁nañ",
        -8.382758219752084
      ],
      [
        "▁takk-der",
        -8.383250265571055
      ],
      [
        "▁aujourd'hui",
        -8.384662100639767
      ],
      [
        "▁couleurs",
        -8.386064783288088
      ],
      [
        "▁ga",
        -8.38756662627147
      ],
      [
        "ait",
        -8.389398196225024
      ],
      [
        "▁Là",
        -8.389555614235851
      ],
      [
        "▁partira",
        -8.390433458426752
      ],
      [
        "▁serai",
        -8.391761495838123
      ],
      [
        "▁xamant",
        -8.394117605390644
      ],
      [
        "▁w",
        -8.395443511738401
      ],
      [
        "▁égarée",
        -8.39647978828587
      ],
      [
        "enn",
        -8.399381416424966
      ],
      [
        "▁weer",
        -8.400136072692638
      ],
      [
        "▁tay",
        -8.4013764850421
      ],
      [
        "▁aller",
        -8.406431773638555
      ],
      [
        "se",
        -8.411877814215487
      ],
      [
        "▁N",
        -8.413813060695777
      ],
      [
        "▁ira",
        -8.415945121623952
      ],
      [
        "▁ré",
        -8.417921162151336
      ],
      [
        "▁ju",
        -8.42125633113978
      ],
      [
        "réer",
        -8.42185649849812
      ],
      [
        "baar",
        -8.423430570347033
      ],
      [
        "ces",
        -8.423647849404205
      ],
      [
        "▁An",
        -8.423650247093448
      ],
      [
        "▁partis",
        -8.424243854787955
      ],
      [
        "▁dox",
        -8.424555929050785
      ],
      [
        "▁R",
        -8.426969977769575
      ],
      [
        "-tu",
        -8.430421732258225
      ],
      [
        "▁arrivé",
        -8.453176754014851
      ],
      [
        "▁pri",
        -8.453958742297807
      ],
      [
        "▁Sa",
        -8.463448108412205
      ],
      [
        "▁U2",
        -8.463839008551657
      ],
      [
        "atim",
        -8.464149494388753
      ],
      [
        "▁Koo",
        -8.465990822609319
      ],
      [
        "▁subë",
        -8.467147790193927
      ],
      [
        "▁vrai",
        -8.467279219729505
      ],
      [
        "▁sucre",
        -8.467371891072345
      ],
      [
        "▁Alors",
        -8.467452942368435
      ],
      [
        "▁Lawbe",
        -8.467510124409156
      ],
      [
        "▁garçon",
        -8.46758504137409
      ],
      [
        "▁palais",
        -8.467621552016585
      ],
      [
        "▁milieu",
        -8.467832094679029
      ],
      [
        "▁d'Europe",
        -8.467866531190388
      ],
      [
        "▁Fatim",
        -8.467871509747045
      ],
      [
        "▁reste",
        -8.46788244298553
      ],
      [
        "▁rek",
        -8.46822570569553
      ],
      [
        "▁allé",
        -8.46868237676208
      ],
      [
        "▁Ñii",
        -8.469467161153945
      ],
      [
        "▁gën",
        -8.469927307484204
      ],
      [
        "▁Elle",
        -8.470063188379605
      ],
      [
        "▁endroit",
        -8.471992268392826
      ],
      [
        "and",
        -8.472672298464708
      ],
      [
        "▁biti",
        -8.472784720449734
      ],
      [
        "▁Boo",
        -8.474956683411568
      ],
      [
        "een",
        -8.47710028004047
      ],
      [
        "▁Bon",
        -8.478839649367897
      ],
      [
        "▁Cela",
        -8.479315546584829
      ],
      [
        "▁boobu",
        -8.479396435845905
      ],
      [
        "▁contre",
        -8.480996609865844
      ],
      [
        "'habitude",
        -8.481634565996526
      ],
      [
        "▁Voil",
        -8.48380195286654
      ],
      [
        "▁Par",
        -8.484862206734661
      ],
      [
        "▁Me",
        -8.485083822985832
      ],
      [
        "v",
        -8.486456450840768
      ],
      [
        "▁ànd",
        -8.486976470974891
      ],
      [
        "▁ceux",
        -8.487423097986943
      ],
      [
        "geen",
        -8.487593837843276
      ],
      [
        "▁eux",
        -8.491015662683157
      ],
      [
        "▁vas",
        -8.491218247261994
      ],
      [
        "▁buntu",
        -8.491248755704941
      ],
      [
        "▁l'un",
        -8.492216667928774
      ],
      [
        "▁mo",
        -8.497333480952298
      ],
      [
        "ki",
        -8.499091072275569
      ],
      [
        "▁bare",
        -8.49973782941062
      ],
      [
        "▁partes",
        -8.499759763767422
      ],
      [
        "▁ñëwul",
        -8.50427245832082
      ],
      [
        "▁port",
        -8.505884591883403
      ],
      [
        "▁bar",
        -8.507541671094119
      ],
      [
        "▁vient",
        -8.507809163108508
      ],
      [
        "▁Doo",
        -8.51358886184818
      ],
      [
        "▁blancs",
        -8.528539597232342
      ],
      [
        "▁K",
        -8.533496156363872
      ],
      [
        "▁lit",
        -8.53447223598463
      ],
      [
        "▁tax",
        -8.539435478930013
      ],
      [
        "▁yaa",
        -8.541726529755529
      ],
      [
        "leen",
        -8.542414421651912
      ],
      [
        "àll",
        -8.544791347984239
      ],
      [
        "▁nu",
        -8.545658793688844
      ],
      [
        "j",
        -8.562680618012845
      ],
      [
        "ère",
        -8.562806753188253
      ],
      [
        "▁appelle",
        -8.562920666620196
      ],
      [
        "▁it",
        -8.569408689190155
      ],
      [
        "▁woo",
        -8.577287252678259
      ],
      [
        "▁Mbaa",
        -8.577869152467825
      ],
      [
        "▁wër",
        -8.578043394607747
      ],
      [
        "▁acheté",
        -8.578293329456864
      ],
      [
        "▁Sérère",
        -8.57830798117979
      ],
      [
        "▁chevaux",
        -8.578440317607141
      ],
      [
        "▁morceau",
        -8.578467838783215
      ],
      [
        "▁jaŋg",
        -8.578773272037868
      ],
      [
        "▁mère",
        -8.579060193605471
      ],
      [
        "▁Ne",
        -8.579639797336455
      ],
      [
        "▁Musaa",
        -8.579797517339177
      ],
      [
        "▁Woo",
        -8.580124703901806
      ],
      [
        "▁fils",
        -8.580607785311145
      ],
      [
        "▁Loolu",
        -8.580618582653232
      ],
      [
        "▁devant",
        -8.582128285504693
      ],
      [
        "▁s'en",
        -8.582271942765352
      ],
      [
        "st-ce",
        -8.582290386194778
      ],
      [
        "▁bépp",
        -8.583221050147731
      ],
      [
        "▁ŋgoon",
        -8.583272114636392
      ],
      [
        "in",
        -8.585582083135591
      ],
      [
        "▁téer",
        -8.585876613237081
      ],
      [
        "▁Tay",
        -8.58595955262276
      ],
      [
        "▁Loo",
        -8.587926171096022
      ],
      [
        "▁mis",
        -8.589333279615397
      ],
      [
        "est-ce",
        -8.594087838693206
      ],
      [
        "▁Tou",
        -8.603246727252227
      ],
      [
        "▁ceci",
        -8.603687640645745
      ],
      [
        "▁viennes",
        -8.606925979648938
      ],
      [
        "▁lan",
        -8.607038514188282
      ],
      [
        "▁connais",
        -8.609239583406595
      ],
      [
        "▁lanu",
        -8.612602321662134
      ],
      [
        "'était",
        -8.615756396456877
      ],
      [
        "▁me",
        -8.618216760723392
      ],
      [
        "iez",
        -8.620619907956943
      ],
      [
        "▁cela",
        -8.623690109020751
      ],
      [
        "▁L'",
        -8.626412463930105
      ],
      [
        "▁May",
        -8.626868138545806
      ],
      [
        "▁jan",
        -8.627293868236753
      ],
      [
        "▁Lu",
        -8.628204336567807
      ],
      [
        "▁elle",
        -8.62824180162981
      ],
      [
        "▁bula",
        -8.628732076087894
      ],
      [
        "ce",
        -8.629055968915887
      ],
      [
        "▁comp",
        -8.631135577788598
      ],
      [
        "▁Fan",
        -8.635088845911588
      ],
      [
        "eer",
        -8.6378128616651
      ],
      [
        "▁montre",
        -8.638487915390007
      ],
      [
        "▁con",
        -8.638762191566672
      ],
      [
        "ées",
        -8.6440917841276
      ],
      [
        "ils",
        -8.644384871058865
      ],
      [
        "▁no",
        -8.644723196861115
      ],
      [
        "fin",
        -8.645287286952499
      ],
      [
        "▁seet",
        -8.647633376194614
      ],
      [
        "ppelle",
        -8.654948909100737
      ],
      [
        "▁loolu",
        -8.659571647933717
      ],
      [
        "▁av",
        -8.66156711393513
      ],
      [
        "▁portes",
        -8.661753125184315
      ],
      [
        "▁travail",
        -8.66277352885411
      ],
      [
        "▁jii",
        -8.669746720035649
      ],
      [
        "▁eû",
        -8.670904882077616
      ],
      [
        "as",
        -8.675919715001836
      ],
      [
        "▁enfant",
        -8.676802627596706
      ],
      [
        "▁so",
        -8.684506239332036
      ],
      [
        "▁defar",
        -8.686177655370038
      ],
      [
        "moi",
        -8.69150224551462
      ],
      [
        "▁avais",
        -8.693934386710017
      ],
      [
        "▁seul",
        -8.6959679108183
      ],
      [
        "▁Ñ",
        -8.699198971581502
      ],
      [
        "▁ràbb",
        -8.699936219104469
      ],
      [
        "▁route",
        -8.699957333304724
      ],
      [
        "▁ainsi",
        -8.700004271543452
      ],
      [
        "▁entier",
        -8.700076234237663
      ],
      [
        "▁Laobé",
        -8.700639787048441
      ],
      [
        "▁wanag",
        -8.700900532418483
      ],
      [
        "▁Sénégal",
        -8.701580567997068
      ],
      [
        "óo",
        -8.702378110983899
      ],
      [
        "▁Senegaal",
        -8.703098315027825
      ],
      [
        "▁assurément",
        -8.703254775838294
      ],
      [
        "▁pourtant",
        -8.703764627338991
      ],
      [
        "▁pou",
        -8.705068805447548
      ],
      [
        "▁pierres",
        -8.705097329741754
      ],
      [
        "▁kanam",
        -8.705381832965418
      ],
      [
        "▁lieu",
        -8.707163418069976
      ],
      [
        "▁Kookule",
        -8.70729011198234
      ],
      [
        "▁sortir",
        -8.707700132963323
      ],
      [
        "▁Toi",
        -8.709994781124518
      ],
      [
        "▁gejje",
        -8.71027601023997
      ],
      [
        "▁V",
        -8.711038404891642
      ],
      [
        "ai",
        -8.711790933883796
      ],
      [
        "▁Noonu",
        -8.713220640211883
      ],
      [
        "▁Wu",
        -8.714611469683788
      ],
      [
        "parlé",
        -8.7151220214793
      ],
      [
        "▁n'ai",
        -8.717228503482145
      ],
      [
        "▁tali",
        -8.719881296229065
      ],
      [
        "▁yi.",
        -8.726459416777875
      ],
      [
        "▁s'agi",
        -8.727272537042543
      ],
      [
        "▁Vas",
        -8.731518914546825
      ],
      [
        "▁bëggée",
        -8.733488778384237
      ],
      [
        "ë",
        -8.733803282013696
      ],
      [
        "▁jam",
        -8.738280603194177
      ],
      [
        "▁t'ai",
        -8.738794639592692
      ],
      [
        "▁sokolaa",
        -8.743987007423343
      ],
      [
        "ŋga",
        -8.745432533645813
      ],
      [
        "▁Noon",
        -8.748991378657006
      ],
      [
        "vous",
        -8.756317231974876
      ],
      [
        "▁gen",
        -8.756707036458597
      ],
      [
        "▁cherche",
        -8.759461516833104
      ],
      [
        "nga",
        -8.761699268532631
      ],
      [
        "G",
        -8.76656254784544
      ],
      [
        "an",
        -8.767148558188307
      ],
      [
        "▁table",
        -8.774718599078312
      ],
      [
        "ar",
        -8.777287880602827
      ],
      [
        "rait",
        -8.779015797881126
      ],
      [
        "▁nak",
        -8.779180928090572
      ],
      [
        "▁yoon",
        -8.780716634588535
      ],
      [
        "▁toute",
        -8.785687610650527
      ],
      [
        "▁Ki",
        -8.78642168271994
      ],
      [
        "ra",
        -8.78666865962403
      ],
      [
        "z",
        -8.787145787050262
      ],
      [
        "ement",
        -8.790126833611685
      ],
      [
        "▁Ra",
        -8.791984868547978
      ],
      [
        "▁dé",
        -8.794565641245224
      ],
      [
        "▁petit",
        -8.795043132166098
      ],
      [
        "ation",
        -8.795785315189343
      ],
      [
        "sieur",
        -8.796270304894698
      ],
      [
        "es.",
        -8.798836670132593
      ],
      [
        "▁sorti",
        -8.799385178473315
      ],
      [
        "▁wa",
        -8.80498289787107
      ],
      [
        "▁Ca",
        -8.805204107329603
      ],
      [
        "▁në",
        -8.811794749124195
      ],
      [
        "quel",
        -8.811794936842151
      ],
      [
        "garde",
        -8.814821279784583
      ],
      [
        "▁arbre",
        -8.824069897372544
      ],
      [
        "waay",
        -8.825151783113341
      ],
      [
        "▁më",
        -8.830317302799997
      ],
      [
        "▁drap",
        -8.83542976107545
      ],
      [
        "pendant",
        -8.836845551001463
      ],
      [
        "ier",
        -8.842274294170057
      ],
      [
        "ñeen",
        -8.842712660533403
      ],
      [
        "▁bâtiment",
        -8.842789790330965
      ],
      [
        "▁Casamance",
        -8.842789798248202
      ],
      [
        "▁yeksi",
        -8.842791331433084
      ],
      [
        "▁Ainsi",
        -8.842795698168981
      ],
      [
        "▁boeuf",
        -8.842800547985231
      ],
      [
        "▁Deŋk",
        -8.842830926402131
      ],
      [
        "▁l'enfant",
        -8.842832853601045
      ],
      [
        "▁Palais",
        -8.84287829669396
      ],
      [
        "▁togg",
        -8.842908269728147
      ],
      [
        "▁pañe",
        -8.842957992516027
      ],
      [
        "▁case",
        -8.843021940038765
      ],
      [
        "▁jën",
        -8.843164245808456
      ],
      [
        "▁dellusi",
        -8.84316925014439
      ],
      [
        "▁êtes",
        -8.843258355823277
      ],
      [
        "▁yére",
        -8.84329415387511
      ],
      [
        "▁ndox",
        -8.843509893469388
      ],
      [
        "▁moto",
        -8.843688880833472
      ],
      [
        "▁xeer",
        -8.843705167101126
      ],
      [
        "gal",
        -8.843834681182003
      ],
      [
        "▁tày",
        -8.843856258058498
      ],
      [
        "▁salle",
        -8.843949723357305
      ],
      [
        "▁Ici",
        -8.84461061256953
      ],
      [
        "▁Dama",
        -8.844730868361554
      ],
      [
        "▁dirait",
        -8.845080763400555
      ],
      [
        "▁mains",
        -8.845289548532637
      ],
      [
        "spère",
        -8.8453003630497
      ],
      [
        "▁Parle",
        -8.84600362856764
      ],
      [
        "▁peut-",
        -8.84613551357904
      ],
      [
        "▁tàll",
        -8.846218163515518
      ],
      [
        "▁ville",
        -8.84634838555854
      ],
      [
        "▁regardes",
        -8.846647293078513
      ],
      [
        "▁derrière",
        -8.847205475873652
      ],
      [
        "tient",
        -8.847510531652262
      ],
      [
        "▁Foofu",
        -8.849252991854584
      ],
      [
        "▁jo",
        -8.849507872001837
      ],
      [
        "▁neex",
        -8.853878820206333
      ],
      [
        "▁chez",
        -8.854266038525271
      ],
      [
        "▁ñen",
        -8.8550359694887
      ],
      [
        "▁bol",
        -8.856366295546264
      ],
      [
        "▁jaune",
        -8.856552457017115
      ],
      [
        "-t-il",
        -8.856977939326839
      ],
      [
        "▁soir",
        -8.859059719932073
      ],
      [
        "▁dessus",
        -8.859321232329656
      ],
      [
        "▁fleurs",
        -8.859864105156234
      ],
      [
        "▁caus",
        -8.86132497009732
      ],
      [
        "▁père",
        -8.861769232106496
      ],
      [
        "au",
        -8.861965438608433
      ],
      [
        "▁dessin",
        -8.863897105902254
      ],
      [
        "▁t'en",
        -8.864898042791506
      ],
      [
        "▁L'un",
        -8.864951023000401
      ],
      [
        "▁arrivés",
        -8.864959338685576
      ],
      [
        "▁com",
        -8.866541080133121
      ],
      [
        "▁ñooñu",
        -8.867777235212806
      ],
      [
        "▁chaise",
        -8.86820164507346
      ],
      [
        "▁wane",
        -8.868503548847645
      ],
      [
        "▁l'ai",
        -8.875186766411387
      ],
      [
        "ax",
        -8.875684740340278
      ],
      [
        "vent",
        -8.877782340819198
      ],
      [
        "▁allai",
        -8.877920920693871
      ],
      [
        "▁demande",
        -8.877978919492215
      ],
      [
        "▁daan",
        -8.887947613493994
      ],
      [
        "individu",
        -8.888737047189634
      ],
      [
        "▁wan",
        -8.889457261154654
      ],
      [
        "▁gan",
        -8.890022528464824
      ],
      [
        "▁jooju",
        -8.892288204851207
      ],
      [
        "▁fois",
        -8.893193210287402
      ],
      [
        "▁wara",
        -8.893515949397274
      ],
      [
        "▁parler",
        -8.895304150422781
      ],
      [
        "▁haute",
        -8.896384321134677
      ],
      [
        "▁met",
        -8.898398214293248
      ],
      [
        "▁leneen",
        -8.903942594405432
      ],
      [
        "▁X",
        -8.908373895253979
      ],
      [
        "▁wu",
        -8.9108331796579
      ],
      [
        "ît",
        -8.918291107737783
      ],
      [
        "▁noire.",
        -8.918787515089114
      ],
      [
        "porte",
        -8.921764708109407
      ],
      [
        "▁bes",
        -8.921925712676497
      ],
      [
        "▁juróom",
        -8.923872651365393
      ],
      [
        "▁beau",
        -8.929145218071742
      ],
      [
        "▁bool",
        -8.931830668979437
      ],
      [
        "kk",
        -8.933446059305993
      ],
      [
        "▁mii",
        -8.933864087484732
      ],
      [
        "▁yee",
        -8.937711557990623
      ],
      [
        "▁noirs",
        -8.945549100405861
      ],
      [
        "ions",
        -8.945744195313992
      ],
      [
        "▁na.",
        -8.945980078394324
      ],
      [
        "▁don",
        -8.949516056749141
      ],
      [
        "▁haut",
        -8.949731805366921
      ],
      [
        "▁ñooña",
        -8.950429470606883
      ],
      [
        "▁ton",
        -8.960348729299486
      ],
      [
        "ool",
        -8.961399522834297
      ],
      [
        "ñii",
        -8.962150632317577
      ],
      [
        "▁Ñe",
        -8.96444083255437
      ],
      [
        "i.",
        -8.969470855270144
      ],
      [
        "▁Daŋg",
        -8.969519293895251
      ],
      [
        "▁Mang",
        -8.973855471309838
      ],
      [
        "▁alla",
        -8.974996751637011
      ],
      [
        "▁garde",
        -8.978898191515384
      ],
      [
        "ons",
        -8.97898436313891
      ],
      [
        "▁regard",
        -8.979393116745518
      ],
      [
        "▁ja",
        -8.980198515513353
      ],
      [
        "▁kaa",
        -8.987573359629227
      ],
      [
        "▁Moi",
        -8.989605671563929
      ],
      [
        "▁Ceux",
        -8.990166701109253
      ],
      [
        "éel",
        -8.993037266964729
      ],
      [
        "ous",
        -8.996250223787573
      ],
      [
        "▁J'e",
        -8.999491865252317
      ],
      [
        "ëf",
        -9.001964925621042
      ],
      [
        "▁bë",
        -9.005133770171476
      ],
      [
        "▁ginnaaw",
        -9.005880100994544
      ],
      [
        "▁...",
        -9.006383970130248
      ],
      [
        "▁Aujourd'hui",
        -9.009456456871288
      ],
      [
        "▁d'esprit",
        -9.009456457313318
      ],
      [
        "▁calebasse",
        -9.009456458933776
      ],
      [
        "▁croyai",
        -9.009457138258941
      ],
      [
        "▁Force",
        -9.009457482130495
      ],
      [
        "▁Waxtaan",
        -9.00945809209325
      ],
      [
        "▁veulent",
        -9.009465479018882
      ],
      [
        "▁tëdd",
        -9.009465560903335
      ],
      [
        "▁L'enfant",
        -9.00947649215731
      ],
      [
        "▁Wolof",
        -9.009479404269321
      ],
      [
        "▁suukër",
        -9.009489891405373
      ],
      [
        "▁peinture",
        -9.009525327202565
      ],
      [
        "▁njiit",
        -9.009541789899044
      ],
      [
        "▁Génn",
        -9.009576676935062
      ],
      [
        "▁chocolatée",
        -9.00971453831783
      ],
      [
        "▁tuuti",
        -9.009739909578013
      ],
      [
        "ŋ",
        -9.009773486335433
      ],
      [
        "▁tasse",
        -9.009809920176588
      ],
      [
        "▁takk",
        -9.009876389783013
      ],
      [
        "▁Jam",
        -9.009930204228068
      ],
      [
        "▁gris",
        -9.009965404403774
      ],
      [
        "▁fowu",
        -9.010088690611948
      ],
      [
        "▁couteau",
        -9.010089687002987
      ],
      [
        "▁Tugël",
        -9.010275242005164
      ],
      [
        "▁Donne",
        -9.010661643391254
      ],
      [
        "▁doonkoon",
        -9.010861942704585
      ],
      [
        "▁d'autre",
        -9.012258276729188
      ],
      [
        "▁taaru",
        -9.01246601297491
      ],
      [
        "▁fépp",
        -9.012475666305168
      ],
      [
        "▁lëf",
        -9.012701935474071
      ],
      [
        "▁Jënd",
        -9.01292616559854
      ],
      [
        "▁feeñ",
        -9.012936566214684
      ],
      [
        "▁jaar",
        -9.01301974541969
      ],
      [
        "▁autre-là",
        -9.013577670931046
      ],
      [
        "▁enfant-",
        -9.013662421482906
      ],
      [
        "▁Bunt",
        -9.013741359392789
      ],
      [
        "▁jënd",
        -9.014303922831733
      ],
      [
        "▁dàll",
        -9.014731467980639
      ],
      [
        "▁bokk",
        -9.014762341703914
      ],
      [
        "▁Nda",
        -9.017489947696534
      ],
      [
        "▁Më",
        -9.017568036955973
      ],
      [
        "▁digg",
        -9.01895676755338
      ],
      [
        "▁feneen",
        -9.020219634222233
      ],
      [
        "mu",
        -9.020418090955827
      ],
      [
        "▁baxa",
        -9.021383434389225
      ],
      [
        "▁Car",
        -9.021394586314285
      ],
      [
        "▁herbes",
        -9.023254569008937
      ],
      [
        "▁Men",
        -9.024120753725082
      ],
      [
        "▁sain",
        -9.024242787098766
      ],
      [
        "▁retraite",
        -9.024288859161196
      ],
      [
        "▁ñaan",
        -9.024919635560455
      ],
      [
        "▁bekk",
        -9.02516355062395
      ],
      [
        "▁kaas",
        -9.02542253672154
      ],
      [
        "▁refuse",
        -9.036883115450228
      ],
      [
        "▁souhaite",
        -9.041070732363153
      ],
      [
        "▁ñaxtu",
        -9.042077467747962
      ],
      [
        "▁Dana",
        -9.0425323208593
      ],
      [
        "oroom",
        -9.044690878630687
      ],
      [
        "connais",
        -9.044788093565144
      ],
      [
        "▁marche",
        -9.045512632782085
      ],
      [
        "▁Dan",
        -9.051778904384618
      ],
      [
        "uite",
        -9.054191374409022
      ],
      [
        "bi",
        -9.054400907990665
      ],
      [
        "garder",
        -9.055243600343752
      ],
      [
        "▁veni",
        -9.056920726614589
      ],
      [
        "▁Bar",
        -9.058553133962876
      ],
      [
        "ance",
        -9.059397785446881
      ],
      [
        "ge",
        -9.061263164191844
      ],
      [
        "▁Dis",
        -9.06250382567016
      ],
      [
        "▁set",
        -9.062733084135765
      ],
      [
        "▁ng",
        -9.068074574046726
      ],
      [
        "▁cases",
        -9.071338623886126
      ],
      [
        "-y",
        -9.072229090017332
      ],
      [
        "▁alal",
        -9.072483793199709
      ],
      [
        "▁jox",
        -9.074322331104392
      ],
      [
        "▁bleu",
        -9.076582681091706
      ],
      [
        "éer",
        -9.088146225146577
      ],
      [
        "e,",
        -9.091100066666941
      ],
      [
        "▁tey",
        -9.092456425778796
      ],
      [
        "▁gaa",
        -9.09309797633194
      ],
      [
        "▁amen",
        -9.097839117454463
      ],
      [
        "ici",
        -9.100414609703995
      ],
      [
        "▁aux",
        -9.100741050919723
      ],
      [
        "▁Yo",
        -9.101547012392047
      ],
      [
        "▁co",
        -9.105628097336732
      ],
      [
        "▁n'avai",
        -9.108807660897737
      ],
      [
        "▁aurai",
        -9.108873522560058
      ],
      [
        "où",
        -9.117535671000901
      ],
      [
        "▁quelles",
        -9.121631080717226
      ],
      [
        "▁bant",
        -9.123342292253142
      ],
      [
        "bër",
        -9.125095713761091
      ],
      [
        "▁Qu",
        -9.13028110760636
      ],
      [
        "▁t'",
        -9.130649530813374
      ],
      [
        "▁do",
        -9.133745598840331
      ],
      [
        "lal",
        -9.134403555730879
      ],
      [
        "▁viens",
        -9.135442538001202
      ],
      [
        "▁sokolaa.",
        -9.14025082849504
      ],
      [
        "tour",
        -9.141398497984477
      ],
      [
        "▁Ta",
        -9.142977272008528
      ],
      [
        "▁car",
        -9.143021341530881
      ],
      [
        "▁Fi",
        -9.1461231234223
      ],
      [
        "▁jooj",
        -9.146686412273766
      ],
      [
        "si",
        -9.149274562298592
      ],
      [
        "ien",
        -9.149425934607901
      ],
      [
        "▁individu",
        -9.151327625033412
      ],
      [
        "▁entra",
        -9.15187657836032
      ],
      [
        "▁marché",
        -9.152730721247053
      ],
      [
        "▁dire",
        -9.15811466618978
      ],
      [
        "ore",
        -9.15821775283555
      ],
      [
        "▁joli",
        -9.164382475459227
      ],
      [
        "▁Re",
        -9.167357192217182
      ],
      [
        "▁cuisine",
        -9.168102429285122
      ],
      [
        "▁moomu",
        -9.171302828948276
      ],
      [
        "ur",
        -9.178985562181392
      ],
      [
        "ko",
        -9.181021133364274
      ],
      [
        "▁ans",
        -9.183595992040033
      ],
      [
        "rends",
        -9.185888152024553
      ],
      [
        "▁defare",
        -9.187573149479658
      ],
      [
        "▁ñe",
        -9.188463574737419
      ],
      [
        "▁Ka",
        -9.19012951632045
      ],
      [
        "▁elles",
        -9.19282363011881
      ],
      [
        "aar",
        -9.193566453818068
      ],
      [
        "▁livre",
        -9.193771072840903
      ],
      [
        "aay",
        -9.197119711070236
      ],
      [
        "▁See",
        -9.201435011462726
      ],
      [
        "▁vers",
        -9.203296358683346
      ],
      [
        "▁sais",
        -9.208109493835037
      ],
      [
        "▁Jën",
        -9.208473030582429
      ],
      [
        "▁loxo",
        -9.209355064322827
      ],
      [
        "▁forêt",
        -9.209456456831333
      ],
      [
        "Ç",
        -9.209456456871287
      ],
      [
        "▁bûcheron",
        -9.209456456932129
      ],
      [
        "▁chaussures",
        -9.209456457083633
      ],
      [
        "▁auparavant",
        -9.209456457095282
      ],
      [
        "▁ustensile",
        -9.20945645794058
      ],
      [
        "▁mosquée",
        -9.209456493795674
      ],
      [
        "▁domaine",
        -9.209456557266678
      ],
      [
        "▁pantalon",
        -9.209456700559596
      ],
      [
        "▁fortune",
        -9.209457320671493
      ],
      [
        "▁dehors",
        -9.209457376582497
      ],
      [
        "▁construction",
        -9.209457698786483
      ],
      [
        "▁chapeau",
        -9.209458217535602
      ],
      [
        "▁maître",
        -9.209458698604607
      ],
      [
        "▁xaalis",
        -9.20945921274943
      ],
      [
        "▁Moontin",
        -9.209460257923755
      ],
      [
        "▁jàkka",
        -9.209471141639092
      ],
      [
        "▁gannaaw",
        -9.209474859829387
      ],
      [
        "▁travers",
        -9.209476781440815
      ],
      [
        "▁mbokk",
        -9.209484957725149
      ],
      [
        "▁palaat",
        -9.209513482681611
      ],
      [
        "▁Salut",
        -9.209517078588295
      ],
      [
        "▁këll",
        -9.209530782581531
      ],
      [
        "▁dirigeant",
        -9.209531989846411
      ],
      [
        "▁gentil",
        -9.20953404243266
      ],
      [
        "▁vieille",
        -9.209554401674936
      ],
      [
        "▁courage",
        -9.209577701620024
      ],
      [
        "▁xëcc",
        -9.209621906399754
      ],
      [
        "▁chef",
        -9.2096263935545
      ],
      [
        "▁champ",
        -9.20962998072972
      ],
      [
        "▁tànk",
        -9.20963286808135
      ],
      [
        "▁large",
        -9.20966619042717
      ],
      [
        "▁puj",
        -9.209716685633376
      ],
      [
        "▁màgg",
        -9.20972072180248
      ],
      [
        "▁l'eau",
        -9.209732416711734
      ],
      [
        "▁jàppukaay",
        -9.209736842390425
      ],
      [
        "▁parole",
        -9.209765318441086
      ],
      [
        "▁revienne",
        -9.210005972198381
      ],
      [
        "▁yéeg",
        -9.210036682140053
      ],
      [
        "▁bërëb",
        -9.210095192765262
      ],
      [
        "▁travailleurs",
        -9.210372088241813
      ],
      [
        "▁Dañu",
        -9.210553404843614
      ],
      [
        "▁dëgg",
        -9.21075585502842
      ],
      [
        "▁unique",
        -9.21082547375873
      ],
      [
        "▁kookee",
        -9.210889217226795
      ],
      [
        "▁ŋgoogule",
        -9.2110682608391
      ],
      [
        "▁bopp",
        -9.211292760935603
      ],
      [
        "▁four",
        -9.211379634416382
      ],
      [
        "▁gudd",
        -9.211408887018983
      ],
      [
        "▁plac",
        -9.211524788703628
      ],
      [
        "▁topp",
        -9.211537418720084
      ],
      [
        "▁accepte",
        -9.211572079823537
      ],
      [
        "▁rencontrer",
        -9.211881164769405
      ],
      [
        "▁surtout",
        -9.212148440108098
      ],
      [
        "▁Néeg",
        -9.212189489160757
      ],
      [
        "▁donc",
        -9.212443858415906
      ],
      [
        "▁nuit",
        -9.21359026930354
      ],
      [
        "▁bâtons",
        -9.213991042770097
      ],
      [
        "▁Foo",
        -9.214202656367036
      ],
      [
        "▁viennent",
        -9.214391621191902
      ],
      [
        "▁kafe",
        -9.214485227429178
      ],
      [
        "googule",
        -9.214592785607719
      ],
      [
        "▁yëf",
        -9.214815354610378
      ],
      [
        "▁reconnu",
        -9.215009391567632
      ],
      [
        "▁xoolee",
        -9.215447803336955
      ],
      [
        "▁c'était",
        -9.216129946727847
      ],
      [
        "▁jaam",
        -9.217479127947444
      ],
      [
        "▁bir",
        -9.218067357019855
      ],
      [
        "▁dessiné",
        -9.218154191913438
      ],
      [
        "vait",
        -9.218409335622109
      ],
      [
        "▁l'entoure",
        -9.218953412924291
      ],
      [
        "▁n'étai",
        -9.219315111312866
      ],
      [
        "▁fenn",
        -9.220218518173855
      ],
      [
        "t.",
        -9.223457761899457
      ],
      [
        "▁naan",
        -9.223898505267938
      ],
      [
        "▁ubbi",
        -9.225111479360468
      ],
      [
        "▁jar",
        -9.226163051007305
      ],
      [
        "▁eusse",
        -9.228088579412262
      ],
      [
        "▁Sama",
        -9.228570926084817
      ],
      [
        "ain",
        -9.229641122076973
      ],
      [
        "▁n'en",
        -9.230909023193227
      ],
      [
        "F",
        -9.23187890960311
      ],
      [
        "▁joge",
        -9.232439665623241
      ],
      [
        "▁D'",
        -9.233071385274734
      ],
      [
        "▁conten",
        -9.233414903690587
      ],
      [
        "▁face",
        -9.23424298348801
      ],
      [
        "▁affaire",
        -9.234658554239685
      ],
      [
        "▁ven",
        -9.235588281273355
      ],
      [
        "-il",
        -9.237092449530598
      ],
      [
        "▁soi",
        -9.23761925678638
      ],
      [
        "▁d'il",
        -9.238839914429542
      ],
      [
        "▁jàpp",
        -9.239999323368883
      ],
      [
        "▁xew",
        -9.241163261882562
      ],
      [
        "kóon",
        -9.241431497761255
      ],
      [
        "iens",
        -9.241642658286455
      ],
      [
        "▁côté",
        -9.241965452864951
      ],
      [
        "▁dina",
        -9.243053012992506
      ],
      [
        "▁panier",
        -9.244418842549713
      ],
      [
        "▁tub",
        -9.244689572762507
      ],
      [
        "▁Nu",
        -9.244778858885148
      ],
      [
        "▁xo",
        -9.24642372437077
      ],
      [
        "▁vertes",
        -9.246624939729816
      ],
      [
        "▁deey",
        -9.25400145692627
      ],
      [
        "▁mes",
        -9.254623189056488
      ],
      [
        "▁ser",
        -9.256909474800334
      ],
      [
        "▁kee",
        -9.257008900150895
      ],
      [
        "qu",
        -9.25706957886831
      ],
      [
        "▁noire",
        -9.25991275360353
      ],
      [
        "'en",
        -9.261465316343088
      ],
      [
        "nañu",
        -9.262023739933452
      ],
      [
        "wul",
        -9.263887566498108
      ],
      [
        "▁bleus",
        -9.265478549940735
      ],
      [
        "▁ñibbi",
        -9.265540829081539
      ],
      [
        "▁fam",
        -9.26717023757433
      ],
      [
        "▁san",
        -9.267842414299366
      ],
      [
        "▁lakk",
        -9.26844691182836
      ],
      [
        "▁Com",
        -9.27055576909889
      ],
      [
        "▁kookuu",
        -9.270834029522444
      ],
      [
        "▁yé",
        -9.271595876614231
      ],
      [
        "▁n'as",
        -9.272984467472696
      ],
      [
        "▁defaree",
        -9.274273077813524
      ],
      [
        "▁loo",
        -9.280115984884079
      ],
      [
        "▁jeunes",
        -9.281347164740387
      ],
      [
        "▁duñ",
        -9.291252039975271
      ],
      [
        "tout",
        -9.299465631363063
      ],
      [
        "▁chocolat",
        -9.30209757657728
      ],
      [
        "àkk",
        -9.304027467730322
      ],
      [
        "▁cas",
        -9.304235440545963
      ],
      [
        "kaay",
        -9.304253416128542
      ],
      [
        "▁H",
        -9.306201414235298
      ],
      [
        "ion",
        -9.308173319271392
      ],
      [
        "▁vi",
        -9.308990887175607
      ],
      [
        "ã",
        -9.309065636845181
      ],
      [
        "▁Bii",
        -9.309805917489776
      ],
      [
        "▁lesquel",
        -9.312390824048281
      ],
      [
        "▁pro",
        -9.314886471480241
      ],
      [
        "yu",
        -9.315548495997673
      ],
      [
        "taal",
        -9.319404820951538
      ],
      [
        "ût",
        -9.322740365368675
      ],
      [
        "appelles",
        -9.32804091030559
      ],
      [
        "▁yar",
        -9.329324820288019
      ],
      [
        "▁chambres",
        -9.330928864904957
      ],
      [
        "▁doi",
        -9.331040995440713
      ],
      [
        "ille",
        -9.331365510376434
      ],
      [
        "ection",
        -9.33448236511707
      ],
      [
        "▁e",
        -9.334603712776094
      ],
      [
        "aka",
        -9.335832317843419
      ],
      [
        "nd",
        -9.33922338887231
      ],
      [
        "▁fan",
        -9.347469698389453
      ],
      [
        "▁xa",
        -9.348878204880107
      ],
      [
        "mbaa",
        -9.349348859357217
      ],
      [
        "wal",
        -9.352552902298383
      ],
      [
        "▁men",
        -9.355727619694758
      ],
      [
        "aller",
        -9.35652016647335
      ],
      [
        "▁Ch",
        -9.35944742233879
      ],
      [
        "ni",
        -9.359939397425848
      ],
      [
        "▁Waxa",
        -9.36068855443872
      ],
      [
        "▁sou",
        -9.364140090420545
      ],
      [
        "▁plu",
        -9.36820273748847
      ],
      [
        "▁cont",
        -9.368589634950181
      ],
      [
        "▁étalé",
        -9.37122778120525
      ],
      [
        "mar",
        -9.37136936028221
      ],
      [
        "▁Xo",
        -9.373056535989582
      ],
      [
        "vant",
        -9.38173541796704
      ],
      [
        "▁Au",
        -9.381852753234957
      ],
      [
        "A",
        -9.386511389338466
      ],
      [
        "▁Cha",
        -9.388791021111569
      ],
      [
        "us",
        -9.394476652805198
      ],
      [
        "▁gendarme",
        -9.399674091155902
      ],
      [
        "appartien",
        -9.401827042734546
      ],
      [
        "▁président",
        -9.406984412539597
      ],
      [
        "▁nge",
        -9.408175958698283
      ],
      [
        "ku",
        -9.411546757461545
      ],
      [
        "▁Waxu",
        -9.413201994855157
      ],
      [
        "▁conçu",
        -9.413284626429705
      ],
      [
        "▁partie",
        -9.413569737006346
      ],
      [
        "▁to",
        -9.416498225466952
      ],
      [
        "bu",
        -9.416819334225337
      ],
      [
        "qu'un",
        -9.417438584892949
      ],
      [
        "▁ndugg",
        -9.417496939057724
      ],
      [
        "▁Bul",
        -9.419347355405435
      ],
      [
        "▁bel",
        -9.42045533605818
      ],
      [
        "▁Ŋg",
        -9.421465922327128
      ],
      [
        "ti",
        -9.422228792569493
      ],
      [
        "ouche",
        -9.422421266373409
      ],
      [
        "▁mort",
        -9.422652001870183
      ],
      [
        "ache",
        -9.423226925160504
      ],
      [
        "▁bo",
        -9.425867514645674
      ],
      [
        "▁jàmm",
        -9.426784360801307
      ],
      [
        "▁choses",
        -9.432852288430038
      ],
      [
        "rain",
        -9.433000609895705
      ],
      [
        "▁ñaa",
        -9.434325016581745
      ],
      [
        "▁xool",
        -9.439939485362602
      ],
      [
        "C",
        -9.440041094042988
      ],
      [
        "▁fr",
        -9.441402561364391
      ],
      [
        "▁jog",
        -9.442823701987654
      ],
      [
        "me",
        -9.443196801195255
      ],
      [
        "▁Ñaa",
        -9.443197415702366
      ],
      [
        "mis",
        -9.4437642396553
      ],
      [
        "té",
        -9.444078915973753
      ],
      [
        "▁donne",
        -9.444996565763773
      ],
      [
        "▁dóo",
        -9.45115540511349
      ],
      [
        "▁Ng",
        -9.451681727006891
      ],
      [
        "rent",
        -9.45664433834768
      ],
      [
        "▁révolte",
        -9.457577924793657
      ],
      [
        "▁étai",
        -9.459154836600572
      ],
      [
        "▁Qu'",
        -9.459233959571732
      ],
      [
        "2",
        -9.4594093039557
      ],
      [
        "▁prêt",
        -9.459456456841966
      ],
      [
        "…",
        -9.459456456871287
      ],
      [
        "«",
        -9.459456456871287
      ],
      [
        "»",
        -9.459456456871287
      ],
      [
        "▁Au-dessus",
        -9.4594564732476
      ],
      [
        "▁apparaissent",
        -9.459456475662003
      ],
      [
        "▁habituellement",
        -9.459456518568018
      ],
      [
        "▁gëléem",
        -9.459456638211579
      ],
      [
        "▁baobab",
        -9.459456686708439
      ],
      [
        "▁gazelle",
        -9.459456722908506
      ],
      [
        "▁Ñëw",
        -9.459457249143698
      ],
      [
        "▁appelé",
        -9.459457477151137
      ],
      [
        "▁Birayim",
        -9.45945753165864
      ],
      [
        "▁Louga",
        -9.459457564878784
      ],
      [
        "▁brave",
        -9.459458056571028
      ],
      [
        "▁trop",
        -9.459460289992245
      ],
      [
        "▁toilettes",
        -9.459460425403332
      ],
      [
        "▁zinc",
        -9.459461735763679
      ],
      [
        "▁Njiit",
        -9.459462037230232
      ],
      [
        "▁njege",
        -9.459462114217695
      ],
      [
        "▁Macron",
        -9.459462822583648
      ],
      [
        "▁xayma",
        -9.45947072700884
      ],
      [
        "▁yànj",
        -9.459472822150484
      ],
      [
        "▁sûr",
        -9.459475001299342
      ],
      [
        "▁rideau",
        -9.459478638538819
      ],
      [
        "▁ndanka",
        -9.45948161267155
      ],
      [
        "▁chameau",
        -9.459482411190171
      ],
      [
        "▁certainement",
        -9.459491452405338
      ],
      [
        "▁ëlëk",
        -9.459510687864766
      ],
      [
        "▁Alfa",
        -9.459520333498652
      ],
      [
        "▁Agsil",
        -9.45952594037123
      ],
      [
        "▁Yaakaar",
        -9.459532001639325
      ],
      [
        "▁waxtaan",
        -9.459553241617137
      ],
      [
        "▁d'arbres",
        -9.459598437118997
      ],
      [
        "▁xamantane",
        -9.459601168830622
      ],
      [
        "▁Qu'est-ce",
        -9.459641918081703
      ],
      [
        "▁rayon",
        -9.45967666399378
      ],
      [
        "▁NGo",
        -9.459737748882706
      ],
      [
        "▁d'entre",
        -9.459738615307847
      ],
      [
        "▁outil",
        -9.459796766699027
      ],
      [
        "▁jëfandikoo",
        -9.459803922576139
      ],
      [
        "▁bãŋ",
        -9.459831773539843
      ],
      [
        "▁Luga",
        -9.459837469497202
      ],
      [
        "▁làmp",
        -9.459888359826259
      ],
      [
        "▁Gaynd",
        -9.459892551321303
      ],
      [
        "▁Demuloo",
        -9.459906430496615
      ],
      [
        "▁soirée",
        -9.46005463151983
      ],
      [
        "▁grand",
        -9.460103131945765
      ],
      [
        "▁sàmm",
        -9.460112960414454
      ],
      [
        "▁fond",
        -9.460238879466296
      ],
      [
        "▁bras",
        -9.460288950075418
      ],
      [
        "▁weñ",
        -9.460355204926401
      ],
      [
        "▁tête",
        -9.460371570864346
      ],
      [
        "▁Pour",
        -9.460566111723713
      ],
      [
        "▁ensemble",
        -9.460672268668088
      ],
      [
        "▁matinée",
        -9.460694066465148
      ],
      [
        "▁alors",
        -9.46076936296637
      ],
      [
        "▁wert",
        -9.460995885583799
      ],
      [
        "▁douche",
        -9.461081638775648
      ],
      [
        "▁Demuma",
        -9.461173547055655
      ],
      [
        "▁dagg",
        -9.46144006412696
      ],
      [
        "▁long",
        -9.46198153622487
      ],
      [
        "▁bày",
        -9.46204337936776
      ],
      [
        "▁serais",
        -9.462393215966094
      ],
      [
        "▁ñor",
        -9.462504708378795
      ],
      [
        "▁Demkoon",
        -9.462550097620554
      ],
      [
        "▁naqar",
        -9.46257040273707
      ],
      [
        "▁Tann",
        -9.462725960743239
      ],
      [
        "▁kookale",
        -9.462819657529119
      ],
      [
        "▁Ñooñu",
        -9.462829494223119
      ],
      [
        "▁wépp",
        -9.462849918983217
      ],
      [
        "▁passé",
        -9.462987789618884
      ],
      [
        "▁Ver",
        -9.463128359005687
      ],
      [
        "▁wone",
        -9.463417713411513
      ],
      [
        "oŋ",
        -9.463685123744607
      ],
      [
        "▁mbaxana",
        -9.463714174448342
      ],
      [
        "▁Ni",
        -9.464468018195856
      ],
      [
        "▁nuru",
        -9.464585469635312
      ],
      [
        "▁sopp",
        -9.464680519720762
      ],
      [
        "▁baŋ",
        -9.464734304480054
      ],
      [
        "hacun",
        -9.465084446483315
      ],
      [
        "▁marchent",
        -9.466047243855709
      ],
      [
        "▁voulu",
        -9.466058761710995
      ],
      [
        "▁Cependant",
        -9.466755945612816
      ],
      [
        "▁d'habitude",
        -9.467104407524078
      ],
      [
        "éy",
        -9.467110301900613
      ],
      [
        "▁per",
        -9.468219527692863
      ],
      [
        "▁Wa",
        -9.468419095228592
      ],
      [
        "hoisi",
        -9.470409312083428
      ],
      [
        "autrefois",
        -9.470751710043292
      ],
      [
        "abond",
        -9.471131713990752
      ],
      [
        "▁darab",
        -9.471138080228712
      ],
      [
        "▁suba",
        -9.471875808427962
      ],
      [
        "▁s'i",
        -9.472318375285335
      ],
      [
        "▁soldats",
        -9.47269939269243
      ],
      [
        "ois",
        -9.473632248367982
      ],
      [
        "▁nom",
        -9.473747764895265
      ],
      [
        "▁parents",
        -9.4742205500525
      ],
      [
        "▁danga",
        -9.47436532929275
      ],
      [
        "▁policiers",
        -9.47441117210779
      ],
      [
        "ersonne",
        -9.474583952900499
      ],
      [
        "▁Yee",
        -9.475411110642419
      ],
      [
        "▁juste",
        -9.47588359754096
      ],
      [
        "▁Da",
        -9.47759151550172
      ],
      [
        "▁wetam",
        -9.478018984528832
      ],
      [
        "Après",
        -9.478301273405043
      ],
      [
        "▁sàndarm",
        -9.47862630594199
      ],
      [
        "▁fo",
        -9.480065467805513
      ],
      [
        "▁livres",
        -9.48031472194168
      ],
      [
        "▁verra",
        -9.481642870744693
      ],
      [
        "▁dois",
        -9.482292595041121
      ],
      [
        "euse",
        -9.483673466952535
      ],
      [
        "▁d'herbes",
        -9.48389319398065
      ],
      [
        "ailleurs",
        -9.485376644138734
      ],
      [
        "▁kooka",
        -9.485491955894217
      ],
      [
        "▁war",
        -9.487772889233682
      ],
      [
        "lève",
        -9.487888922952255
      ],
      [
        "▁partent",
        -9.48846198322277
      ],
      [
        "▁prend",
        -9.488915206160504
      ],
      [
        "▁foo",
        -9.489585249850016
      ],
      [
        "tal",
        -9.48997590060428
      ],
      [
        "▁demuñu",
        -9.49089610227449
      ],
      [
        "cc",
        -9.491151801373123
      ],
      [
        "'av",
        -9.491460357847068
      ],
      [
        "▁n'ira",
        -9.491580909430638
      ],
      [
        "▁confie",
        -9.491876743467017
      ],
      [
        "el",
        -9.493421451714996
      ],
      [
        "▁peinte",
        -9.493982060239755
      ],
      [
        "▁Ña",
        -9.496211123156987
      ],
      [
        "qui",
        -9.497223434288006
      ],
      [
        "▁aime",
        -9.497750678811833
      ],
      [
        "▁prot",
        -9.49963933776689
      ],
      [
        "▁gisu",
        -9.500503651258919
      ],
      [
        "▁bancs",
        -9.50104880907456
      ],
      [
        "faites",
        -9.5030091100693
      ],
      [
        "▁guy",
        -9.503017704975479
      ],
      [
        "ui",
        -9.503040951551279
      ],
      [
        "▁batt",
        -9.504060275623555
      ],
      [
        "▁Jo",
        -9.504605839954372
      ],
      [
        "▁att",
        -9.504954822781118
      ],
      [
        "mp",
        -9.507902893545776
      ],
      [
        "▁fer",
        -9.509318176828952
      ],
      [
        "▁trait",
        -9.510199802344983
      ],
      [
        "▁pu",
        -9.511732711195911
      ],
      [
        "▁demain",
        -9.511818605036595
      ],
      [
        "▁yeux",
        -9.511873223462077
      ],
      [
        "▁Nil",
        -9.51506787712284
      ],
      [
        "nu",
        -9.515098184502977
      ],
      [
        "▁daje",
        -9.515387099932134
      ],
      [
        "▁Celui",
        -9.517321830583075
      ],
      [
        "▁daw",
        -9.51956781271708
      ],
      [
        "▁allez",
        -9.520550280603608
      ],
      [
        "▁Combi",
        -9.521516407666835
      ],
      [
        "des",
        -9.525202331513473
      ],
      [
        "omprends",
        -9.53290111202899
      ],
      [
        "aat",
        -9.533520655202208
      ],
      [
        "▁yaay",
        -9.533721593751583
      ],
      [
        "▁nag.",
        -9.535810709492296
      ],
      [
        "▁voici",
        -9.541109690127637
      ],
      [
        "▁US",
        -9.541843182432174
      ],
      [
        "ral",
        -9.542207674122148
      ],
      [
        "▁été.",
        -9.542993162568859
      ],
      [
        "▁naŋg",
        -9.543062370744433
      ],
      [
        "t-il",
        -9.543205958299879
      ],
      [
        "▁nd",
        -9.54342543321469
      ],
      [
        "▁Ceux-",
        -9.544849605661874
      ],
      [
        "ono",
        -9.545368209025817
      ],
      [
        "able",
        -9.545440130962907
      ],
      [
        "▁faite",
        -9.54564089451141
      ],
      [
        "maa",
        -9.551500105852615
      ],
      [
        "▁toogu",
        -9.554089931806992
      ],
      [
        "ka",
        -9.55844013982269
      ],
      [
        "▁r",
        -9.559520976914689
      ],
      [
        "▁Ai",
        -9.560927536169245
      ],
      [
        "part",
        -9.561019948611518
      ],
      [
        "▁ens",
        -9.563236976802822
      ],
      [
        "ète",
        -9.565063671127795
      ],
      [
        "▁Go",
        -9.566523194707758
      ],
      [
        "▁doo",
        -9.56919463346663
      ],
      [
        "▁denc",
        -9.570419815964408
      ],
      [
        "▁demb",
        -9.5718064449177
      ],
      [
        "▁liggéeye",
        -9.579439543787606
      ],
      [
        "▁fee",
        -9.579576386042291
      ],
      [
        "▁bleue",
        -9.579773396840142
      ],
      [
        "je",
        -9.58464564296612
      ],
      [
        "▁Liggéey",
        -9.58519316209889
      ],
      [
        "▁d'a",
        -9.586072346433118
      ],
      [
        "ga",
        -9.586805757873234
      ],
      [
        "▁lawoon",
        -9.587452846310132
      ],
      [
        "▁fro",
        -9.588155290564266
      ],
      [
        "yee",
        -9.591293627279015
      ],
      [
        "ante",
        -9.592674972329279
      ],
      [
        "▁cons",
        -9.596782424360072
      ],
      [
        "ŋgeen",
        -9.599121118120358
      ],
      [
        "▁beg",
        -9.602242438087602
      ],
      [
        "tant",
        -9.603487580957985
      ],
      [
        "oto",
        -9.604692120089846
      ],
      [
        "▁fui",
        -9.605202541242535
      ],
      [
        "▁Ngo",
        -9.606615294011327
      ],
      [
        "kub",
        -9.60828163447242
      ],
      [
        "▁pl",
        -9.609403122653179
      ],
      [
        "▁bee",
        -9.613305573247409
      ],
      [
        "La",
        -9.613366273283958
      ],
      [
        "▁gà",
        -9.614210630522026
      ],
      [
        "onne",
        -9.616148214323358
      ],
      [
        "moon",
        -9.622600246600113
      ],
      [
        "▁maye",
        -9.627998160276524
      ],
      [
        "▁mar",
        -9.628537301118389
      ],
      [
        "ages",
        -9.630783337208713
      ],
      [
        "▁mise",
        -9.63171171493252
      ],
      [
        "ssent",
        -9.632017502740144
      ],
      [
        "▁ndo",
        -9.63347810620861
      ],
      [
        "▁point",
        -9.637798572904787
      ],
      [
        "▁sée",
        -9.639736600341672
      ],
      [
        "at",
        -9.643979164654896
      ],
      [
        "act",
        -9.645421357854936
      ],
      [
        "▁chocolat.",
        -9.645570886354925
      ],
      [
        "▁Noo",
        -9.645904674847445
      ],
      [
        "du",
        -9.647945377084321
      ],
      [
        "▁parl",
        -9.649833916508658
      ],
      [
        "là",
        -9.652863469092834
      ],
      [
        "daamar",
        -9.657966221814139
      ],
      [
        "▁s'ag",
        -9.660586816860318
      ],
      [
        "▁clair",
        -9.66173558128762
      ],
      [
        "uver",
        -9.668698721213001
      ],
      [
        "▁dis",
        -9.669705295834792
      ],
      [
        "nit",
        -9.670323993350241
      ],
      [
        "ouille",
        -9.673573818827853
      ],
      [
        "ente",
        -9.674874975343073
      ],
      [
        "ez-",
        -9.678225096723805
      ],
      [
        "jà",
        -9.678849862462682
      ],
      [
        "▁taa",
        -9.678849975935684
      ],
      [
        "▁vou",
        -9.680628815806681
      ],
      [
        "▁taxu",
        -9.68076067557844
      ],
      [
        "▁nëw",
        -9.681915767219946
      ],
      [
        "ulëer",
        -9.683032947505282
      ],
      [
        "ó",
        -9.683709686958787
      ],
      [
        "J",
        -9.68588285733836
      ],
      [
        "ër",
        -9.686927497927947
      ],
      [
        "omb",
        -9.687372169992297
      ],
      [
        "age",
        -9.693015346934263
      ],
      [
        "▁l'o",
        -9.713060051337663
      ],
      [
        "▁connaiss",
        -9.714176136750769
      ],
      [
        "▁goo",
        -9.71435862620453
      ],
      [
        "é.",
        -9.715786892202683
      ],
      [
        "rrière",
        -9.715992146228828
      ],
      [
        "mes",
        -9.718524166947821
      ],
      [
        "ii",
        -9.718850665914369
      ],
      [
        "ñoo",
        -9.719127858673392
      ],
      [
        "▁Die",
        -9.720069525288844
      ],
      [
        "ange",
        -9.722243327717676
      ],
      [
        "▁Aa",
        -9.722711831177092
      ],
      [
        "iggéeykat",
        -9.722750440653517
      ],
      [
        "obul",
        -9.72519586204618
      ],
      [
        "▁jour",
        -9.728894489482075
      ],
      [
        "rëb",
        -9.729425114316944
      ],
      [
        "nement",
        -9.731055853596702
      ],
      [
        "pose",
        -9.731153970543707
      ],
      [
        "fi",
        -9.734672880411734
      ],
      [
        "▁puis",
        -9.740100479504042
      ],
      [
        "▁sii",
        -9.744149591018244
      ],
      [
        "▁ra",
        -9.74573768650666
      ],
      [
        "ici.",
        -9.746170061615818
      ],
      [
        "▁banc",
        -9.748287995327091
      ],
      [
        "kki",
        -9.751291891577635
      ],
      [
        "▁n'e",
        -9.754235599381825
      ],
      [
        "q",
        -9.756009762693736
      ],
      [
        "▁tegal",
        -9.758717997982991
      ],
      [
        "▁fleur",
        -9.759147687637656
      ],
      [
        "▁d'herbe",
        -9.759812055534937
      ],
      [
        "arab",
        -9.760867328664903
      ],
      [
        "▁Xa",
        -9.763014073042447
      ],
      [
        "▁té",
        -9.765977436758927
      ],
      [
        "kke",
        -9.766853932552994
      ],
      [
        "▁bay",
        -9.768533553405721
      ],
      [
        "ile",
        -9.772833471838043
      ],
      [
        "▁nopp",
        -9.774431637688593
      ],
      [
        "▁pren",
        -9.777374990493957
      ],
      [
        "▁Yooy",
        -9.777797591808293
      ],
      [
        "aan",
        -9.780104777606264
      ],
      [
        "▁kë",
        -9.782427052568128
      ],
      [
        "ñëw",
        -9.784905089878649
      ],
      [
        "▁ex",
        -9.787799604213863
      ],
      [
        "'est-à-dire",
        -9.788506469939955
      ],
      [
        "▁bët",
        -9.788671757150238
      ],
      [
        "▁mêmes",
        -9.789351118680095
      ],
      [
        "uru",
        -9.789669118497677
      ],
      [
        "▁ë",
        -9.789941771935322
      ],
      [
        "è",
        -9.790660618265129
      ],
      [
        "▁Gisu",
        -9.79095349276077
      ],
      [
        "llez",
        -9.790965701768222
      ],
      [
        "am.",
        -9.790983105487557
      ],
      [
        "ëkku",
        -9.791520396048382
      ],
      [
        "onfie",
        -9.79169302876226
      ],
      [
        "▁lekk",
        -9.791847452129183
      ],
      [
        "▁ŋgoogu",
        -9.792342058432078
      ],
      [
        "▁l'extérieur",
        -9.792789790164667
      ],
      [
        "▁climatiseurs",
        -9.792789790165008
      ],
      [
        "▁véhicule",
        -9.792789790166491
      ],
      [
        "▁français",
        -9.792789790278759
      ],
      [
        "▁superposé",
        -9.792789792185783
      ],
      [
        "▁couvercle",
        -9.792789798944193
      ],
      [
        "▁écrivent",
        -9.792789801897307
      ],
      [
        "▁Radiyasi",
        -9.792789812280677
      ],
      [
        "histoire",
        -9.792789817811187
      ],
      [
        "▁alkaati",
        -9.79278985031247
      ],
      [
        "▁couscous",
        -9.792789867021074
      ],
      [
        "féexal",
        -9.79278991684492
      ],
      [
        "▁rëdd",
        -9.792789950499206
      ],
      [
        "▁fâch",
        -9.792789972910834
      ],
      [
        "▁attaché",
        -9.792790038638493
      ],
      [
        "▁messager",
        -9.792790074684167
      ],
      [
        "▁Faranse",
        -9.79279014318819
      ],
      [
        "▁mboq",
        -9.792790435084761
      ],
      [
        "▁karaaf",
        -9.7927905532036
      ],
      [
        "▁cultive",
        -9.792790604609316
      ],
      [
        "▁semaine",
        -9.792791861980435
      ],
      [
        "▁meilleur",
        -9.79279268974458
      ],
      [
        "▁nombre",
        -9.792793370125654
      ],
      [
        "▁beurre",
        -9.792795642211948
      ],
      [
        "▁taariix",
        -9.792796873367703
      ],
      [
        "▁s'échappe",
        -9.792797393557343
      ],
      [
        "▁Certaine",
        -9.792798133078328
      ],
      [
        "▁mûr",
        -9.792798455091576
      ],
      [
        "▁instant",
        -9.792801739786963
      ],
      [
        "▁xadde",
        -9.792801739827311
      ],
      [
        "▁carafe",
        -9.792803910321876
      ],
      [
        "▁ayubes",
        -9.792806799620225
      ],
      [
        "▁lutteur",
        -9.792807037047858
      ],
      [
        "▁besoin",
        -9.79280975348376
      ],
      [
        "▁colère",
        -9.792816418108632
      ],
      [
        "▁Kaasamaas",
        -9.792817559601728
      ],
      [
        "▁sotti",
        -9.792821094319757
      ],
      [
        "▁couvr",
        -9.792821221414535
      ],
      [
        "foncé",
        -9.792831647178884
      ],
      [
        "▁adulte",
        -9.79283297954202
      ],
      [
        "▁plaît",
        -9.79284272484124
      ],
      [
        "▁bahut",
        -9.792846081157997
      ],
      [
        "▁couvert",
        -9.79284712571742
      ],
      [
        "▁Solda",
        -9.792853657601558
      ],
      [
        "▁kéwël",
        -9.792861857402801
      ],
      [
        "▁saŋx",
        -9.79286707271086
      ],
      [
        "▁gros",
        -9.7928790678879
      ],
      [
        "▁batã",
        -9.792916906279773
      ],
      [
        "▁siège",
        -9.792929270041448
      ],
      [
        "▁Sëri",
        -9.792941988195357
      ],
      [
        "▁sànn",
        -9.79294381109188
      ],
      [
        "▁cinq",
        -9.792948016698785
      ],
      [
        "▁l'imp",
        -9.79297711358646
      ],
      [
        "ëcc",
        -9.792997600662831
      ],
      [
        "èvre",
        -9.79299876536838
      ],
      [
        "▁paresseu",
        -9.793017308402142
      ],
      [
        "▁taabal",
        -9.793036634163931
      ],
      [
        "▁feuilles",
        -9.79303848086469
      ],
      [
        "▁Peul",
        -9.79304432777039
      ],
      [
        "▁caisse",
        -9.793066434486635
      ],
      [
        "▁jabar",
        -9.793075542360617
      ],
      [
        "▁Laisse",
        -9.793139773937694
      ],
      [
        "▁dikkul",
        -9.793159013318817
      ],
      [
        "▁l'argent",
        -9.79317257228271
      ],
      [
        "▁l'herbe",
        -9.79320233804036
      ],
      [
        "▁riz",
        -9.793204286171417
      ],
      [
        "▁sauce",
        -9.793216584980366
      ],
      [
        "▁Autre",
        -9.793298275213743
      ],
      [
        "▁L'autre",
        -9.793314959721673
      ],
      [
        "▁tàngal",
        -9.793374292408537
      ],
      [
        "▁bouge",
        -9.79339378537689
      ],
      [
        "▁l'argile",
        -9.793402177011737
      ],
      [
        "▁vérité",
        -9.793489291408624
      ],
      [
        "▁gauche",
        -9.793494194421903
      ],
      [
        "heureuse",
        -9.793633356023543
      ],
      [
        "▁prop",
        -9.793790272231993
      ],
      [
        "▁anglais",
        -9.793834561262983
      ],
      [
        "▁masque",
        -9.793842621138856
      ],
      [
        "▁raison",
        -9.793888468842589
      ],
      [
        "▁rose",
        -9.79396913501822
      ],
      [
        "arloo",
        -9.794129615416592
      ],
      [
        "▁manger",
        -9.794361318667285
      ],
      [
        "▁ñeex",
        -9.794386922755113
      ],
      [
        "▁coup",
        -9.794473537740583
      ],
      [
        "▁taille",
        -9.79463762370477
      ],
      [
        "▁mbu",
        -9.794681281542559
      ],
      [
        "-je",
        -9.79481717653626
      ],
      [
        "▁wàll",
        -9.794838477688131
      ],
      [
        "▁enfant-là",
        -9.79517552387804
      ],
      [
        "▁Sàll",
        -9.79524009014578
      ],
      [
        "ommé",
        -9.795416280385464
      ],
      [
        "▁yaram",
        -9.795470069496238
      ],
      [
        "▁général",
        -9.795819663027027
      ],
      [
        "▁n'import",
        -9.79594600743631
      ],
      [
        "▁faut",
        -9.796059739213721
      ],
      [
        "▁monté",
        -9.796277415913044
      ],
      [
        "▁jouent",
        -9.79699394050591
      ],
      [
        "▁c'est-à-dire",
        -9.79709131569401
      ],
      [
        "▁wóo",
        -9.797405670192585
      ],
      [
        "▁Sall",
        -9.797752551379356
      ],
      [
        "▁indi",
        -9.797818545831042
      ],
      [
        "▁l'appelle",
        -9.797850009136978
      ],
      [
        "▁ceux-ci",
        -9.797937183686265
      ],
      [
        "▁crain",
        -9.79812473351782
      ],
      [
        "awbe",
        -9.798436569253886
      ],
      [
        "▁dents",
        -9.798765247654227
      ],
      [
        "▁clé",
        -9.799048988465715
      ],
      [
        "▁concert",
        -9.799186054688949
      ],
      [
        "▁d'eux",
        -9.799287074508804
      ],
      [
        "▁genre",
        -9.799724970702206
      ],
      [
        "▁woowe",
        -9.80136468981916
      ],
      [
        "▁jooy",
        -9.801502728828057
      ],
      [
        "▁mat",
        -9.801785796552021
      ],
      [
        "▁cuit",
        -9.802287628704255
      ],
      [
        "▁soow",
        -9.802669149069773
      ],
      [
        "▁d'ici",
        -9.802814537419325
      ],
      [
        "▁plats",
        -9.803252637565551
      ],
      [
        "rage",
        -9.803530772621457
      ],
      [
        "▁tentes",
        -9.803768260516488
      ],
      [
        "▁bonul",
        -9.803891923985475
      ],
      [
        "▁Abal",
        -9.804087464005512
      ],
      [
        "▁Ah",
        -9.804643473350612
      ],
      [
        "▁homme-ci",
        -9.805187310369702
      ],
      [
        "▁d'ar",
        -9.80535951807214
      ],
      [
        "▁Deg",
        -9.805640147301967
      ],
      [
        "ôt",
        -9.806698317487925
      ],
      [
        "▁Wall",
        -9.806869205952538
      ],
      [
        "▁Jël",
        -9.808262508204447
      ],
      [
        "▁ñeent",
        -9.808406099696885
      ],
      [
        "▁travailler",
        -9.808487784088573
      ],
      [
        "▁Yooyu",
        -9.808992617752022
      ],
      [
        "▁Celle",
        -9.8095706810622
      ],
      [
        "▁sox",
        -9.810095293392417
      ],
      [
        "▁voya",
        -9.810314833189878
      ],
      [
        "▁suuk",
        -9.810780423334366
      ],
      [
        "▁naat",
        -9.81086315497882
      ],
      [
        "dd",
        -9.81127167985987
      ],
      [
        "▁pré",
        -9.811647804274928
      ],
      [
        "▁trou",
        -9.81168586321287
      ],
      [
        "▁sukk",
        -9.811882666705587
      ],
      [
        "O",
        -9.8119718683055
      ],
      [
        "▁drapeau",
        -9.811980730550735
      ],
      [
        "▁Mac",
        -9.813235863780868
      ],
      [
        "▁xeet",
        -9.813365300502353
      ],
      [
        "▁mét",
        -9.813768731000046
      ],
      [
        "▁courses",
        -9.814021778661735
      ],
      [
        "▁cuisiner",
        -9.816222482927724
      ],
      [
        "▁fenêtres",
        -9.817515983830686
      ],
      [
        "▁ceeb",
        -9.817671304673032
      ],
      [
        "▁objets",
        -9.817879586415074
      ],
      [
        "iff",
        -9.818091892816403
      ],
      [
        "▁ñooñ",
        -9.818812378297944
      ],
      [
        "▁tiroirs",
        -9.819436366399945
      ],
      [
        "veille",
        -9.819908043344608
      ],
      [
        "▁yaru",
        -9.819982601239305
      ],
      [
        "ches",
        -9.820335276771619
      ],
      [
        "hez",
        -9.821141519913935
      ],
      [
        "▁après",
        -9.821515583604302
      ],
      [
        "pace",
        -9.824737005634102
      ],
      [
        "▁daawul",
        -9.825763665469385
      ],
      [
        "▁woowu",
        -9.826073294211461
      ],
      [
        "▁Kook",
        -9.826251757160268
      ],
      [
        "▁wala",
        -9.827301467417517
      ],
      [
        "laire",
        -9.827550114910368
      ],
      [
        "▁Dé",
        -9.82777377666056
      ],
      [
        "▁assiette",
        -9.827854562650266
      ],
      [
        "▁terre",
        -9.828868285305479
      ],
      [
        "▁ñj",
        -9.82963085799797
      ],
      [
        "▁gé",
        -9.829744658257622
      ],
      [
        "roo",
        -9.83137017242012
      ],
      [
        "ntière",
        -9.833199316460526
      ],
      [
        "▁Salaa",
        -9.833702330988444
      ],
      [
        "▁woowa",
        -9.834416361655187
      ],
      [
        "▁Waxat",
        -9.835398581773989
      ],
      [
        "▁vert",
        -9.835770215622501
      ],
      [
        "▁marcher",
        -9.835846984231727
      ],
      [
        "▁gone",
        -9.838098025264406
      ],
      [
        "▁Seeti",
        -9.842229316221502
      ],
      [
        "neen",
        -9.844023297610887
      ],
      [
        "▁num",
        -9.844199096347172
      ],
      [
        "▁travaill",
        -9.845187155391594
      ],
      [
        "▁mont",
        -9.846174841165624
      ],
      [
        "boo",
        -9.847563454134528
      ],
      [
        "▁Ŋgo",
        -9.848149681597338
      ],
      [
        "▁fukk",
        -9.848599314666492
      ],
      [
        "yi",
        -9.84901323896477
      ],
      [
        "▁Lui",
        -9.849626451075528
      ],
      [
        "▁Dégg",
        -9.851942537223268
      ],
      [
        "▁buur",
        -9.852765191322213
      ],
      [
        "▁présent",
        -9.85307004112939
      ],
      [
        "▁Kan",
        -9.853829178986812
      ],
      [
        "▁oreiller",
        -9.855030692615374
      ],
      [
        "ar.",
        -9.855930566410908
      ],
      [
        "▁Leur",
        -9.856212523912442
      ],
      [
        "▁seule",
        -9.85945069980785
      ],
      [
        "▁wuu",
        -9.861137379394055
      ],
      [
        "▁mé",
        -9.862034852257917
      ],
      [
        "▁cha",
        -9.865663889114003
      ],
      [
        "ré",
        -9.86620930335678
      ],
      [
        "nnie",
        -9.868129132541748
      ],
      [
        "▁pr",
        -9.869369544502934
      ],
      [
        "▁forme",
        -9.871018893196482
      ],
      [
        "lé",
        -9.87170475495216
      ],
      [
        "▁n'aur",
        -9.871985788260126
      ],
      [
        "▁cuisines",
        -9.87223793593755
      ],
      [
        "mour",
        -9.874622318359485
      ],
      [
        "oow",
        -9.875113976812306
      ],
      [
        "modes",
        -9.875147129308798
      ],
      [
        "▁terr",
        -9.876350420152523
      ],
      [
        "errière",
        -9.877129665512314
      ],
      [
        "▁fermée",
        -9.877262999064326
      ],
      [
        "añse",
        -9.878316358862538
      ],
      [
        "▁yooya",
        -9.880150522406389
      ],
      [
        "▁Waxul",
        -9.881048215698337
      ],
      [
        "▁sim",
        -9.881284892476089
      ],
      [
        "énorme",
        -9.88177514166871
      ],
      [
        "pis",
        -9.887393424027893
      ],
      [
        "▁Yen",
        -9.88951554047157
      ],
      [
        "▁jours",
        -9.89306202822962
      ],
      [
        "▁désire",
        -9.893316267188728
      ],
      [
        "▁utilise",
        -9.893719017929662
      ],
      [
        "▁fe",
        -9.895228539304988
      ],
      [
        "▁inc",
        -9.89632485365632
      ],
      [
        "nte",
        -9.896945759487497
      ],
      [
        "eurs",
        -9.8977173636379
      ],
      [
        "ts.",
        -9.89939146908502
      ],
      [
        "▁ch",
        -9.901685900510097
      ],
      [
        "egg",
        -9.902390020848975
      ],
      [
        "yé",
        -9.902653695670292
      ],
      [
        "uis",
        -9.90367310865986
      ],
      [
        "commenc",
        -9.905541808024406
      ],
      [
        "▁bout",
        -9.906020834973603
      ],
      [
        "góor",
        -9.906831560253757
      ],
      [
        "▁partai",
        -9.90786677919846
      ],
      [
        "use",
        -9.908465606253404
      ],
      [
        "ejje",
        -9.909625962845423
      ],
      [
        "▁Nee",
        -9.90987179254456
      ],
      [
        "▁h",
        -9.910407822404464
      ],
      [
        "lon",
        -9.911586816453221
      ],
      [
        "▁jus",
        -9.911745077063278
      ],
      [
        "oivent",
        -9.912935210177624
      ],
      [
        "▁ñee",
        -9.913880433606312
      ],
      [
        "'aumône",
        -9.914021601305528
      ],
      [
        "▁Jée",
        -9.914384495568338
      ],
      [
        "▁cor",
        -9.915698177323883
      ],
      [
        "▁paye",
        -9.91616586634322
      ],
      [
        "▁bou",
        -9.919309759638512
      ],
      [
        "eur",
        -9.920736092040126
      ],
      [
        "▁waxe",
        -9.920911614220461
      ],
      [
        "'appelle",
        -9.921828609263624
      ],
      [
        "▁tubaa",
        -9.931250284263909
      ],
      [
        "cher",
        -9.932844058078123
      ],
      [
        "▁buu",
        -9.933829082475475
      ],
      [
        "▁Daa",
        -9.936633957416085
      ],
      [
        "▁aille",
        -9.936858239987867
      ],
      [
        "▁Aie",
        -9.937420317822992
      ],
      [
        "▁arrive",
        -9.938817584472158
      ],
      [
        "▁lions",
        -9.939977755454272
      ],
      [
        "▁Ñen",
        -9.941099664850672
      ],
      [
        "tion",
        -9.94143424326056
      ],
      [
        "▁booba",
        -9.942336235512203
      ],
      [
        "▁ño",
        -9.942747563698093
      ],
      [
        "û",
        -9.94354356168205
      ],
      [
        "▁sor",
        -9.944655365864188
      ],
      [
        "dre",
        -9.945343338804468
      ],
      [
        "▁mett",
        -9.948649527275563
      ],
      [
        "▁claire",
        -9.948904228107434
      ],
      [
        "orte",
        -9.951081847202722
      ],
      [
        "um",
        -9.95227770137005
      ],
      [
        "▁daamar",
        -9.953068783874532
      ],
      [
        "avait",
        -9.959380650982684
      ],
      [
        "fu",
        -9.960281243735574
      ],
      [
        "ah",
        -9.960491690345584
      ],
      [
        "lui",
        -9.96606240397888
      ],
      [
        "▁mb",
        -9.970082452212747
      ],
      [
        "ff",
        -9.974557685155732
      ],
      [
        "▁Defa",
        -9.978340429675425
      ],
      [
        "▁joue",
        -9.979297153660411
      ],
      [
        "▁jolies",
        -9.979738111450555
      ],
      [
        "âl",
        -9.980823001281088
      ],
      [
        "ques",
        -9.982536119550158
      ],
      [
        "eut",
        -9.985222817612971
      ],
      [
        "uff",
        -9.987623048221804
      ],
      [
        "ba",
        -9.990951624123328
      ],
      [
        "ji",
        -9.991041304215697
      ],
      [
        "anaa",
        -9.99108650037273
      ],
      [
        "lo",
        -9.992629846490404
      ],
      [
        "â",
        -9.992888413066265
      ],
      [
        "▁cee",
        -9.996144002199808
      ],
      [
        "▁roi",
        -9.997139298034606
      ],
      [
        "▁ter",
        -9.997444933857299
      ],
      [
        "▁gar",
        -10.000110055186678
      ],
      [
        "▁mbe",
        -10.001914943930242
      ],
      [
        "▁tel",
        -10.002254256793215
      ],
      [
        "l.",
        -10.003040338215113
      ],
      [
        "wuñu",
        -10.003082510581317
      ],
      [
        "▁bat",
        -10.003565845168973
      ],
      [
        "gul",
        -10.003629800584239
      ],
      [
        "▁rentre",
        -10.01095595101964
      ],
      [
        "▁parla",
        -10.01367224088498
      ],
      [
        "▁rouges",
        -10.017944318201364
      ],
      [
        "oir",
        -10.01880959782522
      ],
      [
        "aa",
        -10.02037974025253
      ],
      [
        "éew",
        -10.020536332215855
      ],
      [
        "▁heure",
        -10.025043881772765
      ],
      [
        "▁No",
        -10.028320920556407
      ],
      [
        "war",
        -10.029648679364144
      ],
      [
        "▁connaisse",
        -10.030545179174934
      ],
      [
        "▁pos",
        -10.03228027241217
      ],
      [
        "▁mba",
        -10.034315697825681
      ],
      [
        "▁far",
        -10.034544576852092
      ],
      [
        "▁Se",
        -10.035123017722059
      ],
      [
        "naay",
        -10.041352914063907
      ],
      [
        "law",
        -10.042579923421734
      ],
      [
        "▁Def",
        -10.042670763164224
      ],
      [
        "▁Mo",
        -10.044280371617377
      ],
      [
        "▁gui",
        -10.049522716937108
      ],
      [
        "irai",
        -10.05066417365583
      ],
      [
        "▁xamul",
        -10.050724621693846
      ],
      [
        "▁Sé",
        -10.053036889128744
      ],
      [
        "argile",
        -10.053151885761315
      ],
      [
        "▁Ho",
        -10.054085892819108
      ],
      [
        "igne",
        -10.057290481751473
      ],
      [
        "exi",
        -10.059541626730258
      ],
      [
        "ign",
        -10.060135027862898
      ],
      [
        "▁montr",
        -10.066709512924678
      ],
      [
        "kh",
        -10.072985073227276
      ],
      [
        "▁Bay",
        -10.073176385803583
      ],
      [
        "ta",
        -10.074714499730153
      ],
      [
        "▁Nag",
        -10.075140475627094
      ],
      [
        "ffi",
        -10.075533618178401
      ],
      [
        "▁bas",
        -10.079679610598848
      ],
      [
        "weer",
        -10.080619294955184
      ],
      [
        "café",
        -10.081638181362067
      ],
      [
        "laa",
        -10.082356402734428
      ],
      [
        "▁bul",
        -10.082994616822285
      ],
      [
        "alal",
        -10.084722405938528
      ],
      [
        "ru",
        -10.085997802398165
      ],
      [
        "vient",
        -10.088889363584082
      ],
      [
        "eguñu",
        -10.10123078622933
      ],
      [
        "rais",
        -10.102699248346786
      ],
      [
        "▁m'as",
        -10.108765928194725
      ],
      [
        "▁sant",
        -10.109502568132907
      ],
      [
        "▁commen",
        -10.110742273557461
      ],
      [
        "entre",
        -10.111375138514934
      ],
      [
        "cherche",
        -10.11584426200589
      ],
      [
        "ule",
        -10.116270153053147
      ],
      [
        "▁ro",
        -10.11771728574503
      ],
      [
        "▁tege",
        -10.11879572041401
      ],
      [
        "▁yaat",
        -10.119069911609888
      ],
      [
        "▁be",
        -10.119243784032433
      ],
      [
        "▁Celui-",
        -10.121823485430719
      ],
      [
        "▁Qua",
        -10.123428749262638
      ],
      [
        "mid",
        -10.1253093924407
      ],
      [
        "uy",
        -10.125896629047736
      ],
      [
        "▁seenu",
        -10.125990304148646
      ],
      [
        "US",
        -10.127277169756153
      ],
      [
        "▁ŋg",
        -10.127956672465807
      ],
      [
        "apprécie",
        -10.128619685968777
      ],
      [
        "oom",
        -10.129196507950457
      ],
      [
        "avais",
        -10.13249092456686
      ],
      [
        "ng",
        -10.136367296401676
      ],
      [
        "leur",
        -10.13801422298961
      ],
      [
        "kar",
        -10.14234154222698
      ],
      [
        "▁Be",
        -10.143722635268873
      ],
      [
        "abal",
        -10.149202291832854
      ],
      [
        "▁yab",
        -10.156297574749884
      ],
      [
        "▁nà",
        -10.157124224497986
      ],
      [
        "▁jur",
        -10.160512865335608
      ],
      [
        "▁prie",
        -10.16479292892132
      ],
      [
        "▁sera",
        -10.166631582412785
      ],
      [
        "met",
        -10.16703430708531
      ],
      [
        "▁choses.",
        -10.167100359865136
      ],
      [
        "▁Xamu",
        -10.171503592384372
      ],
      [
        "armes",
        -10.179418525728927
      ],
      [
        "re.",
        -10.180252613971934
      ],
      [
        "oog",
        -10.18126251415351
      ],
      [
        "agg",
        -10.181622040966182
      ],
      [
        "aleekum",
        -10.183030369160923
      ],
      [
        "our",
        -10.18450478707533
      ],
      [
        "▁deme",
        -10.186914334859491
      ],
      [
        "gis",
        -10.188650556203777
      ],
      [
        "▁kook",
        -10.194911408676269
      ],
      [
        "▁ha",
        -10.195165487215865
      ],
      [
        "▁ti",
        -10.197513977687764
      ],
      [
        "dem",
        -10.199191422210909
      ],
      [
        "urs",
        -10.20267855764319
      ],
      [
        "▁bavarda",
        -10.203850411520115
      ],
      [
        "andi",
        -10.208692137618979
      ],
      [
        "▁To",
        -10.209573714750839
      ],
      [
        "▁lait",
        -10.20963698684301
      ],
      [
        "ho",
        -10.20973982596917
      ],
      [
        "'aide",
        -10.209921410367592
      ],
      [
        "▁trai",
        -10.209945396100311
      ],
      [
        "▁cherch",
        -10.21087532126219
      ],
      [
        "▁ŋgoo",
        -10.213320051551882
      ],
      [
        "▁too",
        -10.213897335514666
      ],
      [
        "▁Degg",
        -10.215359518412756
      ],
      [
        "▁gra",
        -10.216949187840166
      ],
      [
        "ari",
        -10.21734684272359
      ],
      [
        "▁peint",
        -10.218402053607118
      ],
      [
        "fois",
        -10.220476936539576
      ],
      [
        "▁wo",
        -10.2210612274461
      ],
      [
        "at.",
        -10.22373029194364
      ],
      [
        "ttends",
        -10.228131426513666
      ],
      [
        "xam",
        -10.228887826514852
      ],
      [
        "▁confi",
        -10.229254738541897
      ],
      [
        "che",
        -10.229473734728252
      ],
      [
        "eil",
        -10.233661947006786
      ],
      [
        "lè",
        -10.234045755313259
      ],
      [
        "▁tient",
        -10.234606648417833
      ],
      [
        "▁dét",
        -10.234925133509453
      ],
      [
        "toi",
        -10.23566251393065
      ],
      [
        "ère.",
        -10.23657178593104
      ],
      [
        "dou",
        -10.23890865536874
      ],
      [
        "evant",
        -10.239097599018915
      ],
      [
        "▁taal",
        -10.240609329320204
      ],
      [
        "▁attrap",
        -10.240907239278666
      ],
      [
        "▁retrait",
        -10.241824636665555
      ],
      [
        "jje",
        -10.243855666409216
      ],
      [
        "▁gejj",
        -10.245082245816025
      ],
      [
        "ure",
        -10.24550334364526
      ],
      [
        "ard",
        -10.249372143491755
      ],
      [
        "gguma",
        -10.249392949838747
      ],
      [
        "▁lev",
        -10.250014252558259
      ],
      [
        "▁Att",
        -10.252608044469929
      ],
      [
        "▁objet",
        -10.253104826514035
      ],
      [
        "▁tiroir",
        -10.253142158099525
      ],
      [
        "▁cuisin",
        -10.253973622335323
      ],
      [
        "▁fenêtre",
        -10.254060590531171
      ],
      [
        "▁teint",
        -10.255742358007984
      ],
      [
        "▁gaynd",
        -10.259268902617546
      ],
      [
        "▁policier",
        -10.259731804856198
      ],
      [
        "▁xë",
        -10.259983061933319
      ],
      [
        "▁viendr",
        -10.26283254906451
      ],
      [
        "▁pierre",
        -10.26814301223226
      ],
      [
        "▁Foof",
        -10.268849498082776
      ],
      [
        "▁n'ir",
        -10.271131616123512
      ],
      [
        "range",
        -10.271131659188136
      ],
      [
        "nn",
        -10.272356088535167
      ],
      [
        "dé",
        -10.27258134159375
      ],
      [
        "▁ubb",
        -10.27504693449079
      ],
      [
        "▁t'e",
        -10.275188797691612
      ],
      [
        "▁parent",
        -10.27568043845045
      ],
      [
        "▁soldat",
        -10.27584550000053
      ],
      [
        "ddi",
        -10.277091290873889
      ],
      [
        "▁bokku",
        -10.277439820366242
      ],
      [
        "ngoo",
        -10.278207571816637
      ],
      [
        "▁recon",
        -10.278771732945057
      ],
      [
        "▁yit",
        -10.278859196735112
      ],
      [
        "bul",
        -10.280016876701783
      ],
      [
        "▁oreille",
        -10.280409077981732
      ],
      [
        "▁gë",
        -10.280914520162261
      ],
      [
        "lors",
        -10.281988742131826
      ],
      [
        "▁somme",
        -10.282074988463002
      ],
      [
        "▁différent",
        -10.28300096492466
      ],
      [
        "e-le",
        -10.283010639962017
      ],
      [
        "▁Ño",
        -10.283922220695198
      ],
      [
        "nent",
        -10.284218201646699
      ],
      [
        "ière.",
        -10.28601027100927
      ],
      [
        "ccepte",
        -10.286650468771725
      ],
      [
        "ête",
        -10.287680244673114
      ],
      [
        "▁jó",
        -10.28787482979344
      ],
      [
        "▁génér",
        -10.288031459491545
      ],
      [
        "'import",
        -10.289193265520385
      ],
      [
        "▁foof",
        -10.28930526582196
      ],
      [
        "oxoom",
        -10.289686305169873
      ],
      [
        "▁jaŋ",
        -10.29036500802186
      ],
      [
        "cheur",
        -10.290648172565772
      ],
      [
        "▁po",
        -10.290859626944808
      ],
      [
        "▁tissé",
        -10.291948795613857
      ],
      [
        "▁jëfandik",
        -10.292052956505408
      ],
      [
        "▁ñép",
        -10.29229889561658
      ],
      [
        "▁fais",
        -10.292364578764849
      ],
      [
        "fandikoo",
        -10.292741837614772
      ],
      [
        "▁d'habit",
        -10.29277670292739
      ],
      [
        "échapp",
        -10.292784889103585
      ],
      [
        "00",
        -10.292789789852748
      ],
      [
        "▁Africaine",
        -10.292789790169035
      ],
      [
        "▁Français",
        -10.29278979017247
      ],
      [
        "▁10",
        -10.292789790176393
      ],
      [
        "▁Niominka.",
        -10.29278979020358
      ],
      [
        "(",
        -10.292789790204615
      ],
      [
        " ",
        -10.292789790204619
      ],
      [
        "É",
        -10.292789790204619
      ],
      [
        "Ë",
        -10.292789790204619
      ],
      [
        ")",
        -10.292789790204619
      ],
      [
        "▁confortable",
        -10.292789790231682
      ],
      [
        "▁migrateurs",
        -10.292789790273043
      ],
      [
        "000",
        -10.292789790504797
      ],
      [
        "▁impoli",
        -10.292789793746635
      ],
      [
        "▁récipient",
        -10.292789796497885
      ],
      [
        "▁archite",
        -10.29278980665093
      ],
      [
        "▁accroch",
        -10.292789808891316
      ],
      [
        "▁ngànnaay",
        -10.29278982088053
      ],
      [
        "▁boucliers",
        -10.292789830207989
      ],
      [
        "▁canapé",
        -10.292789844516173
      ],
      [
        "▁tambour",
        -10.292789860311208
      ],
      [
        "▁maasàllaa",
        -10.292789861332645
      ],
      [
        "'accorde",
        -10.29278986263453
      ],
      [
        "▁berceau",
        -10.29278986559034
      ],
      [
        "▁rapprochée",
        -10.292789872344322
      ],
      [
        "▁'jaune'",
        -10.29278999102733
      ],
      [
        "▁frigo",
        -10.292789997894848
      ],
      [
        "▁préparé",
        -10.292790022800984
      ],
      [
        "▁chaîne",
        -10.29279004629003
      ],
      [
        "▁automobile",
        -10.292790082083242
      ],
      [
        "▁fabriqu",
        -10.292790351048357
      ],
      [
        "▁totalité",
        -10.292790870971793
      ],
      [
        "▁lumineuse",
        -10.29279100241466
      ],
      [
        "▁beerso",
        -10.292791263553513
      ],
      [
        "áa",
        -10.292791496002312
      ],
      [
        "▁ñambaan",
        -10.292791752976168
      ],
      [
        "congelé",
        -10.292791771174315
      ],
      [
        "▁Dites-l",
        -10.292791810498503
      ],
      [
        "▁radier",
        -10.29279181817389
      ],
      [
        "▁achète",
        -10.29279203025039
      ],
      [
        "▁renversé",
        -10.292792274463178
      ],
      [
        "▁yalwaan",
        -10.292792786914232
      ],
      [
        "▁lançant",
        -10.292792848951766
      ],
      [
        "▁nouvel",
        -10.29279598721295
      ],
      [
        "▁constituée",
        -10.29279677541469
      ],
      [
        "▁magasin",
        -10.292796846567079
      ],
      [
        "▁statut",
        -10.29279692888255
      ],
      [
        "▁rassembl",
        -10.292797344651085
      ],
      [
        "▁S'agi",
        -10.292799475032119
      ],
      [
        "▁discut",
        -10.29280224730868
      ],
      [
        "'ouvre",
        -10.292802466688679
      ],
      [
        "▁assailli",
        -10.292804028411583
      ],
      [
        "▁France",
        -10.29280752657996
      ],
      [
        "à-bas",
        -10.292809056577202
      ],
      [
        "▁meuble",
        -10.292809107069353
      ],
      [
        "▁marron",
        -10.292816937857227
      ],
      [
        "▁l'allume",
        -10.292818618757346
      ],
      [
        "▁Taxawa",
        -10.29281958101746
      ],
      [
        "yëngu",
        -10.292819668483672
      ],
      [
        "▁truc",
        -10.292823735330844
      ],
      [
        "▁entouré",
        -10.29282575744026
      ],
      [
        "▁moontin",
        -10.292826204175691
      ],
      [
        "▁marõ",
        -10.292827276767875
      ],
      [
        "▁jàkkarloo",
        -10.292828520416858
      ],
      [
        "▁prépare",
        -10.292829305591006
      ],
      [
        "▁nàññ",
        -10.292837451481246
      ],
      [
        "▁porche",
        -10.292847499346236
      ],
      [
        "▁souffr",
        -10.292848283268844
      ],
      [
        "▁L'endroit",
        -10.292848982893602
      ],
      [
        "▁moket",
        -10.292857299579488
      ],
      [
        "grillage",
        -10.292860922497908
      ],
      [
        "écédé",
        -10.29286483755193
      ],
      [
        "àngaan",
        -10.292864881090761
      ],
      [
        "▁xelli",
        -10.29287028613357
      ],
      [
        "àccee",
        -10.292875071079159
      ],
      [
        "▁âgé",
        -10.292883597812903
      ],
      [
        "aalekum",
        -10.292889703408822
      ],
      [
        "▁Pardon",
        -10.292891288513896
      ],
      [
        "▁descendra",
        -10.29289491488289
      ],
      [
        "▁tamarin",
        -10.292904929392792
      ],
      [
        "▁n'habite",
        -10.29290965075214
      ],
      [
        "▁bassin",
        -10.29290973458468
      ],
      [
        "▁répét",
        -10.292910647853331
      ],
      [
        "▁yàqu",
        -10.292949423763664
      ],
      [
        "▁aajo",
        -10.292962566450768
      ],
      [
        "▁gosse",
        -10.293010115651917
      ],
      [
        "▁fanane",
        -10.29302313806653
      ],
      [
        "▁Peut-",
        -10.293023625314538
      ],
      [
        "▁salut",
        -10.293033841496381
      ],
      [
        "▁propos",
        -10.293049035836919
      ],
      [
        "▁ancien",
        -10.293055829191307
      ],
      [
        "▁sous-",
        -10.293060256903246
      ],
      [
        "▁inter",
        -10.293069193950942
      ],
      [
        "▁plante",
        -10.293086444915616
      ],
      [
        "▁rëy",
        -10.293147322298786
      ],
      [
        "▁pleure",
        -10.293151035996363
      ],
      [
        "âche",
        -10.293154648438488
      ],
      [
        "▁écriture",
        -10.293157421446553
      ],
      [
        "▁faneetar",
        -10.293168410815152
      ],
      [
        "pérer",
        -10.293199718980965
      ],
      [
        "▁visite",
        -10.293344065894727
      ],
      [
        "▁Musta",
        -10.293364313450422
      ],
      [
        "cture",
        -10.293409532214621
      ],
      [
        "▁gàdd",
        -10.293482276140995
      ],
      [
        "▁yeggee",
        -10.29357866807793
      ],
      [
        "▁vous-même",
        -10.293621708354218
      ],
      [
        "▁fanaan",
        -10.2936395555224
      ],
      [
        "▁cubb",
        -10.293653623757669
      ],
      [
        "▁jumaa",
        -10.29368096182658
      ],
      [
        "▁ndigg",
        -10.293690784615324
      ],
      [
        "sant",
        -10.293714336133077
      ],
      [
        "▁gardé",
        -10.293733829388241
      ],
      [
        "▁Dellu",
        -10.293753594812214
      ],
      [
        "▁toi-même",
        -10.293754353880393
      ],
      [
        "▁moi-même",
        -10.293785455795172
      ],
      [
        "vêt",
        -10.293866480677814
      ],
      [
        "▁j'apprécie",
        -10.293925965941405
      ],
      [
        "▁moyen",
        -10.294082753601138
      ],
      [
        "▁bënn",
        -10.29412371008001
      ],
      [
        "▁echelle",
        -10.294167389661188
      ],
      [
        "▁Lebou",
        -10.294200234141321
      ],
      [
        "▁droit",
        -10.294214139208961
      ],
      [
        "▁élevage",
        -10.294417809961903
      ],
      [
        "assoupi",
        -10.294554937761792
      ],
      [
        "▁Wutël",
        -10.294602918345948
      ],
      [
        "▁Arr",
        -10.29465298040422
      ],
      [
        "axkoon",
        -10.294689324357353
      ],
      [
        "▁public",
        -10.294815118261155
      ],
      [
        "▁Chacun",
        -10.294861344650815
      ],
      [
        "aune'",
        -10.294868671143112
      ],
      [
        "▁go",
        -10.294901706990082
      ],
      [
        "▁Dugg",
        -10.295024981829481
      ],
      [
        "▁accompagné",
        -10.295049695019372
      ],
      [
        "▁karo",
        -10.295127982978778
      ],
      [
        "▁waawaaw",
        -10.295175163387505
      ],
      [
        "▁tissées",
        -10.295218052621525
      ],
      [
        "▁tayel",
        -10.295230331672482
      ],
      [
        "▁googu",
        -10.295300923316175
      ],
      [
        "▁doj",
        -10.295338232738823
      ],
      [
        "▁monter",
        -10.295368526941576
      ],
      [
        "taine",
        -10.295400846059248
      ],
      [
        "ablement",
        -10.295567935832889
      ],
      [
        "▁t'aurai",
        -10.295664694934771
      ],
      [
        "époque",
        -10.295711020174146
      ],
      [
        "▁Bira",
        -10.295805815620248
      ],
      [
        "▁kulëer",
        -10.295915111589249
      ],
      [
        "▁seef",
        -10.29604827881625
      ],
      [
        "▁kukk",
        -10.296103863268852
      ],
      [
        "▁degg",
        -10.29611605818119
      ],
      [
        "▁bomb",
        -10.296275467473048
      ],
      [
        "▁loxoom",
        -10.296302528743844
      ],
      [
        "▁gymnas",
        -10.29630778382039
      ],
      [
        "▁cohabitent",
        -10.296329875255363
      ],
      [
        "iroir",
        -10.296396285598286
      ],
      [
        "ter",
        -10.296410757030124
      ],
      [
        "aucun",
        -10.296547328585723
      ],
      [
        "▁dawul",
        -10.29667892791934
      ],
      [
        "▁suivent",
        -10.296915547977854
      ],
      [
        "▁mucc",
        -10.296943787784455
      ],
      [
        "▁révoltent",
        -10.297071296609872
      ],
      [
        "▁serré",
        -10.297084666358396
      ],
      [
        "▁wutal",
        -10.297119226001495
      ],
      [
        "▁fatt",
        -10.298073338615579
      ],
      [
        "▁janool",
        -10.298132611598092
      ],
      [
        "▁D'autre",
        -10.29833496114964
      ],
      [
        "▁wenn",
        -10.298409714751317
      ],
      [
        "▁xeex",
        -10.298960200135141
      ],
      [
        "ngalu",
        -10.299143229894073
      ],
      [
        "▁tàkk",
        -10.299319931680754
      ],
      [
        "▁n'allai",
        -10.299364675148507
      ],
      [
        "▁dégg",
        -10.299423436696914
      ],
      [
        "angasin",
        -10.299437671863057
      ],
      [
        "▁par-là",
        -10.29947396315192
      ],
      [
        "▁coule",
        -10.299496971605562
      ],
      [
        "▁jàll",
        -10.299509525932462
      ],
      [
        "ëgg",
        -10.299537049250663
      ],
      [
        "▁Sénégal'",
        -10.299668185936348
      ],
      [
        "oppal",
        -10.29996811863925
      ],
      [
        "ayim",
        -10.300135334195051
      ],
      [
        "▁film",
        -10.300438777569402
      ],
      [
        "éro",
        -10.300492551693072
      ],
      [
        "ttali",
        -10.300645859867762
      ],
      [
        "nive",
        -10.300711001708505
      ],
      [
        "▁moroom",
        -10.300814297315927
      ],
      [
        "▁ardo",
        -10.300931549739886
      ],
      [
        "▁travaillait",
        -10.300937719930326
      ],
      [
        "▁Eux",
        -10.301060050456988
      ],
      [
        "soup",
        -10.301285426550889
      ],
      [
        "▁casque",
        -10.301519162701902
      ],
      [
        "▁mang",
        -10.301538788636682
      ],
      [
        "▁écla",
        -10.301541244218242
      ],
      [
        "allum",
        -10.301545408424477
      ],
      [
        "▁publi",
        -10.301629461679598
      ],
      [
        "▁dajal",
        -10.301880444936106
      ],
      [
        "▁Kaay",
        -10.301945827304023
      ],
      [
        "opp",
        -10.302289990050388
      ],
      [
        "▁yeg",
        -10.30240592274129
      ],
      [
        "▁différentes",
        -10.302672651138177
      ],
      [
        "▁ñorul",
        -10.303123538829563
      ],
      [
        "▁àndal",
        -10.303192001891972
      ],
      [
        "joor",
        -10.30356166436514
      ],
      [
        "ifique",
        -10.30368750108516
      ],
      [
        "▁sës",
        -10.303719316251467
      ],
      [
        "'entend",
        -10.303817273405894
      ],
      [
        "▁sommet",
        -10.30412151019879
      ],
      [
        "▁Ko",
        -10.304215146501118
      ],
      [
        "▁s'asse",
        -10.304793498691845
      ],
      [
        "▁voyage",
        -10.305198224958737
      ],
      [
        "▁bëggé",
        -10.305776289880663
      ],
      [
        "▁ginnaawam",
        -10.305788455676513
      ],
      [
        "gico",
        -10.305947011573304
      ],
      [
        "▁police",
        -10.306278293221355
      ],
      [
        "après-",
        -10.306502190856728
      ],
      [
        "ydina",
        -10.306717367452276
      ],
      [
        "outer",
        -10.307929533647616
      ],
      [
        "habitent",
        -10.308062985003671
      ],
      [
        "ssion",
        -10.308559006395933
      ],
      [
        "▁fë",
        -10.309457901769289
      ],
      [
        "▁fekke",
        -10.309689872780787
      ],
      [
        "▁éga",
        -10.309703959202192
      ],
      [
        "gël",
        -10.310420260319525
      ],
      [
        "▁retrouv",
        -10.310497954193213
      ],
      [
        "mbres",
        -10.311733055159026
      ],
      [
        "▁séq",
        -10.312273415856689
      ],
      [
        "ëlé",
        -10.313619938572103
      ],
      [
        "ëk",
        -10.31411012972808
      ],
      [
        "▁bëggu",
        -10.314874309726234
      ],
      [
        "▁lieux",
        -10.315475737570527
      ],
      [
        "quelles",
        -10.315743317103246
      ],
      [
        "▁Daawul",
        -10.316067468821629
      ],
      [
        "▁Léeg",
        -10.316348793682998
      ],
      [
        "▁pieds",
        -10.317355959639354
      ],
      [
        "▁remplie",
        -10.317395486879683
      ],
      [
        "▁voulai",
        -10.317413644941004
      ],
      [
        "▁voies",
        -10.31770460050992
      ],
      [
        "▁ame",
        -10.317730020798168
      ],
      [
        "▁d'elle",
        -10.319548067570185
      ],
      [
        "▁laiss",
        -10.320732334938095
      ],
      [
        "▁char",
        -10.32097284742397
      ],
      [
        "▁surv",
        -10.321218898364718
      ],
      [
        "▁tée",
        -10.321472761442735
      ],
      [
        "import",
        -10.321806892884393
      ],
      [
        "▁doyu",
        -10.322078585136408
      ],
      [
        "▁jusqu'ici",
        -10.323419782363066
      ],
      [
        "▁doomam",
        -10.323788111236036
      ],
      [
        "▁melo",
        -10.32459726146525
      ],
      [
        "▁vertu",
        -10.324863195616336
      ],
      [
        "rdo",
        -10.326134725281317
      ],
      [
        "▁content",
        -10.326831727167338
      ],
      [
        "▁rencontre",
        -10.327478802482094
      ],
      [
        "jet",
        -10.327613112940414
      ],
      [
        "ooñii",
        -10.327652843475644
      ],
      [
        "▁fen",
        -10.32818434843324
      ],
      [
        "▁entrer",
        -10.328995044718729
      ],
      [
        "▁élev",
        -10.329066802891788
      ],
      [
        "▁arriva",
        -10.329255693861525
      ],
      [
        "àgg",
        -10.330247478407724
      ],
      [
        "▁rentrer",
        -10.330866194642088
      ],
      [
        "▁poli",
        -10.330962599810828
      ],
      [
        "▁Ex",
        -10.331060659532076
      ],
      [
        "dina",
        -10.333001767112338
      ],
      [
        "lise",
        -10.333415568550183
      ],
      [
        "▁ben",
        -10.333909477159807
      ],
      [
        "saŋ",
        -10.33400696490343
      ],
      [
        "▁fini",
        -10.334675777661076
      ],
      [
        "angé",
        -10.335225501632943
      ],
      [
        "▁bëggoon",
        -10.33524901576872
      ],
      [
        "kkan",
        -10.33541571007521
      ],
      [
        "▁convers",
        -10.336589732555517
      ],
      [
        "▁Ab",
        -10.336647574198958
      ],
      [
        "▁conna",
        -10.336803814336315
      ],
      [
        "nég",
        -10.337682781636186
      ],
      [
        "▁lionne",
        -10.33809201443476
      ],
      [
        "gu",
        -10.338219966395961
      ],
      [
        "▁Xay",
        -10.338602874178564
      ],
      [
        "supp",
        -10.339469473877175
      ],
      [
        "illage",
        -10.340056689796704
      ],
      [
        "euilles",
        -10.34012027216688
      ],
      [
        "nde",
        -10.34047366582312
      ],
      [
        "accompagne",
        -10.34081195247252
      ],
      [
        "pe",
        -10.342019659049605
      ],
      [
        "▁dedans",
        -10.34224768205501
      ],
      [
        "▁gaal",
        -10.342305764782424
      ],
      [
        "jj",
        -10.343259009070277
      ],
      [
        "sard",
        -10.343812714423894
      ],
      [
        "▁fût",
        -10.343840964475884
      ],
      [
        "▁Mer",
        -10.344721243975037
      ],
      [
        "▁metti",
        -10.34500714272729
      ],
      [
        "endant",
        -10.346053970224837
      ],
      [
        "▁bëtt",
        -10.34635008635255
      ],
      [
        "aisir",
        -10.34676059176942
      ],
      [
        "▁étage",
        -10.346794258614365
      ],
      [
        "ññ",
        -10.347043094166493
      ],
      [
        "mps",
        -10.34834574950917
      ],
      [
        "▁të",
        -10.350486826720644
      ],
      [
        "▁voulez",
        -10.351716138441514
      ],
      [
        "▁n'av",
        -10.352328833142344
      ],
      [
        "▁senn",
        -10.356118482262143
      ],
      [
        "▁ouverte",
        -10.356162999768909
      ],
      [
        "▁Amin",
        -10.356515201152229
      ],
      [
        "dimbal",
        -10.356889408064468
      ],
      [
        "C'est",
        -10.35778311066579
      ],
      [
        "▁solo",
        -10.358547461528456
      ],
      [
        "▁Jamm",
        -10.358898548269925
      ],
      [
        "▁xaritam",
        -10.359838049244317
      ],
      [
        "▁s'écha",
        -10.362054289941259
      ],
      [
        "da",
        -10.362726391517166
      ],
      [
        "▁sta",
        -10.364064222933917
      ],
      [
        "▁blanches.",
        -10.364093195586703
      ],
      [
        "▁chauff",
        -10.364553071565961
      ],
      [
        "▁taba",
        -10.365286647420728
      ],
      [
        "▁échelle",
        -10.365740068214585
      ],
      [
        "▁marchan",
        -10.367385472661713
      ],
      [
        "▁exc",
        -10.36755383979462
      ],
      [
        "gaam",
        -10.36829427460842
      ],
      [
        "▁waxtu",
        -10.368972342566433
      ],
      [
        "▁kote",
        -10.370242171819084
      ],
      [
        "aaka",
        -10.371969661176156
      ],
      [
        "óox",
        -10.372171105578875
      ],
      [
        "ourri",
        -10.372370297645531
      ],
      [
        "▁Nde",
        -10.372932029996196
      ],
      [
        "▁daawu",
        -10.37374353637048
      ],
      [
        "▁salaam",
        -10.374390431576616
      ],
      [
        "ver",
        -10.374908493613484
      ],
      [
        "▁lumi",
        -10.375452015234309
      ],
      [
        "▁wut",
        -10.37586359824207
      ],
      [
        "▁nanu",
        -10.376327976583305
      ],
      [
        "emal",
        -10.377035582325163
      ],
      [
        "ve",
        -10.37704546683452
      ],
      [
        "ërëm",
        -10.377452976959013
      ],
      [
        "allong",
        -10.377613505318685
      ],
      [
        "▁joo",
        -10.378266143912896
      ],
      [
        "séd",
        -10.380911495798497
      ],
      [
        "▁jale",
        -10.38211755101588
      ],
      [
        "bb",
        -10.383327173841547
      ],
      [
        "edress",
        -10.383610972782396
      ],
      [
        "lusi",
        -10.385123290575955
      ],
      [
        "▁déc",
        -10.385687963317405
      ],
      [
        "doo",
        -10.386016095758505
      ],
      [
        "▁rafetul",
        -10.386427394808958
      ],
      [
        "▁tenue",
        -10.386833213098335
      ],
      [
        "deau",
        -10.387500563161367
      ],
      [
        "▁dam",
        -10.387620042049495
      ],
      [
        "uloo",
        -10.387865012301095
      ],
      [
        "▁Don",
        -10.387901478264503
      ],
      [
        "u-",
        -10.388486397194036
      ],
      [
        "aî",
        -10.388631041783627
      ],
      [
        "ple",
        -10.389205356518142
      ],
      [
        "▁bavard",
        -10.390147795882662
      ],
      [
        "▁Wau",
        -10.390158119145303
      ],
      [
        "kka",
        -10.391292516588955
      ],
      [
        "▁s'assi",
        -10.391783739589615
      ],
      [
        "▁natte",
        -10.391997728927807
      ],
      [
        "lóo",
        -10.39267221225274
      ],
      [
        "▁léeg",
        -10.39387251124305
      ],
      [
        "lement",
        -10.394942228641625
      ],
      [
        "ures",
        -10.395660135529326
      ],
      [
        "▁ét",
        -10.39745280896401
      ],
      [
        "▁ndugge",
        -10.398494377752591
      ],
      [
        "▁amoon",
        -10.398678294706551
      ],
      [
        "▁Wooy",
        -10.39940151038552
      ],
      [
        "uur",
        -10.399865315905085
      ],
      [
        "cult",
        -10.401712120180353
      ],
      [
        "▁attrape",
        -10.40178590341694
      ],
      [
        "▁compos",
        -10.403983655311706
      ],
      [
        "ërëb",
        -10.40451470612584
      ],
      [
        "▁Ñi",
        -10.404531418598083
      ],
      [
        "▁mal",
        -10.405031634921972
      ],
      [
        "aaw",
        -10.405088280575969
      ],
      [
        "▁jamb",
        -10.40667225419897
      ],
      [
        "omp",
        -10.407840330540102
      ],
      [
        "▁tol",
        -10.40851248357038
      ],
      [
        "▁Non",
        -10.409897739023299
      ],
      [
        "puisé",
        -10.41163791410946
      ],
      [
        "▁baga",
        -10.41170066016948
      ],
      [
        "▁morts",
        -10.414772301453489
      ],
      [
        "tenu",
        -10.415625983688104
      ],
      [
        "seen",
        -10.416200161311785
      ],
      [
        "'étudiant",
        -10.41857456383398
      ],
      [
        "iyaar",
        -10.419117740624964
      ],
      [
        "▁Sen",
        -10.41968832375041
      ],
      [
        "▁Mel",
        -10.42042393113523
      ],
      [
        "▁court",
        -10.421754949538354
      ],
      [
        "▁lekku",
        -10.422867096097626
      ],
      [
        "▁présidents",
        -10.423078991708365
      ],
      [
        "naaw",
        -10.424371334677428
      ],
      [
        "▁reconn",
        -10.424428037931312
      ],
      [
        "▁noon",
        -10.424977591762973
      ],
      [
        "▁née",
        -10.426927380530687
      ],
      [
        "▁noo",
        -10.427229218204838
      ],
      [
        "▁donner",
        -10.428274254424798
      ],
      [
        "▁réc",
        -10.428946485334567
      ],
      [
        "▁blanches",
        -10.431461216844403
      ],
      [
        "▁taar",
        -10.434081278392762
      ],
      [
        "añ",
        -10.435150877795667
      ],
      [
        "▁siy",
        -10.436956170721245
      ],
      [
        "biir",
        -10.439230688980729
      ],
      [
        "pas",
        -10.439967194172592
      ],
      [
        "tions",
        -10.440242396132156
      ],
      [
        "▁après-",
        -10.4414334091648
      ],
      [
        "oudre",
        -10.442907455474748
      ],
      [
        "▁saisi",
        -10.442945393152074
      ],
      [
        "▁Amu",
        -10.445238193946665
      ],
      [
        "▁saura",
        -10.44620837970054
      ],
      [
        "utt",
        -10.446608435456625
      ],
      [
        "caak",
        -10.448870578872588
      ],
      [
        "▁faç",
        -10.449940245350971
      ],
      [
        "nee",
        -10.450285431243499
      ],
      [
        "eek",
        -10.455381853092039
      ],
      [
        "▁s'agiss",
        -10.456681686534672
      ],
      [
        "esquel",
        -10.46106749932362
      ],
      [
        "ire",
        -10.46121097673502
      ],
      [
        "waaw",
        -10.461332670400093
      ],
      [
        "▁jour.",
        -10.4621761550119
      ],
      [
        "▁baar",
        -10.465987420254041
      ],
      [
        "aix",
        -10.467199656423528
      ],
      [
        "waa",
        -10.467292066640358
      ],
      [
        "enez",
        -10.468409774234683
      ],
      [
        "..",
        -10.469071673370633
      ],
      [
        "▁entr",
        -10.470050348424541
      ],
      [
        "▁way",
        -10.47034233029466
      ],
      [
        "▁rap",
        -10.47225110614372
      ],
      [
        "onvers",
        -10.473164396858147
      ],
      [
        "jud",
        -10.473632581815043
      ],
      [
        "▁armes",
        -10.475125245536148
      ],
      [
        "mant",
        -10.475415244822129
      ],
      [
        "▁réewu",
        -10.476381696645493
      ],
      [
        "yit",
        -10.476557254568652
      ],
      [
        "▁voul",
        -10.477346591584487
      ],
      [
        "ful",
        -10.482399141059435
      ],
      [
        "▁bols",
        -10.483223275590628
      ],
      [
        "'euss",
        -10.484251370411748
      ],
      [
        "agnes",
        -10.490866295029681
      ],
      [
        "▁reveni",
        -10.491800307534223
      ],
      [
        "▁jee",
        -10.493075704652531
      ],
      [
        "lle",
        -10.493425538568475
      ],
      [
        "aintenant",
        -10.494826501546102
      ],
      [
        "ste",
        -10.495094354557242
      ],
      [
        "▁meneen",
        -10.498561778353452
      ],
      [
        "alante",
        -10.500453116544788
      ],
      [
        "nag",
        -10.501050650266457
      ],
      [
        "eau",
        -10.501322302394406
      ],
      [
        "▁Mets",
        -10.502458826832692
      ],
      [
        "achi",
        -10.503298948863788
      ],
      [
        "lëer",
        -10.507080890604465
      ],
      [
        "meur",
        -10.507868676309569
      ],
      [
        "-nd",
        -10.509287352004465
      ],
      [
        "orts",
        -10.509356438225247
      ],
      [
        "iennent",
        -10.510393952631253
      ],
      [
        "cot",
        -10.515048399172779
      ],
      [
        "▁nan",
        -10.516521179362456
      ],
      [
        "▁ciment",
        -10.51733428436488
      ],
      [
        "▁Baa",
        -10.519239138375893
      ],
      [
        "venu",
        -10.52153210402452
      ],
      [
        "▁petits",
        -10.521884531820572
      ],
      [
        "▁all",
        -10.522040709677375
      ],
      [
        "▁étalée",
        -10.527180716688989
      ],
      [
        "óol",
        -10.527428563324273
      ],
      [
        "▁sar",
        -10.527492484296076
      ],
      [
        "▁sub",
        -10.528599332729492
      ],
      [
        "uñ",
        -10.529028901587031
      ],
      [
        "▁sé",
        -10.53044005146306
      ],
      [
        "éra",
        -10.53077124346379
      ],
      [
        "rie",
        -10.532565874501032
      ],
      [
        "he",
        -10.535216011192245
      ],
      [
        "naiss",
        -10.538615734919869
      ],
      [
        "▁posée",
        -10.538822045511164
      ],
      [
        "iy",
        -10.540793138524972
      ],
      [
        "iques",
        -10.541242232545978
      ],
      [
        "bar",
        -10.543815545636297
      ],
      [
        "▁carre",
        -10.545815338920598
      ],
      [
        "▁trouver",
        -10.551301548740392
      ],
      [
        "homme",
        -10.55285309058564
      ],
      [
        "ène",
        -10.555651272075787
      ],
      [
        "▁kà",
        -10.558448671883308
      ],
      [
        "▁voi",
        -10.560440322518307
      ],
      [
        "ges",
        -10.563102290763366
      ],
      [
        "egarde",
        -10.565186190437542
      ],
      [
        "'arbre",
        -10.565639350689205
      ],
      [
        "▁l'as",
        -10.566708284063857
      ],
      [
        "endi",
        -10.566887067493296
      ],
      [
        "bine",
        -10.566954079436199
      ],
      [
        "min",
        -10.57162757695629
      ],
      [
        "▁saw",
        -10.572014140324509
      ],
      [
        "▁sortie",
        -10.572138037255971
      ],
      [
        "sid",
        -10.576062899789132
      ],
      [
        "▁Xarit",
        -10.577730962725386
      ],
      [
        "eux-ci",
        -10.579403058172753
      ],
      [
        "▁cere",
        -10.579785117941672
      ],
      [
        "qu'il",
        -10.579944998321988
      ],
      [
        "la.",
        -10.581588989520526
      ],
      [
        "▁monta",
        -10.581915189375906
      ],
      [
        "▁né",
        -10.58376933428232
      ],
      [
        "▁Ñung",
        -10.584256714645793
      ],
      [
        "sort",
        -10.5868880539108
      ],
      [
        "eg",
        -10.587398582887944
      ],
      [
        "▁goog",
        -10.588749581665985
      ],
      [
        "▁pot",
        -10.590035304483742
      ],
      [
        "sées",
        -10.59014806869658
      ],
      [
        "▁voie",
        -10.59056245161481
      ],
      [
        "▁habite",
        -10.591308932137668
      ],
      [
        "iwaa",
        -10.59280054722123
      ],
      [
        "iron",
        -10.5950068552802
      ],
      [
        "▁i",
        -10.59650729914562
      ],
      [
        "endu",
        -10.596758848813685
      ],
      [
        "▁Pl",
        -10.597449628013052
      ],
      [
        "▁sembl",
        -10.599789281486242
      ],
      [
        "-même",
        -10.600974615094714
      ],
      [
        "▁nja",
        -10.60291973920792
      ],
      [
        "▁marché.",
        -10.603974639132216
      ],
      [
        "'il",
        -10.605334580611517
      ],
      [
        "▁prom",
        -10.609518172546522
      ],
      [
        "▁pointe",
        -10.610644561706783
      ],
      [
        "sage",
        -10.611778146715885
      ],
      [
        "▁wal",
        -10.611812841880575
      ],
      [
        "▁x",
        -10.614201496584666
      ],
      [
        "bal",
        -10.617158725441186
      ],
      [
        "ŋk",
        -10.617598864760529
      ],
      [
        "off",
        -10.620149735264347
      ],
      [
        "wu",
        -10.621079991891431
      ],
      [
        "ière",
        -10.62133734203764
      ],
      [
        "om",
        -10.621898406413596
      ],
      [
        "▁dey",
        -10.622886800784006
      ],
      [
        "amul",
        -10.62832615175742
      ],
      [
        "▁layu",
        -10.628775131675745
      ],
      [
        "▁manifeste",
        -10.633599698897394
      ],
      [
        "yam",
        -10.634506839704985
      ],
      [
        "nces",
        -10.639884316747878
      ],
      [
        "▁filles",
        -10.640735644894711
      ],
      [
        "▁rag",
        -10.64251967791183
      ],
      [
        "ort",
        -10.644863098524528
      ],
      [
        "ol",
        -10.644933839798895
      ],
      [
        "▁nur",
        -10.645182841706069
      ],
      [
        "▁mur",
        -10.645898020338066
      ],
      [
        "'étai",
        -10.650901418450063
      ],
      [
        "din",
        -10.651451242596362
      ],
      [
        "▁heureu",
        -10.654335815138847
      ],
      [
        "▁serv",
        -10.654451469730652
      ],
      [
        "▁tire",
        -10.657828635442423
      ],
      [
        "▁doxu",
        -10.660007584323417
      ],
      [
        "▁tii",
        -10.660492407525334
      ],
      [
        "▁conçues",
        -10.663662840499113
      ],
      [
        "▁cat",
        -10.665576424096098
      ],
      [
        "▁Sor",
        -10.666704567160885
      ],
      [
        "▁We",
        -10.671459696614017
      ],
      [
        "uróom-ñ",
        -10.672314802190307
      ],
      [
        "mal",
        -10.673096964122772
      ],
      [
        "▁tir",
        -10.674206477249049
      ],
      [
        "▁donn",
        -10.676669835282004
      ],
      [
        "▁jà",
        -10.677035711354458
      ],
      [
        "▁defee",
        -10.678866708466586
      ],
      [
        "▁vent",
        -10.680040898762742
      ],
      [
        "ront",
        -10.683468464564143
      ],
      [
        "▁Ou",
        -10.685462844472374
      ],
      [
        "waal",
        -10.689967149413162
      ],
      [
        "▁cu",
        -10.690547255277426
      ],
      [
        "llu",
        -10.69190758223603
      ],
      [
        "Il",
        -10.692101156398063
      ],
      [
        "ité",
        -10.692285957910206
      ],
      [
        "entourant",
        -10.692860342516983
      ],
      [
        "▁rentr",
        -10.694191589363264
      ],
      [
        "abax",
        -10.697963377337697
      ],
      [
        "▁Wan",
        -10.697979662208862
      ],
      [
        "▁eu",
        -10.699177573865104
      ],
      [
        "ooga",
        -10.707807795738603
      ],
      [
        "▁cou",
        -10.70931045035264
      ],
      [
        "elui-ci",
        -10.71041529652636
      ],
      [
        "ang",
        -10.711136142302099
      ],
      [
        "▁naaj",
        -10.713606319190948
      ],
      [
        "li",
        -10.71721560362675
      ],
      [
        "aam",
        -10.718588607808705
      ],
      [
        "uits",
        -10.718877058620329
      ],
      [
        "ans",
        -10.723122297610985
      ],
      [
        "▁juu",
        -10.724857451793786
      ],
      [
        "▁manifest",
        -10.726619803019712
      ],
      [
        "▁Bëggu",
        -10.72712910361895
      ],
      [
        "▁accompagne",
        -10.727546660098902
      ],
      [
        "▁Ang",
        -10.72950805267848
      ],
      [
        "▁tra",
        -10.730916099890099
      ],
      [
        "veux",
        -10.735378011481606
      ],
      [
        "bale",
        -10.738363609942546
      ],
      [
        "lig",
        -10.740010614249819
      ],
      [
        "wax",
        -10.741592326973143
      ],
      [
        "orsqu",
        -10.748400140682397
      ],
      [
        "ur.",
        -10.749511388121967
      ],
      [
        "rog",
        -10.749685005522826
      ],
      [
        "▁Set",
        -10.752242130824651
      ],
      [
        "yul",
        -10.756297179108483
      ],
      [
        "▁jeu",
        -10.762806961580544
      ],
      [
        "ton",
        -10.764203632009387
      ],
      [
        "ch",
        -10.766331432913473
      ],
      [
        "n.",
        -10.770482188466609
      ],
      [
        "nez",
        -10.773947530919001
      ],
      [
        "omu",
        -10.775451819983346
      ],
      [
        "▁tawa",
        -10.778024503186371
      ],
      [
        "i-",
        -10.784384193179735
      ],
      [
        "g.",
        -10.78517775309292
      ],
      [
        "▁dà",
        -10.78629863946706
      ],
      [
        "éri",
        -10.78878778747894
      ],
      [
        "▁Saa",
        -10.789025926456112
      ],
      [
        "res",
        -10.790056033197105
      ],
      [
        "▁poissons",
        -10.790097801506509
      ],
      [
        "▁d'o",
        -10.793392621999704
      ],
      [
        "▁xal",
        -10.794475930133869
      ],
      [
        "▁Té",
        -10.796110851602675
      ],
      [
        "api",
        -10.799409266979849
      ],
      [
        "▁lee",
        -10.81028427006359
      ],
      [
        "▁Deñ",
        -10.811073132791286
      ],
      [
        "pi",
        -10.811993339694958
      ],
      [
        "ŋgoo",
        -10.812150684069419
      ],
      [
        "ndio",
        -10.813432197761184
      ],
      [
        "nge",
        -10.819824342686509
      ],
      [
        "woo",
        -10.819936764386426
      ],
      [
        "▁habit",
        -10.82125452956298
      ],
      [
        "▁jou",
        -10.823787454449832
      ],
      [
        "▁dencu",
        -10.82681681072232
      ],
      [
        "nce",
        -10.82893972195786
      ],
      [
        "ttais",
        -10.830089771245216
      ],
      [
        "ais-t",
        -10.831388246584195
      ],
      [
        "entré",
        -10.832030309601578
      ],
      [
        "▁lë",
        -10.837326542602089
      ],
      [
        "▁devi",
        -10.841142179525473
      ],
      [
        "eel",
        -10.841981440255331
      ],
      [
        "rée",
        -10.842576376615177
      ],
      [
        "▁joxo",
        -10.844211338421113
      ],
      [
        "ide",
        -10.848223269377874
      ],
      [
        "▁comm",
        -10.85027069572055
      ],
      [
        "ande",
        -10.852708642529205
      ],
      [
        "sin",
        -10.855187380837384
      ],
      [
        "▁ge",
        -10.859036211384014
      ],
      [
        "▁Jusqu'",
        -10.867096960895534
      ],
      [
        "▁assise",
        -10.86781287351478
      ],
      [
        "posés",
        -10.872258738398687
      ],
      [
        "'aurai",
        -10.874919009299118
      ],
      [
        "ha",
        -10.874955777206436
      ],
      [
        "gale",
        -10.875078528794777
      ],
      [
        "▁desquel",
        -10.876240772327177
      ],
      [
        "▁tonn",
        -10.876312975082927
      ],
      [
        "cri",
        -10.877836657976161
      ],
      [
        "▁accompagn",
        -10.879111598427594
      ],
      [
        "matu",
        -10.8862944454746
      ],
      [
        "to",
        -10.892490827376385
      ],
      [
        "ets-t",
        -10.892985009878933
      ],
      [
        "À",
        -10.893572349435106
      ],
      [
        "aumône",
        -10.896959725945905
      ],
      [
        "▁naata",
        -10.898229912988423
      ],
      [
        "allu",
        -10.90036383751506
      ],
      [
        "rs",
        -10.90117103839039
      ],
      [
        "rom",
        -10.902012458999257
      ],
      [
        "▁l'on",
        -10.906020752159144
      ],
      [
        "vers",
        -10.909886277189443
      ],
      [
        "son",
        -10.9132070202507
      ],
      [
        "éegu",
        -10.91428159667943
      ],
      [
        "▁seeta",
        -10.915381180329167
      ],
      [
        "▁Leb",
        -10.917092857117508
      ],
      [
        "lait",
        -10.917891130544852
      ],
      [
        "poisson",
        -10.918657106087913
      ],
      [
        "sur",
        -10.918978001651304
      ],
      [
        "m.",
        -10.920852587750634
      ],
      [
        "ngel",
        -10.922572010560296
      ],
      [
        "intérieur",
        -10.923083887660177
      ],
      [
        "▁rapp",
        -10.923409137504258
      ],
      [
        "ndal",
        -10.924899915517504
      ],
      [
        "argent",
        -10.926168815378217
      ],
      [
        "▁Maan",
        -10.92929463209633
      ],
      [
        "ément",
        -10.930893028650345
      ],
      [
        "que.",
        -10.933484178087797
      ],
      [
        "▁Mas",
        -10.935873837344108
      ],
      [
        "▁voici.",
        -10.938519212982555
      ],
      [
        "con",
        -10.942477903012714
      ],
      [
        "alla",
        -10.944427361379569
      ],
      [
        "gée",
        -10.945265745942566
      ],
      [
        "ibbisi",
        -10.947719741929166
      ],
      [
        "▁yen",
        -10.947935596742786
      ],
      [
        "▁utilis",
        -10.951862803668309
      ],
      [
        "▁désir",
        -10.9526751411301
      ],
      [
        "aaya",
        -10.955410719799264
      ],
      [
        "acc",
        -10.957836247107402
      ],
      [
        "vin",
        -10.959523999763332
      ],
      [
        "laay",
        -10.962917879354897
      ],
      [
        "nor",
        -10.963188761184401
      ],
      [
        "I",
        -10.963245359598757
      ],
      [
        "dénk",
        -10.96337209770729
      ],
      [
        "autre",
        -10.963888432255054
      ],
      [
        "▁Fo",
        -10.965306387678961
      ],
      [
        "▁telle",
        -10.967972112950289
      ],
      [
        "▁homm",
        -10.9719448587546
      ],
      [
        "▁auto",
        -10.9738585333114
      ],
      [
        "'appelles",
        -10.975687196678544
      ],
      [
        "▁batta",
        -10.97856161947041
      ],
      [
        "joo",
        -10.978892143617443
      ],
      [
        "aujourd'hui",
        -10.983619540340028
      ],
      [
        "én",
        -10.984522191274285
      ],
      [
        "▁énorm",
        -10.98491077344006
      ],
      [
        "rte",
        -10.987840362227887
      ],
      [
        "▁want",
        -10.989955614184485
      ],
      [
        "uuti",
        -10.992312766940861
      ],
      [
        "table",
        -10.992901121654228
      ],
      [
        "em",
        -10.993851627271267
      ],
      [
        "▁sont-",
        -10.995242546199279
      ],
      [
        "ñuul.",
        -10.995792494729477
      ],
      [
        "▁J'a",
        -10.996634331403703
      ],
      [
        "▁fermé",
        -10.998058424724487
      ],
      [
        "▁boob",
        -10.998204749880468
      ],
      [
        "takk-der",
        -11.001846775628428
      ],
      [
        "▁nj",
        -11.003470986732328
      ],
      [
        "avion",
        -11.00916617522253
      ],
      [
        "▁Bule",
        -11.01057324863251
      ],
      [
        "▁lalu",
        -11.013345608932795
      ],
      [
        "rob",
        -11.0138549854651
      ],
      [
        "▁reven",
        -11.01831540954785
      ],
      [
        "jour",
        -11.018924720506773
      ],
      [
        "vu",
        -11.019286216956399
      ],
      [
        "viendra",
        -11.019403978034111
      ],
      [
        "ati",
        -11.019482936318644
      ],
      [
        "idé",
        -11.019540943038388
      ],
      [
        "étudiant",
        -11.02802328082079
      ],
      [
        "▁Gej",
        -11.029756964032817
      ],
      [
        "abar",
        -11.030882994428783
      ],
      [
        "dée",
        -11.039199762396048
      ],
      [
        "dit",
        -11.039545901470598
      ],
      [
        "▁souhait",
        -11.041172837214532
      ],
      [
        "ogul",
        -11.041208265885261
      ],
      [
        "uit",
        -11.041532659512344
      ],
      [
        "▁demand",
        -11.042429755299782
      ],
      [
        "▁Fe",
        -11.044143860192404
      ],
      [
        "▁Bë",
        -11.045140070211056
      ],
      [
        "atant",
        -11.050490319580112
      ],
      [
        "bëggée",
        -11.051760099327993
      ],
      [
        "vertes",
        -11.054041659497738
      ],
      [
        "chaise",
        -11.054694225789259
      ],
      [
        "▁form",
        -11.05598300233802
      ],
      [
        "▁ri",
        -11.057399287876269
      ],
      [
        "Mon",
        -11.058353313760747
      ],
      [
        "▁Pa",
        -11.059603981922304
      ],
      [
        "▁cour",
        -11.060474623839768
      ],
      [
        "dessin",
        -11.060619580710867
      ],
      [
        "çon",
        -11.062680624876286
      ],
      [
        "panier",
        -11.06314843616698
      ],
      [
        "antee",
        -11.063743779923938
      ],
      [
        "ana",
        -11.064181370539547
      ],
      [
        "▁ndà",
        -11.064252588732867
      ],
      [
        "▁ñuu",
        -11.06631156569812
      ],
      [
        "▁qua",
        -11.066540433301624
      ],
      [
        "ñaxtu",
        -11.067935373157509
      ],
      [
        "marché",
        -11.06904606711874
      ],
      [
        "kku",
        -11.069279300333074
      ],
      [
        "▁cara",
        -11.069617575650424
      ],
      [
        "▁refus",
        -11.071215420546327
      ],
      [
        "écrit",
        -11.0727533871833
      ],
      [
        "gukaay",
        -11.073184824089775
      ],
      [
        "Par",
        -11.073404481576462
      ],
      [
        "▁pouv",
        -11.073608752836634
      ],
      [
        "côté",
        -11.077391872205602
      ],
      [
        "ui.",
        -11.077520974705688
      ],
      [
        "demain",
        -11.077566251607019
      ],
      [
        "▁envoyé",
        -11.082665344783399
      ],
      [
        "bba",
        -11.085245595747041
      ],
      [
        "xew",
        -11.086093030272096
      ],
      [
        "id",
        -11.088056462641722
      ],
      [
        "le.",
        -11.088845239618838
      ],
      [
        "▁waxa",
        -11.091233404110652
      ],
      [
        "oreiller",
        -11.092484716215278
      ],
      [
        "fukk",
        -11.095024936362865
      ],
      [
        "▁j'e",
        -11.095138318388946
      ],
      [
        "jàpp",
        -11.09549194527024
      ],
      [
        "▁faa",
        -11.098833892560766
      ],
      [
        "▁yonn",
        -11.098981947729762
      ],
      [
        "▁Voi",
        -11.10060786764555
      ],
      [
        "dans",
        -11.101166950866443
      ],
      [
        "vert",
        -11.10150367750484
      ],
      [
        "ow",
        -11.10220373035232
      ],
      [
        "▁solu",
        -11.103304111065645
      ],
      [
        "▁bër",
        -11.104137932651046
      ],
      [
        "présent",
        -11.108955529477866
      ],
      [
        "▁Xan",
        -11.109371987416656
      ],
      [
        "salaam",
        -11.112819708230608
      ],
      [
        "▁t'app",
        -11.11419664895189
      ],
      [
        "too",
        -11.11616974251687
      ],
      [
        "▁Es",
        -11.120116012083022
      ],
      [
        "ooy",
        -11.12133150549918
      ],
      [
        "née",
        -11.122157532377432
      ],
      [
        "E",
        -11.122518617372629
      ],
      [
        "jours",
        -11.122875168318465
      ],
      [
        "erai",
        -11.124971390484536
      ],
      [
        "▁jaa",
        -11.12594695085516
      ],
      [
        "échelle",
        -11.128911365870962
      ],
      [
        "sent",
        -11.132039846650123
      ],
      [
        "affaire",
        -11.1350383938154
      ],
      [
        "▁Àn",
        -11.13684040983656
      ],
      [
        "habite",
        -11.137211193731128
      ],
      [
        "bout",
        -11.137745249910235
      ],
      [
        "▁Gi",
        -11.13848706466591
      ],
      [
        "cu",
        -11.138807561879723
      ],
      [
        "jul",
        -11.143862005856349
      ],
      [
        "jur",
        -11.145276958405223
      ],
      [
        "▁U",
        -11.149128739260409
      ],
      [
        "mbali",
        -11.150927714209379
      ],
      [
        "arrive",
        -11.15321634207677
      ],
      [
        "sël",
        -11.1555471396516
      ],
      [
        "rëm",
        -11.155776046060016
      ],
      [
        "▁Ñé",
        -11.160869157888401
      ],
      [
        "assiette",
        -11.165451847119169
      ],
      [
        "▁allon",
        -11.165456847303856
      ],
      [
        "▁emp",
        -11.167282518871017
      ],
      [
        "▁exa",
        -11.167774916181473
      ],
      [
        "étage",
        -11.168971240467176
      ],
      [
        "▁ouvert",
        -11.171047813604215
      ],
      [
        "bou",
        -11.17227014943649
      ],
      [
        "attrape",
        -11.173182698010644
      ],
      [
        "▁Tug",
        -11.173757467676813
      ],
      [
        "▁veu",
        -11.174601848166215
      ],
      [
        "▁dan",
        -11.174926637609467
      ],
      [
        "▁bara",
        -11.178782055788353
      ],
      [
        "▁fû",
        -11.181488724833399
      ],
      [
        "sine",
        -11.182709107426268
      ],
      [
        "▁duu",
        -11.183897195124807
      ],
      [
        "▁Gisul",
        -11.185504522663335
      ],
      [
        "▁exce",
        -11.186526878952222
      ],
      [
        "àndarma",
        -11.187815730280002
      ],
      [
        "▁mó",
        -11.189432539826097
      ],
      [
        "▁Ré",
        -11.190385851462915
      ],
      [
        "ô",
        -11.191298177473525
      ],
      [
        "▁rencontr",
        -11.192430637040639
      ],
      [
        "ñca",
        -11.193556305444071
      ],
      [
        "ooñ",
        -11.196504173804096
      ],
      [
        "oy",
        -11.197303329625152
      ],
      [
        "ille-",
        -11.197510600319278
      ],
      [
        "▁hu",
        -11.198514459065166
      ],
      [
        "▁yër",
        -11.198977166996645
      ],
      [
        "sembl",
        -11.199117252783774
      ],
      [
        "irent",
        -11.200610557016152
      ],
      [
        "aang",
        -11.20188973663727
      ],
      [
        "▁appar",
        -11.202603812966341
      ],
      [
        "ition",
        -11.20275593066246
      ],
      [
        "▁personn",
        -11.205231221159728
      ],
      [
        "jóo",
        -11.207109947211123
      ],
      [
        "▁nale",
        -11.209482917736882
      ],
      [
        "▁Jë",
        -11.213143156538836
      ],
      [
        "versé",
        -11.213584635992143
      ],
      [
        "▁course",
        -11.213708105140602
      ],
      [
        "plais",
        -11.21370919057224
      ],
      [
        "▁cli",
        -11.215655526130893
      ],
      [
        "été",
        -11.219798267266585
      ],
      [
        "far",
        -11.220262862932227
      ],
      [
        "ami",
        -11.226780997036425
      ],
      [
        "pax",
        -11.227002922283202
      ],
      [
        "ller",
        -11.229046059038708
      ],
      [
        "émo",
        -11.230557113753905
      ],
      [
        "gay",
        -11.231299786456155
      ],
      [
        "▁rempli",
        -11.23243103550828
      ],
      [
        "uuf",
        -11.23245333179617
      ],
      [
        "▁pied",
        -11.232587856790706
      ],
      [
        "▁Daawu",
        -11.236341542015255
      ],
      [
        "ble",
        -11.240954511173305
      ],
      [
        "tué",
        -11.245214812363603
      ],
      [
        "▁présen",
        -11.250788229161671
      ],
      [
        "▁yónne",
        -11.251400792473902
      ],
      [
        "▁fekk",
        -11.254741654649592
      ],
      [
        "▁kaasam",
        -11.256633004450169
      ],
      [
        "iki",
        -11.259322016567678
      ],
      [
        "▁plat",
        -11.259639249286
      ],
      [
        "▁bâton",
        -11.25965742310928
      ],
      [
        "app",
        -11.260206817420851
      ],
      [
        "ut",
        -11.262181943575042
      ],
      [
        "s-ci",
        -11.262548889793173
      ],
      [
        "▁s'app",
        -11.263775908376672
      ],
      [
        "oyager",
        -11.264614151119225
      ],
      [
        "▁Peut",
        -11.26542964623021
      ],
      [
        "blig",
        -11.268506027483372
      ],
      [
        "▁mbaxan",
        -11.268748375296592
      ],
      [
        "▁së",
        -11.268778932203178
      ],
      [
        "▁concer",
        -11.269449659884883
      ],
      [
        "aire",
        -11.271525755862069
      ],
      [
        "▁jigé",
        -11.27176507863583
      ],
      [
        "eloon",
        -11.27210141762048
      ],
      [
        "▁Yée",
        -11.272676403455918
      ],
      [
        "▁sau",
        -11.273410580913566
      ],
      [
        "écu",
        -11.275213969187956
      ],
      [
        "▁naqa",
        -11.27601402416808
      ],
      [
        "▁Pr",
        -11.277786731132837
      ],
      [
        "bë",
        -11.277903361161048
      ],
      [
        "▁jigée",
        -11.27999931379551
      ],
      [
        "▁tente",
        -11.28028526463496
      ],
      [
        "▁croi",
        -11.28103627537974
      ],
      [
        "'agir",
        -11.281189338261893
      ],
      [
        "▁Ag",
        -11.282228712146573
      ],
      [
        "mnasti",
        -11.284012886328249
      ],
      [
        "échan",
        -11.28443279270793
      ],
      [
        "▁cohabite",
        -11.284896257898364
      ],
      [
        "▁yaak",
        -11.28490927766608
      ],
      [
        "▁yó",
        -11.285655407959919
      ],
      [
        "olitesse",
        -11.28706185177546
      ],
      [
        "elu",
        -11.287204311954687
      ],
      [
        "▁épo",
        -11.287411109230382
      ],
      [
        "perç",
        -11.287425220911803
      ],
      [
        "▁'ve",
        -11.287739176896574
      ],
      [
        "aleeku",
        -11.2898567623086
      ],
      [
        "▁vérit",
        -11.289902860092726
      ],
      [
        "▁étudi",
        -11.290007553466712
      ],
      [
        "▁arme",
        -11.290049958159605
      ],
      [
        "ommag",
        -11.290057773664996
      ],
      [
        "chelle",
        -11.290090289503983
      ],
      [
        "cours",
        -11.291204705859997
      ],
      [
        "eaucoup",
        -11.291309539352625
      ],
      [
        "sang",
        -11.291852655757129
      ],
      [
        "▁fleu",
        -11.292022725273654
      ],
      [
        "neetar",
        -11.292089085092943
      ],
      [
        "▁au-dess",
        -11.292348507888631
      ],
      [
        "▁ŋgee",
        -11.292384133949891
      ],
      [
        "▁mê",
        -11.292530402363866
      ],
      [
        "▁dirige",
        -11.292588337486979
      ],
      [
        "▁certain",
        -11.292589080082038
      ],
      [
        "çue",
        -11.292653272860564
      ],
      [
        "▁kéw",
        -11.292661559457034
      ],
      [
        "ãŋ",
        -11.29266776151681
      ],
      [
        "irgo",
        -11.292674068833369
      ],
      [
        "õ",
        -11.292694184696959
      ],
      [
        "ń",
        -11.292789790164665
      ],
      [
        "]",
        -11.292789790204619
      ],
      [
        "ï",
        -11.292789790204619
      ],
      [
        "ò",
        -11.292789790204619
      ],
      [
        "ā",
        -11.292789790204619
      ],
      [
        "[",
        -11.292789790204619
      ],
      [
        "$",
        -11.292789790204619
      ],
      [
        "í",
        -11.292789790204619
      ],
      [
        "approch",
        -11.29279700982159
      ],
      [
        "stitué",
        -11.292808354047777
      ],
      [
        "▁thé",
        -11.292815120877735
      ],
      [
        "▁l'éc",
        -11.292844261412855
      ],
      [
        "mobil",
        -11.292862488263737
      ],
      [
        "▁constru",
        -11.292904072035402
      ],
      [
        "bond",
        -11.293003406039743
      ],
      [
        "olof",
        -11.293193671162337
      ],
      [
        "tuellement",
        -11.293726708351992
      ],
      [
        "ercle",
        -11.294506170655982
      ],
      [
        "ajal",
        -11.294576813002054
      ],
      [
        "▁descend",
        -11.294938397991718
      ],
      [
        "àngal",
        -11.294947742464771
      ],
      [
        "innaaw",
        -11.295630791764596
      ],
      [
        "▁coute",
        -11.295691127530276
      ],
      [
        "▁dëg",
        -11.296044844353302
      ],
      [
        "googee",
        -11.29728694734954
      ],
      [
        "t-c",
        -11.29758043853675
      ],
      [
        "alité",
        -11.297790218117434
      ],
      [
        "▁Musa",
        -11.2980770493835
      ],
      [
        "politesse",
        -11.298551586109278
      ],
      [
        "ceaux",
        -11.298578985974483
      ],
      [
        "impl",
        -11.298613760998984
      ],
      [
        "marin",
        -11.299216489526748
      ],
      [
        "vid",
        -11.299418543044588
      ],
      [
        "▁revien",
        -11.299660687345755
      ],
      [
        "▁repr",
        -11.300449813265116
      ],
      [
        "ëlë",
        -11.300534445983878
      ],
      [
        "ffe",
        -11.300703927798697
      ],
      [
        "ciment",
        -11.301682639352405
      ],
      [
        "▁tiss",
        -11.30221541239714
      ],
      [
        "illir",
        -11.302306452122252
      ],
      [
        "liers",
        -11.303976656570502
      ],
      [
        "ggoon",
        -11.304568193668668
      ],
      [
        "▁Pou",
        -11.30461868522723
      ],
      [
        "▁fon",
        -11.305437488959509
      ],
      [
        "Gis",
        -11.305538320502837
      ],
      [
        "ardé",
        -11.306085596351759
      ],
      [
        "itude",
        -11.30682746776384
      ],
      [
        "tbal",
        -11.306895992927402
      ],
      [
        "▁solda",
        -11.306964848282037
      ],
      [
        "▁l'h",
        -11.307028250702615
      ],
      [
        "vec",
        -11.307046902279275
      ],
      [
        "tëli",
        -11.307050565268774
      ],
      [
        "àmm",
        -11.30741050752746
      ],
      [
        "'enfan",
        -11.307756542182894
      ],
      [
        "diku",
        -11.310162077522229
      ],
      [
        "▁ava",
        -11.310204827120149
      ],
      [
        "▁util",
        -11.310244615969172
      ],
      [
        "▁conce",
        -11.310278220579702
      ],
      [
        "▁dég",
        -11.311954247180763
      ],
      [
        "atum",
        -11.312320541687221
      ],
      [
        "▁gr",
        -11.31257924887474
      ],
      [
        "amaale",
        -11.312842324736668
      ],
      [
        "ecti",
        -11.313779316462494
      ],
      [
        "▁wë",
        -11.314323181109918
      ],
      [
        "asiyo",
        -11.314470440502728
      ],
      [
        "épare",
        -11.314505987978295
      ],
      [
        "▁bã",
        -11.314754971484899
      ],
      [
        "▁vena",
        -11.314876503780674
      ],
      [
        "▁yegg",
        -11.318228444206989
      ],
      [
        "mages",
        -11.318907789638683
      ],
      [
        "port",
        -11.320780592397368
      ],
      [
        "▁xel",
        -11.32140915947052
      ],
      [
        "▁fanee",
        -11.321489483655387
      ],
      [
        "étend",
        -11.321776783812254
      ],
      [
        "eut-être",
        -11.322761538552552
      ],
      [
        "aux",
        -11.323445367956396
      ],
      [
        "géey",
        -11.323464569369145
      ],
      [
        "▁Ju",
        -11.324783138783108
      ],
      [
        "▁revi",
        -11.32543074029156
      ],
      [
        "▁Sig",
        -11.329808333203411
      ],
      [
        "uche.",
        -11.330731008323783
      ],
      [
        "▁daaw",
        -11.332078256236024
      ],
      [
        "▁Pala",
        -11.334055857268707
      ],
      [
        "▁Né",
        -11.335107583850682
      ],
      [
        "lam",
        -11.336275985034934
      ],
      [
        "▁just",
        -11.33786120678499
      ],
      [
        "▁s'asso",
        -11.338834831576971
      ],
      [
        "▁laq",
        -11.339196016474542
      ],
      [
        "▁dikk",
        -11.33963168414029
      ],
      [
        "ôn",
        -11.342428479120944
      ],
      [
        "▁travaille",
        -11.342837724626232
      ],
      [
        "▁kaf",
        -11.342987010990916
      ],
      [
        "lave",
        -11.345017740675658
      ],
      [
        "Ma",
        -11.345236377980665
      ],
      [
        "▁env",
        -11.34701730364889
      ],
      [
        "esca",
        -11.347067055090978
      ],
      [
        "▁tenu",
        -11.34715685101487
      ],
      [
        "▁jëf",
        -11.347536918459738
      ],
      [
        "gg",
        -11.348175275609663
      ],
      [
        "▁Sal",
        -11.348515843465908
      ],
      [
        "▁dellu",
        -11.348755105566458
      ],
      [
        "nglais",
        -11.348769626245563
      ],
      [
        "appé",
        -11.349349942693769
      ],
      [
        "▁wer",
        -11.350141896148305
      ],
      [
        "ëggu",
        -11.350229358542473
      ],
      [
        "isite",
        -11.352618673911518
      ],
      [
        "▁pare",
        -11.352740879359287
      ],
      [
        "ssées",
        -11.35434916173988
      ],
      [
        "-t",
        -11.358953802720606
      ],
      [
        "▁serr",
        -11.359313070287124
      ],
      [
        "ndi",
        -11.359531851507157
      ],
      [
        "edd",
        -11.359890918812468
      ],
      [
        "ffr",
        -11.362117706218175
      ],
      [
        "éeru",
        -11.364509366953174
      ],
      [
        "▁Lool",
        -11.364711166563891
      ],
      [
        "ur-",
        -11.365252070043127
      ],
      [
        "levé",
        -11.365454171478614
      ],
      [
        "aasamaas",
        -11.367300881649665
      ],
      [
        "ivres",
        -11.367343289428465
      ],
      [
        "▁xoole",
        -11.36812185219291
      ],
      [
        "mon",
        -11.369915521572347
      ],
      [
        "'or",
        -11.370362479151499
      ],
      [
        "sont",
        -11.371714272838428
      ],
      [
        "▁dell",
        -11.372744920156062
      ],
      [
        "▁janoo",
        -11.376489702400724
      ],
      [
        "▁yë",
        -11.377690767712762
      ],
      [
        "rai",
        -11.380075541902855
      ],
      [
        "roit",
        -11.380402371665433
      ],
      [
        "âg",
        -11.381709384854659
      ],
      [
        "▁reg",
        -11.38205196223841
      ],
      [
        "▁const",
        -11.382318272934626
      ],
      [
        "▁descen",
        -11.383406173161033
      ],
      [
        "âc",
        -11.38343981331767
      ],
      [
        "bind",
        -11.385500579889545
      ],
      [
        "leel",
        -11.38603973480762
      ],
      [
        "L'homme",
        -11.38708138700115
      ],
      [
        "-de",
        -11.38953766690227
      ],
      [
        "eeku",
        -11.389709307744237
      ],
      [
        "ns",
        -11.39128902015242
      ],
      [
        "ger",
        -11.39200803714577
      ],
      [
        "dal",
        -11.392877836349708
      ],
      [
        "▁Atte",
        -11.393065806090311
      ],
      [
        "▁ndim",
        -11.394653769764478
      ],
      [
        "goon",
        -11.394894062797322
      ],
      [
        "venue",
        -11.39543622731294
      ],
      [
        "men",
        -11.396410299930718
      ],
      [
        "einture",
        -11.397674971953933
      ],
      [
        "ège",
        -11.39780788505424
      ],
      [
        "ennent",
        -11.39807919972204
      ],
      [
        "èt",
        -11.399468773424049
      ],
      [
        "▁pose",
        -11.399525878564242
      ],
      [
        "aaru",
        -11.400004634236028
      ],
      [
        "▁diff",
        -11.400947546906174
      ],
      [
        "lever",
        -11.40133067256865
      ],
      [
        "éen",
        -11.403660681269658
      ],
      [
        "L",
        -11.404520667767788
      ],
      [
        "▁main",
        -11.408117722338375
      ],
      [
        "▁dig",
        -11.408172135194242
      ],
      [
        "ous-même",
        -11.408640465646188
      ],
      [
        "oogu",
        -11.408755439333524
      ],
      [
        "nal",
        -11.40920317809913
      ],
      [
        "trent",
        -11.412145509583334
      ],
      [
        "▁l'am",
        -11.412671726040339
      ],
      [
        "tudi",
        -11.416880826788322
      ],
      [
        "▁suive",
        -11.416930724476535
      ],
      [
        "▁rid",
        -11.418156249105785
      ],
      [
        "àpp",
        -11.419827019785046
      ],
      [
        "▁tek",
        -11.419934099173336
      ],
      [
        "▁éle",
        -11.421055004063447
      ],
      [
        "atoo",
        -11.422039248417908
      ],
      [
        "▁bah",
        -11.422304470258572
      ],
      [
        "▁cho",
        -11.427016254536522
      ],
      [
        "ataal",
        -11.427150516212066
      ],
      [
        "ze",
        -11.433968664797325
      ],
      [
        "▁mets",
        -11.43525234667698
      ],
      [
        "alé",
        -11.435613579565928
      ],
      [
        "jus",
        -11.43706018559233
      ],
      [
        "ërë",
        -11.4370968379049
      ],
      [
        "ub",
        -11.440001480347851
      ],
      [
        "wuñ",
        -11.44271317430299
      ],
      [
        "▁ho",
        -11.443289629980155
      ],
      [
        "rru",
        -11.445349977330729
      ],
      [
        "▁rév",
        -11.448058032466472
      ],
      [
        "▁vie",
        -11.45197615954809
      ],
      [
        "▁Gan",
        -11.454359350017896
      ],
      [
        "▁éc",
        -11.455449645609715
      ],
      [
        "pier",
        -11.455559352681533
      ],
      [
        "asam",
        -11.455624622443779
      ],
      [
        "▁seri",
        -11.456567996943917
      ],
      [
        "▁travaillai",
        -11.45861417171714
      ],
      [
        "▁ver",
        -11.458995045937266
      ],
      [
        "lage",
        -11.459592495151087
      ],
      [
        "ci.",
        -11.4599424619653
      ],
      [
        "▁xee",
        -11.464279094722059
      ],
      [
        "ekku",
        -11.466122368328564
      ],
      [
        "▁Wut",
        -11.46712635272316
      ],
      [
        "emp",
        -11.467150215347562
      ],
      [
        "ég",
        -11.471906273145775
      ],
      [
        "▁aim",
        -11.47219708341588
      ],
      [
        "▁baa",
        -11.472377595729837
      ],
      [
        "'opp",
        -11.473371909986769
      ],
      [
        "art",
        -11.474500001578228
      ],
      [
        "egguma",
        -11.474589962087167
      ],
      [
        "ro",
        -11.482683401382939
      ],
      [
        "ëri",
        -11.484644725353245
      ],
      [
        "iers",
        -11.486088003112016
      ],
      [
        "ontent",
        -11.48888922605472
      ],
      [
        "aañ",
        -11.491503633249721
      ],
      [
        "ëy",
        -11.492896241220386
      ],
      [
        "waan",
        -11.493243691389978
      ],
      [
        "kum",
        -11.493775494317623
      ],
      [
        "ables",
        -11.494983173943831
      ],
      [
        "▁see",
        -11.4951437956189
      ],
      [
        "kaar",
        -11.499365066119765
      ],
      [
        "cien",
        -11.501925301148683
      ],
      [
        "essu",
        -11.50219155225446
      ],
      [
        "▁jàmma",
        -11.504888252058763
      ],
      [
        "gui",
        -11.506214496119208
      ],
      [
        "ber",
        -11.508911346296935
      ],
      [
        "▁ñuula",
        -11.511040920119449
      ],
      [
        "▁Tan",
        -11.513577440049787
      ],
      [
        "he.",
        -11.515720290061292
      ],
      [
        "ima",
        -11.524448440811245
      ],
      [
        "▁Ga",
        -11.526561647319461
      ],
      [
        "x-",
        -11.52979398022753
      ],
      [
        "maan",
        -11.532347196588876
      ],
      [
        "▁fara",
        -11.532498998895955
      ],
      [
        "▁ke",
        -11.532586007542326
      ],
      [
        "appelle",
        -11.533287370003242
      ],
      [
        "▁d'i",
        -11.535083764796806
      ],
      [
        "▁compo",
        -11.535354699539246
      ],
      [
        "ddu",
[...]
