<pad>	0
</s>	0
<unk>	0
<s>	0
.	-2.74761
,	-3.31245
'	-3.47923
▁la	-4.1487
▁de	-4.252
▁	-4.40507
-	-4.49957
s	-4.65862
▁!	-4.66372
▁a	-4.77802
▁ci	-4.85452
▁l	-4.85562
y	-4.88041
▁le	-4.90041
e	-4.93088
▁ko	-5.00641
est	-5.0563
▁?	-5.05744
▁à	-5.08567
▁ne	-5.15106
▁bi	-5.15892
▁Il	-5.17103
▁un	-5.18087
▁pas	-5.2021
▁les	-5.285
▁est	-5.2955
▁qui	-5.33216
▁que	-5.35881
▁ma	-5.36375
▁na	-5.38382
a	-5.39877
▁des	-5.4487
▁d	-5.4643
▁mu	-5.47155
▁du	-5.48266
▁C	-5.51609
▁et	-5.52427
▁qu	-5.53206
▁n	-5.60612
i	-5.6081
u	-5.62408
▁ba	-5.62886
▁yi	-5.69498
▁il	-5.7523
▁tu	-5.78177
▁en	-5.78337
il	-5.82042
▁gi	-5.9064
▁di	-5.91754
▁dans	-5.92575
▁ak	-5.95236
▁nga	-5.95309
▁sa	-5.95429
▁bu	-5.95702
▁c	-5.97478
▁s	-5.99433
▁pour	-6.00185
▁ni	-6.01593
▁Je	-6.04869
▁ngi	-6.05648
▁te	-6.10249
une	-6.10309
▁dafa	-6.11119
ai	-6.1424
▁au	-6.14577
▁ce	-6.16986
▁ñu	-6.18176
▁se	-6.19764
▁dem	-6.2044
▁je	-6.21149
▁Le	-6.23078
▁J	-6.27073
▁Dafa	-6.28289
▁ay	-6.29044
▁yu	-6.31972
▁y	-6.33488
▁am	-6.34121
▁naa	-6.34308
▁ca	-6.36003
▁lui	-6.36893
al	-6.37929
▁mi	-6.40505
t	-6.42259
r	-6.43334
▁sur	-6.44501
▁sont	-6.45597
▁avec	-6.46641
▁L	-6.46935
▁lu	-6.49075
▁sama	-6.51055
▁m	-6.53107
▁La	-6.53135
;	-6.53483
▁Tu	-6.5372
l	-6.57806
▁fait	-6.65948
▁par	-6.6697
▁woon	-6.67935
d	-6.68033
▁j	-6.6923
en	-6.6932
▁seen	-6.69838
es	-6.7036
é	-6.70864
▁fa	-6.71313
▁son	-6.73156
▁plus	-6.74031
tu	-6.7418
on	-6.75766
▁wax	-6.76995
▁doon	-6.7831
▁si	-6.8033
▁moo	-6.811
▁t	-6.81557
▁Les	-6.82007
un	-6.83689
▁mon	-6.85199
▁leen	-6.86295
am	-6.87862
▁li	-6.88702
▁nous	-6.89938
le	-6.90566
▁me	-6.90933
▁daan	-6.91428
▁def	-6.92439
▁xam	-6.93282
▁:	-6.9373
▁ji	-6.9415
▁rekk	-6.94967
er	-6.95427
▁gis	-6.97078
ent	-6.97192
▁Mu	-6.9763
ette	-7.01383
n	-7.01713
▁nekk	-7.02246
▁vu	-7.0318
▁Si	-7.04057
homme	-7.04333
▁fi	-7.05847
▁tout	-7.06463
▁on	-7.07862
nt	-7.08558
▁Sa	-7.10651
▁Omar	-7.11919
là	-7.1212
▁Ce	-7.12891
▁moom	-7.13836
▁ku	-7.13959
▁may	-7.14064
▁as	-7.15091
▁D	-7.15555
ait	-7.1576
▁nit	-7.16067
▁nag	-7.16184
▁Bu	-7.16408
▁où	-7.17806
▁wi	-7.18167
▁Ku	-7.18489
oon	-7.20703
▁benn	-7.21287
▁père	-7.21578
as	-7.24714
▁nu	-7.24775
▁faire	-7.2606
▁Un	-7.26398
▁laa	-7.28017
▁été	-7.2832
▁Dama	-7.28372
▁Ci	-7.28688
▁On	-7.2884
▁mel	-7.30873
oo	-7.32543
▁ŋga	-7.32957
▁Góor	-7.34622
▁dit	-7.34744
▁Am	-7.34983
▁gu	-7.35042
▁enfants	-7.35197
▁sax	-7.35442
▁Quan	-7.35628
▁kër	-7.35796
▁su	-7.36312
▁S	-7.36463
ce	-7.36471
▁comme	-7.36832
▁biir	-7.38545
▁là	-7.39737
à	-7.40043
▁va	-7.40352
▁ya	-7.413
▁ab	-7.42114
▁peut	-7.42208
▁Su	-7.42488
▁nañu	-7.4252
▁maison	-7.42736
▁Gis	-7.43095
▁ndax	-7.44095
▁Baay	-7.44164
▁vous	-7.44543
▁moi	-7.44753
▁avait	-7.44836
▁ont	-7.45422
▁ton	-7.46295
▁xale	-7.46733
▁homme	-7.47668
▁chose	-7.47991
▁ju	-7.48251
▁bii	-7.4842
▁celui	-7.48892
te	-7.491
▁lañu	-7.49993
▁A	-7.49999
▁kenn	-7.50193
eau	-7.50288
▁ga	-7.50377
«	-7.51521
and	-7.51604
ment	-7.51647
▁lay	-7.51893
ee	-7.52043
ant	-7.52923
b	-7.53119
▁toi	-7.53843
▁dara	-7.53899
▁mais	-7.54144
▁Lu	-7.54703
▁tax	-7.5487
▁bien	-7.55885
▁ta	-7.58522
g	-7.58561
▁Sama	-7.58674
▁Afrig	-7.58882
▁mën	-7.59374
moi	-7.60122
▁ñaar	-7.60279
▁ñi	-7.6068
▁bëgg	-7.60795
▁ici	-7.61085
▁Ne	-7.61138
▁i	-7.61354
k	-7.62463
ul	-7.63101
▁dañu	-7.63331
▁sans	-7.63896
▁baax	-7.64333
▁deux	-7.65294
▁Elle	-7.65322
m	-7.65343
▁waay	-7.65747
▁Qu	-7.66143
▁cet	-7.66634
▁dëkk	-7.66726
▁même	-7.66825
re	-7.66825
▁bare	-7.67317
it	-7.67319
▁góor	-7.67352
▁elle	-7.67481
▁mère	-7.6864
▁yépp	-7.69528
▁autre	-7.69606
▁»	-7.69618
▁Soo	-7.69896
▁jusqu	-7.70323
▁cela	-7.70621
▁dina	-7.71372
▁leur	-7.72132
▁grand	-7.73949
▁était	-7.74057
▁ñëw	-7.74262
elle	-7.74602
▁veux	-7.74733
▁pays	-7.75279
▁aux	-7.75481
▁photo	-7.75707
▁N	-7.75782
▁yaa	-7.76413
▁leurs	-7.7682
▁Ba	-7.77014
▁Nous	-7.77447
▁Yàlla	-7.77499
▁ces	-7.77925
était	-7.7797
▁Maa	-7.78598
▁encore	-7.79283
▁fu	-7.79777
▁être	-7.80591
▁Ma	-7.81326
▁ou	-7.81728
▁enfant	-7.81744
ils	-7.81907
▁Li	-7.82226
▁ça	-7.82233
ma	-7.82493
▁xar	-7.82938
▁parti	-7.8302
▁doom	-7.8303
▁quelque	-7.83194
▁suis	-7.83244
▁P	-7.83892
▁lool	-7.83908
▁Nit	-7.84268
▁nataal	-7.85151
ay	-7.85874
ci	-7.85894
▁tey	-7.86465
▁aussi	-7.87138
▁yoon	-7.87776
▁porte	-7.87984
▁gën	-7.88763
▁temps	-7.89211
▁man	-7.89345
hui	-7.89509
▁rien	-7.89547
▁jigéen	-7.90428
▁boo	-7.90506
▁cheval	-7.92336
▁dal	-7.92526
▁tes	-7.92563
▁Qui	-7.92865
▁Dieu	-7.93387
▁tous	-7.93921
▁teg	-7.93951
▁Celui	-7.94544
▁beaucoup	-7.95571
▁naan	-7.95792
▁réew	-7.96548
▁Du	-7.9664
▁gens	-7.96704
▁mag	-7.96742
▁da	-7.97114
▁Dañu	-7.97402
▁garab	-7.97993
▁ñoo	-7.99095
▁personne	-7.99356
▁À	-7.99666
aient	-7.99831
▁fekk	-8.00837
▁Ñu	-8.00885
▁sol	-8.02471
enfant	-8.02591
ujour	-8.03331
avoir	-8.0338
▁ngir	-8.03775
▁rafet	-8.03788
▁néeg	-8.03908
▁amul	-8.03985
▁vois	-8.04906
▁it	-8.05359
▁mes	-8.05465
▁O	-8.05525
▁maa	-8.05874
▁ki	-8.06362
▁parle	-8.06511
▁femme	-8.06522
▁koo	-8.06527
ñ	-8.06647
▁B	-8.07157
▁veut	-8.07268
▁bon	-8.074
▁monde	-8.07585
▁fais	-8.07878
▁ndox	-8.08036
▁suuf	-8.08692
▁Mon	-8.10166
▁cause	-8.10372
▁En	-8.10377
▁sunu	-8.10524
▁dul	-8.11293
▁mbaa	-8.11494
▁voir	-8.11968
▁peu	-8.12012
▁Sur	-8.12311
▁Danga	-8.12696
lui	-8.12863
▁M	-8.13035
▁es	-8.13162
an	-8.13454
di	-8.1346
▁k	-8.13477
▁très	-8.13677
▁Ndax	-8.13894
▁avant	-8.14102
x	-8.14618
▁fois	-8.15228
être	-8.15368
▁mouton	-8.15579
▁lépp	-8.16741
▁bëgga	-8.17425
▁lii	-8.17837
▁Xale	-8.17849
lu	-8.18034
▁bee	-8.18315
▁bopp	-8.18645
▁liggéey	-8.18728
▁–	-8.19093
▁Nataal	-8.19125
▁jour	-8.19523
uma	-8.19705
▁toog	-8.19718
▁ngeen	-8.19858
▁demee	-8.19897
bas	-8.20113
▁yaay	-8.20291
▁gone	-8.21402
▁f	-8.21808
um	-8.21966
▁lekk	-8.2225
o	-8.22283
▁ciy	-8.22477
▁wu	-8.22492
▁loolu	-8.22741
▁war	-8.22892
▁ag	-8.2315
▁soit	-8.23552
▁ceux	-8.23804
autre	-8.23999
▁say	-8.24239
▁fas	-8.24549
ù	-8.24769
▁loxo	-8.25137
▁tête	-8.25566
▁vie	-8.25852
▁b	-8.26363
▁yooyu	-8.26418
▁part	-8.26563
▁sous	-8.26713
ñuy	-8.26763
▁Moo	-8.27701
▁weex	-8.27892
▁faut	-8.2793
▁doit	-8.27952
▁sais	-8.28127
▁p	-8.28454
▁G	-8.28622
▁entre	-8.28697
▁Va	-8.2884
eneen	-8.2915
▁ndaw	-8.29373
intérieur	-8.29375
▁donné	-8.29559
▁ai	-8.30053
▁nii	-8.30149
▁partir	-8.30518
tte	-8.30817
ons	-8.30835
▁jaay	-8.30912
▁dama	-8.31204
▁walla	-8.31258
ée	-8.31295
▁ja	-8.31854
▁sera	-8.32352
▁quelqu	-8.32464
▁Te	-8.32771
ŋ	-8.32937
▁ñuul	-8.33094
tre	-8.33156
▁Lii	-8.33161
▁lañuy	-8.33303
▁jox	-8.33617
▁neex	-8.33696
▁mis	-8.34271
▁ñoom	-8.34384
▁fii	-8.34839
▁Bul	-8.3517
▁Dem	-8.35182
▁Que	-8.35184
▁dugg	-8.35274
▁bés	-8.35525
▁boobu	-8.35905
▁T	-8.36259
▁venu	-8.36763
▁ka	-8.37204
▁F	-8.3744
▁ñépp	-8.37509
▁marché	-8.37563
▁Ton	-8.38435
▁travail	-8.38936
▁guerre	-8.39338
▁yaram	-8.39512
▁baa	-8.39791
▁yàgg	-8.40237
▁Wax	-8.4086
▁contre	-8.40946
▁Est	-8.40981
▁soo	-8.40995
is	-8.41539
▁mal	-8.41643
▁ànd	-8.4178
▁réer	-8.41803
▁terre	-8.42012
▁waa	-8.42033
ale	-8.42072
▁Boo	-8.42125
▁Na	-8.42526
▁Waaye	-8.42683
▁dëgg	-8.4277
▁bois	-8.42778
▁Demal	-8.42804
▁génn	-8.42916
▁daw	-8.42994
▁yiy	-8.43155
▁De	-8.43164
▁re	-8.43273
w	-8.43501
ses	-8.43552
▁petit	-8.43933
▁Ay	-8.44038
▁ŋgi	-8.44221
kat	-8.44401
▁trop	-8.44493
▁jot	-8.44707
▁léegi	-8.4473
▁gëna	-8.4492
▁dont	-8.45471
▁chambre	-8.45508
ont	-8.45571
▁jëm	-8.46093
▁kow	-8.46375
▁xarit	-8.46485
▁at	-8.4663
▁jaar	-8.46701
ation	-8.4692
▁Tout	-8.48017
▁taxaw	-8.48061
▁peux	-8.48236
▁Mais	-8.48258
ngay	-8.48288
▁jàpp	-8.48381
que	-8.48787
▁dee	-8.49015
▁tànk	-8.49086
▁ñów	-8.49136
▁après	-8.49288
▁pris	-8.49307
▁ëpp	-8.4945
▁bàyyi	-8.49926
▁vas	-8.49948
▁metti	-8.49994
▁jamais	-8.50012
▁Bi	-8.50013
eux	-8.50333
▁tuuti	-8.50339
▁mer	-8.50349
▁Cet	-8.50814
▁yee	-8.50836
▁gii	-8.5091
▁Ta	-8.50912
et	-8.51015
▁àll	-8.51476
▁Man	-8.5157
▁xel	-8.51859
f	-8.51892
▁(	-8.51899
ñu	-8.52228
▁dañ	-8.52321
▁champ	-8.52444
▁Waaw	-8.52485
▁Yaa	-8.52794
de	-8.52999
▁couleur	-8.531
▁takk	-8.53154
in	-8.53575
▁aller	-8.5359
▁Ça	-8.53871
▁riz	-8.53881
▁dox	-8.54495
▁voiture	-8.55079
▁nuit	-8.55301
▁Xam	-8.55376
▁voilà	-8.55897
ur	-8.55976
▁dis	-8.56047
▁g	-8.56541
▁vers	-8.56717
▁Ab	-8.5733
▁acheté	-8.57462
▁jóge	-8.57615
▁bët	-8.58036
▁ñax	-8.58307
▁eu	-8.58569
▁coup	-8.58847
Afrique	-8.5902
▁moment	-8.59249
enn	-8.594
la	-8.5951
▁aw	-8.59703
▁Vous	-8.60013
▁tamit	-8.60034
▁Loolu	-8.60057
▁bokk	-8.60175
ante	-8.60301
▁jénd	-8.60409
▁noppi	-8.60646
▁daal	-8.6086
▁poisson	-8.61411
▁Ogosaa	-8.62135
▁corps	-8.62137
▁doŋŋ	-8.62174
▁Tugal	-8.62178
▁devant	-8.62507
▁fin	-8.63279
▁saa	-8.63725
▁jeex	-8.64094
▁maintenant	-8.64314
▁Donne	-8.64324
▁dóor	-8.64781
leen	-8.64932
argent	-8.65212
ez	-8.65652
▁femmes	-8.65773
avais	-8.65927
▁fo	-8.66206
ar	-8.66356
▁passe	-8.6638
▁soleil	-8.66538
▁Seen	-8.66871
▁fini	-8.66906
ne	-8.66991
▁togg	-8.67236
▁Jox	-8.67745
aan	-8.67916
aay	-8.68093
léeg	-8.68182
ir	-8.68306
épp	-8.68401
▁bala	-8.68448
▁xaalis	-8.68698
▁mbir	-8.68906
▁Ana	-8.69067
▁Cela	-8.69197
▁main	-8.69733
▁doole	-8.69793
▁toute	-8.69841
▁ñ	-8.6986
loo	-8.69898
▁maam	-8.70067
▁étai	-8.70295
▁dire	-8.70473
▁yëg	-8.70797
▁danga	-8.70829
▁Kenn	-8.71156
▁manger	-8.71264
ais	-8.71318
▁weer	-8.71423
▁yeux	-8.71714
▁dégg	-8.7187
▁kanam	-8.72174
▁wër	-8.72477
avons	-8.7248
▁topp	-8.72885
▁xare	-8.7331
▁R	-8.73389
▁loin	-8.73543
▁ainsi	-8.73577
▁jamono	-8.73579
▁trois	-8.73588
▁milieu	-8.73666
▁Moom	-8.73691
▁beau	-8.73955
▁Ceux	-8.74161
▁allé	-8.74308
ions	-8.74874
▁mil	-8.7512
▁fay	-8.75244
▁doo	-8.75395
▁Mets	-8.75967
▁Au	-8.75994
▁reste	-8.76155
▁itam	-8.76167
▁mieux	-8.76209
▁Nang	-8.76517
▁Def	-8.76775
je	-8.76944
▁seul	-8.77176
▁fan	-8.77364
▁Quel	-8.77515
▁jël	-8.77705
▁passé	-8.77779
▁pied	-8.77882
noppi	-8.77902
▁Waa	-8.78113
▁bari	-8.78231
na	-8.78344
▁Cherche	-8.78446
▁couscous	-8.78451
▁seulement	-8.78493
▁sorte	-8.78538
yeek	-8.78542
▁Attends	-8.7859
▁nañ	-8.78635
▁mëna	-8.7877
▁bay	-8.78811
▁wara	-8.78945
▁bunt	-8.79414
▁point	-8.79418
▁mains	-8.79421
▁non	-8.7956
▁Ni	-8.79869
avait	-8.79875
▁baay	-8.79888
▁àddina	-8.80358
▁gaa	-8.80748
ak	-8.80784
▁longtemps	-8.81046
▁Et	-8.81172
▁noonu	-8.81229
▁no	-8.81292
▁grande	-8.81295
▁travers	-8.81525
▁réy	-8.81554
▁dex	-8.81822
▁eux	-8.82145
▁parler	-8.82519
▁village	-8.82844
▁côté	-8.82859
▁bañ	-8.83008
▁nee	-8.83163
dessus	-8.83195
▁lait	-8.83396
▁Xar	-8.83651
▁r	-8.83781
▁puis	-8.8388
▁arrivé	-8.84299
▁mets	-8.84362
▁fees	-8.84382
▁Tey	-8.84418
▁mort	-8.84542
se	-8.84856
▁ban	-8.84881
▁demul	-8.85019
woon	-8.85201
autres	-8.85387
tax	-8.85401
▁parce	-8.85726
▁Y	-8.86255
▁woto	-8.86335
▁yow	-8.86354
▁matin	-8.86365
▁famille	-8.86431
▁vont	-8.86479
▁faj	-8.86574
▁choses	-8.86701
▁bout	-8.87005
▁wut	-8.87119
aat	-8.8719
▁xaar	-8.87218
▁semble	-8.87312
▁vo	-8.87606
▁haut	-8.8777
▁vient	-8.87784
▁Comme	-8.87852
▁moutons	-8.87946
▁assis	-8.88003
▁aura	-8.88021
quelle	-8.88079
▁duma	-8.88266
si	-8.88286
▁ville	-8.88336
▁bonne	-8.88409
pendant	-8.88762
uñu	-8.88888
ement	-8.88992
▁xonq	-8.89117
▁chez	-8.89172
▁lañ	-8.89312
▁Fais	-8.89568
ldi	-8.89569
▁car	-8.89691
c	-8.8975
▁jél	-8.89991
▁dé	-8.90115
j	-8.90516
▁tool	-8.90583
eek	-8.90734
▁jours	-8.90742
ek	-8.91112
▁route	-8.91173
ès	-8.91517
▁belle	-8.91597
▁Loo	-8.91702
▁donne	-8.91917
▁May	-8.91994
▁Xaaral	-8.91995
▁debout	-8.9204
▁train	-8.92079
▁alors	-8.92149
▁yóbbu	-8.92302
▁vais	-8.92841
▁wa	-8.93081
)	-8.93153
▁gee	-8.93538
▁amis	-8.93602
▁gaaw	-8.93748
wul	-8.93869
ooy	-8.94102
▁blanc	-8.94156
▁toutes	-8.94358
▁Dans	-8.94521
▁kaw	-8.94749
▁case	-8.94819
▁Mën	-8.94839
...	-8.94943
▁K	-8.95247
▁saison	-8.95407
▁guddi	-8.95584
▁dund	-8.95786
▁dinaa	-8.95876
ux	-8.96375
▁Fas	-8.96453
▁partie	-8.96564
és	-8.96569
▁jàng	-8.96717
▁Da	-8.97016
▁nos	-8.9708
▁jeune	-8.971
mettre	-8.97359
arbre	-8.97392
ug	-8.97525
▁trouve	-8.97685
▁doy	-8.98044
▁jooju	-8.98052
▁ŋgeen	-8.98293
▁yeneen	-8.98306
▁Ceci	-8.98338
▁w	-8.98447
▁aucun	-8.98447
▁Dinaa	-8.98478
▁habits	-8.98498
▁doute	-8.98532
▁place	-8.98537
▁lion	-8.98623
mère	-8.98676
▁yére	-8.98837
▁arbres	-8.99019
▁sac	-8.99125
▁dos	-8.99595
▁yoo	-9.00019
▁laaj	-9.00045
▁mat	-9.00104
▁plu	-9.00108
▁Ca	-9.00208
▁roi	-9.00455
igéen	-9.00849
▁Prends	-9.01085
▁Naka	-9.01093
at	-9.01145
▁marse	-9.01154
▁voit	-9.01199
▁lequel	-9.01213
▁Des	-9.01227
▁xaj	-9.01538
▁daanu	-9.01538
▁ceeb	-9.01576
▁léeg	-9.01586
▁ans	-9.01643
▁années	-9.01803
▁dikk	-9.02164
uy	-9.02242
▁gaal	-9.02419
▁defar	-9.0309
▁xol	-9.03647
▁wet	-9.03906
▁Kamerun	-9.04295
▁foofu	-9.04328
▁mangé	-9.04371
▁Chaque	-9.04455
▁Tubaab	-9.0449
▁boppam	-9.04521
▁bras	-9.04555
▁pain	-9.04564
▁voyage	-9.04685
▁waaw	-9.04903
▁quoi	-9.05145
▁vent	-9.05168
té	-9.05219
▁dellu	-9.05349
▁lan	-9.05412
ub	-9.05797
▁Pour	-9.05801
▁lit	-9.05805
▁Amul	-9.05921
ri	-9.06153
au	-9.06255
▁dàll	-9.06676
▁kooku	-9.06691
▁cinq	-9.06712
▁chien	-9.06898
haque	-9.07041
▁tudd	-9.07159
▁seet	-9.07176
▁Kooku	-9.07545
▁ginnaaw	-9.07615
▁Alors	-9.07625
▁premier	-9.07627
▁Borom	-9.07632
toi	-9.07633
▁mauvais	-9.07643
▁jii	-9.07656
▁beneen	-9.07824
ra	-9.07831
▁prendre	-9.0788
▁so	-9.0789
▁peau	-9.08017
▁Fii	-9.08219
▁jooy	-9.08222
▁xamul	-9.08253
em	-9.08682
nu	-9.08734
▁Fa	-9.08747
vaient	-9.0875
el	-9.09041
▁nangu	-9.09205
▁noir	-9.09463
aa	-9.09858
▁daa	-9.09868
▁woo	-9.09949
▁biti	-9.10096
▁solo	-9.10207
▁rey	-9.10209
▁fàtte	-9.10739
▁Ñaar	-9.10825
▁forêt	-9.11072
▁force	-9.11127
▁pouvait	-9.11135
▁pagne	-9.11142
▁gaynde	-9.11175
▁autres	-9.11193
▁propos	-9.11242
▁Commen	-9.1132
autour	-9.1134
eurs	-9.1143
▁soir	-9.11486
▁pluies	-9.11745
▁nuy	-9.11748
▁hommes	-9.11833
▁arrive	-9.12089
me	-9.12132
▁suba	-9.12203
▁ami	-9.12331
les	-9.12559
▁lal	-9.12654
▁peur	-9.1282
▁viendra	-9.12974
nd	-9.13072
ta	-9.13338
▁cuisine	-9.13539
▁médecin	-9.13692
▁crois	-9.13699
▁rouge	-9.13782
▁puits	-9.14644
▁viande	-9.14646
▁long	-9.14651
▁raison	-9.1467
▁feuilles	-9.14727
▁Léegi	-9.14842
▁lieu	-9.14854
▁ragal	-9.14894
▁kan	-9.14949
▁xaw	-9.14951
▁dois	-9.15062
ti	-9.15234
▁lakk	-9.15254
aller	-9.1547
elles	-9.15515
Après	-9.15619
▁dagg	-9.15756
▁quelle	-9.15995
▁petits	-9.16378
▁indi	-9.16558
▁Mi	-9.16705
pp	-9.16712
▁leer	-9.16786
▁defe	-9.16948
irai	-9.1699
▁ñàkk	-9.17087
▁personnes	-9.17177
nga	-9.17514
▁mange	-9.17576
▁pu	-9.17755
▁W	-9.17859
père	-9.18036
même	-9.18055
▁dame	-9.18068
▁moomu	-9.18235
▁cheveux	-9.1835
▁question	-9.18353
▁tollu	-9.18366
▁xalaat	-9.18374
▁Gone	-9.18376
▁Ñoom	-9.18455
▁Fu	-9.18561
aime	-9.18603
▁day	-9.18619
▁laver	-9.18735
▁serait	-9.18738
▁tàng	-9.18817
▁Dis	-9.19591
▁ňu	-9.1961
▁pieds	-9.19638
▁ñaa	-9.19677
▁way	-9.19802
▁près	-9.20074
age	-9.20225
▁mot	-9.20305
▁mii	-9.20339
▁cour	-9.20779
▁sant	-9.20849
een	-9.21057
▁duñu	-9.21066
▁prend	-9.21099
▁bind	-9.21222
▁blanche	-9.21432
▁yem	-9.21911
▁jabar	-9.22097
habitude	-9.22137
▁boubou	-9.22192
▁paix	-9.22194
▁vraiment	-9.22216
▁ngelaw	-9.2228
▁aperçu	-9.2232
▁jén	-9.22381
▁gàtt	-9.22394
▁Oui	-9.22396
▁Di	-9.22642
▁trou	-9.22747
▁amoon	-9.23299
étais	-9.23346
▁pa	-9.2342
▁demoon	-9.23509
▁Ogoja	-9.23526
▁seule	-9.23556
ées	-9.23808
▁tard	-9.23971
▁doomu	-9.24048
▁waral	-9.24109
▁somme	-9.2442
oŋ	-9.2455
▁cere	-9.24636
▁Son	-9.24782
ku	-9.24835
▁fut	-9.25234
▁première	-9.25364
▁».	-9.2539
▁séen	-9.25474
▁singe	-9.25478
▁fille	-9.25574
▁juróom	-9.25717
▁loo	-9.26023
▁France	-9.2619
▁yaakaar	-9.26195
▁fàww	-9.26196
▁façon	-9.26206
▁Wutal	-9.26247
▁Astu	-9.26289
▁daanaka	-9.26311
▁couteau	-9.26327
tôt	-9.26428
▁bord	-9.26479
▁bëggee	-9.26613
q	-9.26708
▁font	-9.26738
▁kii	-9.26857
vous	-9.2694
▁buntu	-9.2697
▁dents	-9.2701
▁far	-9.27306
▁Afrique	-9.28031
▁co	-9.28183
us	-9.28242
▁miir	-9.2833
▁wii	-9.28381
▁mënul	-9.28812
▁posé	-9.28841
▁passer	-9.28893
li	-9.28995
▁demande	-9.29126
▁visage	-9.29637
▁dana	-9.29834
▁nom	-9.30054
▁wàn	-9.30083
▁tas	-9.30085
ni	-9.30151
▁fer	-9.30189
▁bant	-9.30264
▁bouche	-9.30296
▁Jésus	-9.30355
▁Cameroun	-9.30366
▁yónnee	-9.30398
▁chaussures	-9.30415
▁Ben	-9.30432
▁longue	-9.30446
▁tàmbalee	-9.30455
▁nelaw	-9.30559
▁dénk	-9.30589
ourquoi	-9.30652
▁sucre	-9.30818
▁Bëgg	-9.30927
▁sedd	-9.31001
▁bol	-9.31202
▁fàttaliku	-9.31231
▁froid	-9.31946
▁buur	-9.31959
▁chat	-9.32123
arrête	-9.32282
ati	-9.32691
▁xeet	-9.32864
bu	-9.32867
▁Kër	-9.33016
▁saf	-9.33032
▁cha	-9.33146
▁xool	-9.33274
▁doomi	-9.33348
aw	-9.33801
▁parte	-9.33994
▁For	-9.34093
h	-9.34114
▁marcher	-9.34388
▁deme	-9.34662
▁Yéesu	-9.34713
▁peine	-9.34743
▁agsi	-9.34752
▁wéy	-9.34767
air	-9.34772
▁bëj	-9.34813
▁marche	-9.34844
▁gudd	-9.34913
▁jambes	-9.34915
▁diggu	-9.3492
▁nettali	-9.34921
▁tel	-9.34947
▁faral	-9.34994
▁màgget	-9.35083
▁êtes	-9.35211
▁ñetti	-9.35386
om	-9.35387
▁tali	-9.35493
▁ña	-9.35628
herbe	-9.35665
▁gannaaw	-9.35795
▁tudde	-9.35811
▁cherche	-9.3602
▁E	-9.36071
▁savoir	-9.36136
▁fond	-9.36198
▁nopp	-9.36337
tal	-9.3646
▁ñaan	-9.36471
▁néegu	-9.36532
▁dinga	-9.36555
ukaay	-9.3658
ji	-9.37127
ras	-9.3736
▁Tou	-9.37379
jur	-9.38234
▁chemise	-9.38259
▁portes	-9.38391
▁yii	-9.38503
▁verre	-9.38526
▁vaut	-9.38748
▁Ak	-9.38905
▁Ñ	-9.38942
▁dinañu	-9.39021
▁année	-9.39164
▁Apporte	-9.39248
aadama	-9.39249
▁prière	-9.3925
▁simis	-9.39306
▁doktoor	-9.39332
▁travailler	-9.39332
▁manière	-9.39342
▁gor	-9.39497
z	-9.39718
▁Fi	-9.39723
▁depuis	-9.39778
▁affaire	-9.39849
▁Astou	-9.39957
▁vaches	-9.39979
▁Buur	-9.39993
▁chercher	-9.40109
▁sew	-9.40185
▁Quelle	-9.40278
▁égaré	-9.40431
▁jeunes	-9.40469
▁dangay	-9.40514
▁fils	-9.40623
▁jëkk	-9.40628
▁endroit	-9.40965
▁montre	-9.41013
▁aurait	-9.41019
▁table	-9.41044
▁plein	-9.41221
ax	-9.41495
▁laisse	-9.41666
woo	-9.41736
▁fey	-9.42015
▁Kan	-9.42076
▁naaj	-9.42389
▁feu	-9.42525
ng	-9.42728
▁Là	-9.4294
▁lanu	-9.43108
▁besoin	-9.43116
▁fleuve	-9.43181
▁jiit	-9.4324
▁frère	-9.43289
▁bees	-9.4337
▁vache	-9.43494
▁tëdd	-9.43581
▁ressemble	-9.43785
hôpital	-9.4399
▁picc	-9.43992
▁Wànte	-9.43995
▁colère	-9.43998
▁gerte	-9.44008
▁sauce	-9.4401
▁déglu	-9.44011
▁paaka	-9.44012
▁ensemble	-9.44016
▁googu	-9.44016
▁dernier	-9.44024
▁seetlu	-9.44038
▁Garab	-9.44047
▁apporté	-9.44061
▁daje	-9.44063
▁Saint	-9.44067
▁vieux	-9.44068
▁sànni	-9.44077
▁toujours	-9.44146
▁dugub	-9.44175
▁fourmis	-9.442
▁coté	-9.44294
▁petite	-9.44308
▁jàmm	-9.44489
▁vend	-9.44579
▁yàpp	-9.44623
▁Indi	-9.44693
▁alal	-9.44695
▁mbaam	-9.44728
▁tombé	-9.44809
ici	-9.44913
▁sortir	-9.45016
tt	-9.45123
ère	-9.45137
Omar	-9.45325
ag	-9.45468
▁wone	-9.45522
midi	-9.45561
ou	-9.45795
▁dellusi	-9.45814
▁toit	-9.45869
▁bëggul	-9.45878
▁ubbi	-9.45953
or	-9.45995
ngeen	-9.46011
▁avais	-9.46179
éjà	-9.46253
▁kay	-9.46645
▁leneen	-9.46679
mi	-9.46821
▁baat	-9.47372
eur	-9.4746
▁gisee	-9.47617
▁sang	-9.47623
▁guy	-9.47668
▁tere	-9.47752
vient	-9.47841
▁dëkke	-9.48104
▁vieille	-9.48123
▁celle	-9.48139
ème	-9.48217
▁vienne	-9.48286
ersonne	-9.48294
▁chemin	-9.48334
▁Par	-9.48369
▁chef	-9.48735
▁sàkk	-9.48768
▁tabax	-9.48928
▁gan	-9.48954
▁mas	-9.48957
▁Sénégal	-9.48961
▁Móris	-9.4899
▁complète	-9.4899
▁chacun	-9.4899
▁Senegaal	-9.48991
▁wolof	-9.48992
▁gunóor	-9.48993
▁borom	-9.4901
▁téere	-9.49027
▁mburu	-9.49038
▁Keneen	-9.49043
▁fort	-9.49053
▁appris	-9.49089
▁xeer	-9.49091
▁Niseryaa	-9.49223
▁heures	-9.49239
▁derrière	-9.49269
▁sable	-9.49413
▁viens	-9.49425
▁venir	-9.49593
▁ventre	-9.49616
▁demain	-9.49672
▁tomber	-9.49726
ité	-9.49841
▁noo	-9.49901
▁set	-9.50137
▁comment	-9.5016
▁murs	-9.50196
▁niroo	-9.50488
▁mois	-9.50656
▁waxtu	-9.50773
▁dàq	-9.50856
▁tué	-9.5086
où	-9.50918
aale	-9.50926
▁Fan	-9.5108
▁ciel	-9.51094
▁defee	-9.51114
esprit	-9.51277
▁V	-9.51349
vent	-9.51462
▁Liggéey	-9.51484
▁mar	-9.51506
▁door	-9.51546
▁trouver	-9.51644
▁séy	-9.51764
▁As	-9.52038
▁garde	-9.52112
▁Nd	-9.52113
▁nak	-9.52392
▁per	-9.52464
▁nanu	-9.5255
▁teel	-9.52693
▁teen	-9.5275
▁nun	-9.52752
▁Bés	-9.53014
▁poule	-9.53053
▁gros	-9.5312
▁jur	-9.53217
▁waxtaan	-9.53281
▁jar	-9.5331
▁trouvé	-9.53353
aire	-9.53579
▁droit	-9.53602
▁met	-9.54137
▁romb	-9.54179
▁souviens	-9.54253
Ouest	-9.54254
▁Nigeria	-9.54254
▁mariage	-9.54259
▁wóor	-9.54268
▁simplement	-9.54274
▁xanaa	-9.54281
▁taal	-9.54289
▁Bansoo	-9.54311
▁francs	-9.5433
▁feeñ	-9.54336
▁Ici	-9.54338
▁Dëkk	-9.54369
▁in	-9.54382
▁pourquoi	-9.54391
▁vécu	-9.54404
▁ganaar	-9.54425
▁Samba	-9.54457
▁soow	-9.54473
▁jouer	-9.54526
▁attention	-9.5456
▁faisait	-9.54561
▁dëgër	-9.54582
▁bouillie	-9.5464
▁fruits	-9.54664
▁devait	-9.54741
▁feebar	-9.54773
▁portent	-9.54821
▁biens	-9.54841
▁Ndar	-9.5498
▁Ñi	-9.55058
▁dessus	-9.55103
▁cuir	-9.55171
▁jeu	-9.55357
▁deret	-9.55381
▁Nu	-9.55597
▁prends	-9.55692
▁géej	-9.55696
▁amee	-9.55807
▁gént	-9.5581
▁wetu	-9.55959
▁Xan	-9.5596
▁compte	-9.56024
▁mo	-9.56479
▁ng	-9.56496
âge	-9.56687
▁diis	-9.56706
▁wuti	-9.56717
endroit	-9.56718
▁fukk	-9.56743
▁tour	-9.56911
▁fecc	-9.57159
▁neen	-9.57265
▁regard	-9.57272
▁présent	-9.57778
▁sore	-9.58064
óor	-9.58144
sait	-9.58175
▁jafe	-9.5829
▁connais	-9.58313
▁porter	-9.58347
▁bar	-9.58389
▁saak	-9.58432
▁parles	-9.58512
▁offert	-9.58704
▁rivière	-9.58968
▁serpent	-9.5897
▁won	-9.59077
▁laisser	-9.59114
▁adulte	-9.59156
▁vivre	-9.59196
ël	-9.59261
û	-9.59349
▁lorsqu	-9.59425
▁yor	-9.59487
alcool	-9.59808
▁Maintenant	-9.59808
▁Laobe	-9.59814
▁brousse	-9.59816
▁diggante	-9.5982
▁mbubb	-9.59826
▁weesoo	-9.59828
▁suffit	-9.59836
iy	-9.59882
▁commencé	-9.59914
▁booba	-9.59974
▁golo	-9.60113
▁dehors	-9.60156
▁ngoon	-9.60235
▁kàddu	-9.60252
▁coeur	-9.60321
▁prépare	-9.60325
▁quel	-9.60456
▁mépp	-9.60457
▁Se	-9.60537
▁Seet	-9.60549
▁jant	-9.60617
▁béré	-9.60815
▁plaine	-9.60826
▁avions	-9.6087
▁Jél	-9.60899
▁Xa	-9.60921
▁sowu	-9.60954
iñ	-9.60994
▁màndi	-9.61061
kër	-9.61085
▁taabal	-9.61168
▁U	-9.61174
▁Saa	-9.61213
▁dog	-9.61272
▁blancs	-9.61389
▁ndey	-9.61824
▁yaatu	-9.61829
àll	-9.62062
▁Moi	-9.62286
▁Mes	-9.62286
école	-9.62585
▁nawet	-9.62725
fin	-9.62796
après	-9.63004
▁toj	-9.63025
▁Mbaa	-9.63073
▁commence	-9.63081
▁dëkki	-9.63161
▁entré	-9.63475
▁Leur	-9.63678
koon	-9.63755
▁Bàyyil	-9.63783
▁Danu	-9.63856
▁gar	-9.64113
▁ra	-9.64113
▁faa	-9.64247
▁xew	-9.64287
▁pars	-9.64915
▁pluie	-9.6493
ook	-9.64975
▁Ndox	-9.652
▁ràbb	-9.65203
▁baaraam	-9.65245
▁appelle	-9.65326
▁corde	-9.65436
▁Nda	-9.65442
▁màtt	-9.65453
Louis	-9.65506
▁épouse	-9.65581
▁Banso	-9.65627
▁forme	-9.65636
▁violence	-9.65691
▁Àngalteer	-9.65691
ru	-9.65694
▁Àngale	-9.65695
▁tekk	-9.65695
▁Viens	-9.65698
▁voix	-9.65707
▁mbedd	-9.65736
▁voici	-9.65737
▁réunion	-9.65739
▁parlait	-9.65767
▁passage	-9.658
▁relations	-9.65818
▁Noonu	-9.65833
▁moins	-9.65852
▁animaux	-9.65868
▁assez	-9.65887
▁battu	-9.65961
▁bépp	-9.65992
▁café	-9.66058
▁damm	-9.66181
▁ndab	-9.66223
▁Kon	-9.66249
▁woowu	-9.66285
▁buum	-9.66429
▁pot	-9.66464
▁entendu	-9.66628
▁jaan	-9.66794
▁njaay	-9.66864
▁parents	-9.66882
▁yàqu	-9.66961
▁waaj	-9.67031
os	-9.67111
▁jékk	-9.67144
▁villages	-9.67527
▁tefes	-9.6753
▁daj	-9.676
▁fit	-9.67631
▁mur	-9.67658
oir	-9.67698
mb	-9.67763
▁poissons	-9.67956
▁taw	-9.68067
armée	-9.6826
naa	-9.68293
▁puisse	-9.6834
instant	-9.68858
▁chasse	-9.68972
wu	-9.69014
▁cassé	-9.69168
▁boole	-9.69221
▁v	-9.69566
▁rab	-9.69583
der	-9.6981
▁Nga	-9.70146
▁sou	-9.70263
▁foo	-9.7029
▁jéem	-9.70458
ient	-9.70523
▁arbre	-9.70691
▁elles	-9.70697
▁Foo	-9.70791
▁soxla	-9.70796
▁jën	-9.70927
▁njëkk	-9.70927
).	-9.71028
bi	-9.71252
▁Voi	-9.7151
▁x	-9.7154
ellement	-9.71554
▁large	-9.71588
mu	-9.71912
▁jardin	-9.71941
▁meilleur	-9.71942
▁Picc	-9.71948
▁chaleur	-9.71949
exiler	-9.71953
▁dunyaa	-9.71953
▁diiwaan	-9.71953
▁début	-9.71961
▁préparé	-9.71966
iers	-9.71971
▁morom	-9.71974
▁journée	-9.71978
▁moroom	-9.71982
▁màngo	-9.71983
▁ndaje	-9.72001
▁néew	-9.72005
▁delloo	-9.72011
▁Kañ	-9.72015
▁bëñ	-9.72044
▁nouveau	-9.72074
▁yéeg	-9.72085
▁kese	-9.72086
▁soient	-9.7209
▁circoncis	-9.72098
▁Re	-9.72107
▁asamaan	-9.72141
▁genn	-9.72143
▁Gor	-9.72197
▁donc	-9.72219
▁xelam	-9.72261
▁tam	-9.723
▁xorom	-9.72325
▁sens	-9.72365
▁montagnes	-9.72393
▁màggat	-9.72395
▁boog	-9.72425
▁salle	-9.72434
▁fera	-9.72463
▁propre	-9.72512
▁fête	-9.72517
▁Yaw	-9.72567
▁ëtt	-9.72591
▁oreilles	-9.72607
▁noire	-9.72817
▁nekkoon	-9.72888
▁souris	-9.72921
▁këram	-9.72972
▁rëdd	-9.73015
▁jàll	-9.73024
▁queue	-9.73085
▁mujjee	-9.73151
▁affaires	-9.73253
▁noirs	-9.73457
▁X	-9.73485
▁arachides	-9.73548
▁lutte	-9.73626
▁fàttali	-9.73673
▁wér	-9.73678
▁seeti	-9.73754
▁Sunu	-9.7382
▁Bamenda	-9.73917
▁Ñoo	-9.73932
▁muus	-9.74043
sse	-9.74068
▁yar	-9.74105
▁mesure	-9.74199
▁coupé	-9.74357
▁partira	-9.74377
▁ron	-9.74425
ans	-9.74441
▁Woo	-9.74496
▁dur	-9.74521
▁ñan	-9.74548
rent	-9.74678
▁làmp	-9.74719
▁ñaw	-9.74978
▁avez	-9.75021
▁venus	-9.75138
âne	-9.75272
▁dëkku	-9.75282
góor	-9.75323
portant	-9.75372
▁mb	-9.75379
ju	-9.75661
▁ñaaw	-9.75803
ch	-9.75844
▁yàq	-9.75922
amour	-9.76127
▁woy	-9.76149
▁for	-9.76394
ine	-9.76479
iez	-9.76589
▁jóg	-9.76666
aurais	-9.7685
▁booy	-9.76874
▁mba	-9.77033
▁dig	-9.77215
▁àgg	-9.77495
▁natte	-9.77602
▁donner	-9.77684
▁difficile	-9.77691
maa	-9.7776
▁pantalon	-9.77766
▁noon	-9.77791
▁garçon	-9.77798
▁génne	-9.77849
tiir	-9.77865
▁grands	-9.77927
▁partis	-9.78034
▁So	-9.78402
▁pense	-9.7848
▁morceau	-9.78575
▁Arrête	-9.78607
▁Moussa	-9.78607
▁Êt	-9.78607
▁mémoire	-9.78607
▁House	-9.78608
▁Aucun	-9.78613
▁Enlève	-9.78615
▁Dakar	-9.78615
▁làrme	-9.78636
▁lëndëm	-9.78643
▁région	-9.78666
▁commerce	-9.78668
▁surtout	-9.78711
▁seetaan	-9.7872
▁I	-9.78721
▁plaît	-9.78753
▁courant	-9.78768
▁Nan	-9.78792
▁ëe	-9.78841
▁jaam	-9.78849
▁tangor	-9.7888
▁sàmm	-9.78897
▁resté	-9.78913
kk	-9.78943
▁Ces	-9.7895
▁baaxul	-9.79015
▁démb	-9.79048
▁tëj	-9.79058
▁yokk	-9.79064
▁Xamu	-9.79069
▁Toi	-9.79102
▁habit	-9.79105
▁bakkan	-9.79115
▁Ñii	-9.79204
▁kilo	-9.79229
tam	-9.79242
▁jotee	-9.7925
▁doomam	-9.79308
▁Combi	-9.79378
oor	-9.79402
▁juróomi	-9.79418
oivent	-9.79484
gi	-9.79517
▁ëmb	-9.79594
▁Vo	-9.79758
▁ňaar	-9.79782
atum	-9.799
ata	-9.79929
▁tubaab	-9.80074
▁jaune	-9.80153
▁wutal	-9.80192
▁julli	-9.80245
ga	-9.80265
▁Moytul	-9.80548
▁bëre	-9.80642
ewul	-9.80644
ire	-9.80737
▁Wall	-9.80738
gu	-9.80817
▁song	-9.80859
▁charge	-9.80868
▁pax	-9.80954
voir	-9.81027
▁nez	-9.81047
▁Nag	-9.81122
▁Woto	-9.8117
▁ñor	-9.81181
▁bett	-9.81265
▁jënd	-9.81355
▁liggéeye	-9.81401
▁Mag	-9.81484
▁séché	-9.81609
▁bale	-9.81708
▁taat	-9.82009
oeil	-9.82296
▁téye	-9.82337
abord	-9.82477
▁wute	-9.8248
kanam	-9.8251
oiseau	-9.82644
▁dayo	-9.82893
▁sér	-9.82937
▁Aw	-9.83055
▁reconnais	-9.83345
herbes	-9.83794
▁rue	-9.83838
ň	-9.84045
garder	-9.84173
▁fou	-9.84188
▁xëcc	-9.84461
aar	-9.84559
▁riir	-9.84642
▁baobab	-9.84778
▁prochain	-9.848
▁mujje	-9.84805
able	-9.84818
▁maître	-9.84824
▁souvenir	-9.84836
▁ser	-9.84866
▁connu	-9.84887
▁allait	-9.84892
eer	-9.84895
▁dromadaire	-9.84906
▁sorti	-9.84921
▁bas	-9.85012
▁jolie	-9.8527
▁palanteer	-9.85625
▁jëkkër	-9.85649
▁ñett	-9.85722
▁Achète	-9.8575
▁Mecque	-9.8575
▁liberté	-9.8575
▁préfère	-9.8575
▁théière	-9.85753
▁vérité	-9.85753
▁poudre	-9.85754
▁soldaar	-9.85757
▁palais	-9.85759
▁rëcc	-9.85762
▁Appelle	-9.85768
▁ceinture	-9.85776
▁nombreux	-9.85781
▁mêmes	-9.85782
▁ndigg	-9.85796
▁Peut	-9.85816
▁caabi	-9.85832
▁coucher	-9.85913
waat	-9.85928
▁calebasse	-9.85956
▁gendarmes	-9.85964
▁weñ	-9.85985
▁xeex	-9.86005
▁feneen	-9.86022
jj	-9.86024
▁élevé	-9.86051
▁quatre	-9.86073
▁Kaay	-9.86075
▁Passe	-9.861
▁Yéen	-9.86102
▁Mënuma	-9.86162
▁Laisse	-9.86184
▁monter	-9.86202
▁rendu	-9.86256
▁cou	-9.8628
▁taxoon	-9.86324
▁dajale	-9.86328
▁fasse	-9.86344
▁waroon	-9.86365
▁làkk	-9.86382
▁pourra	-9.86411
vec	-9.86445
▁bëggoon	-9.8649
▁tukki	-9.86614
▁vite	-9.86673
▁agsee	-9.86695
▁ndànk	-9.86705
▁gas	-9.86774
▁gars	-9.87002
▁War	-9.87062
▁dootul	-9.87134
▁kilifa	-9.87183
▁luy	-9.87257
▁lampe	-9.87276
▁filles	-9.87328
▁ñii	-9.87346
▁tirer	-9.87513
▁Doom	-9.87653
▁po	-9.87718
▁tëb	-9.87929
▁Non	-9.8795
▁Dina	-9.87995
▁taxul	-9.88061
▁Booy	-9.88097
aux	-9.88108
▁ex	-9.88138
▁réewu	-9.88228
▁raxas	-9.88564
▁pri	-9.88672
▁Lekk	-9.88684
▁jàngal	-9.88716
aayu	-9.88819
▁couleurs	-9.8886
▁mucc	-9.89018
▁bool	-9.89113
añoo	-9.89246
mal	-9.89411
▁moy	-9.89447
rait	-9.89602
▁âge	-9.89948
entre	-9.8995
▁fil	-9.90008
▁Doo	-9.90076
ëkk	-9.90155
▁naaw	-9.90354
atul	-9.90744
avez	-9.90761
▁sonn	-9.90895
aube	-9.90906
▁baxa	-9.90916
▁gise	-9.90923
▁tàkk	-9.90982
▁sel	-9.90998
uloo	-9.91024
▁Bamendaa	-9.91256
▁bleu	-9.91631
▁regarde	-9.91656
▁tombe	-9.91848
▁entier	-9.91864
cc	-9.92124
▁aime	-9.92242
▁sort	-9.92317
▁sori	-9.92403
▁court	-9.92524
ba	-9.92527
▁chaud	-9.9255
▁maanaa	-9.92582
▁bâton	-9.92623
▁branche	-9.92673
▁dënn	-9.9296
ique	-9.93056
▁lim	-9.93056
▁xob	-9.93069
oy	-9.93093
▁coupe	-9.93102
▁retour	-9.9324
▁fóot	-9.93298
sa	-9.93316
aatu	-9.93363
▁visite	-9.93399
▁facile	-9.934
▁cadeau	-9.9343
▁britannique	-9.93442
▁marmite	-9.93443
▁lumière	-9.93443
▁piège	-9.93443
▁xàmmee	-9.93443
▁wirgo	-9.93444
▁jamano	-9.93444
▁chevaux	-9.93444
▁livre	-9.9345
▁pañe	-9.93454
▁sèche	-9.93457
▁caillé	-9.93457
gànnaar	-9.9346
▁Réew	-9.93466
▁yuuxu	-9.93467
▁Lawbe	-9.93469
▁Maurice	-9.93472
▁sotti	-9.93479
▁jéggi	-9.9348
▁fetal	-9.93488
▁boroom	-9.93491
▁sokolaa	-9.93492
▁Moonte	-9.93494
▁demandé	-9.93502
▁doxandéem	-9.93505
▁Musaa	-9.93513
▁këll	-9.93517
▁jëfandikoo	-9.93531
▁Xaw	-9.93535
▁fanaan	-9.93551
▁pleurer	-9.93595
▁demkoon	-9.93623
▁gémmiñ	-9.93645
▁Frãs	-9.93652
▁Ibo	-9.93658
▁fépp	-9.93671
▁naqar	-9.93696
▁kayit	-9.9371
▁loxoom	-9.93755
▁Seeta	-9.93771
▁fenn	-9.93823
▁proche	-9.93851
▁Xaj	-9.93868
▁danu	-9.9392
▁dirait	-9.93923
▁panier	-9.93934
▁rek	-9.93941
gis	-9.93948
▁projet	-9.93956
▁touche	-9.93974
▁wàll	-9.93997
▁Kii	-9.94012
▁devenu	-9.94065
▁samp	-9.94126
▁yëngu	-9.94168
▁viennent	-9.94182
ie	-9.94245
▁Teg	-9.94268
▁bëy	-9.94325
▁beek	-9.9439
oom	-9.94464
▁jege	-9.94472
▁xamoon	-9.94522
▁yaw	-9.94558
▁jeté	-9.94807
▁cuit	-9.94896
▁sago	-9.94926
▁tontu	-9.95003
▁Dégg	-9.95038
▁rappelle	-9.95143
▁Gàdd	-9.95228
▁ré	-9.95324
añ	-9.954
▁ŋgii	-9.95487
▁naat	-9.95505
part	-9.95677
▁Naan	-9.95718
▁yax	-9.95931
▁kaas	-9.95983
im	-9.95988
▁ras	-9.9599
▁xa	-9.96072
▁côte	-9.96251
éeréer	-9.96374
▁argent	-9.96392
▁telle	-9.96418
▁...	-9.96455
▁port	-9.96567
▁fekke	-9.96594
▁champs	-9.96717
rie	-9.96766
▁bëtt	-9.96788
▁Ri	-9.97034
eel	-9.97043
▁xéy	-9.97182
▁dalal	-9.97255
▁pres	-9.97388
▁soog	-9.9743
▁No	-9.97533
▁Daan	-9.9758
▁dirige	-9.97899
▁denc	-9.97922
nn	-9.98212
▁ren	-9.98348
ét	-9.98421
Europe	-9.98543
2	-9.98602
▁rend	-9.98907
▁sab	-9.99162
▁fourn	-9.9923
▁bul	-9.99266
▁ferme	-9.9935
▁maye	-9.99659
▁Mënul	-9.99689
▁yab	-9.99698
▁toogu	-10.0023
laay	-10.0035
▁rapide	-10.007
▁pirogue	-10.0086
▁pënd	-10.009
▁maladie	-10.0093
▁tambour	-10.0094
▁doigt	-10.0096
▁scorpion	-10.0097
▁ciment	-10.01
▁langue	-10.0107
ka	-10.0109
▁fee	-10.0113
▁carte	-10.0119
▁bànneex	-10.0119
▁manque	-10.0129
▁natt	-10.0136
▁con	-10.0144
▁clé	-10.015
▁Léeg	-10.0151
▁gaañ	-10.0157
▁accroché	-10.0158
▁calme	-10.0159
▁tant	-10.0168
▁Defe	-10.0168
▁dég	-10.017
▁Seigneur	-10.0178
▁période	-10.0178
▁Ñów	-10.0178
▁tranquille	-10.0178
▁silence	-10.0178
▁juddoo	-10.0178
▁faudra	-10.0178
▁Màkka	-10.0178
▁cosaan	-10.0178
▁rawati	-10.0178
▁banqaas	-10.0178
▁Pourtant	-10.0178
▁pouvoir	-10.0179
▁mellentaan	-10.018
▁appelé	-10.018
▁tiim	-10.018
▁féete	-10.018
▁déjeuner	-10.0181
unu	-10.0182
▁mbokk	-10.0184
saalum	-10.0185
▁mbóot	-10.0185
▁poste	-10.0185
▁foofa	-10.0187
▁Booba	-10.0188
▁meew	-10.0189
▁wépp	-10.019
▁yëf	-10.0195
▁tresses	-10.0195
▁grosse	-10.0214
▁juste	-10.0217
▁Sé	-10.0217
▁parlé	-10.0218
▁reer	-10.022
▁autrement	-10.0229
▁envoyée	-10.0235
▁remis	-10.0236
▁naissance	-10.0244
▁médicaments	-10.0245
▁pierres	-10.0247
▁cours	-10.0252
▁couche	-10.0255
▁malade	-10.026
imagine	-10.0268
▁meloon	-10.0269
▁Noona	-10.0272
▁garçons	-10.0281
ion	-10.0305
▁be	-10.0306
▁tund	-10.0319
▁fleuves	-10.0323
▁dawal	-10.0323
▁menn	-10.033
▁joor	-10.0331
▁jeux	-10.0341
▁mari	-10.0342
▁Jaam	-10.0361
▁Fomp	-10.0362
▁sañ	-10.0368
▁laisses	-10.0368
▁Sud	-10.0368
tion	-10.0376
▁bo	-10.038
▁varan	-10.0389
▁sii	-10.039
ure	-10.0395
▁Jénda	-10.0421
▁mille	-10.043
▁dugal	-10.0432
use	-10.0439
▁acheter	-10.0454
▁souffle	-10.046
▁nëbb	-10.0471
▁jàppe	-10.0479
▁mana	-10.0507
▁coups	-10.0512
▁entrer	-10.0513
▁jaa	-10.052
▁instant	-10.0522
▁Cere	-10.0536
▁jekk	-10.0544
▁balle	-10.0545
▁herbes	-10.0577
▁vrai	-10.0585
▁Me	-10.0599
▁taille	-10.0599
entré	-10.0606
ottali	-10.0615
▁warul	-10.0617
▁Ña	-10.0634
▁couper	-10.0634
èrent	-10.0639
eñ	-10.065
appelle	-10.0661
▁sopp	-10.0663
su	-10.0671
nekk	-10.0673
▁tooy	-10.068
▁dexu	-10.0718
▁Mar	-10.0722
▁Bët	-10.073
▁pom	-10.073
▁Bii	-10.0735
▁Noo	-10.0746
▁pur	-10.0753
▁diw	-10.076
Ogoja	-10.0765
▁bateau	-10.0835
ral	-10.0837
ier	-10.0872
agit	-10.0898
▁vide	-10.0911
▁laissé	-10.0919
▁diir	-10.0921
▁njiit	-10.0935
▁nooy	-10.0935
ñoo	-10.0955
▁ñeme	-10.0959
aura	-10.0974
▁sûr	-10.0986
▁rage	-10.0988
▁perdu	-10.0991
▁cor	-10.0994
ière	-10.0999
▁chèvre	-10.1004
ations	-10.1013
▁conçue	-10.1016
▁monte	-10.1017
▁tóo	-10.1018
acheter	-10.1027
af	-10.103
▁Nj	-10.1047
▁tëgg	-10.1049
ême	-10.1052
gal	-10.1052
▁sabar	-10.1059
▁H	-10.1063
be	-10.107
▁Casamance	-10.1087
▁Guwiyaan	-10.1087
▁enceinte	-10.1087
▁soudain	-10.1087
▁veulent	-10.1087
▁mosquée	-10.1087
▁poitrine	-10.1087
▁Guyane	-10.1087
▁compris	-10.1087
▁toppatoo	-10.1087
▁Wolof	-10.1087
▁poussière	-10.1087
▁yëkkati	-10.1087
argile	-10.1087
zone	-10.1087
▁Xammee	-10.1087
▁renversé	-10.1088
▁gazelle	-10.1088
▁Yow	-10.1088
▁dernière	-10.1089
▁bërëb	-10.1089
▁frappé	-10.1089
▁Ndakaaru	-10.1089
▁Homme	-10.109
▁front	-10.109
▁assurément	-10.1091
▁toogukaay	-10.1092
▁départ	-10.1093
▁paille	-10.1094
▁meetar	-10.1095
gré	-10.1096
▁failli	-10.1096
▁vendre	-10.1096
▁dekkali	-10.1098
▁xuus	-10.1098
▁partout	-10.1099
▁jàppale	-10.1099
▁nuages	-10.1101
▁mbër	-10.1102
▁retraite	-10.1111
▁déggoo	-10.1114
▁suukar	-10.1114
▁soosu	-10.1115
▁suite	-10.1117
▁fleurs	-10.1117
▁Ren	-10.1121
▁jam	-10.1124
▁sëkk	-10.1135
▁comporte	-10.1137
▁gris	-10.1139
▁entra	-10.1145
▁existe	-10.1147
près	-10.1156
▁waañ	-10.116
▁neexul	-10.1164
▁teew	-10.1169
▁doigts	-10.1177
▁metit	-10.1186
▁fale	-10.119
▁Wa	-10.1199
▁masul	-10.12
▁libre	-10.1206
▁muur	-10.1213
kati	-10.1219
óon	-10.1224
▁ëllëg	-10.1232
▁attends	-10.1233
▁kawar	-10.1248
aurait	-10.1263
▁vendu	-10.1267
▁léeb	-10.1277
▁yit	-10.129
entendre	-10.13
▁raay	-10.1301
▁maisons	-10.1324
▁époque	-10.1325
▁tar	-10.1326
qu	-10.1328
▁plat	-10.1337
▁Ka	-10.1344
▁routes	-10.1356
▁Voil	-10.136
▁bekk	-10.1372
▁neneen	-10.139
▁dër	-10.1393
▁gardé	-10.1393
▁jub	-10.1399
▁miin	-10.1399
saŋ	-10.1407
▁Sée	-10.1421
▁vit	-10.143
▁wow	-10.1435
xam	-10.1439
▁sës	-10.1439
▁tux	-10.1444
▁ree	-10.1446
▁sarax	-10.1453
▁dénd	-10.1457
▁partes	-10.1459
taal	-10.1469
▁cases	-10.1473
▁yenu	-10.1493
▁commencer	-10.15
urs	-10.1505
▁laal	-10.1509
▁Bunt	-10.1528
▁Ou	-10.1531
ko	-10.1532
lli	-10.1542
▁nul	-10.1555
▁abal	-10.1572
▁laxas	-10.1587
▁kowe	-10.1589
▁cure	-10.159
▁tire	-10.1593
▁Jaay	-10.1594
▁rus	-10.1618
▁joue	-10.1624
▁Ng	-10.164
▁digg	-10.1641
▁Bala	-10.1654
▁Diw	-10.1658
tey	-10.1659
importe	-10.1667
añuy	-10.167
affaire	-10.1691
ab	-10.1704
réew	-10.1725
▁cr	-10.1726
▁vi	-10.1743
impression	-10.1754
▁weesu	-10.1783
▁Lui	-10.1805
abri	-10.1809
▁égarée	-10.182
▁tàmm	-10.1825
bal	-10.1828
dire	-10.1837
ve	-10.1846
▁cee	-10.1858
issant	-10.1868
jour	-10.1898
▁jubal	-10.19
▁jë	-10.1918
▁désert	-10.1919
ois	-10.1922
iens	-10.193
▁ame	-10.193
▁gënal	-10.1947
▁defare	-10.1953
▁rêve	-10.1967
▁sor	-10.1971
▁goût	-10.1991
▁Sérère	-10.1995
écart	-10.1996
▁policier	-10.2002
▁médicament	-10.2005
arachide	-10.2008
▁classe	-10.2008
▁fruit	-10.2008
▁chaise	-10.2021
▁Ñaa	-10.2038
▁ét	-10.2049
▁ira	-10.2069
▁séq	-10.2073
▁légère	-10.2082
▁chocolat	-10.2084
▁chapeau	-10.2085
Angleterre	-10.2087
▁Kaolack	-10.2087
▁baptême	-10.2087
▁brusquement	-10.2087
▁Kawlax	-10.2087
▁société	-10.2087
▁caractère	-10.2087
▁Chacun	-10.2087
▁nourriture	-10.2087
▁protection	-10.2087
▁Tabaski	-10.2087
▁époux	-10.2087
▁Regarde	-10.2087
▁bouteille	-10.2087
▁tamarin	-10.2087
▁puissance	-10.2087
▁terrain	-10.2087
▁magasin	-10.2087
▁trente	-10.2087
▁janook	-10.2087
▁Fatim	-10.2088
asseoir	-10.2088
▁gauche	-10.2088
▁Waxtaan	-10.2088
▁subë	-10.2088
▁plage	-10.2089
▁campement	-10.2089
▁douceur	-10.2089
▁Nord	-10.2089
▁tissu	-10.209
▁parfois	-10.209
▁wacc	-10.209
▁papier	-10.2091
▁sentiment	-10.2091
▁reconnu	-10.2092
▁piment	-10.2092
▁gëléem	-10.2092
▁tubay	-10.2092
▁foyer	-10.2093
▁askan	-10.2093
▁Pose	-10.2094
▁wanag	-10.2094
▁Dañ	-10.2094
▁seetsi	-10.2094
▁fâché	-10.2094
▁ñeex	-10.2095
▁Dëgg	-10.2095
▁tiit	-10.2098
▁sell	-10.2098
▁naqadi	-10.2098
▁fût	-10.2099
▁servir	-10.2099
▁daaneel	-10.2102
▁tàmbali	-10.2102
▁boire	-10.2104
▁ndënd	-10.2106
▁pourtant	-10.2106
▁cacher	-10.2107
▁Jàppal	-10.2108
▁oncle	-10.2114
▁étions	-10.2115
▁butéel	-10.2115
▁bukki	-10.2116
▁boutique	-10.2116
▁thé	-10.2118
▁Suba	-10.212
▁cercle	-10.212
▁ro	-10.2122
▁nombre	-10.2122
▁battre	-10.2124
▁boot	-10.2126
▁féex	-10.2126
▁Bëy	-10.2126
▁ekool	-10.2131
▁retrouver	-10.2133
▁jëkka	-10.2136
▁prête	-10.2138
▁bënn	-10.2138
▁linge	-10.2141
▁sanc	-10.2142
▁jëf	-10.2145
▁honnête	-10.2149
▁Njaay	-10.215
▁sauvages	-10.2152
urno	-10.2152
▁serais	-10.2154
▁gënoon	-10.2155
▁kafe	-10.2158
▁mouillé	-10.2166
▁tàngal	-10.2168
vez	-10.2174
▁yéene	-10.2178
▁poulet	-10.2183
▁Yeen	-10.2186
▁boeuf	-10.2188
▁aay	-10.2189
▁venue	-10.2194
ry	-10.2196
▁mariée	-10.2199
▁kook	-10.2201
▁tenir	-10.221
▁demander	-10.2211
▁doxe	-10.2212
▁enfance	-10.2213
▁Yen	-10.2219
▁Fekk	-10.222
▁ailleurs	-10.222
▁présente	-10.2222
▁détourn	-10.2226
▁hautes	-10.2236
▁Toute	-10.2239
▁taamu	-10.2256
▁hier	-10.2267
▁pouvai	-10.2269
ssent	-10.2277
▁é	-10.2284
▁poussé	-10.2298
▁saw	-10.2324
▁attend	-10.233
▁wiy	-10.2352
▁nj	-10.2361
▁më	-10.237
ependant	-10.238
▁viendrai	-10.2396
▁njël	-10.2404
▁rencontre	-10.2408
▁arrivés	-10.2413
▁see	-10.2417
▁Plu	-10.2425
▁ceci	-10.2433
▁baree	-10.2437
▁jéle	-10.2445
too	-10.2446
▁dunde	-10.2449
▁clair	-10.2455
fukk	-10.2465
lé	-10.2477
arrière	-10.2484
llions	-10.249
eelu	-10.2507
▁yeew	-10.2509
vant	-10.2516
▁yegg	-10.254
▁saal	-10.2544
▁garabi	-10.2553
agul	-10.2558
▁tur	-10.2559
▁ub	-10.2571
▁cassée	-10.2597
endant	-10.2607
▁taxa	-10.2629
▁Puis	-10.2642
▁école	-10.2652
▁chante	-10.2652
▁defal	-10.2652
▁Vas	-10.2661
▁ñëwul	-10.2666
▁Certain	-10.2669
▁chant	-10.2669
▁préparer	-10.2671
▁waar	-10.2678
▁Faat	-10.2679
▁Màng	-10.2693
▁sog	-10.2747
▁reçu	-10.2752
▁tay	-10.2759
▁maternel	-10.2761
▁der	-10.2765
▁bor	-10.2767
▁gaawa	-10.2778
boo	-10.2797
▁nan	-10.2806
▁kat	-10.2806
llement	-10.2812
indil	-10.2827
▁danse	-10.2833
▁Ki	-10.285
ter	-10.2863
▁làq	-10.2863
odeur	-10.2864
bët	-10.2871
no	-10.2875
▁lenn	-10.2877
heure	-10.2894
▁jee	-10.2896
▁Fo	-10.2907
▁tama	-10.2914
▁Mas	-10.2916
▁né	-10.2921
▁nàmp	-10.2929
uur	-10.2937
▁petites	-10.2943
▁cent	-10.295
▁seau	-10.2962
ndey	-10.2967
▁Jénd	-10.2976
alal	-10.2977
▁saay	-10.2992
▁repas	-10.2999
▁mënee	-10.3028
▁mbaar	-10.3032
ëf	-10.3041
arrive	-10.3043
▁mee	-10.3057
▁nature	-10.3067
▁ferai	-10.3068
▁dessin	-10.3071
▁wàcc	-10.3088
▁wadd	-10.3091
▁craint	-10.3095
▁domaine	-10.3097
▁not	-10.3102
aate	-10.3103
▁pré	-10.3108
▁Koo	-10.3113
ns	-10.3115
▁nouvelle	-10.3116
▁fenêtre	-10.3117
▁foi	-10.3118
▁montagne	-10.3125
▁parole	-10.3125
▁rire	-10.3127
▁certaine	-10.3133
ngi	-10.314
▁jàkk	-10.3142
▁mbal	-10.315
▁kañ	-10.3152
du	-10.3155
▁gëm	-10.316
lo	-10.3162
▁dë	-10.3164
▁brave	-10.3179
▁liy	-10.3181
ii	-10.3181
▁jariñ	-10.3193
▁simple	-10.3194
▁joli	-10.3195
▁radio	-10.3198
▁perroquet	-10.3198
▁Biyaafaraa	-10.3198
▁Déedéet	-10.3198
▁grâce	-10.3198
▁propriétaire	-10.3198
▁wëndéelu	-10.3198
▁ensuite	-10.3198
▁manioc	-10.3198
▁Allez	-10.3198
▁beurre	-10.3198
▁tâche	-10.3198
▁Ainsi	-10.3198
▁keroog	-10.3198
▁mourir	-10.3198
▁travaux	-10.3198
▁Laobé	-10.3198
▁manguier	-10.3198
▁Jamono	-10.3198
▁tubéy	-10.3198
▁docteur	-10.3198
▁Prophète	-10.3198
▁wurus	-10.3198
▁choisi	-10.3198
▁Gaynd	-10.3198
▁Almaañ	-10.3198
▁gouvernement	-10.3198
▁canari	-10.3198
▁toilettes	-10.3199
▁vaisselle	-10.3199
▁Monsieur	-10.3199
▁palaat	-10.3201
▁frontière	-10.3201
▁farine	-10.3201
▁Teewul	-10.3202
▁Ganaar	-10.3202
▁vaccin	-10.3202
▁sauf	-10.3202
▁jinne	-10.3203
▁profit	-10.3203
▁enlevé	-10.3203
▁morceaux	-10.3204
indépendance	-10.3205
▁gox	-10.3206
▁savane	-10.3206
▁veille	-10.3206
▁ŋgoon	-10.3207
▁possible	-10.3207
▁savon	-10.3209
▁meubles	-10.3213
▁arriva	-10.3213
▁camp	-10.3213
▁saabu	-10.3214
▁njariñ	-10.3215
▁Coupe	-10.3218
▁jaŋg	-10.3223
entends	-10.3224
▁joie	-10.3226
▁vingt	-10.3226
▁extrême	-10.3226
▁gisaat	-10.3227
▁Buy	-10.3227
▁vue	-10.3227
eaucoup	-10.3228
▁alkaati	-10.3229
▁kaani	-10.323
▁Ceeb	-10.3231
▁bal	-10.3231
▁dessous	-10.3233
▁jaxasoo	-10.3235
▁woowe	-10.3238
▁Mbir	-10.3239
▁nijaay	-10.324
▁objets	-10.3242
▁tolloo	-10.3243
▁vin	-10.3244
▁ñówee	-10.3244
▁ñee	-10.3244
▁Niis	-10.3244
▁dëj	-10.3245
▁santé	-10.3246
▁Marie	-10.3246
▁penku	-10.325
▁regarder	-10.3252
▁Ñàkkul	-10.3252
aide	-10.3253
tul	-10.3256
▁palmes	-10.3259
▁étranger	-10.3262
▁kowam	-10.3264
▁soi	-10.3265
▁Doomu	-10.3266
▁dënnu	-10.3269
▁mangues	-10.327
▁xobi	-10.3274
▁dessiné	-10.3275
▁Ë	-10.3276
▁paroles	-10.3281
▁yaayam	-10.3288
▁soup	-10.3289
dd	-10.3295
▁insectes	-10.3302
▁coow	-10.3304
▁tekki	-10.3312
▁disait	-10.3314
▁bâtons	-10.332
▁branches	-10.3321
▁pe	-10.3327
▁sommet	-10.3333
▁bomb	-10.3333
ro	-10.3335
▁jéndal	-10.3338
▁dey	-10.334
▁coono	-10.3341
▁mode	-10.3342
▁lieux	-10.3345
▁état	-10.3345
▁malheur	-10.3347
▁pardonne	-10.3353
▁idée	-10.3355
▁cordes	-10.3358
▁të	-10.3363
▁adultes	-10.3369
▁iras	-10.3373
▁vert	-10.3375
▁wor	-10.3377
▁vends	-10.3384
▁droite	-10.3384
▁Aka	-10.3384
▁Po	-10.339
▁waxoon	-10.3398
▁verres	-10.3411
▁noms	-10.3415
▁viennes	-10.3417
▁caillou	-10.3421
▁mënuma	-10.3421
lle	-10.3437
cation	-10.344
▁waxe	-10.3442
ler	-10.3449
▁baraada	-10.3453
▁Yé	-10.3461
aider	-10.3465
▁éclat	-10.3479
▁armé	-10.3489
▁max	-10.3489
eg	-10.3498
▁faite	-10.35
▁verra	-10.3503
▁canne	-10.3503
▁aar	-10.3512
▁Ya	-10.3519
▁tuur	-10.3522
▁ñam	-10.3525
▁prenne	-10.3529
▁sàcc	-10.353
▁six	-10.3541
▁finir	-10.3544
▁Jàng	-10.3544
wuma	-10.3561
▁xamu	-10.3567
▁Nun	-10.3574
▁masu	-10.358
gg	-10.3591
▁siis	-10.3596
fi	-10.36
▁boy	-10.361
▁Tay	-10.363
▁cru	-10.3631
▁allée	-10.3642
▁xat	-10.3642
▁laax	-10.3647
co	-10.3653
▁Parle	-10.3655
▁aventure	-10.3656
▁raw	-10.3665
hez	-10.3677
▁Wu	-10.3679
▁nar	-10.368
▁voitures	-10.3684
▁wan	-10.3687
▁rester	-10.3694
▁partage	-10.3696
▁bes	-10.3704
▁cache	-10.371
▁jógee	-10.3719
▁dure	-10.3719
▁jog	-10.3726
▁Bar	-10.3733
epuis	-10.3745
▁toolu	-10.3766
▁réunis	-10.3767
des	-10.3784
▁Qua	-10.379
▁aurais	-10.3791
▁dix	-10.3796
▁Mo	-10.3815
ombre	-10.3817
▁ño	-10.3818
▁pro	-10.3835
▁nguuru	-10.3841
▁tànki	-10.3842
sant	-10.3853
ins	-10.3853
▁Baax	-10.3854
▁ñooñu	-10.386
waan	-10.3864
▁bula	-10.3866
▁kàttan	-10.3868
▁arrivée	-10.3868
éej	-10.387
ntrée	-10.3885
nte	-10.3886
nce	-10.3893
▁oui	-10.391
quelles	-10.3928
▁màndarga	-10.3934
▁connaît	-10.3938
▁pleine	-10.3939
▁douce	-10.3952
ande	-10.3976
▁Bon	-10.3986
dëgg	-10.3991
▁lance	-10.3991
àcc	-10.3998
▁français	-10.4001
gaa	-10.4018
benn	-10.4044
▁Nee	-10.4051
▁quan	-10.4053
▁plan	-10.4065
▁brûle	-10.4067
▁alla	-10.4075
▁jénde	-10.4097
▁bain	-10.4103
▁Alma	-10.4103
autorité	-10.4108
aventure	-10.4111
▁mala	-10.4112
▁daawu	-10.4117
aumône	-10.4119
doole	-10.4123
époque	-10.4124
▁tôt	-10.4141
kom	-10.4171
amatul	-10.4177
▁vus	-10.4177
▁pourrai	-10.4187
huile	-10.4215
arachides	-10.4221
▁col	-10.4237
andoo	-10.4257
war	-10.4263
▁ŋ	-10.4272
▁yomb	-10.4277
▁photos	-10.4282
▁to	-10.4288
▁jànj	-10.429
erai	-10.4318
▁lax	-10.4319
▁africain	-10.4332
▁mbaal	-10.4342
▁yég	-10.4347
▁sonal	-10.435
▁meññ	-10.4351
▁kàdd	-10.4352
▁condition	-10.4355
gisu	-10.4356
▁envoyé	-10.4363
▁fatigué	-10.4363
▁sauvage	-10.4366
ll	-10.4369
▁siiw	-10.437
▁mangue	-10.4376
ard	-10.4386
▁Attend	-10.4387
ok	-10.4392
▁kee	-10.4393
jant	-10.4409
▁daawul	-10.4412
man	-10.4421
▁tàll	-10.4427
▁juum	-10.4428
▁maak	-10.4435
kaay	-10.4436
▁yilif	-10.4444
▁excessive	-10.4448
apprécie	-10.4448
▁Victoria	-10.4448
▁dimanche	-10.4448
▁djinn	-10.4448
▁bébé	-10.4448
▁construction	-10.4448
▁charbon	-10.4448
▁Legoos	-10.4448
▁graisse	-10.4448
▁xibaar	-10.4448
▁lessive	-10.4448
▁Coran	-10.4448
▁gàncax	-10.4448
▁Guddi	-10.4448
▁clef	-10.4448
▁tabac	-10.4448
▁rideau	-10.4448
▁plaisir	-10.4448
▁janeer	-10.4449
▁également	-10.4449
▁crâne	-10.4449
▁bruit	-10.4449
▁peinture	-10.4449
▁reçoi	-10.4449
▁Amaana	-10.4449
▁quartier	-10.4449
▁courage	-10.4449
▁poing	-10.445
▁Officer	-10.445
▁hutte	-10.445
▁travailleurs	-10.445
▁Attache	-10.445
▁yëngal	-10.4451
▁voulait	-10.4451
▁fallait	-10.4452
▁chute	-10.4452
▁Xoolal	-10.4452
▁cornes	-10.4453
▁oublié	-10.4453
▁souvent	-10.4453
▁prix	-10.4454
▁termites	-10.4454
▁chaussettes	-10.4454
offrir	-10.4454
▁fesses	-10.4455
▁lonet	-10.4455
▁rythme	-10.4455
▁fajkat	-10.4456
▁mbagg	-10.4456
▁cuuj	-10.4457
▁recherche	-10.4458
▁Pël	-10.4458
▁arrêté	-10.4459
▁voisins	-10.4459
▁commun	-10.4459
▁Gën	-10.446
▁jàdd	-10.4463
▁courir	-10.4465
▁emporté	-10.4465
▁voulu	-10.4466
▁sàngara	-10.4467
▁fen	-10.4468
▁créé	-10.4468
▁raconter	-10.4468
▁cœur	-10.4471
▁jus	-10.4472
▁rencontrer	-10.4472
▁fumée	-10.4473
▁Lave	-10.4473
▁ressemblent	-10.4475
▁kukk	-10.4476
▁soldats	-10.4476
▁nombreuses	-10.4476
st	-10.4478
Meew	-10.4478
▁portait	-10.4479
▁bonheur	-10.448
▁grossesse	-10.448
▁fatt	-10.4481
▁pexe	-10.4482
▁écrit	-10.4485
▁Nice	-10.4486
▁lonku	-10.4486
▁xolam	-10.4487
▁kéemaane	-10.4488
▁beaux	-10.4488
▁sagar	-10.4489
▁trempé	-10.449
▁gàttal	-10.4493
▁Éta	-10.4493
▁Kookule	-10.4502
▁gejje	-10.4502
▁machine	-10.4503
▁Yoon	-10.4506
▁veau	-10.4507
▁baayam	-10.4511
▁junni	-10.4513
▁gàddu	-10.4515
▁certain	-10.4516
▁rendi	-10.4519
▁xaritam	-10.4521
▁aiguille	-10.4527
▁bëggée	-10.453
p	-10.4531
▁Guy	-10.4534
fu	-10.4535
▁lëf	-10.4536
▁tiré	-10.454
▁liggéeyam	-10.4546
▁geen	-10.4548
ole	-10.4549
▁dëkkoon	-10.4549
▁fusil	-10.455
▁sec	-10.4556
▁lutter	-10.456
▁Won	-10.4565
▁chèvres	-10.4565
▁scorpions	-10.4576
▁nég	-10.458
▁étais	-10.4583
daw	-10.4583
▁nekkul	-10.4596
▁jéll	-10.4604
▁mukk	-10.4608
▁darab	-10.461
▁yat	-10.4612
▁wàccee	-10.4619
espère	-10.4619
▁saxaar	-10.462
our	-10.4639
▁vivres	-10.4643
▁regardes	-10.465
▁Ko	-10.4656
▁taq	-10.4657
▁individu	-10.4658
▁chemins	-10.4661
▁Naar	-10.467
▁làqu	-10.4674
▁dan	-10.4693
▁tient	-10.4693
▁jan	-10.4696
▁forte	-10.47
▁jiitu	-10.4702
▁rends	-10.4704
▁soxna	-10.4706
▁permet	-10.4718
▁nus	-10.472
▁cherches	-10.472
▁bassine	-10.4732
▁cultive	-10.4733
▁dëppoo	-10.4736
▁blanches	-10.4738
▁biral	-10.474
may	-10.474
ule	-10.4743
▁haute	-10.4743
istrict	-10.4744
▁Ke	-10.4744
▁contes	-10.4745
aata	-10.4754
▁Golo	-10.4756
▁attaché	-10.4761
▁noor	-10.4762
▁inter	-10.4766
▁finira	-10.4777
▁puso	-10.4779
▁rapporte	-10.4796
▁feras	-10.48
avant	-10.4811
eŋ	-10.4825
ñax	-10.4845
▁ha	-10.4868
▁paan	-10.4881
ke	-10.4884
▁Abal	-10.489
▁mës	-10.4894
▁unique	-10.4897
▁cat	-10.4903
▁soppi	-10.4915
▁tee	-10.4928
▁fitna	-10.4929
tti	-10.4938
▁lève	-10.4952
waay	-10.4953
▁pén	-10.496
▁suma	-10.4962
▁Europe	-10.4964
▁trait	-10.4966
▁devrai	-10.4966
oindre	-10.4974
▁construi	-10.4975
▁cëpp	-10.4981
▁gale	-10.4982
▁Yóbbul	-10.5044
ance	-10.5046
▁lourd	-10.505
▁pan	-10.5051
▁nax	-10.5054
▁prêt	-10.5061
▁baña	-10.5071
▁refuse	-10.5076
▁mise	-10.5085
▁pêche	-10.5091
▁nguur	-10.5099
▁rajo	-10.5101
▁ñibbi	-10.5113
▁boppu	-10.5124
ut	-10.5126
▁amour	-10.5127
▁bel	-10.5135
▁jou	-10.5137
ts	-10.5145
appelles	-10.5146
atu	-10.515
▁face	-10.5157
taient	-10.5159
▁parties	-10.5166
kki	-10.5181
▁wuy	-10.5184
▁liggéeyu	-10.5194
▁coy	-10.52
▁ñe	-10.5207
▁tante	-10.5213
▁os	-10.5224
▁moto	-10.5228
ément	-10.5233
dar	-10.524
▁xamant	-10.5252
▁Mb	-10.5257
▁lesquel	-10.526
▁pay	-10.5264
▁fiir	-10.5298
rendre	-10.5298
ré	-10.5299
▁couvre	-10.5302
nde	-10.5306
▁Kor	-10.5308
▁mbe	-10.5311
▁tomba	-10.5317
effe	-10.532
▁tombée	-10.5333
▁ri	-10.5335
▁jax	-10.5341
▁sangu	-10.5364
óo	-10.5375
àpp	-10.538
illes	-10.5383
▁répond	-10.5385
▁Car	-10.5397
▁eû	-10.541
▁boue	-10.5418
ñeen	-10.5426
▁fur	-10.5449
prit	-10.545
▁provi	-10.5451
▁indil	-10.5461
▁cultiv	-10.5465
▁bavard	-10.5467
Yàlla	-10.5477
esse	-10.5477
▁van	-10.5483
▁plai	-10.5488
individu	-10.5491
▁reew	-10.5505
▁pareil	-10.5507
ëriñ	-10.551
dolli	-10.554
làmmiñ	-10.5545
eef	-10.5549
tubaab	-10.5558
xel	-10.5571
▁habite	-10.5578
avenir	-10.5578
ig	-10.5586
▁yóbb	-10.5586
▁traverse	-10.5593
bopp	-10.56
▁pr	-10.5608
bb	-10.562
▁cim	-10.5626
mar	-10.5651
▁rëbb	-10.5653
▁drap	-10.5654
con	-10.5655
I	-10.566
▁différent	-10.5662
▁tày	-10.5677
ey	-10.5687
▁Pe	-10.5693
▁sin	-10.5699
▁kë	-10.5708
▁mënoo	-10.5711
▁sag	-10.5715
vers	-10.5746
béer	-10.576
▁ndo	-10.5762
▁règle	-10.5772
▁caaxaan	-10.5774
▁tan	-10.5774
▁mûr	-10.5776
▁cuillère	-10.5784
▁ngóor	-10.5785
▁raconte	-10.5785
▁arraché	-10.5786
▁couché	-10.579
▁mbind	-10.5791
géej	-10.5791
▁griot	-10.5792
▁palme	-10.5798
àdd	-10.5809
▁donn	-10.5812
▁pierre	-10.5831
ali	-10.5837
▁conduit	-10.5854
▁buñ	-10.5855
▁tàgg	-10.5866
▁Quelqu	-10.5866
▁roule	-10.5871
▁troupeau	-10.5873
▁gâteau	-10.5874
▁Nettoie	-10.5876
▁Soudain	-10.5876
▁bracelet	-10.5876
▁cérémonie	-10.5876
▁immense	-10.5876
▁proximité	-10.5876
▁rônier	-10.5876
▁sukkuraat	-10.5876
▁tôle	-10.5876
▁Ayijoo	-10.5876
▁ablutions	-10.5876
▁màrse	-10.5876
▁kàllaama	-10.5876
▁rêvé	-10.5876
▁El	-10.5876
extérieur	-10.5876
▁Mbubb	-10.5876
apparition	-10.5876
▁Coumba	-10.5876
▁blessé	-10.5876
▁grenier	-10.5876
▁contact	-10.5876
▁Óbudu	-10.5876
▁Deŋk	-10.5876
▁Yaakaar	-10.5876
▁Kaasamaas	-10.5876
▁réccu	-10.5876
▁wàññi	-10.5877
▁tronc	-10.5877
▁situation	-10.5877
▁Gannaaw	-10.5877
▁Tabax	-10.5877
▁yalwaan	-10.5877
▁Palais	-10.5877
▁njég	-10.5877
▁publique	-10.5877
▁réalité	-10.5877
▁solitude	-10.5877
▁gueule	-10.5877
▁présence	-10.5877
▁suukër	-10.5877
▁werante	-10.5877
▁noyyi	-10.5877
▁joxoñ	-10.5877
▁yeksi	-10.5877
▁dóomu	-10.5877
entourent	-10.5877
▁jumeaux	-10.5878
▁nourrisson	-10.5878
▁plateaux	-10.5878
▁ruuj	-10.5878
▁comprendre	-10.5878
▁honte	-10.5878
▁haie	-10.5878
▁bâtiment	-10.5878
▁marchandise	-10.5879
▁Rax	-10.5879
▁service	-10.5879
▁réveillé	-10.5879
▁allez	-10.5879
▁échappé	-10.5879
▁lentement	-10.5879
▁Allons	-10.5879
▁daŋar	-10.5879
▁xayma	-10.5879
▁noix	-10.588
▁supporter	-10.588
▁abattu	-10.5881
▁raglu	-10.5881
▁jommal	-10.5882
▁fuuf	-10.5882
▁gunge	-10.5882
▁ngénte	-10.5882
▁abandonné	-10.5882
▁jumtukaay	-10.5882
▁connaissent	-10.5882
▁lièvre	-10.5883
▁Gorée	-10.5883
▁loppitaan	-10.5884
▁Kumba	-10.5885
▁Mbër	-10.5885
▁piqué	-10.5885
ëñ	-10.5885
▁campagne	-10.5885
▁frais	-10.5886
▁dirigeant	-10.5886
▁grains	-10.5886
▁Ramasse	-10.5886
▁vêtu	-10.5887
▁Quoi	-10.5887
▁connaissais	-10.5888
arbres	-10.589
▁cessé	-10.589
▁jékkee	-10.5891
▁tresser	-10.5891
▁gàddaay	-10.5891
▁soigner	-10.5891
▁Weer	-10.5892
▁clin	-10.5892
▁tàllal	-10.5893
▁Raxas	-10.5893
▁ňuul	-10.5893
▁cousu	-10.5894
▁poussin	-10.5894
▁simoŋ	-10.5894
▁yànj	-10.5896
▁direction	-10.5901
▁nàññ	-10.5902
▁comprends	-10.5902
▁Xamul	-10.5902
▁këpp	-10.5903
▁doj	-10.5904
▁Looloo	-10.5905
▁défait	-10.5905
▁dékku	-10.5905
▁ayib	-10.5906
▁nangoo	-10.5907
▁doyul	-10.5907
▁goro	-10.5908
▁foule	-10.5909
▁militaires	-10.5909
▁sueur	-10.591
▁taaru	-10.591
▁rakk	-10.591
▁Bëgguma	-10.591
▁Këram	-10.5911
▁sept	-10.5911
▁000	-10.5912
▁tank	-10.5913
▁foq	-10.5914
▁pinces	-10.5914
▁dërëm	-10.5915
▁Ayaa	-10.5916
▁porteurs	-10.5916
▁àngale	-10.5917
▁douleur	-10.5917
▁quitté	-10.5918
aal	-10.592
▁daagu	-10.592
▁neuf	-10.5921
▁brûlé	-10.5921
▁images	-10.5921
▁Foofu	-10.5921
▁wetam	-10.5921
▁moyens	-10.5922
▁àggee	-10.5923
▁cherché	-10.5926
▁laajte	-10.5927
imaginer	-10.5927
▁gërëm	-10.5927
▁soof	-10.5927
▁dijj	-10.5928
▁Ó	-10.5929
akkal	-10.5931
▁charme	-10.5934
▁lettre	-10.5935
▁four	-10.5936
▁lutteurs	-10.5937
▁oublier	-10.5939
▁retourner	-10.5941
ût	-10.5942
▁montar	-10.5944
▁neexee	-10.5944
▁tuuru	-10.5945
▁naroon	-10.5945
▁Xare	-10.5946
▁nja	-10.5947
▁talismans	-10.5948
intention	-10.595
▁serré	-10.5952
▁kawas	-10.5952
▁anglaise	-10.5953
▁humaine	-10.5955
▁déet	-10.5955
▁Mer	-10.5958
▁xoolee	-10.5959
▁interdit	-10.5961
▁course	-10.5961
▁règles	-10.5961
▁jàngoro	-10.5963
▁mouches	-10.5965
▁semé	-10.5967
▁mélange	-10.5968
▁Seul	-10.597
▁district	-10.5972
▁Puisse	-10.5973
▁chance	-10.5978
▁amené	-10.598
▁surga	-10.5986
▁gëdd	-10.5986
▁fenêtres	-10.5987
▁xóot	-10.5987
▁toucher	-10.5987
▁fudd	-10.5987
▁tiens	-10.5991
wal	-10.5991
▁dof	-10.5992
envie	-10.5992
▁coude	-10.5999
▁ñaxtu	-10.6002
waar	-10.6002
▁suivi	-10.6008
▁courses	-10.6009
mment	-10.6015
▁feeñu	-10.6017
▁pi	-10.6019
▁lonk	-10.6019
▁ven	-10.6019
▁pattes	-10.6021
ille	-10.6022
▁létt	-10.6022
▁tambours	-10.6026
mes	-10.603
jaaxaan	-10.603
▁Géj	-10.6034
▁éprouve	-10.6035
▁seng	-10.6035
lan	-10.604
▁cesse	-10.6042
▁chaude	-10.6052
▁yaak	-10.6052
▁or	-10.6061
▁sëq	-10.6069
▁animal	-10.6069
▁ware	-10.6075
échapper	-10.6076
▁kon	-10.6085
attend	-10.6086
▁masuma	-10.6087
▁Port	-10.6092
▁apprend	-10.6106
▁tenue	-10.611
▁falu	-10.612
aaru	-10.612
▁rax	-10.612
▁rëbbi	-10.6122
▁respect	-10.6137
ussi	-10.6141
▁Avan	-10.6149
▁ndaa	-10.6151
▁Ber	-10.6163
▁suñ	-10.6166
▁Jo	-10.6176
▁gaañu	-10.6178
▁seetu	-10.6185
▁fuir	-10.6187
▁sub	-10.6193
▁mett	-10.6193
▁premières	-10.6195
naka	-10.6219
dé	-10.6222
wi	-10.6229
▁nuyu	-10.623
aj	-10.6233
▁vaste	-10.6242
▁Ban	-10.6246
▁wane	-10.6246
▁baŋ	-10.6249
▁chiens	-10.6255
▁jeeg	-10.626
▁croyai	-10.627
▁juddu	-10.6281
▁levé	-10.629
▁coloniale	-10.6292
▁guró	-10.63
▁Gan	-10.6304
ër	-10.6306
▁luñ	-10.6307
▁kaa	-10.6311
▁voudrai	-10.6312
▁jóo	-10.6323
▁jal	-10.6332
▁étalé	-10.6342
▁Dinga	-10.6346
aas	-10.6351
étai	-10.6352
▁apporte	-10.6358
▁déeg	-10.6366
andiku	-10.6378
▁cas	-10.6386
▁sain	-10.6397
▁njàng	-10.6399
▁aj	-10.6402
▁Jabar	-10.6405
▁crise	-10.6405
seront	-10.641
▁Pa	-10.641
▁fett	-10.6412
▁allés	-10.6413
▁française	-10.6417
▁guéri	-10.6436
▁ramen	-10.644
▁2	-10.6463
▁dépouille	-10.6472
▁roñ	-10.6485
▁Mba	-10.6493
▁niir	-10.6498
▁lave	-10.6499
▁bë	-10.6499
▁bitik	-10.6505
rée	-10.6517
▁waxal	-10.6525
kar	-10.6544
▁oiseau	-10.6551
▁jëkke	-10.6562
▁raf	-10.6563
▁Xe	-10.6564
pe	-10.6575
▁jote	-10.6576
▁Ra	-10.6579
▁chambres	-10.6603
ton	-10.6606
to	-10.6607
▁organis	-10.6616
▁Yan	-10.6617
▁tase	-10.6638
▁xe	-10.6659
ge	-10.6659
▁dar	-10.6662
ëpp	-10.6669
seen	-10.6672
▁séex	-10.668
▁lire	-10.6692
▁dirai	-10.6695
▁mette	-10.6699
ex	-10.67
▁revien	-10.67
ttes	-10.6759
▁ati	-10.6765
▁quelles	-10.6768
ugub	-10.6772
art	-10.6787
▁Yóbbu	-10.6791
▁jànq	-10.6797
ari	-10.6798
▁siy	-10.6808
▁découvert	-10.6811
▁ramass	-10.6819
ànte	-10.6824
▁bos	-10.684
▁Soppu	-10.6856
▁Bo	-10.6891
kow	-10.6892
▁do	-10.6893
laata	-10.6919
ami	-10.6928
tuñu	-10.6929
ront	-10.693
tés	-10.6931
▁goog	-10.6956
geen	-10.6959
▁Defa	-10.6963
▁mënu	-10.697
ara	-10.6975
▁conti	-10.6977
▁manche	-10.6982
▁Es	-10.6989
▁ñooña	-10.6997
aka	-10.7003
▁Bokk	-10.7008
▁àtte	-10.7016
▁mbo	-10.7033
▁mokk	-10.704
▁futt	-10.7052
lal	-10.7053
▁quitte	-10.7058
image	-10.7063
nq	-10.7063
▁ndaama	-10.7075
▁demand	-10.7081
sëf	-10.7083
occupe	-10.7086
ture	-10.7093
avion	-10.71
ŋŋ	-10.7105
▁colonial	-10.7111
achète	-10.7113
nent	-10.712
▁nàkk	-10.7124
▁descend	-10.7139
oreille	-10.7139
tee	-10.7142
habitent	-10.7162
see	-10.7165
▁taa	-10.7184
autrefois	-10.7186
wuñu	-10.7187
O	-10.7195
▁gànnaay	-10.7198
jigéen	-10.72
▁dîner	-10.7201
▁ayant	-10.7204
hyène	-10.721
aveugle	-10.7214
▁Ye	-10.7214
wee	-10.7217
▁jaaro	-10.7221
jafe	-10.7223
▁wee	-10.7226
▁grandi	-10.7228
ca	-10.7234
▁sentier	-10.7255
kkal	-10.7256
sang	-10.7281
▁sëgg	-10.7285
▁fume	-10.7294
empêche	-10.7299
▁vol	-10.7302
▁travaille	-10.7309
▁nañoo	-10.7309
ivement	-10.7322
anam	-10.7334
hier	-10.7338
ite	-10.734
gé	-10.7348
▁lor	-10.7358
▁humain	-10.7359
▁làmb	-10.7364
▁achète	-10.7379
▁cordon	-10.7384
▁marie	-10.7388
oof	-10.741
▁pardon	-10.7423
▁pensé	-10.7424
▁në	-10.7433
▁ouvert	-10.7435
out	-10.744
▁arriver	-10.7444
bande	-10.7451
▁chaîne	-10.7451
▁flèche	-10.7451
▁log	-10.7452
▁miroir	-10.7453
▁anglais	-10.7453
▁talisman	-10.7459
uñ	-10.746
agir	-10.7461
avantage	-10.7466
▁fourmi	-10.7469
ëgg	-10.7475
ëddu	-10.7482
▁filet	-10.7486
▁wàcce	-10.7489
été	-10.7495
jékk	-10.7496
▁ressenti	-10.7496
▁Tool	-10.7502
pas	-10.7511
▁Néeg	-10.7513
▁cu	-10.7518
▁disparu	-10.7518
▁puur	-10.7532
ction	-10.7533
▁dëkkandoo	-10.7536
▁tëral	-10.7537
rs	-10.7538
▁revienne	-10.754
▁xërëm	-10.7542
omment	-10.7543
guloo	-10.7543
8	-10.7543
Abakaliki	-10.7543
▁Alxuraan	-10.7543
▁Wiktoryaa	-10.7543
▁auparavant	-10.7543
▁beignets	-10.7543
▁céréales	-10.7543
▁dëggëntaan	-10.7543
▁excréments	-10.7543
▁marigot	-10.7543
▁mbëggeel	-10.7543
▁officer	-10.7543
▁palissade	-10.7543
▁paludisme	-10.7543
▁petorool	-10.7543
▁ressuscité	-10.7543
▁récipient	-10.7543
▁syphilis	-10.7543
▁territoire	-10.7543
▁foulard	-10.7543
▁jagleel	-10.7543
▁jeûne	-10.7543
▁Japon	-10.7543
▁alkol	-10.7543
▁condoléances	-10.7543
▁probable	-10.7543
▁rumeur	-10.7543
▁Mellentaan	-10.7543
▁Sapoŋ	-10.7543
▁métier	-10.7543
▁fatigue	-10.7543
▁crédit	-10.7543
▁càmmoñ	-10.7543
▁Lagos	-10.7543
▁ressens	-10.7543
▁délicieux	-10.7543
▁fonction	-10.7543
▁brûlure	-10.7543
▁bàmmeel	-10.7543
▁terrassé	-10.7543
▁menace	-10.7543
▁Actuellement	-10.7544
▁guyaab	-10.7544
▁fowukaay	-10.7544
▁pièce	-10.7544
▁électrique	-10.7544
▁Bientôt	-10.7544
▁rompre	-10.7544
▁décidé	-10.7544
▁atteint	-10.7544
▁voulez	-10.7544
▁kéwél	-10.7544
▁Partout	-10.7544
▁ngëlén	-10.7544
▁coudre	-10.7544
▁lëkkale	-10.7544
▁géléem	-10.7544
âme	-10.7544
▁annonce	-10.7545
▁mâle	-10.7545
▁mboq	-10.7545
▁tilim	-10.7545
▁Juróom	-10.7545
▁circoncision	-10.7545
▁Soxna	-10.7545
▁crochet	-10.7545
▁soppiku	-10.7545
▁daqaar	-10.7545
▁mébét	-10.7545
▁porc	-10.7545
▁paternelle	-10.7545
▁épuisé	-10.7545
▁semaine	-10.7546
▁croire	-10.7546
▁ponkal	-10.7546
▁doxantu	-10.7547
▁ndeysaan	-10.7547
▁jaaxal	-10.7547
▁revenir	-10.7547
▁accompagné	-10.7547
▁wéet	-10.7547
▁torche	-10.7547
▁dimbali	-10.7548
▁sorewul	-10.7548
▁compagnie	-10.7548
▁flamme	-10.7548
▁mbalka	-10.7548
▁ràpp	-10.7548
▁géew	-10.7548
▁chocolatée	-10.7548
▁fàq	-10.7548
çant	-10.7549
▁fourchu	-10.7549
▁raconté	-10.7549
▁Soldaar	-10.7549
▁njabootam	-10.755
▁réduit	-10.755
▁mbégte	-10.755
▁meňň	-10.755
▁cofeel	-10.755
▁wotoom	-10.755
▁janax	-10.7551
▁Eux	-10.7552
▁venaient	-10.7552
▁surpris	-10.7552
▁certainement	-10.7552
▁habitants	-10.7553
▁rapidement	-10.7553
▁xiif	-10.7554
▁beauté	-10.7554
▁Tugël	-10.7554
▁travaillé	-10.7555
▁bouillir	-10.7555
▁dëll	-10.7555
▁jaambur	-10.7556
▁safara	-10.7556
▁tenait	-10.7557
▁boq	-10.7557
▁sóob	-10.7558
▁gumba	-10.7558
▁ngunu	-10.7558
▁ndóol	-10.7559
▁wóolu	-10.7559
▁doux	-10.7559
▁Vend	-10.756
▁noces	-10.756
▁accepté	-10.7561
▁njool	-10.7561
▁Jënd	-10.7562
quel	-10.7563
▁xaaju	-10.7563
▁rencontré	-10.7563
▁matinée	-10.7563
▁douche	-10.7563
▁blesser	-10.7563
▁payer	-10.7564
▁meurt	-10.7564
▁Force	-10.7565
▁semblables	-10.7567
dëkk	-10.7567
▁richesse	-10.7567
géwél	-10.7568
élève	-10.7568
▁verse	-10.7569
▁wex	-10.757
▁goûter	-10.757
▁Ndeg	-10.7571
▁utilise	-10.7571
▁Ñooñu	-10.7571
▁yëre	-10.7572
▁yéemu	-10.7573
▁africaine	-10.7574
▁rapporté	-10.7575
vons	-10.7576
▁jouent	-10.7578
▁gaar	-10.7579
▁Doole	-10.758
▁auto	-10.7581
▁larmes	-10.7582
▁tisser	-10.7583
▁histoires	-10.7583
▁mètres	-10.7584
▁Obudu	-10.7585
▁simila	-10.7585
▁couvrir	-10.7586
▁kóllëre	-10.7586
▁Africains	-10.7586
▁masques	-10.7586
▁nommé	-10.7587
▁nàmpal	-10.7588
▁xeeñ	-10.7588
▁ràññee	-10.7588
▁oiseaux	-10.7589
▁ndigal	-10.7592
▁marchent	-10.7592
aille	-10.7592
▁jikko	-10.7594
▁pastel	-10.7595
▁duré	-10.7597
▁vagues	-10.7598
▁dëpp	-10.7598
▁pilon	-10.7598
▁màgge	-10.76
▁gestes	-10.76
▁allaient	-10.7601
▁Verse	-10.7602
▁genre	-10.7602
▁esprits	-10.7603
▁réservé	-10.7604
▁causé	-10.7604
▁jàppoon	-10.7606
▁musal	-10.7606
▁bancs	-10.7607
▁tasse	-10.7609
▁xur	-10.7611
▁perdue	-10.7613
▁pou	-10.7615
▁gajj	-10.7617
▁tàngaay	-10.7618
▁kanamam	-10.7621
▁élu	-10.7623
▁ch	-10.7629
▁ressentir	-10.7629
▁oeufs	-10.7631
▁durer	-10.7632
▁sommeil	-10.7632
▁Foofa	-10.7632
▁miel	-10.7633
▁march	-10.7635
▁fajar	-10.7638
▁naaxi	-10.7638
▁jambe	-10.7639
▁vertes	-10.764
▁cër	-10.7641
▁masin	-10.7641
▁marque	-10.7642
▁tànkam	-10.7642
▁griots	-10.7644
▁Acacia	-10.7644
▁jàkka	-10.7651
▁exemple	-10.7654
▁enfin	-10.7655
▁niru	-10.7657
▁fatigués	-10.7659
▁portale	-10.766
▁junniy	-10.766
▁essayer	-10.7662
▁aada	-10.7663
éwël	-10.7667
▁diine	-10.7668
▁nouvelles	-10.7676
▁demuloo	-10.7677
▁chants	-10.7677
▁jéema	-10.7683
▁tache	-10.7683
▁Julli	-10.7688
▁raŋ	-10.7688
▁jé	-10.7688
julli	-10.7689
▁jëw	-10.769
▁manquer	-10.769
▁policiers	-10.769
▁plats	-10.7695
▁puj	-10.77
▁mettra	-10.7701
▁Jiit	-10.7707
▁fasu	-10.7709
▁jaasi	-10.7714
▁salon	-10.7715
▁xal	-10.7716
▁maladies	-10.7721
▁sombre	-10.7722
▁caisse	-10.7727
▁Alal	-10.7728
▁mbooloo	-10.7729
▁pet	-10.774
▁livres	-10.7741
▁jekku	-10.7745
▁téj	-10.7746
▁devenus	-10.7747
▁partant	-10.7749
▁cher	-10.7751
▁dromadaires	-10.7753
▁avance	-10.7758
▁pantalons	-10.7768
▁rouler	-10.7768
ui	-10.7773
▁apporter	-10.7773
▁taax	-10.7773
▁banaana	-10.7774
▁mos	-10.7781
▁mouch	-10.7783
▁désir	-10.7785
▁fasses	-10.7787
▁aveugle	-10.7788
▁Afrigam	-10.779
00	-10.7791
▁Gore	-10.7801
▁nd	-10.7806
▁pont	-10.7808
▁rivières	-10.7815
imp	-10.7816
▁tours	-10.7823
▁defaru	-10.7828
ànja	-10.7837
▁capable	-10.7853
▁rempli	-10.7863
▁Gu	-10.7866
▁neexal	-10.7871
▁ru	-10.7872
▁donnerai	-10.7873
nuy	-10.7879
▁endroits	-10.788
▁traîne	-10.7881
▁njëkke	-10.7881
▁préserve	-10.7881
▁hyène	-10.7888
▁ruy	-10.7897
▁daŋ	-10.7899
▁jiy	-10.79
▁Tëgg	-10.7902
▁waxee	-10.7902
▁rentré	-10.7902
▁her	-10.7905
▁visages	-10.7909
▁Aro	-10.792
attacher	-10.7927
jjant	-10.7929
ttal	-10.7936
▁jubale	-10.7941
▁heure	-10.7946
aanaam	-10.7947
▁Yara	-10.7948
▁Jén	-10.7954
gaan	-10.7964
antal	-10.797
▁rouges	-10.7972
▁Dikk	-10.7978
sé	-10.7982
achètera	-10.7983
▁Paak	-10.7991
▁Al	-10.7991
▁Wut	-10.7993
▁étrange	-10.7995
▁njaa	-10.8
▁boit	-10.8003
elu	-10.8006
nj	-10.8007
▁aumône	-10.801
àmm	-10.8041
▁dese	-10.8043
▁dépasse	-10.8052
▁destin	-10.8053
▁paas	-10.8054
▁ber	-10.8059
▁amaan	-10.8062
▁daaw	-10.8068
▁Gi	-10.8068
▁Jambaa	-10.8091
▁gàkk	-10.8092
▁lits	-10.8105
▁faf	-10.8107
ox	-10.8115
▁salaire	-10.8121
▁perd	-10.813
▁joo	-10.8133
ànnal	-10.8136
▁enseigne	-10.8143
▁cultiver	-10.8145
▁Bàyyi	-10.8146
tant	-10.8151
vette	-10.8154
▁Dox	-10.8157
▁àndal	-10.816
▁dikkul	-10.8162
ettes	-10.8165
he	-10.8166
▁montrer	-10.8168
ange	-10.8168
maŋ	-10.8171
▁daaj	-10.8178
kh	-10.8179
▁sépar	-10.8184
vé	-10.8188
▁pratique	-10.8188
▁jëmm	-10.8196
▁don	-10.8214
aru	-10.8223
niki	-10.8229
añu	-10.8232
illiers	-10.8244
▁Ñàkk	-10.8251
onne	-10.8257
▁déj	-10.8261
éew	-10.8266
issement	-10.8276
▁jo	-10.8284
▁Ar	-10.8286
▁gras	-10.8287
▁moments	-10.8288
▁balaa	-10.829
▁pose	-10.8296
tum	-10.8305
▁Der	-10.8306
▁fe	-10.8317
lee	-10.832
eesu	-10.8328
▁rose	-10.8332
▁conduis	-10.8335
▁Muu	-10.8336
aral	-10.8341
▁coll	-10.8343
▁mou	-10.8349
eeku	-10.835
▁e	-10.8388
▁Nko	-10.8395
anq	-10.8401
▁couvert	-10.8413
▁At	-10.8413
▁nde	-10.8417
▁normal	-10.8421
raw	-10.8429
▁connaître	-10.8433
exerce	-10.8437
▁Fat	-10.844
▁tableau	-10.8446
▁Ñe	-10.8454
▁coton	-10.8461
installe	-10.8473
▁fermée	-10.8473
ivre	-10.8479
▁guddee	-10.8486
▁pousse	-10.8493
▁macc	-10.8494
▁Nja	-10.8502
▁Bëggul	-10.8504
▁muet	-10.8519
▁Gisu	-10.8525
óoli	-10.8536
mam	-10.8546
▁To	-10.8549
aimes	-10.8565
▁Ndey	-10.8572
▁Dana	-10.8577
▁mujj	-10.8577
aires	-10.8577
▁cri	-10.8578
▁caché	-10.858
▁cont	-10.8583
▁kam	-10.8596
▁soos	-10.8596
▁joow	-10.8599
tes	-10.8599
umaa	-10.8608
▁soeur	-10.8609
elaw	-10.8614
▁séchée	-10.8636
écouter	-10.8637
▁condui	-10.8639
iront	-10.864
▁al	-10.8659
nk	-10.8668
▁partirai	-10.867
▁soigne	-10.8674
aanaka	-10.8688
▁plant	-10.8689
essaie	-10.8689
aaj	-10.8697
lon	-10.87
▁bindoo	-10.8701
qi	-10.8718
▁yooy	-10.872
ye	-10.8723
tim	-10.8725
▁mord	-10.8733
▁dés	-10.8737
▁ye	-10.8738
yoon	-10.8751
jum	-10.8752
gelaw	-10.8757
▁kaay	-10.8759
▁dégge	-10.8759
▁sipp	-10.876
▁mere	-10.8764
nie	-10.8771
avec	-10.8776
▁rob	-10.8789
ate	-10.8798
▁bàyyee	-10.8802
▁Bërë	-10.8803
ures	-10.8804
orage	-10.8806
▁yare	-10.8809
▁décor	-10.8812
▁càkk	-10.8817
koo	-10.8824
▁Co	-10.884
ot	-10.8848
né	-10.8849
▁Pend	-10.885
▁cousin	-10.8853
▁recouvr	-10.8856
▁faar	-10.8869
▁prie	-10.8875
kof	-10.8883
▁tab	-10.8884
uwaay	-10.8885
tions	-10.889
▁jàngale	-10.8919
▁ndugg	-10.8922
▁Yaay	-10.8927
▁dun	-10.893
euse	-10.8932
nous	-10.894
iir	-10.8949
▁àpp	-10.8962
bar	-10.8966
▁date	-10.8968
xal	-10.8989
A	-10.8998
▁sale	-10.9003
nal	-10.9007
do	-10.9008
▁Bë	-10.903
▁can	-10.903
biir	-10.9035
àtt	-10.9041
▁teint	-10.9053
ces	-10.907
ulli	-10.9078
▁jat	-10.908
anu	-10.9086
éri	-10.9091
àddaay	-10.9091
▁bassin	-10.9097
▁Daŋg	-10.9102
isme	-10.9107
▁Bool	-10.9108
ers	-10.9115
ulwoon	-10.9121
ose	-10.9124
▁enlève	-10.9124
▁envahi	-10.9127
▁tir	-10.913
▁dootu	-10.9132
abandon	-10.9142
fal	-10.9145
éen	-10.9145
toon	-10.9147
loxo	-10.915
errière	-10.9151
année	-10.9155
▁porté	-10.9155
▁verser	-10.9158
▁Ag	-10.9174
ierge	-10.9176
▁màgg	-10.9182
▁jooja	-10.9191
yaram	-10.9192
▁dàkk	-10.92
tuuti	-10.9202
Astou	-10.9204
écuelle	-10.9204
attendre	-10.9205
aucun	-10.9205
ëllëg	-10.9213
▁doonkoon	-10.9213
▁monté	-10.9213
appeler	-10.9216
aŋ	-10.9223
▁race	-10.9228
▁gisul	-10.9234
parents	-10.9234
jaar	-10.9236
xew	-10.9245
tenir	-10.9247
énc	-10.9274
olé	-10.9274
▁doxal	-10.9277
▁takku	-10.9291
▁rees	-10.9293
oire	-10.9294
ché	-10.9295
mm	-10.9297
▁av	-10.9301
▁noppal	-10.931
▁pare	-10.9313
▁saaga	-10.9318
isant	-10.9334
▁dong	-10.9339
▁kawe	-10.9342
▁deey	-10.9346
jo	-10.9357
▁robe	-10.936
▁entend	-10.9368
mbres	-10.9368
▁resta	-10.94
rt	-10.9404
▁essay	-10.9404
▁naam	-10.9423
▁dise	-10.9428
▁terminé	-10.9438
▁souffl	-10.9438
▁antilope	-10.9441
▁mensonge	-10.9441
▁Luga	-10.9447
▁musulman	-10.945
▁peuple	-10.9451
▁secret	-10.9451
▁démarche	-10.9452
▁haricot	-10.9454
étail	-10.9455
▁gejj	-10.9456
àkk	-10.9457
▁poche	-10.9457
appellent	-10.9459
▁souhaite	-10.9466
▁fui	-10.9468
▁ment	-10.9468
▁kaf	-10.9469
▁lutteur	-10.947
▁continu	-10.9473
▁Jàpp	-10.9473
▁retrouvé	-10.9478
wax	-10.9488
▁gat	-10.949
waale	-10.9498
▁confie	-10.9499
▁kepp	-10.95
▁accompagne	-10.9506
itu	-10.9511
àngara	-10.9514
▁remercie	-10.9526
▁forox	-10.9528
▁tiis	-10.953
▁ngoog	-10.9531
▁protège	-10.9533
▁trahi	-10.9534
▁religi	-10.9534
▁compagn	-10.9537
éléphant	-10.954
honneur	-10.9543
horreur	-10.9543
rologique	-10.9543
tekkaaral	-10.9543
”	-10.9543
▁Abaakaliki	-10.9543
▁Adekunle	-10.9543
▁Anglais	-10.9543
▁Biafra	-10.9543
▁Georgetown	-10.9543
▁Saloum	-10.9543
▁Sefiriis	-10.9543
▁Seytaane	-10.9543
▁Southampton	-10.9543
▁Yoruba	-10.9543
▁biafrais	-10.9543
▁camerounais	-10.9543
▁conversation	-10.9543
▁couvercle	-10.9543
▁crépuscule	-10.9543
▁différence	-10.9543
▁douloureux	-10.9543
▁football	-10.9543
▁funérailles	-10.9543
▁hasard	-10.9543
▁jóolóoli	-10.9543
▁njàqare	-10.9543
▁nécessaire	-10.9543
▁physique	-10.9543
▁pigeons	-10.9543
▁récompense	-10.9543
▁végétation	-10.9543
amertume	-10.9543
▁Choisis	-10.9543
▁Génnéel	-10.9543
▁Mauritanie	-10.9543
▁Sorstaawun	-10.9543
▁lustral	-10.9543
▁zinc	-10.9543
▁“	-10.9543
▁cimetière	-10.9543
▁problème	-10.9543
▁blessure	-10.9543
▁produit	-10.9543
▁racines	-10.9543
▁répandu	-10.9543
▁Autrefois	-10.9543
▁kaaraange	-10.9543
▁fagot	-10.9543
▁terrible	-10.9543
▁moitié	-10.9543
▁établi	-10.9543
▁défunt	-10.9543
▁recevoir	-10.9543
▁remède	-10.9543
▁Jikko	-10.9543
▁mbaxana	-10.9543
▁résolu	-10.9543
▁malingre	-10.9543
▁Cross	-10.9543
▁jachère	-10.9543
▁quantité	-10.9543
▁Moontin	-10.9543
▁marjaan	-10.9543
▁Téere	-10.9543
▁coutume	-10.9543
angoisse	-10.9543
▁tàccu	-10.9543
▁méngoo	-10.9543
▁Prête	-10.9543
▁bougie	-10.9543
▁sàndarm	-10.9543
▁consort	-10.9543
▁kilomet	-10.9543
▁Saalum	-10.9543
▁collines	-10.9543
▁confiance	-10.9543
▁continent	-10.9543
▁ancêtres	-10.9543
▁bûcheron	-10.9543
▁samedi	-10.9543
armoire	-10.9543
▁àdduna	-10.9543
▁peigne	-10.9543
▁Cayor	-10.9543
▁ñebbe	-10.9543
humanité	-10.9543
▁paquet	-10.9543
▁genoux	-10.9543
▁fiancé	-10.9543
▁Parfois	-10.9543
▁Enduis	-10.9544
▁armool	-10.9544
▁ŋeeñ	-10.9544
▁Salut	-10.9544
▁méngale	-10.9544
▁ŋàññ	-10.9544
▁henné	-10.9544
▁sécher	-10.9544
▁gëlëm	-10.9544
▁viendront	-10.9544
▁fuddën	-10.9544
▁tonnerre	-10.9544
▁couture	-10.9544
▁pêcheurs	-10.9544
▁lislaam	-10.9544
▁gëstu	-10.9544
▁béjjén	-10.9544
▁kalaate	-10.9544
▁épaules	-10.9544
▁Ragal	-10.9544
▁bref	-10.9545
▁jaboot	-10.9545
▁entièrement	-10.9545
▁Fiche	-10.9545
▁séjour	-10.9545
▁fanweer	-10.9545
▁ministre	-10.9545
▁piquant	-10.9545
▁musiba	-10.9545
▁chauve	-10.9545
▁làquji	-10.9545
▁contraire	-10.9545
ienne	-10.9545
▁fiiriir	-10.9545
▁domestique	-10.9545
▁dormir	-10.9545
▁tàngoor	-10.9546
▁religieux	-10.9546
fayda	-10.9546
▁jaawale	-10.9546
▁mystique	-10.9546
▁Satan	-10.9546
▁soxor	-10.9546
▁bëmëx	-10.9547
▁collier	-10.9547
▁firndeel	-10.9547
▁cabax	-10.9547
▁rares	-10.9547
▁ndeyjoor	-10.9548
▁karaw	-10.9548
▁creusé	-10.9548
▁dimaas	-10.9548
▁firiku	-10.9549
▁déplace	-10.9549
▁mélangé	-10.9549
▁chéri	-10.955
▁rawante	-10.955
▁xélu	-10.955
▁attitude	-10.955
▁këtt	-10.9551
▁delsi	-10.9551
▁ŋgoogule	-10.9551
▁sëllu	-10.9551
▁njoowaan	-10.9551
▁voyant	-10.9551
▁creuser	-10.9551
▁jàppukaay	-10.9551
▁chargé	-10.9551
▁police	-10.9552
▁décent	-10.9552
▁faît	-10.9552
▁reyante	-10.9552
▁jullee	-10.9552
▁bóom	-10.9552
▁Sedd	-10.9553
▁kaaŋ	-10.9553
▁tàggat	-10.9553
▁tàbbi	-10.9553
▁réveille	-10.9553
▁tëri	-10.9553
▁perdre	-10.9554
▁bagages	-10.9554
▁ustensiles	-10.9554
▁poignée	-10.9554
▁inspiré	-10.9555
▁sànke	-10.9555
▁volets	-10.9555
▁messager	-10.9555
▁fibres	-10.9555
▁rejoindre	-10.9555
▁lunettes	-10.9556
▁bokkuñu	-10.9556
▁sindax	-10.9556
▁mbëtt	-10.9557
▁pipe	-10.9557
▁pleut	-10.9557
▁Garde	-10.9557
▁parlaient	-10.9558
▁banc	-10.9558
▁tappal	-10.9558
▁gentil	-10.9559
▁Tànk	-10.9559
▁ondul	-10.9559
▁complet	-10.9559
▁Xaar	-10.9559
▁kookee	-10.956
▁correct	-10.9561
▁rompu	-10.9561
cci	-10.9561
▁fauve	-10.9561
▁rendait	-10.9562
▁soirée	-10.9562
▁piler	-10.9563
▁awsa	-10.9563
▁gedd	-10.9563
▁jàppante	-10.9563
▁pressé	-10.9565
▁xamatul	-10.9565
▁lëmm	-10.9565
▁jeunesse	-10.9566
▁cendre	-10.9567
▁Teggi	-10.9568
▁Nopp	-10.9569
▁réserve	-10.9569
▁Demuma	-10.957
▁Lequel	-10.9573
▁hamacs	-10.9573
▁hanches	-10.9573
▁kilomètres	-10.9573
▁vieillards	-10.9573
▁bientôt	-10.9573
▁cuisses	-10.9573
▁Njar	-10.9574
▁voudrait	-10.9574
▁disparut	-10.9574
▁jaarale	-10.9574
▁position	-10.9574
▁semer	-10.9574
usqu	-10.9574
▁Ndem	-10.9574
▁conte	-10.9575
▁foog	-10.9576
▁ndokke	-10.9576
▁brisé	-10.9578
óoxóor	-10.9578
▁prenant	-10.9579
▁mienne	-10.9579
▁kaala	-10.9582
▁panne	-10.9582
▁revenu	-10.9582
▁jumaa	-10.9583
▁raide	-10.9583
▁perles	-10.9584
▁sabab	-10.9584
▁xumb	-10.9585
▁alalam	-10.9587
▁Takkal	-10.9588
▁xet	-10.9589
▁ñaawal	-10.959
▁fekksi	-10.959
▁niveau	-10.959
▁dàtt	-10.959
▁fippu	-10.9591
▁perte	-10.9591
▁péchés	-10.9591
▁esclaves	-10.9592
▁trouée	-10.9592
▁ennemis	-10.9592
▁appartient	-10.9594
▁graines	-10.9595
▁mbott	-10.9595
▁téeméer	-10.9597
▁tawat	-10.96
▁sëriñ	-10.9602
▁jaxase	-10.9602
▁jabaram	-10.9604
▁chasser	-10.9606
▁galan	-10.9609
▁habiter	-10.961
▁tomates	-10.9611
▁roy	-10.9611
▁termitières	-10.9611
mêlé	-10.9611
▁fuite	-10.9611
▁yàggul	-10.9611
▁marqué	-10.9612
pace	-10.9612
▁yéeme	-10.9613
▁Maures	-10.9614
▁colin	-10.9615
▁yàlla	-10.9615
▁bokkul	-10.9616
éeri	-10.9619
nge	-10.962
▁boisson	-10.962
▁jiital	-10.9621
▁meule	-10.9622
▁épis	-10.9622
▁dundam	-10.9622
▁dott	-10.9622
▁arrêt	-10.9623
▁neexoon	-10.9623
▁ñag	-10.9623
▁rafetul	-10.9625
▁dée	-10.9626
▁Yàgg	-10.9626
▁dékk	-10.9626
▁segg	-10.9627
▁voler	-10.9628
▁armes	-10.9628
▁fortune	-10.9631
▁xàll	-10.9632
▁saxaaru	-10.9632
▁méchant	-10.9633
▁ndeyam	-10.9633
▁namm	-10.9633
▁nappe	-10.9635
▁këf	-10.9635
▁sensation	-10.9641
▁taxu	-10.9642
▁ràkkaaju	-10.9643
▁googule	-10.9643
▁xaalisam	-10.9645
▁Bien	-10.9645
▁sortit	-10.9649
▁daara	-10.9651
▁faim	-10.9654
ignore	-10.9658
▁allemande	-10.9659
▁puiser	-10.9659
kóon	-10.9661
▁abreuv	-10.9662
▁bàcc	-10.9663
▁collé	-10.9663
▁dort	-10.9664
▁bàq	-10.9667
▁respire	-10.9668
▁draps	-10.9668
▁Aiya	-10.9668
▁joge	-10.967
▁lunk	-10.9678
▁yombul	-10.9678
àŋŋ	-10.9679
▁placé	-10.968
ërëm	-10.968
▁ligne	-10.9684
▁duggee	-10.9689
▁mors	-10.9691
▁partager	-10.9693
▁bleue	-10.9693
▁tortu	-10.9696
▁dikkee	-10.9696
atteindr	-10.9696
▁Waxu	-10.9697
▁bów	-10.9698
▁casque	-10.9699
▁Làmb	-10.9699
▁call	-10.97
▁ween	-10.9703
▁ëpple	-10.9706
▁nuque	-10.971
▁Quelque	-10.9711
▁yemu	-10.9714
▁rëb	-10.9719
▁jàjj	-10.972
▁grosses	-10.9723
▁Ñun	-10.9732
▁wuu	-10.9734
▁Dund	-10.9734
▁reten	-10.9739
▁mettr	-10.9743
resser	-10.9744
▁drapeau	-10.9745
▁yëgaat	-10.9745
▁njort	-10.9745
▁noble	-10.9751
▁guide	-10.9755
▁Toog	-10.9756
achèterai	-10.9758
▁sert	-10.9761
▁wees	-10.9762
▁compos	-10.9762
▁safaan	-10.9764
éloigne	-10.9766
▁jonn	-10.977
▁ñeent	-10.9771
▁wala	-10.9772
▁Vois	-10.9773
▁outil	-10.9773
▁prise	-10.9773
▁rasé	-10.9774
▁Kooy	-10.9774
▁pàkk	-10.9775
▁volé	-10.9777
gël	-10.9782
▁kekk	-10.9783
▁bleus	-10.9784
▁partent	-10.9785
▁Jam	-10.9786
enfants	-10.9788
▁defaree	-10.9788
▁mënuloo	-10.979
▁tendre	-10.9791
arriver	-10.9796
▁lang	-10.9798
jam	-10.9802
▁guyy	-10.9803
▁fés	-10.9806
▁Yàllaa	-10.9818
▁ordures	-10.9818
lée	-10.9819
▁oreille	-10.982
▁hauteur	-10.9824
▁surveillan	-10.9829
▁Woy	-10.9835
▁deñ	-10.9838
▁rues	-10.9839
▁pénétr	-10.9847
▁kookuu	-10.9848
▁naturelle	-10.9848
▁jàppee	-10.9851
▁Mari	-10.9856
▁ňi	-10.9857
ort	-10.9858
àndu	-10.9861
maak	-10.9863
▁màng	-10.9872
▁serpents	-10.9875
lentaan	-10.9876
▁fomp	-10.9878
▁we	-10.9883
▁dalle	-10.9887
▁xoole	-10.9888
jodd	-10.9894
▁écuelle	-10.9895
utilité	-10.9896
ó	-10.9897
teem	-10.9903
get	-10.9908
sin	-10.9909
▁saura	-10.991
ňu	-10.9911
▁Daaw	-10.9912
ression	-10.9921
▁cro	-10.9924
▁yore	-10.9929
ëb	-10.9931
▁patt	-10.9935
▁nemm	-10.9936
▁frères	-10.9939
evant	-10.9942
▁paie	-10.9947
▁maas	-10.9957
▁Baal	-10.9958
▁faax	-10.9959
▁découvre	-10.9961
▁suffir	-10.9961
▁h	-10.9967
▁bat	-10.997
sent	-10.9973
▁Ŋg	-10.9973
▁oto	-10.9974
▁potu	-10.9974
taay	-10.9978
ade	-10.9978
▁commer	-10.9978
samaan	-10.9983
▁biig	-10.999
▁Ñaan	-10.9991
▁combat	-10.9991
po	-10.9993
▁mettrai	-10.9997
ète	-11
ŋga	-11.0002
yoo	-11.0003
▁ñall	-11.0004
lante	-11.0006
▁jubb	-11.0009
ac	-11.001
▁Xé	-11.0017
▁pegg	-11.0017
▁kar	-11.0019
▁cola	-11.0027
▁pleur	-11.0029
▁sart	-11.003
hasse	-11.0034
▁ŋar	-11.0036
▁singes	-11.0036
▁Mii	-11.0037
▁cla	-11.0038
gue	-11.0038
▁égal	-11.0039
▁doŋ	-11.0049
▁mësul	-11.0054
▁San	-11.0055
▁litre	-11.0058
▁aide	-11.0058
▁dikke	-11.0066
▁ëf	-11.007
▁dolli	-11.0083
▁yeewe	-11.0084
▁viendras	-11.0102
vions	-11.0105
▁cin	-11.0111
mbax	-11.0112
erait	-11.0113
ables	-11.0121
arci	-11.0121
▁fuur	-11.0126
aloon	-11.0132
▁waxi	-11.0138
planté	-11.0139
▁récit	-11.014
uléet	-11.0148
▁tata	-11.0152
ières	-11.0153
▁autorité	-11.016
▁Ño	-11.0161
aleel	-11.0167
mettras	-11.0173
autant	-11.0178
▁melax	-11.0178
▁réuni	-11.0179
bër	-11.0184
▁teey	-11.0204
▁Jant	-11.0206
▁fab	-11.0207
▁commémor	-11.0211
àttu	-11.0232
▁Noon	-11.0233
▁ôte	-11.0236
▁étudie	-11.024
▁dikkal	-11.0245
saay	-11.0247
▁chercheur	-11.0249
▁pique	-11.025
▁morts	-11.025
▁pointe	-11.0253
▁plonge	-11.0265
▁ñàkka	-11.0268
▁villes	-11.0271
▁impression	-11.0282
▁Baat	-11.0283
▁tente	-11.0293
▁jaayu	-11.0297
▁belles	-11.0306
▁retard	-11.0308
don	-11.0309
ttali	-11.0312
▁organise	-11.0317
▁jéer	-11.0327
▁pleure	-11.0329
▁souri	-11.0331
aye	-11.0335
gorge	-11.0345
▁ñaay	-11.0347
sante	-11.0351
eut	-11.0354
▁yeen	-11.0366
▁ruus	-11.0372
▁u	-11.0374
▁rentrer	-11.0375
ents	-11.0377
semblent	-11.0377
▁seuls	-11.0377
▁ñooñ	-11.0381
▁juge	-11.0383
ppati	-11.0397
nces	-11.0401
let	-11.0404
ha	-11.0405
asoŋ	-11.0406
▁tenu	-11.0424
rge	-11.0425
▁laine	-11.0426
▁dakk	-11.0434
▁pans	-11.0439
▁royau	-11.0445
ddi	-11.0448
▁nob	-11.0461
ndeer	-11.0464
▁Pas	-11.0467
▁prostitu	-11.0468
▁tege	-11.0474
▁prêter	-11.048
tout	-11.0485
▁entouré	-11.0487
▁signe	-11.0488
issent	-11.0493
ise	-11.0497
▁chi	-11.0499
alee	-11.0504
rit	-11.0505
▁bé	-11.0513
▁Bare	-11.0522
▁vivant	-11.053
envers	-11.0534
anga	-11.054
llons	-11.054
▁vis	-11.0541
▁Puisqu	-11.0553
▁xaraf	-11.0556
▁seey	-11.0557
▁go	-11.0564
▁garabu	-11.0569
omm	-11.0574
▁jette	-11.059
ste	-11.0595
▁Doy	-11.0595
▁mënut	-11.0597
▁daf	-11.0599
lóor	-11.0601
res	-11.0604
▁néegi	-11.0616
▁bou	-11.0621
▁bég	-11.0634
uni	-11.0642
peur	-11.0642
son	-11.0643
ailles	-11.0655
C	-11.0672
▁goo	-11.0675
▁amu	-11.0677
yé	-11.0678
avions	-11.0683
àlli	-11.0691
ssage	-11.0692
▁souffre	-11.0697
▁voul	-11.0705
▁këru	-11.0708
▁Reti	-11.071
▁ñent	-11.0713
obul	-11.0723
▁plante	-11.073
▁mëdd	-11.0745
ñaa	-11.0767
▁fine	-11.0774
▁content	-11.0778
▁ñun	-11.0781
▁pisse	-11.0784
▁terres	-11.0786
▁gàll	-11.0787
▁daju	-11.0787
▁waxaale	-11.0794
▁gëmm	-11.0795
▁Laat	-11.0817
saala	-11.0827
eras	-11.0828
▁dajee	-11.0828
▁Topp	-11.0829
▁salut	-11.083
▁dawul	-11.0836
▁Mbe	-11.0838
▁Dugg	-11.0846
0	-11.0847
▁lune	-11.0852
ous	-11.0856
▁tés	-11.0863
eetar	-11.0874
▁marier	-11.0878
pa	-11.0881
per	-11.0882
▁messe	-11.0891
▁lég	-11.0893
▁passée	-11.0899
iste	-11.0911
ental	-11.0917
▁solide	-11.0924
poser	-11.0926
▁giif	-11.0935
ordre	-11.0938
éwén	-11.0942
▁ouvrir	-11.0952
gné	-11.0955
egenaay	-11.096
quillage	-11.0965
ëg	-11.0969
▁Daawu	-11.0977
rigé	-11.0985
▁Dara	-11.0985
▁ph	-11.0986
mp	-11.1008
yaar	-11.1011
mba	-11.1012
▁jëme	-11.1012
▁mor	-11.1019
▁abso	-11.102
abonde	-11.1029
▁combi	-11.1032
▁bir	-11.1034
▁sar	-11.1035
▁Ji	-11.1043
▁représente	-11.1048
▁té	-11.1058
▁char	-11.1059
ukki	-11.1066
▁dëng	-11.1069
▁échange	-11.1073
▁Be	-11.1094
▁tàkku	-11.1097
▁Ami	-11.1099
rais	-11.1104
▁risque	-11.1106
▁eusse	-11.1108
▁sauve	-11.1127
▁Sor	-11.113
▁coule	-11.1134
accorder	-11.1145
▁sein	-11.1154
▁rég	-11.1156
▁ker	-11.1163
alante	-11.1168
▁ŋa	-11.117
▁servai	-11.1172
arc	-11.1188
rendra	-11.1202
▁xii	-11.1204
▁boob	-11.1208
▁rang	-11.1209
ban	-11.121
tique	-11.1215
▁passera	-11.1217
alement	-11.1217
arde	-11.1223
▁tasee	-11.1223
▁profond	-11.1227
àkkal	-11.1235
▁ger	-11.1237
▁ŋe	-11.1247
▁confi	-11.1248
▁manu	-11.1275
▁salue	-11.1275
▁grill	-11.1278
amul	-11.1288
▁móol	-11.1292
▁dab	-11.1293
▁bokku	-11.1299
bin	-11.1303
▁gal	-11.1318
▁bey	-11.135
venant	-11.1356
▁sent	-11.1361
ments	-11.1363
▁Jaar	-11.1366
▁jaww	-11.1367
▁njo	-11.1375
ah	-11.1378
▁prendra	-11.1379
▁imp	-11.1381
reaux	-11.1381
▁Ñakk	-11.1382
habit	-11.1386
▁mënatu	-11.139
▁Dagg	-11.1407
dul	-11.1426
▁rentre	-11.1427
▁Jé	-11.1442
▁ň	-11.1453
ñse	-11.1459
era	-11.1463
rez	-11.1464
ér	-11.1469
▁éta	-11.1496
añse	-11.1502
▁baag	-11.1502
édu	-11.1521
▁fermé	-11.1524
yaa	-11.1525
▁ken	-11.1531
bare	-11.1532
▁rat	-11.1535
▁Ro	-11.1536
▁devin	-11.1538
approche	-11.1545
ya	-11.1545
▁ngone	-11.1546
wuloon	-11.1547
▁ñal	-11.1547
nesi	-11.156
▁Ngi	-11.1561
▁wo	-11.1571
xaar	-11.1575
▁Pi	-11.1576
écoute	-11.158
▁Puu	-11.1585
étranger	-11.1587
noo	-11.1587
int	-11.1591
gee	-11.1599
▁national	-11.16
▁ins	-11.1609
▁bax	-11.1612
lure	-11.1624
▁Dinañu	-11.1636
▁teewu	-11.1639
emblant	-11.164
ëtt	-11.1644
oeuf	-11.1649
envoie	-11.1655
▁br	-11.1658
épouse	-11.1662
▁duul	-11.1662
if	-11.1663
▁jàppandi	-11.1664
▁Ndaa	-11.1664
▁masse	-11.1672
ňax	-11.1679
urine	-11.1679
naaw	-11.1685
▁ñàng	-11.1687
sexe	-11.1688
alaan	-11.169
▁Màgg	-11.1693
F	-11.1694
▁posée	-11.1695
histoire	-11.1696
▁Lé	-11.1697
ailleurs	-11.1698
▁Taal	-11.17
ordures	-11.1702
▁sàq	-11.1704
souris	-11.1704
enfance	-11.171
garde	-11.171
deux	-11.1712
ndànk	-11.1719
joor	-11.1726
▁mit	-11.173
▁Bum	-11.1732
gaañu	-11.1733
oroom	-11.1736
▁brise	-11.1736
▁lors	-11.1736
xare	-11.1739
ène	-11.1742
▁reen	-11.1743
▁chang	-11.1752
▁Gaa	-11.1761
▁crain	-11.1769
qué	-11.177
▁Ŋ	-11.1784
▁jiwu	-11.1785
▁kà	-11.1787
▁beg	-11.179
▁lions	-11.179
▁trans	-11.1796
▁enseign	-11.1802
habite	-11.1806
▁conçu	-11.182
▁tuut	-11.1825
▁jalga	-11.1828
uri	-11.183
lions	-11.1837
▁Maam	-11.1839
▁retourne	-11.1845
amu	-11.1852
▁Doon	-11.1855
▁pat	-11.1866
réy	-11.1873
▁Tam	-11.1873
▁Nekk	-11.1882
▁daane	-11.1894
▁rem	-11.1898
▁nattu	-11.19
▁Dam	-11.1901
ã	-11.1907
▁fexe	-11.1912
dunq	-11.1912
omb	-11.1912
▁tegu	-11.1914
▁attache	-11.1915
mbar	-11.1923
▁rattax	-11.1926
▁frapper	-11.193
▁waaja	-11.193
▁attrape	-11.193
▁précédé	-11.1936
▁repos	-11.1937
ijji	-11.1941
àmmiñ	-11.1941
▁endormi	-11.1941
▁président	-11.1941
▁prospère	-11.1941
▁chanson	-11.1942
▁groupe	-11.1944
▁général	-11.1944
▁fulla	-11.1946
▁palmier	-11.195
▁enfoncé	-11.1952
▁âgé	-11.1954
▁touffe	-11.1956
▁seconde	-11.1956
iennent	-11.1956
▁termitière	-11.1957
▁tomate	-11.1957
▁ndek	-11.1957
▁Laaj	-11.196
▁pâte	-11.1961
▁gendarme	-11.1961
▁gaz	-11.1962
ateur	-11.1966
lkaati	-11.1969
▁terrasse	-11.1969
▁Moka	-11.1972
▁vague	-11.1973
▁njëg	-11.1977
▁Pou	-11.1978
▁accepte	-11.1979
▁Vers	-11.1979
▁fleur	-11.198
▁geste	-11.1982
▁Maure	-11.1983
oktoor	-11.1992
▁Tel	-11.1995
▁souche	-11.1995
▁demi	-11.1997
maam	-11.1998
anaam	-11.2002
ànk	-11.2005
aurai	-11.2007
àww	-11.2007
naan	-11.2008
▁yéem	-11.201
▁Nguu	-11.2011
▁tourbillon	-11.2013
▁assiette	-11.2017
▁moyen	-11.2017
▁jébbal	-11.2018
▁fl	-11.202
▁mbuus	-11.2022
▁couverte	-11.2025
egg	-11.2031
▁njaboot	-11.2033
ble	-11.2033
▁mbu	-11.2035
assemblée	-11.2038
▁tige	-11.2039
wub	-11.2042
aisselle	-11.2042
▁épais	-11.2042
embouchure	-11.2043
enthousiasme	-11.2043
njikoto	-11.2043
▁1928	-11.2043
▁1948	-11.2043
▁Ahidjo	-11.2043
▁BBC	-11.2043
▁Bërëtaañ	-11.2043
▁Essuie	-11.2043
▁Harcourt	-11.2043
▁Jeffries	-11.2043
▁Kalabaar	-11.2043
▁Kipli	-11.2043
▁berkelle	-11.2043
▁chenilles	-11.2043
▁cliché	-11.2043
▁cravache	-11.2043
▁diarrhée	-11.2043
▁diplôme	-11.2043
▁discipline	-11.2043
▁discussion	-11.2043
▁dispañseer	-11.2043
▁dispensaire	-11.2043
▁dispute	-11.2043
▁excessif	-11.2043
▁grenouille	-11.2043
▁harceler	-11.2043
▁lorgnons	-11.2043
▁lézard	-11.2043
▁nostalgie	-11.2043
▁obsession	-11.2043
▁occulte	-11.2043
▁officier	-11.2043
▁particulier	-11.2043
▁réception	-11.2043
▁résidence	-11.2043
▁rôle	-11.2043
▁sibbiru	-11.2043
▁sorcellerie	-11.2043
▁souverain	-11.2043
▁trapèze	-11.2043
▁trône	-11.2043
▁turbulent	-11.2043
▁véhicule	-11.2043
▁Ëllëg	-11.2043
▁évidemment	-11.2043
héberg	-11.2043
énergie	-11.2043
▁Bretagne	-11.2043
▁Calabar	-11.2043
▁combinaison	-11.2043
▁compétition	-11.2043
▁cravate	-11.2043
▁extraordinaire	-11.2043
▁idiot	-11.2043
▁marabout	-11.2043
▁papaye	-11.2043
▁réponse	-11.2043
apprête	-11.2043
▁Birayim	-11.2043
▁Chuku	-11.2043
▁Dagana	-11.2043
▁bataaxal	-11.2043
▁brindille	-11.2043
▁tropicale	-11.2043
▁xëyee	-11.2043
▁refroidi	-11.2043
▁soixante	-11.2043
▁Sahara	-11.2043
▁Wàññil	-11.2043
▁alentour	-11.2043
▁postérieur	-11.2043
▁égaux	-11.2043
enclos	-11.2043
▁cafards	-11.2043
▁cloche	-11.2043
▁effort	-11.2043
▁mourra	-11.2043
▁ménage	-11.2043
▁transperc	-11.2043
▁ëlëk	-11.2043
▁yëngatu	-11.2043
▁Louga	-11.2043
▁goutte	-11.2043
▁ruisseau	-11.2043
▁Sottil	-11.2043
▁cinquante	-11.2043
▁trésor	-11.2043
▁1968	-11.2043
▁maladroit	-11.2043
▁Macron	-11.2043
▁légende	-11.2043
▁callweer	-11.2043
▁bahut	-11.2043
▁boîte	-11.2043
▁effect	-11.2043
▁pénible	-11.2043
▁Modou	-11.2043
▁décédé	-11.2043
▁gàmmu	-11.2043
Arkuur	-11.2043
▁coiffeuse	-11.2043
▁immédiatement	-11.2043
▁dajaloo	-11.2043
▁inconnu	-11.2043
▁injurié	-11.2043
▁xamantane	-11.2043
La	-11.2043
▁ayubes	-11.2043
▁chauffage	-11.2043
▁turban	-11.2043
▁règne	-11.2043
▁mbindeef	-11.2043
▁yendoo	-11.2043
▁reetaan	-11.2044
▁grève	-11.2044
▁intimes	-11.2044
▁Ñëw	-11.2044
▁Diggante	-11.2044
▁faagaagal	-11.2044
▁geño	-11.2044
▁almet	-11.2044
▁jërr	-11.2044
▁santaane	-11.2044
▁foudre	-11.2044
▁sujet	-11.2044
▁flétri	-11.2044
▁hache	-11.2044
▁Voyage	-11.2044
▁colonne	-11.2044
▁Dëkkandoo	-11.2044
▁ňàkk	-11.2044
▁familier	-11.2044
▁accompagnait	-11.2044
▁ŋacc	-11.2044
▁moytuwul	-11.2044
▁dankalikoo	-11.2044
▁jaabante	-11.2044
▁Diminue	-11.2044
▁frappions	-11.2044
▁luqati	-11.2044
▁saafara	-11.2044
▁parent	-11.2044
▁séddale	-11.2044
▁Nawet	-11.2044
▁généreux	-11.2044
▁waxambaane	-11.2044
▁téter	-11.2044
▁hors	-11.2044
▁sorcier	-11.2045
▁désherber	-11.2045
▁daraja	-11.2045
▁pauvre	-11.2045
▁ceddo	-11.2045
▁fauteuil	-11.2045
▁fëq	-11.2045
▁famine	-11.2045
▁jaaxle	-11.2045
▁Plie	-11.2045
▁emmené	-11.2045
▁Delloo	-11.2045
▁détermination	-11.2045
▁habituellement	-11.2045
▁bãŋ	-11.2045
▁Bouche	-11.2045
▁reegal	-11.2045
▁Suukar	-11.2045
▁bagarre	-11.2046
▁gonflé	-11.2046
▁Xaalis	-11.2046
occup	-11.2046
▁fureur	-11.2046
▁connaissance	-11.2046
▁fièvre	-11.2046
▁rajoom	-11.2046
islam	-11.2046
▁nammeel	-11.2046
▁ndoorte	-11.2046
▁pension	-11.2046
▁aaytal	-11.2046
▁ndott	-11.2046
▁États	-11.2046
▁plaisanterie	-11.2046
▁cuvette	-11.2047
▁heureux	-11.2047
▁sunguf	-11.2047
▁bataille	-11.2047
jekkal	-11.2047
▁kuddu	-11.2047
▁recul	-11.2047
▁jouets	-11.2047
▁silmaxa	-11.2047
isible	-11.2047
▁annoncé	-11.2047
▁naître	-11.2047
▁baguette	-11.2047
éperon	-11.2048
▁móobal	-11.2048
▁galoper	-11.2048
▁Dellu	-11.2048
▁njub	-11.2049
épineux	-11.2049
▁fexeel	-11.2049
▁jàppandal	-11.2049
▁aloom	-11.205
▁voyait	-11.205
▁Ñaq	-11.205
▁nemmeeku	-11.205
▁bagaas	-11.205
▁Demain	-11.205
▁lekkool	-11.205
▁Terre	-11.2051
▁fàŋŋ	-11.2051
▁Jaaykat	-11.2051
▁sibiru	-11.2051
▁dencukaay	-11.2052
▁moteur	-11.2052
▁feyyu	-11.2052
▁Alfa	-11.2052
▁réconcilier	-11.2053
ède	-11.2053
▁éru	-11.2053
▁Demkoon	-11.2053
▁secours	-11.2053
▁chapeaux	-11.2053
▁satisfait	-11.2053
▁Fecc	-11.2053
▁juuti	-11.2053
▁miirloo	-11.2054
▁soble	-11.2054
▁wert	-11.2054
▁changement	-11.2054
▁këruus	-11.2054
▁Demuloo	-11.2054
▁Ndoxum	-11.2054
▁recommencer	-11.2054
▁kaki	-11.2055
▁refusé	-11.2055
▁pairs	-11.2055
▁Bamako	-11.2055
▁bëggóon	-11.2055
▁Sàmm	-11.2055
▁fraîche	-11.2055
▁yégee	-11.2055
▁naqarlu	-11.2056
▁Rob	-11.2056
▁leçon	-11.2056
▁myst	-11.2056
▁doxalin	-11.2056
▁sooke	-11.2056
▁xotti	-11.2057
▁Bateri	-11.2057
▁barbe	-11.2057
▁màkkaan	-11.2057
▁sœurs	-11.2057
▁soif	-11.2057
▁récolter	-11.2058
▁braises	-11.2058
▁largeur	-11.2058
▁invités	-11.2058
▁ministar	-11.2058
▁décrit	-11.2058
▁humide	-11.2058
▁ruux	-11.2058
▁venin	-11.2059
aliments	-11.2059
▁bóox	-11.2059
▁promis	-11.2059
▁Ferme	-11.2059
▁bàyyiwul	-11.2059
▁dàqe	-11.2059
▁pétrole	-11.2059
▁pendent	-11.2059
▁rajaxe	-11.2059
▁Yokkal	-11.2059
▁éteint	-11.206
▁aimé	-11.206
▁yeggee	-11.206
▁yemale	-11.206
▁palaas	-11.206
▁àttaaya	-11.206
▁foyi	-11.206
▁facilement	-11.206
▁bottes	-11.2061
▁sérieux	-11.2061
▁fëgg	-11.2061
▁installé	-11.2062
▁wooye	-11.2063
▁Fall	-11.2063
▁nirool	-11.2063
▁forger	-11.2063
▁lutin	-11.2063
▁Rao	-11.2063
▁nóox	-11.2064
mbëŋ	-11.2064
▁Poor	-11.2064
▁proprement	-11.2064
▁raflé	-11.2064
▁absent	-11.2064
▁Ind	-11.2064
▁ancien	-11.2064
guñu	-11.2064
▁répondre	-11.2064
▁rapprochée	-11.2065
▁remerciement	-11.2065
pasare	-11.2065
▁revoir	-11.2065
▁kookale	-11.2066
▁descendre	-11.2067
cture	-11.2068
▁Maroc	-11.2068
▁évite	-11.2068
▁sëppu	-11.2068
▁ñakk	-11.2069
▁màggal	-11.2069
▁fendi	-11.207
▁piis	-11.207
▁jadd	-11.207
▁bouché	-11.207
▁yewwu	-11.207
▁luppu	-11.2071
▁Jot	-11.2071
àqal	-11.2071
▁dépend	-11.2071
▁arrivant	-11.2071
▁pente	-11.2071
▁constipé	-11.2072
▁ramasser	-11.2073
▁lundi	-11.2073
▁jàq	-11.2073
▁fowu	-11.2074
ttarñi	-11.2074
▁nàndal	-11.2074
▁plomb	-11.2075
▁photographi	-11.2076
▁cachette	-11.2077
▁ndanka	-11.2077
▁recommand	-11.2077
ccal	-11.2077
▁barque	-11.2078
▁reins	-11.2079
particulièrement	-11.2079
engagé	-11.2079
épic	-11.2079
▁sébbi	-11.208
▁concerne	-11.208
▁manqué	-11.208
▁crin	-11.208
▁noué	-11.2081
▁doq	-11.2081
▁néc	-11.2081
▁moustiques	-11.2081
épreuve	-11.2081
▁timis	-11.2081
ddeeku	-11.2082
▁privilèges	-11.2082
▁gombos	-11.2082
▁noot	-11.2083
▁marchand	-11.2084
▁chair	-11.2084
▁Suuf	-11.2084
▁jëkkëram	-11.2084
▁boyet	-11.2085
▁plumes	-11.2085
▁usé	-11.2085
▁donnera	-11.2086
▁goj	-11.2087
▁moytu	-11.2088
▁qualité	-11.2088
▁yamb	-11.2089
▁querelle	-11.2089
▁séenee	-11.209
▁fàcc	-11.209
▁soxal	-11.2091
▁ouverte	-11.2091
▁relié	-11.2091
▁voient	-11.2091
▁noppee	-11.2092
▁lewet	-11.2093
▁sainte	-11.2093
ën	-11.2094
▁lobe	-11.2094
kin	-11.2094
▁poison	-11.2094
▁maasaloo	-11.2095
▁seraient	-11.2097
▁lèvres	-11.2097
▁muraille	-11.2099
▁figure	-11.2099
▁parl	-11.2099
▁mulet	-11.2099
▁épargn	-11.2099
▁fameuse	-11.2101
▁battant	-11.2101
▁nen	-11.2101
▁Mbam	-11.2102
▁rassembler	-11.2102
▁Céy	-11.2102
▁boum	-11.2102
osité	-11.2102
▁matière	-11.2103
mission	-11.2104
▁ngëm	-11.2105
▁Deg	-11.2105
▁pensée	-11.2105
▁rëq	-11.2106
▁partons	-11.2106
▁étages	-11.2106
▁maîtres	-11.2107
▁exact	-11.2107
▁apparaissent	-11.2108
▁importance	-11.2108
▁lendemain	-11.2108
▁mordu	-11.2109
▁ŋàbb	-11.2109
juram	-11.2109
▁fondé	-11.2109
▁daamar	-11.211
▁cér	-11.211
enfiler	-11.2111
▁pure	-11.2111
▁néewal	-11.2112
▁ramollir	-11.2113
▁Mburu	-11.2113
▁ŋaam	-11.2113
▁détest	-11.2113
▁tàkkal	-11.2115
tuut	-11.2115
▁livré	-11.2116
▁allumette	-11.2117
▁ropp	-11.2118
▁feeñal	-11.2118
▁Dugal	-11.2119
▁Mokaa	-11.212
▁waaxu	-11.2122
▁Tann	-11.2122
▁turam	-11.2124
▁dank	-11.2125
▁péex	-11.2126
▁rive	-11.2126
▁entoure	-11.2126
▁Janq	-11.2127
▁tiital	-11.2128
tron	-11.2128
▁durant	-11.2129
yan	-11.2129
▁tiges	-11.213
▁traces	-11.213
▁penser	-11.213
▁pâtes	-11.2131
▁touffes	-11.2131
▁gosse	-11.2132
▁Xeer	-11.2132
▁juges	-11.2132
▁nuru	-11.2132
▁secondes	-11.2132
▁assiettes	-11.2133
▁enterr	-11.2133
▁soutien	-11.2133
abandonner	-11.2134
▁dindi	-11.2135
▁bouchée	-11.2139
▁dogal	-11.2139
▁yëkk	-11.214
▁pile	-11.214
▁yomba	-11.2141
▁loxoo	-11.2142
▁souhait	-11.2142
▁xalam	-11.2143
▁takkee	-11.2144
▁jëmmu	-11.2146
▁emprunte	-11.2147
▁patte	-11.2148
▁toolam	-11.2148
▁Joor	-11.2149
appelait	-11.2149
▁Banyo	-11.215
▁fullaal	-11.2151
▁éclairs	-11.2154
▁tentes	-11.2154
▁verset	-11.2154
▁Paris	-11.2156
▁plants	-11.2157
▁haricots	-11.2158
activer	-11.2158
accord	-11.2158
▁aimer	-11.2159
▁beru	-11.2159
▁lamb	-11.2159
▁keppaar	-11.216
▁lekkul	-11.216
▁Sall	-11.2161
▁lâcher	-11.2162
liers	-11.2162
inax	-11.2163
▁gifle	-11.2164
▁restent	-11.2164
▁teer	-11.2166
▁ouvertes	-11.2167
▁toogoon	-11.2169
▁redress	-11.217
▁soin	-11.2171
▁extrai	-11.2171
▁fattu	-11.2172
▁sank	-11.2173
kiis	-11.2173
▁baň	-11.2174
▁vente	-11.2174
▁Dogal	-11.2174
▁Kanam	-11.2175
▁Dan	-11.2178
▁woowa	-11.2181
▁mbool	-11.2182
▁ponct	-11.2183
intéresse	-11.2183
▁pareils	-11.2184
▁xame	-11.2185
▁filets	-11.2186
▁lenge	-11.2186
▁bëtam	-11.2189
▁humains	-11.219
▁dallu	-11.2192
▁wéeru	-11.2192
▁agripp	-11.2193
▁donneras	-11.2193
▁flanc	-11.2193
ëŋŋ	-11.2193
▁paysage	-11.2194
saan	-11.2194
▁monta	-11.2195
▁Porte	-11.2197
▁île	-11.2199
▁accueilli	-11.2199
▁root	-11.22
delà	-11.2201
▁anciens	-11.2201
▁hôte	-11.2201
▁gorgé	-11.2202
▁US	-11.2203
▁rikk	-11.2203
▁sekki	-11.2205
▁bëccëg	-11.2205
▁nenne	-11.2206
▁nëbbu	-11.2207
▁demuñu	-11.2209
▁faatu	-11.2212
▁différents	-11.2213
▁làng	-11.2214
▁limite	-11.2215
▁rasu	-11.2216
▁laab	-11.2216
▁ramp	-11.2217
▁ñaq	-11.2218
▁In	-11.2221
▁origin	-11.2221
▁cambar	-11.2221
▁Tire	-11.2225
▁fusils	-11.2225
▁toggal	-11.2226
▁bonhomme	-11.223
▁kersa	-11.223
ls	-11.223
▁mettee	-11.2233
▁partait	-11.2234
▁grise	-11.2234
▁plaisante	-11.2235
▁sienne	-11.2241
car	-11.2241
▁Séy	-11.2244
▁braves	-11.2245
set	-11.2246
▁melo	-11.2247
▁vaccins	-11.2253
▁mokkal	-11.2256
▁Pari	-11.2258
rage	-11.226
▁xarat	-11.2264
▁repasser	-11.2267
ards	-11.2268
▁aajo	-11.2273
▁science	-11.2273
▁yóbba	-11.2274
▁baaxoon	-11.2278
▁baaraamu	-11.2279
lles	-11.2281
▁Mal	-11.2282
▁arme	-11.2284
▁Pey	-11.2285
▁lëg	-11.2287
▁sème	-11.2288
▁fasam	-11.2288
▁kooka	-11.2295
éjal	-11.2296
▁tëwa	-11.2297
adresse	-11.2297
çon	-11.2298
▁Cependant	-11.2298
▁germe	-11.2299
▁séance	-11.2301
▁laissés	-11.2304
▁occasion	-11.2304
▁instrument	-11.2305
▁koog	-11.2308
empire	-11.231
▁mbartal	-11.2316
▁pus	-11.2318
▁diras	-11.2319
eegul	-11.2322
▁Yal	-11.2326
▁ñuux	-11.2334
▁jépp	-11.2336
▁déwén	-11.2336
▁finit	-11.2336
▁Xii	-11.2338
▁magam	-11.2338
▁lever	-11.2341
▁yoonam	-11.2341
▁instants	-11.2341
▁dag	-11.2342
▁golf	-11.2342
rai	-11.2344
▁coureur	-11.2345
▁Aa	-11.2345
▁cartes	-11.2347
▁peer	-11.2349
aie	-11.2349
▁laalee	-11.2352
▁joŋ	-11.2353
▁reere	-11.2354
auté	-11.2357
▁ruu	-11.2362
▁poivr	-11.2371
▁fóote	-11.2373
metti	-11.2374
▁jeneen	-11.2378
▁Dàll	-11.2379
▁Gëm	-11.2379
▁ër	-11.238
▁frappe	-11.2381
▁weg	-11.2383
▁dàgg	-11.2386
▁liw	-11.2396
▁regardé	-11.2396
imoŋ	-11.2399
ition	-11.2404
▁pren	-11.2405
▁oreiller	-11.2406
▁conc	-11.2409
ànd	-11.2413
▁ràng	-11.2413
▁joues	-11.2415
▁prochaine	-11.2416
▁clôture	-11.2419
ëbb	-11.242
▁Bal	-11.2426
▁pointes	-11.2426
▁Xola	-11.2427
▁liggéeyi	-11.2427
▁sem	-11.2429
▁Togg	-11.2431
▁fauc	-11.2433
▁Far	-11.2434
3	-11.2436
▁biiñ	-11.2437
▁géey	-11.2439
▁wutale	-11.2441
gumbe	-11.2442
▁saute	-11.2446
▁montré	-11.2448
▁jong	-11.2452
▁cré	-11.2454
ële	-11.2455
da	-11.2456
eu	-11.2457
▁coûte	-11.246
ggal	-11.2461
jëmbët	-11.2465
occi	-11.2466
▁épouses	-11.2467
▁Moy	-11.2469
▁cage	-11.2477
ewuma	-11.2478
▁accepter	-11.2484
▁defoon	-11.2494
▁rugi	-11.2495
▁gent	-11.2497
ndaw	-11.2498
▁féexal	-11.2499
toŋ	-11.2499
▁Jooy	-11.2505
▁liggéeykat	-11.251
▁chefs	-11.2514
▁Ru	-11.2516
ki	-11.2521
▁trace	-11.2522
▁attendre	-11.2523
▁trouble	-11.2524
▁Àll	-11.2526
alité	-11.2527
▁voyageur	-11.253
▁préjudice	-11.2531
▁Sol	-11.2534
▁fonds	-11.2537
▁And	-11.2543
▁habité	-11.2543
ants	-11.2546
ndal	-11.2547
▁lël	-11.255
▁Kakaa	-11.2552
▁doonoon	-11.2555
▁jiin	-11.2557
▁Kook	-11.2561
▁jaas	-11.2561
▁Amin	-11.2564
▁entrai	-11.2565
▁gore	-11.2566
▁besoins	-11.2567
▁dëkkal	-11.2568
▁socc	-11.2569
▁construit	-11.2569
gne	-11.2577
▁dagan	-11.258
viennent	-11.2587
▁duy	-11.26
àññ	-11.2603
▁jooj	-11.2603
▁demuma	-11.2603
▁pël	-11.2609
▁poules	-11.2611
▁Ndën	-11.2615
yya	-11.2621
omp	-11.2623
▁Dé	-11.2624
amis	-11.2625
▁pince	-11.264
▁séenu	-11.2647
▁fat	-11.2648
▁chique	-11.2655
▁loi	-11.2657
daa	-11.2672
▁fum	-11.2672
erig	-11.2673
▁layu	-11.2675
jarum	-11.2677
▁wëri	-11.2684
ish	-11.2687
quoi	-11.2688
▁brûlant	-11.2692
ndale	-11.2692
▁mëne	-11.2693
▁refuser	-11.2695
okk	-11.2698
▁civil	-11.2699
▁Bant	-11.2699
▁constat	-11.2702
▁serv	-11.2706
géeju	-11.2707
▁tra	-11.2709
▁attire	-11.271
▁tuutee	-11.2712
▁Njiit	-11.2712
▁teral	-11.2713
▁provoqu	-11.2717
▁jara	-11.2718
baissé	-11.2721
vie	-11.2723
iser	-11.2727
rag	-11.2739
▁rayonn	-11.2744
▁furi	-11.2747
lever	-11.2748
par	-11.2748
▁poor	-11.2752
▁marches	-11.2752
▁ngee	-11.2754
▁exerc	-11.2756
▁Ñakku	-11.2757
▁achetée	-11.2767
▁croisé	-11.2771
fay	-11.2779
▁caq	-11.2787
iquement	-11.2791
▁céet	-11.2791
▁avenir	-11.2792
▁gourde	-11.2793
▁guette	-11.2807
▁làmmiñ	-11.2809
▁fowe	-11.2809
▁tooge	-11.2811
▁peinte	-11.2812
▁dames	-11.2815
ève	-11.2816
▁médecine	-11.282
▁luisant	-11.2827
▁Dàq	-11.2828
llemands	-11.2834
▁xas	-11.2839
▁dell	-11.2845
▁gàjj	-11.2846
▁Mbot	-11.285
▁bours	-11.2851
▁dispose	-11.2852
▁ivre	-11.2852
▁njàpp	-11.2858
▁jagal	-11.2859
▁dëkkee	-11.286
ékk	-11.2869
▁courte	-11.2871
innaaw	-11.2874
▁NGo	-11.2879
▁lë	-11.288
▁Natt	-11.2883
▁tëgge	-11.2884
dog	-11.2885
▁suffisa	-11.2885
▁jotu	-11.2889
aiment	-11.2891
▁saxal	-11.2891
▁assise	-11.2905
ë	-11.2915
▁tàmme	-11.2917
▁dedans	-11.2922
▁profonde	-11.2926
▁Sëri	-11.2927
▁Dég	-11.2942
ser	-11.2945
▁trouves	-11.295
ett	-11.2951
▁doye	-11.2953
▁bonnes	-11.2964
▁aille	-11.2964
tóor	-11.2972
udeur	-11.2983
▁tàggoo	-11.2986
▁nang	-11.3001
▁révolte	-11.3002
▁Tan	-11.3003
▁pend	-11.301
▁waajal	-11.3019
▁cousine	-11.3023
sii	-11.3026
▁sages	-11.3028
andis	-11.3033
kkati	-11.3035
▁examine	-11.3039
iable	-11.3058
▁reprend	-11.3067
▁nekkin	-11.3071
▁jullit	-11.3072
▁karo	-11.3075
abal	-11.3076
▁sois	-11.3079
▁loos	-11.3079
rite	-11.308
▁jib	-11.3081
▁Më	-11.3082
ulëer	-11.3084
▁aju	-11.3089
enti	-11.3097
▁trouv	-11.3098
▁guerr	-11.3102
vis	-11.3104
▁donnes	-11.3104
▁Ndo	-11.3114
sement	-11.3116
▁morte	-11.3117
cier	-11.3122
▁Lal	-11.3122
▁manifest	-11.3127
▁Sàkk	-11.3133
▁dot	-11.3134
▁nda	-11.3136
umes	-11.3147
uses	-11.3152
▁joxe	-11.3157
céder	-11.3158
▁wol	-11.3163
▁Per	-11.3165
▁postu	-11.3166
▁Dang	-11.3172
▁ñay	-11.3173
xef	-11.3183
▁range	-11.3186
▁secoue	-11.3203
▁bëggu	-11.3224
▁ti	-11.3226
▁lo	-11.3234
▁kees	-11.3248
restr	-11.3251
action	-11.3253
▁maaj	-11.3254
lit	-11.326
antu	-11.3273
▁retir	-11.3275
▁com	-11.3276
iques	-11.3284
llu	-11.3285
mbal	-11.3285
ude	-11.329
oter	-11.3303
eaux	-11.3313
▁sourd	-11.3313
▁ngoogu	-11.3318
▁sib	-11.3326
ool	-11.3326
▁découverte	-11.3326
▁jaaye	-11.3331
▁tag	-11.3332
▁parfum	-11.3334
▁nëb	-11.3335
▁Mang	-11.3341
xte	-11.3351
▁nuits	-11.3354
▁senti	-11.3364
▁fouille	-11.337
baana	-11.3373
▁fuy	-11.3373
▁fitt	-11.3375
▁Wóo	-11.3381
▁Wi	-11.3398
soon	-11.3406
▁toogal	-11.3406
▁Nil	-11.3424
ailler	-11.343
rouler	-11.3432
▁njuum	-11.3434
▁Kil	-11.3438
▁bête	-11.3448
▁saret	-11.3451
▁brutale	-11.3451
bul	-11.3453
▁préven	-11.3458
▁muñ	-11.3459
▁an	-11.3469
▁devra	-11.3472
▁pratiqu	-11.348
▁Af	-11.3481
▁gétt	-11.3485
▁gêne	-11.3486
▁lourde	-11.3488
tin	-11.3493
▁jafee	-11.3502
▁mouche	-11.3505
▁gisu	-11.3505
maan	-11.3506
reux	-11.351
kket	-11.3513
▁tëdde	-11.3513
▁pieu	-11.3513
rons	-11.3515
▁abord	-11.3516
▁Ker	-11.3527
▁appren	-11.3533
▁batt	-11.3545
▁lemu	-11.356
faites	-11.3573
▁Ngalla	-11.358
jaa	-11.3584
aine	-11.3588
ëj	-11.3593
ural	-11.3594
▁isolé	-11.3602
▁ňa	-11.3604
▁kàttanu	-11.3604
arité	-11.3614
jal	-11.3618
of	-11.3622
▁rii	-11.3627
▁nues	-11.364
▁déf	-11.3648
▁rempliss	-11.3654
▁tomb	-11.3654
▁épi	-11.3654
▁yiw	-11.3657
neen	-11.3666
laa	-11.3671
▁institu	-11.3673
▁pis	-11.3678
▁lem	-11.3679
▁tegoo	-11.3693
▁esprit	-11.3698
▁allon	-11.3703
yu	-11.3715
▁aigu	-11.3719
▁xoo	-11.3724
▁descendra	-11.3726
▁change	-11.3728
ucu	-11.373
lir	-11.3754
▁Mac	-11.3758
▁ind	-11.3761
àq	-11.3762
▁danser	-11.3779
ññ	-11.378
jantu	-11.3784
▁ñibbis	-11.3785
▁fourr	-11.3791
ňň	-11.38
▁baal	-11.3801
entrer	-11.3804
▁gënn	-11.3805
▁mêle	-11.3814
▁duus	-11.3814
araada	-11.3817
▁Fe	-11.3828
occ	-11.3829
▁af	-11.3833
▁awu	-11.3833
▁daar	-11.3834
àmb	-11.3834
▁jaal	-11.384
▁fir	-11.3847
▁wal	-11.3851
room	-11.3856
lève	-11.3866
▁ressemblai	-11.3873
eud	-11.3888
cle	-11.3899
▁gà	-11.3911
▁écoute	-11.3915
▁tourne	-11.3921
▁ouvr	-11.3927
baar	-11.3933
sme	-11.3934
enferme	-11.3939
▁refus	-11.3942
▁Mës	-11.3958
ŋgeen	-11.3959
▁press	-11.3961
▁selle	-11.3965
aaka	-11.3972
▁Ngo	-11.3979
▁tor	-11.3992
ssement	-11.3993
▁form	-11.3993
▁bës	-11.4001
ques	-11.4007
▁sida	-11.4008
àyyee	-11.4014
▁froide	-11.4018
rax	-11.4019
▁souci	-11.4021
ive	-11.4021
▁dépouill	-11.4031
antee	-11.4032
go	-11.4041
sal	-11.4049
aaral	-11.4054
▁Dee	-11.4054
uji	-11.4054
euses	-11.4063
habitation	-11.4069
ital	-11.408
▁Pom	-11.4089
waaw	-11.4093
▁teqale	-11.4093
uuf	-11.4103
▁connaiss	-11.4112
ret	-11.4113
samba	-11.4117
aari	-11.4117
▁claire	-11.4117
▁Jur	-11.4123
siti	-11.4131
▁sut	-11.4132
▁souten	-11.4148
▁gén	-11.415
▁Baxa	-11.4151
yeux	-11.4155
ewoon	-11.4162
ggi	-11.4163
asi	-11.417
▁Damm	-11.4172
mené	-11.4174
rés	-11.4184
ewaan	-11.4198
▁ouvri	-11.4205
muma	-11.4214
▁rapport	-11.4214
ouiller	-11.4227
▁yaroo	-11.4231
wa	-11.4233
▁fri	-11.4236
▁basse	-11.4241
▁bërë	-11.4243
▁raam	-11.4245
▁wat	-11.4251
atim	-11.4258
eetuñu	-11.4259
▁yaru	-11.426
▁nourris	-11.426
▁Fiir	-11.4268
ente	-11.427
▁tourné	-11.4275
▁somm	-11.4298
rette	-11.4309
▁conten	-11.4323
▁étal	-11.4325
rier	-11.4327
rand	-11.433
etti	-11.4336
▁ñen	-11.4337
▁dénu	-11.4337
▁indee	-11.4339
iyaar	-11.4345
ngu	-11.4353
bbam	-11.4355
▁emp	-11.4366
▁Léb	-11.4368
▁yékk	-11.4373
dit	-11.4377
▁laaf	-11.438
bee	-11.4389
▁chameau	-11.4395
▁Go	-11.4397
ngal	-11.44
teur	-11.4402
▁Cha	-11.4402
▁fal	-11.4407
leur	-11.4414
▁lawoon	-11.4415
▁Con	-11.4416
▁redoute	-11.4428
daar	-11.4433
▁Sag	-11.4445
ntu	-11.4451
▁casser	-11.4455
▁peint	-11.4467
arrêt	-11.447
▁naň	-11.4477
emal	-11.4478
ho	-11.448
arangue	-11.448
▁neexu	-11.4481
▁Nangu	-11.4485
▁jaaru	-11.45
ommes	-11.4513
ller	-11.4517
▁opeere	-11.4518
ef	-11.4528
émmiñ	-11.4529
▁provoque	-11.4534
▁yatt	-11.4537
▁Faal	-11.4553
▁aisé	-11.457
▁arrache	-11.457
tendait	-11.4571
ryaa	-11.4574
rément	-11.4583
wo	-11.459
dex	-11.46
▁Agsil	-11.4612
▁écouter	-11.4616
▁toile	-11.4629
▁xolu	-11.464
waa	-11.4642
▁tap	-11.4646
▁saaw	-11.4648
▁Ga	-11.4652
▁Ré	-11.4674
odd	-11.4679
▁hi	-11.468
▁collect	-11.4681
▁Ho	-11.4691
ck	-11.4692
▁mien	-11.4693
▁ke	-11.4698
▁biiru	-11.4701
▁détour	-11.4702
▁frotte	-11.4714
opp	-11.4716
▁mont	-11.4717
prié	-11.4717
▁frapp	-11.4723
▁baar	-11.4724
▁sex	-11.4733
▁sing	-11.4733
▁all	-11.4738
▁noue	-11.4741
ana	-11.4743
â	-11.4746
angui	-11.475
pression	-11.4751
▁jambaa	-11.4754
▁Bay	-11.4769
▁dégage	-11.4774
▁Ñan	-11.4779
▁ve	-11.4787
▁pos	-11.4787
▁Baa	-11.4789
jaay	-11.4795
jëkk	-11.4797
eetul	-11.4798
▁étrang	-11.4816
ëddal	-11.4816
ñaar	-11.4825
▁mboole	-11.4825
verser	-11.4826
exe	-11.4831
▁fé	-11.4845
oupe	-11.4845
yaan	-11.4848
agante	-11.4848
▁ngaa	-11.4849
▁Mbal	-11.4856
accompagne	-11.4864
▁nourri	-11.4865
▁ndée	-11.4868
▁kàcc	-11.487
usion	-11.4871
▁njar	-11.4872
▁chass	-11.4875
▁Xee	-11.4878
▁étale	-11.488
lin	-11.488
▁rayon	-11.4893
▁ndog	-11.4896
erez	-11.4897
▁yëge	-11.4901
▁répare	-11.4906
ëcc	-11.4909
objet	-11.4912
hôte	-11.4915
▁méprise	-11.4916
▁devenue	-11.4924
xe	-11.4926
dent	-11.4928
tête	-11.493
eem	-11.4932
▁bindu	-11.494
Aro	-11.4943
allume	-11.4956
▁gàdd	-11.4957
▁sawar	-11.4959
▁remarqu	-11.496
ndax	-11.496
▁xaju	-11.4962
guma	-11.4963
junni	-11.4965
arracher	-11.4971
émotion	-11.4973
jaxal	-11.4975
tànk	-11.4977
espoir	-11.4977
irais	-11.4978
ît	-11.4978
expérience	-11.4979
Européens	-11.4979
laire	-11.4985
aaku	-11.4988
uus	-11.4993
▁bouton	-11.4994
▁Tonn	-11.4994
dànk	-11.4998
demain	-11.5003
étendue	-11.5004
▁conco	-11.5005
outils	-11.5006
raan	-11.5007
eew	-11.5009
interprète	-11.501
jàmm	-11.5016
feebar	-11.5018
animal	-11.5018
ñetti	-11.5023
instrument	-11.5023
ger	-11.5023
occasion	-11.5024
bakkan	-11.5025
allait	-11.5026
yëngu	-11.5031
▁bà	-11.5031
njort	-11.5033
apporte	-11.5033
corde	-11.5035
roc	-11.5035
oreiller	-11.5036
▁parc	-11.5049
▁poul	-11.5051
jambe	-11.5051
yëg	-11.5058
arrivée	-11.5059
▁dëbb	-11.506
tëx	-11.506
science	-11.5066
état	-11.5067
▁pleu	-11.5075
▁officiel	-11.5079
▁tou	-11.5082
lekk	-11.5082
chouc	-11.5083
jél	-11.5083
▁Ju	-11.5084
▁vive	-11.5084
▁dóore	-11.5089
rop	-11.509
▁o	-11.5093
insectes	-11.5096
appel	-11.5098
unique	-11.5103
ol	-11.5104
▁njàmbat	-11.5106
dég	-11.5109
origine	-11.5109
▁Loxo	-11.511
maar	-11.5113
échappe	-11.5116
▁moomeel	-11.5126
construi	-11.5129
taan	-11.5131
▁joy	-11.5132
rayon	-11.514
vais	-11.5143
emmen	-11.5146
▁bër	-11.5146
ères	-11.515
▁Ngela	-11.5163
uel	-11.5164
yee	-11.5168
lion	-11.5169
fils	-11.5173
▁noppale	-11.5175
▁jag	-11.5179
lëpp	-11.518
ram	-11.5195
ham	-11.5199
envol	-11.5199
▁bouilli	-11.52
▁Fara	-11.5205
baay	-11.5208
▁moomee	-11.5217
▁procur	-11.5225
iwul	-11.5225
attends	-11.5227
▁xu	-11.5229
▁racont	-11.5232
ŋun	-11.5232
▁repris	-11.5234
égal	-11.5237
âtre	-11.525
▁froiss	-11.5251
ât	-11.5253
▁tissé	-11.5255
ttax	-11.526
bét	-11.5262
▁franco	-11.5264
axe	-11.5265
▁ndam	-11.5267
cité	-11.5269
▁Ah	-11.5274
▁incapable	-11.5275
▁pintade	-11.5275
▁mérite	-11.5275
▁gerbe	-11.5276
▁utile	-11.5277
óob	-11.5277
▁Européen	-11.5277
▁écriture	-11.5277
▁démo	-11.5279
▁congé	-11.5281
▁moustiquaire	-11.5284
▁défaut	-11.5285
▁banane	-11.5289
▁distance	-11.5289
▁esclave	-11.5291
▁perçoi	-11.5291
▁Confi	-11.5291
▁péché	-11.5293
▁nànd	-11.5294
▁soldat	-11.5294
▁militaire	-11.5294
▁nombreuse	-11.5295
▁relation	-11.5296
▁giir	-11.5296
▁caravane	-11.5299
dée	-11.53
▁mètre	-11.53
adult	-11.5301
▁vautour	-11.5308
àbb	-11.531
▁mbemb	-11.5316
▁rituel	-11.5319
▁graine	-11.5321
▁Ànda	-11.5322
▁kur	-11.5324
▁sebe	-11.5329
▁sébb	-11.533
off	-11.533
▁Peul	-11.533
▁utilis	-11.5332
abuse	-11.5334
xi	-11.5339
▁tien	-11.5344
▁sortie	-11.535
▁bàkk	-11.5352
▁Lekku	-11.5353
▁Leer	-11.5353
▁Seeti	-11.5355
▁récolte	-11.5356
baxana	-11.5356
▁allumé	-11.5357
humid	-11.5357
déwén	-11.5358
▁européen	-11.536
cière	-11.5361
aigre	-11.5362
umtukaay	-11.5363
▁dinañ	-11.5365
▁réconcili	-11.5366
▁Babungo	-11.5368
▁Xool	-11.5369
▁réf	-11.537
▁trous	-11.537
▁jége	-11.537
▁apparu	-11.5371
▁ŋgoogu	-11.5373
vêtement	-11.5374
épaule	-11.5374
▁wodd	-11.5374
▁firnde	-11.5375
▁remonte	-11.5375
▁1	-11.5375
sultat	-11.5376
▁tradition	-11.5376
▁pèlerin	-11.5376
▁Accepte	-11.5376
▁gâch	-11.5376
▁impeccable	-11.5376
▁indisciplin	-11.5376
4	-11.5376
Adamawa	-11.5376
bêche	-11.5376
calpel	-11.5376
oesophage	-11.5376
urgence	-11.5376
Ô	-11.5376
ébénier	-11.5376
économie	-11.5376
▁6	-11.5376
▁Algérie	-11.5376
▁Bénuwe	-11.5376
▁Bëccëg	-11.5376
▁Fields	-11.5376
▁Français	-11.5376
▁Khadi	-11.5376
▁Mohamed	-11.5376
▁Thiès	-11.5376
▁assimilé	-11.5376
▁bandoulière	-11.5376
▁banlieue	-11.5376
▁benkeñenke	-11.5376
▁bànxaas	-11.5376
▁caricatural	-11.5376
▁chiffon	-11.5376
▁chirurgi	-11.5376
▁chrétiens	-11.5376
▁circoncire	-11.5376
▁climatiseurs	-11.5376
▁colostrum	-11.5376
▁concubin	-11.5376
▁considère	-11.5376
▁coqueluche	-11.5376
▁corrompu	-11.5376
▁crocodile	-11.5376
▁célèbre	-11.5376
▁difficulté	-11.5376
▁dispositions	-11.5376
▁domicile	-11.5376
▁drôle	-11.5376
▁dysenterie	-11.5376
▁débarrasser	-11.5376
▁défrich	-11.5376
▁déçu	-11.5376
▁efficace	-11.5376
▁enrhumé	-11.5376
▁favoris	-11.5376
▁fidélité	-11.5376
▁funèbre	-11.5376
▁gàngiri	-11.5376
▁immeuble	-11.5376
▁incessant	-11.5376
▁indécent	-11.5376
▁invisible	-11.5376
▁kaabaab	-11.5376
▁kurpeñ	-11.5376
▁kàndaŋ	-11.5376
▁légitimer	-11.5376
▁lépreux	-11.5376
▁mbaxane	-11.5376
▁minuscule	-11.5376
▁médiocr	-11.5376
▁méthod	-11.5376
▁nguuka	-11.5376
▁ngànnaay	-11.5376
▁njublaŋ	-11.5376
▁oleifera	-11.5376
▁paralytique	-11.5376
▁paupière	-11.5376
▁possession	-11.5376
▁professeur	-11.5376
▁prothèse	-11.5376
▁proverbe	-11.5376
▁ramadan	-11.5376
▁ressources	-11.5376
▁roppëlaan	-11.5376
▁réclame	-11.5376
▁résignation	-11.5376
▁scrupule	-11.5376
▁spirituel	-11.5376
▁sévère	-11.5376
▁treize	-11.5376
▁tribales	-11.5376
▁ñànjaxeer	-11.5376
▁ófise	-11.5376
xóll	-11.5376
▁affluent	-11.5376
▁discrète	-11.5376
▁gafaka	-11.5376
▁gësëm	-11.5376
▁gëtën	-11.5376
▁kilifteef	-11.5376
▁ŋalaab	-11.5376
Christ	-11.5376
▁195	-11.5376
▁Cokkeer	-11.5376
▁Emmène	-11.5376
▁Kàttan	-11.5376
▁Radiyasi	-11.5376
▁asséché	-11.5376
▁camarades	-11.5376
▁chevelure	-11.5376
▁extralucide	-11.5376
▁générosité	-11.5376
▁naaféq	-11.5376
▁orgueil	-11.5376
▁papillon	-11.5376
▁patates	-11.5376
▁pikiir	-11.5376
▁raisonnable	-11.5376
▁resplendis	-11.5376
▁ridicule	-11.5376
▁râpe	-11.5376
▁serviteurs	-11.5376
▁subitement	-11.5376
▁vrombi	-11.5376
instructions	-11.5376
▁Aïe	-11.5376
▁cadenas	-11.5376
▁interrompu	-11.5376
▁islamique	-11.5376
▁profession	-11.5376
▁promesse	-11.5376
▁taariix	-11.5376
▁totaux	-11.5376
▁biddanti	-11.5376
▁bélier	-11.5376
▁entorse	-11.5376
▁glacé	-11.5376
▁niébé	-11.5376
▁raciale	-11.5376
▁volonté	-11.5376
▁Diouf	-11.5376
▁constituée	-11.5376
▁réparateur	-11.5376
▁arbuste	-11.5376
▁cicatrice	-11.5376
▁kàmpa	-11.5376
▁njaaxum	-11.5376
▁enroulé	-11.5376
▁Faranse	-11.5376
▁secrète	-11.5376
▁Riwër	-11.5376
▁conjugal	-11.5376
▁corruption	-11.5376
▁ténia	-11.5376
▁écrivent	-11.5376
▁affamé	-11.5376
▁flanqu	-11.5376
escalad	-11.5376
▁maturité	-11.5376
▁sinemaa	-11.5376
▁recouvert	-11.5376
▁Saawusamton	-11.5376
▁njukkal	-11.5376
▁poobar	-11.5376
▁réservoir	-11.5376
▁Feebar	-11.5376
▁merveille	-11.5376
▁poids	-11.5376
▁popula	-11.5376
▁Keroog	-11.5377
▁décharge	-11.5377
▁traditionnelle	-11.5377
▁Jóg	-11.5377
▁personnalité	-11.5377
▁Polisoŋ	-11.5377
▁dilapid	-11.5377
▁sigaret	-11.5377
▁colonisation	-11.5377
▁débrouill	-11.5377
▁iróko	-11.5377
▁Place	-11.5377
▁galeries	-11.5377
▁latérite	-11.5377
▁sarica	-11.5377
▁crapaud	-11.5377
▁désordre	-11.5377
▁Surveille	-11.5377
▁suppose	-11.5377
▁étouffante	-11.5377
emboît	-11.5377
▁njalbéen	-11.5377
▁variole	-11.5377
▁boulettes	-11.5377
▁communauté	-11.5377
▁culture	-11.5377
▁Redresse	-11.5377
▁gérer	-11.5377
▁boulevers	-11.5377
▁dégagé	-11.5377
impolitesse	-11.5377
▁bambara	-11.5377
▁délicieuse	-11.5377
▁consomme	-11.5377
▁critique	-11.5377
▁reproche	-11.5377
▁Penku	-11.5377
▁ginnax	-11.5377
▁gémir	-11.5377
▁vélo	-11.5377
▁explication	-11.5377
▁sculptés	-11.5377
▁injection	-11.5377
▁batã	-11.5377
▁gàllaaj	-11.5377
▁River	-11.5377
▁Alseri	-11.5377
▁sëlmu	-11.5377
▁initié	-11.5377
▁élancé	-11.5377
▁cauris	-11.5377
▁zéro	-11.5377
▁jégeñante	-11.5377
▁Bénoué	-11.5377
▁Méfie	-11.5377
▁réchauffe	-11.5377
▁Remets	-11.5377
▁gereew	-11.5377
▁karwaat	-11.5377
amitié	-11.5377
▁baakaar	-11.5377
▁esquiss	-11.5377
▁insolen	-11.5377
▁allongé	-11.5377
▁pacifi	-11.5377
▁pataas	-11.5377
▁Gerte	-11.5377
▁cuisson	-11.5377
▁public	-11.5377
escalier	-11.5377
▁sablonneux	-11.5377
▁verrue	-11.5377
▁pelouse	-11.5377
▁sexuel	-11.5377
▁walbatiku	-11.5377
▁fierté	-11.5377
▁souffrir	-11.5377
▁poltron	-11.5377
▁ŋexal	-11.5377
▁ndékki	-11.5377
▁rongoñ	-11.5377
▁magnifique	-11.5377
▁choeur	-11.5377
▁Xo	-11.5377
▁serrure	-11.5377
▁soppikoo	-11.5377
▁Fiild	-11.5377
▁jafandu	-11.5377
▁triste	-11.5378
▁coussin	-11.5378
▁truc	-11.5378
▁fànn	-11.5378
▁certitude	-11.5378
▁folie	-11.5378
▁janool	-11.5378
▁rañaan	-11.5378
▁déborda	-11.5378
hiver	-11.5378
▁ferñent	-11.5378
▁bouc	-11.5378
oseille	-11.5378
▁apparaître	-11.5378
▁parfaitement	-11.5378
▁reconnaître	-11.5378
▁réconciliation	-11.5378
▁sucrée	-11.5378
▁Diop	-11.5378
▁jàmbat	-11.5378
▁rammu	-11.5378
▁fluide	-11.5378
▁glace	-11.5378
▁malhonnête	-11.5378
▁politique	-11.5378
▁Mbuum	-11.5378
▁xëm	-11.5378
▁dignité	-11.5378
▁replié	-11.5378
▁pomme	-11.5379
▁Ubbi	-11.5379
▁culotte	-11.5379
▁pitié	-11.5379
▁Jëkkër	-11.5379
▁garbo	-11.5379
▁jalous	-11.5379
▁haine	-11.5379
▁distinguer	-11.5379
▁ndëpp	-11.5379
▁Kaamil	-11.5379
▁tournant	-11.5379
▁agress	-11.5379
▁assassiné	-11.5379
▁vêtements	-11.5379
▁sautille	-11.5379
▁noyyee	-11.5379
▁rewle	-11.5379
▁jonkon	-11.5379
emmène	-11.5379
▁gousse	-11.5379
▁bavardage	-11.5379
▁bêle	-11.5379
▁métallique	-11.5379
▁révél	-11.5379
▁njiitlaay	-11.5379
▁Toucouleur	-11.5379
▁Gànnaar	-11.538
▁habitué	-11.538
▁yaxeet	-11.538
▁Indiens	-11.538
▁féewal	-11.538
▁barigo	-11.538
▁descente	-11.538
▁boucles	-11.538
▁jokkoo	-11.538
▁gayet	-11.538
▁maïs	-11.538
méro	-11.538
▁guigne	-11.538
▁aimait	-11.538
▁rattraper	-11.538
▁Niseer	-11.538
▁saŋx	-11.538
▁wéñ	-11.538
▁Abdou	-11.538
▁proue	-11.538
▁ngoox	-11.538
opérer	-11.5381
▁yéjje	-11.5381
▁borgne	-11.5381
▁ngooñ	-11.5381
▁nappaaj	-11.5381
▁lottal	-11.5381
▁Àddina	-11.5381
▁naŋgu	-11.5381
▁croyant	-11.5381
▁figuier	-11.5381
▁duuful	-11.5381
▁mérou	-11.5381
▁foye	-11.5381
▁flamb	-11.5381
▁Yëf	-11.5381
▁juuyoo	-11.5381
▁Génn	-11.5381
▁craquer	-11.5381
▁Altine	-11.5381
▁orages	-11.5381
▁Ijama	-11.5381
▁mbàpp	-11.5381
▁naawtal	-11.5381
affût	-11.5382
▁carafe	-11.5382
▁mellax	-11.5382
▁gagner	-11.5382
ddiw	-11.5382
▁Mbootaay	-11.5382
▁proie	-11.5382
▁inquiet	-11.5383
▁calao	-11.5383
▁baadoolo	-11.5383
▁ňoom	-11.5383
▁organisme	-11.5383
▁Niger	-11.5383
▁ràgg	-11.5383
▁cassure	-11.5384
▁kànja	-11.5384
▁dévasté	-11.5384
▁cuq	-11.5384
encens	-11.5384
▁vivaient	-11.5384
sutura	-11.5384
Unis	-11.5384
▁généralement	-11.5384
▁Xalam	-11.5384
▁ndóbin	-11.5384
▁góob	-11.5384
▁ndimmal	-11.5385
▁vieillesse	-11.5385
▁sëng	-11.5385
pto	-11.5385
▁Demande	-11.5385
▁étage	-11.5385
taññ	-11.5385
▁opprim	-11.5385
▁mortier	-11.5385
▁mbindaan	-11.5386
▁brûlait	-11.5386
▁touché	-11.5386
▁Wàcc	-11.5386
▁gâteaux	-11.5386
▁aboient	-11.5386
▁siège	-11.5386
▁monument	-11.5387
▁troupeaux	-11.5387
▁péey	-11.5387
▁coq	-11.5387
▁mijote	-11.5387
▁active	-11.5387
▁courbe	-11.5387
▁duggsee	-11.5387
▁faible	-11.5387
▁rabat	-11.5387
▁arrivaient	-11.5387
▁refaire	-11.5387
▁Jataŋ	-11.5387
▁Lëkkaay	-11.5387
▁Tubay	-11.5388
▁dédd	-11.5388
▁xuloo	-11.5388
▁njàmbal	-11.5388
▁cuub	-11.5388
▁jéex	-11.5388
▁xamadi	-11.5388
▁tàyyi	-11.5388
▁colons	-11.5388
▁religieuse	-11.5388
rection	-11.5389
▁geestu	-11.5389
▁cordonnier	-11.5389
▁xippi	-11.5389
▁réfléchir	-11.5389
▁salué	-11.539
▁courut	-11.539
▁dimmali	-11.539
▁remit	-11.539
▁fëlë	-11.539
▁pipi	-11.539
▁tatou	-11.539
▁redire	-11.539
▁kéwël	-11.539
▁repent	-11.539
▁sondeel	-11.5391
▁voulais	-11.5391
▁fronde	-11.5391
▁ràcc	-11.5391
▁enflé	-11.5391
▁Ndok	-11.5391
▁yó	-11.5391
▁tooñ	-11.5392
▁féexlu	-11.5392
▁caste	-11.5392
▁sakkan	-11.5392
▁Aide	-11.5392
▁considérable	-11.5392
▁tremper	-11.5392
▁feuille	-11.5392
▁fowal	-11.5392
▁armeel	-11.5392
▁goroŋ	-11.5392
▁Mësuma	-11.5392
existence	-11.5393
▁Enfin	-11.5393
▁mëq	-11.5393
▁pepp	-11.5393
▁grillées	-11.5393
▁réjj	-11.5393
▁disperser	-11.5393
▁habillé	-11.5393
▁rawale	-11.5393
▁moderne	-11.5394
▁vendredi	-11.5394
kku	-11.5394
▁coco	-11.5394
▁protègent	-11.5394
▁bienfait	-11.5394
▁réparti	-11.5394
▁Ngom	-11.5394
▁travaillait	-11.5394
▁traitement	-11.5395
▁Jóob	-11.5395
▁bày	-11.5395
▁jinax	-11.5395
▁njaw	-11.5395
▁Wiyaa	-11.5395
▁jebbi	-11.5395
▁abondante	-11.5396
▁rajoutes	-11.5396
▁gëmoon	-11.5396
▁semblait	-11.5396
▁karaaf	-11.5397
efface	-11.5397
elokaan	-11.5397
▁couverture	-11.5397
▁incisives	-11.5397
▁lëm	-11.5397
▁suivent	-11.5397
▁soupir	-11.5397
▁Aadamawa	-11.5398
▁heureuse	-11.5398
▁Tàngaay	-11.5398
▁tus	-11.5398
▁lugat	-11.5399
▁dëmm	-11.5399
▁achet	-11.5399
▁ñawlu	-11.5399
▁àndandoo	-11.5399
▁revanche	-11.5399
▁équatoriale	-11.5399
▁craquelée	-11.5399
▁baraque	-11.5399
àkkul	-11.5399
▁kalaas	-11.54
▁justifi	-11.54
▁ñorul	-11.54
▁réchauffer	-11.54
▁demkoonul	-11.54
▁Dites	-11.54
▁gorilles	-11.54
▁dëkkandoom	-11.54
▁yéreem	-11.54
▁ànduñu	-11.5401
▁déris	-11.5401
▁ŋàdd	-11.5401
▁pistes	-11.5401
▁commissa	-11.5401
▁rougeâtre	-11.5401
▁Sédd	-11.5401
▁excité	-11.5401
▁cherchait	-11.5402
▁allumées	-11.5402
égorge	-11.5403
▁obst	-11.5403
▁loup	-11.5404
▁clairière	-11.5405
▁Juuf	-11.5405
ttu	-11.5405
gganti	-11.5405
▁crépi	-11.5405
▁prisonnier	-11.5406
▁reposer	-11.5406
▁xottiku	-11.5406
▁Jën	-11.5407
▁fouettera	-11.5407
che	-11.5407
▁siiru	-11.5407
▁Peu	-11.5407
▁croc	-11.5407
▁laabiir	-11.5407
▁courge	-11.5407
▁bàkkaar	-11.5408
▁Dencal	-11.5408
▁guddaay	-11.5408
▁plancher	-11.5409
▁héritier	-11.5409
▁yegsi	-11.5409
▁kókkali	-11.541
▁plaintes	-11.541
▁binage	-11.541
▁attiré	-11.5411
▁manies	-11.5411
▁fóon	-11.5411
▁xott	-11.5412
▁inventé	-11.5413
turne	-11.5413
▁yàkkamti	-11.5413
▁leket	-11.5413
▁dalukaay	-11.5413
▁natale	-11.5414
▁danger	-11.5414
▁njariñam	-11.5414
▁claque	-11.5414
▁jélsi	-11.5415
góorlu	-11.5415
▁défoncé	-11.5415
▁reelu	-11.5415
ërsëg	-11.5415
▁Jaxaa	-11.5416
▁Ken	-11.5416
▁njekk	-11.5417
usure	-11.5417
▁ngàll	-11.5417
▁Bukki	-11.5417
rateur	-11.5417
▁plis	-11.5417
▁génnaan	-11.5417
▁Biig	-11.5417
▁gë	-11.5418
▁répéter	-11.5418
demba	-11.5419
▁Bro	-11.5419
▁sikkim	-11.5419
▁fell	-11.5419
▁franchi	-11.5419
▁talent	-11.542
▁réveiller	-11.542
▁Aca	-11.5421
▁mortel	-11.5422
▁Neex	-11.5422
▁goûté	-11.5424
▁encerclé	-11.5424
▁masque	-11.5424
▁délic	-11.5424
▁dent	-11.5424
▁toux	-11.5424
▁ancienne	-11.5425
▁Jëf	-11.5426
▁Xadi	-11.5426
zar	-11.5426
▁millions	-11.5427
ltine	-11.5427
▁remplir	-11.5428
▁rodd	-11.5429
▁bague	-11.5429
▁jaayaan	-11.543
raiment	-11.543
▁xewoon	-11.543
▁góom	-11.5431
▁dënnam	-11.5432
▁pagaie	-11.5432
▁Yooyu	-11.5432
▁lointains	-11.5432
▁nuuru	-11.5432
▁mbañ	-11.5432
▁Bitik	-11.5432
▁tiroirs	-11.5433
▁bonbons	-11.5433
▁comestibles	-11.5433
▁margouillats	-11.5433
▁résonner	-11.5433
▁effrayé	-11.5434
▁menton	-11.5435
▁tawee	-11.5435
▁Fenn	-11.5435
▁intens	-11.5435
▁Lonk	-11.5435
▁sanqal	-11.5436
▁piir	-11.5436
▁xëccee	-11.5437
orpheline	-11.5437
▁léebal	-11.5437
▁poson	-11.5437
▁Coono	-11.5437
ignée	-11.5438
▁bàkku	-11.5438
▁bóoy	-11.5439
wlin	-11.5439
▁Kari	-11.5439
▁mbooy	-11.5439
▁parcours	-11.544
▁relev	-11.544
▁contrebas	-11.544
▁camion	-11.544
▁consacré	-11.544
▁dépe	-11.5441
▁occupé	-11.5441
▁superposé	-11.5442
▁comparer	-11.5442
▁poose	-11.5443
▁nëx	-11.5443
▁coin	-11.5443
examen	-11.5443
▁partez	-11.5444
▁fumer	-11.5444
appartien	-11.5444
▁Yooy	-11.5445
ekte	-11.5445
▁kooba	-11.5445
▁débarqu	-11.5446
▁noonam	-11.5446
▁Deret	-11.5446
▁Fanaan	-11.5448
▁origines	-11.5448
▁saakam	-11.5448
▁film	-11.5449
▁nasax	-11.5449
▁butit	-11.5451
▁défens	-11.5451
▁ndoxum	-11.5451
▁ruur	-11.5452
▁jëpp	-11.5452
▁commentaire	-11.5452
▁Ñàmb	-11.5453
▁wisit	-11.5453
▁mbuusu	-11.5453
▁grouill	-11.5454
issons	-11.5455
▁agréable	-11.5455
▁Ëndi	-11.5455
▁poux	-11.5455
▁wékk	-11.5455
▁augmente	-11.5456
▁familiari	-11.5457
▁ndawtal	-11.5457
▁transporté	-11.5457
▁Sàll	-11.5459
▁weexaay	-11.5459
▁suivant	-11.5459
▁conservé	-11.5459
▁nord	-11.5459
▁rongé	-11.546
▁wenn	-11.546
▁apparue	-11.546
▁portera	-11.546
▁griffé	-11.546
opération	-11.5462
▁poils	-11.5462
évalu	-11.5462
ension	-11.5462
▁défend	-11.5463
▁woyal	-11.5463
▁supp	-11.5463
wàll	-11.5463
▁ganale	-11.5464
▁aboie	-11.5464
▁Suku	-11.5464
▁bouger	-11.5465
▁Sors	-11.5465
▁Riis	-11.5465
▁emploi	-11.5466
▁saisir	-11.5466
▁raax	-11.5466
▁gaana	-11.5467
▁abeilles	-11.5467
▁convainc	-11.5467
▁siècle	-11.5468
▁douze	-11.5468
▁oignons	-11.5468
▁arrêtée	-11.5468
▁paradis	-11.5469
▁bananes	-11.5469
▁gland	-11.5469
▁niróo	-11.5469
▁défauts	-11.5469
▁moustiquaires	-11.547
▁applique	-11.547
▁tënk	-11.547
▁protéger	-11.5471
▁échelle	-11.5471
▁ñawal	-11.5471
▁applaudi	-11.5472
tuaire	-11.5472
▁obligation	-11.5473
▁feem	-11.5474
▁xëpp	-11.5474
▁dammat	-11.5474
▁contenu	-11.5474
▁zé	-11.5475
▁làbbe	-11.5475
▁obscur	-11.5475
▁souchet	-11.5475
▁distances	-11.5476
▁magie	-11.5477
▁tempe	-11.5478
▁utilisé	-11.5478
▁servant	-11.548
▁Sar	-11.548
▁brouiller	-11.548
▁Fàttewu	-11.5481
▁duuf	-11.5482
▁yaasa	-11.5483
▁Sikk	-11.5483
mitation	-11.5483
▁ordinaire	-11.5484
diiraan	-11.5485
▁européenne	-11.5485
▁Kaa	-11.5485
▁faxas	-11.5485
▁courtis	-11.5485
▁études	-11.5487
▁piquet	-11.5487
▁Raay	-11.5487
▁pl	-11.5487
▁xàmb	-11.5487
arrachait	-11.5488
▁sàqam	-11.5488
▁Néegu	-11.5488
▁Ngoy	-11.5489
▁prétend	-11.549
▁exploit	-11.549
▁rombee	-11.549
eti	-11.5491
▁arête	-11.5491
▁tanc	-11.5492
▁téene	-11.5493
dits	-11.5494
▁pouss	-11.5494
▁accent	-11.5495
▁Sës	-11.5495
▁Toolu	-11.5496
▁épines	-11.5497
Louisien	-11.5499
▁yégal	-11.55
▁laisseras	-11.5501
▁veuille	-11.5501
▁âgés	-11.5501
▁jéndoon	-11.5502
▁jébbale	-11.5503
orsque	-11.5504
▁së	-11.5505
▁Jëkk	-11.5505
▁continue	-11.5506
▁palmiers	-11.5507
▁ruine	-11.5507
allaitement	-11.5507
▁sédd	-11.5508
▁ennemi	-11.5509
impossib	-11.551
▁gàcce	-11.551
▁Nguur	-11.5511
▁générale	-11.5511
▁naqad	-11.5511
▁labat	-11.5512
▁regardent	-11.5512
▁dundale	-11.5514
▁jàllee	-11.5515
▁Kàddu	-11.5515
▁bonul	-11.5515
▁disposé	-11.5516
▁yëngoo	-11.5516
▁perçois	-11.5518
▁convo	-11.5519
▁guddal	-11.5519
▁conçus	-11.552
▁luxe	-11.5523
▁retournes	-11.5525
▁anneau	-11.5525
▁jafal	-11.5525
fa	-11.5526
▁Solal	-11.5526
▁former	-11.5527
▁refl	-11.5527
▁Jéeg	-11.5528
kaa	-11.5529
▁frappes	-11.5529
raŋ	-11.5535
▁détail	-11.5535
galaas	-11.5536
▁bàyyima	-11.5536
▁différentes	-11.5536
▁sajj	-11.5536
▁poches	-11.5539
▁akara	-11.554
▁paye	-11.5541
▁démarches	-11.5541
▁géant	-11.5541
▁transe	-11.5542
▁xiir	-11.5542
▁imagin	-11.5542
▁soj	-11.5543
▁peuples	-11.5543
▁différente	-11.5543
▁secrets	-11.5544
▁musulmans	-11.5544
▁sànneek	-11.5544
▁sél	-11.5546
▁accroch	-11.5546
▁sukkandik	-11.5548
▁rattaxal	-11.5548
▁muuñ	-11.5548
bari	-11.5549
éclair	-11.5549
▁wóo	-11.555
▁yàcc	-11.555
▁paire	-11.5551
▁fàll	-11.5551
▁Ñuul	-11.5552
aajo	-11.5552
▁dress	-11.5555
▁baatam	-11.5555
▁pire	-11.5556
▁offre	-11.5556
▁dawee	-11.5558
▁rassemblé	-11.5558
▁yett	-11.5559
▁mbàjj	-11.5559
▁poos	-11.5561
▁màcc	-11.5563
oppaliku	-11.5564
▁offr	-11.5565
▁mbiram	-11.5565
▁Dajale	-11.5568
▁ressembler	-11.557
xosi	-11.5571
▁Pont	-11.5572
▁Colonie	-11.5574
▁googa	-11.5576
▁Wée	-11.5577
▁raté	-11.5578
▁ganesi	-11.5578
▁flèches	-11.5581
▁foin	-11.5581
▁chaînes	-11.5581
▁miroirs	-11.5581
▁taillé	-11.5581
doŋ	-11.5581
▁Góox	-11.5582
▁dàqal	-11.5585
oxoom	-11.5585
▁Gumb	-11.5585
▁etaas	-11.5585
▁futbal	-11.5587
▁messie	-11.559
▁tasses	-11.559
we	-11.5591
▁bàjj	-11.5591
▁ap	-11.5592
▁gang	-11.5592
▁appare	-11.5592
▁jaambaar	-11.5594
▁seef	-11.5595
▁sortent	-11.5595
non	-11.5596
▁hôtes	-11.5598
▁sabaru	-11.5599
▁sampu	-11.56
rum	-11.5601
▁épaisse	-11.5601
▁entrait	-11.5604
▁chantant	-11.5608
▁incendie	-11.561
▁humeur	-11.561
▁appartement	-11.561
▁kumpa	-11.561
▁étroit	-11.561
fant	-11.5611
▁étoile	-11.5611
▁Soppi	-11.5614
▁couchés	-11.5614
mburam	-11.5615
▁yewwi	-11.5616
▁leçons	-11.5617
ngé	-11.5618
▁devenir	-11.5618
▁cuillères	-11.5618
▁gât	-11.5618
▁déclar	-11.5621
▁rejet	-11.5621
▁soloo	-11.5622
▁polis	-11.5623
▁lekke	-11.5626
▁cuisiner	-11.5627
cé	-11.563
▁fuuy	-11.563
▁arrachée	-11.5637
▁Foof	-11.5638
▁éch	-11.5639
▁dajeel	-11.564
▁Rase	-11.5641
▁ñukk	-11.5641
▁yaatal	-11.5645
▁ñefe	-11.5645
▁xadde	-11.5648
▁Xë	-11.5651
nit	-11.5654
▁fem	-11.5654
▁conditions	-11.5656
▁malles	-11.5656
▁gëje	-11.5656
▁gubal	-11.5656
▁africaines	-11.5658
▁détruit	-11.566
▁sentir	-11.5667
naissance	-11.567
▁verts	-11.567
▁saaf	-11.5671
rant	-11.5673
▁Ngu	-11.5679
▁pries	-11.5682
▁tée	-11.5683
▁fuit	-11.5687
▁sàpp	-11.569
▁tukkee	-11.569
▁voie	-11.5691
▁contrai	-11.5693
▁Tontu	-11.5697
éteindre	-11.5697
ouille	-11.5701
▁pouce	-11.5706
▁paree	-11.5708
▁musóor	-11.5708
▁léppam	-11.5709
▁nangul	-11.5709
▁venai	-11.5714
▁naar	-11.5716
▁kaar	-11.5717
lug	-11.5719
▁jaamu	-11.572
▁maigre	-11.5722
ballax	-11.5723
▁xer	-11.5724
▁Yeew	-11.5728
▁classes	-11.5728
▁saraxe	-11.5729
▁nas	-11.5729
▁Sérères	-11.573
▁goûte	-11.5731
▁chaises	-11.5732
ott	-11.5735
ça	-11.5736
▁rêves	-11.5737
▁organisé	-11.5739
▁Dog	-11.5745
▁demb	-11.5746
▁ndés	-11.5756
▁interprète	-11.5756
▁newu	-11.5758
▁creus	-11.576
▁dëkkoo	-11.576
▁léem	-11.5763
▁vieil	-11.5764
▁defarkat	-11.5765
▁décoré	-11.5768
▁broy	-11.577
▁jaadu	-11.577
attraper	-11.5771
oyez	-11.5771
▁Dunu	-11.5772
▁ndawal	-11.5772
▁kort	-11.5777
▁watu	-11.578
venez	-11.578
▁guérisse	-11.5783
▁étrangers	-11.5786
▁histoire	-11.5788
▁Yà	-11.5789
▁Bariwu	-11.579
▁mayul	-11.5792
▁clés	-11.5794
mall	-11.5795
▁Jël	-11.5795
▁dessine	-11.5797
sañ	-11.5799
àngóor	-11.5801
▁durée	-11.5802
▁ràll	-11.5802
▁quitter	-11.5804
▁pirogues	-11.5805
▁xañ	-11.5807
è	-11.5808
quets	-11.581
▁Mel	-11.5811
▁entretien	-11.5819
▁maigri	-11.582
éññ	-11.582
▁pënde	-11.5821
▁langues	-11.5822
▁gamb	-11.5825
agrandi	-11.5826
▁fréquent	-11.583
▁pourrais	-11.5833
▁baigne	-11.5834
obtien	-11.5835
▁terme	-11.5838
▁rusé	-11.5838
▁moxoñ	-11.5839
▁cal	-11.584
▁roo	-11.5841
▁couches	-11.5842
gent	-11.5842
ndi	-11.5842
▁veillée	-11.5845
▁âne	-11.5847
▁vendeur	-11.5847
▁anecdote	-11.5855
▁jàlle	-11.5858
rass	-11.5859
▁Gée	-11.5861
▁maîtresse	-11.5863
▁renverse	-11.5864
▁leva	-11.5866
▁bri	-11.5868
▁assises	-11.5869
mësa	-11.587
▁longe	-11.5877
▁souvenirs	-11.588
▁jamu	-11.5883
▁Xarit	-11.5883
àbbal	-11.5886
▁confus	-11.5889
▁soxlaa	-11.5893
▁tromp	-11.5895
▁réput	-11.5899
uvre	-11.5904
▁yoot	-11.5906
▁perce	-11.591
▁dàgga	-11.5912
▁feyul	-11.5913
▁colle	-11.5915
▁moque	-11.5916
uw	-11.5916
▁difficiles	-11.5918
▁imite	-11.5918
▁kanna	-11.5919
▁briser	-11.5923
▁Gaal	-11.5925
stice	-11.5926
▁faat	-11.593
▁adopt	-11.5936
▁fiable	-11.5939
▁neuve	-11.5946
▁Ñett	-11.5946
▁raas	-11.5948
▁Pin	-11.5951
▁wure	-11.5951
▁jolies	-11.5954
▁Kee	-11.5954
▁larges	-11.5954
▁Dée	-11.596
gir	-11.5965
▁ping	-11.5966
▁waxtaane	-11.5966
▁wuut	-11.5967
▁complic	-11.5975
▁action	-11.5985
▁defante	-11.5985
▁boude	-11.5993
castés	-11.5993
▁waxul	-11.5994
▁kaaf	-11.5994
▁dieu	-11.5995
▁caŋ	-11.5995
▁xéj	-11.5998
▁taire	-11.6003
▁welo	-11.6005
▁diri	-11.6005
arrêter	-11.6006
emp	-11.6007
▁Daw	-11.6008
▁hâte	-11.6013
élic	-11.6019
ténué	-11.6025
▁béj	-11.6029
nté	-11.603
▁suit	-11.6034
▁Gàcce	-11.6039
loon	-11.604
aaya	-11.6045
edaay	-11.6047
▁sam	-11.6051
▁jéemant	-11.6053
jurukaay	-11.6057
▁ngóora	-11.6058
▁Fàll	-11.6058
▁hurle	-11.6059
koonuñu	-11.6066
▁vict	-11.6067
àqam	-11.6069
▁brûl	-11.6074
▁totale	-11.6077
▁colonie	-11.608
tar	-11.6084
ňeent	-11.609
▁laide	-11.609
amène	-11.6096
enez	-11.6097
▁napp	-11.6099
▁rot	-11.61
▁Ñag	-11.61
▁ruq	-11.6101
llaay	-11.6107
▁togge	-11.6111
▁moue	-11.6114
oŋŋ	-11.6115
▁plaid	-11.6117
iltre	-11.6118
▁Yo	-11.6124
cu	-11.6126
▁trouvée	-11.6136
▁déplaisa	-11.6138
naires	-11.6141
awle	-11.6148
▁manifeste	-11.615
mmi	-11.615
▁taxawaay	-11.6151
▁chatouille	-11.6154
▁Ngon	-11.6159
▁tabaxe	-11.616
▁marchera	-11.616
▁Nou	-11.6164
urant	-11.6166
oolaa	-11.6169
rél	-11.617
lika	-11.617
▁meneen	-11.617
▁venger	-11.6177
▁Sang	-11.6182
▁opeereka	-11.6183
nsis	-11.6184
gén	-11.6189
▁añ	-11.6189
▁méfi	-11.6191
▁irrit	-11.6194
nze	-11.6195
▁Mori	-11.6195
ampoules	-11.6201
mise	-11.6202
▁Agsi	-11.621
▁autrefois	-11.6211
▁jekkali	-11.6211
▁bouse	-11.6217
▁entraîne	-11.6221
jàmbaar	-11.623
▁naane	-11.6234
▁ëw	-11.6235
woŋ	-11.6242
▁dibi	-11.6246
▁faw	-11.6249
▁baye	-11.6255
▁siti	-11.6257
accepte	-11.6259
▁Njaal	-11.6261
▁Autre	-11.6261
▁noppalu	-11.6263
▁Lorsqu	-11.6264
ŋat	-11.6267
▁digne	-11.628
▁noires	-11.6281
▁Foor	-11.6283
▁retire	-11.6285
▁deewe	-11.6287
▁fet	-11.6289
▁gardes	-11.6294
àqum	-11.6294
ënoon	-11.6295
▁Vi	-11.63
▁yéex	-11.6302
▁daanoo	-11.6306
▁exige	-11.6314
▁jéeg	-11.6316
guiss	-11.632
▁médicale	-11.6327
ooñii	-11.633
illent	-11.633
▁bière	-11.633
▁suffisante	-11.6331
▁soosoo	-11.6339
▁Nii	-11.6339
ver	-11.6341
sam	-11.6343
▁doyu	-11.6348
filtre	-11.6353
attache	-11.6359
aaki	-11.6359
pulsé	-11.6367
nti	-11.637
puis	-11.6372
mis	-11.6375
▁Suy	-11.6379
▁he	-11.638
▁ret	-11.6387
▁arracher	-11.639
mais	-11.6397
hi	-11.6398
▁doxale	-11.64
hn	-11.6401
▁ameel	-11.6402
▁jawwu	-11.6402
▁Han	-11.6405
akh	-11.6406
lais	-11.6413
▁gallax	-11.6415
▁Tàmm	-11.6418
▁atam	-11.6422
▁laxal	-11.6423
exal	-11.6424
afal	-11.643
àmp	-11.6437
tation	-11.644
▁dépass	-11.6443
▁Firi	-11.6445
ain	-11.6446
▁goor	-11.6446
▁signifiai	-11.6453
▁sage	-11.6461
▁jure	-11.6464
▁cuisines	-11.6466
▁commande	-11.6468
▁odeur	-11.647
▁transport	-11.6472
▁kiir	-11.6478
lavé	-11.648
▁taché	-11.648
gallax	-11.6486
▁Takk	-11.6488
vait	-11.6488
▁écout	-11.6491
▁trempe	-11.6496
▁luxu	-11.6499
poussiér	-11.65
▁écouta	-11.6501
▁suiv	-11.6503
▁rë	-11.6503
▁retien	-11.6505
weer	-11.6507
hère	-11.6513
▁Jaf	-11.6516
▁circul	-11.6518
▁gont	-11.6519
▁turi	-11.6523
jee	-11.6523
rab	-11.6527
▁Ñoor	-11.653
▁booboo	-11.6535
▁mber	-11.6537
▁canal	-11.6539
▁captur	-11.6539
lant	-11.6539
▁vole	-11.6543
iakha	-11.6544
faire	-11.6555
mbrées	-11.6555
uezz	-11.6556
▁duñ	-11.6559
▁purg	-11.6561
ica	-11.6567
▁mène	-11.6567
▁Gara	-11.6576
inka	-11.658
raal	-11.6585
kul	-11.6589
▁ép	-11.659
trappe	-11.6591
▁kare	-11.66
▁laisserai	-11.6604
▁modd	-11.6605
▁siit	-11.6607
▁një	-11.6608
èt	-11.6609
▁rev	-11.6612
▁cris	-11.6614
apitaine	-11.6615
amaale	-11.6616
utér	-11.6622
▁waxu	-11.6628
imer	-11.6632
▁yëgu	-11.6632
▁principale	-11.6641
▁cuis	-11.6644
ntes	-11.6655
ieux	-11.6658
took	-11.6664
▁déey	-11.6666
talu	-11.6672
▁saisi	-11.6675
colis	-11.668
ëndi	-11.668
▁Él	-11.6681
bra	-11.6683
ots	-11.6697
existe	-11.6708
goon	-11.6708
ances	-11.671
▁mettiwul	-11.6714
▁dóo	-11.6717
▁fabrique	-11.6721
cte	-11.6724
▁santal	-11.6736
▁tournée	-11.6753
▁mask	-11.6753
▁dëggu	-11.6758
▁regarda	-11.676
▁waru	-11.6761
▁honore	-11.6766
▁Kóo	-11.6766
ndiŋ	-11.6767
araan	-11.6768
tait	-11.6769
gul	-11.677
▁iron	-11.6774
▁puiss	-11.6781
▁xo	-11.6793
▁bésu	-11.6799
mo	-11.6803
▁jombu	-11.6821
habille	-11.6823
écoupe	-11.6829
▁joos	-11.6833
▁paresseu	-11.6833
▁koll	-11.6836
▁Sox	-11.6844
mé	-11.6848
▁Av	-11.6849
▁Xeet	-11.6851
nee	-11.6852
▁chercha	-11.6855
étudie	-11.6864
▁Sopp	-11.6866
▁points	-11.6868
▁ñoy	-11.6877
▁file	-11.6883
rager	-11.6899
ssant	-11.6903
utt	-11.6903
▁lux	-11.6914
▁fëll	-11.6919
olli	-11.6921
riété	-11.6925
▁châti	-11.6925
sier	-11.6927
▁neb	-11.6928
▁caw	-11.6932
▁cherch	-11.6932
▁fixe	-11.6933
niiw	-11.6933
▁Mak	-11.6935
ndoll	-11.6948
ppu	-11.695
▁Dio	-11.6958
▁dégoûte	-11.6958
▁Daawul	-11.6964
▁Kaw	-11.698
emb	-11.6982
àjj	-11.6983
sage	-11.6984
▁ben	-11.6985
éef	-11.6987
ëfal	-11.6989
pied	-11.6989
▁déem	-11.6989
ob	-11.6991
▁yé	-11.6992
▁Kepp	-11.6993
▁contenan	-11.6996
▁Ha	-11.7003
jënd	-11.7007
▁amère	-11.7007
▁rentr	-11.7013
▁gra	-11.7027
▁sikk	-11.7033
side	-11.7037
detteel	-11.7047
▁déq	-11.7048
▁viv	-11.705
eeño	-11.7052
▁Gil	-11.7056
▁lepp	-11.7078
▁ranc	-11.7086
▁traite	-11.7086
yeel	-11.7088
▁prépar	-11.7089
ndul	-11.709
▁Celle	-11.7091
avane	-11.7094
écu	-11.7095
ège	-11.7095
▁Ti	-11.7098
▁considér	-11.7104
tur	-11.7108
▁frit	-11.7111
▁nëw	-11.7123
▁sache	-11.7126
▁naax	-11.713
▁Ñam	-11.7133
▁ballon	-11.7139
▁extra	-11.7155
égétu	-11.7163
▁travaill	-11.7177
▁Saba	-11.718
oué	-11.7186
ançai	-11.7186
so	-11.7197
émb	-11.7201
▁ramasse	-11.7205
gub	-11.7212
▁parcour	-11.7214
▁yéy	-11.722
▁App	-11.7221
▁importe	-11.7223
▁vraie	-11.7252
ntôt	-11.7252
ien	-11.7254
yez	-11.727
écroul	-11.7272
▁digaale	-11.7277
▁voy	-11.7297
ëdd	-11.7301
bbal	-11.7308
▁Mbi	-11.7309
source	-11.7311
▁preuve	-11.7312
▁Sam	-11.7322
lay	-11.7323
▁terewu	-11.7323
ambaar	-11.7329
▁cul	-11.733
▁Nuy	-11.7331
▁née	-11.7334
ph	-11.7343
▁ëppal	-11.7343
▁louche	-11.7346
▁Ñaaw	-11.7348
onsieur	-11.7351
▁ragg	-11.7357
ron	-11.7359
▁clou	-11.7375
▁Ñooñ	-11.7387
▁approche	-11.7393
▁irai	-11.7396
pus	-11.7398
▁aperçoi	-11.7399
▁caar	-11.7401
▁cax	-11.7406
▁sé	-11.741
▁confin	-11.741
▁bark	-11.7415
neau	-11.7415
iné	-11.7418
àggul	-11.744
▁fecci	-11.7443
▁crai	-11.7444
▁téyee	-11.7445
▁serre	-11.7447
ama	-11.7455
nalité	-11.7455
▁fokk	-11.7457
▁ouvre	-11.7459
▁Naa	-11.7461
jul	-11.7467
▁nuyoo	-11.7482
mbi	-11.7483
▁senn	-11.7487
▁promen	-11.749
roo	-11.7492
▁palp	-11.7496
▁lekkee	-11.75
▁cachée	-11.7509
▁gré	-11.751
▁bokkoo	-11.7514
▁wërale	-11.7517
laient	-11.7518
boŋ	-11.7524
▁Feya	-11.7528
abine	-11.7535
▁dugge	-11.7535
▁naw	-11.7539
▁fete	-11.7541
▁cons	-11.7543
▁consta	-11.7543
awtan	-11.7551
aram	-11.7556
joŋ	-11.7558
ieur	-11.7564
édiction	-11.7565
lukaay	-11.7566
imes	-11.7571
iri	-11.7573
▁Aie	-11.7573
▁jà	-11.7575
tit	-11.7577
onk	-11.7584
▁pomm	-11.7588
▁Boolee	-11.759
▁dëdd	-11.7608
▁mariera	-11.7614
▁partit	-11.762
▁taar	-11.7626
oûte	-11.7629
àmba	-11.763
▁pouv	-11.7633
▁attribu	-11.7633
axndiku	-11.7634
▁détend	-11.7635
▁circule	-11.7639
▁Wo	-11.764
▁dib	-11.7643
nement	-11.765
isol	-11.7656
ingue	-11.7662
▁lonkoo	-11.7675
dina	-11.7689
dege	-11.7695
▁kes	-11.7697
▁ava	-11.7699
▁wote	-11.7701
▁Amu	-11.7702
balal	-11.7704
▁Mos	-11.7705
▁écras	-11.7716
▁prison	-11.7717
▁Aj	-11.7721
▁chauffe	-11.7725
▁conv	-11.7729
▁baaxu	-11.773
assé	-11.7738
▁bouscula	-11.7739
▁sexe	-11.7739
▁achevé	-11.774
ston	-11.7761
▁yeb	-11.777
v	-11.7774
tirer	-11.7785
▁direct	-11.7794
ojj	-11.7799
▁Lë	-11.7804
▁pé	-11.7806
▁gên	-11.7816
▁jeng	-11.782
▁normale	-11.7824
▁rapproche	-11.7829
▁See	-11.7834
▁mbas	-11.7852
pha	-11.7852
▁statu	-11.7853
▁Kar	-11.7856
▁remplie	-11.7857
baate	-11.7868
kal	-11.7875
▁Ch	-11.7878
▁résonn	-11.7881
▁Amatu	-11.7882
▁servi	-11.7888
▁toje	-11.7913
nait	-11.7914
▁partag	-11.7928
▁daas	-11.7938
adi	-11.7938
▁Tera	-11.7942
antes	-11.7946
▁Nég	-11.7947
▁fâche	-11.7952
▁parer	-11.7956
irent	-11.7968
▁ressort	-11.7969
▁rois	-11.7971
▁Yu	-11.7973
▁bac	-11.7978
▁versé	-11.7979
▁nugg	-11.7988
▁bouff	-11.7994
▁précis	-11.8001
ines	-11.8004
bbi	-11.8005
aines	-11.8006
▁ŋaa	-11.8007
▁réere	-11.8009
▁sob	-11.801
bon	-11.8013
▁waxin	-11.8023
▁Liy	-11.8023
ënd	-11.8031
▁mbaaru	-11.8033
▁redout	-11.8038
ala	-11.8056
▁Kaas	-11.8067
mboo	-11.8075
▁prostitue	-11.8081
aff	-11.8081
ykat	-11.8087
bën	-11.8109
nam	-11.8122
▁ubb	-11.8129
▁fra	-11.8135
▁reven	-11.814
▁jaab	-11.815
iraas	-11.8152
▁glisse	-11.8159
▁Namm	-11.8159
▁pacc	-11.817
óom	-11.8173
▁mang	-11.8178
éet	-11.8182
changer	-11.8193
▁brill	-11.8193
aleekum	-11.8203
▁sos	-11.8203
ôt	-11.821
▁Ngóo	-11.822
▁oublie	-11.8221
▁juboo	-11.8226
▁Gej	-11.8229
raas	-11.8229
▁emb	-11.8232
oxaan	-11.8243
▁fâch	-11.8248
▁guus	-11.8248
celle	-11.8253
▁entr	-11.8253
aaw	-11.8254
▁Dagga	-11.8255
▁Gene	-11.8257
▁naanu	-11.8258
lettes	-11.8262
▁hui	-11.8264
bo	-11.8268
raake	-11.8283
ekool	-11.8286
erre	-11.829
▁Bà	-11.8291
aawlu	-11.8303
▁conserve	-11.8309
▁coo	-11.8312
▁larme	-11.8319
osse	-11.8327
▁Q	-11.834
gorn	-11.8341
oppose	-11.8342
▁plain	-11.8352
jot	-11.8356
atience	-11.836
▁biiri	-11.8361
▁côt	-11.8371
▁spéci	-11.8374
▁tress	-11.839
▁dundal	-11.8395
▁Do	-11.84
ña	-11.84
▁violent	-11.8408
▁vot	-11.8408
rki	-11.8418
▁koñ	-11.8425
▁rocci	-11.8427
paré	-11.8435
▁jibe	-11.8437
▁lee	-11.8437
gam	-11.844
▁rencontr	-11.844
▁law	-11.8441
ors	-11.8449
▁honor	-11.8449
mène	-11.8453
bet	-11.8455
▁Saw	-11.846
▁fla	-11.8463
▁Mala	-11.8465
ndaas	-11.8466
▁regrette	-11.8468
▁sembl	-11.847
▁promet	-11.8475
▁yo	-11.848
▁lew	-11.8481
jali	-11.8483
▁vari	-11.8494
én	-11.8496
▁Commence	-11.8498
▁repouss	-11.85
▁fabriqu	-11.8502
▁dép	-11.8502
▁ceen	-11.8507
▁armée	-11.8513
▁fël	-11.8516
▁gaas	-11.8526
▁plong	-11.8528
▁dëgm	-11.8529
▁Waxul	-11.8531
▁nekku	-11.8531
▁Suñ	-11.8534
▁Saxa	-11.8535
lancent	-11.8542
ide	-11.8542
▁futur	-11.8549
▁jaŋ	-11.8549
▁Pu	-11.855
stique	-11.8558
▁nà	-11.8583
née	-11.8589
og	-11.8591
jag	-11.8595
▁gam	-11.8596
▁Sen	-11.8599
awal	-11.8604
▁Sooy	-11.8609
àkkat	-11.8612
▁copp	-11.8623
ires	-11.8626
▁plate	-11.8631
pris	-11.8646
▁principal	-11.8646
▁cachai	-11.8652
▁Kàcc	-11.8654
▁géj	-11.8657
▁rug	-11.8658
limaan	-11.866
▁gardée	-11.8665
▁faale	-11.8669
▁balance	-11.8687
lbéen	-11.8688
▁digal	-11.8697
▁causer	-11.8704
▁Joue	-11.8708
arab	-11.8708
▁Daa	-11.8715
baat	-11.8718
▁noc	-11.8734
▁Serre	-11.8734
gar	-11.8738
▁recouvre	-11.874
isse	-11.8741
awaan	-11.8745
porté	-11.8747
ip	-11.8751
▁Sax	-11.8752
▁barke	-11.8752
▁jigu	-11.8752
▁Ave	-11.876
▁dàqee	-11.8762
▁dàkka	-11.8781
▁ñàkke	-11.8784
gourdi	-11.8787
▁Fil	-11.8791
▁fàttalik	-11.8793
▁préparai	-11.8795
▁naxante	-11.881
ugu	-11.8815
axaar	-11.8816
▁màbb	-11.8817
▁farata	-11.8819
▁Gala	-11.8819
ruqu	-11.8822
uré	-11.8845
▁fronce	-11.8848
▁jëli	-11.8852
aafu	-11.8856
mag	-11.8861
ûte	-11.8861
ewwi	-11.8866
gay	-11.8868
▁ressembl	-11.887
alaat	-11.8872
épi	-11.8876
▁Màgga	-11.8883
▁oppos	-11.8885
▁trac	-11.8886
attax	-11.8888
▁restera	-11.8892
▁Tama	-11.8905
▁gard	-11.8907
▁ñañ	-11.8909
naissent	-11.8911
train	-11.8912
▁perch	-11.8913
ran	-11.8921
▁tribu	-11.8922
▁ndombo	-11.8924
▁tànn	-11.8924
ile	-11.8924
▁demeur	-11.8928
▁inf	-11.8936
arbaat	-11.8937
laires	-11.8941
assemble	-11.8943
▁dàqu	-11.8958
utilis	-11.8958
▁rein	-11.8971
▁consul	-11.8973
▁Kaj	-11.8974
P	-11.8978
▁hé	-11.8978
far	-11.8979
▁muut	-11.8981
vrait	-11.899
▁médical	-11.8993
▁Njaa	-11.8994
ém	-11.8998
▁termin	-11.9001
▁but	-11.9009
har	-11.9012
▁permettra	-11.9012
▁suffisant	-11.9016
▁wë	-11.9032
▁bibe	-11.9045
▁confiden	-11.9049
urait	-11.9054
éegu	-11.9059
bles	-11.9059
coupe	-11.9061
▁compl	-11.9063
▁Daf	-11.9071
▁brûlante	-11.9078
▁regret	-11.9079
▁em	-11.9086
▁Ñee	-11.9091
ail	-11.9098
téri	-11.9107
▁Cam	-11.911
auche	-11.911
accompagner	-11.9115
▁nenn	-11.912
▁brille	-11.9126
sais	-11.9127
ngom	-11.9166
▁affront	-11.9173
▁Tega	-11.9187
eri	-11.9187
▁atte	-11.9192
engage	-11.9192
rude	-11.9206
koom	-11.9215
▁Degg	-11.9215
▁Wute	-11.9228
axu	-11.9232
ages	-11.9232
▁capit	-11.9237
▁mësu	-11.9239
▁unis	-11.9244
▁rafete	-11.9245
ibb	-11.9246
geek	-11.9252
▁combatt	-11.9255
▁pil	-11.9267
mpes	-11.9269
jaratu	-11.927
ciller	-11.9275
jax	-11.9281
ullee	-11.9292
▁ndi	-11.9293
▁remettra	-11.9295
▁xul	-11.9299
▁cang	-11.9305
▁désire	-11.9308
▁Joxa	-11.9323
gguma	-11.9325
▁Kaka	-11.9326
▁lam	-11.9332
▁làppto	-11.9339
▁préjudic	-11.9347
eff	-11.9361
qui	-11.9364
entend	-11.9368
▁voudra	-11.9374
eries	-11.9385
▁actuelle	-11.9393
▁survi	-11.9395
▁kaka	-11.94
ëgë	-11.9403
▁sevr	-11.9404
kale	-11.9404
ppe	-11.9413
▁sauv	-11.9418
ing	-11.9424
▁remplis	-11.9425
évit	-11.9427
inet	-11.9429
▁jubl	-11.944
gàdd	-11.9445
uie	-11.9448
ewu	-11.9455
▁dirig	-11.9458
▁démen	-11.9461
▁bëgge	-11.9462
▁poro	-11.9474
▁insoucian	-11.9475
▁Waxa	-11.9478
ànq	-11.9479
▁tourner	-11.948
▁Dàmp	-11.9483
▁lëng	-11.9499
rén	-11.9505
▁inex	-11.9505
▁midi	-11.9506
▁devr	-11.9515
▁léj	-11.9522
masi	-11.9523
▁Nde	-11.9529
lancé	-11.9536
▁refusai	-11.9537
▁gare	-11.9537
▁pénétra	-11.9538
inquiét	-11.9562
▁brûler	-11.9574
occidentale	-11.9575
▁blo	-11.9582
▁Mbo	-11.96
xale	-11.96
▁troubl	-11.9604
▁Kó	-11.9608
▁Jaa	-11.961
▁Malheureu	-11.9614
ell	-11.9623
iture	-11.9625
▁coïncid	-11.9635
eçon	-11.9641
lla	-11.9642
iiñ	-11.9642
ree	-11.9643
▁entendue	-11.9645
▁jàmb	-11.966
collet	-11.9662
▁amen	-11.9665
arya	-11.967
ñëw	-11.9674
▁Masu	-11.9675
▁naaje	-11.9682
▁daggu	-11.9684
oyal	-11.9688
ukat	-11.969
ouvre	-11.9693
bëtt	-11.9693
▁leb	-11.9701
néeg	-11.9706
▁sun	-11.9713
S	-11.9722
ngui	-11.9722
dam	-11.9733
▁coupée	-11.9738
▁vibr	-11.974
▁riv	-11.974
ëppaa	-11.9742
neuses	-11.9742
▁oblige	-11.9753
▁bël	-11.9754
▁remet	-11.9755
mets	-11.9758
▁Ŋgo	-11.9764
▁seel	-11.9765
orange	-11.9771
ccroche	-11.9774
feti	-11.9779
igno	-11.9782
▁Ñaare	-11.9783
N	-11.9788
rté	-11.9792
jéeg	-11.9793
pé	-11.9796
▁échou	-11.98
écorch	-11.9805
iwo	-11.981
▁retrouv	-11.9811
ang	-11.9816
iw	-11.9817
ets	-11.9823
▁wot	-11.9835
aag	-11.9848
dés	-11.9864
yo	-11.9867
▁ver	-11.9868
▁assailli	-11.9871
exil	-11.9878
eeguñu	-11.9886
▁xasa	-11.9891
ëmbët	-11.9893
stitué	-11.9895
▁soree	-11.9895
axambaane	-11.9898
▁Fasu	-11.9901
pël	-11.9906
forme	-11.9908
edd	-11.9908
▁garden	-11.991
gëm	-11.9912
▁sàkku	-11.9918
▁amuloo	-11.9924
côté	-11.9925
ancien	-11.9925
▁détrui	-11.993
▁Ngé	-11.993
aises	-11.9933
oubli	-11.9934
entrave	-11.9934
▁Tooga	-11.9935
invent	-11.9937
▁caus	-11.994
répare	-11.994
donne	-11.994
Tubaab	-11.9943
▁fër	-11.9943
soeur	-11.9946
▁Piki	-11.9946
▁Gó	-11.9947
▁fall	-11.9948
pluies	-11.9957
▁poli	-11.9958
étudiant	-11.9961
rewul	-11.9962
▁chev	-11.9963
dagg	-11.9965
enlèvera	-11.9968
alors	-11.9968
écrire	-11.9971
cinq	-11.9972
▁entrelac	-11.9972
étincelle	-11.9973
inéluctable	-11.9974
influence	-11.9975
ssez	-11.9977
viendra	-11.9979
propre	-11.9981
▁surviv	-11.9983
parfum	-11.9986
juddu	-11.9986
▁xadd	-11.999
rëb	-11.9991
19	-11.9992
dehors	-11.9993
▁Gar	-11.9993
féex	-11.9993
Y	-11.9993
effray	-11.9998
arrache	-11.9998
honnête	-11.9998
▁koon	-11.9999
jaŋ	-12.0002
▁nawe	-12.0002
étoile	-12.0005
café	-12.0005
incendie	-12.0007
étroit	-12.0007
xorom	-12.0007
appartement	-12.0007
kumpa	-12.0009
humeur	-12.001
▁waan	-12.001
kilo	-12.0014
parent	-12.0014
kàttan	-12.0015
féexal	-12.0017
bëccëg	-12.0017
attention	-12.0017
▁accroche	-12.0017
àggan	-12.0019
▁ñef	-12.0019
aiguille	-12.0022
màtt	-12.0022
jàngoro	-12.0023
Acacia	-12.0024
▁dîn	-12.0024
Aiya	-12.0025
US	-12.0025
xóot	-12.0026
xarit	-12.0026
ennemi	-12.0027
exemple	-12.0027
pattes	-12.0027
épaisse	-12.0029
kersa	-12.003
île	-12.0031
▁soq	-12.0033
ñaq	-12.0033
cambar	-12.0035
▁cap	-12.0036
sori	-12.0036
séex	-12.0038
éprouve	-12.0039
ilité	-12.0039
mbaam	-12.0042
ctif	-12.0044
▁bouill	-12.0045
coté	-12.0046
deret	-12.0047
lancs	-12.0048
isole	-12.0049
gris	-12.0056
avancé	-12.0057
abreuv	-12.0058
ngale	-12.0061
enlève	-12.0066
ete	-12.0066
waañ	-12.0069
▁firi	-12.0071
▁tremble	-12.0073
▁leew	-12.0079
sedd	-12.0082
queue	-12.0084
▁salu	-12.009
anti	-12.0097
interdit	-12.0099
▁coïncide	-12.0099
jak	-12.0101
baa	-12.0107
jaambaar	-12.011
démb	-12.0113
habits	-12.0117
aobab	-12.0119
▁dogoo	-12.0123
kaw	-12.0126
jaune	-12.0127
Africain	-12.0127
▁lanc	-12.0129
égard	-12.0132
▁tango	-12.0134
aaje	-12.0135
exprim	-12.0136
▁emprunt	-12.0143
formé	-12.0145
▁participe	-12.0146
▁sànnee	-12.015
dë	-12.0152
années	-12.016
golo	-12.016
▁buu	-12.0164
nouvel	-12.0165
▁niis	-12.017
four	-12.0173
▁xaru	-12.0179
etu	-12.018
▁kéemaan	-12.0185
▁hérit	-12.0187
illé	-12.0194
nañu	-12.0205
médi	-12.0207
▁appel	-12.021
▁personn	-12.0211
▁retrait	-12.0214
ailes	-12.0214
▁planche	-12.0214
ànni	-12.0215
goo	-12.0221
rmis	-12.0224
amuse	-12.0227
appare	-12.0227
▁reparti	-12.0229
▁affol	-12.0232
▁renvoy	-12.0234
jom	-12.0239
▁passion	-12.0242
▁rép	-12.0243
▁bouge	-12.0244
▁hu	-12.0244
▁griff	-12.0247
▁oreill	-12.0248
▁riche	-12.0253
considéra	-12.0255
▁éclair	-12.0256
rrache	-12.0257
oignon	-12.0259
▁ngor	-12.0259
▁affect	-12.0266
▁nonchalant	-12.0268
▁rawaa	-12.0268
exila	-12.0268
▁guitar	-12.0269
▁résist	-12.0269
▁gratuit	-12.027
▁cuisin	-12.027
▁spermatozoïde	-12.0275
▁sportive	-12.0275
▁bouclier	-12.0275
▁endurci	-12.0276
eral	-12.0276
▁support	-12.0276
▁goyave	-12.0277
▁grimace	-12.0277
▁nécessit	-12.0277
▁morsure	-12.0278
orphelin	-12.0278
▁entassé	-12.0279
▁client	-12.028
▁reviendra	-12.0282
▁pneu	-12.0282
▁visible	-12.0284
▁comestible	-12.0284
▁margouillat	-12.0284
oreilles	-12.0287
▁lointain	-12.0288
▁comprend	-12.0288
▁privilège	-12.0288
opérati	-12.0289
▁gombo	-12.0289
▁Demerara	-12.029
▁kilomètre	-12.029
▁hamac	-12.0291
▁vieillard	-12.0291
▁hanche	-12.0291
▁sànn	-12.0291
▁moustique	-12.0291
insecte	-12.0292
▁chaussure	-12.0292
▁tiroir	-12.0293
▁bonbon	-12.0293
ongtemps	-12.0293
▁concern	-12.0294
▁semblable	-12.0294
▁Jub	-12.0295
▁meuble	-12.0295
▁fóo	-12.0295
ganu	-12.0296
▁crabe	-12.0297
agrippe	-12.0298
inst	-12.0298
▁wujj	-12.0298
llet	-12.03
▁Biram	-12.0301
▁ndank	-12.0302
major	-12.0303
▁cuisse	-12.0303
cule	-12.0303
▁àttan	-12.0303
œu	-12.0304
ëti	-12.0304
▁diamant	-12.0304
act	-12.0305
ête	-12.0305
▁blesse	-12.0305
▁flot	-12.031
▁constip	-12.0311
▁querell	-12.0313
ask	-12.0314
▁blanch	-12.0315
▁yàkkamt	-12.0317
autr	-12.0318
▁moomoo	-12.0318
▁Léeb	-12.0319
▁jëfandik	-12.0319
▁fulaar	-12.0321
▁kókkal	-12.0322
▁préte	-12.0324
▁ndiir	-12.0324
oxandéem	-12.0326
ds	-12.0327
rotte	-12.0327
▁environ	-12.0327
▁yendu	-12.0332
▁rassembla	-12.0334
▁bâ	-12.0334
ivré	-12.0338
kàlla	-12.0339
▁timi	-12.034
qam	-12.034
▁Waxam	-12.034
efare	-12.0341
tif	-12.0341
▁Aadama	-12.0342
écorc	-12.0343
▁Bir	-12.0345
▁lox	-12.0345
ultiver	-12.0345
▁parla	-12.0346
ssé	-12.0347
aambur	-12.0349
▁Pai	-12.035
érieux	-12.0352
▁kala	-12.0352
▁mbóo	-12.0352
▁neexa	-12.0353
ofeel	-12.0353
observe	-12.0353
bégte	-12.0355
▁Tàng	-12.0355
▁lèvre	-12.0355
▁réfléchi	-12.0355
udduwaale	-12.0359
mili	-12.0359
ënfandikoo	-12.0359
awbe	-12.036
▁Solda	-12.036
bëtu	-12.036
àngam	-12.0361
arñi	-12.0361
plexe	-12.0362
▁érafl	-12.0363
beau	-12.0364
▁métal	-12.0364
▁lijaasa	-12.0364
▁dévast	-12.0365
▁Bernadet	-12.0366
ëmëx	-12.0366
rûle	-12.0366
▁Gal	-12.0366
▁yegs	-12.0368
▁message	-12.0368
▁disparaît	-12.0369
résidents	-12.0369
rofiter	-12.0369
▁plume	-12.0369
▁Camero	-12.037
hos	-12.037
▁positi	-12.0371
lus	-12.0372
accueil	-12.0373
accommode	-12.0373
iffés	-12.0373
État	-12.0374
▁grillé	-12.0374
▁inject	-12.0376
▁wecc	-12.0376
▁précipit	-12.0376
ësër	-12.0376
▁196	-12.0376
▁walbati	-12.0376
▁bougainvill	-12.0376
È	-12.0376
▁introdu	-12.0376
abîm	-12.0376
espiègle	-12.0376
expliqu	-12.0376
égoïs	-12.0376
▁amélior	-12.0376
▁consanguin	-12.0376
▁folklor	-12.0376
▁haïssai	-12.0376
▁héroï	-12.0376
▁njogonal	-12.0376
▁ràŋŋatik	-12.0376
▁régurgit	-12.0376
▁silencieuse	-12.0376
▁soviétique	-12.0376
▁volontaire	-12.0376
▁émerveill	-12.0376
▁épidémie	-12.0376
/	-12.0376
7	-12.0376
Allemagne	-12.0376
Israël	-12.0376
accroupi	-12.0376
anthropo	-12.0376
autorisation	-12.0376
awanpoor	-12.0376
cohérent	-12.0376
domodaa	-12.0376
effaçait	-12.0376
emmitoufl	-12.0376
escroquer	-12.0376
euphorbe	-12.0376
harmattan	-12.0376
hippopotame	-12.0376
ibbutóon	-12.0376
indefondi	-12.0376
infirmière	-12.0376
inkilibaa	-12.0376
intimité	-12.0376
nɛ	-12.0376
occiput	-12.0376
proportion	-12.0376
raisemblablement	-12.0376
ranchement	-12.0376
stafirlaa	-12.0376
égoutter	-12.0376
épervier	-12.0376
▁1913	-12.0376
▁1914	-12.0376
▁1939	-12.0376
▁1940	-12.0376
▁Afirig	-12.0376
▁Bayruut	-12.0376
▁Cawnpore	-12.0376
▁Corporation	-12.0376
▁Dispañseer	-12.0376
▁Duwaalaa	-12.0376
▁Désormais	-12.0376
▁Foumban	-12.0376
▁Hoggar	-12.0376
▁Israyel	-12.0376
▁Kamakusa	-12.0376
▁Kishong	-12.0376
▁Kwaja	-12.0376
▁Kótónu	-12.0376
▁Londres	-12.0376
▁Memfo	-12.0376
▁Ngàngoor	-12.0376
▁Petroleum	-12.0376
▁Répète	-12.0376
▁Tokyo	-12.0376
▁Touareg	-12.0376
▁Yoroubas	-12.0376
▁alaateret	-12.0376
▁alfunni	-12.0376
▁ambassade	-12.0376
▁appartenaient	-12.0376
▁armiňoŋ	-12.0376
▁association	-12.0376
▁aubergine	-12.0376
▁audacieux	-12.0376
▁bejjaaw	-12.0376
▁bilimbaane	-12.0376
▁brebis	-12.0376
▁bànqaas	-12.0376
▁béntéñe	-12.0376
▁calomni	-12.0376
▁caméléon	-12.0376
▁cancrelats	-12.0376
▁capricieux	-12.0376
▁carapaces	-12.0376
▁catastrophes	-12.0376
▁cavalier	-12.0376
▁charitable	-12.0376
▁charlatan	-12.0376
▁chiffres	-12.0376
▁clampser	-12.0376
▁clitoris	-12.0376
▁conception	-12.0376
▁confronté	-12.0376
▁constitution	-12.0376
▁contrôle	-12.0376
▁cormoran	-12.0376
▁corrompre	-12.0376
▁costaud	-12.0376
▁crevettes	-12.0376
▁cunkóor	-12.0376
▁différencie	-12.0376
▁dipparñi	-12.0376
▁disciples	-12.0376
▁décapit	-12.0376
▁déclench	-12.0376
▁déedéet	-12.0376
▁dégingandé	-12.0376
▁désordonnée	-12.0376
▁déséquilibrée	-12.0376
▁dévorant	-12.0376
▁effronté	-12.0376
▁embauché	-12.0376
▁encourage	-12.0376
▁engraisse	-12.0376
▁extrémité	-12.0376
▁faraňse	-12.0376
▁fentaakon	-12.0376
▁fentaakoon	-12.0376
▁formidable	-12.0376
▁foxoj	-12.0376
▁fromager	-12.0376
▁gapparu	-12.0376
▁gouttière	-12.0376
▁goyavier	-12.0376
▁grelotte	-12.0376
▁gringalet	-12.0376
▁horizon	-12.0376
▁inadvertance	-12.0376
▁inflexible	-12.0376
▁infranchissable	-12.0376
▁inscription	-12.0376
▁insignifiante	-12.0376
▁invulnérable	-12.0376
▁jàmmaarloo	-12.0376
▁jébbaane	-12.0376
▁kemtalaayu	-12.0376
▁kitikaŋ	-12.0376
▁kàbbar	-12.0376
▁luqnjuur	-12.0376
▁luxuriante	-12.0376
▁lèpre	-12.0376
▁léthargi	-12.0376
▁mafñàndu	-12.0376
▁malléole	-12.0376
▁mandibules	-12.0376
▁marécages	-12.0376
▁mauricien	-12.0376
▁mbów	-12.0376
▁migraines	-12.0376
▁migrateurs	-12.0376
▁molleton	-12.0376
▁mâchoire	-12.0376
▁navigu	-12.0376
▁ndarakàmm	-12.0376
▁njaxlaf	-12.0376
▁njàmburam	-12.0376
▁nuptiale	-12.0376
▁ordisawel	-12.0376
▁paddaañ	-12.0376
▁palabres	-12.0376
▁pastèque	-12.0376
▁pessimisme	-12.0376
▁pessimiste	-12.0376
▁pharmacie	-12.0376
▁pidgin	-12.0376
▁pikini	-12.0376
▁piqûre	-12.0376
▁prescrit	-12.0376
▁principes	-12.0376
▁prodige	-12.0376
▁promiscuité	-12.0376
▁pàpaaya	-12.0376
▁pédophilie	-12.0376
▁pëqéet	-12.0376
▁póliti	-12.0376
▁pótit	-12.0376
▁quotidienne	-12.0376
▁raccourci	-12.0376
▁rapiécé	-12.0376
▁reconstituer	-12.0376
▁rectiligne	-12.0376
▁revêtu	-12.0376
▁ronchonne	-12.0376
▁résoudre	-12.0376
▁rëppéel	-12.0376
▁rósi	-12.0376
▁sacrifi	-12.0376
▁sarwiis	-12.0376
▁seytaane	-12.0376
▁sifflet	-12.0376
▁strident	-12.0376
▁surexcité	-12.0376
▁takkarnaase	-12.0376
▁talaabiir	-12.0376
▁touffu	-12.0376
▁trafic	-12.0376
▁tragique	-12.0376
▁trébuche	-12.0376
▁tubercule	-12.0376
▁turbulence	-12.0376
▁tàppandaar	-12.0376
▁téléphon	-12.0376
▁violemment	-12.0376
▁vétérinaire	-12.0376
▁zizanie	-12.0376
▁économi	-12.0376
▁écureuil	-12.0376
▁émissaire	-12.0376
▁Vingt	-12.0376
▁distendu	-12.0376
congelé	-12.0376
otolith	-12.0376
▁Accra	-12.0376
▁Kikuyu	-12.0376
▁Normàndi	-12.0376
▁Rolex	-12.0376
▁Sadiola	-12.0376
▁Tàmbali	-12.0376
▁Z	-12.0376
▁admirable	-12.0376
▁aggrav	-12.0376
▁apaisée	-12.0376
▁assommé	-12.0376
▁baptis	-12.0376
▁bestiaux	-12.0376
▁bêtise	-12.0376
▁cambré	-12.0376
▁chapitre	-12.0376
▁châteaux	-12.0376
▁climat	-12.0376
▁cohorte	-12.0376
▁cotisation	-12.0376
▁discours	-12.0376
▁divorc	-12.0376
▁dortoirs	-12.0376
▁douloureuse	-12.0376
▁employés	-12.0376
▁faculté	-12.0376
▁foufou	-12.0376
▁jàmmarloo	-12.0376
▁kópp	-12.0376
▁laspeer	-12.0376
▁lëñbët	-12.0376
▁matériel	-12.0376
▁menuisier	-12.0376
▁mërgalu	-12.0376
▁nervure	-12.0376
▁obtenu	-12.0376
▁obèse	-12.0376
▁patienter	-12.0376
▁permanent	-12.0376
▁permangana	-12.0376
▁prolonge	-12.0376
▁propriété	-12.0376
▁provisoire	-12.0376
▁pustules	-12.0376
▁recoudre	-12.0376
▁riccamt	-12.0376
▁ruggéeku	-12.0376
▁saumâtre	-12.0376
▁surprenant	-12.0376
▁verticale	-12.0376
▁Éloigne	-12.0376
▁émoussé	-12.0376
▁éveillé	-12.0376
appuyer	-12.0376
tëñëx	-12.0376
ègre	-12.0376
étancher	-12.0376
▁Albura	-12.0376
▁Futbal	-12.0376
▁Palestin	-12.0376
▁absurde	-12.0376
▁argument	-12.0376
▁barsàq	-12.0376
▁calamité	-12.0376
▁caprice	-12.0376
▁gaanuwaay	-12.0376
▁kerewol	-12.0376
▁mendiant	-12.0376
▁mollets	-12.0376
▁noflaay	-12.0376
▁panaris	-12.0376
▁préparatifs	-12.0376
▁reewaande	-12.0376
▁responsabilité	-12.0376
▁rogations	-12.0376
▁scandale	-12.0376
▁seekeeg	-12.0376
▁souffert	-12.0376
▁tiitaange	-12.0376
▁tremblote	-12.0376
▁vigoureu	-12.0376
▁Àbbaa	-12.0376
▁évidence	-12.0376
effondr	-12.0376
ovule	-12.0376
▁Angalteer	-12.0376
▁Finissez	-12.0376
▁croissance	-12.0376
▁emphase	-12.0376
▁excisée	-12.0376
▁parisienne	-12.0376
▁scrut	-12.0376
▁sournois	-12.0376
▁écoulé	-12.0376
▁ótó	-12.0376
▁dédaigne	-12.0376
▁excellent	-12.0376
▁gàngune	-12.0376
▁sélébe	-12.0376
Ermeno	-12.0376
gëjjëx	-12.0376
hygiène	-12.0376
áa	-12.0376
èbres	-12.0376
ébène	-12.0376
▁Kaburi	-12.0376
▁aménage	-12.0376
▁ballarñi	-12.0376
▁bruyante	-12.0376
▁carrelage	-12.0376
▁dérangé	-12.0376
▁implora	-12.0376
▁irruption	-12.0376
▁jaloux	-12.0376
▁malentendu	-12.0376
▁manchot	-12.0376
▁njaaxaanaay	-12.0376
▁tàndarma	-12.0376
▁écorné	-12.0376
harmoni	-12.0376
éloge	-12.0376
▁Ibada	-12.0376
▁gymnas	-12.0376
▁généralisée	-12.0376
▁impoli	-12.0376
▁menaçant	-12.0376
▁percept	-12.0376
assèche	-12.0376
céphal	-12.0376
ignorance	-12.0376
▁Chérie	-12.0376
▁Mettez	-12.0376
▁Tartar	-12.0376
▁agricole	-12.0376
▁désenfl	-12.0376
▁mourut	-12.0376
▁posséd	-12.0376
▁rôti	-12.0376
▁Àttan	-12.0376
▁Yàkkamtiwuñu	-12.0376
▁désapprouv	-12.0376
▁interruption	-12.0376
▁margelle	-12.0376
▁ndékkee	-12.0376
▁patients	-12.0376
▁pâtir	-12.0376
▁trottoir	-12.0376
▁1938	-12.0376
▁Javel	-12.0376
▁Tàggoo	-12.0376
▁brèche	-12.0376
▁cawarte	-12.0376
▁exquis	-12.0376
▁littéra	-12.0376
▁mbootaay	-12.0376
▁rassurant	-12.0376
▁teerusi	-12.0376
intelligen	-12.0376
▁Godag	-12.0376
▁courtaud	-12.0376
▁itinérant	-12.0376
▁mignon	-12.0376
▁scarification	-12.0376
enfuit	-12.0376
▁décoché	-12.0376
▁liquide	-12.0376
▁lëmës	-12.0376
▁ndeetel	-12.0376
▁pólis	-12.0376
▁rangooñ	-12.0376
▁ràddi	-12.0376
▁tempête	-12.0376
▁virgule	-12.0376
▁Pensées	-12.0376
▁chevauche	-12.0376
▁indifférent	-12.0376
▁éloigné	-12.0376
ffirme	-12.0377
▁vomir	-12.0377
▁Lëmës	-12.0377
▁deppaas	-12.0377
▁fracture	-12.0377
▁fëggës	-12.0377
▁ngonnal	-12.0377
▁satiété	-12.0377
▁écume	-12.0377
▁Bakalu	-12.0377
▁canapé	-12.0377
▁déferle	-12.0377
▁pijin	-12.0377
▁rogoj	-12.0377
▁Mbembe	-12.0377
▁relief	-12.0377
▁carrossable	-12.0377
▁galéj	-12.0377
▁maasàllaa	-12.0377
▁pépin	-12.0377
gurbaan	-12.0377
▁1900	-12.0377
▁1932	-12.0377
▁Londar	-12.0377
▁journaux	-12.0377
▁répète	-12.0377
▁nullard	-12.0377
▁nurool	-12.0377
▁short	-12.0377
móoyu	-12.0377
pérer	-12.0377
▁imposé	-12.0377
tërëf	-12.0377
étonnement	-12.0377
▁Saupoudre	-12.0377
▁abondance	-12.0377
▁contribu	-12.0377
▁mbiib	-12.0377
▁mouvement	-12.0377
▁véritable	-12.0377
embarque	-12.0377
▁austère	-12.0377
▁concert	-12.0377
▁député	-12.0377
▁gangrène	-12.0377
▁sotteegul	-12.0377
innocen	-12.0377
▁espion	-12.0377
▁incantat	-12.0377
▁herbeuses	-12.0377
▁Descend	-12.0377
▁Féetale	-12.0377
▁crochu	-12.0377
▁déformée	-12.0377
▁dépôt	-12.0377
▁occidentaux	-12.0377
▁protect	-12.0377
identité	-12.0377
▁déchirure	-12.0377
▁gloire	-12.0377
▁inaccessible	-12.0377
daaxër	-12.0377
enlaidi	-12.0377
▁réflexion	-12.0377
▁bundux	-12.0377
▁mulâtre	-12.0377
jaillir	-12.0377
▁dédommage	-12.0377
▁jàkkarloo	-12.0377
achever	-12.0377
obscurité	-12.0377
▁bastonn	-12.0377
▁beerso	-12.0377
▁docile	-12.0377
▁ressortissant	-12.0377
▁takkandeer	-12.0377
▁jujub	-12.0377
▁Koth	-12.0377
▁bambou	-12.0377
▁débroussaille	-12.0377
▁Tuubaa	-12.0377
▁ŋàppati	-12.0377
▁Bokas	-12.0377
▁victoire	-12.0377
▁divisé	-12.0377
▁démange	-12.0377
▁saillant	-12.0377
▁sardine	-12.0377
▁marõ	-12.0377
▁njombor	-12.0377
▁retournant	-12.0377
▁xiibon	-12.0377
▁Rafet	-12.0377
▁accouru	-12.0377
▁cellule	-12.0377
▁friche	-12.0377
▁salliir	-12.0377
▁rembet	-12.0377
▁comblé	-12.0377
▁désigne	-12.0377
▁développ	-12.0377
▁àntuwul	-12.0377
▁cinéma	-12.0377
▁Kupuru	-12.0377
▁double	-12.0377
▁précipitèrent	-12.0377
▁voisinage	-12.0377
▁yorouba	-12.0377
▁wësin	-12.0377
▁Àjjuma	-12.0377
abandonne	-12.0377
▁birrea	-12.0377
▁ngànt	-12.0377
cycl	-12.0377
▁calleuses	-12.0377
▁poireauter	-12.0377
▁yelloo	-12.0377
▁disparaissait	-12.0377
▁nombril	-12.0377
▁canards	-12.0377
▁courtoisie	-12.0377
▁mottaliku	-12.0377
▁brutalité	-12.0377
uumandaat	-12.0377
▁Soccet	-12.0377
▁empliss	-12.0377
▁insult	-12.0377
▁cuisinier	-12.0377
alimentés	-12.0377
hymne	-12.0377
▁jàkkaarloo	-12.0377
aplati	-12.0377
▁Toujours	-12.0377
▁entière	-12.0377
▁faucher	-12.0377
égorgé	-12.0377
▁jabraan	-12.0377
▁péŋŋ	-12.0377
▁saaloñ	-12.0377
pëti	-12.0377
enfuir	-12.0377
▁Gambi	-12.0377
jooylu	-12.0377
éliba	-12.0377
▁déshonneur	-12.0377
▁guerrières	-12.0377
▁élections	-12.0377
kànkarla	-12.0377
▁Daraame	-12.0377
▁imprim	-12.0377
emballe	-12.0377
oublierai	-12.0377
▁coiffure	-12.0377
▁daxin	-12.0377
▁ndagaan	-12.0377
▁transmis	-12.0377
▁ndawràbbin	-12.0377
▁batañse	-12.0377
▁valise	-12.0377
▁àjjana	-12.0377
aawtéef	-12.0377
▁bascule	-12.0377
▁siyaare	-12.0377
▁Bawop	-12.0377
▁Kiris	-12.0377
▁Noirs	-12.0377
▁altern	-12.0377
▁inouï	-12.0377
▁raadu	-12.0377
▁totalité	-12.0377
▁Njuumte	-12.0377
▁administrative	-12.0377
▁jubadi	-12.0377
▁tiède	-12.0377
▁dàkkental	-12.0377
▁raffiné	-12.0377
▁régner	-12.0377
▁nettoie	-12.0377
▁tourmente	-12.0377
▁Panama	-12.0377
▁toussote	-12.0377
▁friture	-12.0377
hospitali	-12.0377
ternité	-12.0377
▁irokos	-12.0377
▁amoureuse	-12.0377
▁envoy	-12.0377
▁félicite	-12.0377
▁moket	-12.0377
▁œufs	-12.0377
▁narines	-12.0377
▁Jamano	-12.0378
▁importante	-12.0378
▁alamaan	-12.0378
▁côtière	-12.0378
▁pentuur	-12.0378
▁Ogaar	-12.0378
▁paître	-12.0378
autobus	-12.0378
▁informations	-12.0378
▁mungaas	-12.0378
▁sëppéen	-12.0378
▁Kinne	-12.0378
▁crinière	-12.0378
▁kanaara	-12.0378
▁keww	-12.0378
▁médd	-12.0378
▁Teraanga	-12.0378
▁accél	-12.0378
▁broder	-12.0378
Laper	-12.0378
▁nylon	-12.0378
▁animée	-12.0378
▁répudi	-12.0378
▁fermenté	-12.0378
▁maudit	-12.0378
acharn	-12.0378
▁incliné	-12.0378
▁sàrt	-12.0378
▁Gesam	-12.0378
▁Pullóox	-12.0378
▁attentif	-12.0378
▁taksi	-12.0378
▁houe	-12.0378
iguës	-12.0378
▁bivoua	-12.0378
▁soppeeku	-12.0378
▁ŋiis	-12.0378
illustra	-12.0378
▁woyantu	-12.0378
▁carabine	-12.0378
▁épissure	-12.0378
bortaan	-12.0378
▁navire	-12.0378
acacia	-12.0378
▁hennit	-12.0378
▁chantonna	-12.0378
▁falaŋ	-12.0378
▁komfi	-12.0378
▁maltrait	-12.0378
▁ñambaan	-12.0378
▁embouteillée	-12.0378
▁Aawo	-12.0378
▁maamaati	-12.0378
▁bourgeo	-12.0378
▁percé	-12.0378
▁Saxaraa	-12.0378
▁grumeaux	-12.0378
▁brandiss	-12.0378
▁10	-12.0378
▁lafañ	-12.0378
▁lagaj	-12.0378
▁nawleem	-12.0378
▁echelle	-12.0378
▁souffrance	-12.0378
▁ubbeeku	-12.0378
▁Géwél	-12.0378
▁empesé	-12.0378
absence	-12.0378
cajou	-12.0378
accumul	-12.0378
▁porche	-12.0378
onnés	-12.0378
▁moontin	-12.0378
▁grave	-12.0378
▁malaxer	-12.0378
autopsie	-12.0378
▁privé	-12.0378
▁sottee	-12.0378
▁woññ	-12.0378
▁Yekkal	-12.0378
▁concord	-12.0378
▁rumine	-12.0378
▁fiftin	-12.0378
▁motoxal	-12.0378
▁koppar	-12.0379
▁Kenya	-12.0379
▁sécuri	-12.0379
▁transmet	-12.0379
▁rocciku	-12.0379
▁Jànguloo	-12.0379
▁déclin	-12.0379
▁machette	-12.0379
▁savate	-12.0379
endormir	-12.0379
▁mbugal	-12.0379
▁aérien	-12.0379
jaleñ	-12.0379
▁Griot	-12.0379
▁Njegemaar	-12.0379
▁Fanweer	-12.0379
olof	-12.0379
▁acras	-12.0379
▁tabaski	-12.0379
▁débattons	-12.0379
▁délaissé	-12.0379
▁nëtëri	-12.0379
▁selew	-12.0379
▁Agwu	-12.0379
▁beyaat	-12.0379
▁turist	-12.0379
▁bâtisse	-12.0379
▁Mbembé	-12.0379
▁carreaux	-12.0379
▁batise	-12.0379
▁cubb	-12.0379
▁mesquin	-12.0379
▁Wutël	-12.0379
▁frôlé	-12.0379
▁architectur	-12.0379
▁aadawoo	-12.0379
▁vallée	-12.0379
▁greff	-12.0379
▁kokko	-12.0379
▁Njeex	-12.0379
▁ñaawtéef	-12.0379
▁prompt	-12.0379
écorchure	-12.038
▁recommençait	-12.038
▁toxu	-12.038
▁matadi	-12.038
▁menteñ	-12.038
▁marron	-12.038
▁type	-12.038
▁club	-12.038
dëngaañ	-12.038
▁bërki	-12.038
gat	-12.038
▁Dénk	-12.038
▁reewantu	-12.038
cesseur	-12.038
installaient	-12.038
▁Kàngam	-12.038
xuux	-12.038
▁rido	-12.038
jóol	-12.038
▁radier	-12.038
▁stoppe	-12.038
▁réussi	-12.038
▁cafko	-12.038
entourant	-12.038
▁dangereux	-12.038
▁Miinante	-12.038
▁entrailles	-12.038
letmaa	-12.038
▁frigo	-12.038
▁wanteer	-12.038
▁gronde	-12.038
▁njéeréer	-12.038
▁témoign	-12.038
▁zébr	-12.038
▁Eend	-12.038
▁Marok	-12.038
▁implant	-12.038
▁raccommode	-12.038
▁nëww	-12.038
▁courbé	-12.0381
▁ormaal	-12.0381
inquiète	-12.0381
▁kompale	-12.0381
▁bloc	-12.0381
▁voyou	-12.0381
▁Hier	-12.0381
▁décroché	-12.0381
▁accélérer	-12.0381
▁grange	-12.0381
▁Kiné	-12.0381
▁Roule	-12.0381
▁ñép	-12.0381
▁badamier	-12.0381
▁xocc	-12.0381
▁nécessiteux	-12.0381
ëtuñu	-12.0381
▁vénéré	-12.0381
▁bronz	-12.0381
▁razzié	-12.0381
▁soulag	-12.0381
jectif	-12.0381
▁repro	-12.0381
▁rebord	-12.0381
▁dëddale	-12.0381
▁faneetar	-12.0381
▁ful	-12.0381
▁aboli	-12.0382
▁fanane	-12.0382
▁dépays	-12.0382
▁péter	-12.0382
▁tunnel	-12.0382
▁crap	-12.0382
▁berceau	-12.0382
▁quatr	-12.0382
▁sëqat	-12.0382
▁yërë	-12.0382
aakiri	-12.0382
atif	-12.0382
▁jaloore	-12.0382
▁grue	-12.0382
▁Kaani	-12.0382
autom	-12.0382
▁mbonaat	-12.0382
▁Jubb	-12.0382
▁Bawob	-12.0382
▁toucouleur	-12.0382
▁caïd	-12.0382
▁insurgé	-12.0383
▁répugne	-12.0383
▁surface	-12.0383
▁ndëll	-12.0383
▁sempi	-12.0383
ggatu	-12.0383
▁empêchement	-12.0383
▁coûté	-12.0383
▁tuumaal	-12.0383
▁superf	-12.0383
▁verge	-12.0383
▁envolé	-12.0384
▁haoussa	-12.0384
angulaire	-12.0384
▁limaale	-12.0384
▁cahot	-12.0384
▁tripes	-12.0384
▁dormait	-12.0384
▁jàngalekat	-12.0384
▁mangions	-12.0384
▁randal	-12.0384
▁dynami	-12.0384
▁Berbi	-12.0384
▁mbugël	-12.0384
▁juubu	-12.0384
▁cornet	-12.0384
étagère	-12.0384
▁weccee	-12.0384
▁disparaître	-12.0384
▁xërëmkat	-12.0384
dàmpaay	-12.0384
▁Sauf	-12.0384
▁naawantu	-12.0384
▁Ësen	-12.0384
éthér	-12.0384
▁ndell	-12.0384
▁centimes	-12.0384
▁Mouille	-12.0385
▁Mouche	-12.0385
▁roussir	-12.0385
▁renforc	-12.0385
▁Mesure	-12.0385
auteur	-12.0385
▁indiens	-12.0385
▁dodeliner	-12.0385
▁bluffer	-12.0385
▁xeej	-12.0385
▁baamtu	-12.0385
▁mbañeel	-12.0385
▁rengagé	-12.0385
▁similaak	-12.0385
▁sëqatoo	-12.0385
▁revenant	-12.0385
▁éléphants	-12.0385
▁vitesse	-12.0385
assoupir	-12.0385
▁digaaleel	-12.0385
▁Wekki	-12.0385
▁summi	-12.0385
▁ndon	-12.0386
▁referme	-12.0386
ttaaya	-12.0386
ègue	-12.0386
▁courageux	-12.0386
▁Yaasin	-12.0386
▁xultu	-12.0386
▁Congo	-12.0386
▁jalaal	-12.0386
▁Ganaa	-12.0386
jayaŋ	-12.0386
▁fidèle	-12.0386
▁contemple	-12.0386
▁mbiskit	-12.0387
▁jógewaan	-12.0387
▁caaxoñ	-12.0387
▁visais	-12.0387
▁frange	-12.0387
arrange	-12.0387
▁Chante	-12.0387
▁Bernadette	-12.0387
▁ubbee	-12.0387
▁jànkonteel	-12.0387
▁liaison	-12.0387
▁attrapé	-12.0387
awriñ	-12.0387
▁Ekool	-12.0387
▁peser	-12.0388
▁profondeur	-12.0388
▁téyewul	-12.0388
▁Laissez	-12.0388
▁pleurant	-12.0388
▁pesé	-12.0388
▁limpid	-12.0388
▁Barke	-12.0388
▁gagné	-12.0388
▁John	-12.0388
▁xàjj	-12.0388
apparence	-12.0388
jàmpe	-12.0388
▁Geenu	-12.0388
▁Xew	-12.0388
▁Taxawa	-12.0388
▁parasit	-12.0389
▁grimp	-12.0389
▁caraxam	-12.0389
▁lijaasaam	-12.0389
▁njatt	-12.0389
▁Condui	-12.0389
▁évid	-12.0389
▁cohabiter	-12.0389
▁boddi	-12.0389
▁paierai	-12.0389
▁mbamb	-12.0389
▁tayel	-12.0389
▁bëqët	-12.0389
sting	-12.0389
hell	-12.039
▁kurus	-12.039
▁appui	-12.039
▁pëdd	-12.039
▁résonné	-12.039
▁Donga	-12.039
▁glaner	-12.039
▁Plant	-12.039
▁éraflé	-12.039
▁nooraan	-12.039
▁aspire	-12.039
▁dangereuse	-12.039
▁jéllale	-12.039
▁Babungoo	-12.039
ctifié	-12.039
▁élan	-12.039
▁labour	-12.039
▁obéi	-12.039
▁Muñal	-12.039
▁woddoo	-12.039
▁Juif	-12.0391
▁ndimbal	-12.0391
▁Këpp	-12.0391
▁frappait	-12.0391
▁sevré	-12.0391
gracieux	-12.0391
▁bàjjan	-12.0391
▁cohabitent	-12.0391
▁dîné	-12.0391
▁Tëng	-12.0391
▁croix	-12.0391
nicher	-12.0391
▁verrouill	-12.0391
▁tigi	-12.0391
▁céq	-12.0392
▁Yawut	-12.0392
▁dégain	-12.0392
▁defu	-12.0392
▁Sànni	-12.0392
▁détri	-12.0392
▁placard	-12.0392
▁sippax	-12.0392
ññaaral	-12.0393
▁laytaay	-12.0393
▁Rappelle	-12.0393
▁bourdonn	-12.0393
▁musalkat	-12.0393
▁kulëer	-12.0393
importune	-12.0394
▁jënfandikoo	-12.0394
▁jaxaay	-12.0394
bre	-12.0394
▁Certainement	-12.0394
▁galeux	-12.0394
▁partisane	-12.0394
▁résister	-12.0394
▁Njarum	-12.0394
ccor	-12.0394
▁buisson	-12.0394
▁sourcils	-12.0394
▁insur	-12.0395
▁ŋàyy	-12.0395
▁gaññ	-12.0395
astiku	-12.0395
▁ňaw	-12.0395
▁citadin	-12.0395
▁nettaliji	-12.0395
fiévr	-12.0395
otiques	-12.0395
▁ficelle	-12.0395
▁ŋaamaan	-12.0396
▁faatoo	-12.0396
▁excuse	-12.0396
▁bàyyeeku	-12.0396
▁titre	-12.0396
▁rides	-12.0396
▁jabb	-12.0396
oyyanti	-12.0396
▁orteil	-12.0396
▁sombi	-12.0396
▁waaso	-12.0396
▁vilain	-12.0396
▁Gént	-12.0396
▁taaxum	-12.0397
▁Jubbanti	-12.0397
ootul	-12.0397
versaire	-12.0397
▁pakku	-12.0397
▁nokki	-12.0397
▁fajukaay	-12.0397
▁flagorneur	-12.0397
▁souillé	-12.0398
▁lourdement	-12.0398
▁pët	-12.0398
▁brac	-12.0398
▁Fett	-12.0398
▁Sikket	-12.0398
▁pàq	-12.0398
percevoir	-12.0398
▁Samdi	-12.0399
▁laaxira	-12.0399
▁sokku	-12.0399
lxames	-12.0399
excè	-12.0399
▁diffus	-12.0399
▁complot	-12.0399
▁jouons	-12.0399
▁màngaan	-12.0399
pati	-12.0399
abituellement	-12.0399
▁kul	-12.04
▁Pënd	-12.04
▁frisson	-12.04
▁réaliser	-12.04
▁coiff	-12.04
▁loca	-12.04
rité	-12.04
▁diigal	-12.04
▁Lundi	-12.04
▁pànk	-12.04
▁conséquen	-12.0401
▁dukkat	-12.0401
bes	-12.0401
▁puu	-12.0401
▁dënk	-12.0401
▁conforme	-12.0401
dèle	-12.0401
atteler	-12.0402
▁Durba	-12.0402
▁tëraloon	-12.0402
▁sawoor	-12.0402
▁fàddu	-12.0402
ssantes	-12.0402
▁Farm	-12.0402
▁neige	-12.0402
allaiter	-12.0402
▁jommi	-12.0402
▁peeral	-12.0402
▁dundaat	-12.0402
▁consis	-12.0403
▁kaso	-12.0403
▁coxor	-12.0403
▁Ital	-12.0403
▁cuuraay	-12.0403
▁exposé	-12.0403
▁kidd	-12.0403
▁sacca	-12.0404
latel	-12.0404
▁màggetloo	-12.0404
▁causerie	-12.0404
▁wootal	-12.0404
▁coggal	-12.0404
▁Mokkal	-12.0404
▁tranch	-12.0404
▁ravins	-12.0404
▁trahison	-12.0404
▁përngalu	-12.0405
encre	-12.0405
▁oh	-12.0405
▁Gaaw	-12.0405
▁battais	-12.0405
quetés	-12.0405
▁màkka	-12.0405
ukwu	-12.0405
respectueux	-12.0405
▁tuwaal	-12.0405
▁sànq	-12.0405
ancre	-12.0405
▁intégrale	-12.0406
▁têtu	-12.0406
observer	-12.0406
▁combattant	-12.0406
▁ngemb	-12.0406
▁darajaam	-12.0406
▁karne	-12.0406
▁révoltent	-12.0406
ŋoos	-12.0406
▁rebelle	-12.0406
▁fabriquent	-12.0407
aigle	-12.0407
▁trompent	-12.0407
▁lente	-12.0407
▁cadenc	-12.0407
▁payis	-12.0407
▁saigne	-12.0407
▁pilote	-12.0407
▁asperg	-12.0407
▁woomal	-12.0408
équipe	-12.0408
érité	-12.0408
▁maritim	-12.0408
▁chasserait	-12.0408
▁gisaane	-12.0408
piri	-12.0409
▁Mills	-12.0409
▁nooju	-12.0409
▁adore	-12.0409
▁ñulug	-12.0409
▁jegeyoo	-12.0409
▁détache	-12.041
pille	-12.041
▁fripes	-12.041
▁gànnaayoo	-12.041
▁tendus	-12.041
▁Njoya	-12.0411
ernob	-12.0411
▁Juug	-12.0411
▁démonté	-12.0411
▁feq	-12.0411
▁cadeaux	-12.0411
▁yilifoon	-12.0411
▁medaay	-12.0411
▁njig	-12.0412
▁Lebou	-12.0412
▁coute	-12.0412
Obukun	-12.0412
▁mbaxanaam	-12.0412
▁avaler	-12.0412
▁légèrement	-12.0412
▁ceindre	-12.0412
▁Monro	-12.0412
arrêtait	-12.0413
▁fegu	-12.0413
▁ñow	-12.0413
▁veines	-12.0413
▁défais	-12.0413
▁seetloo	-12.0413
▁seqi	-12.0413
▁gàpp	-12.0413
téef	-12.0413
▁nokkas	-12.0413
▁étonné	-12.0413
▁sexaw	-12.0413
▁valeur	-12.0413
▁bergers	-12.0413
▁Xeex	-12.0413
océ	-12.0414
▁manifestent	-12.0414
▁portraits	-12.0414
▁cadre	-12.0414
▁biscuits	-12.0414
▁paraboles	-12.0414
▁administrateurs	-12.0414
▁pâturages	-12.0414
▁créatures	-12.0414
▁chocra	-12.0414
▁cigarettes	-12.0414
▁provisions	-12.0414
▁déjj	-12.0414
▁bëreel	-12.0414
obtiendra	-12.0414
▁maabo	-12.0415
▁incite	-12.0415
▁simmi	-12.0415
▁mince	-12.0415
▁làmboo	-12.0415
▁dim	-12.0415
▁Siiru	-12.0415
▁bénéfi	-12.0415
▁tirage	-12.0416
▁appâte	-12.0416
▁póon	-12.0416
▁Sénégalais	-12.0416
▁refera	-12.0416
▁fufu	-12.0416
▁réplique	-12.0416
▁contracte	-12.0417
▁battent	-12.0417
▁devinette	-12.0417
▁automobile	-12.0417
▁rêverie	-12.0417
▁exaucée	-12.0417
njaan	-12.0417
▁progresse	-12.0417
▁élégante	-12.0417
▁vermoulue	-12.0417
▁découvrir	-12.0417
▁sëqët	-12.0417
▁gàcc	-12.0418
▁joqa	-12.0418
▁justement	-12.0418
▁Baol	-12.0418
Agade	-12.0418
▁ruum	-12.0419
▁Onits	-12.0419
gàmbi	-12.0419
▁plateau	-12.0419
▁remonter	-12.0419
▁valets	-12.0419
orité	-12.0419
ouï	-12.042
▁Musta	-12.042
▁paraître	-12.042
ddina	-12.042
▁tijji	-12.042
▁poigne	-12.042
▁visiteurs	-12.042
▁Chin	-12.042
▁Maman	-12.042
▁fréquentation	-12.0421
mond	-12.0421
▁agitée	-12.0421
▁mukàlla	-12.0421
▁nuage	-12.0421
▁tàngaayam	-12.0421
▁bànk	-12.0421
▁minut	-12.0421
▁jariñoo	-12.0422
▁tendue	-12.0422
▁touristes	-12.0422
▁Woyal	-12.0422
▁ongle	-12.0422
ulee	-12.0422
erreurs	-12.0422
fection	-12.0423
▁sàngam	-12.0423
▁jañ	-12.0423
▁luqi	-12.0423
▁jamp	-12.0423
▁géex	-12.0423
▁baatin	-12.0424
▁tardif	-12.0424
▁nësër	-12.0424
humili	-12.0424
▁reviennent	-12.0424
▁Lëmb	-12.0424
▁ñagas	-12.0424
▁jéggalu	-12.0424
▁tortille	-12.0425
▁obsédant	-12.0425
▁koddaay	-12.0426
▁foroxal	-12.0426
▁Mawdo	-12.0427
▁rouille	-12.0427
▁habitudes	-12.0427
▁indienne	-12.0428
▁yeeru	-12.0428
▁exterminé	-12.0428
▁Abdu	-12.0429
▁dooleem	-12.0429
▁kapo	-12.0429
environnement	-12.0429
▁sàppi	-12.0429
offens	-12.043
▁événement	-12.043
▁Jarul	-12.043
éndël	-12.0431
▁fétiches	-12.0431
arrose	-12.0431
▁cirées	-12.0431
▁siraas	-12.0431
▁transformé	-12.0432
▁fàkk	-12.0432
aataangoom	-12.0432
▁déch	-12.0433
▁anémié	-12.0433
▁farlu	-12.0433
▁féey	-12.0433
▁recroquevillé	-12.0433
wel	-12.0433
▁carax	-12.0433
ñettee	-12.0434
▁fulaaru	-12.0434
verrez	-12.0434
▁moisson	-12.0435
race	-12.0435
▁nuróo	-12.0435
caboss	-12.0435
▁Couvre	-12.0435
▁carpe	-12.0436
▁digesti	-12.0437
▁déggatul	-12.0437
▁gënaloon	-12.0438
▁heurtant	-12.0438
angle	-12.0438
▁wóorul	-12.0438
▁relative	-12.0438
▁jigad	-12.0439
▁pind	-12.0439
▁Tellement	-12.0439
▁éteintes	-12.044
▁indiqué	-12.044
▁Tombe	-12.044
▁Suwee	-12.044
▁parcouru	-12.0441
▁féticheur	-12.0442
▁gilets	-12.0442
trave	-12.0442
▁ñoree	-12.0442
épouser	-12.0442
▁remm	-12.0442
▁tegtal	-12.0442
▁baisser	-12.0442
▁Guppa	-12.0443
mero	-12.0443
▁coincé	-12.0444
▁yendusi	-12.0444
▁ganesee	-12.0444
nom	-12.0444
▁tourbillonnai	-12.0446
▁remettr	-12.0446
découvrant	-12.0446
▁salaan	-12.0446
▁joxante	-12.0446
▁respirer	-12.0447
andaŋ	-12.0447
mandat	-12.0448
▁apparent	-12.0448
▁pàpp	-12.0449
gation	-12.0449
▁faillite	-12.0449
▁détal	-12.0449
▁adroit	-12.045
▁excise	-12.0451
▁lumineuse	-12.0451
▁Ngaar	-12.0451
▁arrivait	-12.0451
▁màww	-12.0451
teg	-12.0451
▁sukku	-12.0451
hum	-12.0452
▁lançant	-12.0452
▁Ara	-12.0452
▁flou	-12.0452
▁mirage	-12.0453
▁chaux	-12.0453
▁Yaali	-12.0453
▁tissées	-12.0454
oulou	-12.0454
rves	-12.0454
▁repousse	-12.0454
▁Siggi	-12.0455
▁seddul	-12.0455
▁reprises	-12.0456
▁ndóo	-12.0456
formation	-12.0457
▁njaam	-12.0457
▁circon	-12.0457
ord	-12.0457
Orient	-12.0457
▁yëddu	-12.0457
▁samdi	-12.0458
konte	-12.0458
▁sautant	-12.0458
▁amiin	-12.0459
▁Jàmm	-12.0459
angasin	-12.0459
▁Déjà	-12.0459
▁Ndañ	-12.0459
▁jélloo	-12.0459
baxtal	-12.046
▁barkeel	-12.046
▁substan	-12.046
▁Maang	-12.046
àgg	-12.0461
bourbouille	-12.0461
▁frapperai	-12.0461
▁impé	-12.0462
▁règlement	-12.0462
▁écarté	-12.0463
commençait	-12.0464
▁rév	-12.0464
▁Demeraraa	-12.0465
éeku	-12.0465
▁touchent	-12.0466
▁dégonflé	-12.0467
▁compliqu	-12.0467
▁reyul	-12.0468
▁Bois	-12.0468
▁baisse	-12.0468
▁vertus	-12.0468
bolique	-12.0468
ŋŋaaral	-12.0469
interroger	-12.0469
▁yërëm	-12.047
lacés	-12.047
▁pousser	-12.047
▁régnait	-12.0471
▁pann	-12.0471
▁giron	-12.0471
▁recoucher	-12.0471
▁faciliter	-12.0472
▁nécessite	-12.0472
▁njoos	-12.0472
▁Gine	-12.0472
▁wàllam	-12.0472
▁Sell	-12.0472
▁éclairée	-12.0472
▁diisoo	-12.0474
▁siboor	-12.0474
▁xelli	-12.0474
▁suscité	-12.0475
kasaw	-12.0475
▁19	-12.0475
▁pneus	-12.0475
▁entassés	-12.0476
▁troupe	-12.0476
▁visibles	-12.0476
▁séqal	-12.0477
▁tunique	-12.0477
▁goyaves	-12.0477
▁clients	-12.0477
▁reviendras	-12.0478
albin	-12.0478
▁diamants	-12.0478
▁grimaces	-12.0478
▁sportives	-12.0478
▁spermatozoïdes	-12.0478
▁boucliers	-12.0478
▁événements	-12.0479
▁morsures	-12.0479
▁tembe	-12.0479
assit	-12.048
▁rëgë	-12.048
▁coiffe	-12.0481
imique	-12.0481
▁metital	-12.0481
▁confier	-12.0481
▁dawsi	-12.0482
embryon	-12.0482
▁boivent	-12.0482
▁hérissé	-12.0482
ueille	-12.0483
▁boyal	-12.0483
milie	-12.0483
▁tombera	-12.0483
onnais	-12.0484
▁accompli	-12.0484
▁exilé	-12.0484
▁sukk	-12.0484
▁wujje	-12.0484
▁ajag	-12.0485
▁ressent	-12.0485
▁gratuite	-12.0485
▁guitare	-12.0485
▁Genn	-12.0485
ulcère	-12.0486
▁Réy	-12.0486
▁palanteeram	-12.0486
▁ràngu	-12.0486
▁rejette	-12.0486
▁keppukaay	-12.0486
▁endurcis	-12.0486
▁nonchalante	-12.0486
éndal	-12.0486
▁douille	-12.0487
▁destinée	-12.0487
▁déchiré	-12.0487
▁poq	-12.0488
▁Cast	-12.0488
émiett	-12.0488
agace	-12.0488
▁Birame	-12.0488
fite	-12.0488
▁Ogil	-12.0488
▁teggin	-12.0489
ees	-12.049
▁planches	-12.049
▁étendues	-12.0491
▁commis	-12.0491
▁yiiwul	-12.0491
▁génie	-12.0491
▁civilisé	-12.0491
ëkkoo	-12.0491
▁Ngonka	-12.0491
▁cimenté	-12.0491
▁jaarukaay	-12.0491
▁bakkanam	-12.0493
▁conseil	-12.0493
▁instinctive	-12.0494
▁poñe	-12.0494
▁lenqali	-12.0495
▁déeyante	-12.0495
▁Waxat	-12.0497
▁retourné	-12.0498
▁mënuñu	-12.0498
▁chaussée	-12.0498
▁perle	-12.0499
▁duppati	-12.0499
▁fàttal	-12.0499
▁crabes	-12.0499
▁tresse	-12.05
▁rêver	-12.05
▁Dém	-12.05
▁njëmbët	-12.05
▁mâcher	-12.05
ignées	-12.05
▁troué	-12.05
▁Tooy	-12.0501
▁Kowe	-12.0501
ŋgoo	-12.0501
▁industrielle	-12.0502
▁bouillant	-12.0502
▁remplit	-12.0502
▁repère	-12.0502
▁tât	-12.0503
▁att	-12.0503
▁démarr	-12.0503
▁ëlëb	-12.0503
▁clous	-12.0505
▁affection	-12.0505
▁confortable	-12.0505
▁ruiné	-12.0505
▁sandale	-12.0505
uniform	-12.0505
▁fusillé	-12.0507
enseigne	-12.0508
▁glissant	-12.0509
▁Fic	-12.0509
▁lëmb	-12.0509
▁rëy	-12.051
▁ardo	-12.051
▁yeww	-12.0511
analete	-12.0511
▁beer	-12.0511
undu	-12.0511
▁geg	-12.0512
▁libéré	-12.0512
▁chamaill	-12.0512
omprends	-12.0513
▁carence	-12.0513
▁ngonk	-12.0513
▁mottes	-12.0514
enduira	-12.0514
▁File	-12.0515
▁solu	-12.0515
▁noirci	-12.0516
▁rituels	-12.0516
▁pooj	-12.0516
▁hérité	-12.0516
▁étourdi	-12.0517
▁contrée	-12.0517
▁poulain	-12.0518
▁compare	-12.0518
▁minces	-12.0519
▁collection	-12.0519
comparable	-12.0519
▁Mbóo	-12.0519
▁statut	-12.0519
élever	-12.0519
laawaal	-12.0519
▁Change	-12.0519
▁deven	-12.052
oppite	-12.052
▁Gumbe	-12.052
▁giiru	-12.0521
▁yombut	-12.0521
aab	-12.0521
nduŋ	-12.0521
▁renvoyé	-12.0521
wees	-12.0522
▁leerul	-12.0522
▁précision	-12.0522
▁ramollisse	-12.0523
vier	-12.0523
▁buddat	-12.0524
▁pico	-12.0524
▁affolé	-12.0524
▁puurit	-12.0525
▁anges	-12.0525
▁mesuré	-12.0526
▁farci	-12.0527
tèrent	-12.0528
▁décorés	-12.0529
▁Gisewu	-12.053
onnaie	-12.0531
▁prest	-12.0531
clite	-12.0531
▁ndull	-12.0532
▁chape	-12.0532
ëlé	-12.0533
▁Bépp	-12.0533
▁càq	-12.0533
▁suspendu	-12.0533
offe	-12.0533
▁destitué	-12.0534
▁existait	-12.0535
nuwaa	-12.0536
▁gants	-12.0536
▁jekkul	-12.0536
▁sërëx	-12.0536
▁exceptionnel	-12.0536
▁nekke	-12.0536
▁indésirable	-12.0537
▁new	-12.0537
▁infirmiers	-12.0537
▁ngaana	-12.0537
▁signal	-12.0537
▁immensité	-12.0537
▁expéditi	-12.0537
▁wallu	-12.0537
▁pëtëm	-12.0539
▁intéressant	-12.0539
▁encadré	-12.0539
piques	-12.0539
▁ombrage	-12.0539
▁cueillir	-12.0539
▁éduque	-12.0539
▁mortelle	-12.054
▁Africaine	-12.054
▁Tekk	-12.054
▁accouchement	-12.054
▁éloignement	-12.054
▁Peuls	-12.0541
▁sonnee	-12.0541
▁nuire	-12.0541
▁congés	-12.0541
▁tàqal	-12.0541
▁utiles	-12.0542
▁judduwaale	-12.0542
▁illusion	-12.0543
▁mérites	-12.0544
▁tiisu	-12.0544
▁pintades	-12.0545
▁incapables	-12.0545
▁vautours	-12.0545
▁askanam	-12.0545
▁yéexa	-12.0545
▁gerbes	-12.0545
▁bootal	-12.0546
uvée	-12.0546
▁pecc	-12.0547
▁nkom	-12.0547
▁ajouter	-12.0547
énètre	-12.0548
▁bañoon	-12.0548
▁élevage	-12.0548
igation	-12.0548
▁fonk	-12.0548
▁àttanul	-12.0549
▁sëpp	-12.0549
▁Tagg	-12.055
▁Ndeyu	-12.055
▁reto	-12.0551
▁Bari	-12.0551
ëqët	-12.0551
▁flotte	-12.0552
▁Ruux	-12.0552
▁habituelle	-12.0553
zia	-12.0553
▁odeurs	-12.0554
▁castes	-12.0554
▁màngi	-12.0554
▁caravanes	-12.0555
▁Yàq	-12.0555
▁châ	-12.0555
▁cajj	-12.0557
▁defarlu	-12.0557
▁ëlëm	-12.0557
▁Masur	-12.0558
▁taaxu	-12.0558
▁rond	-12.0559
▁gindi	-12.0559
▁calmer	-12.0559
▁Paas	-12.056
usée	-12.0561
▁dóox	-12.0561
▁Mbaam	-12.0561
▁Wutkat	-12.0561
▁Baje	-12.0562
▁bandit	-12.0564
bukun	-12.0564
▁glorifi	-12.0564
▁kutt	-12.0565
▁waxtoo	-12.0565
▁pommes	-12.0565
▁makar	-12.0566
fara	-12.0567
eddiwuma	-12.0568
▁pond	-12.0568
▁Màr	-12.0569
▁accompagnent	-12.0569
▁Pardonne	-12.0569
équat	-12.057
▁usés	-12.057
▁rivalis	-12.057
▁Faye	-12.057
ration	-12.0571
▁Tooyal	-12.0571
▁bén	-12.0572
▁dëgëral	-12.0573
▁fara	-12.0574
▁defati	-12.0574
▁accus	-12.0574
▁kàll	-12.0575
▁opeeree	-12.0575
▁accouchée	-12.0576
▁Saaf	-12.0577
▁boobale	-12.0577
▁crue	-12.058
▁repose	-12.058
▁lëlu	-12.0581
▁mbej	-12.0581
▁jarul	-12.0582
▁grandeur	-12.0582
inv	-12.0583
▁Demul	-12.0583
▁rogaa	-12.0584
▁carre	-12.0584
▁agoni	-12.0585
▁feeň	-12.0585
▁gépp	-12.0585
atement	-12.0587
▁siso	-12.0587
▁liyaar	-12.059
▁ob	-12.059
▁débatt	-12.0591
▁sëb	-12.0592
▁ordonne	-12.0593
▁débouch	-12.0594
▁int	-12.0594
▁jegeñ	-12.0595
▁Dàtt	-12.0596
▁passionn	-12.0596
àppaa	-12.0596
▁digle	-12.0598
▁dàmb	-12.0599
▁épuis	-12.06
ôtre	-12.06
pees	-12.0601
ayim	-12.0601
▁soigné	-12.0601
▁añaan	-12.0602
▁acca	-12.0602
onnée	-12.0602
▁plaigne	-12.0603
▁como	-12.0603
▁càcc	-12.0603
▁ñàdd	-12.0604
▁Baali	-12.0604
doles	-12.0604
▁enfoncés	-12.0606
▁soins	-12.0607
▁soufflet	-12.0608
▁mesurer	-12.0609
▁plaint	-12.0609
ttéen	-12.061
matu	-12.061
▁groupes	-12.0611
▁chansons	-12.0611
▁nawle	-12.0611
▁prospères	-12.0611
▁Mësul	-12.0612
▁participer	-12.0612
▁rhum	-12.0612
ies	-12.0613
appren	-12.0614
▁annoncer	-12.0615
▁nouvel	-12.0615
▁xaat	-12.0615
madou	-12.0617
▁ginnaawam	-12.0617
▁répét	-12.0618
▁présidents	-12.0619
▁merci	-12.0619
▁magum	-12.0619
▁bañee	-12.062
▁rës	-12.062
uriner	-12.0621
▁mbuum	-12.0621
gënee	-12.0622
▁Bira	-12.0622
éebéer	-12.0623
joute	-12.0624
app	-12.0624
seras	-12.0625
▁endormie	-12.0625
▁ndong	-12.0627
▁rapports	-12.0629
▁attise	-12.063
▁choir	-12.063
▁précédée	-12.0631
▁cargo	-12.0631
▁jotul	-12.0632
idée	-12.0632
▁Ropp	-12.0632
▁énorme	-12.0634
▁ñanka	-12.0635
▁microb	-12.0636
anqal	-12.0636
▁Dë	-12.0636
▁deqi	-12.0636
▁croisés	-12.0638
naaru	-12.064
tais	-12.0642
▁prendras	-12.0645
▁dogale	-12.0645
▁fermés	-12.0645
▁waxtaanee	-12.0646
agin	-12.0647
▁jàppoo	-12.0647
▁feyu	-12.0647
▁sensible	-12.0648
ñaay	-12.0649
▁nganj	-12.0649
▁profiter	-12.0651
artère	-12.0652
▁vanne	-12.0652
okkas	-12.0652
▁réserves	-12.0654
▁adapt	-12.0654
▁baaw	-12.0655
▁batteur	-12.0656
dra	-12.0656
▁céy	-12.0656
▁fourré	-12.0658
▁motte	-12.0658
àttalikuwu	-12.066
▁coyy	-12.066
▁procure	-12.0661
▁racle	-12.0662
▁juumul	-12.0662
▁bec	-12.0663
▁jàmbu	-12.0664
▁juuge	-12.0664
▁jun	-12.0664
▁siif	-12.0664
▁Filee	-12.0665
▁froissé	-12.0667
▁cof	-12.0668
▁mousse	-12.0668
▁kawam	-12.0669
▁naaf	-12.0669
▁retrouvés	-12.067
sensible	-12.0671
▁effray	-12.0673
▁Akara	-12.0673
▁Kawóo	-12.0674
▁latérale	-12.0674
▁traire	-12.0675
éco	-12.0676
▁tape	-12.0676
noui	-12.0676
▁consent	-12.0678
▁mensonges	-12.0679
▁jàmbaar	-12.068
▁sauvé	-12.0681
▁jélaat	-12.0681
▁dindee	-12.0683
▁terrasserai	-12.0683
▁photographié	-12.0687
plié	-12.0688
▁Nattal	-12.0689
ciné	-12.069
▁moq	-12.0691
▁filé	-12.0691
▁tempor	-12.0692
▁kuti	-12.0692
ginaar	-12.0693
▁accept	-12.0696
▁éliminer	-12.0697
▁lugg	-12.0698
▁Saatu	-12.0699
▁transhum	-12.0699
▁xaritoo	-12.0699
▁éva	-12.0699
▁désespérant	-12.0699
unóor	-12.0701
▁póot	-12.0701
▁réeroo	-12.0702
▁discut	-12.0702
▁terminée	-12.0705
▁buntam	-12.0706
illons	-12.0707
▁égard	-12.0707
▁écritures	-12.0707
▁repartir	-12.0707
▁avancé	-12.0708
vit	-12.071
▁Xaal	-12.0712
▁pensées	-12.0713
faas	-12.0714
▁plantes	-12.0715
▁chap	-12.0716
▁bugg	-12.0717
▁liise	-12.0717
▁enco	-12.0717
ignons	-12.0717
▁hy	-12.0718
▁ext	-12.0718
Ja	-12.0719
▁dàmp	-12.0719
▁lourdes	-12.072
▁désirs	-12.0721
eb	-12.0722
▁soxlawul	-12.0723
▁jéggal	-12.0724
▁nëpp	-12.0724
▁retrouve	-12.0726
nes	-12.0729
▁outre	-12.0729
▁fuñ	-12.0731
Écri	-12.0732
ong	-12.0733
▁dawalkat	-12.0733
▁coord	-12.0733
▁marques	-12.0733
Bri	-12.0734
kurti	-12.0734
▁Rus	-12.0735
▁tàlli	-12.0736
▁maamam	-12.0742
▁marié	-12.0742
▁doxin	-12.0742
▁fital	-12.0743
isons	-12.0744
ndiku	-12.0745
ifs	-12.0746
▁Giiru	-12.0747
▁làmbaa	-12.0747
▁maandu	-12.0749
▁vac	-12.0749
uló	-12.075
▁démon	-12.0751
▁ennuy	-12.0753
▁fof	-12.0754
buy	-12.0755
▁consulter	-12.0755
▁laalo	-12.0756
▁sewal	-12.0757
▁seere	-12.0758
▁rincer	-12.0758
▁dalul	-12.0759
▁Sene	-12.076
nokkos	-12.0761
éré	-12.0761
▁fande	-12.0761
▁aveugles	-12.0762
▁confies	-12.0763
▁voies	-12.0764
Adam	-12.0765
▁lànk	-12.0769
uché	-12.0772
▁accrochée	-12.0774
▁boucher	-12.0774
▁léebu	-12.0774
▁levés	-12.0775
▁peñew	-12.0776
▁épa	-12.0777
àbbi	-12.0777
bawo	-12.0779
élal	-12.078
▁bavards	-12.078
▁Bam	-12.0781
▁fissur	-12.0783
àndal	-12.0785
gée	-12.0785
▁fru	-12.0787
tom	-12.0787
▁xàpp	-12.0788
▁Bali	-12.0789
▁fëx	-12.0789
▁ràjj	-12.0789
▁péri	-12.079
▁meram	-12.0791
▁aff	-12.0791
▁balafr	-12.0791
▁dét	-12.0793
ignés	-12.0794
▁casse	-12.0794
▁inéluctable	-12.0795
▁songe	-12.0796
▁étincelle	-12.0796
▁influence	-12.0797
▁mbaq	-12.0797
▁saisis	-12.0799
▁écrire	-12.0799
sacre	-12.08
▁présenta	-12.08
▁ronge	-12.0801
▁céeb	-12.0802
▁dépou	-12.0802
▁roulé	-12.0804
▁ronde	-12.0808
▁bindal	-12.0808
▁guérie	-12.0809
ëlu	-12.0809
▁nettal	-12.0809
▁ge	-12.0812
▁mûrs	-12.0812
mage	-12.0813
▁caca	-12.0813
ëléem	-12.0814
▁gisagum	-12.0816
wut	-12.0818
▁bànneexu	-12.0819
aimerai	-12.082
éléem	-12.0821
▁muusal	-12.0822
▁ginnaa	-12.0825
▁éclaire	-12.0826
ouch	-12.0826
▁yombal	-12.0828
blant	-12.0829
liku	-12.0829
▁étudiant	-12.0829
▁Té	-12.083
▁Faa	-12.0831
▁fumeur	-12.0833
▁niroole	-12.0834
ëngal	-12.0838
▁Pikin	-12.0838
▁avantageu	-12.0839
▁antilopes	-12.0839
▁réduir	-12.084
versa	-12.084
concis	-12.0841
▁jàmbure	-12.0843
ónnee	-12.0843
▁jóor	-12.0843
imistes	-12.0844
uver	-12.0847
lumin	-12.0848
ix	-12.0848
▁caaxaane	-12.085
▁tal	-12.0851
▁lourds	-12.0853
▁Gii	-12.0856
▁prêtre	-12.0859
▁goree	-12.086
▁fument	-12.0861
échapp	-12.0862
▁mees	-12.0862
Làbbe	-12.0862
pis	-12.0865
onde	-12.0869
jàmbataan	-12.087
▁déggal	-12.0872
▁Ñax	-12.0875
▁Born	-12.0876
▁Xol	-12.0877
acide	-12.0878
liser	-12.0879
entraîn	-12.0879
▁conduite	-12.0881
▁gross	-12.0881
▁siens	-12.0882
▁officielle	-12.0882
▁paxu	-12.0883
taaw	-12.0884
▁Wer	-12.0885
▁Yées	-12.0887
▁leble	-12.0888
▁soqi	-12.0889
ëggu	-12.0891
bàjj	-12.0895
▁racontes	-12.0897
▁Añ	-12.0898
tère	-12.0899
▁entrave	-12.0901
▁xoolin	-12.0904
▁traiter	-12.0906
▁ndawam	-12.0907
▁bleues	-12.0907
kërëb	-12.0908
assaillir	-12.0908
▁jaf	-12.0909
▁meloy	-12.091
▁malheurs	-12.0914
▁sarcl	-12.0914
▁ñàpp	-12.0916
▁Njur	-12.0916
▁objet	-12.0917
▁conven	-12.092
▁sépare	-12.092
affai	-12.0925
ulsion	-12.093
vois	-12.0932
▁ngë	-12.0935
antenne	-12.0935
▁Ter	-12.0936
▁Deful	-12.0938
▁Cum	-12.0939
▁brin	-12.0939
▁désor	-12.0939
▁baraa	-12.0939
▁bénit	-12.0941
▁perdues	-12.0942
titu	-12.0943
▁cobra	-12.0945
▁domaines	-12.095
▁rires	-12.0951
ilyaan	-12.0952
apprend	-12.0952
êt	-12.0952
rvu	-12.0955
▁mbàq	-12.0956
nage	-12.0956
admir	-12.0959
▁faste	-12.0961
▁Dinanu	-12.0963
▁étendue	-12.0964
▁lekkam	-12.0967
tivement	-12.0968
àkkali	-12.0968
▁xelal	-12.0971
▁Warul	-12.0973
▁lyc	-12.0974
▁grapp	-12.0976
▁dénoue	-12.0978
igueur	-12.0979
siez	-12.098
▁plaqu	-12.0982
voque	-12.0983
▁comprim	-12.0984
▁abrit	-12.0987
▁lëpp	-12.0988
▁impun	-12.0989
▁brou	-12.099
▁koň	-12.0992
▁Njo	-12.0992
ourré	-12.0994
▁rest	-12.0996
▁baram	-12.0996
▁douan	-12.0998
entreteni	-12.0999
tres	-12.1002
slaa	-12.1002
tier	-12.1002
▁Ngën	-12.1002
▁partirait	-12.1004
▁sañul	-12.1006
▁digaloo	-12.1007
▁feral	-12.1013
digg	-12.1013
lusi	-12.1015
▁Wër	-12.1015
rde	-12.1026
uukar	-12.1026
▁caches	-12.1028
▁doyad	-12.1029
▁crainte	-12.1029
▁méchan	-12.1035
▁rom	-12.1037
individus	-12.1038
▁pàttalik	-12.1043
▁Ngan	-12.1046
▁cra	-12.1046
▁Miin	-12.1048
▁chère	-12.1051
▁ñàmb	-12.1054
reuse	-12.1057
pho	-12.1058
ekkinam	-12.1059
▁bride	-12.1063
▁expérience	-12.1063
ëbbin	-12.1063
▁espoir	-12.1064
▁baaxoo	-12.1064
roupe	-12.1067
▁destiné	-12.1068
▁xees	-12.1068
tip	-12.1069
▁émotion	-12.107
kyst	-12.1072
▁acte	-12.1073
▁mbur	-12.1073
▁misaal	-12.1073
qata	-12.1076
▁amène	-12.1078
▁Bawo	-12.1079
▁trembl	-12.1079
kook	-12.1079
▁salaam	-12.1081
uvet	-12.1082
▁sûrs	-12.1084
étine	-12.1084
▁avare	-12.109
▁appri	-12.1095
▁réewam	-12.1095
▁fréquente	-12.1096
▁pâ	-12.1099
▁magique	-12.11
iendras	-12.11
▁fowan	-12.1105
▁juuy	-12.1109
àllaa	-12.1112
▁làpp	-12.1119
mbill	-12.1121
▁verb	-12.1123
▁poutre	-12.1123
▁fermes	-12.1131
▁ingr	-12.1134
allumer	-12.1137
▁inné	-12.1143
▁bombard	-12.1143
▁miinee	-12.1144
▁nuur	-12.115
aañ	-12.1153
▁atroc	-12.1154
vivre	-12.1154
▁ibo	-12.1154
étache	-12.1156
▁tombant	-12.1158
▁woona	-12.1164
ndre	-12.1164
▁koste	-12.1166
alit	-12.1167
beria	-12.1167
▁conçues	-12.1167
▁añe	-12.1173
▁rapides	-12.1174
▁mépris	-12.1175
▁Reew	-12.1176
istes	-12.1186
▁colport	-12.1188
saient	-12.1188
▁digér	-12.119
▁manul	-12.119
▁soppe	-12.1195
omu	-12.1196
▁tardera	-12.1199
terai	-12.1199
▁càllala	-12.12
▁paume	-12.1201
▁xaleel	-12.1201
▁som	-12.1202
diale	-12.1203
▁xelu	-12.1203
▁oeuf	-12.1204
▁embarrass	-12.1205
jus	-12.1206
cër	-12.1207
fide	-12.1209
▁manques	-12.1214
▁gratte	-12.1215
▁ŋgoo	-12.1216
élague	-12.122
▁préc	-12.122
▁gaja	-12.1221
rndeel	-12.1221
jekk	-12.1222
ambar	-12.1223
▁mbar	-12.1224
oyer	-12.1225
▁princes	-12.1228
rbi	-12.1228
▁kuuy	-12.1228
▁jaxal	-12.1231
▁jom	-12.1232
▁Européens	-12.1236
hari	-12.124
▁connus	-12.124
▁amaat	-12.1242
▁mët	-12.1242
▁kili	-12.1242
▁laissée	-12.1243
▁puissant	-12.1243
▁donnai	-12.1244
▁cuu	-12.1244
▁cé	-12.1244
▁occidental	-12.1246
ddulee	-12.1247
▁suub	-12.1248
▁moqu	-12.1248
▁compens	-12.1249
▁meeb	-12.125
▁màttat	-12.125
llo	-12.1253
ument	-12.1254
▁repasse	-12.1255
▁reflétai	-12.1257
▁abat	-12.1266
▁beñ	-12.1268
▁Dax	-12.1271
▁yóot	-12.1271
▁inqui	-12.1274
umb	-12.1281
▁Dàgg	-12.1282
▁wàlle	-12.1284
▁vrais	-12.1284
égré	-12.1286
▁baobabs	-12.1292
tombe	-12.1296
ataŋ	-12.1299
▁crache	-12.1302
itude	-12.1303
▁junki	-12.1305
▁suivai	-12.1308
▁wëre	-12.1308
▁tonne	-12.1309
▁salaat	-12.131
ifiée	-12.1312
ndait	-12.1313
▁Tari	-12.1315
wér	-12.1322
▁envoie	-12.1324
ànjaŋ	-12.1326
▁ňax	-12.133
▁pal	-12.1331
àmpal	-12.1332
va	-12.1332
tures	-12.1333
▁dinan	-12.1335
ŋaw	-12.1337
▁Abo	-12.1339
ndaam	-12.1347
▁Awa	-12.1347
▁bëggé	-12.1347
tivités	-12.1351
gëléen	-12.1351
▁colli	-12.1358
▁fugue	-12.1359
▁nacelle	-12.136
▁jayee	-12.1362
▁insouciant	-12.1364
▁bot	-12.1366
▁Gent	-12.1366
étiquement	-12.1372
rante	-12.1374
▁sauter	-12.1374
▁suux	-12.1377
▁irréel	-12.1378
▁Mujj	-12.1378
laañaan	-12.1379
▁Bàmb	-12.1386
▁splend	-12.1387
▁fë	-12.1388
▁Kas	-12.1394
▁ŋaax	-12.1395
énorme	-12.1398
▁lançai	-12.1399
ollu	-12.1399
iroo	-12.14
bënn	-12.14
lets	-12.1406
▁dresser	-12.1406
▁kas	-12.1407
foor	-12.1413
▁souple	-12.1413
étal	-12.1416
iyeer	-12.1417
▁mball	-12.1418
▁safatu	-12.1419
onfler	-12.1421
▁bëlu	-12.1421
àngoo	-12.1422
▁mêler	-12.1424
▁vertu	-12.1425
ndoor	-12.1426
▁lesoŋ	-12.143
xlu	-12.1431
nfouis	-12.1433
sons	-12.1439
▁érig	-12.144
arène	-12.1442
nqam	-12.1444
▁dàqa	-12.1446
▁exa	-12.1448
▁vé	-12.145
▁caresse	-12.145
▁essu	-12.145
▁compati	-12.1451
oll	-12.1453
▁ñàkki	-12.1455
▁dëkkam	-12.1461
▁dégager	-12.1462
▁auxquel	-12.147
ituée	-12.147
▁fr	-12.1473
bëgg	-12.1476
hili	-12.148
éclat	-12.1482
infiltre	-12.1483
ondeel	-12.1486
▁nëtë	-12.1488
ressée	-12.1493
identifi	-12.1494
▁kiri	-12.1499
tuwaale	-12.1502
embre	-12.1505
mêmes	-12.1505
▁tombes	-12.1508
▁entendron	-12.1512
ute	-12.1514
▁maraa	-12.1515
rien	-12.1515
indig	-12.1519
▁montant	-12.1524
▁rassembl	-12.1526
▁sécrét	-12.1527
▁requie	-12.1538
ffe	-12.1538
pieux	-12.1539
▁njëgg	-12.1541
▁tournera	-12.1545
▁nji	-12.1553
▁puisqu	-12.1553
rompt	-12.1561
▁sangat	-12.1563
ngoro	-12.1564
▁gaaf	-12.1567
▁dépose	-12.1569
àpptoo	-12.157
▁wer	-12.1571
gàkk	-12.1572
▁lionne	-12.1575
▁Jékk	-12.1579
▁présents	-12.158
interdi	-12.1582
▁leel	-12.1582
▁montr	-12.1586
tari	-12.1592
▁habi	-12.16
raies	-12.1602
tations	-12.1603
rosse	-12.1607
▁dalee	-12.1608
▁gël	-12.1613
mouvant	-12.162
gale	-12.1628
interroge	-12.1629
ëmm	-12.1631
rions	-12.1631
eex	-12.1632
ëlbatiku	-12.1632
▁rappel	-12.1633
▁pratiquai	-12.1635
jou	-12.1639
caaf	-12.1649
▁nekkal	-12.1656
▁Astoo	-12.1659
▁pàdd	-12.1661
unisse	-12.1662
▁rattach	-12.1663
▁gànnaayu	-12.167
▁matel	-12.1673
immobilis	-12.1674
idditam	-12.1679
▁exil	-12.1683
▁vieilles	-12.1684
duis	-12.1686
▁géttu	-12.1688
▁frotter	-12.169
▁empêche	-12.1691
▁trép	-12.1692
envahissai	-12.1695
▁mbana	-12.1699
taaba	-12.1701
mat	-12.1704
bés	-12.1707
▁foie	-12.1711
▁offerte	-12.1713
▁jëmment	-12.1716
immisce	-12.1716
▁bëkk	-12.1719
▁bols	-12.1722
▁Boy	-12.1726
▁pens	-12.1729
▁banti	-12.173
▁Law	-12.1731
▁mbell	-12.175
sque	-12.1753
rabes	-12.1756
amen	-12.176
glis	-12.1761
ue	-12.1768
▁marchan	-12.1768
▁fédérale	-12.1777
▁occupe	-12.1779
këri	-12.1789
▁Ax	-12.1791
▁Exc	-12.1792
▁gué	-12.1793
ffronter	-12.1793
▁Pousse	-12.1795
aiguise	-12.1795
▁ngiir	-12.1795
axa	-12.1796
entonn	-12.1801
▁ëcc	-12.1804
▁couler	-12.1808
▁Part	-12.1811
▁tombés	-12.1812
onore	-12.1813
▁lamaan	-12.1813
▁dér	-12.1823
▁yal	-12.1824
bàcc	-12.1827
▁perche	-12.1828
aaxaan	-12.1829
▁Ram	-12.1829
are	-12.1833
kox	-12.1835
▁joueur	-12.1838
▁déserté	-12.1848
éeg	-12.1852
▁brûlera	-12.1853
ula	-12.1856
▁chemises	-12.1856
▁ratt	-12.1858
▁choqu	-12.1859
ubbanti	-12.1859
riale	-12.1861
▁déshabill	-12.1871
réparer	-12.1876
▁fej	-12.1881
▁raaf	-12.1883
▁berce	-12.1885
grillage	-12.1886
▁dëgë	-12.1891
lait	-12.1893
▁visé	-12.1894
bou	-12.1905
▁nëbba	-12.1905
oupée	-12.1907
▁minist	-12.191
ssait	-12.191
▁fenk	-12.1913
▁ndul	-12.1913
▁ňoo	-12.1917
▁sàmba	-12.1919
▁fel	-12.192
▁éc	-12.1925
▁néglige	-12.1925
▁poo	-12.1925
▁confident	-12.1926
▁minim	-12.193
ouvri	-12.1931
▁embras	-12.1934
▁inc	-12.1936
▁ngii	-12.1938
évent	-12.1938
êtres	-12.1945
▁riiru	-12.1946
▁pomp	-12.1948
▁tact	-12.1955
▁presti	-12.1955
▁Com	-12.1959
rig	-12.1965
▁défie	-12.1969
▁njoor	-12.197
▁gajaf	-12.197
élicit	-12.1972
niin	-12.1979
▁tri	-12.198
▁allume	-12.1987
▁kel	-12.1989
▁Góo	-12.199
▁agir	-12.1999
échange	-12.2005
▁Digg	-12.2006
explose	-12.201
▁Joy	-12.2011
yit	-12.2012
▁féq	-12.2016
▁pili	-12.2018
▁mool	-12.2019
▁dëg	-12.2021
mbu	-12.2021
▁jànkoontee	-12.2021
intégré	-12.2024
▁apport	-12.2026
antaan	-12.2026
▁mars	-12.2027
gile	-12.2029
▁latéra	-12.2034
▁terr	-12.2036
▁càmm	-12.2039
num	-12.2042
▁Wau	-12.2042
ñe	-12.2044
▁faju	-12.2047
▁ferm	-12.205
▁voilé	-12.205
▁béni	-12.2055
▁préféra	-12.2056
▁Bës	-12.2058
▁manoo	-12.2061
àng	-12.2062
ache	-12.2067
terre	-12.2067
ame	-12.207
ank	-12.2071
▁Gaan	-12.2072
tribut	-12.2073
▁matuwaa	-12.2075
▁puni	-12.2082
tem	-12.2087
▁ganu	-12.2087
▁termina	-12.209
▁taali	-12.2092
▁Jar	-12.2092
▁Sér	-12.2093
einture	-12.21
▁dooni	-12.2102
▁oos	-12.2103
sses	-12.2104
▁emporter	-12.2105
jala	-12.2105
▁réunir	-12.2111
▁amulette	-12.2114
table	-12.2116
▁Bésu	-12.212
araa	-12.212
estr	-12.2121
accepterai	-12.2122
axi	-12.2133
kkee	-12.2134
▁lib	-12.2135
jecti	-12.2136
isé	-12.2137
àllu	-12.2138
bant	-12.2139
blot	-12.2143
▁nagam	-12.2143
▁mettai	-12.2156
▁Simi	-12.2157
béeru	-12.2159
▁tables	-12.2163
▁gant	-12.217
▁répara	-12.2178
▁Ek	-12.2179
▁découpe	-12.218
▁Cite	-12.2181
cal	-12.2182
▁vaine	-12.2184
▁pant	-12.2185
▁jalgandi	-12.2185
▁nafa	-12.2186
antoo	-12.2203
▁abus	-12.2203
▁décore	-12.2205
ajaa	-12.2207
▁muusant	-12.2208
▁àddinaa	-12.2208
▁ndàn	-12.221
▁fronc	-12.2212
▁coque	-12.2217
▁jaaykat	-12.2221
▁mudd	-12.2228
aaxental	-12.223
▁capo	-12.2235
ï	-12.2235
▁barre	-12.2237
uche	-12.2238
fit	-12.2239
▁Ñent	-12.2246
étend	-12.2247
oque	-12.2249
▁autorit	-12.2254
Roug	-12.2256
bànd	-12.2258
rgent	-12.2259
▁Ras	-12.2262
dombog	-12.2275
ises	-12.2286
wó	-12.2287
àdde	-12.229
▁nodd	-12.2293
chaîn	-12.2309
▁Lo	-12.2311
▁maab	-12.2311
▁dram	-12.2321
▁déb	-12.2322
ign	-12.2328
▁Die	-12.2334
vite	-12.2334
▁Pr	-12.2334
▁njuu	-12.2336
▁fanq	-12.2337
▁résur	-12.2337
▁décompose	-12.2339
▁Mànd	-12.2345
rine	-12.2347
▁roche	-12.2349
ngoo	-12.2351
▁yooya	-12.2356
ja	-12.2366
▁calcule	-12.237
niers	-12.2373
▁Jana	-12.2374
okh	-12.2378
▁rën	-12.2378
▁réajuste	-12.2379
▁masc	-12.2384
onner	-12.2385
▁antip	-12.2386
▁multiplie	-12.2387
▁ad	-12.2388
assure	-12.2389
▁sox	-12.239
rer	-12.239
▁pédo	-12.2391
▁Angal	-12.2398
▁cassera	-12.2405
rti	-12.2405
mbo	-12.2415
urwaa	-12.2416
hnique	-12.2416
occupera	-12.2425
rique	-12.2426
▁jaare	-12.2427
laax	-12.2428
▁mbà	-12.2429
semblé	-12.2432
▁gom	-12.2433
▁nab	-12.2433
▁Daj	-12.2434
okkale	-12.2435
▁penche	-12.2437
▁kara	-12.2446
▁Adac	-12.2451
▁inte	-12.2456
aane	-12.2459
opin	-12.2465
enu	-12.2466
yaam	-12.2469
▁pla	-12.2471
▁engendre	-12.2488
dde	-12.249
dou	-12.2493
eexal	-12.2504
aamu	-12.2506
▁enveloppe	-12.2509
▁musl	-12.2509
baru	-12.2512
▁banque	-12.2513
▁sof	-12.2517
▁chauff	-12.2518
▁ndugge	-12.2519
asse	-12.2527
▁Kast	-12.2531
ñeek	-12.2534
▁quitt	-12.2542
▁Tër	-12.2546
enfonce	-12.2553
▁fier	-12.2556
exerc	-12.2562
gard	-12.2567
omme	-12.2571
óoru	-12.2577
▁jeexa	-12.2577
▁mbuu	-12.2579
rends	-12.258
kum	-12.2584
ànti	-12.2586
senega	-12.2589
▁dieux	-12.2589
▁Jàkk	-12.2592
▁arrives	-12.2592
▁jànge	-12.2593
▁déboucha	-12.2593
▁trépi	-12.2594
hameaux	-12.2596
▁portion	-12.2597
▁sco	-12.2599
▁prendrai	-12.2601
▁serai	-12.2604
▁Bokku	-12.2604
soŋ	-12.2605
andi	-12.2608
aali	-12.261
anaa	-12.2616
saa	-12.262
yéwén	-12.2623
▁préfér	-12.2623
▁conf	-12.2624
▁ac	-12.2626
inu	-12.2629
▁wà	-12.263
▁jélal	-12.263
▁distra	-12.2637
▁yen	-12.265
leine	-12.265
▁soriwu	-12.2667
▁enc	-12.2676
▁défil	-12.2677
ww	-12.2678
▁xé	-12.2687
ekk	-12.269
▁joote	-12.2697
▁Siid	-12.2701
▁Xay	-12.2702
ooje	-12.2702
▁danañ	-12.2704
▁Sarax	-12.2704
▁xari	-12.2705
▁Ree	-12.2706
▁fà	-12.2712
adeau	-12.2712
▁Yée	-12.2712
endorm	-12.2717
aga	-12.2719
venir	-12.272
▁sawaru	-12.272
▁yà	-12.2722
▁enlèvera	-12.2723
▁dà	-12.2723
▁Njam	-12.2727
▁grille	-12.2732
▁degg	-12.2737
▁buru	-12.2741
mmal	-12.2742
attaqu	-12.2749
▁barbo	-12.2756
hor	-12.2759
▁reconnaiss	-12.2759
nka	-12.2761
▁chanter	-12.2775
nesil	-12.2775
ada	-12.2777
▁ràkka	-12.2781
waas	-12.2789
ria	-12.2792
▁conserv	-12.2796
▁rela	-12.2797
▁Ja	-12.2799
uillé	-12.2803
▁Dóo	-12.2806
▁kombo	-12.2807
▁rocc	-12.2817
tige	-12.2818
▁àbb	-12.2819
sag	-12.282
▁ter	-12.2821
▁seek	-12.2822
▁diver	-12.2824
ërngalu	-12.2829
▁wëraa	-12.2833
eni	-12.2833
▁fekku	-12.2835
▁avai	-12.2839
▁waxam	-12.2839
▁lot	-12.2839
▁violente	-12.284
parts	-12.2843
andal	-12.2851
▁naxantee	-12.2859
▁wé	-12.286
aut	-12.286
▁spécial	-12.2864
cëk	-12.2889
▁xiin	-12.289
▁chevr	-12.2891
▁poulai	-12.2896
▁risqu	-12.2898
ienvenue	-12.2902
▁Patien	-12.2903
wale	-12.2906
bir	-12.2911
▁Bër	-12.2916
▁orange	-12.2918
nqal	-12.2919
▁Dada	-12.2921
▁pey	-12.2922
▁jàllal	-12.2926
nati	-12.2934
lóo	-12.2936
▁huile	-12.2943
ñi	-12.295
viens	-12.2952
êtes	-12.2958
▁crott	-12.296
▁gliss	-12.2961
▁Wooy	-12.297
▁dette	-12.2976
raab	-12.2979
▁Rid	-12.2979
lées	-12.298
mel	-12.2982
▁brad	-12.2984
▁côtés	-12.2992
▁enferm	-12.3001
▁cous	-12.3002
▁Ver	-12.3003
raj	-12.3005
▁ngale	-12.3005
▁puise	-12.301
▁agit	-12.3011
▁paysan	-12.3014
▁indig	-12.3015
meaux	-12.3017
iis	-12.3019
aabi	-12.3025
▁Bile	-12.3029
illage	-12.3029
▁Jamm	-12.303
▁géer	-12.3034
feutre	-12.3037
▁jotagu	-12.3041
▁yées	-12.3043
gentes	-12.3048
▁balai	-12.3051
▁lonkal	-12.3053
loué	-12.3053
▁pers	-12.3053
▁kal	-12.3061
galu	-12.3062
▁citro	-12.3068
▁singal	-12.3073
moulu	-12.3075
▁représent	-12.3078
alalu	-12.3079
▁mbaru	-12.3081
ñam	-12.3084
ggul	-12.3084
▁réveill	-12.3086
lot	-12.3093
oro	-12.3097
asseye	-12.3106
eeñeer	-12.3108
risée	-12.311
jante	-12.3132
entasse	-12.3136
rmet	-12.3137
ñoom	-12.3138
mbaalu	-12.315
E	-12.315
▁aise	-12.315
ano	-12.3151
▁band	-12.3155
▁bistr	-12.3155
▁échapp	-12.316
▁Bind	-12.3162
oowuñu	-12.3165
▁bla	-12.3179
ëxée	-12.318
occu	-12.318
▁fent	-12.3183
aveur	-12.3183
▁saan	-12.3189
àjji	-12.319
axkoon	-12.3196
ono	-12.3196
▁dor	-12.3197
▁tromper	-12.3199
▁Gàng	-12.3203
▁feign	-12.3204
▁gaawe	-12.3205
▁wonn	-12.3216
▁remarque	-12.3216
▁amaa	-12.322
▁heurt	-12.3234
▁jekka	-12.3237
▁reçue	-12.3247
ñaan	-12.3252
rises	-12.3259
▁fam	-12.3262
▁dalu	-12.3267
accompagnera	-12.3269
▁app	-12.3291
mon	-12.3292
parenté	-12.3298
̺ŋa	-12.3298
▁bëtu	-12.3302
▁Ànd	-12.3303
gramme	-12.3304
lasi	-12.3304
▁franc	-12.3307
▁désa	-12.3311
▁rass	-12.3311
seau	-12.3319
▁acco	-12.3319
ornes	-12.332
▁fakk	-12.3329
▁jàn	-12.3329
▁xub	-12.3329
▁mënal	-12.333
déef	-12.3336
▁buub	-12.3339
▁soor	-12.3339
dig	-12.334
▁saas	-12.3342
yons	-12.3342
▁refil	-12.3343
▁Gol	-12.3346
óol	-12.3357
ňe	-12.3357
▁neñ	-12.3358
tueuse	-12.3361
aadoolo	-12.3362
vu	-12.3362
▁couvr	-12.3365
▁ndoxu	-12.3367
▁ndim	-12.338
assine	-12.3401
ttant	-12.3409
▁jaayaat	-12.3414
sung	-12.3417
faan	-12.3428
▁jëkkant	-12.3434
ëfinam	-12.3439
▁ânes	-12.3441
oggal	-12.3445
▁essai	-12.3452
sique	-12.3457
▁biiw	-12.3459
ejje	-12.3459
guer	-12.3464
ankal	-12.3467
▁Cour	-12.3469
asin	-12.3477
kan	-12.3484
▁Déca	-12.3488
nais	-12.3491
voûté	-12.3492
▁devoir	-12.3493
ouffant	-12.3494
gan	-12.3499
àngal	-12.351
ttre	-12.3511
▁Coow	-12.3512
ëq	-12.3521
▁Mey	-12.3522
ndu	-12.3524
▁Séer	-12.3529
▁Gann	-12.3532
adolescent	-12.3538
▁carré	-12.3541
▁jubu	-12.3542
▁agg	-12.3545
▁échangea	-12.3547
agg	-12.3563
▁apportai	-12.357
▁gé	-12.3572
neux	-12.3573
vre	-12.3575
▁Nees	-12.3578
uer	-12.3581
▁soppul	-12.3582
àmpu	-12.3594
▁imper	-12.3605
xaw	-12.3605
▁jànqu	-12.3609
oonte	-12.3613
amin	-12.3616
àccoor	-12.3619
▁statue	-12.3619
▁taxi	-12.3623
▁Tim	-12.3624
ayum	-12.3633
pain	-12.3638
▁Pet	-12.3649
garab	-12.3653
oublies	-12.3655
tient	-12.3656
etourne	-12.3663
foncée	-12.3664
▁tr	-12.3681
onné	-12.3684
ayu	-12.3692
éreux	-12.3694
ospital	-12.3703
voûte	-12.3711
▁jume	-12.3712
iiriir	-12.3719
xaam	-12.3723
entiers	-12.3732
teau	-12.3732
évente	-12.3743
ens	-12.3743
thé	-12.3749
ipite	-12.3763
ification	-12.3766
ner	-12.3766
▁mujju	-12.3769
▁infirm	-12.3774
▁ñé	-12.3776
ompaa	-12.3781
kon	-12.3781
émi	-12.3785
jàppul	-12.3785
uti	-12.3787
ggagul	-12.3787
uróo	-12.3796
▁gerce	-12.3796
▁geenu	-12.3802
dom	-12.3809
▁gànj	-12.3813
▁amer	-12.3815
llent	-12.3817
▁xàn	-12.3825
aîtrise	-12.3845
activ	-12.3852
ueux	-12.3852
▁Bañ	-12.3857
▁signifie	-12.3859
saw	-12.386
▁Certaine	-12.387
patam	-12.387
teer	-12.3871
▁copie	-12.3871
▁vider	-12.3872
ssois	-12.3873
▁mànd	-12.3877
▁Way	-12.3878
ouvrira	-12.3881
▁fouettai	-12.39
▁taf	-12.39
▁Ava	-12.3903
▁emporte	-12.3905
▁Ñen	-12.3914
ible	-12.3915
muuti	-12.3918
précise	-12.392
maag	-12.3924
▁bouscul	-12.393
amaat	-12.3935
▁fourni	-12.3939
rouillée	-12.3941
▁Kaar	-12.3945
gegenaay	-12.3949
offre	-12.3951
▁exc	-12.3952
raax	-12.3953
▁succ	-12.3961
▁occup	-12.3964
irland	-12.3965
▁kóo	-12.3971
▁rit	-12.3976
▁Nge	-12.3977
ndandoo	-12.3978
rale	-12.3978
▁écrase	-12.3979
▁muuroo	-12.3979
tis	-12.3981
waree	-12.3981
▁versera	-12.3987
▁embr	-12.3994
▁garg	-12.3995
augment	-12.4002
▁fourre	-12.4005
eeñ	-12.401
▁bra	-12.4012
poto	-12.4021
deur	-12.4031
▁ňaa	-12.4038
hanti	-12.4044
volant	-12.4047
uuraay	-12.4058
▁oeil	-12.4059
▁ñàkku	-12.4063
rabe	-12.4064
▁sour	-12.4069
uufu	-12.4094
▁excl	-12.4102
▁Laax	-12.4115
▁mét	-12.4119
gërëm	-12.4121
zin	-12.4124
▁attribue	-12.4125
▁defaral	-12.4135
▁lakkal	-12.4141
aaxoñ	-12.4152
▁tamis	-12.4157
àngi	-12.4159
▁isolée	-12.4163
▁trompe	-12.4171
cteur	-12.4175
enferm	-12.4181
kadd	-12.4184
▁enserr	-12.4194
▁Samp	-12.4209
érén	-12.4211
▁Malheur	-12.4226
pon	-12.4229
utour	-12.4231
bayre	-12.4242
iggéeykat	-12.427
meur	-12.4281
ad	-12.4285
▁préserv	-12.429
liis	-12.43
▁mani	-12.4303
trait	-12.4307
▁futti	-12.4313
▁Ruu	-12.4329
▁har	-12.4338
assi	-12.4341
▁gourd	-12.4343
tade	-12.4347
lution	-12.4354
nés	-12.4358
tula	-12.4358
▁faisa	-12.4365
pions	-12.4366
ecc	-12.4378
pour	-12.438
ences	-12.4386
ause	-12.4391
aloo	-12.4394
amina	-12.4395
ŋi	-12.44
▁vanit	-12.441
▁njañ	-12.4411
▁rep	-12.4411
▁sakk	-12.4412
▁promena	-12.4422
stéri	-12.4423
▁coquill	-12.4428
▁creuse	-12.4431
▁làññ	-12.4433
tends	-12.4439
ikk	-12.4444
ives	-12.4444
▁duuma	-12.4453
▁revi	-12.4458
diction	-12.4463
L	-12.4469
▁njab	-12.4473
▁Bëgguloo	-12.4479
limité	-12.4485
ubal	-12.4485
yi	-12.4486
▁teqal	-12.4487
▁neey	-12.4489
ëngoo	-12.4491
▁kobo	-12.4493
anal	-12.4509
▁Mfo	-12.4512
rets	-12.453
landaise	-12.4532
▁Fóo	-12.4537
▁Séex	-12.4539
▁Lim	-12.4539
perçu	-12.454
▁Gaw	-12.4543
igna	-12.4568
naase	-12.4575
▁raccorde	-12.4581
achevée	-12.4591
errer	-12.4602
ég	-12.4605
ñii	-12.4607
couvertes	-12.4607
stin	-12.4609
▁regrett	-12.4615
waani	-12.4618
▁vieillis	-12.4618
óli	-12.4619
▁cotonn	-12.4622
eefu	-12.4625
op	-12.463
nc	-12.4645
▁jomb	-12.4649
uille	-12.4652
likoo	-12.4654
tors	-12.4662
▁ñemewu	-12.4662
édi	-12.4666
isoŋ	-12.4681
▁devi	-12.4693
rou	-12.47
▁xéye	-12.4704
laça	-12.4719
▁effe	-12.4719
▁Bat	-12.4719
▁nara	-12.4754
gère	-12.476
▁Ndia	-12.4763
éexal	-12.4764
ggu	-12.4774
▁Gl	-12.478
utisme	-12.478
▁ombre	-12.4791
▁gro	-12.4793
▁choi	-12.4796
▁soucie	-12.4802
▁écr	-12.4808
▁Bamb	-12.4809
▁sali	-12.4809
▁Yàkk	-12.4811
okule	-12.4812
▁déy	-12.482
uloon	-12.4822
▁foncé	-12.4822
raada	-12.4824
mbës	-12.4825
▁gen	-12.4831
▁Ndee	-12.484
estom	-12.4845
mbaar	-12.4853
▁Ven	-12.4857
▁ling	-12.4859
erie	-12.486
▁sien	-12.4862
▁caf	-12.4866
▁null	-12.487
▁voyager	-12.4874
éeru	-12.4881
biner	-12.4887
vrage	-12.4888
natula	-12.4901
ooñ	-12.4912
▁Sañ	-12.4912
▁enten	-12.4915
tisme	-12.4917
aguma	-12.4929
ës	-12.4935
alla	-12.4939
▁Hu	-12.494
▁maîtr	-12.4944
kkale	-12.4953
ratté	-12.4958
▁ngo	-12.4963
▁carac	-12.4966
▁directe	-12.4968
lleuse	-12.4974
▁secou	-12.4978
▁san	-12.498
afa	-12.4984
spora	-12.4993
▁raxase	-12.5006
▁rival	-12.501
▁Paj	-12.501
▁vivante	-12.5013
óobal	-12.5017
uwuñu	-12.5017
eñu	-12.5018
axasoo	-12.502
▁menu	-12.5034
cercle	-12.5044
▁Ndi	-12.5049
▁fooy	-12.507
rmi	-12.5073
▁Don	-12.5076
▁gala	-12.5084
oulé	-12.51
▁Wé	-12.5109
han	-12.5112
vin	-12.5116
▁Fey	-12.5132
saň	-12.5139
▁corn	-12.5142
▁entourée	-12.5145
▁dev	-12.5149
▁Care	-12.5152
▁rach	-12.5154
rgal	-12.5155
aï	-12.5162
▁arrivera	-12.5168
▁mbé	-12.5175
egeju	-12.5175
▁plair	-12.5175
ieuse	-12.5177
teel	-12.5177
▁bó	-12.5179
▁rajout	-12.5186
▁ñemee	-12.519
eppaaru	-12.5191
ira	-12.5198
gori	-12.5198
▁tenq	-12.5199
▁soppu	-12.5205
ñal	-12.5207
▁herbe	-12.5212
▁gaawu	-12.5213
▁emport	-12.5214
ébra	-12.5215
▁tira	-12.5221
▁koko	-12.5229
aana	-12.523
dem	-12.5233
ernie	-12.5245
▁Gé	-12.5245
ceen	-12.5247
▁jëfin	-12.5252
▁remp	-12.5255
▁solid	-12.5259
̺ŋ	-12.5273
▁ref	-12.528
▁tapp	-12.5282
ànjar	-12.5283
min	-12.5284
ireeku	-12.5284
▁Siis	-12.5288
▁lame	-12.5291
▁Nes	-12.5292
ekum	-12.53
jab	-12.531
▁Joxee	-12.5318
▁final	-12.5329
▁Kë	-12.533
▁tambaa	-12.5331
beem	-12.5333
▁Nji	-12.5335
▁Wë	-12.534
▁Faj	-12.5341
▁Nëg	-12.535
moom	-12.5353
sóor	-12.5356
▁menti	-12.5372
illon	-12.5373
etit	-12.5375
▁sala	-12.5382
endent	-12.5384
allax	-12.5388
▁Mënu	-12.5391
▁bag	-12.5396
▁Lem	-12.5398
▁insta	-12.541
bouché	-12.5438
ommages	-12.5439
▁ros	-12.5442
anique	-12.5443
entrelace	-12.5452
▁Doxa	-12.546
▁Asee	-12.5463
ouest	-12.5475
ndant	-12.5478
▁janaa	-12.5483
accept	-12.5486
èvre	-12.5487
araam	-12.549
armat	-12.5496
aisons	-12.5499
aŋas	-12.5502
▁mokku	-12.5504
▁muccu	-12.5508
guru	-12.5508
énerv	-12.5508
lek	-12.5514
nni	-12.5518
orale	-12.5519
iti	-12.5523
▁dégoût	-12.5526
▁dàjj	-12.5529
commode	-12.553
ice	-12.553
▁mainten	-12.5534
▁montra	-12.5547
▁liit	-12.5552
oyée	-12.5554
quette	-12.5562
baax	-12.5572
▁Poo	-12.5572
▁Aja	-12.5581
aati	-12.5583
▁accout	-12.5586
xa	-12.5589
tukaay	-12.56
▁inde	-12.5601
▁pourr	-12.5608
teek	-12.5612
▁Fou	-12.5617
aax	-12.562
ennent	-12.5638
▁déport	-12.5644
skan	-12.5645
▁têtes	-12.5649
▁Defar	-12.5681
raam	-12.5685
▁indiloo	-12.569
baane	-12.5701
▁navet	-12.5705
outre	-12.571
kor	-12.5718
ëtu	-12.572
ib	-12.5721
▁xeeb	-12.5729
ombe	-12.5738
▁aaye	-12.5738
▁allusi	-12.574
▁É	-12.5749
▁jama	-12.5754
uste	-12.5763
venue	-12.5765
him	-12.5768
▁lucid	-12.5775
dal	-12.5791
▁permettr	-12.5794
▁Tamar	-12.5795
▁rig	-12.5796
▁xewal	-12.5803
atee	-12.5823
▁ho	-12.5828
ñoñ	-12.5831
fini	-12.5838
gante	-12.5845
▁dégét	-12.5867
▁jouis	-12.5872
▁Mëne	-12.5875
ekku	-12.5878
ination	-12.5878
dongo	-12.5879
érige	-12.5889
▁croi	-12.5892
▁arrête	-12.5892
▁beroo	-12.5906
▁xaa	-12.5907
▁examin	-12.5926
▁Séet	-12.5945
achi	-12.5945
▁mus	-12.5951
▁germ	-12.5952
▁suce	-12.5953
▁rentrera	-12.5954
endorme	-12.5994
▁révolt	-12.5996
▁sand	-12.5997
àngo	-12.5997
agne	-12.6001
retam	-12.6008
▁Wotoo	-12.6011
▁coc	-12.6011
attendai	-12.6024
fermées	-12.6027
aaxi	-12.603
▁gane	-12.6036
▁Ñé	-12.6041
▁balanç	-12.6051
▁yaxu	-12.6051
awoor	-12.6054
ngle	-12.6056
xolle	-12.6059
oussette	-12.6059
▁vir	-12.6064
▁ndà	-12.607
àndi	-12.6071
tou	-12.61
écoutera	-12.6103
▁fouett	-12.6103
conduis	-12.6105
accepter	-12.611
▁lumb	-12.6122
enivr	-12.6127
▁adolescen	-12.6152
▁sévi	-12.6159
▁tru	-12.6162
san	-12.6172
▁bru	-12.6172
imé	-12.6175
▁im	-12.6184
▁contente	-12.6189
▁Jeex	-12.619
eket	-12.6202
élevé	-12.6213
▁rapproch	-12.6213
▁Maraa	-12.6214
▁Rë	-12.6217
uwaal	-12.6223
ueuse	-12.6227
jiitl	-12.6235
abab	-12.6237
kkaale	-12.6237
enfonc	-12.6244
▁nib	-12.6249
▁loot	-12.6252
baxal	-12.6266
▁sësoo	-12.629
▁construis	-12.6297
iel	-12.6302
▁Ib	-12.6303
▁Gë	-12.6304
éem	-12.6305
▁tefesu	-12.6306
yyi	-12.6312
ison	-12.6312
ssine	-12.6333
passe	-12.6337
▁réveilla	-12.634
adique	-12.6343
▁gr	-12.6345
èce	-12.635
ends	-12.6357
iner	-12.6368
èche	-12.6379
▁commémore	-12.6388
nveloppe	-12.6389
▁aval	-12.6389
▁retarde	-12.6389
appal	-12.6392
▁Abi	-12.6401
éc	-12.6403
goom	-12.641
▁Salaa	-12.6411
njaay	-12.6411
▁opi	-12.6417
emul	-12.6427
nnie	-12.643
kas	-12.6449
offr	-12.6458
aabal	-12.6463
▁kën	-12.6466
olloo	-12.6466
▁Lëkk	-12.6475
resse	-12.6478
wulee	-12.6486
anté	-12.6486
▁multipli	-12.6487
▁réajust	-12.65
▁envelopp	-12.6503
roit	-12.6504
▁calcul	-12.6513
lore	-12.6514
▁déchire	-12.6517
▁engendr	-12.6518
▁suc	-12.6535
▁daga	-12.6536
olkolaat	-12.6542
▁Bàkk	-12.6545
▁transporta	-12.6554
▁capture	-12.6555
ase	-12.6558
ied	-12.6562
▁décompos	-12.6562
▁tourn	-12.6566
àkku	-12.6569
eignent	-12.6571
éebam	-12.6573
veur	-12.6579
▁Moytu	-12.6582
▁emmen	-12.6583
▁dencu	-12.6589
aînés	-12.66
ànda	-12.6602
abu	-12.6609
ooke	-12.661
angoo	-12.661
ntèrent	-12.6613
▁gadd	-12.6617
sukaay	-12.6617
alu	-12.6626
cès	-12.6627
▁gob	-12.6627
▁dansé	-12.6637
yar	-12.6643
▁convi	-12.6644
▁jale	-12.6664
▁Rà	-12.6666
nki	-12.6668
▁fus	-12.6668
[...]
