{
  "version": "1.0",
  "truncation": null,
  "padding": null,
  "added_tokens": [
    {
      "id": 0,
      "content": "<cls>",
      "single_word": false,
      "lstrip": false,
      "rstrip": false,
      "normalized": false,
      "special": true
    },
    {
      "id": 1,
      "content": "<sep>",
      "single_word": false,
      "lstrip": false,
      "rstrip": false,
      "normalized": false,
      "special": true
    },
    {
      "id": 2,
      "content": "<unk>",
      "single_word": false,
      "lstrip": false,
      "rstrip": false,
      "normalized": false,
      "special": true
    },
    {
      "id": 3,
      "content": "<pad>",
      "single_word": false,
      "lstrip": false,
      "rstrip": false,
      "normalized": false,
      "special": true
    },
    {
      "id": 4,
      "content": "<mask>",
      "single_word": false,
      "lstrip": false,
      "rstrip": false,
      "normalized": false,
      "special": true
    },
    {
      "id": 5,
      "content": "<s>",
      "single_word": false,
      "lstrip": false,
      "rstrip": false,
      "normalized": false,
      "special": true
    },
    {
      "id": 6,
      "content": "</s>",
      "single_word": false,
      "lstrip": false,
      "rstrip": false,
      "normalized": false,
      "special": true
    }
  ],
  "normalizer": {
    "type": "Replace",
    "pattern": {
      "String": " {2,}"
    },
    "content": " "
  },
  "pre_tokenizer": {
    "type": "Metaspace",
    "replacement": "▁",
    "add_prefix_space": true
  },
  "post_processor": null,
  "decoder": {
    "type": "Metaspace",
    "replacement": "▁",
    "add_prefix_space": true
  },
  "model": {
    "type": "Unigram",
    "unk_id": 2,
    "vocab": [
      [
        "<cls>",
        0.0
      ],
      [
        "<sep>",
        0.0
      ],
      [
        "<unk>",
        0.0
      ],
      [
        "<pad>",
        0.0
      ],
      [
        "<mask>",
        0.0
      ],
      [
        "<s>",
        0.0
      ],
      [
        "</s>",
        0.0
      ],
      [
        ",",
        -2.90857322771482
      ],
      [
        "▁",
        -3.154259208300541
      ],
      [
        ".",
        -3.434876807585839
      ],
      [
        "▁de",
        -4.088420410182221
      ],
      [
        "s",
        -4.123997896307168
      ],
      [
        "▁la",
        -4.240449997918155
      ],
      [
        "e",
        -4.567067017154674
      ],
      [
        "▁ci",
        -4.652434848486258
      ],
      [
        "y",
        -4.672879468867937
      ],
      [
        "i",
        -4.673844228524095
      ],
      [
        "u",
        -4.999263892747554
      ],
      [
        "▁a",
        -5.035710671604292
      ],
      [
        "a",
        -5.068524219921489
      ],
      [
        "▁les",
        -5.161192194807864
      ],
      [
        "▁à",
        -5.171948147782016
      ],
      [
        "▁mu",
        -5.264571768366735
      ],
      [
        "t",
        -5.278151316743641
      ],
      [
        "▁ma",
        -5.2831727364846195
      ],
      [
        "▁des",
        -5.301179389877326
      ],
      [
        "▁ni",
        -5.315419092018003
      ],
      [
        "▁le",
        -5.3353447873996735
      ],
      [
        "▁et",
        -5.398690996638496
      ],
      [
        "▁ba",
        -5.434013504719033
      ],
      [
        "r",
        -5.436827624724462
      ],
      [
        "▁qui",
        -5.462223287012752
      ],
      [
        "▁que",
        -5.463277811208527
      ],
      [
        "▁du",
        -5.476265982914526
      ],
      [
        "▁di",
        -5.493748897708952
      ],
      [
        "ak",
        -5.501785623507673
      ],
      [
        "▁ko",
        -5.526285995430223
      ],
      [
        "▁na",
        -5.547504680349073
      ],
      [
        "▁bi",
        -5.633635585693467
      ],
      [
        "▁ne",
        -5.6570824684961325
      ],
      [
        "▁yi",
        -5.6868322935948745
      ],
      [
        "▁un",
        -5.694288598449753
      ],
      [
        "n",
        -5.699273615424436
      ],
      [
        "▁gi",
        -5.73109870246055
      ],
      [
        "▁dans",
        -5.73313124953803
      ],
      [
        "▁pas",
        -5.784696481125515
      ],
      [
        "▁ñu",
        -5.820720125525917
      ],
      [
        "▁en",
        -5.862208570161871
      ],
      [
        "▁yu",
        -5.894136601087195
      ],
      [
        "l",
        -5.953274694514156
      ],
      [
        "▁bu",
        -5.965473835256986
      ],
      [
        "▁fa",
        -6.047145872348497
      ],
      [
        "▁sama",
        -6.056797322654867
      ],
      [
        "▁seen",
        -6.063828479972373
      ],
      [
        "▁dem",
        -6.067181685535364
      ],
      [
        "▁te",
        -6.078025929227329
      ],
      [
        "▁woon",
        -6.087658157401765
      ],
      [
        "▁naa",
        -6.092538455515172
      ],
      [
        "▁pour",
        -6.0925833293176765
      ],
      [
        "▁est",
        -6.101080439363598
      ],
      [
        "!",
        -6.114654725382611
      ],
      [
        "▁son",
        -6.1247049622314
      ],
      [
        "▁Il",
        -6.155042577856416
      ],
      [
        "et",
        -6.155626279519292
      ],
      [
        ":",
        -6.161992494739728
      ],
      [
        "▁daan",
        -6.1673680593695135
      ],
      [
        "'est",
        -6.213058864567002
      ],
      [
        "c",
        -6.2204135431993
      ],
      [
        "▁sa",
        -6.232702220848498
      ],
      [
        "une",
        -6.241634436852375
      ],
      [
        "▁qu'il",
        -6.241843775137077
      ],
      [
        "▁au",
        -6.251934511349074
      ],
      [
        "▁ca",
        -6.254901453254991
      ],
      [
        "k",
        -6.2640864131005785
      ],
      [
        "▁par",
        -6.2691088528111685
      ],
      [
        "oon",
        -6.27531065819343
      ],
      [
        "▁doon",
        -6.292532733395671
      ],
      [
        "▁je",
        -6.300874063524612
      ],
      [
        "▁ce",
        -6.305270215230878
      ],
      [
        "▁lu",
        -6.321822108970032
      ],
      [
        "▁mon",
        -6.335470640598382
      ],
      [
        "é",
        -6.34400669275194
      ],
      [
        "▁père",
        -6.352507056503665
      ],
      [
        "ent",
        -6.393287389378833
      ],
      [
        "▁ngi",
        -6.403878089064872
      ],
      [
        "▁il",
        -6.415594181267828
      ],
      [
        "▁leen",
        -6.419796521405639
      ],
      [
        "▁Baay",
        -6.422922391699074
      ],
      [
        "▁C",
        -6.4257411028638245
      ],
      [
        "▁ŋga",
        -6.458202328721762
      ],
      [
        "▁mi",
        -6.463207088175635
      ],
      [
        "▁l'",
        -6.4657345181303265
      ],
      [
        "▁sur",
        -6.4947502632190055
      ],
      [
        "à",
        -6.50696256180773
      ],
      [
        "▁Afrig",
        -6.518184858120556
      ],
      [
        "▁wax",
        -6.525214158651269
      ],
      [
        "er",
        -6.535463284306774
      ],
      [
        "▁vu",
        -6.543738444037593
      ],
      [
        "am",
        -6.546068507299219
      ],
      [
        "▁Je",
        -6.555145226202242
      ],
      [
        "▁ya",
        -6.5606383390310175
      ],
      [
        "le",
        -6.570140819662779
      ],
      [
        "ait",
        -6.591177405499422
      ],
      [
        "▁c",
        -6.594063754013372
      ],
      [
        "▁ave",
        -6.59501604200342
      ],
      [
        "▁sax",
        -6.623959687022042
      ],
      [
        "es",
        -6.627709620707784
      ],
      [
        "▁se",
        -6.627752073088975
      ],
      [
        "?",
        -6.6591401950354605
      ],
      [
        "▁ay",
        -6.662928652367146
      ],
      [
        "▁d",
        -6.668931360460861
      ],
      [
        "m",
        -6.676736114827886
      ],
      [
        "▁nit",
        -6.693983168229059
      ],
      [
        "▁Gis",
        -6.705814489967633
      ],
      [
        "«",
        -6.7075541345949
      ],
      [
        "nt",
        -6.718831281985413
      ],
      [
        "g",
        -6.721474920110215
      ],
      [
        "al",
        -6.7352964895155925
      ],
      [
        "▁nu",
        -6.741504337326724
      ],
      [
        "▁moo",
        -6.758839159922155
      ],
      [
        "▁si",
        -6.765993545197395
      ],
      [
        "▁su",
        -6.778746400601636
      ],
      [
        "les",
        -6.781643848062057
      ],
      [
        "que",
        -6.792983632701821
      ],
      [
        "▁moom",
        -6.795140510966984
      ],
      [
        "▁lui",
        -6.796927336373171
      ],
      [
        "▁d'un",
        -6.802092862530089
      ],
      [
        "▁J'a",
        -6.80901436070228
      ],
      [
        "▁gis",
        -6.822589607318713
      ],
      [
        "▁nous",
        -6.822852511714329
      ],
      [
        "▁plus",
        -6.843983812575601
      ],
      [
        "▁li",
        -6.8561223665678535
      ],
      [
        "▁avait",
        -6.872808454186079
      ],
      [
        "▁L'homme",
        -6.872895168967785
      ],
      [
        "▁tu",
        -6.880783262480202
      ],
      [
        "▁s",
        -6.883180271841887
      ],
      [
        "▁ñëw",
        -6.885041360598587
      ],
      [
        "▁mel",
        -6.896841402804427
      ],
      [
        "b",
        -6.8978386513792165
      ],
      [
        "▁am",
        -6.915302671666473
      ],
      [
        "it",
        -6.920396970812726
      ],
      [
        "▁benn",
        -6.92499831472849
      ],
      [
        "-",
        -6.925284920314597
      ],
      [
        "▁homme",
        -6.92670665690963
      ],
      [
        "▁l'homme",
        -6.929122838244634
      ],
      [
        "▁kenn",
        -6.940640887864477
      ],
      [
        "▁ku",
        -6.94085321837862
      ],
      [
        "▁nga",
        -6.947360186157599
      ],
      [
        "ul",
        -6.955111614455341
      ],
      [
        "▁góor",
        -6.959498533562713
      ],
      [
        "▁enfants",
        -6.973769733012843
      ],
      [
        "▁biir",
        -6.980525149054225
      ],
      [
        "▁may",
        -6.980867874684734
      ],
      [
        "▁Tu",
        -7.0022300010959295
      ],
      [
        "▁nag",
        -7.0139564280781
      ],
      [
        "il",
        -7.015534751775925
      ],
      [
        "▁Ci",
        -7.026977985722207
      ],
      [
        "▁l",
        -7.037223962930503
      ],
      [
        "d",
        -7.042766784109351
      ],
      [
        "▁d'",
        -7.047649022309329
      ],
      [
        "▁mère",
        -7.0486577954315415
      ],
      [
        "s.",
        -7.0509022027663715
      ],
      [
        "▁tout",
        -7.067296891114578
      ],
      [
        "▁La",
        -7.069820900060308
      ],
      [
        "▁gu",
        -7.092648712438024
      ],
      [
        "▁comme",
        -7.093423926074055
      ],
      [
        "▁ces",
        -7.095176000931667
      ],
      [
        "ment",
        -7.097663714006224
      ],
      [
        "ette",
        -7.104963770924941
      ],
      [
        "ont",
        -7.107384050897434
      ],
      [
        "▁dara",
        -7.1081825320330285
      ],
      [
        "▁nekk",
        -7.113394920285188
      ],
      [
        "▁xam",
        -7.12140237189347
      ],
      [
        "▁cet",
        -7.131546670244991
      ],
      [
        "▁m",
        -7.137436549952561
      ],
      [
        "▁dal",
        -7.137951043786336
      ],
      [
        "▁n",
        -7.14294493946992
      ],
      [
        "▁ju",
        -7.163824544138376
      ],
      [
        "▁fi",
        -7.164422722798418
      ],
      [
        "▁Le",
        -7.168762374152735
      ],
      [
        "te",
        -7.171879153829141
      ],
      [
        "ee",
        -7.178481964040823
      ],
      [
        "oo",
        -7.186981557815425
      ],
      [
        "▁me",
        -7.192625160674094
      ],
      [
        "▁san",
        -7.197357205166071
      ],
      [
        "▁fu",
        -7.202089214937015
      ],
      [
        "▁def",
        -7.2061830059557535
      ],
      [
        "▁rekk",
        -7.206702347666023
      ],
      [
        "x",
        -7.20894109489221
      ],
      [
        "▁ji",
        -7.211682324512309
      ],
      [
        "▁mbaa",
        -7.214877933156219
      ],
      [
        "▁ndax",
        -7.2175624984974105
      ],
      [
        "ñ",
        -7.224895231856179
      ],
      [
        "▁été",
        -7.228608687495303
      ],
      [
        "▁xale",
        -7.231025130458648
      ],
      [
        "▁ou",
        -7.234633572891409
      ],
      [
        "▁ki",
        -7.243022925046342
      ],
      [
        "di",
        -7.244953197003198
      ],
      [
        "leurs",
        -7.246451227090101
      ],
      [
        "▁pays",
        -7.247208230548511
      ],
      [
        "ant",
        -7.2549857716009685
      ],
      [
        "▁gën",
        -7.2569073543274465
      ],
      [
        "▁dëkk",
        -7.259755550978654
      ],
      [
        "on",
        -7.266729033244043
      ],
      [
        "▁ñi",
        -7.266880921468965
      ],
      [
        "▁même",
        -7.276739482473384
      ],
      [
        "eneen",
        -7.283548833619811
      ],
      [
        "▁mën",
        -7.292450285651757
      ],
      [
        "▁était",
        -7.293162390273672
      ],
      [
        "être",
        -7.2945390054620045
      ],
      [
        "▁bëgg",
        -7.296039226765674
      ],
      [
        "▁y",
        -7.300185271044867
      ],
      [
        "o",
        -7.308274009255539
      ],
      [
        "▁c'est",
        -7.328273753064877
      ],
      [
        "▁jigéen",
        -7.331575983757122
      ],
      [
        "▁Su",
        -7.3319241730665095
      ],
      [
        "▁N",
        -7.337033775598448
      ],
      [
        "▁autre",
        -7.337912463482596
      ],
      [
        "▁kër",
        -7.354089908294146
      ],
      [
        "▁D",
        -7.372134514823896
      ],
      [
        "▁lépp",
        -7.392061012888707
      ],
      [
        "▁maison",
        -7.392408255027204
      ],
      [
        "ses",
        -7.393893912149665
      ],
      [
        "re",
        -7.396723094160556
      ],
      [
        "▁laa",
        -7.400679226855502
      ],
      [
        "▁war",
        -7.409966491752615
      ],
      [
        "ils",
        -7.410644779832754
      ],
      [
        "▁baax",
        -7.412812233663471
      ],
      [
        "en",
        -7.427478696172726
      ],
      [
        "▁walla",
        -7.429308002362436
      ],
      [
        "▁yaay",
        -7.438133931213811
      ],
      [
        "aient",
        -7.453382432149609
      ],
      [
        "▁loolu",
        -7.4594814470940864
      ],
      [
        "ay",
        -7.463722775967703
      ],
      [
        "▁Waaye",
        -7.466671779537677
      ],
      [
        "ŋ",
        -7.467008504652775
      ],
      [
        "▁parle",
        -7.472531107814134
      ],
      [
        "▁t",
        -7.484349951799544
      ],
      [
        "▁guerre",
        -7.490179151836969
      ],
      [
        "▁yi.",
        -7.492131707290714
      ],
      [
        "▁Li",
        -7.494272998122552
      ],
      [
        ")",
        -7.494427651421154
      ],
      [
        "▁fait",
        -7.501312260040548
      ],
      [
        "▁moi",
        -7.502322507756752
      ],
      [
        "▁yoon",
        -7.502929620968861
      ],
      [
        "▁aux",
        -7.504348787903279
      ],
      [
        "▁b",
        -7.5050690204719945
      ],
      [
        "▁vie",
        -7.506811537220207
      ],
      [
        "▁yiy",
        -7.507149354526955
      ],
      [
        "▁yooyu",
        -7.508314206963233
      ],
      [
        "▁sunu",
        -7.514076578363927
      ],
      [
        "▁ñaar",
        -7.520880129114994
      ],
      [
        "e.",
        -7.528029187510202
      ],
      [
        "▁A",
        -7.530392282698107
      ],
      [
        "▁temps",
        -7.530617644206712
      ],
      [
        "▁bés",
        -7.531956592526824
      ],
      [
        "▁monde",
        -7.534300710528854
      ],
      [
        "▁cela",
        -7.534976304438963
      ],
      [
        "▁lool",
        -7.536433070256495
      ],
      [
        "▁ŋgi",
        -7.53666780139211
      ],
      [
        "▁G",
        -7.540031318301278
      ],
      [
        "▁mag",
        -7.541225933874433
      ],
      [
        "▁Ogosaa",
        -7.549191731201219
      ],
      [
        "▁L",
        -7.549967930271658
      ],
      [
        "▁Mu",
        -7.5524397858139904
      ],
      [
        "▁là",
        -7.557425528342517
      ],
      [
        "▁dul",
        -7.560973308532233
      ],
      [
        "▁Ma",
        -7.571950052146772
      ],
      [
        "un",
        -7.574660597921337
      ],
      [
        "▁teg",
        -7.577221805866865
      ],
      [
        "▁mais",
        -7.582155681463345
      ],
      [
        "▁demee",
        -7.583193772164309
      ],
      [
        "▁J",
        -7.5919158157308
      ],
      [
        "▁ka",
        -7.594083628399577
      ],
      [
        "▁xel",
        -7.59455584997742
      ],
      [
        "▁gone",
        -7.594620620221041
      ],
      [
        "▁leur",
        -7.596595778953549
      ],
      [
        "▁Te",
        -7.597228082803914
      ],
      [
        "ée",
        -7.600047104685837
      ],
      [
        "▁xar",
        -7.602269311925427
      ],
      [
        "▁fekk",
        -7.617184130525123
      ],
      [
        "▁ñoom",
        -7.624109499118385
      ],
      [
        "▁man",
        -7.633327792306126
      ],
      [
        "▁aussi",
        -7.638949821998615
      ],
      [
        "▁Tugal",
        -7.638994105114351
      ],
      [
        "est",
        -7.648917147489053
      ],
      [
        "▁réew",
        -7.65661402857224
      ],
      [
        "▁so",
        -7.658006296075094
      ],
      [
        "▁femme",
        -7.669013111626427
      ],
      [
        "▁cha",
        -7.671225058224071
      ],
      [
        "▁À",
        -7.671666354338772
      ],
      [
        "▁f",
        -7.672255483243158
      ],
      [
        "▁it",
        -7.681482150745181
      ],
      [
        "▁S",
        -7.684997753771112
      ],
      [
        "▁bopp",
        -7.686251114997718
      ],
      [
        "▁j'a",
        -7.687740717979612
      ],
      [
        "▁yaram",
        -7.6899395079266215
      ],
      [
        "▁doole",
        -7.6904556851757775
      ],
      [
        "▁n'",
        -7.698863477783352
      ],
      [
        "ce",
        -7.70140699091248
      ],
      [
        "woon",
        -7.705226413755771
      ],
      [
        "▁jusqu'",
        -7.709437974934465
      ],
      [
        "▁dit",
        -7.712431550131919
      ],
      [
        "▁yépp",
        -7.713391702327893
      ],
      [
        "▁daf",
        -7.718477462473551
      ],
      [
        "▁yëg",
        -7.723274171671302
      ],
      [
        "▁soo",
        -7.724290647156773
      ],
      [
        "ma",
        -7.725896241075205
      ],
      [
        "yeek",
        -7.728788537587353
      ],
      [
        "▁koo",
        -7.73248159223666
      ],
      [
        "▁tey",
        -7.734134206389217
      ],
      [
        "▁tax",
        -7.735449798943716
      ],
      [
        "▁(",
        -7.736580545294248
      ],
      [
        "▁celui-là",
        -7.738040845907298
      ],
      [
        "▁Mais",
        -7.738509382991756
      ],
      [
        "▁ànd",
        -7.744395119204668
      ],
      [
        "és",
        -7.75226540954591
      ],
      [
        "▁nataal",
        -7.764085490778698
      ],
      [
        "▁boobu",
        -7.765029807142326
      ],
      [
        "is",
        -7.770690398586856
      ],
      [
        "▁p",
        -7.771169664401041
      ],
      [
        "▁amul",
        -7.777339510172455
      ],
      [
        "ci",
        -7.782630369191906
      ],
      [
        "▁jamono",
        -7.791070026292502
      ],
      [
        "▁ñoo",
        -7.812576641276134
      ],
      [
        "▁k",
        -7.814444548165794
      ],
      [
        "▁at",
        -7.821032500512786
      ],
      [
        "▁vous",
        -7.826041189763377
      ],
      [
        "▁xare",
        -7.826431624057026
      ],
      [
        "▁Du",
        -7.8268968552061615
      ],
      [
        "▁dont",
        -7.831476535022828
      ],
      [
        "▁as",
        -7.832514771347986
      ],
      [
        "▁àddina",
        -7.840571100837034
      ],
      [
        "▁ag",
        -7.852233816991635
      ],
      [
        "la",
        -7.852586853388547
      ],
      [
        "de",
        -7.86190894889638
      ],
      [
        "▁rien",
        -7.866161674139249
      ],
      [
        "▁suuf",
        -7.876594071234207
      ],
      [
        "ne",
        -7.876653986712972
      ],
      [
        "▁doŋŋ",
        -7.876782507687615
      ],
      [
        "▁l'intérieur",
        -7.877044055124275
      ],
      [
        "▁i",
        -7.877191787216527
      ],
      [
        "▁En",
        -7.8803244233302925
      ],
      [
        "▁ndaw",
        -7.880623614332357
      ],
      [
        "▁tou",
        -7.881430882363302
      ],
      [
        "▁chose",
        -7.887807118376484
      ],
      [
        "▁sous",
        -7.890008937345041
      ],
      [
        "▁saa",
        -7.890841185052679
      ],
      [
        "ngir",
        -7.894059449074799
      ],
      [
        "eek",
        -7.894557454506721
      ],
      [
        "▁ga",
        -7.896348452426597
      ],
      [
        "▁ja",
        -7.900363484831509
      ],
      [
        ";",
        -7.903769057125583
      ],
      [
        "▁jamais",
        -7.9070337301338105
      ],
      [
        "▁encore",
        -7.907039957549671
      ],
      [
        "▁doute",
        -7.9071017745707275
      ],
      [
        "▁gens",
        -7.909130554197324
      ],
      [
        "▁naan",
        -7.921371407989865
      ],
      [
        "▁mes",
        -7.924247875410462
      ],
      [
        "épp",
        -7.927166301959131
      ],
      [
        "▁waay",
        -7.93058039334291
      ],
      [
        "▁wër",
        -7.9353937419535505
      ],
      [
        "tre",
        -7.93782900984523
      ],
      [
        "▁corps",
        -7.938797366180582
      ],
      [
        "▁Mon",
        -7.939852030493184
      ],
      [
        "▁liggéey",
        -7.940701614492596
      ],
      [
        "f",
        -7.950535537476831
      ],
      [
        "▁bien",
        -7.953888753212576
      ],
      [
        "ions",
        -7.955103594361452
      ],
      [
        "▁àll",
        -7.956148413838718
      ],
      [
        "▁parti",
        -7.958603269800157
      ],
      [
        "▁toog",
        -7.9645862574527335
      ],
      [
        "▁mbir",
        -7.969068379072131
      ],
      [
        "▁Kamerun",
        -7.970518655335619
      ],
      [
        "▁léeg-léeg",
        -7.970646615271076
      ],
      [
        "▁dégg",
        -7.971663985151918
      ],
      [
        "▁dex",
        -7.975859469248244
      ],
      [
        "▁jëm",
        -7.976496551045522
      ],
      [
        "▁n'a",
        -7.977088720984288
      ],
      [
        "▁Tubaab",
        -7.979320711690944
      ],
      [
        "tu",
        -7.989486626374637
      ],
      [
        "w",
        -7.989809114760982
      ],
      [
        "kat",
        -7.991868734800453
      ],
      [
        "▁la.",
        -7.995618911859532
      ],
      [
        "▁kow",
        -7.996885989348527
      ],
      [
        "▁bët",
        -7.999085441507981
      ],
      [
        "▁P",
        -8.000645684604304
      ],
      [
        "▁jóge",
        -8.001151574575115
      ],
      [
        "▁partir",
        -8.002129143962547
      ],
      [
        "▁c'étai",
        -8.003760063066366
      ],
      [
        "▁ñépp",
        -8.003987956669521
      ],
      [
        "▁da",
        -8.007315286419887
      ],
      [
        "▁venu",
        -8.00793296862737
      ],
      [
        "▁génn",
        -8.01047271876988
      ],
      [
        "▁terre",
        -8.01606281133843
      ],
      [
        "▁jour",
        -8.022491706845466
      ],
      [
        "ous",
        -8.023421763372637
      ],
      [
        "▁loxo",
        -8.02835205744313
      ],
      [
        "▁nañ",
        -8.032622123337152
      ],
      [
        "▁loin",
        -8.037966116718975
      ],
      [
        "▁quelque",
        -8.043602095137853
      ],
      [
        "▁De",
        -8.044263460168011
      ],
      [
        "ation",
        -8.045627589060874
      ],
      [
        "▁m'a",
        -8.045877483185436
      ],
      [
        "▁peut-",
        -8.046929108034945
      ],
      [
        "▁vois",
        -8.049216266774001
      ],
      [
        "▁waa",
        -8.065990367630647
      ],
      [
        "▁jot",
        -8.066501696528153
      ],
      [
        "▁l'autre",
        -8.074144087768808
      ],
      [
        "▁boppam",
        -8.075424203903962
      ],
      [
        "▁lañu",
        -8.078068785253759
      ],
      [
        "▁veux",
        -8.07813692662757
      ],
      [
        "▁faire",
        -8.100465606344658
      ],
      [
        "▁nañu",
        -8.101165412544185
      ],
      [
        "▁wi",
        -8.101386743767439
      ],
      [
        "▁réer",
        -8.107071662645
      ],
      [
        "▁Xam",
        -8.109418926203134
      ],
      [
        "▁l'Afrique",
        -8.11111059711996
      ],
      [
        "▁qu'elle",
        -8.111703984565791
      ],
      [
        "▁noonu",
        -8.115887530107385
      ],
      [
        "▁années",
        -8.116457849536022
      ],
      [
        "▁Ñu",
        -8.11778218418809
      ],
      [
        "▁dugg",
        -8.120807440807553
      ],
      [
        "ez",
        -8.12206277385809
      ],
      [
        "▁ňu",
        -8.124755615991381
      ],
      [
        "▁dund",
        -8.127335144578037
      ],
      [
        "▁ban",
        -8.127345218811781
      ],
      [
        "▁néeg",
        -8.128014487002396
      ],
      [
        "▁être",
        -8.131256519638862
      ],
      [
        "▁wu",
        -8.134822775748809
      ],
      [
        "▁Ce",
        -8.137026627874539
      ],
      [
        "▁non",
        -8.14441414629075
      ],
      [
        "▁femmes",
        -8.145170051087426
      ],
      [
        "▁Quel",
        -8.145489065710336
      ],
      [
        "▁foofu",
        -8.149889044560307
      ],
      [
        "▁xarit",
        -8.14998101616081
      ],
      [
        "▁part",
        -8.151308936554617
      ],
      [
        "▁crois",
        -8.152267717580719
      ],
      [
        "▁Cet",
        -8.153051323589832
      ],
      [
        "▁Sée",
        -8.15461778564788
      ],
      [
        "▁Ogoja",
        -8.155044081613799
      ],
      [
        "▁itam",
        -8.16169317069108
      ],
      [
        "▁avant",
        -8.163017367251783
      ],
      [
        "▁fois",
        -8.164535497392523
      ],
      [
        "ñu",
        -8.166421360772839
      ],
      [
        "▁daw",
        -8.169282952432045
      ],
      [
        "▁yaa",
        -8.16994452495779
      ],
      [
        "eux",
        -8.175465776438433
      ],
      [
        "▁bare",
        -8.17562931119723
      ],
      [
        "▁dañu",
        -8.177864070449244
      ],
      [
        "▁ab",
        -8.178236053996166
      ],
      [
        "▁deux",
        -8.187320189403984
      ],
      [
        "▁tamit",
        -8.18936151795574
      ],
      [
        "▁jooju",
        -8.192521715552864
      ],
      [
        "um",
        -8.192947300969987
      ],
      [
        "▁après",
        -8.194476132073019
      ],
      [
        "▁Afrique",
        -8.196333578996677
      ],
      [
        "▁Fa",
        -8.196892212807121
      ],
      [
        "▁Si",
        -8.199676670501027
      ],
      [
        "▁mas",
        -8.200686763031937
      ],
      [
        "▁médecin",
        -8.200991339920911
      ],
      [
        "▁bañ",
        -8.201381661272091
      ],
      [
        "▁peu",
        -8.202598725349764
      ],
      [
        "▁Am",
        -8.2052843045036
      ],
      [
        "rès",
        -8.207328984734097
      ],
      [
        "▁F",
        -8.208384287273795
      ],
      [
        "▁solo",
        -8.208742527583913
      ],
      [
        "▁seul",
        -8.211487660713562
      ],
      [
        "▁garab",
        -8.21694041000155
      ],
      [
        "▁jaar",
        -8.218225290025853
      ],
      [
        "▁Ni",
        -8.227488076761409
      ],
      [
        "▁fàww",
        -8.23057465701418
      ],
      [
        "▁Cameroun",
        -8.231009393941282
      ],
      [
        "▁Dan",
        -8.231071194165969
      ],
      [
        "▁daanaka",
        -8.232239007249554
      ],
      [
        "ni",
        -8.234390791333055
      ],
      [
        "▁ginnaaw",
        -8.236585192483426
      ],
      [
        "at",
        -8.241328252391781
      ],
      [
        "▁K",
        -8.246724228425501
      ],
      [
        "▁ña",
        -8.252817281327939
      ],
      [
        "▁l'a",
        -8.25500173305207
      ],
      [
        "▁ñ",
        -8.258924005803213
      ],
      [
        "▁mer",
        -8.27162231583381
      ],
      [
        "▁dëgg",
        -8.276398093573476
      ],
      [
        "▁maa",
        -8.277895212789737
      ],
      [
        "▁qu'on",
        -8.278607071178596
      ],
      [
        "▁re",
        -8.283364490018405
      ],
      [
        "▁Bi",
        -8.285107386759577
      ],
      [
        "▁amis",
        -8.285261409543054
      ],
      [
        "▁pouvait",
        -8.286047828352793
      ],
      [
        "▁boo",
        -8.286765905056386
      ],
      [
        "▁j",
        -8.287779946050048
      ],
      [
        "▁mouton",
        -8.293263220904183
      ],
      [
        "ale",
        -8.294958416017593
      ],
      [
        "▁dé",
        -8.295478218032041
      ],
      [
        "▁nee",
        -8.299854895194326
      ],
      [
        "▁moutons",
        -8.300020444183598
      ],
      [
        "▁g",
        -8.300890840229647
      ],
      [
        "▁jël",
        -8.303043577787871
      ],
      [
        "▁va",
        -8.304601943466633
      ],
      [
        "▁vers",
        -8.304835406078604
      ],
      [
        "▁toi",
        -8.307980049225815
      ],
      [
        "▁Soo",
        -8.31416871238821
      ],
      [
        "▁taxaw",
        -8.319400209146671
      ],
      [
        "▁France",
        -8.319544166266706
      ],
      [
        "▁yaakaar",
        -8.319669564426247
      ],
      [
        "▁voilà",
        -8.319762713365606
      ],
      [
        "▁celui",
        -8.319966429785408
      ],
      [
        "j",
        -8.321826464226872
      ],
      [
        "▁noppi",
        -8.325137461445678
      ],
      [
        "▁yeneen",
        -8.325258382479063
      ],
      [
        "▁aucun",
        -8.325690085247302
      ],
      [
        "▁entre",
        -8.326425524894939
      ],
      [
        "▁ñuul",
        -8.326724798297509
      ],
      [
        "▁personne",
        -8.329376176947717
      ],
      [
        "▁metti",
        -8.332855849287737
      ],
      [
        "▁nuy",
        -8.333879046128395
      ],
      [
        "▁sol",
        -8.342410871945894
      ],
      [
        "▁fàttaliku",
        -8.344767662174203
      ],
      [
        "ement",
        -8.344858667036672
      ],
      [
        "▁Ba",
        -8.346622049215563
      ],
      [
        "▁elle",
        -8.346957843144331
      ],
      [
        "▁Lu",
        -8.347933423283486
      ],
      [
        "▁ko.",
        -8.348208592936825
      ],
      [
        "▁Moo",
        -8.349680147563646
      ],
      [
        "▁ŋgee",
        -8.35054994093559
      ],
      [
        "▁qu'",
        -8.352244892660961
      ],
      [
        "ante",
        -8.360852001434917
      ],
      [
        "▁forêt",
        -8.3669619900338
      ],
      [
        "▁Wànte",
        -8.366998447899336
      ],
      [
        "▁xalaat",
        -8.367237113188239
      ],
      [
        "▁matin",
        -8.36780784914851
      ],
      [
        "▁dañ",
        -8.368182249376163
      ],
      [
        "autour",
        -8.369772799264126
      ],
      [
        "▁xamul",
        -8.370390892529384
      ],
      [
        "▁devant",
        -8.370518065806175
      ],
      [
        "▁M",
        -8.371745463112658
      ],
      [
        "▁For",
        -8.374609459308585
      ],
      [
        "▁travers",
        -8.376205525155271
      ],
      [
        "▁gaal",
        -8.383735024309093
      ],
      [
        "▁autres",
        -8.386823486610577
      ],
      [
        "▁Da",
        -8.387489717303541
      ],
      [
        "▁bout",
        -8.388765239780517
      ],
      [
        "▁Sa",
        -8.388894836763413
      ],
      [
        "lu",
        -8.38971238541004
      ],
      [
        "▁C'",
        -8.391913047161182
      ],
      [
        "▁village",
        -8.393683738518193
      ],
      [
        "▁haut",
        -8.395907253802438
      ],
      [
        "us",
        -8.397036971204976
      ],
      [
        "▁neex",
        -8.399113299137973
      ],
      [
        "▁tànk",
        -8.399407623593163
      ],
      [
        "▁case",
        -8.399452057491565
      ],
      [
        "ook",
        -8.403802817369526
      ],
      [
        "▁dóor",
        -8.406998887219645
      ],
      [
        "▁nuit",
        -8.408668363689333
      ],
      [
        "▁Maa",
        -8.410914352128975
      ],
      [
        "▁xol",
        -8.413833604530156
      ],
      [
        "▁W",
        -8.414172612260481
      ],
      [
        "▁Móris",
        -8.416880380537162
      ],
      [
        "▁soleil",
        -8.417038447797475
      ],
      [
        "▁Ku",
        -8.41800590039654
      ],
      [
        "▁Niseryaa",
        -8.420721151198077
      ],
      [
        "▁yàgg",
        -8.422465898210797
      ],
      [
        "▁donné",
        -8.424696563947588
      ],
      [
        "▁topp",
        -8.425018925166622
      ],
      [
        "▁lañ",
        -8.425296038002335
      ],
      [
        "▁aujourd'hui",
        -8.42705636418741
      ],
      [
        "▁fin",
        -8.428722619145228
      ],
      [
        "▁bord",
        -8.438825462129804
      ],
      [
        "▁puis",
        -8.439545179226803
      ],
      [
        "-là",
        -8.442521080168483
      ],
      [
        "▁leer",
        -8.445092085304111
      ],
      [
        "▁fas",
        -8.450219140519149
      ],
      [
        "▁route",
        -8.454079058001016
      ],
      [
        "'exil",
        -8.459993698188953
      ],
      [
        "▁Loolu",
        -8.469448708299616
      ],
      [
        "▁souviens",
        -8.469665039759482
      ],
      [
        "▁Nigeria",
        -8.469667510368016
      ],
      [
        "▁grand-mère",
        -8.469800332962002
      ],
      [
        "▁doom-aadama",
        -8.469840165597079
      ],
      [
        "▁wéy",
        -8.470111892282976
      ],
      [
        "▁jaay",
        -8.471422555547427
      ],
      [
        "▁Bansoo",
        -8.47142734965285
      ],
      [
        "▁Ndax",
        -8.47281060983995
      ],
      [
        "▁réy",
        -8.47329914283279
      ],
      [
        "▁Bu",
        -8.473646072899557
      ],
      [
        "iers",
        -8.476457631484454
      ],
      [
        "▁jeex",
        -8.476740340040962
      ],
      [
        "▁bii",
        -8.476956904413719
      ],
      [
        "▁Sama",
        -8.477509369272468
      ],
      [
        "eurs",
        -8.477578636159294
      ],
      [
        "▁xonq",
        -8.479520113581387
      ],
      [
        "▁guddi",
        -8.481169735277874
      ],
      [
        "▁maam",
        -8.481748805045033
      ],
      [
        "▁sorte",
        -8.483391451155274
      ],
      [
        "in",
        -8.486721035765301
      ],
      [
        "▁door",
        -8.486972838534054
      ],
      [
        "▁kooku",
        -8.489203276572153
      ],
      [
        "fa",
        -8.491404603626222
      ],
      [
        "▁day",
        -8.492639272923089
      ],
      [
        "▁dellu",
        -8.49358356810338
      ],
      [
        "▁hommes",
        -8.493858913991557
      ],
      [
        "▁jàpp",
        -8.495969663156572
      ],
      [
        "▁Y",
        -8.502132084417077
      ],
      [
        "vaient",
        -8.504912169094073
      ],
      [
        "▁no",
        -8.506905943642282
      ],
      [
        "▁gee",
        -8.507501708989594
      ],
      [
        "▁fii",
        -8.50893050097689
      ],
      [
        "▁rivière",
        -8.509241756112399
      ],
      [
        "▁passé",
        -8.511112042049223
      ],
      [
        "▁ville",
        -8.512555948656544
      ],
      [
        "▁yee",
        -8.514396039892535
      ],
      [
        "▁say",
        -8.519236588542942
      ],
      [
        "▁B",
        -8.52091112003888
      ],
      [
        "té",
        -8.521899996582697
      ],
      [
        "▁veut",
        -8.524995318735986
      ],
      [
        "▁question",
        -8.525185297705402
      ],
      [
        "▁ceux-là",
        -8.52520484069663
      ],
      [
        "▁njëkk",
        -8.5253343766087
      ],
      [
        "▁nettali",
        -8.525341123126756
      ],
      [
        "aan",
        -8.527034661691868
      ],
      [
        "▁Xale",
        -8.527480184277227
      ],
      [
        "▁d'autre",
        -8.527540206366364
      ],
      [
        "▁n'étai",
        -8.528154780579886
      ],
      [
        "▁Dem",
        -8.52878438869643
      ],
      [
        "▁quan",
        -8.529712996437947
      ],
      [
        "▁aperç",
        -8.52978643978855
      ],
      [
        "▁étai",
        -8.5301792914522
      ],
      [
        "nu",
        -8.531509072587307
      ],
      [
        "▁regard",
        -8.532610250898367
      ],
      [
        "▁soir",
        -8.534061591997311
      ],
      [
        "▁murs",
        -8.534826424375533
      ],
      [
        "ées",
        -8.53527872418936
      ],
      [
        "si",
        -8.536870972472936
      ],
      [
        "▁faj",
        -8.5370632437067
      ],
      [
        "▁daal",
        -8.537129647549282
      ],
      [
        "ou",
        -8.540283313930152
      ],
      [
        "▁Ca",
        -8.545242800805863
      ],
      [
        "▁ëpp",
        -8.546986749886795
      ],
      [
        "▁voir",
        -8.547993449867633
      ],
      [
        "tôt",
        -8.548141214329235
      ],
      [
        "▁Xar",
        -8.548742198200467
      ],
      [
        "▁pu",
        -8.55020797796811
      ],
      [
        "▁C'étai",
        -8.552603399252114
      ],
      [
        "▁jiit",
        -8.556726454367112
      ],
      [
        "▁Quan",
        -8.557916895711207
      ],
      [
        "▁s'",
        -8.560208765576746
      ],
      [
        "afa",
        -8.561714983892681
      ],
      [
        "▁tudd",
        -8.563379435710605
      ],
      [
        "▁jox",
        -8.563737364341964
      ],
      [
        "ir",
        -8.56441101436317
      ],
      [
        "▁fan",
        -8.565811818234064
      ],
      [
        "▁enfant",
        -8.566588220741256
      ],
      [
        "▁gàtt",
        -8.568031733740494
      ],
      [
        "ux",
        -8.571895931785296
      ],
      [
        "▁wut",
        -8.574287862410099
      ],
      [
        "▁dëkki",
        -8.575194047945352
      ],
      [
        "▁Banso",
        -8.58149210442905
      ],
      [
        "vait",
        -8.58178421021998
      ],
      [
        "▁bàyyi",
        -8.582244103873636
      ],
      [
        "àddaay",
        -8.58343564062022
      ],
      [
        "▁tàmbal",
        -8.58370976055049
      ],
      [
        "▁gunóor",
        -8.583778692516224
      ],
      [
        "▁Àngalteer",
        -8.583922287466496
      ],
      [
        "▁tel",
        -8.584256985541234
      ],
      [
        "▁Àngale",
        -8.58445593951705
      ],
      [
        "▁fourmis",
        -8.585686964775675
      ],
      [
        "▁bon",
        -8.586313626274976
      ],
      [
        "béré",
        -8.587329562708742
      ],
      [
        "naa",
        -8.58895152096358
      ],
      [
        "▁weex",
        -8.590211669881038
      ],
      [
        "▁plaine",
        -8.590213404504869
      ],
      [
        "▁do",
        -8.590775794586119
      ],
      [
        "▁mujje",
        -8.593066847491393
      ],
      [
        "▁Au",
        -8.593224761187377
      ],
      [
        "▁googu",
        -8.593238857431281
      ],
      [
        "▁doomu",
        -8.593998902970933
      ],
      [
        "▁dee",
        -8.594061837850276
      ],
      [
        "▁in",
        -8.594552437462273
      ],
      [
        "▁toit",
        -8.596273980414706
      ],
      [
        "▁peau",
        -8.59665559057057
      ],
      [
        "▁n'avai",
        -8.599179500425546
      ],
      [
        "▁amoon",
        -8.600743761985681
      ],
      [
        "avoir",
        -8.603025835227355
      ],
      [
        "ient",
        -8.603345341802454
      ],
      [
        "▁lii",
        -8.60841741854428
      ],
      [
        "▁grand",
        -8.610486376366989
      ],
      [
        "-na",
        -8.617954127597129
      ],
      [
        "▁masu",
        -8.618512063872934
      ],
      [
        "▁gaa",
        -8.627290166616431
      ],
      [
        "▁ans",
        -8.627850144813136
      ],
      [
        "▁ta",
        -8.629351940559074
      ],
      [
        "▁baay",
        -8.629371362278025
      ],
      [
        "▁dama",
        -8.630313183295785
      ],
      [
        "▁moment",
        -8.63056643059667
      ],
      [
        "▁L'",
        -8.634097879666568
      ],
      [
        "▁seet",
        -8.634227897014577
      ],
      [
        "uñu",
        -8.635448990619974
      ],
      [
        "▁dox",
        -8.635832121463796
      ],
      [
        "▁bokk",
        -8.637249468563818
      ],
      [
        "▁waaj",
        -8.640070251632842
      ],
      [
        "▁Ken",
        -8.640113356359805
      ],
      [
        "▁Bamenda",
        -8.641868801741984
      ],
      [
        "▁way-jur",
        -8.644907924802268
      ],
      [
        "▁Bëgg",
        -8.64593891652397
      ],
      [
        "▁cheval",
        -8.646144377979596
      ],
      [
        "▁dunyaa",
        -8.64622119939399
      ],
      [
        "▁l'Ouest",
        -8.646227709980792
      ],
      [
        "ans",
        -8.646838999772932
      ],
      [
        "enn",
        -8.646887102232848
      ],
      [
        "▁téere",
        -8.647198520118938
      ],
      [
        "▁vache",
        -8.648106578186862
      ],
      [
        "▁Tout",
        -8.648968401555505
      ],
      [
        "▁lorsqu",
        -8.65043535415246
      ],
      [
        "▁contre",
        -8.651349610506461
      ],
      [
        "▁toute",
        -8.652876945471476
      ],
      [
        "▁dana",
        -8.653111150767284
      ],
      [
        "▁reste",
        -8.654761353234935
      ],
      [
        "▁côté",
        -8.65483636899482
      ],
      [
        "faral",
        -8.65652422646152
      ],
      [
        "▁na.",
        -8.658876636927486
      ],
      [
        "▁Waa",
        -8.661415446698584
      ],
      [
        "▁n'es",
        -8.662574212860369
      ],
      [
        "tte",
        -8.664601390967949
      ],
      [
        "▁ñàkk",
        -8.669999588442327
      ],
      [
        "▁laaj",
        -8.67038746139582
      ],
      [
        "▁gii",
        -8.671125917852907
      ],
      [
        "▁Ay",
        -8.671748976163139
      ],
      [
        "▁voyage",
        -8.68008223716037
      ],
      [
        "▁quel",
        -8.680503702473525
      ],
      [
        "ère",
        -8.681873836210775
      ],
      [
        "▁mot",
        -8.683144299729257
      ],
      [
        "▁nun",
        -8.683885976758392
      ],
      [
        "loo",
        -8.6867308507052
      ],
      [
        "▁bay",
        -8.688157435806593
      ],
      [
        "▁won",
        -8.689570529329222
      ],
      [
        "▁grande",
        -8.692167118751417
      ],
      [
        "wul",
        -8.694791662265825
      ],
      [
        "▁jours",
        -8.695636686291262
      ],
      [
        "s-tu",
        -8.69712848364507
      ],
      [
        "vent",
        -8.69869118381296
      ],
      [
        "▁Ra",
        -8.699272518865616
      ],
      [
        "▁wàn",
        -8.699811226495278
      ],
      [
        "▁doom",
        -8.703473472507044
      ],
      [
        "▁dina",
        -8.70920287204288
      ],
      [
        "▁House",
        -8.71254327365147
      ],
      [
        "▁làrme",
        -8.712605871327378
      ],
      [
        "▁jéem",
        -8.712732725186234
      ],
      [
        "▁violence",
        -8.712787561222509
      ],
      [
        "▁doktoor",
        -8.712853105944841
      ],
      [
        "▁moroom",
        -8.712899603203557
      ],
      [
        "▁l'eau",
        -8.71293952748098
      ],
      [
        "▁seetlu",
        -8.713385133538715
      ],
      [
        "▁yaatu",
        -8.71551953884532
      ],
      [
        "▁ňaar",
        -8.716890082237446
      ],
      [
        "▁gént",
        -8.717010344392808
      ],
      [
        "ri",
        -8.718916651224339
      ],
      [
        "▁kii",
        -8.719434561505658
      ],
      [
        "▁Kon",
        -8.71982480407401
      ],
      [
        "▁niroo",
        -8.72025813837929
      ],
      [
        "▁deret",
        -8.722283345483364
      ],
      [
        "p",
        -8.724671933712841
      ],
      [
        "▁long",
        -8.72577463925877
      ],
      [
        "▁parler",
        -8.72831637632856
      ],
      [
        "ax",
        -8.729995249931898
      ],
      [
        "ns",
        -8.731646442439118
      ],
      [
        "▁ciel",
        -8.732139592886822
      ],
      [
        "▁feebar",
        -8.733803839161281
      ],
      [
        "▁xaw",
        -8.736558900910243
      ],
      [
        "▁tudde",
        -8.738883073038672
      ],
      [
        "▁yeux",
        -8.740825510994654
      ],
      [
        "▁So",
        -8.742539574529822
      ],
      [
        "▁we",
        -8.74450345105527
      ],
      [
        "▁villages",
        -8.74516147959196
      ],
      [
        "ek",
        -8.745525139108983
      ],
      [
        "ur",
        -8.74703606267445
      ],
      [
        "▁ét",
        -8.748698965086788
      ],
      [
        "▁moomu",
        -8.749668537828171
      ],
      [
        "▁jii",
        -8.752799314974416
      ],
      [
        "▁ceux",
        -8.753926685330375
      ],
      [
        "an",
        -8.76365356224306
      ],
      [
        "▁doi",
        -8.766192630169652
      ],
      [
        "▁dëkke",
        -8.767351982869563
      ],
      [
        "▁souvenir",
        -8.767445870150418
      ],
      [
        "▁faa",
        -8.768109694186311
      ],
      [
        "▁l'ai",
        -8.769545678354591
      ],
      [
        "▁nos",
        -8.771176700404734
      ],
      [
        "▁Sur",
        -8.771285505082846
      ],
      [
        "aux",
        -8.772384052871331
      ],
      [
        "▁Ak",
        -8.774238794674137
      ],
      [
        "▁w",
        -8.775553620121725
      ],
      [
        "▁Ben",
        -8.778556929730327
      ],
      [
        "▁lion",
        -8.779803338519672
      ],
      [
        "ra",
        -8.780241268865508
      ],
      [
        "aat",
        -8.781068800412484
      ],
      [
        "▁vécu",
        -8.783718268970125
      ],
      [
        "▁rafet",
        -8.783890072732135
      ],
      [
        "▁jardin",
        -8.78393794987911
      ],
      [
        "▁tangor",
        -8.7839791100092
      ],
      [
        "▁mémoire",
        -8.784018279862362
      ],
      [
        "quelle",
        -8.784183957407155
      ],
      [
        "▁tollu",
        -8.784243580332992
      ],
      [
        "▁gaaw",
        -8.784361953705488
      ],
      [
        "▁wóor",
        -8.784563483492699
      ],
      [
        "▁l'hôpital",
        -8.78471590764368
      ],
      [
        "igéen",
        -8.785038754265441
      ],
      [
        "▁Pour",
        -8.785270115750643
      ],
      [
        "▁bois",
        -8.785913368093494
      ],
      [
        "▁heures",
        -8.786066365010697
      ],
      [
        "armée",
        -8.786084017679526
      ],
      [
        "▁séen",
        -8.786219969502216
      ],
      [
        "▁Man",
        -8.787067930892473
      ],
      [
        "▁taxoon",
        -8.787578577644775
      ],
      [
        "▁Elle",
        -8.787611519650156
      ],
      [
        "▁mal",
        -8.788695063267435
      ],
      [
        "▁Yàlla",
        -8.788729938460547
      ],
      [
        "▁defe",
        -8.789149825559491
      ],
      [
        "elle",
        -8.78920962715262
      ],
      [
        "r.",
        -8.790649738409694
      ],
      [
        "▁mort",
        -8.792178514283453
      ],
      [
        "na",
        -8.796366360811858
      ],
      [
        "▁montagnes",
        -8.79843059593142
      ],
      [
        "▁t'a",
        -8.799240367898477
      ],
      [
        "maa",
        -8.803504571365474
      ],
      [
        "▁demul",
        -8.803679662181565
      ],
      [
        "atum",
        -8.803793096542705
      ],
      [
        "▁romb",
        -8.803900230421497
      ],
      [
        "▁No",
        -8.804415263316148
      ],
      [
        "▁Na",
        -8.80592108634513
      ],
      [
        "ng",
        -8.806423771694265
      ],
      [
        "▁ñan",
        -8.810287345990018
      ],
      [
        "age",
        -8.810413437148032
      ],
      [
        "▁ch",
        -8.811512599084224
      ],
      [
        "▁V",
        -8.813008379633212
      ],
      [
        "▁defar",
        -8.813111654130324
      ],
      [
        "▁dexu",
        -8.815954227100711
      ],
      [
        "▁mënoo",
        -8.818283603932027
      ],
      [
        "▁Xa",
        -8.819920663193619
      ],
      [
        "▁song",
        -8.820609135811727
      ],
      [
        "▁près",
        -8.820846468980196
      ],
      [
        "▁n'ai",
        -8.820854357949704
      ],
      [
        "▁sore",
        -8.821253373938639
      ],
      [
        "▁vient",
        -8.824496595046028
      ],
      [
        "me",
        -8.824526649177535
      ],
      [
        "kër",
        -8.824970890299456
      ],
      [
        "avons",
        -8.82625117260098
      ],
      [
        "▁connu",
        -8.826262226294382
      ],
      [
        "▁fàtte",
        -8.827830680027912
      ],
      [
        "▁dellusi",
        -8.830971490445643
      ],
      [
        "▁plu",
        -8.833227725250548
      ],
      [
        "▁aurait",
        -8.835043783335905
      ],
      [
        "se",
        -8.83652171223806
      ],
      [
        "▁ndox",
        -8.837381744606645
      ],
      [
        "mu",
        -8.839621991153637
      ],
      [
        "ons",
        -8.843450702305708
      ],
      [
        "▁fond",
        -8.843881314045818
      ],
      [
        "▁vrai",
        -8.846148485907104
      ],
      [
        "▁pa",
        -8.847795118624456
      ],
      [
        "uy",
        -8.852925809320094
      ],
      [
        "ais",
        -8.853746377696382
      ],
      [
        "▁tàng",
        -8.85894565124774
      ],
      [
        "▁tard",
        -8.860185046381217
      ],
      [
        "▁là-bas",
        -8.860711096582552
      ],
      [
        "▁weesoo",
        -8.860718799546552
      ],
      [
        "▁liberté",
        -8.860790162336446
      ],
      [
        "▁gis-gis",
        -8.860823798502064
      ],
      [
        "▁diiwaan",
        -8.860890877017344
      ],
      [
        "▁britannique",
        -8.860973689655125
      ],
      [
        "▁Saint-Louis",
        -8.86097542278568
      ],
      [
        "▁sedd",
        -8.8609875744705
      ],
      [
        "▁asamaan",
        -8.861051414246482
      ],
      [
        "▁surtout",
        -8.861437538658791
      ],
      [
        "▁Bés",
        -8.861980228002938
      ],
      [
        "▁ubbi",
        -8.862200876086153
      ],
      [
        "▁Maurice",
        -8.863307091004483
      ],
      [
        "▁Ibo",
        -8.863821539045494
      ],
      [
        "▁xelam",
        -8.864568019844752
      ],
      [
        "▁cause",
        -8.864775122496336
      ],
      [
        "q",
        -8.864791762949231
      ],
      [
        "▁Ndar",
        -8.865964801428017
      ],
      [
        "▁sui",
        -8.867457635226142
      ],
      [
        "▁Frãs",
        -8.869955107324799
      ],
      [
        "▁xeet",
        -8.870259261458312
      ],
      [
        "estr",
        -8.871460683330406
      ],
      [
        "▁àgg",
        -8.8732104346769
      ],
      [
        "▁Jox",
        -8.873713804022191
      ],
      [
        "▁miir",
        -8.875482772801883
      ],
      [
        "▁Bamendaa",
        -8.876159158387491
      ],
      [
        "▁soit",
        -8.878590227635584
      ],
      [
        "▁seule",
        -8.881038799215114
      ],
      [
        "óon",
        -8.881759400381695
      ],
      [
        "ň",
        -8.886764664584033
      ],
      [
        "▁suba",
        -8.887218338023885
      ],
      [
        "em",
        -8.88976578767632
      ],
      [
        "kki",
        -8.889769697878041
      ],
      [
        "een",
        -8.89165303348437
      ],
      [
        "▁grands",
        -8.89277640483315
      ],
      [
        "▁dire",
        -8.893268846141059
      ],
      [
        "kk",
        -8.89406534870554
      ],
      [
        "leen",
        -8.89443069592033
      ],
      [
        "▁mat",
        -8.895168145068235
      ],
      [
        "▁tali",
        -8.895823965789837
      ],
      [
        "▁réewu",
        -8.897398862783152
      ],
      [
        "▁toutes",
        -8.900978410578801
      ],
      [
        "▁bant",
        -8.904759421734248
      ],
      [
        "▁coup",
        -8.905977211025267
      ],
      [
        "▁choses",
        -8.912082360305554
      ],
      [
        "▁port",
        -8.912252457070972
      ],
      [
        "▁travail",
        -8.91230059435127
      ],
      [
        "▁bee",
        -8.91334487569862
      ],
      [
        "▁carte",
        -8.914729668215568
      ],
      [
        "▁noir",
        -8.91694037054231
      ],
      [
        "▁fo",
        -8.91906378029957
      ],
      [
        "▁vienne",
        -8.92270513885536
      ],
      [
        "▁neen",
        -8.923086247163225
      ],
      [
        "ati",
        -8.92592094678295
      ],
      [
        "▁main",
        -8.92627495765392
      ],
      [
        "▁lan",
        -8.926648492642585
      ],
      [
        "▁gudd",
        -8.926746095990701
      ],
      [
        "eur",
        -8.927701408775723
      ],
      [
        "▁qu'un",
        -8.927775217541994
      ],
      [
        "▁fàttali",
        -8.937894620128583
      ],
      [
        "▁quelle",
        -8.938915928437972
      ],
      [
        "▁Mi",
        -8.940158555029768
      ],
      [
        "▁yuuxu",
        -8.943273069171797
      ],
      [
        "▁Alors",
        -8.943806872922721
      ],
      [
        "▁déglu",
        -8.943978940645811
      ],
      [
        "▁delloo",
        -8.944020460300418
      ],
      [
        "▁point",
        -8.944050271038467
      ],
      [
        "▁soldaar",
        -8.944070183545293
      ],
      [
        "▁xar-kanam",
        -8.94408113138727
      ],
      [
        "▁boroom",
        -8.944083052629656
      ],
      [
        "▁passage",
        -8.944161883187034
      ],
      [
        "▁v",
        -8.944174258200889
      ],
      [
        "▁semble",
        -8.944365798111352
      ],
      [
        "▁Defe",
        -8.944423410782333
      ],
      [
        "▁appris",
        -8.944916321260381
      ],
      [
        "▁tëj",
        -8.945075134560375
      ],
      [
        "▁sori",
        -8.947371672725485
      ],
      [
        "▁celle",
        -8.94812946021435
      ],
      [
        "▁Cela",
        -8.948139591708205
      ],
      [
        "▁kàddu",
        -8.948656322674896
      ],
      [
        "▁parlait",
        -8.94901341843941
      ],
      [
        "▁bëggul",
        -8.949061970855386
      ],
      [
        "▁baat",
        -8.950536266674357
      ],
      [
        "▁s'il",
        -8.95059533139463
      ],
      [
        "▁tuuti",
        -8.95120383983192
      ],
      [
        "▁nangu",
        -8.95130393520693
      ],
      [
        "▁géej",
        -8.951612009440856
      ],
      [
        "▁jëkk",
        -8.951735924842602
      ],
      [
        "ug",
        -8.951932417955947
      ],
      [
        "▁acheté",
        -8.953147212098417
      ],
      [
        "▁Di",
        -8.953157277073153
      ],
      [
        "ité",
        -8.955912067857982
      ],
      [
        "iy",
        -8.958175701193815
      ],
      [
        "beek",
        -8.958423285149115
      ],
      [
        "▁peut",
        -8.958581263898035
      ],
      [
        "▁trop",
        -8.960531041538168
      ],
      [
        "▁biti",
        -8.960623221831119
      ],
      [
        "▁marche",
        -8.96083430899789
      ],
      [
        "▁viendra",
        -8.965528773744188
      ],
      [
        "▁gaynde",
        -8.965553886667173
      ],
      [
        "▁doomi",
        -8.96797999814866
      ],
      [
        "▁bari",
        -8.97189513910038
      ],
      [
        "▁duñu",
        -8.974844411388347
      ],
      [
        "▁nanu",
        -8.975771661919765
      ],
      [
        "▁fleuves",
        -8.976457673772485
      ],
      [
        "▁aller",
        -8.976724266890447
      ],
      [
        "▁jant",
        -8.97732607407897
      ],
      [
        "▁wone",
        -8.983198234828155
      ],
      [
        "bi",
        -8.984409472191057
      ],
      [
        "▁forme",
        -8.986095807951644
      ],
      [
        "▁mêmes",
        -8.988207076813806
      ],
      [
        "▁Daan",
        -8.988551840756962
      ],
      [
        "▁po",
        -8.989105791961155
      ],
      [
        "▁qu",
        -8.992200270604373
      ],
      [
        "▁fille",
        -8.992372031311273
      ],
      [
        "▁mii",
        -8.994274726662841
      ],
      [
        "▁noo",
        -8.996288914778836
      ],
      [
        "li",
        -8.996305871994666
      ],
      [
        "▁tur",
        -8.997403365319911
      ],
      [
        "▁lekk",
        -9.00138019159779
      ],
      [
        "yan",
        -9.003222233703806
      ],
      [
        "ub",
        -9.003486624029374
      ],
      [
        "▁Kan",
        -9.007653427238957
      ],
      [
        "▁yem",
        -9.010138045367384
      ],
      [
        "▁O",
        -9.010572620157212
      ],
      [
        "▁jàng",
        -9.012301956536053
      ],
      [
        "..",
        -9.013228339571178
      ],
      [
        "▁dayo",
        -9.013236869319712
      ],
      [
        "▁baa",
        -9.013640542068728
      ],
      [
        "▁deme",
        -9.01482570056898
      ],
      [
        "▁pres",
        -9.016055868282159
      ],
      [
        "▁mar",
        -9.016221916012658
      ],
      [
        "aire",
        -9.02254663832355
      ],
      [
        "je",
        -9.031029295161733
      ],
      [
        "as",
        -9.032867540067253
      ],
      [
        "▁Guwiyaan",
        -9.033296021250276
      ],
      [
        "▁yëkkati",
        -9.03329613492872
      ],
      [
        "▁Guyane",
        -9.03330123443138
      ],
      [
        "▁rawati",
        -9.033308827825431
      ],
      [
        "▁famille",
        -9.033311699606871
      ],
      [
        "▁Xammee",
        -9.033340680471714
      ],
      [
        "▁frère",
        -9.033371544410764
      ],
      [
        "▁d'Ogoja",
        -9.033437367990945
      ],
      [
        "▁force",
        -9.033539172742081
      ],
      [
        "▁xéy",
        -9.033691844956575
      ],
      [
        "▁Moonte",
        -9.03382604238433
      ],
      [
        "▁kese",
        -9.034245979712022
      ],
      [
        "▁jéggi",
        -9.034629769458352
      ],
      [
        "▁mellentaan",
        -9.034831813723484
      ],
      [
        "▁bëj-saalum",
        -9.034834809800966
      ],
      [
        "▁quelqu'un",
        -9.034844019085812
      ],
      [
        "▁poste",
        -9.035025865331269
      ],
      [
        "▁longue",
        -9.035171313977024
      ],
      [
        "▁xeer",
        -9.035206501666186
      ],
      [
        "▁faisait",
        -9.035262722622507
      ],
      [
        "▁bateau",
        -9.037056666972871
      ],
      [
        "▁yóbbu",
        -9.037139813948437
      ],
      [
        "▁Seen",
        -9.037186832126793
      ],
      [
        "▁Noonu",
        -9.03759085281872
      ],
      [
        "▁cour",
        -9.037922510746492
      ],
      [
        "▁ngoon",
        -9.038328646787333
      ],
      [
        "▁dàll",
        -9.039276602675855
      ],
      [
        "▁cuir",
        -9.041751864734072
      ],
      [
        "▁regarde",
        -9.041980670845504
      ],
      [
        "▁Sud",
        -9.043181011732136
      ],
      [
        "▁tund",
        -9.043358407321193
      ],
      [
        "▁xaar",
        -9.043666247169389
      ],
      [
        "▁màgget",
        -9.044190009356825
      ],
      [
        "▁d'Europe",
        -9.044707947680417
      ],
      [
        "koon",
        -9.045290943893036
      ],
      [
        "▁toujours",
        -9.046001585172805
      ],
      [
        "▁kilifa",
        -9.046218854238502
      ],
      [
        "h",
        -9.047365949953882
      ],
      [
        "▁roi",
        -9.04969397452347
      ],
      [
        "▁arbres",
        -9.049973841125762
      ],
      [
        "des",
        -9.051825988705616
      ],
      [
        "▁jënd",
        -9.052898854010785
      ],
      [
        "▁dame",
        -9.05405623947826
      ],
      [
        "▁miin",
        -9.054335256917064
      ],
      [
        "ku",
        -9.05522983147186
      ],
      [
        "▁Là",
        -9.055562686431985
      ],
      [
        "óor",
        -9.055870068621113
      ],
      [
        "▁leneen",
        -9.056431410307114
      ],
      [
        "▁teel",
        -9.056800433072265
      ],
      [
        "▁sang",
        -9.058072667339545
      ],
      [
        "▁Ou",
        -9.058347015031545
      ],
      [
        "kati",
        -9.060240219702894
      ],
      [
        "▁avions",
        -9.060977173578316
      ],
      [
        "▁sàkk",
        -9.06318868459448
      ],
      [
        "ès",
        -9.063502367932225
      ],
      [
        "▁takk",
        -9.064003443853059
      ],
      [
        "nte",
        -9.06459738836444
      ],
      [
        "▁fall",
        -9.06606348718103
      ],
      [
        "▁per",
        -9.06734869762792
      ],
      [
        "▁porte",
        -9.06932914900587
      ],
      [
        "▁X",
        -9.069367554824467
      ],
      [
        "du",
        -9.072351728211203
      ],
      [
        "▁Qu'",
        -9.073552456619046
      ],
      [
        "▁Wa",
        -9.075939156521967
      ],
      [
        "près",
        -9.077898475316129
      ],
      [
        "▁fees",
        -9.079046541311495
      ],
      [
        "waat",
        -9.084924469003235
      ],
      [
        "kkali",
        -9.089330480362044
      ],
      [
        "▁kan",
        -9.090451138079448
      ],
      [
        "▁ragal",
        -9.091606508438748
      ],
      [
        "où",
        -9.091618386968262
      ],
      [
        "▁Nga",
        -9.092112339146457
      ],
      [
        "▁fleuve",
        -9.093557994481756
      ],
      [
        "or",
        -9.097485320984845
      ],
      [
        "▁livre",
        -9.098655830074557
      ],
      [
        "▁doxandéem",
        -9.100868591556134
      ],
      [
        "▁allé",
        -9.102294799933368
      ],
      [
        "tes",
        -9.105879169596175
      ],
      [
        "avait",
        -9.105897182265043
      ],
      [
        "▁première",
        -9.108858381665067
      ],
      [
        "▁photo",
        -9.10924403278465
      ],
      [
        "biy",
        -9.109343998386272
      ],
      [
        "atul",
        -9.110507480780502
      ],
      [
        "▁doy",
        -9.112158988208677
      ],
      [
        "ure",
        -9.112423532557333
      ],
      [
        "▁sais",
        -9.112738723608913
      ],
      [
        "▁të",
        -9.116214339319844
      ],
      [
        "▁s'en",
        -9.119871694161846
      ],
      [
        "▁vo",
        -9.121486442273914
      ],
      [
        "û",
        -9.121517277350316
      ],
      [
        "▁T",
        -9.121869125883698
      ],
      [
        "▁partie",
        -9.125833311237598
      ],
      [
        "naka",
        -9.127071378177526
      ],
      [
        "▁vi",
        -9.129665665984385
      ],
      [
        "wu",
        -9.13029376399161
      ],
      [
        "▁dëkku",
        -9.130933814259603
      ],
      [
        "▁kook",
        -9.132503107660463
      ],
      [
        "▁pirogue",
        -9.133296016045074
      ],
      [
        "▁lumière",
        -9.1332984293873
      ],
      [
        "▁nouveau",
        -9.13329927587614
      ],
      [
        "▁mbóot",
        -9.13337131747679
      ],
      [
        "▁façon",
        -9.133388256851148
      ],
      [
        "▁Ñàkk",
        -9.133402200743772
      ],
      [
        "▁Nord",
        -9.133428021420796
      ],
      [
        "▁téye",
        -9.133445281171554
      ],
      [
        "▁d'Afrique",
        -9.133462360855347
      ],
      [
        "▁sentiment",
        -9.133486208661422
      ],
      [
        "▁celui-ci",
        -9.133505355798436
      ],
      [
        "▁ngelaw",
        -9.133598068808134
      ],
      [
        "▁metit",
        -9.13384585805677
      ],
      [
        "▁Gone",
        -9.133999455056088
      ],
      [
        "▁Waaw",
        -9.134130437208704
      ],
      [
        "▁voix",
        -9.134449749185244
      ],
      [
        "▁raison",
        -9.13456461701637
      ],
      [
        "▁lequel",
        -9.135144788980558
      ],
      [
        "▁vieille",
        -9.135236540199665
      ],
      [
        "▁xuus",
        -9.135498718350556
      ],
      [
        "▁l'enfant",
        -9.135546423783378
      ],
      [
        "▁moins",
        -9.135708698689493
      ],
      [
        "▁silence",
        -9.135743740900914
      ],
      [
        "▁tii",
        -9.136223263804311
      ],
      [
        "▁xanaa",
        -9.136713471518407
      ],
      [
        "▁debout",
        -9.137097613513378
      ],
      [
        "▁jege",
        -9.137558083113861
      ],
      [
        "▁jeune",
        -9.137858228686278
      ],
      [
        "▁égaré",
        -9.138320058493399
      ],
      [
        "▁Moom",
        -9.138874967772699
      ],
      [
        "▁joor",
        -9.140326155753936
      ],
      [
        "ga",
        -9.140471219330067
      ],
      [
        "▁lesquel",
        -9.141458122977093
      ],
      [
        "▁yaw",
        -9.141499875123872
      ],
      [
        "réer",
        -9.14206558445837
      ],
      [
        "▁bras",
        -9.142135815744595
      ],
      [
        "▁ici",
        -9.142344299418813
      ],
      [
        "▁maanaa",
        -9.143669368705567
      ],
      [
        "▁sortir",
        -9.144379918775298
      ],
      [
        "▁gor",
        -9.144614263705968
      ],
      [
        "▁daj",
        -9.145647970613473
      ],
      [
        "▁meloon",
        -9.146005592381265
      ],
      [
        "▁buur",
        -9.14856442938631
      ],
      [
        "▁pieds",
        -9.148861447260005
      ],
      [
        "▁fil",
        -9.149032118042063
      ],
      [
        "▁naaj",
        -9.14945990818915
      ],
      [
        "ël",
        -9.150439716608446
      ],
      [
        "tion",
        -9.151395223370656
      ],
      [
        "z",
        -9.152564482797672
      ],
      [
        "▁Comme",
        -9.152627483245018
      ],
      [
        "▁wetu",
        -9.153416028044367
      ],
      [
        "▁lieu",
        -9.15463234259687
      ],
      [
        "▁l'un",
        -9.156043329309945
      ],
      [
        "▁wet",
        -9.158268201218146
      ],
      [
        "▁mains",
        -9.165023283946258
      ],
      [
        "bu",
        -9.167770773054567
      ],
      [
        "▁garabi",
        -9.168154926499936
      ],
      [
        "▁weer",
        -9.17310474031022
      ],
      [
        "▁tere",
        -9.175753553447858
      ],
      [
        "i.",
        -9.175975845190612
      ],
      [
        "▁wuti",
        -9.17938860189725
      ],
      [
        "and",
        -9.179931984008059
      ],
      [
        "»",
        -9.184056974712407
      ],
      [
        "▁fut",
        -9.186378308627706
      ],
      [
        "pendan",
        -9.195624130527287
      ],
      [
        "ar",
        -9.19625351084867
      ],
      [
        "▁janoo",
        -9.198620226823078
      ],
      [
        "▁jan",
        -9.202156217845054
      ],
      [
        "ewul",
        -9.20251310937621
      ],
      [
        "▁Fi",
        -9.20437933633865
      ],
      [
        "ts",
        -9.205067883106793
      ],
      [
        "▁xool",
        -9.205390249034993
      ],
      [
        "▁tefes",
        -9.206854398725685
      ],
      [
        "▁Saa",
        -9.20801472772102
      ],
      [
        "▁yab",
        -9.213011700187442
      ],
      [
        "▁petite",
        -9.2193532029657
      ],
      [
        "nga",
        -9.219651409710288
      ],
      [
        "▁tekk",
        -9.23141206362071
      ],
      [
        "▁lit",
        -9.238039061288198
      ],
      [
        "▁dënn",
        -9.24332624111246
      ],
      [
        "▁wëndéelu",
        -9.244407109914714
      ],
      [
        "▁bëj-gànnaar",
        -9.244407109943499
      ],
      [
        "▁Biyaafaraa",
        -9.244407110556336
      ],
      [
        "▁lëndëm",
        -9.244407126217677
      ],
      [
        "▁sowu-jant",
        -9.244407545497484
      ],
      [
        "▁bànneex",
        -9.2444083352411
      ],
      [
        "▁société",
        -9.24440892741628
      ],
      [
        "▁Jamono",
        -9.244409707408794
      ],
      [
        "▁Homme",
        -9.244409893259363
      ],
      [
        "▁Nataal",
        -9.244417701705983
      ],
      [
        "▁Sérère",
        -9.244420259516367
      ],
      [
        "▁diggante",
        -9.24442378876392
      ],
      [
        "▁Almaañ",
        -9.2444461152105
      ],
      [
        "▁cosaan",
        -9.244483055282597
      ],
      [
        "▁chevaux",
        -9.244496549675443
      ],
      [
        "▁Kër",
        -9.244592449477423
      ],
      [
        "▁l'âge",
        -9.2446388689754
      ],
      [
        "▁bind",
        -9.244720818482802
      ],
      [
        "▁yow",
        -9.244730517716283
      ],
      [
        "▁Teewul",
        -9.244811152295394
      ],
      [
        "▁manger",
        -9.244832367621967
      ],
      [
        "▁chaleur",
        -9.245033940542367
      ],
      [
        "▁parfois",
        -9.245116861658284
      ],
      [
        "▁S'il",
        -9.245488662650486
      ],
      [
        "▁gisaat",
        -9.245675554817694
      ],
      [
        "▁marché",
        -9.245835102367108
      ],
      [
        "▁loxoom",
        -9.246006886211013
      ],
      [
        "▁d'herbes",
        -9.246589255574177
      ],
      [
        "▁demkoon",
        -9.24693767711762
      ],
      [
        "▁yëngu",
        -9.24707443936481
      ],
      [
        "▁gro",
        -9.247531379784734
      ],
      [
        "▁jàll",
        -9.247645633659257
      ],
      [
        "▁tukki",
        -9.247753860030805
      ],
      [
        "▁manière",
        -9.247881734720757
      ],
      [
        "▁insectes",
        -9.248060814300937
      ],
      [
        "▁Niis",
        -9.248586898988107
      ],
      [
        "▁yit",
        -9.248726286640967
      ],
      [
        "▁Que",
        -9.248808897597288
      ],
      [
        "▁couleur",
        -9.249002586356447
      ],
      [
        "▁savane",
        -9.249322971234221
      ],
      [
        "▁feneen",
        -9.250436129490627
      ],
      [
        "▁étions",
        -9.25133303041098
      ],
      [
        "▁alors",
        -9.251538038258925
      ],
      [
        "▁këram",
        -9.252260634254975
      ],
      [
        "▁lieux",
        -9.25324584247954
      ],
      [
        "▁côte",
        -9.253860958317512
      ],
      [
        "▁petit",
        -9.254168214421227
      ],
      [
        "▁daa",
        -9.254922639070127
      ],
      [
        "▁garçons",
        -9.255016391722043
      ],
      [
        "▁booba",
        -9.255166539981857
      ],
      [
        "▁telle",
        -9.257601104383172
      ],
      [
        "▁kanam",
        -9.258404771640574
      ],
      [
        "ukki",
        -9.25997319432403
      ],
      [
        "▁enfance",
        -9.260461638175553
      ],
      [
        "▁alal",
        -9.26144103214964
      ],
      [
        "▁demande",
        -9.264017691804092
      ],
      [
        "▁tan",
        -9.264075870417738
      ],
      [
        "▁neneen",
        -9.265070092370575
      ],
      [
        "▁Woo",
        -9.265538200596044
      ],
      [
        "▁lakk",
        -9.26654588145719
      ],
      [
        "woo",
        -9.267575155145172
      ],
      [
        "▁partes",
        -9.268296798006123
      ],
      [
        "uis",
        -9.26933788312646
      ],
      [
        "ût",
        -9.270542848305542
      ],
      [
        "mi",
        -9.27442432075815
      ],
      [
        "▁Alma",
        -9.27510203570952
      ],
      [
        "▁routes",
        -9.278685537020046
      ],
      [
        "▁luy",
        -9.28103533925837
      ],
      [
        "▁R",
        -9.281975707473844
      ],
      [
        "▁kee",
        -9.283256909339615
      ],
      [
        "▁viennes",
        -9.288067820668143
      ],
      [
        "▁yére",
        -9.28901617118536
      ],
      [
        "êtes",
        -9.291428126664439
      ],
      [
        "▁lanu",
        -9.294364781210206
      ],
      [
        "▁Wax",
        -9.29505901226883
      ],
      [
        "▁gan",
        -9.296493565826356
      ],
      [
        "▁eu",
        -9.29655279713742
      ],
      [
        "▁wa",
        -9.298358198680193
      ],
      [
        "eut-",
        -9.303905064113442
      ],
      [
        "▁gise",
        -9.305614722859133
      ],
      [
        "▁froid",
        -9.306080936294444
      ],
      [
        "▁tool",
        -9.306665347173519
      ],
      [
        "▁kon",
        -9.311608394115572
      ],
      [
        "▁waxtaan",
        -9.316410881652342
      ],
      [
        "▁r",
        -9.317761196624804
      ],
      [
        "▁rey",
        -9.317771440491882
      ],
      [
        "▁co",
        -9.318804380755143
      ],
      [
        "▁rêve",
        -9.320050269345005
      ],
      [
        "fin",
        -9.320765499449978
      ],
      [
        "▁samp",
        -9.32132709051326
      ],
      [
        "▁tàkk",
        -9.321860393660348
      ],
      [
        "ec",
        -9.322296746138486
      ],
      [
        "ti",
        -9.32386290619607
      ],
      [
        "▁ami",
        -9.32791291413044
      ],
      [
        "▁aw",
        -9.32870165364715
      ],
      [
        "▁nature",
        -9.330094748095622
      ],
      [
        "▁vent",
        -9.336152062045779
      ],
      [
        "ance",
        -9.336628961837858
      ],
      [
        "▁montre",
        -9.337714817021135
      ],
      [
        "▁africain",
        -9.338251701745865
      ],
      [
        "▁Ta",
        -9.338817550354692
      ],
      [
        "▁feu",
        -9.341256594859761
      ],
      [
        "ù",
        -9.343641014568506
      ],
      [
        "t-c",
        -9.34457690313624
      ],
      [
        "▁j'",
        -9.344949130676447
      ],
      [
        "▁eux",
        -9.345877844262606
      ],
      [
        "ture",
        -9.345979889656366
      ],
      [
        "iez",
        -9.347116356342944
      ],
      [
        "añoo",
        -9.347129819770043
      ],
      [
        "▁montagne",
        -9.347146124024587
      ],
      [
        "▁wute",
        -9.347148824288698
      ],
      [
        "ables",
        -9.349097248795047
      ],
      [
        "pp",
        -9.35003411783394
      ],
      [
        "▁sera",
        -9.35010729480983
      ],
      [
        "▁Ch",
        -9.350278270644033
      ],
      [
        "▁m'en",
        -9.351273551562516
      ],
      [
        "▁rouge",
        -9.351906818380039
      ],
      [
        "▁visage",
        -9.353023509413864
      ],
      [
        "▁nii",
        -9.353357431541736
      ],
      [
        "voir",
        -9.354743996438126
      ],
      [
        "▁nopp",
        -9.357144604757217
      ],
      [
        "gré",
        -9.36056724610199
      ],
      [
        "uma",
        -9.360916512462321
      ],
      [
        "▁pro",
        -9.362751024003465
      ],
      [
        "▁bo",
        -9.36540501405709
      ],
      [
        "▁dagg",
        -9.366973102127037
      ],
      [
        "▁yilif",
        -9.367751661246697
      ],
      [
        "▁yegg",
        -9.367804769219125
      ],
      [
        "▁Victoria",
        -9.369407109718335
      ],
      [
        "▁Léeg-léeg",
        -9.369407109729456
      ],
      [
        "▁médicaments",
        -9.36940711012884
      ],
      [
        "▁kéemaane",
        -9.369407111905774
      ],
      [
        "▁xàmmee",
        -9.369407685777368
      ],
      [
        "▁Laobe",
        -9.369409136891004
      ],
      [
        "▁chaussettes",
        -9.36941040677374
      ],
      [
        "▁Legoos",
        -9.369412483242552
      ],
      [
        "▁Réew",
        -9.369431950653869
      ],
      [
        "▁puissance",
        -9.369438756572874
      ],
      [
        "▁Lawbe",
        -9.369441936041303
      ],
      [
        "▁L'Afrique",
        -9.369451678624054
      ],
      [
        "▁làmp",
        -9.369455189004015
      ],
      [
        "▁keroog",
        -9.36946182885364
      ],
      [
        "▁yëngal",
        -9.369462465710157
      ],
      [
        "▁janeer",
        -9.369467157157725
      ],
      [
        "▁blanche",
        -9.369472548989293
      ],
      [
        "▁feuilles",
        -9.369549249046765
      ],
      [
        "▁jàmm",
        -9.369567479481635
      ],
      [
        "▁l'amour",
        -9.369568064634507
      ],
      [
        "▁Fatim",
        -9.369651201979696
      ],
      [
        "▁douceur",
        -9.369670159264965
      ],
      [
        "▁région",
        -9.369753939098079
      ],
      [
        "▁Dëkk",
        -9.36977116122141
      ],
      [
        "▁dernier",
        -9.369856754948858
      ],
      [
        "▁Officer",
        -9.369861021274367
      ],
      [
        "▁plein",
        -9.369892325562386
      ],
      [
        "▁fajkat",
        -9.36995926651867
      ],
      [
        "▁gémmiñ",
        -9.369981111216635
      ],
      [
        "▁longtemps",
        -9.370095921488634
      ],
      [
        "▁sànni",
        -9.370095970080346
      ],
      [
        "▁Yaw",
        -9.370391976801788
      ],
      [
        "oŋ",
        -9.370914268415136
      ],
      [
        "▁Buur",
        -9.37111312159653
      ],
      [
        "▁Ñoom",
        -9.371123997534026
      ],
      [
        "▁wow",
        -9.3713785040288
      ],
      [
        "▁pourtant",
        -9.37138232401206
      ],
      [
        "▁fanaan",
        -9.371442186234384
      ],
      [
        "▁Nice",
        -9.372076646510862
      ],
      [
        "▁meubles",
        -9.372211753122176
      ],
      [
        "▁Ya",
        -9.372685967459729
      ],
      [
        "▁tóo",
        -9.372762682467556
      ],
      [
        "▁mo",
        -9.373174202056273
      ],
      [
        "▁salle",
        -9.373285323615695
      ],
      [
        "eŋ",
        -9.37357088826499
      ],
      [
        "▁départ",
        -9.373702197791888
      ],
      [
        "▁ŋgoon",
        -9.37443703642753
      ],
      [
        "▁riir",
        -9.375709612364385
      ],
      [
        "▁tubaab",
        -9.375848111250534
      ],
      [
        "▁faut",
        -9.376795617439415
      ],
      [
        "atim",
        -9.378134155866267
      ],
      [
        "▁waxtu",
        -9.378586705258682
      ],
      [
        "▁sew",
        -9.378698062942707
      ],
      [
        "▁proche",
        -9.379185957989502
      ],
      [
        "▁goût",
        -9.38146126093593
      ],
      [
        "▁noms",
        -9.381906942062145
      ],
      [
        "▁fenn",
        -9.38208416319671
      ],
      [
        "▁hautes",
        -9.382233223780432
      ],
      [
        "▁compte",
        -9.382670933520656
      ],
      [
        "▁cœur",
        -9.382744028067497
      ],
      [
        "▁ex",
        -9.383088894329514
      ],
      [
        "▁woo",
        -9.384087703033561
      ],
      [
        "▁endroit",
        -9.384283866752428
      ],
      [
        "▁Sunu",
        -9.384575914416935
      ],
      [
        "▁sauvages",
        -9.384965336347314
      ],
      [
        "▁màggat",
        -9.38500492466201
      ],
      [
        "▁Dama",
        -9.385675469877741
      ],
      [
        "▁Quelle",
        -9.387013244474838
      ],
      [
        "ral",
        -9.38760349501271
      ],
      [
        "▁Boo",
        -9.389212792856746
      ],
      [
        "▁ñaan",
        -9.389868101841389
      ],
      [
        "▁bunt",
        -9.39187189183349
      ],
      [
        "mbaar",
        -9.39392372131422
      ],
      [
        "▁dalal",
        -9.394703318072402
      ],
      [
        "▁boy",
        -9.397020896976704
      ],
      [
        "▁pouvai",
        -9.399433901213401
      ],
      [
        "ré",
        -9.400683846775285
      ],
      [
        "▁photos",
        -9.400709387985913
      ],
      [
        "▁waar",
        -9.401939919247642
      ],
      [
        "▁petits",
        -9.40490669537165
      ],
      [
        "▁inter",
        -9.407079932282558
      ],
      [
        "▁noirs",
        -9.408317180977864
      ],
      [
        "ai",
        -9.411904938953477
      ],
      [
        "▁est-",
        -9.412758144648864
      ],
      [
        "▁diis",
        -9.413173202305842
      ],
      [
        "▁sago",
        -9.415337921081269
      ],
      [
        "▁teew",
        -9.415717331945713
      ],
      [
        "▁doo",
        -9.415843942351266
      ],
      [
        "▁jusqu'au",
        -9.416888910870943
      ],
      [
        "▁Mën",
        -9.417068881254325
      ],
      [
        "▁Dañ",
        -9.417185326523473
      ],
      [
        "os",
        -9.418503136670127
      ],
      [
        "▁bees",
        -9.419881631792169
      ],
      [
        "▁on",
        -9.422231125796134
      ],
      [
        "son",
        -9.42577008912105
      ],
      [
        "▁yenu",
        -9.429918629683351
      ],
      [
        "▁sonal",
        -9.431101455316313
      ],
      [
        "impression",
        -9.431704905629914
      ],
      [
        "▁devai",
        -9.432670387977497
      ],
      [
        "istrict",
        -9.434910807659953
      ],
      [
        "▁fee",
        -9.436378556274002
      ],
      [
        "▁Ñ",
        -9.438557489840925
      ],
      [
        "▁max",
        -9.439251361380313
      ],
      [
        "aa",
        -9.439635013941334
      ],
      [
        "▁Pe",
        -9.44210817838755
      ],
      [
        "▁donne",
        -9.444654463631588
      ],
      [
        "▁noon",
        -9.445982867185428
      ],
      [
        "▁nëbb",
        -9.447779289736893
      ],
      [
        "▁pënd",
        -9.44787941103452
      ],
      [
        "▁raconte",
        -9.449205987382076
      ],
      [
        "▁D'",
        -9.450284511724627
      ],
      [
        "▁pris",
        -9.451564905314957
      ],
      [
        "▁jeu",
        -9.45430041729997
      ],
      [
        "tant",
        -9.456769242155453
      ],
      [
        "▁arrivé",
        -9.457248798116614
      ],
      [
        "ine",
        -9.461684827260676
      ],
      [
        "▁serai",
        -9.463214849623714
      ],
      [
        "▁daawu",
        -9.464619152998324
      ],
      [
        "▁dénd",
        -9.465558125819152
      ],
      [
        "▁cours",
        -9.465783716095839
      ],
      [
        "▁tar",
        -9.468038326404033
      ],
      [
        "▁retour",
        -9.468942298197804
      ],
      [
        "▁peur",
        -9.46926600322733
      ],
      [
        "▁connais",
        -9.472732477858742
      ],
      [
        "ch",
        -9.472738367059009
      ],
      [
        "▁e",
        -9.472935804274517
      ],
      [
        "gi",
        -9.47843168397377
      ],
      [
        "▁rëdd",
        -9.479534927538957
      ],
      [
        "▁feeñ",
        -9.481384551200385
      ],
      [
        "m.",
        -9.48175737206693
      ],
      [
        "▁scorpion",
        -9.482777169741315
      ],
      [
        "-ci",
        -9.486704547726898
      ],
      [
        "oom",
        -9.488489422010275
      ],
      [
        "lle",
        -9.491073577538476
      ],
      [
        "▁Par",
        -9.491502722652246
      ],
      [
        "yu",
        -9.492495468998097
      ],
      [
        "▁tay",
        -9.492809886738508
      ],
      [
        "aw",
        -9.493954870323993
      ],
      [
        "▁vivre",
        -9.494280279938058
      ],
      [
        "▁tày",
        -9.494614836682588
      ],
      [
        "lla",
        -9.497862630602434
      ],
      [
        "▁wan",
        -9.497951796370643
      ],
      [
        "▁cons",
        -9.498490856995984
      ],
      [
        "dé",
        -9.50386521888382
      ],
      [
        "▁pied",
        -9.504432732269663
      ],
      [
        "ndant",
        -9.504791136886276
      ],
      [
        "▁égarée",
        -9.505074447183334
      ],
      [
        "nce",
        -9.506461776129864
      ],
      [
        "▁blanc",
        -9.506680132219447
      ],
      [
        "ka",
        -9.507046745344452
      ],
      [
        "▁palanteer",
        -9.510827329853402
      ],
      [
        "▁parc",
        -9.511009945176971
      ],
      [
        "▁simple",
        -9.51168562872781
      ],
      [
        "▁gouvernement",
        -9.512264252628134
      ],
      [
        "▁sukkuraat",
        -9.512264252836053
      ],
      [
        "▁loppitaan",
        -9.512264252837724
      ],
      [
        "▁bonheur",
        -9.512264320492338
      ],
      [
        "▁difficile",
        -9.512264483838267
      ],
      [
        "▁Ayijoo",
        -9.512264573740161
      ],
      [
        "▁Moussa",
        -9.512265047447388
      ],
      [
        "▁màrse",
        -9.512266121186617
      ],
      [
        "▁premier",
        -9.512268494024275
      ],
      [
        "▁Óbudu",
        -9.512273723731917
      ],
      [
        "▁Ainsi",
        -9.512274380439784
      ],
      [
        "▁solitude",
        -9.512275794219942
      ],
      [
        "▁reç",
        -9.512280449313323
      ],
      [
        "▁wurus",
        -9.512280840460411
      ],
      [
        "▁Deŋk",
        -9.51228435380495
      ],
      [
        "▁mourir",
        -9.512305696731513
      ],
      [
        "▁tôle",
        -9.51230724048535
      ],
      [
        "▁Déedéet",
        -9.51230748255289
      ],
      [
        "▁xëcc",
        -9.512315283371109
      ],
      [
        "▁l'Angleterre",
        -9.512377166567937
      ],
      [
        "▁woto",
        -9.512382777489316
      ],
      [
        "▁juddoo",
        -9.512385940973006
      ],
      [
        "▁beaucoup",
        -9.512405357677753
      ],
      [
        "▁assis",
        -9.512412463553133
      ],
      [
        "▁subë",
        -9.512436279072706
      ],
      [
        "nd",
        -9.512444897725512
      ],
      [
        "▁campement",
        -9.512463869306298
      ],
      [
        "▁dëgër",
        -9.51248073137117
      ],
      [
        "▁plateaux",
        -9.512481884213097
      ],
      [
        "▁Yéen",
        -9.512508004452506
      ],
      [
        "▁croyai",
        -9.512515586142737
      ],
      [
        "▁simoŋ",
        -9.512516367834758
      ],
      [
        "▁tëdd",
        -9.512558960690551
      ],
      [
        "▁ensemble",
        -9.512582751168912
      ],
      [
        "▁nelaw",
        -9.512691505295717
      ],
      [
        "▁d'abord",
        -9.512721833008774
      ],
      [
        "▁simplement",
        -9.51284902262667
      ],
      [
        "mettre",
        -9.513047039650255
      ],
      [
        "▁au-de",
        -9.513139307176745
      ],
      [
        "▁jàppale",
        -9.513141525842252
      ],
      [
        "▁large",
        -9.513550883235187
      ],
      [
        "▁raglu",
        -9.513714170570958
      ],
      [
        "▁courant",
        -9.51384255273636
      ],
      [
        "▁immense",
        -9.513888402407067
      ],
      [
        "▁bett",
        -9.51412991580561
      ],
      [
        "▁Ayaa",
        -9.514157719613008
      ],
      [
        "▁nuages",
        -9.51429888357899
      ],
      [
        "ër",
        -9.514323808292364
      ],
      [
        "▁images",
        -9.514505098551858
      ],
      [
        "▁depuis",
        -9.514662155085494
      ],
      [
        "▁Ó",
        -9.51467842669428
      ],
      [
        "▁mucc",
        -9.514816634603411
      ],
      [
        "▁reconnu",
        -9.514866048705306
      ],
      [
        "▁ňuul",
        -9.515115961687421
      ],
      [
        "▁vaste",
        -9.515744288208523
      ],
      [
        "▁palmes",
        -9.515836138938303
      ],
      [
        "▁époque",
        -9.516067350110582
      ],
      [
        "▁fépp",
        -9.516160610610365
      ],
      [
        "▁àngale",
        -9.516198353730006
      ],
      [
        "▁train",
        -9.516429171815393
      ],
      [
        "▁ventre",
        -9.516828065437508
      ],
      [
        "▁naqadi",
        -9.517330679795073
      ],
      [
        "venir",
        -9.518420515420615
      ],
      [
        "▁seng",
        -9.518715607776628
      ],
      [
        "▁prend",
        -9.519304631967184
      ],
      [
        "▁district",
        -9.519515860019409
      ],
      [
        "▁fuir",
        -9.519553201522486
      ],
      [
        "▁termites",
        -9.519603567978423
      ],
      [
        "▁accroché",
        -9.51961156186407
      ],
      [
        "▁lonk",
        -9.519717245474478
      ],
      [
        "lli",
        -9.519887442760266
      ],
      [
        "éjà",
        -9.520108541908428
      ],
      [
        "▁anglaise",
        -9.520226416806377
      ],
      [
        "▁woowe",
        -9.521172742970446
      ],
      [
        "ooy",
        -9.521731703973169
      ],
      [
        "▁màndi",
        -9.522180561267525
      ],
      [
        "▁sowu",
        -9.522658996538553
      ],
      [
        "▁voit",
        -9.52287330416264
      ],
      [
        "-t-il",
        -9.523011031758646
      ],
      [
        "▁mukk",
        -9.523302441314728
      ],
      [
        "ppelle",
        -9.52347207481533
      ],
      [
        "▁âge",
        -9.524051434972735
      ],
      [
        "▁porteurs",
        -9.524056099825646
      ],
      [
        "▁Fekk",
        -9.524333215496666
      ],
      [
        "okk",
        -9.52527448892206
      ],
      [
        "▁ainsi",
        -9.526031045064974
      ],
      [
        "▁six",
        -9.52692559361676
      ],
      [
        "▁soppi",
        -9.527835202864939
      ],
      [
        "odeur",
        -9.528534062353918
      ],
      [
        "▁ndey",
        -9.52993834758738
      ],
      [
        "▁chemins",
        -9.530391425991715
      ],
      [
        "ukaay",
        -9.53170602201744
      ],
      [
        "ëgg",
        -9.531886907289778
      ],
      [
        "quoi",
        -9.533590480564179
      ],
      [
        "▁chambre",
        -9.53559544928236
      ],
      [
        "▁jàn",
        -9.53585781646802
      ],
      [
        "▁jafe",
        -9.53638153084182
      ],
      [
        "▁h",
        -9.537051435904072
      ],
      [
        "▁buntu",
        -9.537817484704219
      ],
      [
        "▁masuma",
        -9.537934314838669
      ],
      [
        "▁parents",
        -9.538541890725753
      ],
      [
        "▁ñooñu",
        -9.540732354431888
      ],
      [
        "nde",
        -9.541594800627571
      ],
      [
        "▁pom",
        -9.541889399185825
      ],
      [
        "▁doxe",
        -9.54351731618675
      ],
      [
        "▁cru",
        -9.543941078193582
      ],
      [
        "autorité",
        -9.547522478300106
      ],
      [
        "▁premières",
        -9.549098625309204
      ],
      [
        "▁coloniale",
        -9.549613893129735
      ],
      [
        "▁taxu",
        -9.549946155215071
      ],
      [
        "▁l'é",
        -9.552704342393866
      ],
      [
        "▁siiw",
        -9.55527489495823
      ],
      [
        "▁instant",
        -9.555727992421366
      ],
      [
        "▁yat",
        -9.5562310250569
      ],
      [
        "▁mënu",
        -9.556273526634529
      ],
      [
        "▁n'e",
        -9.556450206208492
      ],
      [
        "▁der",
        -9.560614256288995
      ],
      [
        "▁ñibbi",
        -9.56495436443459
      ],
      [
        "▁yaak",
        -9.570360356956856
      ],
      [
        "▁waral",
        -9.572019514388005
      ],
      [
        "entiers",
        -9.573555642554076
      ],
      [
        "▁av",
        -9.577444506300093
      ],
      [
        "▁crise",
        -9.581837828224906
      ],
      [
        "▁ira",
        -9.58185822443434
      ],
      [
        "▁éta",
        -9.5831032918617
      ],
      [
        "▁teewu",
        -9.58653118848631
      ],
      [
        "kom",
        -9.586608232475594
      ],
      [
        "▁neex.",
        -9.587285548749596
      ],
      [
        "▁d'a",
        -9.588956491008116
      ],
      [
        "▁togg",
        -9.589943642890251
      ],
      [
        "▁nañoo",
        -9.591641176733772
      ],
      [
        "▁provi",
        -9.5916556455274
      ],
      [
        "▁sor",
        -9.592931329397532
      ],
      [
        "▁arrivée",
        -9.594847961291721
      ],
      [
        "▁donn",
        -9.595885777883169
      ],
      [
        "▁raay",
        -9.596054997778863
      ],
      [
        "gu",
        -9.59650940516739
      ],
      [
        "▁guy",
        -9.598358033209319
      ],
      [
        "▁kowe",
        -9.598530916184696
      ],
      [
        "▁jo",
        -9.607156009736233
      ],
      [
        "▁refuse",
        -9.607886018249902
      ],
      [
        "use",
        -9.608287671277353
      ],
      [
        "▁tas",
        -9.608727416164575
      ],
      [
        "▁parte",
        -9.609331717551376
      ],
      [
        "-fu",
        -9.61208566630499
      ],
      [
        "▁l'entr",
        -9.615159284826568
      ],
      [
        "▁jàngal",
        -9.615281844915966
      ],
      [
        "▁Nko",
        -9.61757113074583
      ],
      [
        "alla",
        -9.617983979918344
      ],
      [
        "éri",
        -9.618650418300513
      ],
      [
        "ata",
        -9.619785096865787
      ],
      [
        "▁dakk",
        -9.625645939984496
      ],
      [
        "▁duma",
        -9.625875874985741
      ],
      [
        "▁jànq",
        -9.62731303979948
      ],
      [
        "▁habit",
        -9.627615854865923
      ],
      [
        "vient",
        -9.630704477969866
      ],
      [
        "au",
        -9.633266517709181
      ],
      [
        "était",
        -9.635225110081073
      ],
      [
        "maana",
        -9.637122900250956
      ],
      [
        "ba",
        -9.637129797077707
      ],
      [
        "▁yii",
        -9.637456472627349
      ],
      [
        "▁boue",
        -9.637956580894777
      ],
      [
        "àkk",
        -9.638553995721253
      ],
      [
        "aay",
        -9.639373419801387
      ],
      [
        "▁nja",
        -9.640073343813548
      ],
      [
        "àll",
        -9.642986625827726
      ],
      [
        "▁colonial",
        -9.645195253213029
      ],
      [
        "▁traverse",
        -9.645707271353091
      ],
      [
        "▁ñooña",
        -9.646033061028252
      ],
      [
        "ry",
        -9.64754379430764
      ],
      [
        "▁kàttan",
        -9.64758040720107
      ],
      [
        "▁toogu",
        -9.650820362149128
      ],
      [
        "▁destin",
        -9.651491121882964
      ],
      [
        "rait",
        -9.652422533939449
      ],
      [
        "▁H",
        -9.654522897575937
      ],
      [
        "▁gardé",
        -9.65949279318149
      ],
      [
        "▁t'",
        -9.661059019377745
      ],
      [
        "▁maladie",
        -9.662053956101762
      ],
      [
        "▁ressenti",
        -9.662146402951867
      ],
      [
        "▁garçon",
        -9.662778584499783
      ],
      [
        "x-ci",
        -9.663600235238269
      ],
      [
        "▁xa",
        -9.665658772937833
      ],
      [
        "▁entend",
        -9.66662233517485
      ],
      [
        "▁étranger",
        -9.6688849136834
      ],
      [
        "ter",
        -9.671488720858116
      ],
      [
        "▁chasse",
        -9.671817901079931
      ],
      [
        "▁doomi-",
        -9.673394028123694
      ],
      [
        "▁Ar",
        -9.67342071271279
      ],
      [
        "el",
        -9.674934569654766
      ],
      [
        "▁I",
        -9.677796871885782
      ],
      [
        "▁souffle",
        -9.678320213462237
      ],
      [
        "euse",
        -9.678494843502985
      ],
      [
        "▁juum",
        -9.678765869943298
      ],
      [
        "8",
        -9.678908049808625
      ],
      [
        "▁Wiktoryaa",
        -9.67893091924164
      ],
      [
        "▁dëggëntaan",
        -9.678930919396587
      ],
      [
        "▁Mellentaan",
        -9.678930919862003
      ],
      [
        "▁gàncax",
        -9.678930920153356
      ],
      [
        "▁petorool",
        -9.678930933906443
      ],
      [
        "▁territoire",
        -9.678930949876703
      ],
      [
        "▁officer",
        -9.678930952573396
      ],
      [
        "▁auparavant",
        -9.67893100156869
      ],
      [
        "▁jaxasoo",
        -9.678931040240077
      ],
      [
        "▁ponkal",
        -9.678931217371487
      ],
      [
        "▁ngëlén",
        -9.678931537953803
      ],
      [
        "▁boeuf",
        -9.678931977418063
      ],
      [
        "▁règle",
        -9.678932310462422
      ],
      [
        "▁Yaakaar",
        -9.678932421950103
      ],
      [
        "▁xibaar",
        -9.678934838884675
      ],
      [
        "▁Lagos",
        -9.678935461191594
      ],
      [
        "▁000",
        -9.678936971071094
      ],
      [
        "▁désert",
        -9.678937004887711
      ],
      [
        "▁Africains",
        -9.678937970538831
      ],
      [
        "▁xaalis",
        -9.678941589883536
      ],
      [
        "▁chemise",
        -9.678944379000411
      ],
      [
        "▁vingt",
        -9.678946143830425
      ],
      [
        "▁werante",
        -9.678952359833078
      ],
      [
        "▁pierre",
        -9.678952911791272
      ],
      [
        "▁féete",
        -9.678963289634591
      ],
      [
        "▁visite",
        -9.678969150091534
      ],
      [
        "▁mbedd",
        -9.67896947717061
      ],
      [
        "▁baaraam",
        -9.678971919574
      ],
      [
        "▁cheveux",
        -9.67897665159558
      ],
      [
        "▁l'époque",
        -9.678980657897464
      ],
      [
        "▁réalité",
        -9.678992278436638
      ],
      [
        "▁jumtukaay",
        -9.679004606472507
      ],
      [
        "▁jékkee-j",
        -9.679009893587557
      ],
      [
        "▁servir",
        -9.679030639334028
      ],
      [
        "▁d'autrefois",
        -9.679048079443575
      ],
      [
        "▁njabootam",
        -9.679052344795606
      ],
      [
        "▁frontière",
        -9.679059991414377
      ],
      [
        "▁légère",
        -9.679082260286657
      ],
      [
        "▁rëcc",
        -9.679088470989303
      ],
      [
        "▁yeksi",
        -9.679093574867213
      ],
      [
        "▁Tugël",
        -9.679099839883204
      ],
      [
        "▁kawas",
        -9.679118338095428
      ],
      [
        "▁cofeel",
        -9.679137270291289
      ],
      [
        "▁tàngaay",
        -9.67922548123155
      ],
      [
        "▁herbes",
        -9.679254170093298
      ],
      [
        "▁Samba",
        -9.679267758293797
      ],
      [
        "▁gunge",
        -9.679280185973438
      ],
      [
        "▁début",
        -9.67928194986236
      ],
      [
        "▁rêvé",
        -9.679344275196149
      ],
      [
        "▁caaxaan",
        -9.679346360999675
      ],
      [
        "▁tàmm",
        -9.6794424703986
      ],
      [
        "▁j'imagine",
        -9.679500478460483
      ],
      [
        "▁meňň",
        -9.67950570488397
      ],
      [
        "▁dajale",
        -9.679522183744975
      ],
      [
        "▁jabar",
        -9.679556422329053
      ],
      [
        "▁seetaan",
        -9.679699537313326
      ],
      [
        "▁commun",
        -9.679706110181339
      ],
      [
        "▁voiture",
        -9.679747072887391
      ],
      [
        "▁revenir",
        -9.679753988114761
      ],
      [
        "▁masques",
        -9.67978153293353
      ],
      [
        "▁yéeg",
        -9.679788727564652
      ],
      [
        "▁nouvelle",
        -9.679809635924933
      ],
      [
        "▁jëfandikoo",
        -9.679830435980584
      ],
      [
        "▁mangé",
        -9.67988314291128
      ],
      [
        "▁courir",
        -9.679910325966597
      ],
      [
        "▁connaissent",
        -9.679927406950236
      ],
      [
        "▁jàkk",
        -9.680061817483487
      ],
      [
        "▁sëkk",
        -9.680166198168735
      ],
      [
        "▁travailleurs",
        -9.68039362625275
      ],
      [
        "▁wéet",
        -9.68043438276402
      ],
      [
        "▁arrêté",
        -9.680475529034442
      ],
      [
        "▁askan",
        -9.680503877778218
      ],
      [
        "▁bouche",
        -9.680550481271942
      ],
      [
        "▁lonet",
        -9.680584380225252
      ],
      [
        "▁njël",
        -9.680725424375844
      ],
      [
        "▁fût",
        -9.680743254255914
      ],
      [
        "▁nom",
        -9.680766771538748
      ],
      [
        "▁partout",
        -9.680880856180467
      ],
      [
        "▁yëf",
        -9.680974447099974
      ],
      [
        "▁Kookule",
        -9.680978631449499
      ],
      [
        "▁néew",
        -9.68109862477538
      ],
      [
        "▁ressens",
        -9.681252944630277
      ],
      [
        "▁kukk",
        -9.681326623645871
      ],
      [
        "▁lëf",
        -9.681348255186077
      ],
      [
        "▁brousse",
        -9.681352422572894
      ],
      [
        "ya",
        -9.681420020755269
      ],
      [
        "▁gàddaay",
        -9.681439104731144
      ],
      [
        "▁agsi",
        -9.681643815419953
      ],
      [
        "▁Demal",
        -9.681979359390155
      ],
      [
        "▁dehors",
        -9.68202470573653
      ],
      [
        "▁muur",
        -9.682444858231834
      ],
      [
        "▁Foofu",
        -9.68258185056462
      ],
      [
        "▁fow",
        -9.68273136266947
      ],
      [
        "▁laisser",
        -9.682851738171461
      ],
      [
        "▁Fais",
        -9.68290135783654
      ],
      [
        "▁habitants",
        -9.682924007207045
      ],
      [
        "▁malade",
        -9.683232642431609
      ],
      [
        "▁tolloo",
        -9.683240170846314
      ],
      [
        "▁L'un",
        -9.683280185333789
      ],
      [
        "▁goog",
        -9.683408726371386
      ],
      [
        "▁tontu",
        -9.683875876122162
      ],
      [
        "▁l'aventure",
        -9.683959121039626
      ],
      [
        "▁parlé",
        -9.68414627520458
      ],
      [
        "▁yen",
        -9.684296924550473
      ],
      [
        "▁jeeg",
        -9.68433849472129
      ],
      [
        "▁xeex",
        -9.684559938573935
      ],
      [
        "ngóor",
        -9.68522515542431
      ],
      [
        "▁propre",
        -9.68598238346635
      ],
      [
        "▁soosu",
        -9.686038599250448
      ],
      [
        "▁jaŋg",
        -9.686212585809091
      ],
      [
        "▁cuisine",
        -9.686401959855424
      ],
      [
        "▁tata",
        -9.686824667909143
      ],
      [
        "▁bonne",
        -9.687086874582386
      ],
      [
        "▁écrit",
        -9.687509403807585
      ],
      [
        "▁taamu",
        -9.688064583883165
      ],
      [
        "▁bépp",
        -9.688134709469617
      ],
      [
        "ces",
        -9.68839252309139
      ],
      [
        "▁yéemu",
        -9.689390948919243
      ],
      [
        "▁nul",
        -9.68972786996271
      ],
      [
        "▁Obudu",
        -9.689940762253203
      ],
      [
        "▁yéene",
        -9.690136196094477
      ],
      [
        "habitude",
        -9.69027654851401
      ],
      [
        "▁juróomi",
        -9.69032734999378
      ],
      [
        "▁foo",
        -9.690371362236275
      ],
      [
        "ène",
        -9.690823825956317
      ],
      [
        "▁Port",
        -9.69153685092344
      ],
      [
        "▁reer",
        -9.691738244683759
      ],
      [
        "▁démb",
        -9.691891243998946
      ],
      [
        "ko",
        -9.693496988839325
      ],
      [
        "waa",
        -9.693714882510408
      ],
      [
        "▁droit",
        -9.69397816162295
      ],
      [
        "▁sës",
        -9.694063222381374
      ],
      [
        "▁sens",
        -9.694268878302962
      ],
      [
        "▁thé",
        -9.695070659347865
      ],
      [
        "▁tiit",
        -9.69507151601882
      ],
      [
        "▁objets",
        -9.695888294552676
      ],
      [
        "▁surga",
        -9.696302842026784
      ],
      [
        "▁histoire",
        -9.69720478471446
      ],
      [
        "▁danga",
        -9.697456253200215
      ],
      [
        "▁Quelque",
        -9.698743914886826
      ],
      [
        "▁donc",
        -9.698922260116245
      ],
      [
        "▁jotee",
        -9.69925091680237
      ],
      [
        "▁jambes",
        -9.699497786567747
      ],
      [
        "▁ressentir",
        -9.700072794143779
      ],
      [
        "▁vêtu",
        -9.700639403737863
      ],
      [
        "▁humaine",
        -9.700927484453619
      ],
      [
        "▁arrivés",
        -9.701227244706088
      ],
      [
        "▁visages",
        -9.701693496547447
      ],
      [
        "▁africaine",
        -9.70171690645725
      ],
      [
        "▁viennent",
        -9.70197590457023
      ],
      [
        "▁certaine",
        -9.70246052601982
      ],
      [
        "▁Yaa",
        -9.70254233489572
      ],
      [
        "▁unique",
        -9.70256144445747
      ],
      [
        "▁Fii",
        -9.70316431860061
      ],
      [
        "part",
        -9.70372148217201
      ],
      [
        "▁jag",
        -9.704211072512946
      ],
      [
        "▁cherch",
        -9.7045842334262
      ],
      [
        "▁far",
        -9.7047059226053
      ],
      [
        "▁yeew",
        -9.704994572549463
      ],
      [
        "t.",
        -9.705340395320986
      ],
      [
        "▁fer",
        -9.705845247492624
      ],
      [
        "▁bëggée",
        -9.706053153716812
      ],
      [
        "sait",
        -9.706905358142901
      ],
      [
        "▁dawal",
        -9.70691806920063
      ],
      [
        "▁jeunes",
        -9.707002630579233
      ],
      [
        "▁Afrigam",
        -9.707717066714595
      ],
      [
        "▁tours",
        -9.707969537364137
      ],
      [
        "▁waxoon",
        -9.71122676427386
      ],
      [
        "▁tekki",
        -9.711873629753496
      ],
      [
        "▁sanc",
        -9.711927955010461
      ],
      [
        "▁présent",
        -9.71382339449893
      ],
      [
        "▁avais",
        -9.715876864198773
      ],
      [
        "▁s'ét",
        -9.715930590140834
      ],
      [
        "▁naissance",
        -9.718227184185807
      ],
      [
        "▁française",
        -9.718243335063246
      ],
      [
        "▁déet",
        -9.71869795615418
      ],
      [
        "▁Ne",
        -9.720386475544446
      ],
      [
        "exe",
        -9.721703170588134
      ],
      [
        "kkal",
        -9.723211302825757
      ],
      [
        "▁yax",
        -9.724055864578006
      ],
      [
        "▁coono",
        -9.724376485968019
      ],
      [
        "image",
        -9.724879172939056
      ],
      [
        "▁soup",
        -9.725398950433105
      ],
      [
        "▁dikk",
        -9.726150259996192
      ],
      [
        "▁më",
        -9.72619692840325
      ],
      [
        "▁nguuru",
        -9.727843192128901
      ],
      [
        "▁màndarga",
        -9.729891923091763
      ],
      [
        "▁rivières",
        -9.730999448534023
      ],
      [
        "▁allai",
        -9.73120757471131
      ],
      [
        "▁men",
        -9.731951729642669
      ],
      [
        "ndax",
        -9.733529599033703
      ],
      [
        "▁portes",
        -9.733835710419452
      ],
      [
        "andoo",
        -9.736861273066486
      ],
      [
        "▁coups",
        -9.737385392601485
      ],
      [
        "▁féex",
        -9.737597372110288
      ],
      [
        "▁commence",
        -9.739040748980747
      ],
      [
        "▁car",
        -9.739201903286567
      ],
      [
        "▁jigéen.",
        -9.739744850148409
      ],
      [
        "▁waroo",
        -9.74002724381356
      ],
      [
        "▁dan",
        -9.742284299213557
      ],
      [
        "▁j'en",
        -9.7434042370752
      ],
      [
        "▁ng",
        -9.743922805965457
      ],
      [
        "ji",
        -9.744535607551917
      ],
      [
        "▁cherche",
        -9.747931711860321
      ],
      [
        "▁Abo",
        -9.749440315055365
      ],
      [
        "ag",
        -9.75139423759679
      ],
      [
        "umes",
        -9.752086372847415
      ],
      [
        "▁été.",
        -9.754554083117775
      ],
      [
        "▁kay",
        -9.754682843954294
      ],
      [
        "▁bir",
        -9.754795580343407
      ],
      [
        "▁mari",
        -9.756181616407476
      ],
      [
        "▁tànki",
        -9.756602604331041
      ],
      [
        "▁Nda",
        -9.75969965639229
      ],
      [
        "▁woy",
        -9.761378470585063
      ],
      [
        "▁àpp",
        -9.761783562192136
      ],
      [
        "▁devenu",
        -9.762834603839416
      ],
      [
        "▁tab",
        -9.764601715092484
      ],
      [
        "aata",
        -9.765576146249312
      ],
      [
        "▁xet",
        -9.76637716553995
      ],
      [
        "n.",
        -9.768128650765108
      ],
      [
        "ton",
        -9.768415644970787
      ],
      [
        "instant",
        -9.76999666480059
      ],
      [
        "'individu",
        -9.777055212521491
      ],
      [
        "ches",
        -9.778068072594328
      ],
      [
        "▁Ri",
        -9.778760648949643
      ],
      [
        "▁Ña",
        -9.779148025757019
      ],
      [
        "ieux",
        -9.77961693118908
      ],
      [
        "▁x",
        -9.780771648754072
      ],
      [
        "▁dun",
        -9.782558771322526
      ],
      [
        "▁amen",
        -9.782841141543289
      ],
      [
        "▁new",
        -9.788186087556547
      ],
      [
        "tation",
        -9.791040618668116
      ],
      [
        "aller",
        -9.793083706676985
      ],
      [
        "▁Liggéey",
        -9.793653870903022
      ],
      [
        "▁yar",
        -9.793814600315011
      ],
      [
        "▁danu",
        -9.796667592596354
      ],
      [
        "▁ñeme",
        -9.798174781552895
      ],
      [
        "▁hu",
        -9.799445443592575
      ],
      [
        "ique",
        -9.800316963415831
      ],
      [
        "▁Waxa",
        -9.800366738940713
      ],
      [
        "▁nus",
        -9.801365065482267
      ],
      [
        "▁Ngi",
        -9.801597300251688
      ],
      [
        "▁champ",
        -9.80270093197199
      ],
      [
        "▁wi.",
        -9.806439678354199
      ],
      [
        "▁cinq",
        -9.80720783641998
      ],
      [
        "▁Xare",
        -9.808093107273905
      ],
      [
        "▁Nu",
        -9.808191316816531
      ],
      [
        "▁Jo",
        -9.808796305806567
      ],
      [
        "▁Ka",
        -9.809304853171305
      ],
      [
        "▁jou",
        -9.809611523941816
      ],
      [
        "▁Mar",
        -9.809709174622125
      ],
      [
        "▁prêt",
        -9.811231131047059
      ],
      [
        "ta",
        -9.811945679351492
      ],
      [
        "ll",
        -9.812567120287497
      ],
      [
        "▁dinaa",
        -9.815492180571574
      ],
      [
        "▁rage",
        -9.815524627875313
      ],
      [
        "▁tee",
        -9.81556012766057
      ],
      [
        "▁naň",
        -9.8156167528167
      ],
      [
        "▁ressemble",
        -9.819826820709062
      ],
      [
        "▁not",
        -9.821975971387994
      ],
      [
        "▁nguur",
        -9.822394977731769
      ],
      [
        "▁garde",
        -9.822692512913704
      ],
      [
        "ëf",
        -9.825201045581036
      ],
      [
        "▁l'ét",
        -9.826352077088625
      ],
      [
        "hoisi",
        -9.829646793960897
      ],
      [
        "▁set",
        -9.83003203321904
      ],
      [
        "▁mba",
        -9.831150133231231
      ],
      [
        "▁français",
        -9.833009554349625
      ],
      [
        "▁pou",
        -9.834394999540217
      ],
      [
        "0",
        -9.836304508937596
      ],
      [
        "▁fais",
        -9.83658709692642
      ],
      [
        "▁chaud",
        -9.838407454669316
      ],
      [
        "ññ",
        -9.840601770640186
      ],
      [
        "ption",
        -9.843057380830324
      ],
      [
        "▁suiv",
        -9.843614900019833
      ],
      [
        "▁bâton",
        -9.844295875469651
      ],
      [
        "óo",
        -9.846472458059882
      ],
      [
        "▁To",
        -9.848730617699296
      ],
      [
        "ète",
        -9.850268878816884
      ],
      [
        "▁gisu",
        -9.851053359235982
      ],
      [
        "▁sauvage",
        -9.853602077532695
      ],
      [
        "▁Foo",
        -9.854457713437993
      ],
      [
        "▁làq",
        -9.856144990451478
      ],
      [
        "▁jur",
        -9.856557477720076
      ],
      [
        "ju",
        -9.859175654037353
      ],
      [
        "▁wà",
        -9.859480863543077
      ],
      [
        "▁sou",
        -9.86013810897239
      ],
      [
        "aale",
        -9.86032254877476
      ],
      [
        "▁ñooñ",
        -9.861472530739402
      ],
      [
        "▁suñ",
        -9.862463800847959
      ],
      [
        "▁këru",
        -9.863197647567441
      ],
      [
        "été",
        -9.8652375824056
      ],
      [
        "ënd",
        -9.865328090853371
      ],
      [
        "▁chang",
        -9.866338657620613
      ],
      [
        "▁ra",
        -9.866385850504386
      ],
      [
        "▁frapp",
        -9.869632600415564
      ],
      [
        "▁trouve",
        -9.870669327082695
      ],
      [
        "▁chemin",
        -9.871190115586174
      ],
      [
        "▁màgge",
        -9.871825248131529
      ],
      [
        "indre",
        -9.87228688130828
      ],
      [
        "▁entendu",
        -9.875000993890588
      ],
      [
        "▁mé",
        -9.876307859483124
      ],
      [
        "▁ro",
        -9.876631474998982
      ],
      [
        "▁Aujourd'hui",
        -9.878930919241581
      ],
      [
        "▁camerounais",
        -9.878930919244494
      ],
      [
        "▁Sefiriis",
        -9.87893091928032
      ],
      [
        "”",
        -9.878930919281535
      ],
      [
        "▁Southampton",
        -9.878930919281535
      ],
      [
        "▁Georgetown",
        -9.878930919295279
      ],
      [
        "▁njàqare",
        -9.878930919472126
      ],
      [
        "▁Adekunle",
        -9.878930919493797
      ],
      [
        "▁l'extérieur",
        -9.878930924767587
      ],
      [
        "▁Abaakaliki",
        -9.878930928745573
      ],
      [
        "▁termitières",
        -9.87893093312805
      ],
      [
        "▁photographi",
        -9.878930938510335
      ],
      [
        "▁biafrais",
        -9.878930938807608
      ],
      [
        "▁Biafra",
        -9.878930958982162
      ],
      [
        "▁dëgg-dëgg",
        -9.878931061703513
      ],
      [
        "▁“",
        -9.87893108203642
      ],
      [
        "▁Yoruba",
        -9.878931169708855
      ],
      [
        "▁Sorstaawun",
        -9.878931474782524
      ],
      [
        "▁grand-père",
        -9.87893149164349
      ],
      [
        "▁continent",
        -9.87893177731295
      ],
      [
        "▁probable",
        -9.878935209938874
      ],
      [
        "▁rejoindre",
        -9.878936233670936
      ],
      [
        "▁chaussures",
        -9.878937373451588
      ],
      [
        "▁service",
        -9.878938992099872
      ],
      [
        "▁Cross",
        -9.878939950021016
      ],
      [
        "▁Waxtaan",
        -9.878940257862384
      ],
      [
        "▁contact",
        -9.87894220353031
      ],
      [
        "▁ndóol",
        -9.878943297800133
      ],
      [
        "▁métier",
        -9.87894359015846
      ],
      [
        "▁collines",
        -9.878948330722354
      ],
      [
        "▁branche",
        -9.878948591272819
      ],
      [
        "▁kalaate",
        -9.878951404892408
      ],
      [
        "▁compris",
        -9.878952987820204
      ],
      [
        "▁terrible",
        -9.878955358065307
      ],
      [
        "▁retraite",
        -9.878955773140735
      ],
      [
        "▁tronc",
        -9.878956694435475
      ],
      [
        "▁mauvais",
        -9.878958212132163
      ],
      [
        "▁Monsieur",
        -9.878961543011506
      ],
      [
        "▁brûlure",
        -9.878963234621725
      ],
      [
        "▁karaw",
        -9.87897111959291
      ],
      [
        "▁poussière",
        -9.878973079559549
      ],
      [
        "▁l'aube",
        -9.878981420087968
      ],
      [
        "▁noyyi",
        -9.878992757558692
      ],
      [
        "▁adulte",
        -9.878997030617796
      ],
      [
        "▁Celui-là",
        -9.879003886095596
      ],
      [
        "▁xaaju",
        -9.879010747247895
      ],
      [
        "▁taabal",
        -9.879010991564343
      ],
      [
        "▁gànnaay",
        -9.879025205161696
      ],
      [
        "▁alkol",
        -9.879033379727328
      ],
      [
        "▁doxantu",
        -9.879054671372206
      ],
      [
        "▁gentil",
        -9.879064433582503
      ],
      [
        "▁làquji",
        -9.879067979066301
      ],
      [
        "▁fetal",
        -9.87911838106525
      ],
      [
        "▁séchée",
        -9.87913125899242
      ],
      [
        "▁Pourtant",
        -9.879144208919884
      ],
      [
        "▁fauve",
        -9.879149172719801
      ],
      [
        "▁vérité",
        -9.879158872646112
      ],
      [
        "▁rares",
        -9.879198238838104
      ],
      [
        "▁lampe",
        -9.879209969964078
      ],
      [
        "▁ondul",
        -9.879212272062873
      ],
      [
        "-tiir",
        -9.879214721193687
      ],
      [
        "▁j'étais",
        -9.879218393377347
      ],
      [
        "▁naqar",
        -9.879219071481781
      ],
      [
        "▁juste",
        -9.879373064569215
      ],
      [
        "▁Ñoo",
        -9.879392455028189
      ],
      [
        "▁soppiku",
        -9.87941211370936
      ],
      [
        "▁courage",
        -9.879435067190002
      ],
      [
        "▁hutte",
        -9.879439615451627
      ],
      [
        "▁fey",
        -9.879463485873273
      ],
      [
        "▁colère",
        -9.879478102987893
      ],
      [
        "▁fruit",
        -9.879492166937716
      ],
      [
        "▁awsa",
        -9.879617728714045
      ],
      [
        "▁lui-même",
        -9.879637288756463
      ],
      [
        "▁ndab",
        -9.8796594162451
      ],
      [
        "▁d'esprit",
        -9.87969063570306
      ],
      [
        "▁mbégte",
        -9.87970768931584
      ],
      [
        "▁mbind",
        -9.87973007351806
      ],
      [
        "▁place",
        -9.879757066799122
      ],
      [
        "▁assez",
        -9.879758272081231
      ],
      [
        "▁yàlla",
        -9.879878448316624
      ],
      [
        "▁connaissais",
        -9.879925207789283
      ],
      [
        "▁vivant",
        -9.87998025870258
      ],
      [
        "▁précédé",
        -9.880040745906914
      ],
      [
        "▁brave",
        -9.880158148667041
      ],
      [
        "▁dékku",
        -9.880172367054922
      ],
      [
        "▁oncle",
        -9.880209249236543
      ],
      [
        "▁gox",
        -9.880390007191448
      ],
      [
        "▁fortune",
        -9.880471232813072
      ],
      [
        "▁journée",
        -9.880499369363845
      ],
      [
        "▁delsi",
        -9.880696213944795
      ],
      [
        "entre",
        -9.880745790610295
      ],
      [
        "▁juddu",
        -9.88104591719196
      ],
      [
        "▁pince",
        -9.881053871032101
      ],
      [
        "▁apporté",
        -9.881062777300693
      ],
      [
        "▁autre-là",
        -9.881079414493005
      ],
      [
        "▁sàcc",
        -9.881157655009039
      ],
      [
        "▁fitna",
        -9.88117201352395
      ],
      [
        "▁volets",
        -9.881207269705607
      ],
      [
        "▁sensation",
        -9.881277796496967
      ],
      [
        "▁jouer",
        -9.88153570171006
      ],
      [
        "▁yàpp",
        -9.881623203695193
      ],
      [
        "▁Go",
        -9.881650884530028
      ],
      [
        "▁daaneel",
        -9.881789725338121
      ],
      [
        "▁sombre",
        -9.881958316732286
      ],
      [
        "▁Musaa",
        -9.882179913212319
      ],
      [
        "▁daanu",
        -9.882355203907641
      ],
      [
        "▁cacher",
        -9.882588316891324
      ],
      [
        "▁Vo",
        -9.883019679678798
      ],
      [
        "▁doomam",
        -9.883044550962232
      ],
      [
        "▁njiit",
        -9.883088571738822
      ],
      [
        "▁fort",
        -9.883343379408325
      ],
      [
        "▁Daawu",
        -9.883478986487157
      ],
      [
        "▁Kooku",
        -9.883593724156958
      ],
      [
        "▁d'eux",
        -9.883734445953904
      ],
      [
        "▁melax",
        -9.884127072695733
      ],
      [
        "▁xur",
        -9.884687022468963
      ],
      [
        "▁yëgaat",
        -9.885017510452954
      ],
      [
        "▁sotti",
        -9.885336372876193
      ],
      [
        "▁clair",
        -9.885448195195156
      ],
      [
        "ion",
        -9.885537806922592
      ],
      [
        "▁simis",
        -9.885698920361591
      ],
      [
        "▁resté",
        -9.885969907500764
      ],
      [
        "▁taw",
        -9.886213727877559
      ],
      [
        "▁xaritam",
        -9.886514897225503
      ],
      [
        "▁douce",
        -9.886662008717465
      ],
      [
        "▁woowu",
        -9.886664266058279
      ],
      [
        "▁ëmb",
        -9.8867202181924
      ],
      [
        "▁kowam",
        -9.88719190120337
      ],
      [
        "▁allemande",
        -9.887978750274181
      ],
      [
        "▁amour",
        -9.88841213202479
      ],
      [
        "▁wér",
        -9.888470683271567
      ],
      [
        "▁pos",
        -9.889298681686736
      ],
      [
        "fippu",
        -9.889896463219436
      ],
      [
        "ati-",
        -9.890096194636127
      ],
      [
        "▁revienne",
        -9.890421981650395
      ],
      [
        "sant",
        -9.890433552074711
      ],
      [
        "▁rire",
        -9.890469568962185
      ],
      [
        "able",
        -9.890592601046597
      ],
      [
        "▁ñaa",
        -9.890717511643144
      ],
      [
        "▁vide",
        -9.89114754136394
      ],
      [
        "▁njort",
        -9.89116682239669
      ],
      [
        "▁sell",
        -9.891205828076112
      ],
      [
        "▁mesure",
        -9.892082187467349
      ],
      [
        "▁buum",
        -9.892261278966613
      ],
      [
        "▁nijaay",
        -9.89232188885215
      ],
      [
        "ande",
        -9.892351080578502
      ],
      [
        "▁tawat",
        -9.89288264985154
      ],
      [
        "▁dàtt",
        -9.893139211706718
      ],
      [
        "▁savoir",
        -9.893689154136945
      ],
      [
        "▁différent",
        -9.893819223502723
      ],
      [
        "▁guyy",
        -9.894210448016398
      ],
      [
        "ici",
        -9.894364227911858
      ],
      [
        "▁ñëwul",
        -9.89437274124179
      ],
      [
        "▁be",
        -9.89514585152774
      ],
      [
        "▁waru",
        -9.895388473051977
      ],
      [
        "▁sopp",
        -9.896011532491057
      ],
      [
        "▁pans",
        -9.896528837898735
      ],
      [
        "▁Aiya",
        -9.896992636936895
      ],
      [
        "▁nak",
        -9.897578223618487
      ],
      [
        "▁militaires",
        -9.897913551579668
      ],
      [
        "▁enfant-",
        -9.899040593723095
      ],
      [
        "▁couch",
        -9.899086068860665
      ],
      [
        "ble",
        -9.899090677389282
      ],
      [
        "ok",
        -9.89922341736639
      ],
      [
        "▁dëkkoon",
        -9.900864385758954
      ],
      [
        "▁hamacs",
        -9.90087390769738
      ],
      [
        "▁forte",
        -9.901007150106512
      ],
      [
        "▁charge",
        -9.901055816755743
      ],
      [
        "▁Ja",
        -9.901240728983266
      ],
      [
        "▁wóolu",
        -9.901320931855649
      ],
      [
        "oy",
        -9.902314904019125
      ],
      [
        "▁blancs",
        -9.904800919031949
      ],
      [
        "su",
        -9.90491563795967
      ],
      [
        "▁mënuma",
        -9.905519045754891
      ],
      [
        "▁làqu",
        -9.905527616288492
      ],
      [
        "▁lire",
        -9.90595421654189
      ],
      [
        "▁Tou",
        -9.906175587744475
      ],
      [
        "▁pis",
        -9.906216069513626
      ],
      [
        "▁laissé",
        -9.906243287084983
      ],
      [
        "aanaka",
        -9.90626722580143
      ],
      [
        "▁avance",
        -9.906481922885911
      ],
      [
        "▁dàq",
        -9.906566397602345
      ],
      [
        "▁éclat",
        -9.907126856713443
      ],
      [
        "▁naaxi",
        -9.907172630529965
      ],
      [
        "▁donner",
        -9.907538302575166
      ],
      [
        "▁yéeme",
        -9.908358564245985
      ],
      [
        "▁laine",
        -9.908792524661958
      ],
      [
        "▁devenus",
        -9.908932807911587
      ],
      [
        "elles",
        -9.909192006566082
      ],
      [
        "▁dugal",
        -9.909407043220616
      ],
      [
        "gé",
        -9.909702883959847
      ],
      [
        "▁rappelle",
        -9.909876618200059
      ],
      [
        "▁rive",
        -9.91002066709754
      ],
      [
        "▁Mag",
        -9.910621478947633
      ],
      [
        "ram",
        -9.91190906245755
      ],
      [
        "▁tour",
        -9.912974333382586
      ],
      [
        "née",
        -9.913888878220476
      ],
      [
        "▁égale",
        -9.914397471965732
      ],
      [
        "▁Seet",
        -9.915667349128285
      ],
      [
        "kaay",
        -9.915937525096792
      ],
      [
        "▁àtte",
        -9.916154696924346
      ],
      [
        "▁tiis",
        -9.917597220204133
      ],
      [
        "▁Mas",
        -9.919351961462883
      ],
      [
        "▁niir",
        -9.920622854305607
      ],
      [
        "lon",
        -9.921321182768535
      ],
      [
        "neen",
        -9.921551204470234
      ],
      [
        "▁wàcce",
        -9.921842382449851
      ],
      [
        "andis",
        -9.922005909776525
      ],
      [
        "▁Dis",
        -9.922198190566098
      ],
      [
        "▁At",
        -9.922595458132683
      ],
      [
        "▁cas",
        -9.922833772758008
      ],
      [
        "▁mënee",
        -9.92283498484733
      ],
      [
        "▁kookuu",
        -9.92314612590566
      ],
      [
        "▁siy",
        -9.92333614398575
      ],
      [
        "▁scorpions",
        -9.923496913111528
      ],
      [
        "▁Xe",
        -9.92435399276595
      ],
      [
        "▁accompagn",
        -9.92450693221987
      ],
      [
        "▁wutal",
        -9.926137645174487
      ],
      [
        "om",
        -9.926218446591102
      ],
      [
        "ŋŋ",
        -9.927284270089663
      ],
      [
        "eef",
        -9.928034419481513
      ],
      [
        "▁pluie",
        -9.928247641553352
      ],
      [
        "▁entré",
        -9.929241139052568
      ],
      [
        "▁troupeau",
        -9.930063406824523
      ],
      [
        "▁pareil",
        -9.932633519582065
      ],
      [
        "▁retourne",
        -9.933472559895343
      ],
      [
        "▁Moi",
        -9.933677172774779
      ],
      [
        "▁armé",
        -9.934292734792022
      ],
      [
        "angoisse",
        -9.934394515787204
      ],
      [
        "▁baxa",
        -9.934399452872785
      ],
      [
        "▁fit",
        -9.935277409991432
      ],
      [
        "▁Mii",
        -9.936505158169064
      ],
      [
        "rt",
        -9.936643768247372
      ],
      [
        "▁Yo",
        -9.937251348830252
      ],
      [
        "▁aurais",
        -9.937272864597105
      ],
      [
        "oit",
        -9.937323189703957
      ],
      [
        "tendre",
        -9.937596750626739
      ],
      [
        "'imagine",
        -9.938375761406265
      ],
      [
        "connais",
        -9.940219517000203
      ],
      [
        "▁ňi",
        -9.942004625719399
      ],
      [
        "▁beau",
        -9.942322525143494
      ],
      [
        "'appartien",
        -9.942819908738334
      ],
      [
        "aatu",
        -9.943828423873414
      ],
      [
        "▁désir",
        -9.94510308198542
      ],
      [
        "▁batt",
        -9.946267686447436
      ],
      [
        "nn",
        -9.947175841237728
      ],
      [
        "▁saf",
        -9.948904794543283
      ],
      [
        "▁mbë",
        -9.951053989910275
      ],
      [
        "ins",
        -9.951968065597908
      ],
      [
        "▁Yan",
        -9.952643060028686
      ],
      [
        "vant",
        -9.95369738393039
      ],
      [
        "ñoo",
        -9.954009141031221
      ],
      [
        "▁vas",
        -9.95446773244505
      ],
      [
        "▁plan",
        -9.954688090183668
      ],
      [
        "▁maîtres",
        -9.95705659778731
      ],
      [
        "ï",
        -9.957358275646989
      ],
      [
        "ières",
        -9.960629711253889
      ],
      [
        "▁néegu-",
        -9.961101557991965
      ],
      [
        "▁prise",
        -9.962139282720461
      ],
      [
        "▁Mba",
        -9.962316556999742
      ],
      [
        "▁l'avai",
        -9.965258210053726
      ],
      [
        "ard",
        -9.966442698257548
      ],
      [
        "▁léeb",
        -9.967240478192505
      ],
      [
        "▁mënut",
        -9.9673326713348
      ],
      [
        "▁seuls",
        -9.967696910336613
      ],
      [
        "▁sain",
        -9.967831173624559
      ],
      [
        "tions",
        -9.968777903076957
      ],
      [
        "▁nourri",
        -9.968987039333435
      ],
      [
        "▁E",
        -9.970765160629382
      ],
      [
        "our",
        -9.971889399606273
      ],
      [
        "▁cercl",
        -9.972145301092965
      ],
      [
        "cc",
        -9.972392917079377
      ],
      [
        "▁deey",
        -9.973527396187338
      ],
      [
        "ca",
        -9.975397145092009
      ],
      [
        "hier",
        -9.977122793811295
      ],
      [
        "▁Ji",
        -9.977190996039939
      ],
      [
        "▁mill",
        -9.985054251683676
      ],
      [
        "▁jaa",
        -9.986173154932398
      ],
      [
        "tam",
        -9.986258971895817
      ],
      [
        "▁all",
        -9.989175390323767
      ],
      [
        "▁croi",
        -9.990923387197368
      ],
      [
        "▁pourra",
        -9.992403425002404
      ],
      [
        "fi",
        -9.995154737595806
      ],
      [
        "▁nag.",
        -9.995844994218592
      ],
      [
        "waale",
        -9.996622820469014
      ],
      [
        "▁sant",
        -9.998616346919789
      ],
      [
        "▁saba",
        -9.999053066882691
      ],
      [
        "▁pe",
        -10.000516276733078
      ],
      [
        "sa",
        -10.000997164581323
      ],
      [
        "boole",
        -10.001432613162068
      ],
      [
        "▁nan",
        -10.0020788378296
      ],
      [
        "ait-il",
        -10.002241704582795
      ],
      [
        "▁auto",
        -10.002513763326139
      ],
      [
        "▁grandi",
        -10.005313482866836
      ],
      [
        "▁(ce",
        -10.006622795606809
      ],
      [
        "celle",
        -10.00697339131294
      ],
      [
        "▁pré",
        -10.008122422528908
      ],
      [
        "waan",
        -10.009320295239062
      ],
      [
        "ombre",
        -10.011559266624529
      ],
      [
        "milie",
        -10.012446102908502
      ],
      [
        "▁table",
        -10.01433802058374
      ],
      [
        "leek",
        -10.01448725801279
      ],
      [
        "ers",
        -10.015781185422336
      ],
      [
        "▁pensé",
        -10.017281052636669
      ],
      [
        "tal",
        -10.01786844092408
      ],
      [
        "▁impression",
        -10.019657858753435
      ],
      [
        "▁con",
        -10.0200100294769
      ],
      [
        "▁d'or",
        -10.022249031144261
      ],
      [
        "▁dur",
        -10.022334519370888
      ],
      [
        "▁Fu",
        -10.02244363425028
      ],
      [
        "▁cou",
        -10.023959920577274
      ],
      [
        "roule",
        -10.024167238990756
      ],
      [
        "▁J'",
        -10.026390265958417
      ],
      [
        "éy",
        -10.028296404439473
      ],
      [
        "▁faf",
        -10.028574033164414
      ],
      [
        "ire",
        -10.029175681257795
      ],
      [
        "'occupa",
        -10.029492544380757
      ],
      [
        "▁yemu",
        -10.030200048173995
      ],
      [
        "▁lim",
        -10.034443495712914
      ],
      [
        "▁m'",
        -10.03685191226439
      ],
      [
        "▁maître",
        -10.036883707685936
      ],
      [
        "▁wor",
        -10.038267339997045
      ],
      [
        "toon",
        -10.038286923194544
      ],
      [
        "▁pouss",
        -10.040144021918778
      ],
      [
        "▁në",
        -10.040910353780836
      ],
      [
        "aas",
        -10.04140174979947
      ],
      [
        "▁lal",
        -10.042233874872306
      ],
      [
        "▁individu",
        -10.042775657821515
      ],
      [
        "res",
        -10.042808045377942
      ],
      [
        "▁vari",
        -10.043655590162707
      ],
      [
        "ier",
        -10.044783060381427
      ],
      [
        "▁xamu",
        -10.045350691951835
      ],
      [
        "aayu",
        -10.045437184892315
      ],
      [
        "ékk",
        -10.046461018534073
      ],
      [
        "tul",
        -10.047240980763068
      ],
      [
        "▁see",
        -10.04772121436622
      ],
      [
        "▁Ko",
        -10.048129527347593
      ],
      [
        "ve",
        -10.048685706978493
      ],
      [
        "eel",
        -10.049683110742713
      ],
      [
        "-même",
        -10.051279624553427
      ],
      [
        "▁wiy",
        -10.056926536979756
      ],
      [
        "▁ré",
        -10.05869059682877
      ],
      [
        "▁qua",
        -10.061110166536082
      ],
      [
        "▁jar",
        -10.06150000400706
      ],
      [
        "war",
        -10.061643689859292
      ],
      [
        "deux",
        -10.063701082949748
      ],
      [
        "isme",
        -10.063792083486804
      ],
      [
        "▁découvert",
        -10.064241339213357
      ],
      [
        "▁quitte",
        -10.065053014955955
      ],
      [
        "auté",
        -10.065631053434402
      ],
      [
        "éeri",
        -10.065641313835567
      ],
      [
        "porter",
        -10.06724889216505
      ],
      [
        "▁pourrai",
        -10.068401126846933
      ],
      [
        "moon",
        -10.068910394015594
      ],
      [
        "▁voul",
        -10.06908974816288
      ],
      [
        "tends",
        -10.071663559221559
      ],
      [
        "▁Leur",
        -10.073436541112294
      ],
      [
        "ish",
        -10.07373994234894
      ],
      [
        "ément",
        -10.073818580458095
      ],
      [
        "▁trou",
        -10.075659164014102
      ],
      [
        "jafe",
        -10.076570057773633
      ],
      [
        "▁wàcc",
        -10.076849738597641
      ],
      [
        "co",
        -10.07838001069874
      ],
      [
        "oir",
        -10.080901019074641
      ],
      [
        "▁yéem",
        -10.083761653248338
      ],
      [
        "▁fenêtre",
        -10.086012371656002
      ],
      [
        "-do",
        -10.08632588563301
      ],
      [
        "▁couvert",
        -10.088712777107158
      ],
      [
        "▁rëbb",
        -10.088888974066403
      ],
      [
        "▁jé",
        -10.092412914441859
      ],
      [
        "tt",
        -10.092733096914802
      ],
      [
        "▁soxna",
        -10.094418174252917
      ],
      [
        "▁rue",
        -10.095259326785232
      ],
      [
        "▁toj",
        -10.095506240339029
      ],
      [
        "rète",
        -10.096225354895775
      ],
      [
        "▁partis",
        -10.097390293430816
      ],
      [
        "koo",
        -10.097504654997316
      ],
      [
        "▁coupé",
        -10.099621324753436
      ],
      [
        "v",
        -10.101418211313037
      ],
      [
        "aires",
        -10.102664920770788
      ],
      [
        "▁cont",
        -10.103115606273374
      ],
      [
        "aka",
        -10.103756933495927
      ],
      [
        "mes",
        -10.104049816126757
      ],
      [
        "▁tama",
        -10.104784314449093
      ],
      [
        "▁reconna",
        -10.104958265510266
      ],
      [
        "aar",
        -10.1062619461309
      ],
      [
        "▁d'Ar",
        -10.106836557995138
      ],
      [
        "sion",
        -10.107960204226258
      ],
      [
        "▁tête",
        -10.10984224913768
      ],
      [
        "▁kàdd",
        -10.109941763759187
      ],
      [
        "▁Moka",
        -10.112201745722142
      ],
      [
        "▁décor",
        -10.112423816124778
      ],
      [
        "▁yàq",
        -10.112987068960917
      ],
      [
        "▁xii",
        -10.114372427389887
      ],
      [
        "▁Jam",
        -10.115089128879372
      ],
      [
        "▁gëm",
        -10.117635787857331
      ],
      [
        "▁taax",
        -10.119218463635756
      ],
      [
        "▁rend",
        -10.122313898400996
      ],
      [
        "▁com",
        -10.122645139664828
      ],
      [
        "▁tegu",
        -10.123122458896642
      ],
      [
        "cher",
        -10.124231776039286
      ],
      [
        "▁dure",
        -10.124315445488818
      ],
      [
        "▁cr",
        -10.124346099439054
      ],
      [
        "mb",
        -10.124594247055683
      ],
      [
        "▁kam",
        -10.126074087315537
      ],
      [
        "▁natt",
        -10.126155816140098
      ],
      [
        "boo",
        -10.126178353169559
      ],
      [
        "▁jooja",
        -10.126533853203181
      ],
      [
        "rage",
        -10.126600144332778
      ],
      [
        "bët",
        -10.127442477469343
      ],
      [
        "ddina",
        -10.12779346583935
      ],
      [
        "2",
        -10.12892606345889
      ],
      [
        "▁dóomu-taal",
        -10.128930919241743
      ],
      [
        "▁trapèze",
        -10.128930919242185
      ],
      [
        "▁Bërëtaañ",
        -10.128930919242613
      ],
      [
        "▁ndànk-ndànk",
        -10.128930919243965
      ],
      [
        "Ŋ",
        -10.12893091928153
      ],
      [
        "▁junniy-junni",
        -10.128930919289699
      ],
      [
        "▁discipline",
        -10.128930919301185
      ],
      [
        "▁Ahidjo",
        -10.128930919327441
      ],
      [
        "▁béjjén",
        -10.128930919691216
      ],
      [
        "▁1948",
        -10.128930919992458
      ],
      [
        "▁lorgnons",
        -10.128930920096657
      ],
      [
        "▁1928",
        -10.128930920289482
      ],
      [
        "▁tés-tés",
        -10.128930921103779
      ],
      [
        "▁électri",
        -10.128930922659363
      ],
      [
        "▁Harcourt",
        -10.128930926162155
      ],
      [
        "▁grâce",
        -10.128930929541156
      ],
      [
        "▁tekk-tekkaaral",
        -10.12893092964167
      ],
      [
        "▁éprouv",
        -10.128930929961113
      ],
      [
        "▁proximité",
        -10.128930933234678
      ],
      [
        "▁rajaxe",
        -10.128930940334346
      ],
      [
        "▁saxaaru-géej",
        -10.128930951201886
      ],
      [
        "▁caravane",
        -10.128930967780407
      ],
      [
        "▁BBC",
        -10.128930972426542
      ],
      [
        "▁Bretagne",
        -10.12893098431401
      ],
      [
        "▁Ñëw",
        -10.128931034402763
      ],
      [
        "▁Kalabaar",
        -10.128931067964965
      ],
      [
        "▁sibbiru",
        -10.128931090943107
      ],
      [
        "▁officier",
        -10.128931093217826
      ],
      [
        "▁Anglais",
        -10.128931099427833
      ],
      [
        "▁souhaite",
        -10.12893111535469
      ],
      [
        "▁excessive",
        -10.128931242541187
      ],
      [
        "▁trésor",
        -10.128931242649506
      ],
      [
        "▁Jeffries",
        -10.128931296339005
      ],
      [
        "▁présence",
        -10.128931624408981
      ],
      [
        "▁Calabar",
        -10.128931651004265
      ],
      [
        "▁cliché",
        -10.128931669426354
      ],
      [
        "▁n'importe",
        -10.128931960845255
      ],
      [
        "▁alentour",
        -10.12893199508654
      ],
      [
        "▁pénétr",
        -10.128932035461013
      ],
      [
        "▁règne",
        -10.128932052178241
      ],
      [
        "▁extraordinaire",
        -10.128933325667361
      ],
      [
        "▁ruisseau",
        -10.128933835873278
      ],
      [
        "ez-vous",
        -10.128933968754444
      ],
      [
        "▁radio",
        -10.128935454857183
      ],
      [
        "▁l'abri",
        -10.128935729944452
      ],
      [
        "▁tropicale",
        -10.128938074755432
      ],
      [
        "▁Chuku",
        -10.1289382309447
      ],
      [
        "▁assiette",
        -10.128938273814764
      ],
      [
        "▁yëngatu",
        -10.128939617670966
      ],
      [
        "▁kilomet",
        -10.128940833106864
      ],
      [
        "▁Moontin",
        -10.128940940106684
      ],
      [
        "▁légende",
        -10.128944195222582
      ],
      [
        "▁ràññe",
        -10.128945925122007
      ],
      [
        "▁obsession",
        -10.128947867866657
      ],
      [
        "▁guyaab",
        -10.128952659724316
      ],
      [
        "▁décrit",
        -10.128953807971502
      ],
      [
        "▁bakkan",
        -10.128955082707602
      ],
      [
        "▁répond",
        -10.128958438775655
      ],
      [
        "▁1968",
        -10.128959101267393
      ],
      [
        "▁entouré",
        -10.128960039773188
      ],
      [
        "▁Guddi",
        -10.128961768190202
      ],
      [
        "▁Kipli",
        -10.128963324998956
      ],
      [
        "▁mbindeef",
        -10.12896468920593
      ],
      [
        "▁ndànk",
        -10.128968891778241
      ],
      [
        "▁fauteuil",
        -10.128973445506713
      ],
      [
        "▁poitrine",
        -10.128977627359944
      ],
      [
        "▁jërr",
        -10.128979245776042
      ],
      [
        "▁caract",
        -10.128988049718345
      ],
      [
        "▁Confi",
        -10.128997801209138
      ],
      [
        "▁fonction",
        -10.12901589306226
      ],
      [
        "▁Donne",
        -10.129024182783692
      ],
      [
        "▁firndeel",
        -10.129030324369646
      ],
      [
        "▁Looloo",
        -10.129042517215213
      ],
      [
        "▁interdit",
        -10.129048065685833
      ],
      [
        "▁maintenant",
        -10.129050011581466
      ],
      [
        "▁naître",
        -10.129058786032758
      ],
      [
        "▁dëll",
        -10.12907049063545
      ],
      [
        "▁l'hum",
        -10.12907904487792
      ],
      [
        "▁comprendre",
        -10.1290992663561
      ],
      [
        "▁foudre",
        -10.129104204191659
      ],
      [
        "▁bënn",
        -10.129121701585824
      ],
      [
        "▁perdre",
        -10.129134179728245
      ],
      [
        "▁fureur",
        -10.129136749736494
      ],
      [
        "▁ňàkk",
        -10.129148764051994
      ],
      [
        "▁maasaloo",
        -10.129174258036505
      ],
      [
        "▁dëppoo",
        -10.129182800275379
      ],
      [
        "▁penku",
        -10.129188102820805
      ],
      [
        "▁pegg",
        -10.129192082356193
      ],
      [
        "▁fièvre",
        -10.129211377627625
      ],
      [
        "▁vieillard",
        -10.12922584544698
      ],
      [
        "▁charme",
        -10.129244017739026
      ],
      [
        "▁frappions",
        -10.129268230992514
      ],
      [
        "▁Bateri",
        -10.129295271756185
      ],
      [
        "▁meetar",
        -10.129304557290165
      ],
      [
        "▁contraire",
        -10.129316345651471
      ],
      [
        "▁weesu",
        -10.129322838581784
      ],
      [
        "▁móobal",
        -10.129351516908189
      ],
      [
        "▁pension",
        -10.129357640530504
      ],
      [
        "▁móol",
        -10.129361192413898
      ],
      [
        "▁possible",
        -10.129390655222492
      ],
      [
        "▁daŋar",
        -10.129395613982311
      ],
      [
        "▁miirloo",
        -10.129400300275552
      ],
      [
        "▁Alfa",
        -10.129414500438875
      ],
      [
        "▁capable",
        -10.129423612155865
      ],
      [
        "▁raxas",
        -10.129455335591352
      ],
      [
        "▁Suuf",
        -10.129457988261606
      ],
      [
        "▁ràpp",
        -10.129559358705981
      ],
      [
        "▁bruit",
        -10.129562775166068
      ],
      [
        "▁dijj",
        -10.12956870929174
      ],
      [
        "▁soxor",
        -10.129569421967991
      ],
      [
        "▁l'indépendance",
        -10.129663551869942
      ],
      [
        "▁absent",
        -10.12973993874669
      ],
      [
        "▁lëmm",
        -10.129754695040598
      ],
      [
        "empire",
        -10.129759709377854
      ],
      [
        "▁commencé",
        -10.129793913466697
      ],
      [
        "▁yemale",
        -10.129828027200615
      ],
      [
        "▁nangoo",
        -10.129853941378485
      ],
      [
        "▁disparu",
        -10.12995434873193
      ],
      [
        "▁d'eau",
        -10.12995980750857
      ],
      [
        "▁flamme",
        -10.12996566735144
      ],
      [
        "▁tubay",
        -10.130069653280746
      ],
      [
        "▁certainement",
        -10.13007941743296
      ],
      [
        "▁Joor",
        -10.130114028566219
      ],
      [
        "▁nàññ",
        -10.13014669084253
      ],
      [
        "▁tabax",
        -10.130263070820138
      ],
      [
        "▁accepté",
        -10.130269040435786
      ],
      [
        "yaa",
        -10.130280358978002
      ],
      [
        "▁surveill",
        -10.130331877624895
      ],
      [
        "▁taq",
        -10.130352991377109
      ],
      [
        "▁brûlant",
        -10.13038490033188
      ],
      [
        "▁muraille",
        -10.130701193938867
      ],
      [
        "▁revenu",
        -10.130729123091164
      ],
      [
        "▁soxal",
        -10.130742742105607
      ],
      [
        "▁gosse",
        -10.130780137157252
      ],
      [
        "▁méngale",
        -10.130837908821942
      ],
      [
        "▁raconté",
        -10.130843968121468
      ],
      [
        "▁peine",
        -10.130890178563632
      ],
      [
        "▁sooke",
        -10.13097345340864
      ],
      [
        "▁Banyo",
        -10.131002912447377
      ],
      [
        "▁aigu",
        -10.131027787240605
      ],
      [
        "▁màtt",
        -10.131079009722345
      ],
      [
        "▁échappé",
        -10.131125607255937
      ],
      [
        "▁voudrait",
        -10.131189631414497
      ],
      [
        "▁Xaw",
        -10.131293725167936
      ],
      [
        "▁élevé",
        -10.131306245937775
      ],
      [
        "▁portale",
        -10.131471742739272
      ],
      [
        "–",
        -10.131489900236518
      ],
      [
        "▁Bamako",
        -10.131503723684872
      ],
      [
        "▁marqué",
        -10.131687228895167
      ],
      [
        "▁juges",
        -10.131946189948875
      ],
      [
        "▁mbooloo",
        -10.132071017517209
      ],
      [
        "▁Ñooñu",
        -10.132079579562998
      ],
      [
        "▁Mbam",
        -10.132161176951042
      ],
      [
        "▁dég",
        -10.132310447103773
      ],
      [
        "▁wépp",
        -10.13239108286048
      ],
      [
        "▁diggu",
        -10.132652939664915
      ],
      [
        "ëpp",
        -10.13280306636957
      ],
      [
        "▁remis",
        -10.132823441884897
      ],
      [
        "▁Tann",
        -10.132874203860924
      ],
      [
        "▁yeggee",
        -10.132879981883328
      ],
      [
        "▁causé",
        -10.133185177658076
      ],
      [
        "▁oublier",
        -10.133243519005838
      ],
      [
        "▁Éta",
        -10.133409691579818
      ],
      [
        "▁Yooy",
        -10.133455732936422
      ],
      [
        "▁Mbir",
        -10.133683517675848
      ],
      [
        "▁doonkoon",
        -10.133698414327506
      ],
      [
        "▁tëgg",
        -10.134064889169103
      ],
      [
        "▁aime",
        -10.134206861922019
      ],
      [
        "àcc",
        -10.134290484413873
      ],
      [
        "▁ñe",
        -10.134552963438454
      ],
      [
        "▁way-juram",
        -10.134571744249968
      ],
      [
        "▁parl",
        -10.134679350890401
      ],
      [
        "▁l'imp",
        -10.134682038668553
      ],
      [
        "▁kookee",
        -10.135374997719715
      ],
      [
        "▁ràkkaaju",
        -10.135458404207416
      ],
      [
        "▁waaxu",
        -10.135517243217697
      ],
      [
        "▁séq",
        -10.135524683123897
      ],
      [
        "▁tus",
        -10.135560841972099
      ],
      [
        "▁cré",
        -10.135648467215493
      ],
      [
        "con",
        -10.136242293335119
      ],
      [
        "▁oreilles",
        -10.136256268722825
      ],
      [
        "▁joow",
        -10.13640943526624
      ],
      [
        "▁Gu",
        -10.13673052032582
      ],
      [
        "▁sœurs",
        -10.137161923335116
      ],
      [
        "▁col",
        -10.13736225415861
      ],
      [
        "tiens",
        -10.137378134250124
      ],
      [
        "quel",
        -10.137463912283017
      ],
      [
        "▁créé",
        -10.137858269210403
      ],
      [
        "▁fameuse",
        -10.137891338440381
      ],
      [
        "▁jooy",
        -10.137893161914851
      ],
      [
        "▁jàppoon",
        -10.138057540046006
      ],
      [
        "▁install",
        -10.138112105111283
      ],
      [
        "▁yooy",
        -10.138593260693144
      ],
      [
        "▁conduis",
        -10.14007127908803
      ],
      [
        "▁demuñu",
        -10.140080966321854
      ],
      [
        "▁après-midi",
        -10.14100286437226
      ],
      [
        "▁secondes",
        -10.14153327079123
      ],
      [
        "▁vagues",
        -10.141538694677555
      ],
      [
        "sse",
        -10.141606433553928
      ],
      [
        "▁toogoon",
        -10.142070383122011
      ],
      [
        "▁baň",
        -10.14211246265763
      ],
      [
        "▁dundam",
        -10.142122813594668
      ],
      [
        "▁càkk",
        -10.14247756817825
      ],
      [
        "bon",
        -10.14284534289914
      ],
      [
        "armes",
        -10.142848139068438
      ],
      [
        "▁taille",
        -10.14307331993755
      ],
      [
        "-tuut",
        -10.143481962959255
      ],
      [
        "▁ndeysaan.",
        -10.143502692524203
      ],
      [
        "▁pétrole",
        -10.144056932732529
      ],
      [
        "▁battu",
        -10.14429213808056
      ],
      [
        "▁passer",
        -10.144440808001429
      ],
      [
        "▁Europe",
        -10.144645922847804
      ],
      [
        "▁xobi",
        -10.144689475700206
      ],
      [
        "▁Noon",
        -10.14480088038967
      ],
      [
        "àww",
        -10.145125261448104
      ],
      [
        "▁lutte",
        -10.14551585255072
      ],
      [
        "▁mb",
        -10.145682658945187
      ],
      [
        "▁golf",
        -10.145775822395121
      ],
      [
        "▁jë",
        -10.146118159889111
      ],
      [
        "▁sipp",
        -10.146131716719317
      ],
      [
        "▁Mokaa",
        -10.1462866480596
      ],
      [
        "▁fur",
        -10.14632909666044
      ],
      [
        "▁kilomètres",
        -10.146380433119454
      ],
      [
        "▁way-",
        -10.146406725184796
      ],
      [
        "▁ñaaw",
        -10.146493638896175
      ],
      [
        "▁grise",
        -10.146559798691346
      ],
      [
        "▁rendu",
        -10.146839758689852
      ],
      [
        "▁jeux",
        -10.1470116381725
      ],
      [
        "▁diine",
        -10.147756704031881
      ],
      [
        "ourquoi",
        -10.148008080876245
      ],
      [
        "ama",
        -10.148339677898594
      ],
      [
        "▁julli",
        -10.14886257033605
      ],
      [
        "▁ňa",
        -10.149466845795706
      ],
      [
        "▁noire",
        -10.15055031059855
      ],
      [
        "▁kaki",
        -10.150679746353132
      ],
      [
        "▁imagin",
        -10.15169849358983
      ],
      [
        "ures",
        -10.151731050600407
      ],
      [
        "ois",
        -10.151867374564922
      ],
      [
        "▁fen",
        -10.153161865780632
      ],
      [
        "▁weg",
        -10.154031817513907
      ],
      [
        "▁mêl",
        -10.154557660119645
      ],
      [
        "▁faax",
        -10.154619817831819
      ],
      [
        "u-",
        -10.1552089187305
      ],
      [
        "▁kayit",
        -10.15521823170705
      ],
      [
        "gal",
        -10.155740668219453
      ],
      [
        "▁maladies",
        -10.155949774858465
      ],
      [
        "▁sau",
        -10.156182216931782
      ],
      [
        "▁Co",
        -10.156362089183807
      ],
      [
        "▁On",
        -10.156506179752585
      ],
      [
        "s-",
        -10.156861200073518
      ],
      [
        "▁xamoon",
        -10.157076092220091
      ],
      [
        "'arachide",
        -10.157244000764214
      ],
      [
        "▁marque",
        -10.158515596946513
      ],
      [
        "▁libre",
        -10.160518762935222
      ],
      [
        "allaient",
        -10.160542630491198
      ],
      [
        "▁Doon",
        -10.160827420453087
      ],
      [
        "▁d'enfants",
        -10.160907602156652
      ],
      [
        "▁chef",
        -10.160938985815665
      ],
      [
        "▁feeñu",
        -10.161167532330921
      ],
      [
        "▁instants",
        -10.161697584183544
      ],
      [
        "gante",
        -10.162319359265172
      ],
      [
        "▁wàll",
        -10.162660729818697
      ],
      [
        "urs",
        -10.164741483007877
      ],
      [
        "▁to",
        -10.165380088910924
      ],
      [
        "ards",
        -10.167622705324113
      ],
      [
        "▁El",
        -10.16812140519232
      ],
      [
        "▁répu",
        -10.168787377171007
      ],
      [
        "▁sida",
        -10.169226835862078
      ],
      [
        "vers",
        -10.16958806044477
      ],
      [
        "▁compl",
        -10.169636976861643
      ],
      [
        "commencer",
        -10.170868891991955
      ],
      [
        "▁rajo",
        -10.174214451944975
      ],
      [
        "▁bâtons",
        -10.175176360796982
      ],
      [
        "▁idée",
        -10.175199813846874
      ],
      [
        "▁rëbbi",
        -10.17618555255363
      ],
      [
        "▁diir",
        -10.176611754585942
      ],
      [
        "▁jaaxa",
        -10.176939914864853
      ],
      [
        "-lu",
        -10.178072920894467
      ],
      [
        "▁jafee",
        -10.17837391683371
      ],
      [
        "▁ven",
        -10.18014610156147
      ],
      [
        "ssent",
        -10.1808339591824
      ],
      [
        "euses",
        -10.18154914798544
      ],
      [
        "▁comment",
        -10.181910213314477
      ],
      [
        "▁exerc",
        -10.182641621461972
      ],
      [
        "▁étrange",
        -10.182714740214195
      ],
      [
        "'orage",
        -10.183276635383187
      ],
      [
        "▁kooka",
        -10.184272918640563
      ],
      [
        "▁l'inst",
        -10.185803365578437
      ],
      [
        "aloon",
        -10.186432524139349
      ],
      [
        "▁gës",
        -10.186880719046151
      ],
      [
        "▁Gan",
        -10.186900891142765
      ],
      [
        "ëtt",
        -10.18727399977402
      ],
      [
        "▁tra",
        -10.187542711641132
      ],
      [
        "-d",
        -10.190925573347165
      ],
      [
        "'exerce",
        -10.191251648570276
      ],
      [
        "ien",
        -10.192684720611268
      ],
      [
        "▁ñetti",
        -10.192846354108562
      ],
      [
        "▁qu'en",
        -10.193602294763684
      ],
      [
        "oindre",
        -10.195199596757815
      ],
      [
        "▁Dañu",
        -10.195502676762551
      ],
      [
        "▁xóot",
        -10.196975867220452
      ],
      [
        "▁cee",
        -10.197263839522176
      ],
      [
        "▁Masu",
        -10.197570733339345
      ],
      [
        "uni",
        -10.198284238943524
      ],
      [
        "▁découverte",
        -10.198921119353908
      ],
      [
        "cteur",
        -10.200045275217484
      ],
      [
        "▁impo",
        -10.201411666883521
      ],
      [
        "lieu",
        -10.20520456698717
      ],
      [
        "g.",
        -10.206000064969926
      ],
      [
        "▁cord",
        -10.206541557148102
      ],
      [
        "▁Yen",
        -10.208275052129707
      ],
      [
        "▁Kakaa",
        -10.208288594776908
      ],
      [
        "▁tableau",
        -10.208710445025792
      ],
      [
        "arrière",
        -10.209145783815089
      ],
      [
        "▁char",
        -10.211043655776166
      ],
      [
        "hôpital",
        -10.212695552398584
      ],
      [
        "▁njàmba",
        -10.212740496162967
      ],
      [
        "▁accepte",
        -10.213787808939124
      ],
      [
        "▁s'installe",
        -10.214882887832228
      ],
      [
        "▁muus",
        -10.215795987381087
      ],
      [
        "▁xaj",
        -10.215852746112683
      ],
      [
        "laay",
        -10.216137003989106
      ],
      [
        "▁partira",
        -10.21708360334987
      ],
      [
        "▁kà",
        -10.217326004887537
      ],
      [
        "monter",
        -10.21766571199816
      ],
      [
        "▁tëwa",
        -10.217937439104961
      ],
      [
        "▁An",
        -10.218993670041165
      ],
      [
        "▁Gén",
        -10.221690983709568
      ],
      [
        "exemple",
        -10.223281158985525
      ],
      [
        "▁Mari",
        -10.223362461742017
      ],
      [
        "▁Leer",
        -10.223954851969962
      ],
      [
        "▁vais",
        -10.224167556377935
      ],
      [
        "▁nuits",
        -10.224515718514596
      ],
      [
        "ar.",
        -10.227497199634392
      ],
      [
        "resse",
        -10.22897554135006
      ],
      [
        "▁seetu",
        -10.229053415503273
      ],
      [
        "ool",
        -10.229098320542686
      ],
      [
        "▁mbemb",
        -10.229677852585723
      ],
      [
        "▁waxi",
        -10.230482449162032
      ],
      [
        "-f",
        -10.230612631363561
      ],
      [
        "▁sib",
        -10.231866967831841
      ],
      [
        "stique",
        -10.232479291583466
      ],
      [
        "▁cartes",
        -10.233146447232738
      ],
      [
        "t-",
        -10.23371915923338
      ],
      [
        "oire",
        -10.234535166623743
      ],
      [
        "▁demb",
        -10.234682269836371
      ],
      [
        "igne",
        -10.236462398416132
      ],
      [
        "▁àndal",
        -10.237822136681054
      ],
      [
        "▁neexu",
        -10.238016549365112
      ],
      [
        "▁soi",
        -10.23992303552343
      ],
      [
        "▁yare",
        -10.240812436696181
      ],
      [
        "▁sañ",
        -10.24169509929702
      ],
      [
        "▁xoole",
        -10.243202741656496
      ],
      [
        "▁générale",
        -10.24336706594884
      ],
      [
        "mère",
        -10.243439721659666
      ],
      [
        "▁nëw",
        -10.243471526803148
      ],
      [
        "ñii",
        -10.244457281250277
      ],
      [
        "▁bég",
        -10.245487945702752
      ],
      [
        "ence",
        -10.245630515674751
      ],
      [
        "àngi",
        -10.246554832961234
      ],
      [
        "▁entrai",
        -10.246792556815501
      ],
      [
        "▁accompagne",
        -10.247052489246348
      ],
      [
        "eelu",
        -10.248427206274872
      ],
      [
        "umeur",
        -10.248435992771027
      ],
      [
        "ttes",
        -10.250134254149268
      ],
      [
        "▁n'aura",
        -10.250336913719481
      ],
      [
        "▁guerr",
        -10.25074867970558
      ],
      [
        "▁Certain",
        -10.252727252085053
      ],
      [
        "rie",
        -10.25392135497362
      ],
      [
        "▁yaroo",
        -10.253973642104503
      ],
      [
        "▁racont",
        -10.255117022463262
      ],
      [
        "ole",
        -10.255809425171497
      ],
      [
        "eu",
        -10.25582619224539
      ],
      [
        "▁var",
        -10.26034260935543
      ],
      [
        "banaan",
        -10.260525760823764
      ],
      [
        "jaa",
        -10.26065831005942
      ],
      [
        "▁yatt",
        -10.262006668171203
      ],
      [
        "▁aventure",
        -10.262917093053646
      ],
      [
        "noo",
        -10.262939318119374
      ],
      [
        "ille",
        -10.265135347276335
      ],
      [
        "nnee",
        -10.26537643221814
      ],
      [
        "▁voyai",
        -10.266079417854105
      ],
      [
        "▁ressembl",
        -10.266104223712258
      ],
      [
        "▁rencontre",
        -10.267046551506638
      ],
      [
        "enti",
        -10.267205206245716
      ],
      [
        "vais",
        -10.26823864468252
      ],
      [
        "▁her",
        -10.268246086964888
      ],
      [
        "ange",
        -10.272313478493476
      ],
      [
        "▁l'an",
        -10.274415388398957
      ],
      [
        "daa",
        -10.27554419368063
      ],
      [
        "antee",
        -10.275661428640744
      ],
      [
        "▁ton",
        -10.278320401979096
      ],
      [
        "-elle",
        -10.278412696962866
      ],
      [
        "ser",
        -10.280564931370595
      ],
      [
        "▁arrive",
        -10.281114402211928
      ],
      [
        "▁jógee",
        -10.28154200627327
      ],
      [
        "▁ger",
        -10.283518744261958
      ],
      [
        "▁jàppe",
        -10.284409243870154
      ],
      [
        "3",
        -10.284465374924862
      ],
      [
        "00",
        -10.28457302182006
      ],
      [
        "galu",
        -10.286126317536208
      ],
      [
        "▁ñaw",
        -10.28781302321775
      ],
      [
        "▁mur",
        -10.287861561646697
      ],
      [
        "▁nju",
        -10.288514057199764
      ],
      [
        "ailles",
        -10.289111344583558
      ],
      [
        "llemands",
        -10.290998573959493
      ],
      [
        "▁dig",
        -10.29227919589014
      ],
      [
        "u.",
        -10.293598212571077
      ],
      [
        "pe",
        -10.294195317617895
      ],
      [
        "ston",
        -10.29627839798964
      ],
      [
        "▁ser",
        -10.297958677839492
      ],
      [
        "ière",
        -10.298626036112289
      ],
      [
        "-kow",
        -10.299808308215992
      ],
      [
        "ave",
        -10.300372982059356
      ],
      [
        "kàlla",
        -10.30044876492376
      ],
      [
        "▁sorti",
        -10.300698323584538
      ],
      [
        "uits",
        -10.30153823023356
      ],
      [
        "eau",
        -10.302078639601035
      ],
      [
        "▁retrouve",
        -10.302288332519437
      ],
      [
        "▁pé",
        -10.302899596395902
      ],
      [
        "▁devenue",
        -10.303560993979328
      ],
      [
        "▁ver",
        -10.304831914237042
      ],
      [
        "nitu",
        -10.306452492381302
      ],
      [
        "bar",
        -10.309116934932387
      ],
      [
        "ie",
        -10.309196089417018
      ],
      [
        "ndait",
        -10.310328467206293
      ],
      [
        "ations",
        -10.31073060109609
      ],
      [
        "▁màng",
        -10.314596402143279
      ],
      [
        "▁yóbba",
        -10.315447331914374
      ],
      [
        "ww",
        -10.316353202458782
      ],
      [
        "pas",
        -10.317930803422485
      ],
      [
        "▁touch",
        -10.320888121032231
      ],
      [
        "àbbe",
        -10.321193966868488
      ],
      [
        "▁Peu",
        -10.32242321956926
      ],
      [
        "▁l'est",
        -10.325561494124356
      ],
      [
        "▁ñàkku",
        -10.326814437345067
      ],
      [
        "▁milli",
        -10.327123002559453
      ],
      [
        "ieuse",
        -10.327276758686317
      ],
      [
        "▁bes",
        -10.32782893600806
      ],
      [
        "▁sec",
        -10.329251808305495
      ],
      [
        "▁tàll",
        -10.329476884796257
      ],
      [
        "▁newu",
        -10.329538609169912
      ],
      [
        "▁cent",
        -10.329564755278344
      ],
      [
        "-tu",
        -10.329796113708184
      ],
      [
        "▁général",
        -10.331507145991624
      ],
      [
        "▁continu",
        -10.332399717570087
      ],
      [
        "qui",
        -10.333097234728044
      ],
      [
        "rass",
        -10.333375772822386
      ],
      [
        "▁cris",
        -10.333759459653216
      ],
      [
        "▁ouverte",
        -10.335074646375897
      ],
      [
        "peur",
        -10.340566682916155
      ],
      [
        "lé",
        -10.34158492706806
      ],
      [
        "▁venai",
        -10.341589710010064
      ],
      [
        "x.",
        -10.343911494884548
      ],
      [
        "rrière",
        -10.345016020109595
      ],
      [
        "▁waxe",
        -10.345184304179897
      ],
      [
        "▁sembl",
        -10.34556858932573
      ],
      [
        "▁isolé",
        -10.34584380423387
      ],
      [
        "▁dib",
        -10.346034928845542
      ],
      [
        "rent",
        -10.35038790904613
      ],
      [
        "ňň",
        -10.350918048582283
      ],
      [
        "▁daawul",
        -10.351060255238288
      ],
      [
        "feebar",
        -10.351279130075625
      ],
      [
        "cation",
        -10.351769659212055
      ],
      [
        "weer",
        -10.352860081144296
      ],
      [
        "▁bët.",
        -10.354583961502303
      ],
      [
        "▁médecine",
        -10.354880854205
      ],
      [
        "▁déci",
        -10.354966172213972
      ],
      [
        "ŋga",
        -10.355102842633563
      ],
      [
        "▁leçon",
        -10.35571464487246
      ],
      [
        "men",
        -10.357807864230185
      ],
      [
        "ages",
        -10.361551733972174
      ],
      [
        "ànd",
        -10.362016350113219
      ],
      [
        "▁kaa",
        -10.363974503863874
      ],
      [
        "▁xolu",
        -10.364082233046911
      ],
      [
        "▁Ro",
        -10.364506988732078
      ],
      [
        "oilà",
        -10.368086047297695
      ],
      [
        "▁t'en",
        -10.368303679752632
      ],
      [
        "▁laisse",
        -10.368430413229426
      ],
      [
        "ru",
        -10.369283541189334
      ],
      [
        "xam",
        -10.37134124416744
      ],
      [
        "ssu",
        -10.372899602790332
      ],
      [
        "ñeen",
        -10.374514956655558
      ],
      [
        "ab",
        -10.374617134313592
      ],
      [
        "▁l'in",
        -10.375495312435248
      ],
      [
        "sus",
        -10.375623024154873
      ],
      [
        "ekk",
        -10.376373240486213
      ],
      [
        "elu",
        -10.378097709230822
      ],
      [
        "ver",
        -10.379711525607163
      ],
      [
        "▁daju",
        -10.381081990037991
      ],
      [
        "▁fowe",
        -10.381375867449293
      ],
      [
        "ddi",
        -10.381441662389419
      ],
      [
        "▁form",
        -10.383972684673331
      ],
      [
        "▁gr",
        -10.384484614340971
      ],
      [
        "▁arriv",
        -10.385210407584234
      ],
      [
        "▁lect",
        -10.38566413936222
      ],
      [
        "sses",
        -10.385843627849813
      ],
      [
        "▁coll",
        -10.386548422414366
      ],
      [
        "▁moomee",
        -10.388059076493537
      ],
      [
        "ñ.",
        -10.388567541142784
      ],
      [
        "▁tegoo",
        -10.38941001910615
      ],
      [
        "▁ouvert",
        -10.389547193915913
      ],
      [
        "▁armée",
        -10.390840510075675
      ],
      [
        "manche",
        -10.391480530198617
      ],
      [
        "heure",
        -10.393837645816948
      ],
      [
        "▁parcour",
        -10.39679496403018
      ],
      [
        "▁moustiquaire",
        -10.398537197089983
      ],
      [
        "▁tam",
        -10.400022824950378
      ],
      [
        "ailleurs",
        -10.400461129687177
      ],
      [
        "▁xat",
        -10.400747002922358
      ],
      [
        "ell",
        -10.400907695346012
      ],
      [
        "▁jëmm",
        -10.40096811819631
      ],
      [
        "▁naŋg",
        -10.401546023304817
      ],
      [
        "fal",
        -10.40228415805679
      ],
      [
        "▁miroir",
        -10.402496103625545
      ],
      [
        "▁jubal",
        -10.40361905377203
      ],
      [
        "▁dunde",
        -10.403965342748808
      ],
      [
        "oog",
        -10.40459638805472
      ],
      [
        "▁mont",
        -10.408241470119918
      ],
      [
        "baar",
        -10.408680505011803
      ],
      [
        "ke",
        -10.408783607066429
      ],
      [
        "uñ",
        -10.409782949581531
      ],
      [
        "▁certain",
        -10.411321559976578
      ],
      [
        "bokk",
        -10.411492492062735
      ],
      [
        "acc",
        -10.412273256841377
      ],
      [
        "dée",
        -10.412909725739468
      ],
      [
        "tuñu",
        -10.412917387207385
      ],
      [
        "▁connaiss",
        -10.4131532702912
      ],
      [
        "ànte",
        -10.413730576716553
      ],
      [
        "▁trace",
        -10.414644583450382
      ],
      [
        "ii",
        -10.41491874648014
      ],
      [
        "atu",
        -10.415369837627136
      ],
      [
        "▁humain",
        -10.416096619272333
      ],
      [
        "tin",
        -10.416374090282057
      ],
      [
        "▁sub",
        -10.416787881411972
      ],
      [
        "▁dinañ",
        -10.417366054506584
      ],
      [
        "▁ancien",
        -10.418898749446118
      ],
      [
        "▁Aw",
        -10.419024741953184
      ],
      [
        "-je",
        -10.420585765574796
      ],
      [
        "arrivée",
        -10.421486185886938
      ],
      [
        "embre",
        -10.423096821459998
      ],
      [
        "▁doxal",
        -10.42317436375235
      ],
      [
        "ee.",
        -10.42367920424873
      ],
      [
        "étendue",
        -10.42462468253332
      ],
      [
        "▁ker",
        -10.424943764505539
      ],
      [
        "urant",
        -10.425656368475046
      ],
      [
        "▁amu",
        -10.425723799259222
      ],
      [
        "▁jambe",
        -10.42672169329582
      ],
      [
        "▁rituel",
        -10.427137183214608
      ],
      [
        "▁cor",
        -10.427696660328563
      ],
      [
        "▁militaire",
        -10.429423478756968
      ],
      [
        "▁arbre",
        -10.430536955704953
      ],
      [
        "nge",
        -10.431287304506538
      ],
      [
        "lo",
        -10.431433156951945
      ],
      [
        "tait",
        -10.433067045903096
      ],
      [
        "▁jooj",
        -10.436340948857765
      ],
      [
        "▁ñen",
        -10.43738304728857
      ],
      [
        "▁bleu",
        -10.43752638627522
      ],
      [
        "▁yëge",
        -10.438269456255865
      ],
      [
        "fu",
        -10.43971345459826
      ],
      [
        "▁sàpp",
        -10.440118232647963
      ],
      [
        "▁anim",
        -10.440814587529173
      ],
      [
        "▁viendr",
        -10.440856918780423
      ],
      [
        "aaral",
        -10.441790038632604
      ],
      [
        "▁ñett",
        -10.442036612230222
      ],
      [
        "▁anglais",
        -10.44206914823928
      ],
      [
        "rëb",
        -10.442866082048974
      ],
      [
        "▁distance",
        -10.443031664279633
      ],
      [
        "▁xob",
        -10.443139569426851
      ],
      [
        "abax",
        -10.443582289677378
      ],
      [
        "▁fatigu",
        -10.444556978461717
      ],
      [
        "▁seconde",
        -10.445026176026081
      ],
      [
        "▁soul",
        -10.445463979551088
      ],
      [
        "▁coupe",
        -10.445488780449454
      ],
      [
        "▁vague",
        -10.445620379062223
      ],
      [
        "▁ño",
        -10.446988018483145
      ],
      [
        "▁envahi",
        -10.448308995450587
      ],
      [
        "▁Laaj",
        -10.448478117083571
      ],
      [
        "▁ň",
        -10.44920920819224
      ],
      [
        "▁naqad",
        -10.449363296382781
      ],
      [
        "▁civil",
        -10.450369554711173
      ],
      [
        "lée",
        -10.450436257069569
      ],
      [
        "rois",
        -10.451900811574417
      ],
      [
        "yeux",
        -10.451901564662407
      ],
      [
        "▁wë",
        -10.453044662921656
      ],
      [
        "be",
        -10.453078756134108
      ],
      [
        "construi",
        -10.455046909951637
      ],
      [
        "da",
        -10.455340728647307
      ],
      [
        "▁pr",
        -10.455371277695354
      ],
      [
        "▁taal",
        -10.45558954045014
      ],
      [
        "▁Kook",
        -10.456336094431228
      ],
      [
        "▁fulla",
        -10.456403807197917
      ],
      [
        "st",
        -10.457370969064785
      ],
      [
        "àtt",
        -10.457597899304043
      ],
      [
        "ème",
        -10.458556005636312
      ],
      [
        "▁écout",
        -10.458683746764214
      ],
      [
        "▁rés",
        -10.459192017297802
      ],
      [
        "ême",
        -10.459209133027242
      ],
      [
        "▁échapp",
        -10.459227553467649
      ],
      [
        "tuaire",
        -10.459247518394946
      ],
      [
        "▁Babungo",
        -10.459834210555591
      ],
      [
        "▁trente",
        -10.459951681540188
      ],
      [
        "▁méng",
        -10.46038123483255
      ],
      [
        "dar",
        -10.460887253242714
      ],
      [
        "it.",
        -10.461301124920508
      ],
      [
        "Abakaliki",
        -10.46140651788006
      ],
      [
        "▁remonte",
        -10.461762238299741
      ],
      [
        "▁xërëm",
        -10.46216774412834
      ],
      [
        "▁noppal",
        -10.462233112899996
      ],
      [
        "4",
        -10.462264250465475
      ],
      [
        "▁l'Adamawa",
        -10.462264252577022
      ],
      [
        "▁roppëlaan",
        -10.462264252581782
      ],
      [
        "▁États-Unis",
        -10.462264252585602
      ],
      [
        "▁invisible",
        -10.462264252625992
      ],
      [
        "▁mettee-metti",
        -10.462264252627667
      ],
      [
        "▁privilèges",
        -10.462264252634911
      ],
      [
        "▁dankalikoo",
        -10.462264252756924
      ],
      [
        "▁dysenterie",
        -10.46226425280281
      ],
      [
        "▁caricatural",
        -10.46226425295482
      ],
      [
        "▁ëllëg",
        -10.462264252979281
      ],
      [
        "▁Poor-Arkuur",
        -10.462264253540791
      ],
      [
        "▁incapable",
        -10.462264253588112
      ],
      [
        "▁impeccable",
        -10.462264254211284
      ],
      [
        "▁jekk-jekkal",
        -10.462264255594222
      ],
      [
        "▁j'ignore",
        -10.462264256023223
      ],
      [
        "▁sukkandik",
        -10.462264257784478
      ],
      [
        "▁dispensaire",
        -10.462264262193028
      ],
      [
        "▁s'éloigne",
        -10.462264268359872
      ],
      [
        "▁sañ-sañ",
        -10.462264281639092
      ],
      [
        "▁Aadamawa",
        -10.462264283426467
      ],
      [
        "▁Fields",
        -10.462264284725734
      ],
      [
        "▁d'alcool",
        -10.462264288963528
      ],
      [
        "▁ridicule",
        -10.46226428957041
      ],
      [
        "▁fréquenta",
        -10.462264290905662
      ],
      [
        "▁bànxaas",
        -10.462264302164094
      ],
      [
        "▁njoowaan",
        -10.462264310093365
      ],
      [
        "▁bataaxal",
        -10.462264318577006
      ],
      [
        "▁physique",
        -10.462264326526153
      ],
      [
        "▁d'opération",
        -10.462264348338335
      ],
      [
        "▁waxambaane",
        -10.46226434968368
      ],
      [
        "calpel",
        -10.462264351733229
      ],
      [
        "▁Bénuwe",
        -10.462264372141389
      ],
      [
        "▁politique",
        -10.462264390152047
      ],
      [
        "▁lézard",
        -10.46226439907576
      ],
      [
        "▁latérite",
        -10.462264421402526
      ],
      [
        "▁affluent",
        -10.462264435859774
      ],
      [
        "▁Bénoué",
        -10.46226444814642
      ],
      [
        "▁serviteurs",
        -10.462264458498998
      ],
      [
        "▁chirurgi",
        -10.462264535545845
      ],
      [
        "▁dog-dog",
        -10.462264551134844
      ],
      [
        "▁tribales",
        -10.462264639574453
      ],
      [
        "▁ófise",
        -10.462264693173864
      ],
      [
        "▁sèche",
        -10.462264721843654
      ],
      [
        "▁étouffante",
        -10.462264779006388
      ],
      [
        "▁Tàngaay",
        -10.462264932012681
      ],
      [
        "▁d'Européens",
        -10.462264971274134
      ],
      [
        "▁pelouse",
        -10.462265220870275
      ],
      [
        "▁gàngiri",
        -10.462265468735179
      ],
      [
        "▁xam-xam",
        -10.462265471470507
      ],
      [
        "▁Algérie",
        -10.46226552208865
      ],
      [
        "▁brindille",
        -10.462265580619604
      ],
      [
        "▁cafards",
        -10.462265664021782
      ],
      [
        "▁Sahara",
        -10.462265738104804
      ],
      [
        "▁habillé",
        -10.462265804641122
      ],
      [
        "▁jaar-jaar",
        -10.462266092302231
      ],
      [
        "▁Birayim",
        -10.462266105342684
      ],
      [
        "▁ceinture",
        -10.462266221284723
      ],
      [
        "▁réccu",
        -10.462266311634826
      ],
      [
        "▁recouvert",
        -10.462266643144133
      ],
      [
        "▁respire",
        -10.462266908468985
      ],
      [
        "▁lëkkale",
        -10.462266927594264
      ],
      [
        "▁biiru-ta",
        -10.462267110535803
      ],
      [
        "▁dispañseer",
        -10.462267172805479
      ],
      [
        "▁colonne",
        -10.462267444157014
      ],
      [
        "▁banlieue",
        -10.462267770636934
      ],
      [
        "▁camarades",
        -10.462267796075201
      ],
      [
        "▁pikiir",
        -10.462267898539764
      ],
      [
        "▁suppose",
        -10.46226789999365
      ],
      [
        "▁coiff",
        -10.462268989043856
      ],
      [
        "▁visible",
        -10.46226971258408
      ],
      [
        "▁vaisselle",
        -10.462269868362299
      ],
      [
        "▁réponse",
        -10.462270069329701
      ],
      [
        "▁Indiens",
        -10.46227077146552
      ],
      [
        "▁callweer",
        -10.462270895866867
      ],
      [
        "▁quartier",
        -10.462270899956279
      ],
      [
        "▁Voyage",
        -10.462270929744442
      ],
      [
        "▁craquelée",
        -10.462271260057449
      ],
      [
        "▁résignation",
        -10.462272301263045
      ],
      [
        "▁meilleur",
        -10.462272858455036
      ],
      [
        "▁Téere",
        -10.462273204095363
      ],
      [
        "▁minuscule",
        -10.462273218141458
      ],
      [
        "▁veulent",
        -10.462273558070512
      ],
      [
        "▁popula",
        -10.46227365980644
      ],
      [
        "▁Fàttewu",
        -10.462273857196962
      ],
      [
        "▁soixante",
        -10.462274720961936
      ],
      [
        "considéra",
        -10.462275349275984
      ],
      [
        "▁galeries",
        -10.462275633700024
      ],
      [
        "▁mébét",
        -10.46227584445176
      ],
      [
        "▁Saawusamton",
        -10.46227642447397
      ],
      [
        "▁répandu",
        -10.46227644942855
      ],
      [
        "▁yalwaan",
        -10.462277271663405
      ],
      [
        "▁njariñ",
        -10.462278518731955
      ],
      [
        "▁reetaan",
        -10.462280734352573
      ],
      [
        "▁Polisoŋ",
        -10.46228113507222
      ],
      [
        "▁ténia",
        -10.462283488428039
      ],
      [
        "▁Riwër",
        -10.462284940115234
      ],
      [
        "▁jaabante",
        -10.462285001585236
      ],
      [
        "▁Yéesu",
        -10.462289875759422
      ],
      [
        "▁procur",
        -10.462293389259784
      ],
      [
        "▁consacré",
        -10.462295432606517
      ],
      [
        "▁Fiild",
        -10.462297017100903
      ],
      [
        "▁contrebas",
        -10.462300531030756
      ],
      [
        "▁piège",
        -10.462302198647029
      ],
      [
        "▁justifi",
        -10.462302232189398
      ],
      [
        "▁colonisation",
        -10.462303894446025
      ],
      [
        "▁trône",
        -10.462314474719086
      ],
      [
        "voûte",
        -10.462324424389612
      ],
      [
        "▁ŋàññ",
        -10.462328464916483
      ],
      [
        "▁River",
        -10.46233065661972
      ],
      [
        "▁yàkkamt",
        -10.46234132702016
      ],
      [
        "▁Alseri",
        -10.462341493874987
      ],
      [
        "▁toppatoo",
        -10.462341849487757
      ],
      [
        "▁lançai",
        -10.462342132605956
      ],
      [
        "▁xélu",
        -10.462348436709867
      ],
      [
        "▁bref",
        -10.462348875741862
      ],
      [
        "▁repris",
        -10.462350936250399
      ],
      [
        "▁foyer",
        -10.46235095339437
      ],
      [
        "▁(car",
        -10.462354513006503
      ],
      [
        "▁défens",
        -10.462359124475828
      ],
      [
        "▁sculptés",
        -10.462361941441296
      ],
      [
        "▁noyyee",
        -10.462374890534207
      ],
      [
        "▁douleur",
        -10.462381269428679
      ],
      [
        "▁gorilles",
        -10.462382481527772
      ],
      [
        "▁sept",
        -10.46239811571075
      ],
      [
        "▁Dellu",
        -10.46241606660792
      ],
      [
        "▁juróom-benn",
        -10.462420688395708
      ],
      [
        "▁l'inter",
        -10.46242477714129
      ],
      [
        "▁ruqu-géeju",
        -10.462425964477527
      ],
      [
        "▁fecc",
        -10.462429509439868
      ],
      [
        "▁m'a-t-",
        -10.462432623677314
      ],
      [
        "▁mbagg",
        -10.462435142475417
      ],
      [
        "▁Ceux-là",
        -10.46243555779963
      ],
      [
        "▁Partout",
        -10.462438056776202
      ],
      [
        "obscur",
        -10.462445360594701
      ],
      [
        "▁sóob",
        -10.462453722397955
      ],
      [
        "▁ginnax",
        -10.462453859695279
      ],
      [
        "▁xàmb",
        -10.462473765254469
      ],
      [
        "▁plaintes",
        -10.462480159848367
      ],
      [
        "▁palais",
        -10.462481379047945
      ],
      [
        "▁vieillesse",
        -10.462481698932748
      ],
      [
        "▁soppikoo",
        -10.462482072538183
      ],
      [
        "▁fusils",
        -10.462495318861771
      ],
      [
        "▁heureux",
        -10.462497452560775
      ],
      [
        "▁iróko",
        -10.46251159745656
      ],
      [
        "▁allumette",
        -10.462526900634517
      ],
      [
        "▁qu'aucun",
        -10.46253626396282
      ],
      [
        "▁fomp",
        -10.462538036089402
      ],
      [
        "▁terrain",
        -10.462555271996221
      ],
      [
        "▁l'enthousiasme",
        -10.462568892069212
      ],
      [
        "▁généreux",
        -10.462570836190924
      ],
      [
        "▁wecc",
        -10.462584570711307
      ],
      [
        "▁l'horreur",
        -10.462584691848502
      ],
      [
        "▁l'affaire",
        -10.462589860342945
      ],
      [
        "▁Sëri",
        -10.462596588028356
      ],
      [
        "paradis",
        -10.46259843315642
      ],
      [
        "▁Niseer",
        -10.462605152884942
      ],
      [
        "▁terminé",
        -10.462632808692064
      ],
      [
        "▁laxas",
        -10.462634724181422
      ],
      [
        "▁Ndox",
        -10.462639954354447
      ],
      [
        "▁gëdd",
        -10.462648341424046
      ],
      [
        "▁yaxeet",
        -10.462656512038635
      ],
      [
        "▁plage",
        -10.462662789621222
      ],
      [
        "▁jadd",
        -10.462678451655353
      ],
      [
        "▁colons",
        -10.462681529252176
      ],
      [
        "▁wotoom",
        -10.4626824339616
      ],
      [
        "▁lentement",
        -10.462690884629396
      ],
      [
        "▁profit",
        -10.462701988500228
      ],
      [
        "▁dëj",
        -10.462710156093832
      ],
      [
        "▁Bariwu",
        -10.462715956471389
      ],
      [
        "▁moytu",
        -10.462722571774453
      ],
      [
        "▁sucre",
        -10.46272287211391
      ],
      [
        "urgence",
        -10.462730693157233
      ],
      [
        "▁familier",
        -10.462750665504302
      ],
      [
        "▁Ngom",
        -10.462766739483262
      ],
      [
        "▁poing",
        -10.46277596979161
      ],
      [
        "▁domestique",
        -10.46278570762403
      ],
      [
        "▁tëral",
        -10.46278989103066
      ],
      [
        "▁reyante",
        -10.462809935581067
      ],
      [
        "▁l'après-midi",
        -10.462812680868334
      ],
      [
        "-Ma",
        -10.46282073688949
      ],
      [
        "▁rajoom",
        -10.462826692972197
      ],
      [
        "▁chapeaux",
        -10.462850538351203
      ],
      [
        "▁cornes",
        -10.462852988047144
      ],
      [
        "▁Jàng",
        -10.462878975653252
      ],
      [
        "▁l'argent",
        -10.462884370447938
      ],
      [
        "▁natale",
        -10.462889142655921
      ],
      [
        "▁wacc",
        -10.46291066026637
      ],
      [
        "▁effect",
        -10.46291747679661
      ],
      [
        "▁chute",
        -10.462918183839932
      ],
      [
        "épaisse",
        -10.462934894477675
      ],
      [
        "▁Kàttan",
        -10.46294059990619
      ],
      [
        "▁ganesi",
        -10.462947401160188
      ],
      [
        "▁réuni",
        -10.462962490590469
      ],
      [
        "▁Niger",
        -10.46297025665829
      ],
      [
        "▁tâche",
        -10.462972260535702
      ],
      [
        "▁crép",
        -10.462988582197596
      ],
      [
        "▁tënk",
        -10.46299009201833
      ],
      [
        "▁ŋgoogu",
        -10.462997160413266
      ],
      [
        "▁totale",
        -10.463004038558264
      ],
      [
        "▁ndoorte",
        -10.463041171868959
      ],
      [
        "▁compagnie",
        -10.463051056918111
      ],
      [
        "▁tukkee",
        -10.4631199031542
      ],
      [
        "▁d'Abakaliki",
        -10.463122716726332
      ],
      [
        "▁parfaite",
        -10.463140323990421
      ],
      [
        "▁ñàng",
        -10.463145135369055
      ],
      [
        "▁plonge",
        -10.463153410428305
      ],
      [
        "▁ndaje",
        -10.463191403466116
      ],
      [
        "▁nombreux",
        -10.463200876113484
      ],
      [
        "▁bouill",
        -10.463261927543979
      ],
      [
        "outils",
        -10.463263496469828
      ],
      [
        "▁autrefois",
        -10.463276267830208
      ],
      [
        "▁Ijama",
        -10.463282083066614
      ],
      [
        "▁gerte",
        -10.46336353534172
      ],
      [
        "▁mëdd",
        -10.463385588867764
      ],
      [
        "▁brûlait",
        -10.46339825989999
      ],
      [
        "▁moment-là",
        -10.463404678704881
      ],
      [
        "▁pâte",
        -10.463411292271509
      ],
      [
        "▁paille",
        -10.46344557456671
      ],
      [
        "▁tooñ",
        -10.463521963941686
      ],
      [
        "▁bomb",
        -10.4635228688182
      ],
      [
        "▁camp",
        -10.463532186538655
      ],
      [
        "▁Kari",
        -10.463559112374792
      ],
      [
        "▁meññ",
        -10.463625887194494
      ],
      [
        "▁màkkaan",
        -10.463653184802402
      ],
      [
        "▁d'après",
        -10.463656925430056
      ],
      [
        "▁torche",
        -10.463687039309054
      ],
      [
        "▁yó",
        -10.463735845701978
      ],
      [
        "▁vivaient",
        -10.463748737640087
      ],
      [
        "▁neuf",
        -10.463758131423738
      ],
      [
        "particulièrement",
        -10.463785193820739
      ],
      [
        "▁enfant-là",
        -10.463871774883218
      ],
      [
        "▁jeunesse",
        -10.463917579722494
      ],
      [
        "▁dalukaay",
        -10.463942330448129
      ],
      [
        "▁changement",
        -10.463954622148668
      ],
      [
        "▁poison",
        -10.463999395427638
      ],
      [
        "▁weexaay",
        -10.464015385925979
      ],
      [
        "▁tàgg",
        -10.464026513238647
      ],
      [
        "▁segg",
        -10.464035152590876
      ],
      [
        "▁ndigg",
        -10.464059106939164
      ],
      [
        "▁rejet",
        -10.46406768395908
      ],
      [
        "▁policier",
        -10.46406962716195
      ],
      [
        "▁moi-même",
        -10.464119554624812
      ],
      [
        "▁chantant",
        -10.464141963713237
      ],
      [
        "▁aada",
        -10.464153298845332
      ],
      [
        "▁proie",
        -10.464328292368165
      ],
      [
        "▁orages",
        -10.464328527042351
      ],
      [
        "▁relev",
        -10.464338314144927
      ],
      [
        "▁fexe",
        -10.464417540398095
      ],
      [
        "▁coucher",
        -10.464419931951294
[...]
