<pad>	0
</s>	0
<unk>	0
<s>	0
.	-2.70088
,	-3.34563
'	-3.46762
▁la	-4.13085
▁de	-4.26967
▁	-4.42934
-	-4.49087
▁!	-4.62108
s	-4.70757
▁a	-4.76832
▁le	-4.85512
▁l	-4.8679
▁ci	-4.88292
y	-4.91646
▁ko	-4.94693
e	-4.98086
est	-5.00584
▁?	-5.04735
▁à	-5.06783
▁ne	-5.10235
▁bi	-5.10558
▁Il	-5.11567
▁pas	-5.13615
▁un	-5.17632
▁est	-5.25458
▁les	-5.31329
▁que	-5.32352
▁ma	-5.34684
▁qui	-5.34788
▁na	-5.38301
a	-5.40314
▁mu	-5.47329
▁du	-5.47491
▁des	-5.47781
▁C	-5.4818
▁qu	-5.50263
▁d	-5.51482
▁et	-5.5931
▁n	-5.60074
▁ba	-5.63851
u	-5.66634
i	-5.6891
▁tu	-5.70092
▁yi	-5.71784
▁il	-5.73213
▁en	-5.79013
il	-5.80395
▁nga	-5.8948
▁gi	-5.92298
▁sa	-5.93777
▁dans	-5.94973
▁pour	-5.96094
▁bu	-5.98078
▁s	-5.98392
▁di	-5.98862
▁c	-5.98958
▁ak	-6.00197
▁Je	-6.02309
▁ngi	-6.05356
▁te	-6.0845
▁je	-6.13173
▁se	-6.13979
▁ni	-6.14046
une	-6.14465
ai	-6.14628
▁Le	-6.14835
▁au	-6.16203
▁ce	-6.16893
▁Dafa	-6.17734
▁dafa	-6.18401
▁ñu	-6.21596
▁dem	-6.26425
▁lui	-6.2691
al	-6.3389
▁ca	-6.36251
▁y	-6.36361
▁J	-6.36819
▁ay	-6.37763
▁am	-6.38135
▁naa	-6.39481
▁mi	-6.39583
t	-6.39623
▁yu	-6.40825
▁sur	-6.43856
;	-6.44524
▁Tu	-6.47299
▁avec	-6.47348
▁sont	-6.47971
r	-6.49268
▁sama	-6.51887
▁m	-6.52187
▁La	-6.5301
▁L	-6.54596
▁fait	-6.57269
▁lu	-6.57714
d	-6.59319
l	-6.66001
en	-6.66231
▁par	-6.70699
▁j	-6.71039
tu	-6.71383
▁son	-6.72675
▁t	-6.72784
es	-6.73742
on	-6.73964
é	-6.74097
▁plus	-6.74884
▁woon	-6.79047
▁wax	-6.79512
▁seen	-6.79546
le	-6.80068
▁moo	-6.81477
▁si	-6.82078
▁fa	-6.82481
▁me	-6.82663
▁doon	-6.84382
▁Les	-6.84553
un	-6.84754
▁nous	-6.87885
am	-6.88812
▁mon	-6.89003
▁ji	-6.89088
▁leen	-6.89347
▁def	-6.89647
▁li	-6.90131
▁rekk	-6.92642
er	-6.94617
▁Mu	-6.94711
▁Si	-6.99535
▁:	-7.00545
▁Omar	-7.01564
▁on	-7.01749
▁Sa	-7.01955
▁daan	-7.02024
▁wi	-7.03053
▁fi	-7.03831
▁xam	-7.04004
▁Bu	-7.05715
▁gis	-7.06432
ette	-7.07065
▁nekk	-7.08393
▁tout	-7.09432
▁ku	-7.09709
nt	-7.10637
▁Ku	-7.10661
▁Ce	-7.10942
▁as	-7.10965
ent	-7.11369
▁Dama	-7.12654
as	-7.12918
▁vu	-7.13315
▁may	-7.13558
n	-7.13927
▁D	-7.18274
là	-7.19112
▁moom	-7.19444
homme	-7.20405
▁faire	-7.23103
▁Quan	-7.23223
▁nit	-7.23294
▁Un	-7.23504
ait	-7.24329
▁où	-7.25151
▁On	-7.28151
▁nu	-7.28661
▁ton	-7.30115
▁laa	-7.30301
oo	-7.30555
▁nag	-7.30713
▁père	-7.3096
▁Am	-7.32135
▁va	-7.32136
▁dit	-7.32627
▁benn	-7.33072
▁Ci	-7.33148
ce	-7.33724
▁S	-7.3387
▁Su	-7.34776
oon	-7.34951
▁comme	-7.36433
▁enfants	-7.36574
▁Ne	-7.37439
▁été	-7.37608
▁kër	-7.37885
▁toi	-7.41319
▁là	-7.42188
and	-7.42546
à	-7.42655
▁mel	-7.43157
▁maison	-7.43331
▁ndax	-7.43432
▁lay	-7.43803
▁su	-7.44053
▁peut	-7.44634
▁gu	-7.45011
▁vous	-7.45034
▁xale	-7.45591
▁nañu	-7.46033
moi	-7.46192
▁Lu	-7.46334
▁sax	-7.46489
▁moi	-7.47001
▁ya	-7.4728
▁tax	-7.47482
▁avait	-7.48043
▁ab	-7.48659
eau	-7.49218
▁ont	-7.49434
▁mais	-7.49444
ee	-7.4988
▁Góor	-7.50246
▁ŋga	-7.50367
▁Sama	-7.50659
▁ici	-7.50821
▁A	-7.50999
▁ta	-7.51492
▁biir	-7.51711
te	-7.51734
▁lañu	-7.51941
▁ju	-7.53092
▁ga	-7.53181
▁kenn	-7.53852
▁Qu	-7.54391
▁celui	-7.54578
▁bien	-7.55478
▁bii	-7.55497
b	-7.55616
«	-7.56878
▁dañu	-7.57059
▁Baay	-7.58355
▁dara	-7.58989
▁Elle	-7.59519
▁Gis	-7.59825
▁waay	-7.60167
▁chose	-7.60703
▁Yàlla	-7.61401
▁sans	-7.61657
▁baax	-7.62491
ant	-7.62526
▁mën	-7.6305
▁homme	-7.63081
▁ñi	-7.63571
▁Soo	-7.64471
▁cela	-7.66489
▁bare	-7.66526
▁dina	-7.68016
▁même	-7.6819
▁jusqu	-7.6829
▁elle	-7.68297
m	-7.68983
▁bëgg	-7.69574
▁ñaar	-7.69748
▁dafay	-7.6976
▁yépp	-7.69772
k	-7.70009
▁Ba	-7.70494
▁deux	-7.70508
▁veux	-7.71181
▁enfant	-7.71751
▁xar	-7.71989
▁suis	-7.71989
▁Dieu	-7.72621
▁yaa	-7.72902
▁mère	-7.73387
▁cet	-7.73638
▁i	-7.7372
▁dëkk	-7.73737
▁P	-7.73905
▁leur	-7.74167
▁ça	-7.74194
it	-7.74446
▁était	-7.74456
ul	-7.75758
▁Afrig	-7.76294
▁encore	-7.76372
▁N	-7.76424
▁aux	-7.77088
▁grand	-7.7764
g	-7.78182
ils	-7.78589
▁Nous	-7.7872
elle	-7.79655
▁pays	-7.79946
▁doom	-7.80059
▁rien	-7.80525
re	-7.80624
▁autre	-7.81444
▁porte	-7.82283
▁góor	-7.82346
▁yoon	-7.83267
▁Qui	-7.84071
▁tes	-7.84697
▁ces	-7.84787
▁Maa	-7.85247
hui	-7.85752
▁tey	-7.85955
▁fu	-7.86268
▁Li	-7.8629
▁être	-7.86527
ma	-7.86577
▁Ma	-7.86963
▁leurs	-7.87285
▁temps	-7.87795
ment	-7.88747
était	-7.88943
ay	-7.88962
▁parti	-7.89392
▁Nit	-7.89625
▁personne	-7.89627
▁lool	-7.90219
▁gens	-7.90356
ci	-7.90639
▁photo	-7.91337
▁ñëw	-7.91678
▁Dañu	-7.9236
▁amul	-7.92442
▁ou	-7.92531
▁beaucoup	-7.93018
▁fais	-7.93961
▁tous	-7.94449
▁man	-7.94705
▁Celui	-7.94923
▁bëgga	-7.96307
▁quelque	-7.97259
▁réew	-7.97457
▁»	-7.97996
▁cause	-7.9812
avoir	-7.98298
▁dal	-7.98534
ujour	-7.98584
▁garab	-7.98642
▁gën	-7.98711
▁bon	-7.99129
▁cheval	-7.99581
▁sol	-8.00386
▁naan	-8.01351
▁nataal	-8.01572
▁boo	-8.01773
enfant	-8.02135
▁maa	-8.03167
▁peu	-8.03195
▁mag	-8.03439
▁Danga	-8.04161
▁aussi	-8.04541
▁mes	-8.04789
▁ndox	-8.05142
▁Ñu	-8.05223
▁À	-8.05527
▁jigéen	-8.05713
▁teg	-8.05741
▁koo	-8.06148
▁Ndax	-8.06799
▁ngir	-8.06844
▁ñoo	-8.06876
lui	-8.07164
▁Du	-8.07166
▁femme	-8.07926
aient	-8.07958
▁voir	-8.08609
▁néeg	-8.08828
di	-8.0919
▁parle	-8.09309
▁veut	-8.0971
▁B	-8.0992
▁monde	-8.09993
▁avant	-8.10076
▁Bul	-8.10324
▁O	-8.10394
▁es	-8.10563
▁da	-8.10657
▁fekk	-8.10962
▁Mon	-8.11337
uma	-8.11716
x	-8.12405
▁mouton	-8.13332
▁liggéey	-8.13339
▁En	-8.13369
▁Va	-8.13475
▁M	-8.1354
▁suuf	-8.13678
▁rafet	-8.14211
ñ	-8.16188
▁très	-8.17489
▁fois	-8.18654
▁Xale	-8.18717
▁say	-8.18749
▁sais	-8.1913
▁bee	-8.19143
▁sunu	-8.19404
▁wu	-8.19412
▁dul	-8.19433
▁ki	-8.20235
▁it	-8.21007
▁loxo	-8.21101
▁vois	-8.21155
▁Ton	-8.21743
um	-8.21833
▁lañuy	-8.22196
être	-8.22231
▁léegi	-8.22406
▁jour	-8.22668
▁quelqu	-8.22736
▁ag	-8.2335
▁mis	-8.23456
▁doit	-8.23506
tre	-8.23538
▁soit	-8.23584
▁ceux	-8.23812
bas	-8.23898
▁ngeen	-8.2417
lu	-8.24365
▁toog	-8.24632
▁gëna	-8.24956
▁fas	-8.25059
▁dama	-8.25084
▁tête	-8.25163
▁k	-8.25191
ñuy	-8.254
▁Moo	-8.25702
o	-8.25815
▁war	-8.25908
▁Demal	-8.26037
▁lekk	-8.26156
▁fii	-8.26435
an	-8.26521
▁demee	-8.26678
▁sera	-8.26775
▁yaay	-8.27147
tte	-8.27274
▁Sur	-8.27356
▁baa	-8.27386
▁travail	-8.27882
▁mbaa	-8.27894
▁entre	-8.28301
autre	-8.28574
▁waa	-8.29551
▁sous	-8.30077
▁jaay	-8.30185
▁terre	-8.30412
▁bopp	-8.30552
▁yàgg	-8.30647
▁Wax	-8.30876
▁part	-8.30928
ù	-8.30981
▁ndaw	-8.30996
▁Est	-8.31156
▁ànd	-8.31176
▁peux	-8.31188
▁gone	-8.31887
▁–	-8.32394
▁partir	-8.32543
ons	-8.32679
▁weex	-8.32746
▁ai	-8.32779
▁lépp	-8.32849
▁lii	-8.33389
ngay	-8.33813
▁yooyu	-8.33834
▁champ	-8.34556
▁neex	-8.3479
▁Nataal	-8.35147
▁trop	-8.35184
▁faut	-8.35186
▁vie	-8.35554
▁G	-8.35695
▁donné	-8.35763
▁venu	-8.35805
▁loolu	-8.35938
▁ja	-8.3619
▁boobu	-8.36596
▁marché	-8.36642
▁nii	-8.36862
▁Lii	-8.36951
▁ciy	-8.37143
▁T	-8.37364
▁p	-8.37518
▁Que	-8.3771
▁riz	-8.37934
▁jox	-8.38335
▁petit	-8.3865
is	-8.38685
▁dont	-8.3883
▁Na	-8.39012
▁eu	-8.39273
▁ñépp	-8.39471
▁pris	-8.39474
▁Boo	-8.40132
ée	-8.40177
▁Tout	-8.40906
▁f	-8.40955
▁yee	-8.41071
et	-8.41307
▁ñów	-8.4151
▁Ça	-8.42272
▁contre	-8.42325
▁tuuti	-8.42561
▁b	-8.42602
▁F	-8.43039
▁soo	-8.43237
▁jot	-8.43418
▁bàyyi	-8.43705
eneen	-8.4435
▁mal	-8.44482
▁dugg	-8.44775
▁yaram	-8.45662
▁walla	-8.45767
f	-8.45832
▁gii	-8.46135
▁Dem	-8.46254
▁ñuul	-8.46539
intérieur	-8.46786
▁bois	-8.46936
▁génn	-8.46976
▁De	-8.47151
▁dee	-8.47292
▁chambre	-8.47661
ont	-8.47776
▁Cet	-8.47867
ses	-8.47941
▁bés	-8.47946
leen	-8.48273
▁Te	-8.48281
▁coup	-8.4855
▁ka	-8.48725
▁takk	-8.49089
▁Yaa	-8.49135
▁jénd	-8.49843
▁aller	-8.4988
▁ñoom	-8.50229
kat	-8.50489
▁dis	-8.50786
▁moment	-8.50845
▁xel	-8.5122
▁Bi	-8.51278
▁jaar	-8.51313
▁Ay	-8.51316
argent	-8.51511
▁maintenant	-8.51599
▁Donne	-8.5161
w	-8.51698
▁jàpp	-8.51756
▁kow	-8.51823
▁xarit	-8.51899
▁dëgg	-8.51906
▁daw	-8.51951
▁re	-8.5211
▁Ta	-8.52449
la	-8.52532
▁jëm	-8.53116
▁xaalis	-8.53148
▁Attends	-8.53324
▁vas	-8.53656
▁réer	-8.54097
▁voiture	-8.5413
ñu	-8.54454
▁taxaw	-8.54713
▁Man	-8.54721
▁tànk	-8.55852
▁nuit	-8.56019
▁Xam	-8.56025
▁après	-8.56078
▁Ab	-8.56295
▁Jox	-8.56372
eux	-8.56448
▁jamais	-8.56604
ŋ	-8.57356
▁guerre	-8.57526
▁jóge	-8.57912
▁danga	-8.58033
in	-8.5806
▁Vous	-8.58323
▁yow	-8.58327
ale	-8.58815
▁vers	-8.59498
▁acheté	-8.59602
▁ëpp	-8.59677
ation	-8.59703
▁metti	-8.6007
▁Loolu	-8.6012
▁Waaye	-8.60137
▁fin	-8.60297
▁saa	-8.60705
de	-8.60865
▁poisson	-8.61156
▁bokk	-8.61351
▁yiy	-8.61473
▁ŋgi	-8.61639
▁bala	-8.61639
▁passe	-8.61866
▁manger	-8.61975
▁Waaw	-8.62383
avais	-8.62628
▁jeex	-8.62775
▁Nang	-8.63638
▁Mets	-8.63699
▁àll	-8.638
▁at	-8.64032
▁mer	-8.64317
▁tool	-8.64334
▁lait	-8.64523
que	-8.65187
▁trois	-8.65592
▁bët	-8.65602
ez	-8.65649
▁Mais	-8.65691
▁Seen	-8.65805
▁mil	-8.65849
▁aw	-8.66076
▁wara	-8.66085
▁dox	-8.66259
ar	-8.66391
▁couscous	-8.66969
▁dañ	-8.67026
▁voilà	-8.67425
▁mieux	-8.67645
▁main	-8.67948
▁togg	-8.67988
▁Def	-8.67989
▁doo	-8.68148
▁fini	-8.68226
▁daal	-8.68233
▁baay	-8.68663
ais	-8.68702
▁(	-8.6931
ur	-8.69354
▁point	-8.69413
▁donne	-8.69446
▁weer	-8.69656
▁allé	-8.69703
▁Cela	-8.69745
▁couleur	-8.70544
▁pied	-8.7076
ante	-8.71046
▁soleil	-8.71306
▁Xaaral	-8.71318
▁devant	-8.71641
▁ñax	-8.71656
aan	-8.71849
▁mets	-8.7193
▁noppi	-8.72323
▁Waa	-8.72353
▁côté	-8.72575
▁wa	-8.72624
▁passé	-8.72792
aay	-8.73166
épp	-8.73292
▁longtemps	-8.73325
▁loin	-8.73328
▁ainsi	-8.73353
loo	-8.73394
▁topp	-8.7341
ions	-8.73428
▁yeux	-8.73823
▁kanam	-8.74326
ne	-8.74331
▁toute	-8.7459
▁corps	-8.75337
▁Xar	-8.75546
▁reste	-8.75551
▁beau	-8.75748
▁g	-8.75784
▁bunt	-8.76151
Afrique	-8.76458
▁fo	-8.76576
▁car	-8.7666
▁puis	-8.76914
▁duma	-8.77016
▁dire	-8.77222
▁mëna	-8.77432
▁Kenn	-8.77441
▁tamit	-8.77451
▁doŋŋ	-8.77454
▁Tugal	-8.77482
▁dégg	-8.77574
▁mbir	-8.77695
▁dois	-8.77699
▁Ana	-8.77729
▁dóor	-8.7783
▁Tey	-8.78036
▁vais	-8.78197
▁parce	-8.78367
▁wër	-8.78481
noppi	-8.78654
▁fan	-8.78721
▁femmes	-8.7899
avons	-8.79004
▁maam	-8.79175
▁no	-8.79526
▁Ogosaa	-8.79545
▁Cherche	-8.79547
▁matin	-8.79563
▁seulement	-8.79579
tax	-8.80165
▁mains	-8.80511
▁bay	-8.8072
na	-8.81308
▁bari	-8.81467
▁milieu	-8.81989
▁ceeb	-8.82026
▁mort	-8.82204
arbre	-8.8261
▁étai	-8.82777
▁village	-8.83177
▁Loo	-8.83211
léeg	-8.83324
▁gaa	-8.83381
▁xol	-8.83479
▁woto	-8.83934
▁alors	-8.84077
▁Moom	-8.84142
▁faj	-8.84172
▁arrivé	-8.8419
▁xare	-8.84601
▁doole	-8.84765
▁R	-8.84779
▁sac	-8.84879
▁vo	-8.84958
▁vient	-8.85487
▁bonne	-8.85535
▁dikk	-8.85894
▁chez	-8.86255
▁Fais	-8.86374
▁yëg	-8.86475
▁habits	-8.8666
ir	-8.86772
▁Ceux	-8.8694
mettre	-8.86977
j	-8.87056
▁Au	-8.87204
▁assis	-8.87326
▁Ni	-8.87335
▁xaar	-8.87429
ès	-8.87459
▁fay	-8.87566
▁ville	-8.87778
▁premier	-8.88539
▁famille	-8.88615
▁ñ	-8.88704
▁noonu	-8.8875
▁jél	-8.88965
▁réy	-8.89058
▁grande	-8.89184
je	-8.89197
▁gaaw	-8.89227
▁r	-8.89229
▁dinaa	-8.89674
▁parler	-8.89942
▁jours	-8.9004
▁moutons	-8.90152
▁Quel	-8.90158
▁route	-8.90215
enn	-8.90374
▁W	-8.90539
▁bañ	-8.90609
pendant	-8.90617
aat	-8.90623
si	-8.90781
▁non	-8.90785
▁Comme	-8.90978
▁Prends	-8.90978
▁jamono	-8.90989
▁dé	-8.91071
▁yóbbu	-8.91147
▁itam	-8.9117
▁choses	-8.91251
▁fees	-8.91647
▁dex	-8.91659
▁Mën	-8.91783
▁seul	-8.92199
▁xaj	-8.92235
avait	-8.92328
▁Y	-8.92571
dessus	-8.92742
▁bout	-8.92811
▁travers	-8.93199
▁Dans	-8.93219
▁debout	-8.93416
ku	-8.93799
▁daanu	-8.93819
▁gee	-8.94198
uñu	-8.94211
ak	-8.94474
▁laaj	-8.94602
▁aura	-8.94647
▁partie	-8.94766
▁àddina	-8.95197
▁jël	-8.95305
autres	-8.95476
▁marse	-8.95944
▁vont	-8.95999
▁pagne	-8.96159
▁Et	-8.96236
▁nañ	-8.96312
▁Dinaa	-8.96334
▁yére	-8.9648
se	-8.96542
▁lion	-8.96551
au	-8.96795
yeek	-8.97016
▁indi	-8.97424
▁chien	-8.97691
toi	-8.97735
▁eux	-8.97912
▁puits	-8.98418
▁xonq	-8.98478
▁train	-8.98517
▁Ñaar	-8.98536
wul	-8.98573
▁propos	-8.98622
▁prendre	-8.98626
▁trou	-8.98899
▁yoo	-8.99101
ux	-8.99369
ldi	-8.99385
▁Dis	-8.99399
▁nee	-8.99545
▁w	-8.99838
quelle	-8.99921
ooy	-8.9997
▁demul	-9.00253
▁place	-9.0042
uy	-9.00648
▁belle	-9.00691
ug	-9.00763
▁doy	-9.00864
▁case	-9.01014
▁Alors	-9.01049
▁Jigéen	-9.0105
▁boubou	-9.0105
▁jooju	-9.01133
▁voit	-9.01178
▁Chaque	-9.01183
▁saison	-9.01331
▁Fii	-9.01358
age	-9.01404
▁autres	-9.01407
▁Des	-9.01624
▁Da	-9.01715
▁suba	-9.01736
▁guddi	-9.018
nu	-9.0204
▁Ca	-9.02093
▁peur	-9.02276
▁wut	-9.02314
▁haut	-9.02462
▁dos	-9.02647
▁blanc	-9.03009
▁roi	-9.03115
té	-9.03126
▁cinq	-9.03275
▁jeune	-9.03613
at	-9.03685
▁trouve	-9.04296
woon	-9.04586
▁quoi	-9.04722
▁semble	-9.05061
▁mat	-9.05236
▁plu	-9.0527
ement	-9.0538
ra	-9.05399
▁cuisine	-9.05462
▁amis	-9.0553
▁seet	-9.05562
▁toutes	-9.06266
▁kaw	-9.06274
▁K	-9.06418
▁viande	-9.06531
▁mauvais	-9.06545
ek	-9.06547
▁raison	-9.06547
▁Naka	-9.06553
▁xalaat	-9.0659
▁Astu	-9.06621
▁May	-9.06651
eek	-9.06826
▁yeneen	-9.06862
▁Ceci	-9.06945
▁so	-9.06982
▁jooy	-9.07075
▁lañ	-9.07325
▁ban	-9.07326
c	-9.07337
▁dund	-9.07565
▁xamul	-9.077
▁Fu	-9.07982
ras	-9.08018
▁Fas	-9.08089
▁».	-9.08167
▁ami	-9.0817
▁gaal	-9.08227
▁gaynde	-9.08721
▁tudd	-9.08763
▁lit	-9.08832
▁sorte	-9.08929
▁cere	-9.0899
▁mangé	-9.09439
▁Commen	-9.09472
▁Son	-9.09484
▁bras	-9.09747
▁peau	-9.09775
▁dellu	-9.10302
)	-9.1031
▁vent	-9.10474
▁arbres	-9.1049
▁woo	-9.10536
▁jàng	-9.11035
▁prend	-9.11276
ub	-9.11635
▁dàll	-9.11662
ta	-9.11791
▁nos	-9.11847
▁jii	-9.11971
▁fàtte	-9.12001
▁voyage	-9.12163
▁wet	-9.1221
ourquoi	-9.1232
▁ñaa	-9.12329
▁Borom	-9.12331
▁façon	-9.12339
▁Gone	-9.1235
▁beneen	-9.12491
▁lequel	-9.12494
▁Fa	-9.12536
▁bëggee	-9.12658
▁pain	-9.12838
een	-9.13192
▁dinga	-9.1342
▁xaw	-9.13604
▁yem	-9.13672
▁Pour	-9.13725
▁chemise	-9.14423
nd	-9.14583
em	-9.15063
▁wolof	-9.15187
▁Kooku	-9.15258
▁cheveux	-9.15357
▁yaakaar	-9.15359
▁nangu	-9.15434
▁Tubaab	-9.15539
▁dagg	-9.15573
▁boppam	-9.15575
▁solo	-9.15652
▁ŋgeen	-9.15704
nga	-9.15755
▁somme	-9.15756
aa	-9.15775
▁soir	-9.15782
▁mange	-9.15816
el	-9.15875
▁doute	-9.1594
▁table	-9.16037
▁waaw	-9.16079
▁pluies	-9.16113
▁defar	-9.16116
mère	-9.16154
és	-9.1621
▁tàng	-9.16401
irai	-9.16548
▁pieds	-9.16624
▁ans	-9.1695
▁noir	-9.16985
▁waral	-9.17021
▁lan	-9.17417
▁laver	-9.17763
père	-9.17816
▁personnes	-9.18049
▁dame	-9.18203
vous	-9.18348
▁jabar	-9.1839
▁long	-9.18442
▁vraiment	-9.18496
▁jén	-9.18571
▁tollu	-9.18572
▁kan	-9.1872
▁hommes	-9.19079
▁léeg	-9.19085
▁Astou	-9.19258
▁fut	-9.19309
▁années	-9.19311
▁amoon	-9.19387
vaient	-9.19483
▁dangay	-9.19598
me	-9.19905
haque	-9.1996
▁viendra	-9.20124
▁arrive	-9.20152
ti	-9.20196
▁petits	-9.2028
▁passer	-9.20463
▁taal	-9.20947
même	-9.20964
▁duñu	-9.21038
entrée	-9.21082
▁cherche	-9.21424
▁Kamerun	-9.21706
▁foofu	-9.21735
▁Wutal	-9.21794
ri	-9.21825
▁feuilles	-9.2183
▁tas	-9.21853
▁tombé	-9.21898
▁sucre	-9.22006
elles	-9.22021
aller	-9.22069
▁serait	-9.22123
▁day	-9.2217
▁ñetti	-9.22211
▁buntu	-9.22447
▁dents	-9.2247
li	-9.22899
ici	-9.22976
▁cour	-9.233
▁posé	-9.23386
▁way	-9.23486
▁xool	-9.23828
...	-9.23981
▁kooku	-9.24128
us	-9.24149
▁mii	-9.24257
▁marcher	-9.24619
▁saf	-9.24723
▁yii	-9.24798
▁ginnaaw	-9.25027
▁forêt	-9.25036
▁force	-9.25103
▁Ñoom	-9.25148
▁ragal	-9.25163
oŋ	-9.25208
▁jambes	-9.2522
▁Léegi	-9.25227
▁defe	-9.25232
▁nelaw	-9.25247
▁lieu	-9.25293
autour	-9.25366
▁lal	-9.25506
▁laisse	-9.26055
Après	-9.26075
▁savoir	-9.26444
▁miir	-9.26589
▁mot	-9.26728
▁daa	-9.26912
eurs	-9.27085
air	-9.27093
▁Amul	-9.27191
▁bind	-9.27304
les	-9.27323
▁pu	-9.27385
▁rey	-9.27571
▁Mi	-9.27654
▁singe	-9.27785
▁crois	-9.27802
▁chemin	-9.27804
▁droit	-9.2782
q	-9.27954
▁x	-9.28184
aime	-9.2842
▁mënul	-9.28445
▁couteau	-9.28447
▁bouche	-9.28524
▁peine	-9.28535
▁pouvait	-9.28544
▁dugub	-9.28575
▁gàtt	-9.28627
▁lakk	-9.28684
▁fer	-9.28736
▁wii	-9.28902
▁font	-9.29095
étais	-9.29193
▁froid	-9.2928
▁poule	-9.2943
habitude	-9.29664
▁bant	-9.29709
▁seule	-9.29717
arrête	-9.29825
▁waxtu	-9.29934
▁ñàkk	-9.29967
▁nuy	-9.30045
▁pa	-9.30081
▁Jél	-9.30274
▁près	-9.30333
▁quelle	-9.30382
ées	-9.30611
pp	-9.30755
▁X	-9.30999
▁Xa	-9.311
▁loo	-9.31107
▁médecin	-9.31131
▁waxtaan	-9.31162
▁rouge	-9.31255
▁première	-9.31261
▁visage	-9.31265
▁blanche	-9.31293
▁verre	-9.31366
▁fille	-9.31485
▁corde	-9.31658
▁gudd	-9.31884
▁xeet	-9.31976
▁paix	-9.32058
▁mbubb	-9.3206
▁Garab	-9.32102
▁agsi	-9.32114
▁simis	-9.32115
▁tàmbalee	-9.32119
▁chaussures	-9.32131
▁longue	-9.32147
▁taabal	-9.32343
▁biti	-9.32393
▁nom	-9.32504
▁sàkk	-9.3255
ère	-9.32803
▁chercher	-9.32806
▁moomu	-9.32848
ati	-9.32987
▁leer	-9.33083
▁chat	-9.33334
▁endroit	-9.33343
▁gan	-9.33358
▁toj	-9.33958
▁gisee	-9.34324
▁porter	-9.34549
▁séen	-9.35097
ax	-9.3533
▁demande	-9.35424
▁tere	-9.35434
▁sant	-9.35513
▁portes	-9.3567
▁année	-9.35684
▁Kër	-9.35695
▁Jésus	-9.35756
▁picc	-9.35757
▁question	-9.35765
▁mariage	-9.35766
▁francs	-9.35813
▁ngelaw	-9.3585
▁kii	-9.35874
▁ganaar	-9.35916
▁soow	-9.35916
▁Oui	-9.35965
▁dénk	-9.35974
▁tomber	-9.36
▁fruits	-9.36118
z	-9.36194
▁buum	-9.36363
▁tudde	-9.36865
▁dinañu	-9.36931
▁nopp	-9.36946
▁demoon	-9.37006
▁ňu	-9.37031
▁Là	-9.37078
▁ña	-9.37094
ukaay	-9.37098
▁buur	-9.37141
ji	-9.37164
▁xew	-9.37171
▁montre	-9.37199
▁fey	-9.37683
tal	-9.3786
▁doomu	-9.37901
jur	-9.38133
▁tard	-9.38136
▁far	-9.38181
▁War	-9.38314
▁feu	-9.38684
▁besoin	-9.38797
vient	-9.3893
▁prépare	-9.39001
▁juróom	-9.39155
▁vaut	-9.39244
▁Ben	-9.39347
▁France	-9.39602
▁Apporte	-9.39604
▁paaka	-9.39616
▁Yéesu	-9.39628
▁xanaa	-9.39639
▁wéy	-9.39715
▁nettali	-9.39838
Omar	-9.3992
▁bord	-9.39926
herbe	-9.39955
▁yàpp	-9.40017
▁Bëgg	-9.40093
▁demain	-9.4013
▁depuis	-9.40284
▁sable	-9.40451
▁vend	-9.40765
▁aperçu	-9.40811
▁fils	-9.40837
▁prends	-9.40844
▁Ogoja	-9.40925
▁Quelle	-9.41004
▁mois	-9.4108
▁ubbi	-9.4117
▁fond	-9.41172
▁naaj	-9.41904
▁teel	-9.42221
▁Ces	-9.42422
▁présent	-9.42512
▁Ñ	-9.42554
▁Bàyyil	-9.42816
▁fleuve	-9.42826
▁pluie	-9.42869
▁cha	-9.4288
▁baat	-9.42882
▁Ndox	-9.43063
▁bees	-9.43146
▁teen	-9.4316
ersonne	-9.43271
▁vache	-9.43276
▁met	-9.43334
▁déglu	-9.43504
▁Sénégal	-9.43573
▁chacun	-9.43602
▁Senegaal	-9.43605
▁fàww	-9.43611
▁sauce	-9.43619
▁ensemble	-9.43626
▁yónnee	-9.43645
▁daanaka	-9.43715
▁marche	-9.43741
▁diggu	-9.43836
▁baaxul	-9.43861
▁fukk	-9.43924
▁êtes	-9.4403
▁venir	-9.4415
▁Di	-9.44153
▁mbaam	-9.442
▁As	-9.44328
▁vaches	-9.44349
▁wér	-9.444
où	-9.44493
▁E	-9.44497
▁gannaaw	-9.44525
▁comment	-9.44597
▁bol	-9.44609
▁sedd	-9.44619
▁tali	-9.44716
▁jeunes	-9.44772
▁wóor	-9.44821
▁dellusi	-9.44828
esprit	-9.4484
bu	-9.44998
▁wone	-9.45019
▁Kan	-9.45172
▁Afrique	-9.45389
▁néegu	-9.45445
▁door	-9.46037
▁séy	-9.46343
▁soxla	-9.46744
▁doomi	-9.46923
▁coeur	-9.46962
▁vienne	-9.47058
▁ressemble	-9.47567
eur	-9.47584
▁parte	-9.47655
▁For	-9.47677
▁plein	-9.47762
▁Cameroun	-9.47776
▁prière	-9.47785
▁dernier	-9.4779
ité	-9.47803
▁Fi	-9.47818
▁doktoor	-9.47862
▁dana	-9.47867
▁travailler	-9.47869
▁»,	-9.47923
▁xeer	-9.4796
▁fête	-9.47971
▁jëkk	-9.47991
▁ndab	-9.4801
▁heures	-9.48037
▁faral	-9.4804
▁xorom	-9.48062
▁sànni	-9.48079
▁màgget	-9.48132
▁in	-9.48153
▁Dëkk	-9.48178
▁lanu	-9.48319
▁xeex	-9.48334
▁vite	-9.48377
▁petite	-9.48413
▁affaire	-9.48528
▁Tou	-9.48812
▁fecc	-9.48852
▁fàttaliku	-9.48941
▁ra	-9.49064
▁fit	-9.49325
om	-9.49402
▁deme	-9.49527
▁noo	-9.49625
▁defee	-9.49719
▁cassé	-9.49772
▁leneen	-9.50155
woo	-9.50205
▁wàn	-9.5034
▁Bés	-9.50405
mi	-9.50733
▁nanu	-9.50894
▁avais	-9.51025
or	-9.51104
▁trouvé	-9.51211
▁set	-9.51217
vent	-9.51254
éjà	-9.51385
▁frère	-9.51418
▁tabax	-9.51717
▁damm	-9.5179
▁aucun	-9.518
▁Ak	-9.51802
▁saak	-9.51862
kër	-9.52068
▁gerte	-9.5211
aadama	-9.52113
▁borom	-9.52113
▁googu	-9.52114
▁apporté	-9.52166
▁bëj	-9.52219
h	-9.5225
ng	-9.52263
▁entendu	-9.52294
▁Dakar	-9.52378
▁jouer	-9.52378
tôt	-9.52396
▁co	-9.52665
▁tooy	-9.52837
voir	-9.52857
▁égaré	-9.52938
▁fort	-9.5304
▁sew	-9.53156
▁cuir	-9.53254
midi	-9.53406
▁wetu	-9.53515
▁Teg	-9.53663
▁tel	-9.53684
▁Booy	-9.53728
ngeen	-9.53835
▁Nan	-9.53862
▁nak	-9.53934
▁aurait	-9.54089
▁ciel	-9.54178
▁toit	-9.5471
▁tam	-9.55105
aire	-9.55299
▁gros	-9.55527
▁yar	-9.55574
▁guy	-9.55575
naa	-9.55714
▁Mbaa	-9.55764
▁dëkke	-9.56136
▁épouse	-9.56306
▁sens	-9.56418
▁donner	-9.56506
ni	-9.5657
▁garde	-9.56627
▁colère	-9.56651
▁journée	-9.5666
▁complètement	-9.56664
▁diggante	-9.5667
▁suffit	-9.56678
▁vieux	-9.56721
▁Saint	-9.56728
▁réunion	-9.56732
▁manière	-9.56752
▁toujours	-9.5679
▁fourmis	-9.56831
▁derrière	-9.56905
▁attention	-9.56914
▁viens	-9.57023
▁sore	-9.57062
▁jàmm	-9.57112
▁natte	-9.57148
▁gor	-9.5723
▁Ñi	-9.57307
▁daje	-9.57464
▁dog	-9.57472
▁Buur	-9.57474
▁souris	-9.57494
uloo	-9.57679
▁dessus	-9.57752
▁dëgër	-9.57768
▁waaj	-9.5777
▁woy	-9.57944
âne	-9.58183
▁ndey	-9.58295
▁Liggéey	-9.58339
aale	-9.58343
▁amee	-9.58374
▁taw	-9.58413
▁wuti	-9.58455
aw	-9.58569
ag	-9.5857
▁So	-9.58844
▁Indi	-9.58907
tt	-9.59034
▁kay	-9.59197
▁yàq	-9.59438
▁Se	-9.59734
▁Nda	-9.59751
▁won	-9.59781
▁bar	-9.60166
▁xëcc	-9.60219
sait	-9.60243
▁laisser	-9.60311
▁offert	-9.60327
▁tëdd	-9.60344
▁ñaw	-9.60494
oir	-9.6058
▁serpent	-9.60606
bi	-9.60641
▁yor	-9.60822
▁fera	-9.60934
▁jur	-9.60975
▁chef	-9.61222
▁màtt	-9.6126
▁alal	-9.61365
▁Voi	-9.61372
▁dàq	-9.61389
hôpital	-9.61401
▁meilleur	-9.61402
▁Viens	-9.61403
▁chaleur	-9.61407
▁Wànte	-9.61408
▁simplement	-9.61417
▁téere	-9.61418
▁brousse	-9.61423
▁appelle	-9.61425
▁ñaan	-9.61441
▁seetlu	-9.61457
▁celle	-9.61466
▁compte	-9.61482
▁Ici	-9.61488
▁appris	-9.61491
▁plaît	-9.61521
▁circoncis	-9.6153
▁moins	-9.61544
▁assez	-9.61618
▁coté	-9.61701
▁bouillie	-9.61731
▁ngoon	-9.61733
▁faisait	-9.61774
▁arbre	-9.61939
ième	-9.61991
▁téye	-9.62005
▁nekkoon	-9.62121
▁këram	-9.62309
▁lutte	-9.62434
▁jaan	-9.62539
▁neen	-9.62573
▁murs	-9.62664
▁biens	-9.62731
▁sang	-9.62816
▁xa	-9.62977
▁jeu	-9.63069
▁gént	-9.6314
école	-9.63347
▁Nu	-9.63457
▁tëb	-9.63552
▁jar	-9.63636
▁bëggul	-9.6368
▁Mes	-9.63746
▁ng	-9.63865
▁diis	-9.63898
▁Vo	-9.63988
▁Fan	-9.6407
▁Nd	-9.64362
▁tour	-9.64376
▁sortir	-9.64453
▁connais	-9.64486
▁quel	-9.64646
▁jiit	-9.64681
▁tué	-9.64745
▁trouver	-9.65235
▁mo	-9.65367
▁nun	-9.65406
▁per	-9.65558
▁vieille	-9.65565
▁yàqu	-9.65612
▁bas	-9.65694
▁coupe	-9.65742
▁vivre	-9.65822
▁pot	-9.66058
▁romb	-9.66274
▁jëkkër	-9.663
▁taat	-9.66388
▁Maintenant	-9.66401
▁Móris	-9.66401
▁marmite	-9.66401
▁gunóor	-9.66404
▁nombreux	-9.66424
▁mburu	-9.66447
▁commerce	-9.66448
▁Keneen	-9.66451
▁voici	-9.66452
▁Leur	-9.6646
▁feeñ	-9.66467
▁bëñ	-9.66472
▁tombe	-9.66476
▁Foo	-9.66477
▁elles	-9.6648
▁commencé	-9.66489
▁relations	-9.66544
▁bal	-9.66577
▁pourquoi	-9.66587
▁Samba	-9.66603
▁àgg	-9.66621
▁Niseryaa	-9.66627
▁bépp	-9.66663
▁golo	-9.66673
▁Par	-9.66697
▁battu	-9.66775
▁mouillé	-9.66854
▁propre	-9.66871
▁bëggoon	-9.66906
▁devait	-9.6693
▁ventre	-9.67022
▁portent	-9.67024
▁feebar	-9.67052
▁Ndar	-9.67188
▁màndi	-9.6747
▁regard	-9.67551
▁sowu	-9.67568
▁tefes	-9.67578
▁parents	-9.67655
àll	-9.67818
▁seeti	-9.679
▁tekk	-9.68121
▁niroo	-9.68196
▁Xan	-9.68261
oeil	-9.68341
fin	-9.68386
▁mari	-9.68387
▁mar	-9.68391
▁puisse	-9.68462
▁Sunu	-9.68486
▁Kañ	-9.68526
endroit	-9.68594
oiseau	-9.68636
▁nez	-9.68683
▁yéeg	-9.68733
avez	-9.6891
▁U	-9.68924
ire	-9.68988
après	-9.69028
▁sel	-9.69292
ël	-9.69364
▁tëgg	-9.69669
▁mur	-9.69786
▁jafe	-9.70177
▁Moi	-9.70301
▁tar	-9.70479
▁tolloo	-9.70527
ook	-9.7067
▁Seet	-9.70816
▁Woto	-9.70816
▁Danu	-9.71042
▁adulte	-9.71047
▁baaraam	-9.71225
▁song	-9.71331
û	-9.71365
▁Ñoo	-9.71431
ga	-9.71455
alcool	-9.71664
▁Arrête	-9.71664
▁souviens	-9.71665
Ouest	-9.71665
▁Nigeria	-9.71666
▁Enlève	-9.71668
▁féete	-9.71669
▁début	-9.71681
▁voix	-9.71683
▁mbedd	-9.71694
▁néew	-9.71702
▁màngo	-9.71705
▁ndaje	-9.71721
▁Bansoo	-9.71722
▁nouveau	-9.7173
▁Noonu	-9.71792
▁soient	-9.71794
▁mas	-9.71803
▁booba	-9.71806
▁vécu	-9.71813
▁genn	-9.71823
▁Ndakaaru	-9.71844
▁weñ	-9.71863
▁Laisse	-9.7192
▁dehors	-9.72006
▁kàddu	-9.7207
▁rendu	-9.72138
▁Passe	-9.72169
▁woowu	-9.72223
▁oreilles	-9.72305
▁doomam	-9.72322
ion	-9.72335
oivent	-9.72609
▁pars	-9.72693
▁njaay	-9.72753
▁deret	-9.72869
▁wutal	-9.73096
▁géej	-9.73161
▁defal	-9.73242
wu	-9.7325
tam	-9.73312
▁Doom	-9.73437
▁aime	-9.73511
ou	-9.73794
▁jékk	-9.73941
abord	-9.74022
iy	-9.74073
âge	-9.74128
▁nawet	-9.74298
▁chasse	-9.74373
▁sér	-9.74537
▁regarde	-9.74548
ru	-9.74562
▁yokk	-9.74837
iñ	-9.74907
▁charge	-9.75175
▁rue	-9.75408
gal	-9.75539
añ	-9.75635
▁foo	-9.75792
▁varan	-9.75843
▁boole	-9.75911
▁I	-9.76067
▁baobab	-9.76284
▁parles	-9.76375
▁rivière	-9.76412
▁pantalon	-9.76414
▁bâton	-9.7644
ellement	-9.76497
▁langue	-9.76506
mu	-9.76761
▁for	-9.76946
kk	-9.76948
▁lorsqu	-9.7699
▁Gor	-9.77038
Louis	-9.77114
▁partis	-9.77129
▁morceau	-9.77186
▁tranquille	-9.7722
▁préfère	-9.7722
▁poudre	-9.77224
▁Laobe	-9.77225
▁caillé	-9.77228
▁fetal	-9.77254
▁weesoo	-9.77255
▁parlait	-9.77299
▁meew	-9.77312
▁delloo	-9.77344
▁passage	-9.77377
▁kayit	-9.77443
▁pense	-9.7752
▁resté	-9.77539
▁xelam	-9.77544
▁coucher	-9.77742
▁Kon	-9.77789
▁faa	-9.77816
▁agsee	-9.77831
▁ëtt	-9.77871
▁mépp	-9.77947
▁plaine	-9.78048
góor	-9.78052
▁noire	-9.78062
▁béré	-9.78064
▁gars	-9.78148
▁garder	-9.78203
▁avions	-9.78265
▁jant	-9.78277
▁yaatu	-9.78332
▁bëre	-9.7852
▁yax	-9.78669
▁julli	-9.7869
▁ex	-9.78754
▁arachides	-9.78812
▁blancs	-9.78864
appelle	-9.78983
▁mesure	-9.79132
▁muus	-9.7921
▁pax	-9.79286
eel	-9.79409
▁ñor	-9.79413
armée	-9.79428
▁sàcc	-9.79447
▁commence	-9.79459
▁maisons	-9.79623
saŋ	-9.79641
ans	-9.80071
▁tàkk	-9.80128
óor	-9.8013
koon	-9.8016
▁Re	-9.80365
▁dirige	-9.80472
rent	-9.8056
▁dëkki	-9.80764
▁dootul	-9.80809
gi	-9.80811
▁Aw	-9.81185
▁fou	-9.81197
os	-9.81263
vec	-9.81363
▁tire	-9.81432
▁Saa	-9.81471
▁jéem	-9.81675
▁rapide	-9.82087
▁maître	-9.82206
▁dromadaire	-9.82302
▁jën	-9.82322
▁médicament	-9.82324
▁lampe	-9.82433
▁habit	-9.82445
▁noon	-9.82515
▁large	-9.82582
▁forme	-9.82587
▁jëkka	-9.8295
▁morom	-9.83033
▁Banso	-9.8304
▁calme	-9.83078
▁cou	-9.8309
▁Achète	-9.83102
▁violence	-9.83102
▁Àngalteer	-9.83102
▁Êt	-9.83102
▁Tabaski	-9.83103
▁jardin	-9.83103
▁Àngale	-9.83106
▁Picc	-9.83113
▁facile	-9.83122
▁ceinture	-9.83123
▁raxas	-9.83148
▁fanaan	-9.83182
▁seetaan	-9.83245
▁pleurer	-9.83246
▁élevé	-9.83265
▁animaux	-9.83277
▁gas	-9.83338
▁Kaay	-9.83358
▁sàmm	-9.83364
▁donc	-9.83367
▁asamaan	-9.83369
nn	-9.83403
▁Xaj	-9.83448
▁Mënuma	-9.83467
▁café	-9.83471
▁monter	-9.83477
▁allait	-9.83507
▁montagnes	-9.8351
▁xóot	-9.83517
▁gar	-9.83555
▁salle	-9.8365
▁viennent	-9.83709
▁Toi	-9.83719
▁bakkan	-9.83756
▁partira	-9.83788
▁rëdd	-9.83997
▁Combi	-9.84046
▁fàttali	-9.84208
ewul	-9.84233
▁queue	-9.84284
▁tubaab	-9.84379
▁affaires	-9.84387
▁vendu	-9.8446
▁Dina	-9.84462
▁rend	-9.8453
▁ëmb	-9.84667
▁tontu	-9.84697
aar	-9.84726
▁kaas	-9.84935
▁mille	-9.84975
▁sotti	-9.85014
▁rappelle	-9.8513
▁villages	-9.85196
▁Moytul	-9.85279
▁acheter	-9.85289
▁séché	-9.854
▁daj	-9.85417
▁moy	-9.85511
▁sorti	-9.85568
▁taxul	-9.8567
▁poissons	-9.85702
▁jàll	-9.86022
kanam	-9.86124
▁entré	-9.86131
instant	-9.86294
▁sonn	-9.86458
▁âge	-9.8649
▁Mënul	-9.86491
▁venus	-9.86555
▁liggéeye	-9.86809
iers	-9.86857
mb	-9.8689
▁dur	-9.87019
▁ñaaw	-9.87042
▁Mag	-9.87088
amour	-9.87161
▁No	-9.87334
▁mb	-9.87338
▁repas	-9.87338
aurais	-9.87389
▁Bala	-9.87441
aayu	-9.87464
▁Lekk	-9.8758
▁Nga	-9.87595
▁jóg	-9.87639
sse	-9.88053
▁bale	-9.88192
▁argent	-9.88221
▁V	-9.88228
▁njëkk	-9.8829
▁ren	-9.88408
▁prochain	-9.88429
▁tambour	-9.88559
▁garçon	-9.88578
▁maladie	-9.88623
▁fekke	-9.88793
).	-9.8894
▁génne	-9.88945
▁teew	-9.8896
▁Xamu	-9.89032
▁retour	-9.89164
▁livre	-9.89249
▁Xaw	-9.89253
▁grands	-9.89291
▁Mecque	-9.89352
▁Moussa	-9.89352
▁piège	-9.89353
▁vérité	-9.89356
▁Pourtant	-9.89359
▁dunyaa	-9.89363
▁diiwaan	-9.89364
exiler	-9.89369
▁Appelle	-9.89375
asseoir	-9.89379
▁préparé	-9.89379
▁lëndëm	-9.89386
▁moroom	-9.89399
▁caabi	-9.89412
▁région	-9.89431
▁Booba	-9.89444
▁surtout	-9.89457
▁kese	-9.8949
▁courant	-9.89521
▁suukar	-9.89558
▁tangor	-9.89583
▁battre	-9.89628
▁quatre	-9.89651
▁Njaay	-9.89711
▁màggat	-9.89713
▁démb	-9.89716
▁ekool	-9.89776
▁boog	-9.89805
▁dajale	-9.89816
▁jaam	-9.89859
▁tant	-9.89864
▁Kii	-9.89872
▁po	-9.89896
▁wàll	-9.89948
▁Ñii	-9.89965
▁tukki	-9.90018
▁Yaw	-9.90058
▁jotee	-9.90084
▁juróomi	-9.90098
▁ndànk	-9.90171
rait	-9.90296
▁cuit	-9.90406
maa	-9.90431
▁tenir	-9.90457
▁plat	-9.9047
▁mujjee	-9.9062
▁aucune	-9.90752
▁filles	-9.90821
▁noirs	-9.9096
▁yéene	-9.91146
▁Doo	-9.91192
▁danu	-9.91244
▁dix	-9.91301
▁Bamenda	-9.91361
▁rester	-9.91399
der	-9.91406
▁xéy	-9.91692
▁Nag	-9.92036
▁ñan	-9.92039
▁bul	-9.9218
▁joue	-9.92442
▁làmp	-9.92691
portant	-9.92751
▁denc	-9.92789
añuy	-9.92797
▁wute	-9.9282
atul	-9.92864
ottali	-9.92907
ata	-9.92939
▁xat	-9.92947
▁champs	-9.9296
cc	-9.93037
▁dig	-9.93062
▁taxa	-9.93068
▁booy	-9.93099
▁ron	-9.93128
èrent	-9.93235
▁fil	-9.93263
▁reconnais	-9.93388
▁naaw	-9.9349
▁dëkku	-9.93503
▁ub	-9.93582
▁avez	-9.93647
aube	-9.93737
gu	-9.93872
oor	-9.94038
auras	-9.94143
▁entier	-9.94184
▁bleu	-9.94264
▁v	-9.94529
im	-9.9453
▁riir	-9.94537
▁ràbb	-9.94772
▁telle	-9.94817
laay	-9.94987
▁mujje	-9.95134
▁ñett	-9.9516
▁ré	-9.95216
waat	-9.9523
▁branche	-9.95275
▁jee	-9.95714
▁visite	-9.95746
▁xob	-9.95763
▁palanteer	-9.95898
▁Seigneur	-9.96019
▁grâce	-9.96019
▁Ñów	-9.96019
▁mémoire	-9.96019
▁chevaux	-9.96019
▁House	-9.9602
▁choisi	-9.96024
▁toppatoo	-9.96024
▁Aucun	-9.96025
▁soldaar	-9.96026
▁Yow	-9.96032
▁fourneau	-9.96035
▁renversé	-9.96037
▁appelé	-9.96041
▁déjeuner	-9.96043
▁làrme	-9.96047
▁paille	-9.96072
▁partout	-9.96107
ine	-9.96115
▁xàmmee	-9.96186
▁xuus	-9.96206
▁oncle	-9.96219
▁ëe	-9.96264
▁rëcc	-9.96307
▁fenn	-9.96323
▁proche	-9.96353
▁dirait	-9.96459
entre	-9.96485
▁Lan	-9.96666
▁dég	-9.96693
mal	-9.96762
▁tëj	-9.96826
▁ferai	-9.96862
▁warul	-9.96894
oy	-9.96935
▁yëngu	-9.97079
▁coupé	-9.97132
▁ňaar	-9.97147
sa	-9.97164
▁kilifa	-9.97171
▁waar	-9.97257
eer	-9.97496
part	-9.9753
▁Fomp	-9.9767
▁jaune	-9.97674
▁laisses	-9.97894
▁ser	-9.98063
▁ñii	-9.98136
▁të	-9.9833
▁tirer	-9.98391
▁jënd	-9.98394
▁bett	-9.98579
iez	-9.98769
ie	-9.98851
▁tekki	-9.99203
nekk	-9.99211
▁jàngal	-9.99275
▁naat	-9.99286
▁Naan	-9.99565
▁diw	-9.99657
▁bëtt	-9.99758
▁Dégg	-9.99833
▁Noo	-9.99925
▁sort	-10.0039
▁entra	-10.005
▁dayo	-10.0051
▁sou	-10.0086
▁maanaa	-10.0107
▁pourra	-10.0125
herbes	-10.0136
▁soog	-10.0152
▁Jénd	-10.0155
▁gise	-10.0158
ju	-10.0159
ň	-10.016
ient	-10.0165
▁accroché	-10.0167
▁baxa	-10.018
ure	-10.0199
añoo	-10.0202
▁couper	-10.0203
ch	-10.0217
▁sori	-10.0223
▁fusil	-10.0223
▁difficile	-10.0223
rie	-10.0227
▁souvenir	-10.0228
jj	-10.0231
▁chaud	-10.0232
▁malade	-10.0237
▁doigt	-10.0239
▁fóot	-10.0244
▁wadd	-10.0252
▁dënn	-10.0268
▁jolie	-10.027
▁clé	-10.0277
ême	-10.0282
tiir	-10.0287
▁jub	-10.0294
▁tay	-10.0295
▁gaañ	-10.0299
▁rab	-10.0305
▁devenu	-10.0313
▁cadeau	-10.0314
▁Kaolack	-10.0316
▁enceinte	-10.0316
▁liberté	-10.0316
▁soudain	-10.0316
▁Kawlax	-10.0316
▁nourriture	-10.0316
▁caractère	-10.0316
▁jamano	-10.0316
▁wirgo	-10.0316
▁faudra	-10.0316
▁théière	-10.0317
▁palais	-10.0317
▁dernière	-10.0318
▁bërëb	-10.0318
▁farine	-10.0319
▁wàññi	-10.0319
▁prix	-10.032
▁wacc	-10.032
gg	-10.032
▁tiim	-10.032
▁ndigg	-10.0321
▁boroom	-10.0321
▁yuuxu	-10.0322
▁demandé	-10.0322
▁Réew	-10.0322
▁court	-10.0322
▁Musaa	-10.0323
▁Peut	-10.0325
▁këll	-10.0326
▁mbër	-10.0328
▁loxoom	-10.0334
▁Weer	-10.0335
▁naqar	-10.0335
▁bukki	-10.034
▁feneen	-10.0342
▁gendarmes	-10.0342
▁juste	-10.0345
▁Suba	-10.0345
▁thé	-10.0348
▁autrement	-10.035
▁Yéen	-10.035
▁gémmiñ	-10.0352
▁Walla	-10.0366
▁Xel	-10.0367
▁waroon	-10.0378
▁waañ	-10.038
▁taxoon	-10.038
▁samp	-10.038
▁Noona	-10.0383
▁meloon	-10.0388
▁commencer	-10.039
▁cours	-10.0392
▁doigts	-10.0394
▁làkk	-10.0395
▁bëy	-10.0401
▁beek	-10.0406
▁mêmes	-10.0407
▁fasse	-10.0415
▁yenn	-10.042
▁yaw	-10.0427
▁con	-10.0429
▁jeté	-10.0444
▁menn	-10.0451
▁remis	-10.0461
▁Wa	-10.0475
xam	-10.049
▁époque	-10.0523
▁caillou	-10.0524
▁tuur	-10.0535
▁col	-10.054
éeréer	-10.056
▁yab	-10.0563
ñoo	-10.057
▁Non	-10.0588
ations	-10.0606
aux	-10.0608
▁couleurs	-10.0615
▁entrer	-10.0617
▁réewu	-10.0635
▁wow	-10.0637
epuis	-10.0658
▁jaa	-10.066
▁coups	-10.0677
▁sopp	-10.0684
▁tux	-10.0688
llions	-10.0701
▁luy	-10.0719
eelu	-10.0721
oom	-10.0725
tion	-10.0727
▁bool	-10.0731
▁mana	-10.0738
▁fee	-10.0753
ëkk	-10.0758
▁mucc	-10.0777
▁gaawa	-10.0807
▁mba	-10.0824
▁touche	-10.0825
▁tôt	-10.0852
▁Bamendaa	-10.0863
indil	-10.0864
▁sab	-10.0946
▁Cere	-10.0946
▁takku	-10.0952
▁balle	-10.0953
▁vide	-10.0955
▁natt	-10.0956
▁wàcc	-10.0976
▁Gàdd	-10.0979
▁sûr	-10.0989
▁perdu	-10.099
▁lim	-10.0993
▁pënd	-10.0999
▁pirogue	-10.1001
▁clair	-10.1003
▁chèvre	-10.1006
▁fruit	-10.101
▁yeew	-10.1014
près	-10.1032
▁savon	-10.1041
▁calebasse	-10.105
▁sabar	-10.106
▁ñam	-10.1061
▁Léeg	-10.1063
▁kilo	-10.1065
▁jam	-10.1066
urs	-10.1072
ique	-10.1073
▁manque	-10.1075
▁chapeau	-10.1083
▁britannique	-10.1085
▁période	-10.1085
▁silence	-10.1085
▁mosquée	-10.1085
▁lumière	-10.1085
▁compris	-10.1085
▁Wolof	-10.1086
▁rawati	-10.1086
▁compagnie	-10.1086
▁pañe	-10.1087
▁plage	-10.1087
▁Waxtaan	-10.1087
gànnaar	-10.1087
▁Lawbe	-10.1088
▁Maurice	-10.1088
▁canari	-10.1088
▁jéggi	-10.1089
▁papier	-10.109
▁tubay	-10.109
▁sokolaa	-10.109
▁mbokk	-10.1091
▁départ	-10.1091
▁Moonte	-10.1091
saalum	-10.1091
▁mbóot	-10.1092
▁foyer	-10.1092
▁Màkka	-10.1093
▁failli	-10.1093
▁tissu	-10.1093
▁jëfandikoo	-10.1094
▁ndënd	-10.1095
▁doxandéem	-10.1095
▁sèche	-10.1098
▁boire	-10.1099
▁demkoon	-10.1103
▁yëf	-10.1105
▁Frãs	-10.1106
▁Ibo	-10.1107
▁fépp	-10.1108
aurait	-10.1114
▁laissé	-10.1115
▁grosse	-10.1115
▁Toute	-10.112
▁fleurs	-10.1121
▁parlé	-10.1124
▁linge	-10.1125
▁tank	-10.1127
▁reer	-10.1134
▁panier	-10.1135
▁rek	-10.1137
▁déggoo	-10.1144
▁sell	-10.1146
▁ras	-10.1156
▁serais	-10.1161
▁existe	-10.1163
▁Pose	-10.1166
▁venue	-10.1178
▁Yeen	-10.1181
▁garçons	-10.1182
gis	-10.1183
▁xamoon	-10.1187
▁port	-10.1195
▁jege	-10.1204
▁ëllëg	-10.1207
able	-10.1207
▁joor	-10.1234
▁gënal	-10.1238
▁souffle	-10.1238
▁muur	-10.1251
▁yég	-10.1255
▁jeux	-10.1263
▁sañ	-10.1267
▁prêt	-10.127
▁gardé	-10.1279
▁ŋgii	-10.1279
ali	-10.1299
▁pres	-10.1322
▁nëbb	-10.1322
▁Buy	-10.1333
▁pom	-10.1336
▁attend	-10.1338
▁danse	-10.1341
▁dugal	-10.135
▁tund	-10.1353
▁mee	-10.1361
▁Jénda	-10.1362
▁sago	-10.1372
▁taa	-10.1377
▁vrai	-10.1393
▁instant	-10.1395
▁Mar	-10.1429
▁préparer	-10.1438
▁dey	-10.1452
▁Jaay	-10.1459
▁dalal	-10.1487
▁Ki	-10.1489
▁sii	-10.1489
▁gale	-10.1491
▁abal	-10.1514
▁Bunt	-10.1523
dd	-10.1525
ét	-10.1527
ve	-10.1529
▁cassée	-10.1532
affaire	-10.1534
alal	-10.1534
▁Ri	-10.1537
▁demander	-10.154
▁mënee	-10.155
▁parties	-10.1552
▁weesu	-10.1555
▁jéle	-10.157
▁Daan	-10.1579
▁Bët	-10.1584
▁ciment	-10.1586
▁poulet	-10.1589
▁chant	-10.1591
ka	-10.1594
odeur	-10.1594
aide	-10.1594
Europe	-10.1599
2	-10.1604
▁Seeta	-10.162
▁Bii	-10.162
heure	-10.1622
uur	-10.1629
qu	-10.163
▁pri	-10.1634
▁see	-10.1644
▁tombée	-10.1645
abri	-10.1648
du	-10.1654
atum	-10.1686
▁nooy	-10.1688
▁connu	-10.1739
▁sor	-10.175
▁rage	-10.1765
▁yomb	-10.1769
▁be	-10.1778
▁mbaar	-10.178
aatu	-10.1782
▁...	-10.1796
▁toogu	-10.1803
ba	-10.1806
▁désert	-10.1819
né	-10.1825
▁envoyé	-10.1839
▁scorpion	-10.1841
▁Sé	-10.1841
arachide	-10.1844
▁classe	-10.1847
▁malheur	-10.1852
▁chaise	-10.1858
▁ñeme	-10.186
▁bànneex	-10.1862
▁H	-10.1879
▁sonal	-10.1879
▁carte	-10.188
ière	-10.1884
acheter	-10.1898
▁Ñaa	-10.1903
▁maternel	-10.1904
▁séq	-10.1906
▁monte	-10.1908
▁boot	-10.1916
▁lance	-10.1916
▁baptême	-10.1919
▁veulent	-10.1919
▁mourir	-10.1919
▁poitrine	-10.1919
▁radio	-10.1919
▁docteur	-10.1919
▁poussière	-10.1919
▁cosaan	-10.1919
▁présence	-10.1919
▁juddoo	-10.1919
▁banqaas	-10.192
▁mellentaan	-10.1921
▁pouvoir	-10.1921
▁Ganaar	-10.1922
▁Homme	-10.1922
▁ñeex	-10.1923
▁fâché	-10.1924
▁seetsi	-10.1926
bal	-10.1927
▁poste	-10.1927
▁meetar	-10.1927
▁tàmbali	-10.1927
▁foofa	-10.1928
▁vendre	-10.1928
▁fût	-10.1929
▁saabu	-10.1931
▁jàppale	-10.1931
▁wépp	-10.1934
▁tresses	-10.1935
▁ira	-10.1936
▁nuages	-10.1937
▁kañ	-10.1939
▁retraite	-10.194
▁Jàppal	-10.1941
▁étions	-10.1943
▁xas	-10.1944
▁soosu	-10.1945
▁cercle	-10.1947
▁couche	-10.195
▁nombre	-10.1951
eaucoup	-10.1951
▁pré	-10.1952
ns	-10.1954
▁pan	-10.1956
▁xamante	-10.1965
▁jëf	-10.197
▁Me	-10.198
▁servir	-10.1987
▁naissance	-10.1987
▁yaayam	-10.1992
▁pierres	-10.1993
▁neexul	-10.1995
aate	-10.1995
▁tiit	-10.1998
▁envoyée	-10.2001
▁vue	-10.2002
imagine	-10.2004
▁côte	-10.2025
▁médicaments	-10.2031
cation	-10.2033
▁adultes	-10.2045
▁bande	-10.205
▁quan	-10.2055
▁rus	-10.2055
▁kawar	-10.2057
▁léeb	-10.206
aider	-10.2067
ab	-10.2077
▁fleuves	-10.2086
▁wex	-10.2087
▁Jaam	-10.2089
▁maye	-10.209
▁dawal	-10.21
▁cordes	-10.2107
▁verres	-10.2109
▁fale	-10.211
▁alla	-10.2113
▁Defe	-10.2127
▁regarder	-10.214
▁saw	-10.2143
▁attends	-10.2148
▁certain	-10.2165
▁Sud	-10.218
▁Plu	-10.2189
▁baŋ	-10.2207
lli	-10.2213
▁dunde	-10.2217
▁arrivés	-10.2224
▁taille	-10.2227
éen	-10.2233
▁jekk	-10.2242
▁ame	-10.2257
▁ferme	-10.2262
▁jàppe	-10.2271
▁Ou	-10.2272
▁couvre	-10.228
▁Wool	-10.23
ral	-10.2317
▁herbes	-10.2327
▁digg	-10.2369
▁bateau	-10.2381
▁sarax	-10.2381
jour	-10.2382
af	-10.2383
▁mette	-10.2398
▁pur	-10.2412
▁kowe	-10.2419
▁Diw	-10.2422
óon	-10.2434
▁école	-10.2462
réew	-10.2466
vant	-10.2467
▁vi	-10.247
vez	-10.2476
waan	-10.2477
▁der	-10.2479
▁jou	-10.2486
▁saal	-10.2487
impression	-10.2499
Ogoja	-10.2509
▁Qua	-10.251
▁tàmm	-10.2514
▁aay	-10.2526
espère	-10.2531
empêche	-10.2533
▁Won	-10.2549
▁Ña	-10.2566
bët	-10.2567
dire	-10.2609
▁ñee	-10.2626
agit	-10.2626
unu	-10.2638
▁bo	-10.2673
▁diir	-10.2679
▁chante	-10.2689
▁njiit	-10.2722
▁Sérère	-10.274
▁fatigué	-10.2747
▁parole	-10.2756
▁vaccin	-10.2768
▁conçue	-10.2768
▁taq	-10.2775
▁Yen	-10.2783
tul	-10.2785
▁seau	-10.2786
▁banc	-10.2792
▁mode	-10.2823
▁simple	-10.2826
▁Casamance	-10.2828
▁Guwiyaan	-10.2828
▁brusquement	-10.2828
▁manioc	-10.2828
▁Attache	-10.2828
▁époux	-10.2828
▁Guyane	-10.2828
▁protection	-10.2828
▁bouteille	-10.2828
▁yëkkati	-10.2828
argile	-10.2828
▁bébé	-10.2828
▁tamarin	-10.2828
▁terrain	-10.2828
▁contient	-10.2828
▁Xammee	-10.2829
▁vaisselle	-10.2829
▁furno	-10.2829
▁bâtiment	-10.2829
▁bracelet	-10.2829
▁gazelle	-10.2829
▁réveillé	-10.283
▁frappé	-10.283
▁assurément	-10.2832
▁piment	-10.2832
▁front	-10.2832
▁gëléem	-10.2832
▁reconnu	-10.2832
▁rythme	-10.2833
▁Mbër	-10.2833
▁toogukaay	-10.2833
▁morceaux	-10.2834
▁enlevé	-10.2835
▁daaneel	-10.2843
▁voulu	-10.2844
▁présente	-10.2845
▁fesses	-10.2847
▁Coupe	-10.2847
▁créé	-10.2849
▁cacher	-10.2849
▁Ceeb	-10.285
▁zone	-10.2851
▁vingt	-10.2852
▁Ren	-10.2856
▁écrit	-10.2856
▁dessous	-10.2858
▁wanag	-10.2858
▁suite	-10.2858
▁tur	-10.2859
gré	-10.2861
▁mënu	-10.2862
▁Bëy	-10.2863
▁santé	-10.2867
▁gris	-10.2872
▁sëkk	-10.2878
▁tegoon	-10.2881
▁butéel	-10.2884
▁dexu	-10.2884
▁tiré	-10.2887
▁tuuru	-10.2889
▁sauvages	-10.2892
▁to	-10.2893
▁Éta	-10.2901
▁saay	-10.2903
▁not	-10.2906
too	-10.2907
▁tiens	-10.2911
▁kat	-10.2911
▁tàngal	-10.2915
▁Gën	-10.2916
lle	-10.292
kati	-10.2923
su	-10.2923
▁metit	-10.2926
▁mariée	-10.293
ssent	-10.294
▁masul	-10.294
▁Dé	-10.2941
▁enfance	-10.2942
▁Faat	-10.2945
▁libre	-10.2952
▁doxe	-10.2953
▁tient	-10.2962
▁ballon	-10.2968
▁hier	-10.2986
▁Jàng	-10.2988
▁bassine	-10.2989
▁prenne	-10.3004
▁finir	-10.3009
àpp	-10.3017
▁Ë	-10.3024
▁canne	-10.3026
▁cee	-10.3026
▁retrouver	-10.3034
entendre	-10.3038
▁jéndal	-10.3046
▁droite	-10.3049
▁raay	-10.3056
▁boutique	-10.3079
ter	-10.3084
▁paan	-10.3087
▁rencontre	-10.309
ois	-10.3092
use	-10.3097
ier	-10.31
▁nul	-10.31
▁lourd	-10.3105
▁prête	-10.311
▁ngaa	-10.311
▁njël	-10.3114
▁bekk	-10.3118
▁pourrai	-10.3119
▁viendrai	-10.312
▁soppi	-10.3129
▁dër	-10.3135
▁cache	-10.3138
▁routes	-10.314
▁neneen	-10.3143
▁Abal	-10.3143
▁Baax	-10.3146
▁teey	-10.3149
ler	-10.3152
▁poussé	-10.3163
▁ceci	-10.3182
▁Certain	-10.3183
▁miin	-10.319
▁baña	-10.3192
▁sës	-10.3206
▁Ka	-10.3222
▁dénd	-10.3224
▁bor	-10.3224
▁siis	-10.3225
▁partes	-10.3229
▁Tay	-10.3231
ré	-10.3237
taal	-10.3243
▁goût	-10.3248
▁cases	-10.3257
▁Puis	-10.3259
ko	-10.3268
▁waxal	-10.3291
▁garabi	-10.33
▁profond	-10.3309
▁laal	-10.331
▁cure	-10.3311
lé	-10.3319
▁tànki	-10.3324
▁Es	-10.3363
▁yegg	-10.3376
importe	-10.3396
▁ree	-10.3397
▁oui	-10.3409
▁os	-10.3419
▁pe	-10.3419
▁teint	-10.3429
▁tama	-10.3459
▁defare	-10.346
▁habite	-10.3479
tey	-10.3485
▁sag	-10.3501
aumône	-10.3503
▁laxas	-10.3507
endant	-10.3512
▁Màng	-10.3526
▁tóo	-10.3539
effe	-10.3542
▁certaine	-10.3556
▁nàmp	-10.3562
▁Voil	-10.3569
▁jë	-10.3571
▁lenn	-10.3585
▁indil	-10.3588
▁Po	-10.359
▁yit	-10.3596
▁vit	-10.3612
huile	-10.3612
▁ndaa	-10.3615
▁cor	-10.3629
▁taamu	-10.3631
▁égarée	-10.3635
▁wat	-10.3636
▁më	-10.3638
▁petites	-10.3639
▁jubal	-10.3649
nte	-10.3655
▁nekkul	-10.3655
▁xe	-10.3659
▁cordon	-10.3669
▁Yaay	-10.367
▁faite	-10.3694
▁tan	-10.3705
▁rêve	-10.3713
▁dekkali	-10.3715
▁Lui	-10.372
▁meññ	-10.3727
▁palissade	-10.3739
▁couché	-10.3744
▁policier	-10.3747
▁talisman	-10.3748
▁fenêtre	-10.3751
▁nouvelle	-10.3751
▁mangue	-10.376
▁soi	-10.3766
▁rire	-10.3767
▁brave	-10.3769
▁ro	-10.3774
écart	-10.3776
▁cin	-10.3788
rendre	-10.3814
▁wéet	-10.3818
▁troupeau	-10.3824
▁chocolat	-10.3825
▁légère	-10.3825
▁arriva	-10.3827
Angleterre	-10.3828
▁cérémonie	-10.3828
▁perroquet	-10.3828
▁rônier	-10.3828
▁société	-10.3828
▁Ëllëg	-10.3828
▁Nettoie	-10.3828
▁dispute	-10.3828
▁Allez	-10.3828
▁Chacun	-10.3828
▁charbon	-10.3828
▁travaux	-10.3828
▁récipient	-10.3828
▁fatigue	-10.3828
▁Prophète	-10.3828
▁jariñ	-10.3828
▁tronc	-10.3828
▁Regarde	-10.3828
▁puissance	-10.3828
▁Coran	-10.3828
▁magasin	-10.3828
▁janook	-10.3828
▁trente	-10.3829
▁tâche	-10.3829
▁peinture	-10.3829
▁Fatim	-10.3829
▁comporte	-10.3829
▁douceur	-10.3829
▁gauche	-10.3829
▁yëngal	-10.3829
▁lentement	-10.3829
▁subë	-10.383
▁poing	-10.383
▁campement	-10.383
▁Allons	-10.383
▁épuisé	-10.383
▁Nord	-10.383
▁wëndéelu	-10.3831
▁sentiment	-10.3831
▁voulait	-10.3831
▁parfois	-10.3832
▁arrêt	-10.3832
▁wurus	-10.3832
▁Xoolal	-10.3833
▁Gaynde	-10.3833
▁toilettes	-10.3834
▁askan	-10.3834
▁sauf	-10.3834
▁courage	-10.3835
▁gox	-10.3835
▁possible	-10.3837
▁Dëgg	-10.3837
▁yewwu	-10.3838
▁naqadi	-10.3839
▁profit	-10.384
▁amatul	-10.3844
▁rencontrer	-10.3848
▁Nee	-10.3849
▁pourtant	-10.3852
▁extrême	-10.3854
▁bonheur	-10.3854
▁pexe	-10.3855
▁kaani	-10.3856
▁projet	-10.3857
intention	-10.3858
▁pleine	-10.3859
▁trempé	-10.3862
▁machine	-10.3865
▁soigner	-10.3865
Meew	-10.3866
▁Foofa	-10.3867
▁nijaay	-10.3868
▁junni	-10.3869
▁xo	-10.387
▁penku	-10.3872
▁Marie	-10.3873
▁njariñ	-10.3876
▁nj	-10.3879
▁bënn	-10.3879
▁sog	-10.3887
▁Koo	-10.3889
▁honnête	-10.389
▁kowam	-10.3891
▁sanc	-10.3893
▁gënoon	-10.3893
▁féex	-10.3894
▁palmes	-10.3897
▁arrêté	-10.3898
▁kafe	-10.3901
▁Yoon	-10.3902
▁mangues	-10.3906
▁Puisse	-10.3918
▁cent	-10.3919
▁Julli	-10.3925
▁coono	-10.3946
▁Dañ	-10.3948
▁étranger	-10.395
▁foule	-10.3952
▁ailleurs	-10.396
▁état	-10.3963
▁bâtons	-10.3973
▁hautes	-10.3976
▁contes	-10.3976
▁kook	-10.3988
▁attaché	-10.3988
▁hache	-10.3996
▁Fekk	-10.4021
▁iras	-10.4026
▁détourn	-10.4027
▁vends	-10.4029
ry	-10.4035
▁mënuma	-10.4046
▁noms	-10.4047
▁Ya	-10.405
be	-10.4051
▁liy	-10.4054
▁forte	-10.4074
▁ét	-10.4076
▁éclat	-10.4077
▁rends	-10.4077
▁pouvai	-10.408
▁pardonne	-10.4081
agul	-10.4087
tti	-10.4097
▁Dinga	-10.41
sant	-10.414
ro	-10.4142
▁verra	-10.4148
▁sortes	-10.4152
p	-10.416
▁Tëgg	-10.4181
▁Nun	-10.4187
daw	-10.4216
▁aventure	-10.4223
arrière	-10.4231
▁rajo	-10.4235
llement	-10.4247
▁jog	-10.4249
▁suufu	-10.4268
▁tëral	-10.4279
ordre	-10.4287
▁daaw	-10.4292
▁voitures	-10.4327
issant	-10.4347
▁Yóbbul	-10.4363
▁tàll	-10.4363
▁waxe	-10.4376
▁maak	-10.4379
▁Amuloo	-10.4384
▁ri	-10.4387
▁ñëwul	-10.44
▁nan	-10.4405
▁gëm	-10.4409
▁bavard	-10.441
▁réunis	-10.4422
▁Bon	-10.4427
àcc	-10.4431
arrive	-10.4449
▁wiy	-10.4466
▁brûle	-10.4467
▁Avan	-10.4472
dëgg	-10.4473
▁baree	-10.4492
▁Ng	-10.4494
▁é	-10.4497
▁Nj	-10.4507
▁fiir	-10.4508
▁toolu	-10.451
▁Wu	-10.4512
▁arrivée	-10.4525
ëf	-10.4527
aura	-10.4544
ose	-10.4578
▁Vas	-10.4595
▁finira	-10.4614
fukk	-10.4615
pe	-10.4615
époque	-10.462
▁vin	-10.4634
▁Mas	-10.4635
▁àtte	-10.4636
▁suur	-10.4639
▁xamu	-10.4641
▁wor	-10.4651
▁sàq	-10.4661
ombre	-10.4692
ndey	-10.4701
▁Sée	-10.4704
arachides	-10.4718
nq	-10.4734
▁siiw	-10.4768
▁cru	-10.4784
aata	-10.4792
prit	-10.4794
▁Fo	-10.4797
▁nature	-10.481
▁dessin	-10.4824
ulli	-10.4828
▁reçu	-10.4832
▁xeeñ	-10.4837
▁craint	-10.4842
▁domaine	-10.4842
▁jànj	-10.4848
▁respect	-10.4853
des	-10.4854
ngi	-10.4856
▁soup	-10.4859
kaay	-10.486
▁sauvage	-10.4861
ins	-10.4862
▁palme	-10.4863
bb	-10.4864
▁foi	-10.4864
eñ	-10.487
▁montagne	-10.4872
▁filet	-10.4878
▁wàcce	-10.4885
▁aar	-10.4885
▁jàkk	-10.4887
▁idée	-10.4906
may	-10.4913
envie	-10.4932
▁Biyaafaraa	-10.4939
▁Déedéet	-10.4939
▁Soudain	-10.4939
▁dimanche	-10.4939
▁propriétaire	-10.4939
▁ramadan	-10.4939
▁ensuite	-10.4939
▁Mbubb	-10.4939
▁beurre	-10.4939
▁keroog	-10.4939
▁Ainsi	-10.4939
▁blessé	-10.4939
▁jeûne	-10.4939
▁tubéy	-10.4939
▁Jamono	-10.4939
▁lessive	-10.4939
▁délicieux	-10.4939
▁goutte	-10.4939
▁njég	-10.4939
▁genoux	-10.4939
▁pièce	-10.4939
▁menace	-10.4939
▁gouvernement	-10.4939
▁clef	-10.494
▁lislaam	-10.494
▁Almaañ	-10.494
▁conversation	-10.494
▁nourrisson	-10.494
▁tabac	-10.494
▁bruit	-10.494
▁honte	-10.494
▁pauvre	-10.494
▁marchandise	-10.4941
▁Monsieur	-10.4941
▁hutte	-10.4941
▁frontière	-10.4941
▁allez	-10.4941
▁palaat	-10.4941
▁Demain	-10.4942
▁reçoi	-10.4942
▁jaaxal	-10.4942
▁creux	-10.4942
▁oublié	-10.4943
▁noix	-10.4943
▁piqué	-10.4944
▁Teewul	-10.4944
▁joli	-10.4944
▁Gorée	-10.4944
▁Laobé	-10.4944
▁abandonné	-10.4944
▁jinne	-10.4945
▁Eux	-10.4945
▁cornes	-10.4946
indépendance	-10.4946
▁grains	-10.4946
▁Pël	-10.4946
▁ŋgoon	-10.4947
▁xayma	-10.4947
▁savane	-10.4947
▁yànj	-10.4951
▁clin	-10.4951
▁descendre	-10.4951
▁veille	-10.4952
▁bientôt	-10.4953
▁meubles	-10.4953
▁neuf	-10.4953
▁Géj	-10.4954
▁tàllal	-10.4954
▁matinée	-10.4954
▁sàngara	-10.4955
▁fumée	-10.4955
▁courir	-10.4955
▁voisins	-10.4957
▁camp	-10.4959
▁fatt	-10.4961
▁Bëgguma	-10.4962
▁soldats	-10.4963
▁brûlé	-10.4963
▁pressé	-10.4963
▁ressemblent	-10.4965
▁jaŋg	-10.4965
entends	-10.4965
▁Mbir	-10.4965
▁joie	-10.4966
▁verse	-10.4966
▁dërëm	-10.4967
wuma	-10.4969
▁gisaat	-10.4969
▁Këram	-10.4969
▁alkaati	-10.497
▁xiif	-10.497
▁xef	-10.4971
▁dë	-10.4972
▁jaxasoo	-10.4972
ukki	-10.4974
▁beaux	-10.4977
▁Looloo	-10.4978
▁quitté	-10.4978
▁taaru	-10.4981
▁woowe	-10.4981
▁mett	-10.4981
▁serré	-10.4984
▁Niis	-10.4987
▁soxna	-10.4987
▁xolam	-10.4988
▁objets	-10.4991
▁gàddu	-10.4993
atu	-10.4995
▁ñówee	-10.4995
▁or	-10.4996
▁neexee	-10.4997
▁ño	-10.4998
▁Tool	-10.5002
▁Ñàkkul	-10.5003
▁déet	-10.5003
▁course	-10.5003
mment	-10.5003
▁dëj	-10.5006
▁dessiné	-10.5009
▁mou	-10.5009
▁baayam	-10.501
▁lettre	-10.5012
▁sommeil	-10.5013
▁dënnu	-10.5014
▁amené	-10.5015
▁Guy	-10.5015
▁veau	-10.5017
▁méchant	-10.5023
▁xobi	-10.5024
▁Doomu	-10.5029
war	-10.5031
▁paroles	-10.5038
▁insectes	-10.5042
▁individu	-10.5044
▁mbal	-10.5044
▁liggéeyam	-10.5045
▁provi	-10.5048
▁sert	-10.5052
▁coow	-10.5052
▁lutter	-10.5052
▁crâne	-10.5054
▁travaille	-10.5055
▁téj	-10.5059
▁Ban	-10.5059
▁permet	-10.5059
▁disait	-10.5065
▁sec	-10.5068
▁quitte	-10.5072
▁wees	-10.5075
▁branches	-10.5076
▁darab	-10.509
ise	-10.5092
our	-10.5096
▁Ko	-10.5097
▁geen	-10.5098
▁mukk	-10.51
▁sommet	-10.5109
▁six	-10.5112
▁tag	-10.5117
▁vivres	-10.5122
▁Verse	-10.5126
▁tenue	-10.5128
▁lieux	-10.5134
▁Aka	-10.5135
▁waxoon	-10.5141
▁trait	-10.5143
▁tàgg	-10.5146
▁Naar	-10.515
geen	-10.5152
▁jiitu	-10.5166
▁né	-10.5172
▁étais	-10.5173
▁guró	-10.518
▁déeg	-10.5186
eef	-10.5187
▁viennes	-10.5188
▁hyène	-10.5194
avant	-10.5195
▁baraada	-10.5198
▁cultive	-10.5205
▁poser	-10.5214
▁noor	-10.5221
ii	-10.5227
▁chance	-10.5236
fi	-10.5256
▁tase	-10.5263
▁waxaale	-10.5268
▁wala	-10.5272
▁raw	-10.5274
▁bain	-10.5275
ependant	-10.5296
▁cëpp	-10.5296
▁pose	-10.5306
▁Yàllaa	-10.5312
lante	-10.5313
▁Taw	-10.5326
▁Wut	-10.5329
éej	-10.5331
▁feras	-10.5332
▁liir	-10.5339
▁refuse	-10.535
▁nguur	-10.5371
▁voudrai	-10.5371
▁Europe	-10.5388
▁Bar	-10.5401
▁boy	-10.5408
▁Parle	-10.5413
▁masu	-10.5427
▁yeb	-10.5433
hez	-10.5441
▁coule	-10.5449
▁apporte	-10.5462
▁suma	-10.5466
▁achète	-10.5467
▁allée	-10.5481
andoo	-10.5482
▁Mo	-10.5488
▁nus	-10.549
▁wan	-10.5497
▁bes	-10.5506
▁jote	-10.5514
toŋ	-10.5518
▁jógee	-10.5542
▁wee	-10.5543
co	-10.5548
▁unique	-10.555
▁dure	-10.5554
▁Yóbbu	-10.5555
▁yenu	-10.5559
▁aurais	-10.5572
▁armé	-10.5579
ca	-10.5592
▁rob	-10.5596
quelles	-10.562
▁rendi	-10.5622
▁nar	-10.5631
▁laax	-10.5632
▁fen	-10.5635
▁ñooñu	-10.5636
▁max	-10.5638
▁partage	-10.5646
anga	-10.5648
▁màndarga	-10.565
▁coy	-10.5658
▁face	-10.5674
▁xal	-10.5677
▁bitik	-10.5681
▁connaît	-10.5689
lever	-10.5689
see	-10.5727
▁nguuru	-10.5727
to	-10.5734
▁fui	-10.5736
▁Woo	-10.5736
▁français	-10.5739
▁lève	-10.575
▁tante	-10.5757
▁bula	-10.5758
gaa	-10.576
▁tomba	-10.5767
achète	-10.5772
Yàlla	-10.5772
▁frappe	-10.5772
benn	-10.5778
▁Ami	-10.5784
erai	-10.5788
▁amour	-10.5792
▁descend	-10.5796
▁cat	-10.5807
▁cultiv	-10.5815
▁njëg	-10.5817
st	-10.5822
▁combi	-10.5823
anq	-10.5825
autorité	-10.5852
Astou	-10.5859
aventure	-10.5859
doole	-10.5868
▁cas	-10.5873
▁van	-10.5884
▁mise	-10.5891
nuy	-10.5893
avenir	-10.5897
▁reew	-10.59
▁tee	-10.5918
▁Defa	-10.5921
▁kë	-10.5921
no	-10.5923
aas	-10.5925
taient	-10.5925
▁ŋ	-10.5931
▁vert	-10.594
▁pén	-10.5954
▁kon	-10.5964
aal	-10.5965
ok	-10.597
▁té	-10.5979
▁différent	-10.5982
I	-10.5982
guloo	-10.5984
▁Vend	-10.5985
▁photos	-10.6
▁rëbb	-10.6004
▁daawu	-10.6005
▁rentré	-10.6006
▁nañoo	-10.6012
▁vus	-10.6025
▁Alma	-10.6029
▁mës	-10.6038
attend	-10.604
agir	-10.6043
▁taax	-10.6057
waay	-10.6057
▁wecc	-10.6064
dëkk	-10.6068
▁africain	-10.6077
▁jénde	-10.609
▁manguier	-10.6092
▁kàdd	-10.6097
▁condition	-10.61
▁cuillère	-10.61
▁raconte	-10.6109
▁griot	-10.6109
gisu	-10.6116
ût	-10.6116
▁mbaal	-10.6122
▁kee	-10.6125
▁kepp	-10.6131
▁sóob	-10.6142
▁Attend	-10.6142
▁pierre	-10.6142
▁këpp	-10.6147
▁dan	-10.6148
jant	-10.6154
▁Néeg	-10.6157
▁conduit	-10.6159
▁wonn	-10.616
kom	-10.6162
▁disparu	-10.6163
▁recherche	-10.6167
▁yalwaan	-10.6177
▁protège	-10.618
▁revienne	-10.6184
▁yilif	-10.6186
apprécie	-10.6189
▁Victoria	-10.6189
▁excessive	-10.6189
▁hasard	-10.6189
▁marigot	-10.6189
▁paludisme	-10.6189
▁proximité	-10.6189
▁cimetière	-10.6189
▁marabout	-10.6189
▁djinn	-10.6189
▁rêvé	-10.6189
▁contact	-10.6189
▁fagot	-10.6189
▁kàllaama	-10.6189
▁Coumba	-10.6189
▁construction	-10.6189
▁graisse	-10.6189
▁Legoos	-10.6189
▁crédit	-10.6189
▁tàccu	-10.6189
▁Prête	-10.6189
▁ancêtres	-10.6189
▁réccu	-10.6189
▁Guddi	-10.6189
▁changé	-10.6189
▁gueule	-10.6189
▁rideau	-10.6189
▁bougie	-10.6189
▁plaisir	-10.6189
▁xibaar	-10.619
▁également	-10.619
▁gàncax	-10.619
▁janeer	-10.619
▁coudre	-10.619
▁paternelle	-10.619
▁vapeur	-10.619
▁Amaana	-10.6191
▁ruuj	-10.6191
islam	-10.6191
▁Officer	-10.6191
▁publique	-10.6191
▁tilim	-10.6191
▁soppiku	-10.6191
▁mortier	-10.6192
▁travailleurs	-10.6192
▁haie	-10.6193
▁chute	-10.6193
▁fallait	-10.6194
▁supporter	-10.6194
▁voulais	-10.6194
▁souvent	-10.6195
▁tooñ	-10.6195
▁termites	-10.6195
▁xottiku	-10.6195
▁voie	-10.6195
▁atteint	-10.6195
▁juum	-10.6196
▁Ramasse	-10.6196
▁rejoindre	-10.6196
▁lonet	-10.6197
▁mbagg	-10.6197
▁frais	-10.6197
▁pleut	-10.6197
▁Kumba	-10.6197
▁service	-10.6197
▁ngénte	-10.6198
▁tenait	-10.6198
▁Yaram	-10.6198
▁fajkat	-10.6199
▁aussitôt	-10.6199
▁noces	-10.6199
offrir	-10.62
▁cuuj	-10.62
▁gàddaay	-10.62
▁gumba	-10.6201
▁blesser	-10.6201
▁commun	-10.6201
▁cessé	-10.6201
▁jaambur	-10.6202
▁paquet	-10.6202
▁Xaar	-10.6202
▁jàdd	-10.6203
▁chaussettes	-10.6206
▁intimes	-10.6206
▁direction	-10.6206
▁Wàcc	-10.6207
▁emporté	-10.6207
ance	-10.6209
▁raconter	-10.6211
▁abattu	-10.6211
▁cœur	-10.6213
▁douleur	-10.6216
▁nombreuses	-10.6216
▁doyul	-10.6216
▁cousu	-10.6217
▁goro	-10.6217
▁portait	-10.6219
▁kukk	-10.6222
▁Lave	-10.6223
▁téeméer	-10.6224
▁nangoo	-10.6224
▁ñag	-10.6224
▁porteurs	-10.6226
▁tawat	-10.6227
▁lonku	-10.6229
▁kéemaane	-10.6229
▁gërëm	-10.623
▁Nice	-10.6231
▁plaie	-10.6232
▁dijj	-10.6233
▁àggee	-10.6233
▁soof	-10.6235
▁grossesse	-10.6239
▁gàttal	-10.624
▁xàll	-10.6241
▁gejje	-10.6241
▁oeufs	-10.6246
▁sagar	-10.6249
▁naroon	-10.6252
▁kanamam	-10.6253
▁Kookule	-10.6253
▁kawas	-10.6258
▁règles	-10.6259
▁lutteurs	-10.626
▁sept	-10.6262
▁jàngoro	-10.6264
▁bëggée	-10.6265
▁daawul	-10.6266
▁griots	-10.6269
▁xaritam	-10.627
▁mouches	-10.6279
▁grosses	-10.6281
▁lëf	-10.6281
▁dëkkoon	-10.6286
ara	-10.6288
éwël	-10.6289
▁dof	-10.629
▁eû	-10.6291
▁talismans	-10.6291
▁fenêtres	-10.6291
▁nouvelles	-10.6291
▁we	-10.6295
▁dikkee	-10.6298
▁digne	-10.6301
▁banaana	-10.6303
▁aiguille	-10.6309
ut	-10.6311
▁scorpions	-10.6312
▁pattes	-10.6314
▁guéri	-10.6314
▁pêche	-10.6318
▁durer	-10.6318
▁chèvres	-10.6323
julli	-10.6325
wal	-10.6327
▁taxawaay	-10.6329
▁dépouille	-10.6331
▁capable	-10.6332
▁jus	-10.6344
▁chaude	-10.6348
▁aveugle	-10.6348
▁wuy	-10.6349
▁annonce	-10.6349
▁rapporte	-10.6353
▁fasu	-10.6354
▁tambours	-10.6355
▁saxaar	-10.6367
▁Xamul	-10.6371
échapper	-10.6373
▁jan	-10.6382
mes	-10.6383
▁plan	-10.6392
▁Gore	-10.6392
▁cër	-10.6394
▁làqu	-10.6397
▁rëbbi	-10.6398
era	-10.6399
▁Bërë	-10.6406
▁inter	-10.6406
nce	-10.6406
▁falu	-10.6407
▁traîne	-10.6411
istrict	-10.6427
▁mûr	-10.6433
▁wàccee	-10.6444
▁éprouve	-10.6447
▁regardes	-10.6448
▁levé	-10.6453
▁dëppoo	-10.6465
▁nég	-10.6473
▁blanches	-10.6487
▁haute	-10.6487
▁chemins	-10.649
saay	-10.6501
lan	-10.6505
▁Golo	-10.6505
▁puso	-10.651
▁biral	-10.6519
▁nuyu	-10.6532
▁cherches	-10.6545
▁étalé	-10.6548
▁heure	-10.6582
andiku	-10.6586
▁pare	-10.6587
dé	-10.6591
▁vis	-10.6597
▁yat	-10.66
▁boit	-10.66
▁Jabar	-10.6607
ñax	-10.6619
▁ramen	-10.6622
▁werante	-10.6637
omment	-10.664
▁tànn	-10.6653
▁roñ	-10.6665
▁fitna	-10.6668
▁Gi	-10.6678
▁nde	-10.6687
▁manche	-10.6687
▁construi	-10.6689
▁sangu	-10.6695
▁pointe	-10.6696
▁représente	-10.672
▁Takk	-10.6737
▁lave	-10.6737
▁donn	-10.6746
▁apporter	-10.6747
▁devrai	-10.6757
▁Gan	-10.6762
▁fermée	-10.6767
ari	-10.6767
▁lax	-10.6774
▁bos	-10.6775
lal	-10.6775
▁To	-10.6778
▁pi	-10.6788
▁ñibbi	-10.6789
ll	-10.6804
imp	-10.6811
▁solide	-10.6837
ront	-10.684
▁ñe	-10.6842
adi	-10.685
bar	-10.6858
▁dootu	-10.6858
▁balaa	-10.6859
▁soigne	-10.6868
oindre	-10.6873
tés	-10.6892
cci	-10.6896
wi	-10.6899
▁bel	-10.6904
▁Wë	-10.6906
ton	-10.6913
tenir	-10.6944
▁sent	-10.6953
▁boppu	-10.6955
▁dirai	-10.6958
▁baag	-10.6959
▁oiseau	-10.6973
▁interdit	-10.6987
▁ñàng	-10.7001
▁lire	-10.7002
ëpp	-10.7007
▁yaru	-10.7009
▁sin	-10.7023
▁lesquel	-10.7032
▁mbe	-10.7035
▁liggéeyu	-10.7039
▁continu	-10.704
▁làq	-10.7047
kow	-10.7059
▁Ke	-10.706
nous	-10.7066
▁ru	-10.7067
▁Kor	-10.7069
▁moto	-10.7076
ge	-10.7083
▁dîner	-10.7104
▁pratique	-10.7104
▁devra	-10.7104
▁làmb	-10.7106
▁jax	-10.711
eras	-10.714
ñeen	-10.7153
ille	-10.7158
ey	-10.7165
xal	-10.7169
▁goog	-10.718
ig	-10.7185
ures	-10.72
▁pareil	-10.7203
▁futt	-10.7206
eŋ	-10.7211
▁nax	-10.7215
▁pro	-10.7216
oreille	-10.7223
▁mord	-10.7229
individu	-10.7237
▁cri	-10.7238
ke	-10.7243
issent	-10.7246
▁enlève	-10.7252
▁ware	-10.7266
boo	-10.7267
▁Bo	-10.7267
appelles	-10.727
▁boue	-10.7279
▁envahi	-10.7285
ts	-10.7287
quel	-10.7287
▁Mb	-10.7288
dolli	-10.729
occasion	-10.7291
hyène	-10.7294
tubaab	-10.7301
làmmiñ	-10.7306
xel	-10.7306
▁tege	-10.7318
géej	-10.7319
▁resta	-10.7328
▁Car	-10.733
▁u	-10.7332
bopp	-10.7342
éclair	-10.7353
▁yooy	-10.7386
▁Mba	-10.7386
▁sub	-10.7391
▁wóolu	-10.7395
▁pay	-10.7397
▁àpp	-10.7403
▁coll	-10.7415
seront	-10.7416
▁tày	-10.7451
▁drap	-10.7457
▁waaja	-10.7496
▁mala	-10.7498
dar	-10.7502
àjj	-10.7502
▁ouvert	-10.7514
▁caaxaan	-10.7518
▁cherché	-10.7518
▁règle	-10.7521
▁arraché	-10.7529
▁quartier	-10.7529
▁secret	-10.7538
▁poche	-10.7538
▁ngóor	-10.7544
▁lutteur	-10.7547
▁mbind	-10.7551
▁Pe	-10.7553
▁Wo	-10.7565
▁gaar	-10.7577
akkal	-10.7579
tóor	-10.7581
▁Quelqu	-10.7587
koo	-10.76
▁forox	-10.7603
▁El	-10.7605
▁sukkuraat	-10.7605
▁dëkkandoo	-10.761
▁religi	-10.761
àdd	-10.7613
▁Rax	-10.7613
▁gâteau	-10.7615
▁tiis	-10.7617
▁Choisis	-10.7617
▁céréales	-10.7617
▁excréments	-10.7617
▁immense	-10.7617
▁pèlerin	-10.7617
▁syphilis	-10.7617
▁tôle	-10.7617
▁Ayijoo	-10.7618
▁ablutions	-10.7618
▁crème	-10.7618
▁décidé	-10.7618
amertume	-10.7618
extérieur	-10.7618
▁Japon	-10.7618
▁foulard	-10.7618
▁màrse	-10.7618
▁moitié	-10.7618
▁Sapoŋ	-10.7618
▁ndeysaan	-10.7618
▁Deŋk	-10.7618
▁Óbudu	-10.7618
▁Kaasamaas	-10.7618
▁cinquante	-10.7618
▁jachère	-10.7618
▁Yaakaar	-10.7618
▁confiance	-10.7618
armoire	-10.7618
▁Gannaaw	-10.7618
▁généreux	-10.7618
▁Cayor	-10.7618
▁Palais	-10.7618
▁situation	-10.7618
▁solitude	-10.7618
▁Alxuraan	-10.7618
▁réalité	-10.7618
▁suukër	-10.7618
▁viendront	-10.7618
▁rompre	-10.7618
▁réussi	-10.7618
▁noyyi	-10.7618
▁yeksi	-10.7618
▁Jëkkër	-10.7618
âme	-10.7618
▁dóomu	-10.7618
▁joxoñ	-10.7618
▁jumeaux	-10.7619
▁lièvre	-10.7619
▁Téere	-10.7619
▁épaules	-10.7619
▁piquant	-10.7619
▁Juróom	-10.7619
▁plateaux	-10.7619
▁Suukar	-10.7619
▁tàkkusaan	-10.7619
▁àdduna	-10.7619
▁dormir	-10.7619
▁daqaar	-10.7619
▁chauve	-10.7619
entourent	-10.7619
▁porc	-10.7619
▁Tabax	-10.762
▁semaine	-10.762
▁comprendre	-10.762
▁Soxna	-10.762
▁échappé	-10.762
▁ndeyjoor	-10.7621
▁daŋar	-10.7621
▁Ubbi	-10.7621
▁creusé	-10.7621
▁Tiens	-10.7621
▁mbalka	-10.7621
▁connaissent	-10.7622
▁voyant	-10.7622
▁fourchu	-10.7622
▁Soldaar	-10.7622
▁Garde	-10.7622
▁géew	-10.7622
▁roule	-10.7622
▁raconté	-10.7622
▁raglu	-10.7622
▁jommal	-10.7622
▁gunge	-10.7623
▁jumtukaay	-10.7623
▁secours	-10.7623
▁Dencal	-10.7623
▁réduit	-10.7623
▁chargé	-10.7623
▁tàyyi	-10.7623
▁Ra	-10.7624
▁soxor	-10.7625
▁certainement	-10.7625
▁loppitaan	-10.7625
▁bagages	-10.7625
▁perdre	-10.7625
▁xalam	-10.7625
▁campagne	-10.7626
▁dépend	-10.7626
▁mbëtt	-10.7626
▁jinax	-10.7627
▁jublu	-10.7627
▁poignée	-10.7627
▁connaissais	-10.7628
▁beauté	-10.7628
▁yemale	-10.7628
▁vêtu	-10.7628
▁Tànk	-10.7628
▁ràññee	-10.7629
tes	-10.7629
kh	-10.763
▁tàbbi	-10.7631
▁rencontré	-10.7631
▁dirigeant	-10.7631
▁tresser	-10.7632
▁doux	-10.7633
▁Quoi	-10.7633
▁jékkee	-10.7633
▁ňuul	-10.7633
▁réveille	-10.7633
▁poussin	-10.7634
▁fuuf	-10.7635
▁Suuf	-10.7638
▁Yére	-10.7639
▁màgge	-10.7642
▁Raxas	-10.7642
▁nàññ	-10.7643
▁perles	-10.7644
▁dékku	-10.7646
▁simoŋ	-10.7646
óo	-10.7646
▁militaires	-10.7649
▁yéemu	-10.7649
▁rapporté	-10.765
▁pinces	-10.7651
▁mètres	-10.7651
▁graines	-10.7651
▁ayib	-10.7652
▁000	-10.7653
▁niveau	-10.7653
▁sueur	-10.7654
▁nommé	-10.7654
▁comprends	-10.7654
▁sëriñ	-10.7655
▁doj	-10.7657
▁nàmpal	-10.7657
▁oiseaux	-10.7657
▁Foofu	-10.7659
▁xëm	-10.7659
▁daagu	-10.7659
▁Mbaam	-10.7659
▁Ayaa	-10.766
▁marchent	-10.766
▁défait	-10.7661
▁forgeron	-10.7661
▁images	-10.7661
▁buñ	-10.7664
▁wetam	-10.7666
imaginer	-10.7666
▁jabaram	-10.7666
▁pilon	-10.7667
▁réservé	-10.7667
▁àngale	-10.7668
▁pile	-10.7669
▁allaient	-10.7669
▁Al	-10.7672
▁charme	-10.7672
▁moyens	-10.7673
▁compter	-10.7673
▁tomates	-10.7674
▁habiter	-10.7674
▁maman	-10.7674
▁voleur	-10.7675
▁foq	-10.7676
▁bokkul	-10.7676
▁Ó	-10.7677
▁marque	-10.768
▁ndo	-10.768
▁laajte	-10.768
▁Tire	-10.7681
▁élu	-10.7681
▁Takkal	-10.7681
▁venait	-10.7682
▁Jo	-10.7682
▁voler	-10.7683
▁couvrir	-10.7684
▁simila	-10.7685
▁tàngaay	-10.7685
▁montar	-10.7688
▁abreuv	-10.7691
▁cim	-10.7691
▁humaine	-10.7694
▁faim	-10.7695
▁essayer	-10.7697
▁secrets	-10.7698
▁mélange	-10.7703
▁masin	-10.7705
▁jàkka	-10.7708
▁vertes	-10.7708
▁district	-10.7709
▁hôtes	-10.771
▁xaalisam	-10.771
▁rakk	-10.7711
▁nja	-10.7713
▁Der	-10.7714
habit	-10.7715
▁niru	-10.7715
vé	-10.7716
▁xoolee	-10.7717
▁puiser	-10.7717
▁suivi	-10.7718
▁gëdd	-10.7721
▁ligne	-10.7722
▁jal	-10.7723
▁duggee	-10.7726
▁oublier	-10.7727
▁anglaise	-10.7727
▁Seul	-10.7727
occupe	-10.773
▁junniy	-10.773
▁xiir	-10.7733
▁jambe	-10.7736
▁toucher	-10.7736
▁demuloo	-10.7738
▁létt	-10.7738
arbres	-10.7741
▁al	-10.7742
▁traverse	-10.7746
▁waru	-10.7747
▁ñaxtu	-10.7749
▁collé	-10.7749
▁jéll	-10.7751
▁fudd	-10.7755
▁surga	-10.7757
▁feeñu	-10.7759
▁Ndeg	-10.7759
▁sombre	-10.7759
▁tache	-10.776
▁coude	-10.7761
▁salon	-10.7762
ussi	-10.7766
ents	-10.7767
▁cartes	-10.7768
▁mënuloo	-10.7771
jaaxaan	-10.7772
▁courses	-10.7779
▁sox	-10.7782
▁semé	-10.7782
▁taxawal	-10.7785
▁Soppu	-10.7786
▁raf	-10.7787
▁cesse	-10.7794
▁attacher	-10.7796
▁ñàkka	-10.7797
▁cher	-10.7801
▁Mer	-10.7801
▁gifle	-10.7802
▁rouler	-10.7805
▁sëq	-10.7806
▁Port	-10.7807
▁yaak	-10.7813
▁animal	-10.7813
▁livres	-10.7814
▁fasses	-10.7818
▁oreille	-10.7819
▁différence	-10.782
▁dromadaires	-10.7823
▁do	-10.7837
▁xaaju	-10.784
éloigne	-10.7847
tuñu	-10.7859
▁pont	-10.7867
ëriñ	-10.7868
▁préserve	-10.7869
▁tab	-10.7871
gelaw	-10.7878
étai	-10.7884
▁querelle	-10.789
▁Xii	-10.7892
▁ruy	-10.7893
ànte	-10.7897
▁mënoo	-10.7904
▁partager	-10.7907
▁seng	-10.7911
▁biig	-10.7915
▁fume	-10.7917
▁ween	-10.7917
àww	-10.7918
▁rax	-10.7918
▁rat	-10.7919
▁clôture	-10.792
▁Paak	-10.7922
▁daŋ	-10.7924
▁Pa	-10.7924
▁gaañu	-10.7933
▁ha	-10.7934
eg	-10.794
ble	-10.7944
▁wal	-10.7945
▁lonk	-10.7946
▁Ñaan	-10.7953
▁waxee	-10.7953
▁sourd	-10.7955
▁occasion	-10.7955
▁premières	-10.7961
▁four	-10.7971
▁lang	-10.7975
▁seetu	-10.7981
mar	-10.7988
▁croyai	-10.7991
▁wane	-10.7997
▁avance	-10.8001
olé	-10.8002
▁cola	-10.8008
▁juddu	-10.8012
▁làmmiñ	-10.8017
▁Ber	-10.8021
▁mouch	-10.8022
▁Tan	-10.8026
▁parfum	-10.8026
▁cultiver	-10.8027
óoli	-10.8028
▁kaa	-10.8034
añu	-10.8035
▁Xare	-10.8037
▁coloniale	-10.8037
▁vaste	-10.8041
▁luñ	-10.8044
samaan	-10.805
▁joo	-10.8053
▁tasse	-10.8057
ami	-10.8061
▁fuir	-10.8063
▁Jant	-10.8064
▁marchand	-10.807
▁njàng	-10.8071
tant	-10.8081
▁chiens	-10.8094
fu	-10.81
aaru	-10.8114
gorge	-10.8119
▁jëmm	-10.8119
fal	-10.8133
aru	-10.8145
▁tuñ	-10.8156
kar	-10.8158
▁française	-10.8162
▁bat	-10.8166
bee	-10.8171
ole	-10.8172
▁couvert	-10.8173
▁jeeg	-10.8177
▁At	-10.8179
▁2	-10.8199
eeku	-10.8217
ule	-10.8221
teem	-10.8222
▁àndal	-10.8222
▁fett	-10.8224
▁masuma	-10.8235
▁niir	-10.8239
▁tàpp	-10.8257
▁allés	-10.8261
ttes	-10.8278
▁plonge	-10.8279
▁sëgg	-10.8296
▁Jur	-10.8301
▁confie	-10.8305
▁déplace	-10.8327
▁sain	-10.8335
mp	-10.8335
▁mujj	-10.8354
▁content	-10.837
ture	-10.8383
ër	-10.8386
nj	-10.8387
▁séex	-10.8412
▁secoue	-10.8416
▁Tànn	-10.8417
▁condui	-10.842
▁pou	-10.8426
ah	-10.8434
▁chambres	-10.8435
éew	-10.8446
arc	-10.8453
ite	-10.8456
ànja	-10.8461
▁Bokk	-10.8465
▁march	-10.8468
ttal	-10.8471
▁crise	-10.8471
▁Pou	-10.8478
▁Yan	-10.8479
▁enseigne	-10.8506
▁tàlli	-10.8509
accorder	-10.851
▁jànq	-10.8515
▁passée	-10.8516
▁dépasse	-10.8517
▁dégge	-10.8524
anam	-10.8528
▁jotu	-10.8534
▁bokku	-10.8536
▁coïncid	-10.8541
avec	-10.8545
▁découvert	-10.8547
▁quelles	-10.8552
▁aj	-10.856
éem	-10.8569
▁sàpp	-10.8572
▁tir	-10.8581
▁jëkke	-10.8587
▁mbo	-10.8592
▁ñooña	-10.8598
qi	-10.86
▁jooja	-10.86
▁mettr	-10.8601
▁kàttan	-10.8603
ction	-10.8607
ŋŋ	-10.8612
▁ñent	-10.8617
fa	-10.8619
eesu	-10.8633
art	-10.8642
▁organis	-10.8644
mm	-10.8647
▁rentre	-10.865
▁prendra	-10.8654
▁mokk	-10.8675
▁kaay	-10.8691
▁Dikk	-10.8695
vons	-10.8723
▁gànnaay	-10.8734
raw	-10.8737
▁retourner	-10.8755
gue	-10.8764
▁jóo	-10.8799
image	-10.881
biir	-10.8812
ivement	-10.8827
oeuf	-10.8835
▁Reti	-10.8837
▁ndaama	-10.8838
▁colonial	-10.8844
mbal	-10.8845
pas	-10.8845
avion	-10.8847
▁sipp	-10.8848
▁sut	-10.8851
étranger	-10.8857
▁Maam	-10.886
▁jara	-10.8869
jigéen	-10.887
▁Baat	-10.8878
▁siy	-10.8882
▁dàtt	-10.8883
ade	-10.8886
achètera	-10.8887
▁Bool	-10.8892
apparition	-10.8897
année	-10.89
▁nàkk	-10.8903
▁Ah	-10.8906
sëf	-10.8913
abandon	-10.8913
autrefois	-10.893
O	-10.8932
yaram	-10.8935
kof	-10.8936
▁saaga	-10.8949
écuelle	-10.895
▁ayant	-10.8957
▁perd	-10.8959
avantage	-10.8961
béer	-10.8962
attendre	-10.8962
aveugle	-10.8962
jafe	-10.8965
▁jaaro	-10.8968
▁mos	-10.8977
écoute	-10.8982
àtt	-10.8982
tee	-10.8982
▁kam	-10.8993
parents	-10.8998
▁e	-10.9002
esse	-10.9016
▁Fat	-10.9019
▁marie	-10.9036
▁sentier	-10.9037
sang	-10.9042
iront	-10.906
▁tuut	-10.9066
attends	-10.9067
kki	-10.9072
▁voul	-10.9072
seen	-10.9081
▁në	-10.9081
▁race	-10.9082
wee	-10.9094
naka	-10.91
▁combat	-10.9102
▁parent	-10.9104
▁humain	-10.9109
▁coton	-10.9111
aleel	-10.9123
aille	-10.9123
été	-10.913
▁dar	-10.913
▁porté	-10.9156
uvre	-10.9157
▁Yàgg	-10.9159
▁grandi	-10.9163
▁nd	-10.9163
▁pensé	-10.9179
▁brisé	-10.9179
ëddu	-10.9179
▁endormi	-10.9182
habitent	-10.9183
ye	-10.9184
ssage	-10.9184
▁mâle	-10.9187
▁pleure	-10.919
lée	-10.9194
▁arriver	-10.9195
▁flèche	-10.9196
▁chaîne	-10.9196
▁défaut	-10.9196
▁miroir	-10.9197
▁anglais	-10.9197
▁âgé	-10.92
▁musulman	-10.9201
ëgg	-10.9205
hier	-10.9211
aj	-10.9212
▁ati	-10.9212
▁fourmi	-10.9214
▁boeuf	-10.9214
▁prêter	-10.9218
▁fleur	-10.9219
▁fe	-10.9221
▁souhaite	-10.9222
▁sale	-10.9228
▁revien	-10.9233
ces	-10.9237
▁ressenti	-10.924
ément	-10.925
▁pr	-10.9254
▁tra	-10.9259
▁Luga	-10.9269
▁remercie	-10.9271
▁puur	-10.9272
▁trahi	-10.9275
▁pardon	-10.9275
▁xotti	-10.9277
▁xumb	-10.9277
▁lekke	-10.9278
▁Nopp	-10.928
▁utilise	-10.9281
éléphant	-10.9281
▁mbaxana	-10.9283
▁xërëm	-10.9284
8	-10.9284
Abakaliki	-10.9284
▁Saloum	-10.9284
▁Seytaane	-10.9284
▁Wiktoryaa	-10.9284
▁auparavant	-10.9284
▁beignets	-10.9284
▁chapelet	-10.9284
▁condoléances	-10.9284
▁coqueluche	-10.9284
▁couvercle	-10.9284
▁cravate	-10.9284
▁crépuscule	-10.9284
▁difficulté	-10.9284
▁domicile	-10.9284
▁dëggëntaan	-10.9284
▁efficace	-10.9284
▁grenouille	-10.9284
▁nécessaire	-10.9284
▁officer	-10.9284
▁petorool	-10.9284
▁pigeons	-10.9284
▁problème	-10.9284
▁sunguf	-10.9284
▁territoire	-10.9284
▁végétation	-10.9284
▁guitare	-10.9284
▁répandu	-10.9284
▁Dagana	-10.9284
▁jagleel	-10.9284
▁Autrefois	-10.9284
▁racines	-10.9284
▁vente	-10.9284
▁remède	-10.9284
▁alkol	-10.9284
▁rumeur	-10.9284
▁égaux	-10.9284
▁Mellentaan	-10.9284
▁Jikko	-10.9284
▁fonction	-10.9284
▁bétail	-10.9284
▁métier	-10.9284
▁probable	-10.9284
▁Vierge	-10.9284
▁càmmoñ	-10.9284
▁quantité	-10.9284
▁ressens	-10.9284
▁Lagos	-10.9284
▁Saalum	-10.9284
▁samedi	-10.9284
▁brûlure	-10.9284
▁Parfois	-10.9285
▁terrassé	-10.9285
▁produit	-10.9285
▁Actuellement	-10.9285
▁recevoir	-10.9285
▁fowukaay	-10.9285
▁guyaab	-10.9285
▁Bientôt	-10.9285
▁électrique	-10.9285
▁Nawet	-10.9285
▁Enduis	-10.9285
▁pitié	-10.9285
impolitesse	-10.9285
▁kéwél	-10.9285
▁béjjén	-10.9285
▁Partout	-10.9285
▁ngëlén	-10.9285
▁ressuscité	-10.9285
▁voulez	-10.9285
▁géléem	-10.9285
▁yendoo	-10.9286
▁musiba	-10.9286
▁ministre	-10.9286
▁mboq	-10.9286
▁bàmmeel	-10.9286
▁mbëggeel	-10.9286
▁mébét	-10.9286
▁bataille	-10.9286
▁doucement	-10.9286
▁réserve	-10.9286
▁conjugal	-10.9287
▁bélier	-10.9287
▁circoncision	-10.9287
▁retient	-10.9287
▁collier	-10.9287
▁accompagné	-10.9288
▁xepp	-10.9288
▁fexeel	-10.9288
▁doxantu	-10.9288
▁revenir	-10.9288
▁croire	-10.9288
▁venaient	-10.9288
▁ponkal	-10.9288
▁dimaas	-10.9288
▁rawante	-10.9289
▁flamme	-10.9289
▁chocolatée	-10.9289
▁sorewul	-10.9289
▁armool	-10.929
▁torche	-10.929
jékk	-10.929
▁crochet	-10.929
▁jullee	-10.929
▁feyyu	-10.9291
▁ñibbisi	-10.9291
▁njabootam	-10.9291
▁sondeel	-10.9291
▁mbégte	-10.9291
▁àttaaya	-10.9291
▁ràpp	-10.9291
▁Satan	-10.9291
▁cofeel	-10.9291
▁xamadi	-10.9291
▁meňň	-10.9292
▁fàq	-10.9292
▁kaaŋ	-10.9292
▁Sàmm	-10.9292
▁coin	-10.9293
▁wotoom	-10.9293
▁ustensiles	-10.9293
▁braises	-10.9293
▁dimbali	-10.9293
▁janax	-10.9293
▁habitants	-10.9294
▁Ferme	-10.9294
▁rapidement	-10.9295
▁xuloo	-10.9295
▁Tugël	-10.9295
▁góom	-10.9295
▁bouillir	-10.9295
▁taureau	-10.9295
▁bàyyiwul	-10.9296
▁proprement	-10.9296
▁travaillé	-10.9296
▁battent	-10.9296
▁pipe	-10.9296
▁ouverte	-10.9296
▁hors	-10.9297
▁rompu	-10.9297
▁dëll	-10.9297
▁assiette	-10.9297
▁njool	-10.9297
▁sibiru	-10.9297
▁lëkkale	-10.9297
▁creuser	-10.9297
▁dimmali	-10.9299
▁soirée	-10.9299
▁accepté	-10.93
▁boq	-10.9301
▁ndóol	-10.9301
▁lundi	-10.9302
▁ngunu	-10.9302
▁ch	-10.9303
▁safara	-10.9303
▁revenu	-10.9303
▁payer	-10.9305
▁surpris	-10.9305
▁Jënd	-10.9305
géwél	-10.9306
▁Force	-10.9307
▁semblables	-10.9307
▁chair	-10.9308
▁sànke	-10.9308
▁Demuma	-10.9308
▁richesse	-10.9309
▁déchiré	-10.9309
ienne	-10.9309
▁jaarale	-10.931
▁reins	-10.9311
▁manqué	-10.9312
▁goûter	-10.9313
▁leket	-10.9313
▁Ñooñu	-10.9313
▁semer	-10.9314
▁chéri	-10.9314
▁africaine	-10.9315
▁Teggi	-10.9317
▁gentil	-10.9317
▁douche	-10.9318
▁raide	-10.9318
▁jumaa	-10.9318
▁alalam	-10.9319
▁pensée	-10.932
▁larmes	-10.9322
accord	-10.9322
▁histoires	-10.9323
▁devrait	-10.9325
▁masques	-10.9325
▁appartient	-10.9326
▁Obudu	-10.9326
▁accompagne	-10.9326
▁tënk	-10.9326
▁ñaawal	-10.9327
▁Africains	-10.9327
▁mbott	-10.9327
▁partons	-10.9328
▁kóllëre	-10.9329
▁prier	-10.9329
▁jouent	-10.9331
▁Sàll	-10.9332
▁piler	-10.9332
▁ndigal	-10.9332
▁Doole	-10.9333
▁tisser	-10.9335
▁meurt	-10.9335
▁vagues	-10.9336
▁esclaves	-10.9337
▁chasser	-10.9338
▁gestes	-10.9339
▁jikko	-10.9339
ard	-10.9342
▁soin	-10.9342
▁dindi	-10.9343
▁genre	-10.9343
▁chantant	-10.9344
▁jàppoon	-10.9346
▁armes	-10.9348
▁xur	-10.9349
▁traces	-10.9351
▁yàggul	-10.9352
▁Xeer	-10.9353
▁bë	-10.9354
▁Maures	-10.9355
▁pastel	-10.9355
▁gajj	-10.9355
▁causé	-10.9356
▁esprits	-10.9358
▁lèvres	-10.936
▁musal	-10.936
▁yëre	-10.9364
▁ndeyam	-10.9364
▁xaritoo	-10.9366
▁namm	-10.9367
▁respire	-10.9367
▁ressentir	-10.9368
▁placé	-10.9371
▁déj	-10.9372
▁auto	-10.9375
▁googule	-10.9376
▁naaxi	-10.9376
▁Porte	-10.9377
▁duré	-10.9379
▁draps	-10.938
▁toolam	-10.938
▁sortit	-10.938
arde	-10.9381
▁perdue	-10.9384
▁Acacia	-10.9385
▁vol	-10.9386
▁gras	-10.9389
▁dort	-10.9389
▁yomba	-10.939
▁tànkam	-10.9391
▁portale	-10.9394
▁exemple	-10.9394
▁miel	-10.9398
▁aada	-10.9401
▁fajar	-10.9403
arriver	-10.9405
▁fur	-10.9405
▁enfin	-10.9407
▁boeufs	-10.9409
▁bonhomme	-10.9411
▁dëpp	-10.9412
gé	-10.9413
▁nuque	-10.9423
▁suux	-10.9425
▁policiers	-10.9426
▁science	-10.9426
▁jaamu	-10.9426
àq	-10.9427
▁jëw	-10.9428
▁log	-10.943
▁bancs	-10.9431
umaa	-10.9431
▁finit	-10.9431
▁noble	-10.9433
▁Jiit	-10.9437
▁puj	-10.9438
▁jéema	-10.9439
▁xët	-10.9439
▁fatigués	-10.944
▁jaasi	-10.9446
▁chants	-10.9448
▁manquer	-10.9452
▁volé	-10.9452
▁mbooloo	-10.946
▁diine	-10.9468
▁courbe	-10.9468
▁calebasses	-10.9471
maŋ	-10.9475
▁Alal	-10.9479
▁partent	-10.9483
euse	-10.9486
imoŋ	-10.9488
▁caisse	-10.9488
▁jekku	-10.9489
▁Bare	-10.9494
▁devenus	-10.9495
▁patt	-10.9499
▁diras	-10.9502
utilité	-10.9502
▁réuni	-10.9503
▁plats	-10.9504
▁gedd	-10.9508
▁aille	-10.9508
▁pique	-10.9509
▁partant	-10.9514
rs	-10.9514
▁maladies	-10.9521
▁Làmb	-10.9522
▁Vois	-10.9525
▁Afrigam	-10.9525
00	-10.9533
yé	-10.9534
▁jàppee	-10.9534
▁mettra	-10.9541
out	-10.9544
▁rivières	-10.9545
▁pantalons	-10.9545
▁Aro	-10.9551
▁grill	-10.9552
▁Toog	-10.9554
▁naturelle	-10.9555
wuñu	-10.9555
▁découvre	-10.9558
▁dajee	-10.9572
▁résolu	-10.9573
▁chefs	-10.9573
▁jo	-10.9575
▁defaru	-10.9577
▁rues	-10.9578
▁Xaal	-10.9579
▁serpents	-10.9586
çant	-10.9587
▁xame	-10.9589
▁joues	-10.9594
▁Woy	-10.9594
▁tours	-10.9595
▁Dox	-10.9599
jjant	-10.9602
anu	-10.9603
▁teral	-10.9604
ète	-10.9613
▁Yég	-10.9623
▁jaaye	-10.9627
▁recouvr	-10.9627
▁teggi	-10.9632
mbax	-10.9634
▁bou	-10.9634
▁njëkke	-10.9635
▁attendre	-10.9638
▁yore	-10.9638
▁xoole	-10.9646
▁Bàyyi	-10.965
▁organise	-10.9651
▁neexal	-10.9652
▁besoins	-10.9665
▁achevé	-10.9668
▁sache	-10.9671
▁mettrai	-10.9674
▁potu	-10.9677
sante	-10.9678
▁jubale	-10.9685
ève	-10.9686
▁visages	-10.9695
aral	-10.9696
▁endroits	-10.9698
▁Baal	-10.97
nk	-10.9702
▁rouges	-10.9704
planté	-10.9706
▁correct	-10.9712
▁litre	-10.9714
▁Bant	-10.9721
▁dolli	-10.9732
▁ivre	-10.9735
▁plante	-10.9737
▁njaa	-10.9749
▁pàkk	-10.975
▁donnerai	-10.975
illes	-10.9759
▁viendras	-10.976
▁ôte	-10.9763
▁Jambaa	-10.9769
antu	-10.9769
▁Nja	-10.9777
laata	-10.9778
llons	-10.978
oof	-10.9782
▁deñ	-10.9796
niki	-10.9805
▁gàkk	-10.9806
▁suffir	-10.9806
▁robe	-10.9807
àkk	-10.9811
▁Pi	-10.9815
▁rentrer	-10.9818
ande	-10.982
▁jullit	-10.9832
▁Jén	-10.9832
énc	-10.9838
ha	-10.9841
▁pegg	-10.9843
▁dedans	-10.9853
antal	-10.9863
▁dikke	-10.9863
▁limite	-10.9864
▁mësul	-10.9866
▁désir	-10.9869
▁aumône	-10.9869
▁dikkal	-10.9875
rais	-10.9879
sé	-10.9879
▁taar	-10.988
▁amaan	-10.9881
▁tente	-10.9886
▁don	-10.9886
▁doye	-10.9887
▁ber	-10.9891
▁étrange	-10.9892
àmm	-10.9898
ëñ	-10.9899
▁lits	-10.9906
aaku	-10.9914
▁daaj	-10.9919
noo	-10.9919
▁sois	-10.9924
elu	-10.9926
jum	-10.9941
▁faf	-10.9942
vette	-10.9947
ettes	-10.9957
▁salaire	-10.9962
ot	-10.9969
▁suñ	-10.9969
▁Ñàkk	-10.9976
▁dise	-10.9984
▁Xee	-10.9989
▁xamal	-10.9991
▁rempli	-11.0004
▁lor	-11.0007
ange	-11.001
▁xaa	-11.0016
▁toogal	-11.0016
▁sàll	-11.0016
▁jong	-11.0018
▁waxi	-11.0026
illiers	-11.0029
aka	-11.003
▁signe	-11.0044
waar	-11.0045
▁xaraf	-11.0048
maak	-11.0053
▁dikkul	-11.0059
▁jiy	-11.0059
▁rose	-11.0065
lee	-11.0067
▁xu	-11.007
yoon	-11.0073
▁wo	-11.0076
ables	-11.0078
ddi	-11.0091
▁gisul	-11.0095
▁tenu	-11.0102
▁normal	-11.0122
▁Yeb	-11.0133
▁pousse	-11.0136
▁yal	-11.0136
▁connaître	-11.0137
▁bête	-11.0139
▁Té	-11.0148
▁tal	-11.0155
▁montrer	-11.016
▁risque	-11.0166
uñ	-11.017
▁paas	-11.0171
tum	-11.018
lles	-11.0187
exerce	-11.0196
▁Puisqu	-11.0203
▁provoqu	-11.0213
▁moments	-11.0214
▁Sàkk	-11.0232
aie	-11.0235
▁dawul	-11.0253
▁ment	-11.0259
aanaka	-11.027
▁Ndo	-11.027
▁guddee	-11.0273
lóor	-11.0283
▁joow	-11.0288
▁Bëggul	-11.0301
▁sud	-11.0302
▁pet	-11.0302
▁tableau	-11.0308
▁Mës	-11.031
▁caché	-11.032
▁servai	-11.0324
▁dés	-11.0332
écouter	-11.0339
mam	-11.0343
▁Dagg	-11.0352
▁Suy	-11.0355
▁Gisu	-11.0381
▁imp	-11.0386
▁basse	-11.039
▁casser	-11.039
▁conduis	-11.0396
autant	-11.0403
envers	-11.0407
▁ouvrir	-11.0414
▁Dara	-11.0417
essaie	-11.0421
▁soeur	-11.0431
lancé	-11.0446
▁këru	-11.0449
▁tëdde	-11.0451
▁sentir	-11.0454
aanaam	-11.0458
installe	-11.0467
▁reten	-11.0478
▁màng	-11.0486
▁muet	-11.0488
▁bindoo	-11.0489
▁séchée	-11.0491
▁fine	-11.0498
▁jëme	-11.05
▁bàyyee	-11.0502
aloon	-11.0517
▁sortie	-11.0519
▁rég	-11.0525
▁tàggat	-11.0529
▁Dana	-11.0533
tions	-11.054
▁terres	-11.0544
ort	-11.0545
onne	-11.0546
▁jàngale	-11.0547
▁partirai	-11.0551
▁kar	-11.0557
ulwoon	-11.0563
▁ti	-11.0566
▁rapport	-11.058
omm	-11.0587
▁Gaa	-11.0588
▁cousin	-11.0598
▁jé	-11.06
muma	-11.0608
▁soos	-11.062
mba	-11.0621
▁décor	-11.0624
▁Pend	-11.0626
orage	-11.0644
▁noue	-11.0646
set	-11.0661
A	-11.0663
jaar	-11.0665
▁Mii	-11.0672
xaar	-11.0683
▁ndugg	-11.0683
▁koñ	-11.0685
▁Jé	-11.0697
nal	-11.0704
lo	-11.0705
▁fuur	-11.071
▁tus	-11.0711
ène	-11.0721
nge	-11.0723
▁cu	-11.0723
▁éta	-11.0724
▁bax	-11.0754
▁Jaar	-11.0771
ëb	-11.0789
errière	-11.0801
isant	-11.0806
▁Dang	-11.0812
▁sàkku	-11.0814
▁nen	-11.0819
▁fermé	-11.0834
▁her	-11.0837
▁Ndey	-11.0841
▁date	-11.0841
lon	-11.0842
▁joxe	-11.0844
▁pleur	-11.0845
taan	-11.0847
isme	-11.0852
▁reen	-11.0856
▁Sopp	-11.0863
▁faar	-11.0864
nent	-11.0869
loxo	-11.0876
champ	-11.0881
▁Ag	-11.0886
honneur	-11.0888
▁Xé	-11.0889
▁Co	-11.0909
édu	-11.0911
sexe	-11.0915
▁poli	-11.0916
▁Dinañu	-11.0923
gul	-11.0924
tuuti	-11.0925
▁bassin	-11.0929
▁gal	-11.0932
▁dàkk	-11.0934
▁Puu	-11.0936
▁yare	-11.0937
▁dong	-11.0937
▁entend	-11.0942
solument	-11.0943
▁Dég	-11.0945
souris	-11.0949
▁verser	-11.0951
yëngu	-11.0954
▁doonkoon	-11.0956
ëllëg	-11.0956
▁récite	-11.097
▁màgg	-11.0975
▁Nko	-11.0976
nie	-11.0984
xew	-11.0988
▁Daŋg	-11.0992
▁noppal	-11.0994
uwaay	-11.0994
▁lors	-11.1
▁Ar	-11.101
▁Ŋ	-11.1015
▁institu	-11.1019
▁Tam	-11.1021
▁jat	-11.1027
▁frotte	-11.1031
▁doxal	-11.1033
▁yeen	-11.1038
▁baal	-11.1038
▁dese	-11.1043
▁ñal	-11.1049
waale	-11.1052
iens	-11.1062
▁wuu	-11.1064
habite	-11.1065
ste	-11.1066
▁conçu	-11.1071
elaw	-11.1073
égal	-11.1083
▁nob	-11.1089
▁tomb	-11.109
▁prie	-11.1092
usqu	-11.1096
▁bomb	-11.1099
▁yakk	-11.1104
jaay	-11.1119
rt	-11.1129
delà	-11.1133
▁repris	-11.1133
da	-11.1133
▁Muu	-11.1142
▁retard	-11.1143
wub	-11.1145
ox	-11.1169
▁rattax	-11.1173
atteindr	-11.1176
▁essay	-11.1177
▁terminé	-11.1181
▁suce	-11.1183
àmmiñ	-11.1183
▁antilope	-11.1186
▁incapable	-11.1186
▁prospère	-11.1187
▁connaissance	-11.1187
▁chanson	-11.1187
▁groupe	-11.1188
▁Européen	-11.1189
aimes	-11.1191
▁général	-11.1192
▁mensonge	-11.1195
▁grenier	-11.1195
▁terrasse	-11.1195
▁peuple	-11.1196
maam	-11.1196
▁démarche	-11.1197
mbres	-11.1199
▁haricot	-11.1199
▁gejj	-11.12
▁termitière	-11.1201
▁Jàpp	-11.1202
▁tomate	-11.1204
▁pâte	-11.1204
▁vautour	-11.1204
▁gendarme	-11.1206
▁allon	-11.1211
▁demand	-11.1215
▁kaf	-11.1217
▁lèvre	-11.1218
▁retrouvé	-11.122
▁Maure	-11.1223
▁càkk	-11.1229
arité	-11.1235
oktoor	-11.1236
▁kawe	-11.1238
wax	-11.1238
▁Jot	-11.1242
▁Tel	-11.1242
▁rees	-11.1245
▁dàqe	-11.125
▁xàpp	-11.125
▁mbuus	-11.1255
▁dun	-11.1257
aŋ	-11.1258
▁yéem	-11.1259
▁change	-11.126
▁tourbillon	-11.1262
àngara	-11.1263
▁tien	-11.1267
iku	-11.1269
▁feuille	-11.1272
▁nirool	-11.1273
▁wékk	-11.128
▁foye	-11.128
▁compagn	-11.1281
aisselle	-11.1283
horreur	-11.1284
rologique	-11.1284
tekkaaral	-11.1284
”	-11.1284
▁Abaakaliki	-11.1284
▁Adekunle	-11.1284
▁Anglais	-11.1284
▁Biafra	-11.1284
▁Georgetown	-11.1284
▁Maryaama	-11.1284
▁Mauritanie	-11.1284
▁Sefiriis	-11.1284
▁Southampton	-11.1284
▁brebis	-11.1284
▁camerounais	-11.1284
▁cravache	-11.1284
▁diarrhée	-11.1284
▁discussion	-11.1284
▁douloureux	-11.1284
▁football	-11.1284
▁funérailles	-11.1284
▁jóolóoli	-11.1284
▁légitimer	-11.1284
▁lézard	-11.1284
▁njàqare	-11.1284
▁nostalgie	-11.1284
▁physique	-11.1284
▁réception	-11.1284
▁récompense	-11.1284
▁turbulent	-11.1284
▁yékëti	-11.1284
▁“	-11.1284
éloge	-11.1284
▁Génnéel	-11.1284
▁cicatrice	-11.1284
▁diplôme	-11.1284
▁réponse	-11.1284
▁subitement	-11.1284
▁zinc	-11.1284
▁Altine	-11.1284
▁Sorstaawun	-11.1284
▁biafrais	-11.1284
▁postérieur	-11.1284
▁volonté	-11.1284
▁Yoruba	-11.1284
▁blessure	-11.1284
▁Keroog	-11.1284
▁Louga	-11.1284
▁terrible	-11.1284
▁continent	-11.1284
▁kaaraange	-11.1284
▁établi	-11.1284
▁malingre	-11.1284
▁défunt	-11.1284
▁boîte	-11.1284
▁dégagé	-11.1284
▁boulettes	-11.1284
▁Cross	-11.1284
▁Moontin	-11.1284
▁dajaloo	-11.1284
▁pénible	-11.1284
▁immédiatement	-11.1284
▁coutume	-11.1284
▁méngoo	-11.1284
angoisse	-11.1284
▁consort	-11.1284
▁turban	-11.1284
▁cauris	-11.1284
▁esquiss	-11.1285
▁Diggante	-11.1285
▁bûcheron	-11.1285
▁ŋeeñ	-11.1285
▁marjaan	-11.1285
▁kilomet	-11.1285
▁public	-11.1285
humanité	-11.1285
▁ŋàññ	-11.1285
▁méngale	-11.1285
▁poltron	-11.1285
▁sujet	-11.1285
▁cuisson	-11.1285
▁xànq	-11.1285
▁Salut	-11.1285
▁Voyage	-11.1285
▁sécher	-11.1285
▁henné	-11.1285
▁gëlëm	-11.1285
▁Dëkkandoo	-11.1285
▁fuddën	-11.1285
▁almet	-11.1285
▁ñebbe	-11.1285
▁tonnerre	-11.1285
▁armeel	-11.1285
▁fiancé	-11.1285
▁tumuraanke	-11.1285
▁voyou	-11.1285
▁waxambaane	-11.1285
▁couture	-11.1285
▁rougeole	-11.1285
▁fièvre	-11.1285
▁culture	-11.1286
▁kalaate	-11.1286
▁toxu	-11.1286
▁pêcheurs	-11.1286
▁jaaxle	-11.1286
▁téter	-11.1286
▁peigne	-11.1286
▁emmené	-11.1286
▁bref	-11.1286
▁Plie	-11.1286
▁séjour	-11.1286
emmène	-11.1286
fayda	-11.1286
▁Fiche	-11.1286
▁Ragal	-11.1286
▁Tuubaa	-11.1286
▁contraire	-11.1286
▁làquji	-11.1286
▁fanweer	-11.1286
▁gëstu	-11.1286
▁fiiriir	-11.1286
▁xocc	-11.1286
▁Génn	-11.1287
▁bouché	-11.1287
▁Démb	-11.1287
▁entièrement	-11.1287
▁xasaw	-11.1287
▁Demande	-11.1287
▁mystique	-11.1287
▁lustral	-11.1287
▁kuddu	-11.1287
▁bëmëx	-11.1288
▁détermination	-11.1288
▁États	-11.1288
▁religieux	-11.1288
▁firndeel	-11.1288
▁cabax	-11.1288
▁tàngoor	-11.1288
▁rares	-11.1288
▁jaboot	-11.1289
▁voyait	-11.1289
▁xottu	-11.1289
▁cordonnier	-11.1289
▁jaawale	-11.1289
▁nemmeeku	-11.1289
▁karaw	-11.1289
▁Diine	-11.1289
▁mélangé	-11.129
▁crac	-11.129
▁attitude	-11.1291
▁réparti	-11.1291
▁Touba	-11.1291
▁firiku	-11.1291
▁tortue	-11.1291
▁pipi	-11.1291
▁njoowaan	-11.1292
▁faît	-11.1292
▁këtt	-11.1292
▁bóom	-11.1292
▁delsi	-11.1292
▁ŋgoogule	-11.1293
▁doxalin	-11.1293
▁Këriñ	-11.1293
▁pepp	-11.1293
▁jàppukaay	-11.1294
▁venin	-11.1294
▁Sedd	-11.1294
▁Fecc	-11.1295
▁ministar	-11.1295
▁invités	-11.1295
▁largeur	-11.1295
▁sooke	-11.1295
▁wert	-11.1295
▁collines	-11.1295
▁inspiré	-11.1295
▁soble	-11.1295
▁sëllu	-11.1295
▁myst	-11.1295
▁volets	-11.1296
▁lunettes	-11.1296
▁divine	-11.1296
▁moyen	-11.1296
▁pétrole	-11.1296
▁jebbi	-11.1296
▁Delloo	-11.1296
▁courge	-11.1296
action	-11.1296
▁police	-11.1297
enterrement	-11.1298
▁parlaient	-11.1298
▁sérieux	-11.1298
▁foyi	-11.1298
▁musóor	-11.1299
▁reposer	-11.1299
▁sindax	-11.1299
▁fëgg	-11.1299
▁yégee	-11.13
▁bokkuñu	-11.13
▁kookee	-11.1301
▁effrayé	-11.1302
▁carax	-11.1303
▁messager	-11.1303
▁xamatul	-11.1304
▁ondul	-11.1305
▁jàppante	-11.1305
▁awsa	-11.1305
▁citron	-11.1306
▁wooye	-11.1306
▁lëmm	-11.1306
▁répondre	-11.1306
▁ngoog	-11.1307
▁xélu	-11.1307
▁revoir	-11.1307
▁màggal	-11.1307
▁projeté	-11.1307
▁comparer	-11.1307
▁luppu	-11.1307
▁camion	-11.1308
▁rendait	-11.1308
▁décent	-11.1308
▁Xëcc	-11.1309
▁jeunesse	-11.1309
▁bé	-11.1309
▁lune	-11.131
▁trous	-11.131
▁xasab	-11.1311
▁Coow	-11.1311
▁ndokke	-11.1311
▁timis	-11.1311
▁fauve	-11.1312
▁Bukki	-11.1312
▁yàkkamti	-11.1313
▁hamacs	-11.1313
▁kilomètres	-11.1313
▁vieillards	-11.1313
▁hanches	-11.1313
▁ramassé	-11.1313
▁Njar	-11.1313
▁fibres	-11.1313
▁cuisses	-11.1314
▁apparu	-11.1314
▁noué	-11.1315
óoxóor	-11.1315
▁cendre	-11.1315
▁foog	-11.1316
appellent	-11.1316
▁réveiller	-11.1317
▁Ndem	-11.1317
osité	-11.1318
▁lewet	-11.1319
àŋŋ	-11.132
▁prenant	-11.132
▁poison	-11.1321
▁taillé	-11.1321
▁Lequel	-11.1322
▁doq	-11.1322
▁mulet	-11.1323
▁position	-11.1323
▁voudrait	-11.1323
▁sabab	-11.1324
▁Simis	-11.1324
écorc	-11.1325
▁seraient	-11.1326
▁réponds	-11.1326
▁panne	-11.1327
▁disparut	-11.1327
▁poux	-11.1327
▁mienne	-11.1328
▁xëpp	-11.1328
▁kaala	-11.1328
▁Sors	-11.1328
alité	-11.1329
▁figure	-11.1329
▁moustiques	-11.133
▁reyante	-11.1331
▁péchés	-11.1331
▁étages	-11.1331
▁fippu	-11.1331
▁tëri	-11.1331
▁rassembler	-11.1332
▁fekksi	-11.1332
▁yemul	-11.1333
▁sème	-11.1333
▁Céy	-11.1334
▁séance	-11.1334
▁monnaie	-11.1335
▁importance	-11.1335
▁poils	-11.1337
▁xàmb	-11.1337
▁waaxu	-11.1337
▁perte	-11.1337
▁trouée	-11.1338
▁Sottil	-11.1338
▁apprendre	-11.1339
▁monté	-11.134
▁làbbe	-11.134
▁xippi	-11.134
▁soutien	-11.1342
▁sainte	-11.1342
▁jaxase	-11.1343
▁tiital	-11.1344
▁études	-11.1344
▁épis	-11.1344
ttali	-11.1345
omb	-11.1346
▁galan	-11.1349
▁ennemis	-11.135
toon	-11.135
▁terewu	-11.1351
▁tàkkal	-11.1354
▁prêtre	-11.1355
▁fuite	-11.1356
▁tiisu	-11.1356
inax	-11.1356
▁Janq	-11.1357
▁former	-11.1357
▁rassemblé	-11.1357
▁yëkk	-11.1359
▁plumes	-11.1359
▁boisson	-11.136
▁colin	-11.136
▁jiital	-11.1361
▁penser	-11.1362
▁lions	-11.1363
▁rafetul	-11.1364
▁deey	-11.1365
▁neexoon	-11.1366
▁dundam	-11.1367
▁yégal	-11.1367
▁termitières	-11.1368
▁saxaaru	-11.137
▁Xaaj	-11.137
▁dott	-11.1371
▁marqué	-11.1372
▁pire	-11.1372
▁yéeme	-11.1373
▁origin	-11.1373
▁teer	-11.1374
▁monta	-11.1374
▁Ñuul	-11.1375
mêlé	-11.1376
▁gat	-11.1377
▁dogal	-11.1377
▁meule	-11.1378
▁Bien	-11.1378
▁seins	-11.1379
▁Xott	-11.138
▁donnera	-11.138
▁yett	-11.138
▁fortune	-11.1382
▁musulmans	-11.1386
▁Paris	-11.1387
resser	-11.1388
pace	-11.1388
▁takkee	-11.1389
▁humains	-11.1391
▁Bal	-11.1392
▁bitim	-11.1392
▁hôte	-11.1392
▁verset	-11.1395
▁paysage	-11.1395
kóon	-11.1397
▁yaatal	-11.1398
▁douce	-11.14
▁daara	-11.14
▁drapeau	-11.1401
▁segg	-11.1401
▁allemande	-11.1402
▁anciens	-11.1402
▁épaisse	-11.1402
▁germe	-11.1402
▁bàcc	-11.1402
▁soxal	-11.1403
▁bëtam	-11.1404
▁bëccëg	-11.1407
▁nappe	-11.1408
▁Aiya	-11.1408
▁Dajale	-11.1412
étudier	-11.1413
▁élève	-11.1416
ërëm	-11.1417
▁ràkkaaju	-11.1417
▁ñakk	-11.1418
▁ping	-11.1419
alee	-11.142
rigé	-11.142
▁bàq	-11.142
▁nenne	-11.142
▁Ro	-11.1423
▁tuub	-11.1426
▁joge	-11.1426
▁bów	-11.143
▁plume	-11.143
▁sensation	-11.1431
▁yombul	-11.1432
▁këf	-11.1433
▁Pari	-11.1433
▁xosi	-11.1434
▁donneras	-11.1438
▁casque	-11.1439
▁jàjj	-11.1448
▁call	-11.1448
▁toggal	-11.1453
▁rëb	-11.1453
▁av	-11.1455
▁lunk	-11.1456
▁dékk	-11.1456
▁raŋ	-11.1457
▁décharge	-11.1457
▁yëgaat	-11.1459
▁mors	-11.146
yàlla	-11.1461
▁wéeru	-11.1464
ex	-11.1465
▁bleue	-11.1469
jam	-11.147
▁Quelque	-11.147
▁yaasa	-11.1471
▁arrivent	-11.1473
▁ëpple	-11.1474
▁fés	-11.1479
▁wol	-11.148
▁deuil	-11.148
▁xéj	-11.1481
▁njort	-11.1484
▁lâcher	-11.1484
oire	-11.1488
▁xañ	-11.149
énergie	-11.1495
▁classes	-11.1496
▁bombe	-11.15
▁crain	-11.1503
▁Àll	-11.1503
▁surveillan	-11.1509
▁étrangers	-11.1512
ana	-11.1514
▁kilos	-11.1515
ression	-11.1516
▁rasé	-11.1521
▁kekk	-11.1522
achèterai	-11.1526
▁reere	-11.1527
agonie	-11.1527
▁wure	-11.1528
▁Kooy	-11.1528
▁magam	-11.1528
▁batt	-11.1529
▁Ñun	-11.153
▁Mari	-11.1531
▁defaree	-11.1531
▁entraîne	-11.1534
▁Teen	-11.1537
ban	-11.1537
▁ñeent	-11.1538
▁Dund	-11.1538
▁peer	-11.1541
▁Yal	-11.1541
▁hauteur	-11.1543
▁jonn	-11.1544
enfants	-11.1546
▁bleus	-11.1552
▁daju	-11.1552
uléet	-11.1553
olli	-11.1556
▁ordures	-11.1556
▁bég	-11.1559
▁rem	-11.1559
▁outil	-11.1559
▁guyy	-11.1564
çon	-11.1575
▁pourrais	-11.1575
▁kookuu	-11.158
sin	-11.1583
▁ňi	-11.1585
éeri	-11.1586
▁Jam	-11.1592
▁pénétr	-11.1592
▁tendre	-11.1596
quoi	-11.1597
▁âne	-11.1597
▁dekki	-11.1602
àddaay	-11.1609
▁sikk	-11.1609
▁roy	-11.1619
ommes	-11.162
▁Ñett	-11.1625
▁trace	-11.1625
▁construit	-11.1627
▁yàlla	-11.1629
àndu	-11.1632
▁fomp	-11.1641
▁dée	-11.1645
▁xuur	-11.1648
▁pël	-11.1648
ards	-11.1656
ants	-11.1658
▁wutale	-11.1658
llu	-11.1661
ëŋŋ	-11.1661
car	-11.1662
▁nemm	-11.1669
▁récit	-11.1671
▁taxu	-11.1677
ňu	-11.1678
ŋga	-11.1678
alante	-11.1678
▁faw	-11.1679
▁Ye	-11.1686
get	-11.1686
▁épouses	-11.1689
▁safaan	-11.169
▁Ño	-11.1694
▁étudie	-11.1697
▁cage	-11.1702
▁frères	-11.1702
jodd	-11.1703
▁croisé	-11.1706
▁écuelle	-11.1709
▁faax	-11.1713
▁waxtaane	-11.1713
▁courte	-11.1717
venant	-11.1719
▁jagal	-11.1721
▁dalle	-11.1724
▁furi	-11.1727
dam	-11.1729
▁dëkkal	-11.1732
▁ŋar	-11.1733
▁arracher	-11.1733
hasse	-11.1735
▁oto	-11.1739
▁claire	-11.174
▁jubb	-11.1744
gël	-11.1745
▁gétt	-11.1748
▁ameel	-11.1748
▁xarat	-11.1749
▁peinte	-11.1766
▁mor	-11.1767
▁lever	-11.1768
▁emprunte	-11.1776
▁Daaw	-11.1782
eetar	-11.1788
▁tap	-11.1794
▁preuve	-11.1797
▁wëri	-11.1801
▁añ	-11.1807
bër	-11.1809
▁passera	-11.1812
▁doŋ	-11.1812
▁commer	-11.1816
nde	-11.1821
jo	-11.1825
▁naam	-11.1828
▁paie	-11.1828
▁singes	-11.1835
▁ngee	-11.1839
yya	-11.1841
▁marches	-11.1846
▁sart	-11.1849
▁yéy	-11.1854
▁céet	-11.1858
▁ñall	-11.1859
▁souillé	-11.1863
▁Rob	-11.1872
ën	-11.1877
▁yo	-11.189
▁Ŋg	-11.1891
▁autorité	-11.1894
semblent	-11.1926
▁commémor	-11.1927
▁pend	-11.1931
▁souhait	-11.1933
▁Xarit	-11.1936
▁achetée	-11.1938
▁lam	-11.1941
▁dames	-11.1946
yoo	-11.1954
▁Ñe	-11.1964
▁Mbot	-11.1965
▁fab	-11.1969
amène	-11.197
▁Togg	-11.1972
▁guette	-11.1974
▁égal	-11.1974
▁tàggoo	-11.1979
▁appren	-11.198
amu	-11.1981
▁partag	-11.1983
dunq	-11.1988
▁Doy	-11.199
▁yiw	-11.199
▁cro	-11.1994
aliments	-11.2011
son	-11.2012
ya	-11.2013
▁royau	-11.202
▁assise	-11.2028
▁yeewe	-11.203
▁nang	-11.2032
▁Yu	-11.2032
▁tort	-11.2036
▁Pas	-11.2036
▁dagan	-11.205
▁melax	-11.2052
▁souri	-11.2068
▁évite	-11.2071
▁Noon	-11.2079
▁belles	-11.2083
▁aju	-11.2086
occup	-11.2087
▁Gée	-11.2091
▁impression	-11.2095
▁jib	-11.2101
▁mit	-11.2106
▁seuls	-11.2115
▁jéer	-11.2115
▁remplie	-11.2118
▁usé	-11.2118
▁morts	-11.2123
▁villes	-11.2129
▁amère	-11.2131
▁Waxu	-11.2135
▁saret	-11.214
don	-11.2148
▁aide	-11.2151
▁tasee	-11.2158
▁Mbe	-11.216
▁toŋ	-11.2164
▁ñay	-11.2164
mise	-11.2165
▁chercheur	-11.2166
▁dakk	-11.2167
ate	-11.2167
▁waajal	-11.2169
▁prostitu	-11.2171
▁lë	-11.2176
▁ŋa	-11.218
▁jaayu	-11.2183
▁gêne	-11.2187
▁ñaay	-11.2192
▁ëf	-11.2195
ñaa	-11.2197
ous	-11.2199
C	-11.2204
▁pieu	-11.2211
▁amu	-11.2213
▁vive	-11.2215
ñse	-11.2219
▁entouré	-11.222
▁yóbb	-11.2235
▁ruus	-11.2236
he	-11.2238
▁prise	-11.2248
▁laine	-11.2249
▁dot	-11.2254
▁Aa	-11.2258
per	-11.2261
▁wodd	-11.2266
▁vivant	-11.2271
▁chi	-11.2275
▁tis	-11.2281
▁salut	-11.2282
iir	-11.2295
lentaan	-11.2298
aaj	-11.23
▁layu	-11.2308
▁xor	-11.2308
▁souci	-11.2314
asoŋ	-11.2318
rit	-11.2321
▁conte	-11.2321
ers	-11.2338
rax	-11.2339
▁ñooñ	-11.2344
▁souffre	-11.2349
sent	-11.2356
▁mouche	-11.2363
▁cré	-11.2364
▁Fe	-11.2367
▁Ñakk	-11.2378
ppati	-11.2385
ché	-11.239
▁devoir	-11.2398
int	-11.2412
▁can	-11.2412
▁donnes	-11.2413
tout	-11.2416
▁tourne	-11.2421
aiment	-11.2431
▁com	-11.2431
▁muñ	-11.2433
avions	-11.2445
ouest	-11.2451
vions	-11.2455
▁néegi	-11.246
▁profonde	-11.2466
▁sar	-11.2472
pa	-11.2478
▁garabu	-11.2478
rons	-11.2481
rag	-11.2486
▁maas	-11.2486
▁yéex	-11.249
aires	-11.2496
ala	-11.2498
uural	-11.2505
▁jette	-11.2513
▁solu	-11.2514
▁goo	-11.2529
wa	-11.253
▁gàll	-11.2532
▁seey	-11.2536
mettras	-11.2536
▁xet	-11.2541
▁Ñakku	-11.2541
▁pisse	-11.2541
▁Daawu	-11.2542
ivre	-11.2555
▁yékk	-11.2558
baat	-11.256
0	-11.2564
ëbb	-11.2567
▁Af	-11.2571
kkal	-11.2575
go	-11.2587
alaaka	-11.2589
uri	-11.2591
▁mëdd	-11.2597
quillage	-11.2598
▁nues	-11.2607
▁Topp	-11.2608
▁serre	-11.261
▁rot	-11.2614
▁sem	-11.2615
▁versé	-11.2618
▁Dam	-11.2619
▁Wé	-11.2624
▁marier	-11.2627
oter	-11.2627
ente	-11.2632
▁écoute	-11.2634
▁dab	-11.2643
▁É	-11.2645
▁parc	-11.2654
opp	-11.2661
▁Dugg	-11.2664
àmp	-11.268
▁pans	-11.2682
▁Bë	-11.2691
xe	-11.2702
erait	-11.2708
▁Warul	-11.2715
▁waxin	-11.2716
▁jaare	-11.2725
hu	-11.2736
▁mëne	-11.2736
onsieur	-11.2742
saala	-11.2743
auté	-11.2744
egenaay	-11.2751
▁gëmm	-11.2757
do	-11.276
rai	-11.2777
▁tata	-11.2779
▁dëng	-11.2798
▁Ngo	-11.2802
àlli	-11.2805
▁maigre	-11.2807
▁Sëri	-11.2815
▁xay	-11.2815
siti	-11.2817
▁enseign	-11.2818
▁sàndarm	-11.282
maan	-11.282
▁mere	-11.2822
▁causer	-11.2824
▁danser	-11.2826
▁désire	-11.2828
▁messe	-11.2832
▁nekku	-11.2832
alement	-11.2835
▁rang	-11.284
▁menu	-11.2843
bul	-11.2848
eu	-11.2848
enukat	-11.2862
▁reprend	-11.2864
amul	-11.2877
▁esprit	-11.2878
▁Be	-11.2883
res	-11.2883
▁ñun	-11.2886
obul	-11.2893
▁mënut	-11.29
▁traite	-11.2904
kal	-11.2906
▁xoo	-11.2908
▁ph	-11.2913
àkkal	-11.2917
▁bouton	-11.2929
dit	-11.2945
▁fir	-11.295
▁cla	-11.2952
rier	-11.2953
bin	-11.2954
eem	-11.2963
▁boob	-11.2976
▁Pom	-11.2983
▁salue	-11.2985
▁ŋe	-11.2986
▁xii	-11.3
▁Baxa	-11.3003
emblant	-11.301
dul	-11.3012
evant	-11.3017
▁selle	-11.3025
ànd	-11.3028
▁giif	-11.3039
▁Us	-11.3052
▁détour	-11.3052
▁ger	-11.3055
▁Ind	-11.3056
▁Dan	-11.3057
ls	-11.3059
▁Yoo	-11.3064
▁h	-11.3065
▁nëb	-11.307
▁Xo	-11.3071
▁aisé	-11.3074
▁étrang	-11.3083
vers	-11.3087
▁bey	-11.3093
ât	-11.3096
rendra	-11.3098
▁mûri	-11.3098
▁Gu	-11.3107
▁gënn	-11.3111
irais	-11.3113
▁ndek	-11.3116
ntu	-11.3118
aaw	-11.3119
▁jaww	-11.3124
▁mêle	-11.3143
▁xiin	-11.3145
antes	-11.316
▁fall	-11.3165
▁yéen	-11.3166
rabes	-11.3174
▁dress	-11.3182
▁And	-11.3186
uni	-11.3189
▁xala	-11.3194
▁dëbb	-11.3206
▁mbu	-11.3217
yu	-11.3217
abonde	-11.3218
▁njo	-11.3223
tim	-11.3225
▁sex	-11.323
ute	-11.3238
▁collect	-11.324
bare	-11.3247
▁placer	-11.3247
wuloon	-11.3253
▁eusse	-11.3257
▁ndam	-11.3263
▁ň	-11.3265
ental	-11.3265
ignore	-11.3266
▁éduque	-11.3269
▁Laat	-11.3273
▁ken	-11.3296
▁ngone	-11.3302
▁yemu	-11.3307
anaam	-11.3308
▁Màgg	-11.3315
vais	-11.3331
kin	-11.3337
▁préven	-11.334
▁jàppandi	-11.3341
approche	-11.3347
aucun	-11.3349
ool	-11.3354
nesi	-11.3356
▁devin	-11.3359
kket	-11.3365
ieux	-11.3367
uses	-11.3368
▁national	-11.3372
▁sauve	-11.3373
▁Vers	-11.338
▁bindu	-11.3384
mbi	-11.3388
Européens	-11.3395
▁juge	-11.34
envoie	-11.3401
apporte	-11.3401
ëcc	-11.3402
▁nourri	-11.3404
▁dàqu	-11.3405
prié	-11.3411
annonce	-11.3412
▁Mang	-11.3414
ňax	-11.3424
▁toile	-11.3426
▁ép	-11.3426
▁remarqu	-11.3426
amitié	-11.3427
naaw	-11.3429
parent	-11.343
F	-11.3431
arracher	-11.3432
instrument	-11.3437
lions	-11.3438
▁mbiru	-11.3439
ailleurs	-11.3439
▁Fara	-11.344
histoire	-11.344
garde	-11.3441
feebar	-11.3441
▁tegal	-11.3444
ordures	-11.3446
bakkan	-11.3447
enfance	-11.3454
deux	-11.3454
aatle	-11.3458
▁yó	-11.3458
ndànk	-11.3459
enlève	-11.3461
appel	-11.3463
▁Tàmm	-11.3466
añse	-11.3467
jambe	-11.3468
▁Peu	-11.347
atuma	-11.347
▁Tuut	-11.3482
gaañu	-11.3483
▁brise	-11.3486
dég	-11.3494
▁Tax	-11.3496
lekk	-11.3499
▁móol	-11.35
xare	-11.3512
▁San	-11.3522
origine	-11.3523
▁midi	-11.3528
ndeer	-11.353
balal	-11.3533
joor	-11.3535
▁masse	-11.3536
tique	-11.3537
élal	-11.3537
gne	-11.3547
La	-11.3555
▁beg	-11.3555
▁Laaj	-11.3556
urine	-11.3557
baŋ	-11.3558
enti	-11.3561
▁participer	-11.3562
échappe	-11.3564
▁go	-11.3567
▁réf	-11.3574
jan	-11.3577
▁devr	-11.3615
▁pren	-11.3626
▁allumé	-11.3628
▁jalga	-11.3636
▁planche	-11.3642
▁retourne	-11.3645
ã	-11.3654
réy	-11.3655
▁fexe	-11.3659
▁kà	-11.3667
▁attrape	-11.367
oignon	-11.3671
▁nànd	-11.3675
▁précédé	-11.368
▁repos	-11.3682
▁pintade	-11.3686
▁président	-11.3687
▁mérite	-11.3687
▁tissé	-11.3687
cité	-11.3689
▁écriture	-11.3689
wàll	-11.369
▁plaint	-11.3692
▁délai	-11.3694
▁fulla	-11.3695
▁moustiquaire	-11.3695
▁palmier	-11.3695
▁frapper	-11.3696
▁nattu	-11.3697
▁enfoncé	-11.3697
▁seconde	-11.3699
▁domestique	-11.37
▁touffe	-11.3701
▁banane	-11.3703
▁esclave	-11.3703
▁Yokk	-11.3704
▁tappal	-11.3704
▁caravane	-11.3707
▁relation	-11.3707
lkaati	-11.371
▁tige	-11.3711
▁Moka	-11.3714
aveur	-11.3714
▁gaz	-11.3715
▁vague	-11.3726
▁geste	-11.373
aurai	-11.3731
ments	-11.3732
▁posée	-11.3734
eegul	-11.3736
oroom	-11.3739
▁Nég	-11.3739
▁qualité	-11.3742
▁participe	-11.3743
▁complet	-11.3743
▁Ngi	-11.3748
▁déc	-11.3749
kàlla	-11.3749
▁yendu	-11.3752
▁mënatu	-11.3755
sement	-11.3756
▁souche	-11.3756
▁vot	-11.3757
▁éteint	-11.3757
▁Nguu	-11.3758
▁soq	-11.376
▁forge	-11.376
▁jébbal	-11.3761
angle	-11.3764
▁récolte	-11.3765
intéresse	-11.3771
▁célèbre	-11.3774
▁njaboot	-11.3774
guñu	-11.3776
▁pince	-11.3776
▁arrêtée	-11.3777
▁bagaas	-11.3778
▁Xool	-11.378
▁caste	-11.3781
vêtement	-11.3782
épaule	-11.3782
assemblée	-11.3782
▁entière	-11.3783
▁1	-11.3783
▁épais	-11.3784
▁Kipli	-11.3784
embouchure	-11.3784
estomac	-11.3784
ibbutóon	-11.3784
njikoto	-11.3784
économie	-11.3784
▁1928	-11.3784
▁1948	-11.3784
▁Ahidjo	-11.3784
▁BBC	-11.3784
▁Bërëtaañ	-11.3784
▁Essuie	-11.3784
▁Harcourt	-11.3784
▁Jeffries	-11.3784
▁Kalabaar	-11.3784
▁chenilles	-11.3784
▁chrétiens	-11.3784
▁cliché	-11.3784
▁discipline	-11.3784
▁dispañseer	-11.3784
▁dispensaire	-11.3784
▁déçu	-11.3784
▁enrhumé	-11.3784
▁excessif	-11.3784
▁harceler	-11.3784
▁lorgnons	-11.3784
▁ngànnaay	-11.3784
▁nocturne	-11.3784
▁obsession	-11.3784
▁officier	-11.3784
▁particulier	-11.3784
▁résidence	-11.3784
▁rôle	-11.3784
▁scrupule	-11.3784
▁sibbiru	-11.3784
▁sorcellerie	-11.3784
▁souverain	-11.3784
▁trapèze	-11.3784
▁trône	-11.3784
▁véhicule	-11.3784
▁Àdduna	-11.3784
▁éparpillé	-11.3784
▁Bretagne	-11.3784
▁Diminue	-11.3784
▁Emmène	-11.3784
▁Sahara	-11.3784
▁cadenas	-11.3784
▁camarades	-11.3784
▁combinaison	-11.3784
▁compétition	-11.3784
▁cotisation	-11.3784
▁idiot	-11.3784
▁papaye	-11.3784
▁préparatifs	-11.3784
▁xamantane	-11.3784
▁xànjar	-11.3784
▁évidemment	-11.3784
apprête	-11.3784
▁Birayim	-11.3784
▁Calabar	-11.3784
▁Chuku	-11.3784
▁Retourne	-11.3784
▁cloche	-11.3784
▁soixante	-11.3784
▁yàndoor	-11.3784
▁asséché	-11.3784
▁bataaxal	-11.3784
▁refroidi	-11.3784
héberg	-11.3784
▁brindille	-11.3784
▁extraordinaire	-11.3784
▁fracture	-11.3784
▁islamique	-11.3784
▁ménage	-11.3784
▁tropicale	-11.3784
▁transperc	-11.3784
▁ëlëk	-11.3784
▁mourra	-11.3784
▁ruisseau	-11.3784
▁yëngatu	-11.3784
▁affamé	-11.3784
▁gâch	-11.3784
▁répète	-11.3784
▁cafards	-11.3784
▁maturité	-11.3784
▁règne	-11.3784
▁1968	-11.3784
▁distincti	-11.3784
▁déteint	-11.3784
▁réservoir	-11.3784
▁alentour	-11.3784
▁témoin	-11.3784
▁Macron	-11.3784
▁maladroit	-11.3784
▁hernie	-11.3784
▁effect	-11.3784
▁paupière	-11.3784
▁légende	-11.3784
▁fauché	-11.3784
▁callweer	-11.3784
▁rétribution	-11.3784
▁vaurien	-11.3784
▁Diouf	-11.3784
▁Place	-11.3784
▁altine	-11.3784
▁trésor	-11.3784
▁Feebar	-11.3784
▁Jamano	-11.3784
▁Surveille	-11.3784
▁décédé	-11.3784
▁courtoisie	-11.3784
▁coiffeuse	-11.3784
▁gàmmu	-11.3784
▁sardine	-11.3784
▁bahut	-11.3784
▁vélo	-11.3784
▁Modou	-11.3784
▁consomme	-11.3784
autrui	-11.3784
▁inconnu	-11.3784
▁incliné	-11.3784
▁injurié	-11.3784
▁Wàññil	-11.3784
▁navire	-11.3784
▁mendiant	-11.3785
▁bêtise	-11.3785
▁mbindeef	-11.3785
▁flétri	-11.3785
▁ayubes	-11.3785
▁Khadi	-11.3785
▁faagaagal	-11.3785
▁geño	-11.3785
▁karwaat	-11.3785
escalier	-11.3785
▁Jóg	-11.3785
▁Ñëw	-11.3785
▁chauffage	-11.3785
Arkuur	-11.3785
▁charrette	-11.3785
▁sablonneux	-11.3785
▁jërr	-11.3785
▁fumier	-11.3785
▁gàllaaj	-11.3785
▁woyof	-11.3785
▁ndékki	-11.3785
▁ndoorte	-11.3785
▁foudre	-11.3785
▁parfaitement	-11.3785
▁reetaan	-11.3785
▁accompagnait	-11.3785
▁écrivent	-11.3785
▁famine	-11.3785
▁familier	-11.3785
▁ferñent	-11.3785
▁moytuwul	-11.3785
▁fierté	-11.3785
▁ressortissant	-11.3785
▁jaabante	-11.3785
▁coussin	-11.3785
▁luqati	-11.3785
▁dankalikoo	-11.3785
▁ŋacc	-11.3785
▁séddale	-11.3785
▁colonne	-11.3785
▁frappions	-11.3785
▁grève	-11.3785
oseille	-11.3786
▁Toucouleur	-11.3786
▁xëyee	-11.3786
▁sorcier	-11.3786
▁replié	-11.3786
▁culotte	-11.3786
▁berkelle	-11.3786
▁habituellement	-11.3786
▁serrure	-11.3786
▁fauteuil	-11.3786
▁bãŋ	-11.3786
▁fureur	-11.3786
▁Sàmba	-11.3786
▁fëq	-11.3786
▁sautille	-11.3786
▁xëdd	-11.3786
▁engraisse	-11.3787
▁rattraper	-11.3787
▁yaxeet	-11.3787
▁daraja	-11.3787
▁gonflé	-11.3787
▁ceddo	-11.3787
▁reegal	-11.3787
▁tuumaal	-11.3787
▁Abdou	-11.3787
▁Kilo	-11.3787
enthousiasme	-11.3787
▁plaisanterie	-11.3787
▁habitué	-11.3787
▁ndott	-11.3787
▁nammeel	-11.3787
▁cuvette	-11.3787
▁ngooñ	-11.3788
▁Yëf	-11.3788
▁rajoom	-11.3788
▁Bamako	-11.3788
▁aaytal	-11.3788
▁coq	-11.3788
▁palaas	-11.3788
▁annoncé	-11.3788
encens	-11.3788
▁Bouche	-11.3788
▁désherber	-11.3788
▁santaane	-11.3788
▁baguette	-11.3789
▁naître	-11.3789
▁pension	-11.3789
▁ňàkk	-11.3789
▁galoper	-11.3789
▁móobal	-11.3789
âtre	-11.3789
▁jouets	-11.3789
▁heureux	-11.3789
isible	-11.3789
▁xeej	-11.3789
éperon	-11.3789
▁guigne	-11.3789
▁saafara	-11.379
▁njub	-11.379
▁flamb	-11.379
▁ndimmal	-11.379
▁étonné	-11.379
▁mbindaan	-11.379
rez	-11.379
▁kerce	-11.379
▁siège	-11.379
Unis	-11.379
▁recul	-11.379
▁lekkool	-11.3791
▁jàppandal	-11.3791
▁mellax	-11.3791
▁Ñaq	-11.3791
▁wasin	-11.3791
épineux	-11.3791
▁aloom	-11.3791
▁quiconque	-11.3792
▁ngemb	-11.3792
▁fàŋŋ	-11.3792
▁Terre	-11.3792
▁pens	-11.3792
▁grimp	-11.3792
▁dencukaay	-11.3793
▁salué	-11.3793
▁refaire	-11.3793
▁coco	-11.3793
existence	-11.3793
▁Juuf	-11.3793
▁Demkoon	-11.3793
▁moteur	-11.3794
▁Jaaykat	-11.3794
▁satisfait	-11.3794
▁éru	-11.3794
▁Alfa	-11.3794
jekkal	-11.3794
▁tatou	-11.3794
▁kaki	-11.3795
▁changement	-11.3795
▁nanguwul	-11.3795
▁fowal	-11.3795
▁juuti	-11.3795
▁bëggóon	-11.3795
▁refusé	-11.3796
▁këruus	-11.3796
▁considère	-11.3796
▁coincé	-11.3797
▁silmaxa	-11.3797
▁daane	-11.3797
▁suivent	-11.3797
▁fëriñ	-11.3797
▁Sànni	-11.3797
▁miirloo	-11.3797
▁considérable	-11.3797
▁vendredi	-11.3797
▁fraîche	-11.3797
▁naqarlu	-11.3797
▁Xalam	-11.3798
▁Demuloo	-11.3798
▁barbe	-11.3798
▁chapeaux	-11.3798
▁Dellu	-11.3798
▁sœurs	-11.3798
▁causerie	-11.3798
absence	-11.3799
▁réconcilier	-11.3799
▁bóox	-11.3799
▁mbàjj	-11.3799
▁bottes	-11.38
▁jooyloo	-11.38
▁rajaxe	-11.38
▁Ndoxum	-11.38
▁Xeex	-11.38
▁àndandoo	-11.38
▁décrit	-11.38
▁soif	-11.38
▁commencement	-11.38
▁facilement	-11.3801
▁ruux	-11.3801
▁Tàngaay	-11.3801
▁pendent	-11.3801
▁yeggee	-11.3801
▁Bateri	-11.3802
▁raflé	-11.3802
▁lutin	-11.3802
▁ñorul	-11.3802
ignée	-11.3802
▁couverture	-11.3802
▁guide	-11.3802
▁ramasser	-11.3803
cture	-11.3803
▁Fall	-11.3803
▁récolter	-11.3803
▁Maroc	-11.3804
▁màkkaan	-11.3804
▁absent	-11.3804
▁fétiches	-11.3804
▁rapprochée	-11.3804
▁humide	-11.3805
▁ñawlu	-11.3805
mbëŋ	-11.3805
▁remerciement	-11.3805
▁sàngam	-11.3805
▁suivre	-11.3805
▁deewee	-11.3805
▁Lëg	-11.3805
▁Rao	-11.3805
▁ancien	-11.3807
rateur	-11.3807
▁Poor	-11.3807
▁promis	-11.3807
▁kookale	-11.3808
▁loup	-11.3809
▁sëppu	-11.381
particulièrement	-11.381
▁changer	-11.381
habille	-11.381
▁constipé	-11.381
▁accepte	-11.381
▁arrivant	-11.3811
▁Jëf	-11.3812
▁tegtal	-11.3812
▁fowu	-11.3812
▁Mësuma	-11.3813
▁plomb	-11.3813
▁aimé	-11.3813
▁jadd	-11.3814
▁pairs	-11.3814
▁néré	-11.3815
épreuve	-11.3815
▁piis	-11.3816
▁muraille	-11.3816
▁répondu	-11.3816
▁recommand	-11.3816
▁pousser	-11.3817
▁utile	-11.3818
▁ndanka	-11.3818
allure	-11.3818
▁nóox	-11.3818
▁sébbi	-11.3819
ttarñi	-11.3819
▁yen	-11.3819
▁pente	-11.3819
▁concerne	-11.3819
▁cachette	-11.382
▁barque	-11.382
▁privilèges	-11.3822
▁boyet	-11.3822
▁nàndal	-11.3822
▁flanc	-11.3823
▁transporté	-11.3823
pasare	-11.3823
▁wuutu	-11.3823
▁protéger	-11.3823
▁Ñàmb	-11.3823
▁tibb	-11.3824
▁leçon	-11.3824
▁superposé	-11.3826
obtien	-11.3827
▁yamb	-11.3827
▁lëg	-11.3828
▁néc	-11.3828
▁fàcc	-11.3828
▁jàq	-11.3828
▁goj	-11.3828
▁maasaloo	-11.3829
▁relié	-11.3829
▁fumer	-11.383
▁bir	-11.383
▁photographi	-11.3831
▁avaler	-11.3831
▁xelli	-11.3832
▁exact	-11.3833
▁moromam	-11.3833
▁Blanc	-11.3833
▁Xadi	-11.3833
▁lobe	-11.3833
▁séenee	-11.3834
engagé	-11.3836
▁maternelle	-11.3836
▁xaru	-11.3836
▁fameuse	-11.3837
▁yóbba	-11.3837
▁matière	-11.3837
▁épargn	-11.3838
▁installé	-11.3838
▁crin	-11.3838
▁woolu	-11.3838
▁tafu	-11.3838
▁noppee	-11.3839
ddeeku	-11.384
▁batteur	-11.384
▁cér	-11.384
▁cris	-11.3841
▁moytu	-11.3841
▁aboie	-11.3842
▁jekkul	-11.3843
▁nord	-11.3843
▁jëkkëram	-11.3843
keddoo	-11.3843
▁waŋ	-11.3844
▁Xaalis	-11.3844
▁Deg	-11.3845
▁Peuls	-11.3845
▁ndoxum	-11.3845
▁gombos	-11.3846
▁rëq	-11.3846
▁voient	-11.3846
▁wenn	-11.3847
▁Wér	-11.3847
▁daamar	-11.3847
enfiler	-11.3847
▁sutura	-11.3847
▁Dugal	-11.3848
▁Mburu	-11.3848
▁emploi	-11.3848
▁Mbam	-11.3848
▁siècle	-11.3848
ail	-11.3848
▁apparaissent	-11.3848
▁lendemain	-11.3849
▁ŋàbb	-11.3849
▁distances	-11.3849
góorlu	-11.3851
▁péex	-11.3851
▁confi	-11.3851
▁ennemi	-11.3852
▁ngëm	-11.3852
▁ŋaam	-11.3852
▁obscur	-11.3853
▁xaax	-11.3854
▁boum	-11.3854
▁soufflé	-11.3855
▁détest	-11.3856
▁livré	-11.3857
▁fondé	-11.3857
▁pommes	-11.3858
ndal	-11.3859
▁Tooyal	-11.3859
▁Deret	-11.386
▁néewal	-11.386
juram	-11.386
▁Mokaa	-11.3861
▁battant	-11.3861
wlin	-11.3862
▁ramollir	-11.3863
▁yebu	-11.3864
▁feeñal	-11.3864
▁tukkal	-11.3864
▁Ga	-11.3865
▁tukkee	-11.3865
▁tiges	-11.3865
▁durant	-11.3866
▁bouger	-11.3867
▁courtis	-11.3868
▁touffes	-11.3868
▁bananes	-11.3869
▁dank	-11.387
▁mordu	-11.387
▁tardé	-11.387
▁secondes	-11.387
▁domestiques	-11.387
▁Yokkal	-11.387
roc	-11.3872
▁attache	-11.3872
ijji	-11.3873
▁nuru	-11.3873
▁gosse	-11.3873
▁creuse	-11.3874
▁merci	-11.3876
▁perçois	-11.3877
▁familiari	-11.3878
▁turam	-11.3879
▁juges	-11.3879
▁apparue	-11.3879
▁tooyal	-11.3879
▁plants	-11.388
▁sawar	-11.388
▁Sox	-11.388
▁dundale	-11.3881
taay	-11.3882
activer	-11.3883
▁fullaal	-11.3883
▁Joor	-11.3884
▁Tann	-11.3885
▁laisseras	-11.3887
▁pratiqu	-11.3887
▁regardent	-11.3888
▁étroite	-11.3888
▁yàqal	-11.3891
▁tàggu	-11.3891
▁pâtes	-11.3892
▁haricots	-11.3894
évalu	-11.3896
iquement	-11.3898
▁motte	-11.3898
▁beru	-11.3899
▁générale	-11.39
ateur	-11.39
▁jëmmu	-11.3901
▁Toolu	-11.3902
▁éclairs	-11.3902
▁rombee	-11.3903
▁bouchée	-11.3904
▁keppaar	-11.3906
▁gépp	-11.3907
▁toogoon	-11.3907
▁situé	-11.3907
▁trouv	-11.3907
▁maîtres	-11.3907
▁séparer	-11.391
▁sukkandik	-11.3912
▁couverte	-11.3912
▁lekkul	-11.3912
appelait	-11.3912
▁yàcc	-11.3912
▁baň	-11.3913
▁foin	-11.3913
▁tentes	-11.3914
daa	-11.3914
▁Dogal	-11.3914
▁fattu	-11.3918
▁fermement	-11.3918
▁aimer	-11.3918
▁assiettes	-11.3919
▁entoure	-11.392
▁teeñ	-11.392
▁sauter	-11.3921
ension	-11.3921
aye	-11.3921
ëndënd	-11.3921
▁pareils	-11.3922
▁restent	-11.3924
▁Banyo	-11.3925
▁montré	-11.3925
rand	-11.3927
▁Yooya	-11.3928
▁patte	-11.3928
▁agripp	-11.3929
▁Sall	-11.3931
▁woowa	-11.3931
▁sank	-11.3933
▁sekki	-11.3933
▁détruit	-11.3934
▁manu	-11.3934
éteindre	-11.3934
▁dallu	-11.3937
▁rikk	-11.3937
▁Kanam	-11.3937
diiraan	-11.3938
tier	-11.3938
▁île	-11.3938
▁xaat	-11.3938
▁poches	-11.3939
▁etaas	-11.3939
▁poos	-11.394
▁jiwu	-11.3941
▁US	-11.3943
▁bàjj	-11.3943
▁traiter	-11.3943
▁humeur	-11.3945
▁root	-11.3945
▁lenge	-11.3947
▁apprend	-11.3947
▁Pont	-11.3948
▁Bum	-11.395
▁faatu	-11.395
▁gorgé	-11.3951
kiis	-11.3952
▁lanière	-11.3953
▁demuñu	-11.3955
▁yóbbe	-11.3957
▁redress	-11.3957
▁nëbbu	-11.3958
▁àddu	-11.3959
▁éclaire	-11.396
▁ñaq	-11.396
▁ouvertes	-11.3961
▁cambar	-11.3961
uriner	-11.3963
▁jument	-11.3964
▁rabat	-11.3969
▁kersa	-11.397
▁ropp	-11.3971
▁melons	-11.3971
▁différents	-11.3972
▁teggin	-11.3973
▁In	-11.3973
▁ramp	-11.3975
▁rasu	-11.3976
▁plaisante	-11.398
▁devenir	-11.398
▁yeewu	-11.3983
▁raaf	-11.3984
▁brin	-11.3984
▁grise	-11.3986
▁Séy	-11.3987
humid	-11.3989
▁guérie	-11.399
▁partait	-11.399
▁baissé	-11.3992
▁filets	-11.3994
▁meree	-11.3998
àjjaatle	-11.3998
▁pries	-11.3999
▁braves	-11.3999
▁làng	-11.4
rak	-11.4001
▁sienne	-11.4005
ram	-11.4008
▁mokkal	-11.4009
▁ins	-11.401
▁xuy	-11.4011
▁aajo	-11.4012
▁pure	-11.4012
▁Pare	-11.4013
▁durée	-11.4015
venez	-11.4016
abandonner	-11.4022
▁tends	-11.4024
accepte	-11.4025
▁mbool	-11.4027
▁malles	-11.4028
▁baaxoon	-11.4029
▁faux	-11.4031
▁gisu	-11.4031
▁bëggu	-11.4033
▁fauc	-11.4034
▁kaar	-11.4035
▁déwén	-11.4035
▁vaccins	-11.4035
▁kooka	-11.4037
▁saaf	-11.4038
▁yewwi	-11.4038
empire	-11.4039
▁baaraamu	-11.4042
àttu	-11.4043
▁disent	-11.4044
▁vendeur	-11.4044
▁waree	-11.405
puis	-11.4052
▁tëwa	-11.4054
▁melo	-11.4055
▁appeler	-11.4055
▁Cependant	-11.4056
▁mbartal	-11.406
▁fasam	-11.4062
▁chaises	-11.4067
▁koog	-11.4069
▁quitter	-11.407
▁rabe	-11.4072
eexal	-11.4074
▁ump	-11.4076
▁ponct	-11.4079
▁franchi	-11.4079
▁laissés	-11.4085
are	-11.4086
▁pirogues	-11.409
▁hâte	-11.4092
▁mettee	-11.4092
▁instants	-11.4095
▁couches	-11.4098
koom	-11.4098
tuut	-11.4101
▁boude	-11.4101
▁accueilli	-11.4102
liers	-11.4104
▁coureur	-11.4105
▁tóol	-11.411
▁fusils	-11.411
viennent	-11.4112
▁Yeew	-11.412
▁jépp	-11.4121
▁dag	-11.4122
▁malades	-11.4122
mbànd	-11.4125
▁golf	-11.4126
▁ràng	-11.4126
▁Xol	-11.4128
▁ñuux	-11.4129
▁jeneen	-11.413
tiennent	-11.413
▁amaat	-11.4131
▁fóote	-11.4131
▁toq	-11.4131
▁repasser	-11.4134
▁regardé	-11.4135
nit	-11.4135
rge	-11.414
▁Doon	-11.4141
▁instrument	-11.4144
éñ	-11.4145
▁fendi	-11.4145
vait	-11.4146
▁yoonam	-11.4149
▁Taal	-11.4152
▁Tas	-11.4153
▁noot	-11.4156
▁pus	-11.4156
▁ràbbe	-11.4157
▁Gaal	-11.4157
▁venger	-11.4158
▁fiable	-11.416
ndaw	-11.4161
▁laalee	-11.4161
soon	-11.4162
▁bouff	-11.4163
metti	-11.4168
▁oreiller	-11.417
▁Dàll	-11.4173
▁loxoo	-11.4175
ailler	-11.4176
▁kuuy	-11.4178
3	-11.4178
ières	-11.4179
▁liw	-11.4181
▁wàlle	-11.4182
▁poivr	-11.4185
▁larges	-11.4186
▁Xor	-11.4188
▁ruu	-11.4189
▁joŋ	-11.4191
▁Ndaa	-11.4198
ude	-11.42
▁napp	-11.4201
▁prochaine	-11.4201
▁paierai	-11.4202
▁Ndën	-11.4205
guma	-11.4207
▁biiñ	-11.4208
▁weg	-11.4213
erig	-11.4217
▁manifest	-11.4218
▁yoot	-11.4219
▁Dàq	-11.4219
▁Gëm	-11.4222
▁tedd	-11.4229
▁vac	-11.4239
▁accepter	-11.424
okk	-11.4241
▁longe	-11.4242
▁géey	-11.4242
▁Moy	-11.4242
▁féexal	-11.4247
▁rive	-11.4249
gumbe	-11.426
▁defoon	-11.4265
ténué	-11.4269
▁coque	-11.4272
▁destin	-11.4274
▁préjudice	-11.4279
▁dieu	-11.4279
▁trouble	-11.4281
▁voyageur	-11.4281
▁Jooy	-11.4281
▁doonoon	-11.4282
ewuma	-11.4283
▁parl	-11.4284
yan	-11.4288
▁Kakaa	-11.4288
▁dépass	-11.4291
▁gent	-11.4292
▁gore	-11.4296
mbar	-11.4297
cède	-11.4302
▁saute	-11.4305
adresse	-11.4306
àññ	-11.4319
▁pointes	-11.4319
▁liggéeykat	-11.4319
▁soxlaa	-11.4322
ui	-11.4322
▁fonds	-11.4323
▁Bind	-11.4324
▁lël	-11.4326
▁habité	-11.4327
ggal	-11.4328
existe	-11.433
▁kaaf	-11.4331
▁maaj	-11.4334
axaar	-11.4335
▁Toj	-11.4342
▁teewu	-11.435
▁japp	-11.4352
▁action	-11.4356
▁soosoo	-11.4356
▁Kook	-11.4358
hi	-11.4358
▁étale	-11.4364
▁jiin	-11.4365
▁jaayaat	-11.437
▁liggéeyi	-11.4377
jëmbët	-11.4387
ó	-11.4389
▁coeurs	-11.439
▁yées	-11.4395
▁éloigne	-11.4397
▁laide	-11.4397
▁jélal	-11.4399
▁Far	-11.4404
▁Wër	-11.4406
▁brûlant	-11.4411
▁mëq	-11.4414
▁chique	-11.4416
▁séenu	-11.4418
▁ap	-11.4421
▁civil	-11.4424
ële	-11.4424
nsis	-11.4426
▁teqale	-11.4428
jarum	-11.443
▁daanoo	-11.4442
▁macc	-11.4443
▁attire	-11.4445
▁noires	-11.4451
▁Wet	-11.4451
▁constat	-11.4451
▁demi	-11.4451
alaan	-11.4466
▁exerc	-11.4468
▁jaas	-11.4472
▁loi	-11.4473
▁veillée	-11.4477
▁jure	-11.448
▁marchera	-11.4482
▁demuma	-11.4492
▁xër	-11.4492
▁Njiit	-11.4494
▁perch	-11.4496
▁Ru	-11.4496
ish	-11.4499
▁ëw	-11.45
▁rayonn	-11.4503
itu	-11.4516
oupe	-11.4524
▁serv	-11.4526
efforts	-11.4531
▁dàgg	-11.4532
▁tira	-11.4532
ànk	-11.4533
▁Gaaw	-11.4534
so	-11.4536
▁médecine	-11.4538
▁dispose	-11.4541
amis	-11.4541
▁fixe	-11.4544
▁sépar	-11.4547
▁ven	-11.455
▁pos	-11.4552
géeju	-11.4553
▁gàjj	-11.4553
▁tr	-11.4556
▁duul	-11.4557
llemands	-11.4561
gee	-11.4563
▁àbb	-11.457
▁xiis	-11.4575
▁refuser	-11.4581
▁dégoûte	-11.4586
quets	-11.4595
dege	-11.4601
▁yiir	-11.4604
accuse	-11.4604
▁Natt	-11.4605
ngu	-11.4607
▁Ji	-11.4612
▁poules	-11.4613
irent	-11.462
rage	-11.4621
gub	-11.4625
▁njàpp	-11.4625
man	-11.4627
eud	-11.4628
▁tuutee	-11.4631
▁dell	-11.4633
gar	-11.4636
▁naar	-11.4646
▁avenir	-11.4652
▁welo	-11.4657
▁fowe	-11.4658
▁suffisa	-11.4661
▁dëkkee	-11.4663
innaaw	-11.4665
dog	-11.4666
naan	-11.4682
egg	-11.4686
▁Amin	-11.4691
vie	-11.4692
▁Ñam	-11.4693
▁tegu	-11.4697
ett	-11.4711
▁portera	-11.4713
sage	-11.4717
▁luisant	-11.472
▁fat	-11.4722
▁cuis	-11.4729
▁Wóo	-11.473
▁extrai	-11.4735
▁bours	-11.4736
▁Ju	-11.4736
sal	-11.4743
abal	-11.4746
▁xeeb	-11.4747
▁manifeste	-11.475
aillent	-11.4756
▁chass	-11.4757
▁cousine	-11.4761
▁soor	-11.4761
▁chanter	-11.4762
▁aperçoi	-11.4765
▁armée	-11.4766
▁trouves	-11.4769
▁saxal	-11.4769
▁Pey	-11.4773
▁tàmme	-11.4775
▁poor	-11.4779
yeel	-11.4779
▁sun	-11.478
▁terme	-11.4781
rine	-11.4782
▁Sér	-11.4787
▁révolte	-11.4791
weer	-11.4796
▁approche	-11.4801
joŋ	-11.4805
écu	-11.481
ça	-11.4819
▁wuyu	-11.482
▁débatt	-11.482
▁dent	-11.4821
▁examine	-11.4823
eut	-11.4827
▁sage	-11.483
▁ër	-11.4833
iable	-11.4833
▁tenq	-11.4835
▁NGo	-11.4842
▁ñen	-11.485
▁caq	-11.4864
▁chatouille	-11.4868
égétu	-11.4869
▁bonnes	-11.4876
▁fourr	-11.4884
▁kees	-11.4885
▁kart	-11.4887
olom	-11.4894
udeur	-11.49
▁tée	-11.4902
ññ	-11.4903
▁balai	-11.4907
ssois	-11.4912
▁ouvre	-11.4915
▁fouille	-11.4918
▁tooge	-11.4927
ékk	-11.4927
urno	-11.4927
ndale	-11.4943
▁ombre	-11.4948
▁Per	-11.4949
sii	-11.495
▁loos	-11.495
▁tendue	-11.4954
▁sages	-11.4962
▁extra	-11.4962
neen	-11.4971
▁lonkoo	-11.4972
▁all	-11.4979
▁sos	-11.498
▁ëppal	-11.4981
▁lamb	-11.4982
gné	-11.4987
celle	-11.4996
▁crache	-11.5005
ulëer	-11.5005
▁range	-11.5008
▁nekkin	-11.5017
ewoon	-11.503
▁ngoogu	-11.5032
ki	-11.5037
cier	-11.5046
évit	-11.5051
▁file	-11.5055
▁Waay	-11.5064
cal	-11.507
▁points	-11.5071
▁Sor	-11.5078
▁découverte	-11.5079
▁iron	-11.5084
▁morte	-11.5085
▁cap	-11.509
▁jooj	-11.5092
▁kare	-11.5094
ëtt	-11.51
▁kàttanu	-11.511
▁karo	-11.511
▁Lal	-11.5115
▁njuum	-11.5149
▁postu	-11.5153
én	-11.516
▁servi	-11.516
▁sib	-11.5162
yons	-11.5162
▁raam	-11.5176
▁Sam	-11.5177
▁colle	-11.518
faire	-11.5181
xi	-11.5186
▁press	-11.5194
▁Ngela	-11.5211
▁Ker	-11.5217
yaa	-11.5221
▁Ngalla	-11.5221
verser	-11.5222
▁Mel	-11.5241
▁Nekk	-11.5249
▁torox	-11.525
usée	-11.5251
▁neuve	-11.5253
▁fuy	-11.5255
jaa	-11.5266
▁jafee	-11.5273
▁sépare	-11.5282
▁guerres	-11.5285
aaral	-11.5285
▁nuits	-11.5292
▁waxu	-11.5299
▁ňa	-11.5299
▁brutale	-11.53
▁viv	-11.5301
▁mousse	-11.5306
iis	-11.5306
▁ressort	-11.5313
ucu	-11.5314
dina	-11.5325
▁isolé	-11.5329
aañ	-11.534
baana	-11.5343
▁char	-11.5346
restr	-11.5356
▁provoque	-11.5358
issement	-11.5366
▁Till	-11.5376
▁retir	-11.5377
faites	-11.5377
▁tëgge	-11.5378
▁Too	-11.5382
léem	-11.5382
▁rempliss	-11.5385
ien	-11.5386
àbbal	-11.5386
ëj	-11.5386
▁Kaw	-11.5411
▁tés	-11.5419
pha	-11.542
cle	-11.5424
ë	-11.5428
▁Naa	-11.5428
▁laab	-11.5431
▁Aime	-11.5432
àggul	-11.5439
raal	-11.5445
▁compos	-11.5447
ñi	-11.5452
▁agit	-11.5454
antee	-11.5454
▁poul	-11.5455
ssez	-11.5458
▁Daf	-11.5458
▁Baa	-11.5459
roo	-11.5462
▁an	-11.5473
▁takkoo	-11.5475
▁Saw	-11.548
ssement	-11.548
araada	-11.5482
coupe	-11.5485
mati	-11.5498
rouler	-11.5499
▁yéexa	-11.5507
sme	-11.5509
isin	-11.551
▁fitt	-11.5512
▁Lé	-11.5513
▁lekkee	-11.5514
ënd	-11.5515
emp	-11.5517
ňň	-11.5522
▁contenan	-11.5523
▁guerr	-11.5525
▁crai	-11.5527
▁ressemblai	-11.5533
ctif	-11.5534
bet	-11.5534
▁goûte	-11.5536
▁faisan	-11.5537
àmb	-11.554
▁dép	-11.5551
ggi	-11.5551
jantu	-11.5552
▁indee	-11.5558
▁lex	-11.556
accompagner	-11.5562
ŋgeen	-11.5562
occi	-11.557
▁Dàmp	-11.5573
ndiŋ	-11.5582
▁senti	-11.5584
▁neexu	-11.5599
waa	-11.56
▁promet	-11.5601
▁valu	-11.5613
▁nekke	-11.5617
▁somm	-11.5618
aine	-11.5628
▁recommencer	-11.5635
waaw	-11.5635
▁plant	-11.5636
▁Nil	-11.5639
▁suul	-11.5653
▁exh	-11.5659
▁fri	-11.5661
side	-11.5661
▁lourde	-11.5661
▁abord	-11.5664
▁Téj	-11.5665
source	-11.5666
ngal	-11.5684
▁lemu	-11.569
▁socc	-11.571
▁cr	-11.5713
laa	-11.5713
bo	-11.5716
▁déb	-11.5728
▁ouvri	-11.5728
▁tër	-11.5733
▁duy	-11.5744
iyaar	-11.5747
▁ouvr	-11.5749
▁Yax	-11.5753
▁gà	-11.5753
▁barke	-11.5758
▁duus	-11.5758
mais	-11.5775
arbaat	-11.5775
▁daar	-11.5777
mé	-11.5778
inet	-11.5783
▁cils	-11.5787
ver	-11.5799
wo	-11.5802
▁recouvre	-11.5812
▁gare	-11.5814
tan	-11.5819
▁vanit	-11.5821
▁Ñoor	-11.5821
▁regarda	-11.5828
tures	-11.5834
▁Ken	-11.5835
▁transhum	-11.5851
▁awu	-11.5858
àbb	-11.5858
ndox	-11.5858
entrer	-11.5859
▁naanu	-11.5859
▁débat	-11.5882
▁xë	-11.5884
▁trouvera	-11.589
allume	-11.5893
kkati	-11.5895
lir	-11.5899
qam	-11.5904
▁Mac	-11.5904
▁glisse	-11.5916
loon	-11.5926
rés	-11.5927
▁bës	-11.5932
arrêt	-11.5936
▁dirig	-11.594
▁xaju	-11.5942
▁sida	-11.5942
▁soree	-11.5943
ck	-11.5945
samba	-11.5947
errer	-11.5949
▁éch	-11.5961
▁koon	-11.5961
▁suffisant	-11.5964
ham	-11.5965
▁bërë	-11.597
▁herbe	-11.5971
▁violent	-11.5981
igno	-11.5983
▁Wi	-11.5989
▁nda	-11.5996
asse	-11.5996
▁tourné	-11.6002
ttax	-11.6011
umes	-11.6017
non	-11.6018
▁tanc	-11.6019
▁jigu	-11.602
▁refus	-11.6032
bon	-11.6037
▁échange	-11.6043
▁Ré	-11.6047
▁arme	-11.605
▁fla	-11.6052
▁nourris	-11.6056
ccal	-11.6061
▁arrivera	-11.6064
ret	-11.6065
rément	-11.6071
▁chameau	-11.6074
▁Loxo	-11.6086
▁jaal	-11.6086
▁lég	-11.6099
habitation	-11.6099
bbam	-11.6109
laire	-11.611
yeux	-11.6115
lit	-11.6115
teur	-11.6118
aasu	-11.6122
▁entrai	-11.6125
▁arrache	-11.614
▁yaroo	-11.6146
▁plate	-11.616
▁descendra	-11.6164
occu	-11.6177
daar	-11.618
▁Amu	-11.6183
▁totale	-11.6183
▁fal	-11.619
▁naň	-11.6193
▁sàmba	-11.6195
▁Fiir	-11.6197
▁Sine	-11.6199
▁sooy	-11.6201
▁Tàng	-11.6205
kku	-11.622
▁remettra	-11.6224
▁lawoon	-11.6229
▁ye	-11.6233
abine	-11.6241
room	-11.6246
eetuñu	-11.6249
andis	-11.6249
▁vole	-11.6251
▁brûler	-11.6263
▁froide	-11.6273
▁woññ	-11.6276
▁conco	-11.6278
▁redoute	-11.6285
yaan	-11.6291
▁opeere	-11.6291
tur	-11.6297
mis	-11.6299
▁retrouve	-11.6304
etti	-11.6307
▁posa	-11.6308
gum	-11.631
▁considér	-11.6314
▁tarder	-11.6318
▁Xe	-11.6322
▁grille	-11.6324
▁tàq	-11.6334
▁écouter	-11.6335
▁peint	-11.6336
mené	-11.6344
▁Yenu	-11.635
▁Damm	-11.6365
▁circul	-11.6372
baar	-11.6378
▁sing	-11.6378
pied	-11.6385
▁gratte	-11.6388
ition	-11.6388
▁af	-11.639
kale	-11.641
àyyee	-11.6413
erez	-11.6421
▁wall	-11.6421
▁yatt	-11.6422
▁baigne	-11.6424
seras	-11.6424
ngom	-11.6429
fe	-11.6436
ekool	-11.6441
▁tex	-11.6455
▁mboole	-11.6457
ouvrir	-11.6474
▁waññ	-11.6477
▁form	-11.6485
met	-11.6486
▁Pu	-11.6489
▁jaaru	-11.65
▁tourner	-11.65
▁lanc	-11.6502
▁biiru	-11.6507
▁ramasse	-11.6522
▁dégage	-11.6526
▁lee	-11.6531
jëkk	-11.6536
▁br	-11.6536
▁Ñan	-11.6544
▁soqi	-11.6547
ouille	-11.6555
orange	-11.6567
▁njar	-11.6577
▁saaw	-11.6581
▁ve	-11.6583
appeler	-11.6592
▁toll	-11.6595
▁souten	-11.6595
▁Ho	-11.6599
épic	-11.661
baay	-11.6616
ñaar	-11.6619
asi	-11.6619
eew	-11.6631
dent	-11.6633
▁hi	-11.6636
▁pat	-11.6639
ëmbët	-11.664
ndax	-11.664
accompagne	-11.6643
▁kàcc	-11.6647
▁yëge	-11.6651
tête	-11.6653
odd	-11.6654
▁trépi	-11.6656
▁ndog	-11.6656
exil	-11.6663
▁rayon	-11.6668
imiter	-11.6673
outils	-11.6674
gëm	-11.6675
▁Dee	-11.6675
▁Cha	-11.6676
Aro	-11.6678
objet	-11.6679
▁ndée	-11.6683
hôte	-11.6685
uus	-11.669
corde	-11.6691
raas	-11.6692
épouse	-11.6697
lant	-11.6699
isé	-11.6702
tànk	-11.6705
▁dépouill	-11.6706
▁laissée	-11.6707
▁xaaj	-11.6709
junni	-11.671
▁téyee	-11.671
tem	-11.6712
▁Agsil	-11.6712
▁coûte	-11.6712
▁conserve	-11.6716
émotion	-11.6718
jaxal	-11.6719
expérience	-11.6723
nti	-11.6729
▁conten	-11.6731
pression	-11.6733
▁trans	-11.6733
lait	-11.6734
demain	-11.6736
yaar	-11.6736
▁xadd	-11.6737
infiltre	-11.6744
répare	-11.6745
yëg	-11.6746
ñetti	-11.6748
féex	-11.6752
ñuul	-11.6754
interprète	-11.6755
espoir	-11.6757
enclos	-11.6758
abuser	-11.6758
abandonne	-11.6758
jàmm	-11.6759
▁Më	-11.6763
animal	-11.6763
allait	-11.6764
xóot	-11.6769
▁Gar	-11.6771
étendue	-11.6773
njort	-11.6777
aiguille	-11.6777
usion	-11.6782
oreiller	-11.6783
rop	-11.6786
ngoo	-11.6791
▁inf	-11.6801
uw	-11.6803
ŋun	-11.6806
égard	-11.6808
arrivée	-11.6809
jél	-11.6812
état	-11.6813
▁jambaa	-11.6815
science	-11.6817
oro	-11.682
unique	-11.6829
▁officiel	-11.683
chouc	-11.6832
igne	-11.6834
▁Yàq	-11.6834
raab	-11.6837
insectes	-11.6838
étend	-11.684
ît	-11.6845
▁só	-11.6847
▁laaf	-11.6848
▁temp	-11.6849
gaan	-11.685
face	-11.6853
kaw	-11.6854
▁rein	-11.6859
▁lâche	-11.6867
▁njàmbat	-11.6868
▁yoor	-11.6873
▁jeta	-11.6877
construi	-11.6877
rayon	-11.688
kul	-11.6887
▁gàdd	-11.6892
gent	-11.6895
iwo	-11.6896
emmen	-11.6897
▁Xola	-11.6898
nouvel	-11.6899
▁reparti	-11.6901
ndi	-11.6902
▁fum	-11.6902
▁dóore	-11.6913
aawlu	-11.6914
▁jag	-11.6931
▁ñaare	-11.6933
aines	-11.6935
fils	-11.6935
lëpp	-11.6935
▁taba	-11.6942
▁mbay	-11.6943
▁noppale	-11.695
àqum	-11.6951
déwén	-11.6952
▁bër	-11.6955
ewaan	-11.6955
▁Sag	-11.6955
nces	-11.6958
▁bouilli	-11.6962
lion	-11.6963
▁Mbal	-11.6967
àkkul	-11.6976
▁procur	-11.6977
▁racont	-11.698
▁wel	-11.6981
▁souill	-11.6982
▁oblig	-11.6983
dex	-11.6991
dou	-11.6999
▁rond	-11.7002
▁yooya	-11.7003
▁support	-11.7006
▁froiss	-11.7011
▁gerbe	-11.7021
àqal	-11.7021
▁Yo	-11.7022
▁reviendra	-11.7023
▁client	-11.7024
▁congé	-11.7026
▁Sotti	-11.7028
▁nécessit	-11.7028
teer	-11.7028
▁comprend	-11.7032
▁gombo	-11.7033
▁Faal	-11.7034
▁daf	-11.7035
céder	-11.7036
▁moustique	-11.7037
▁militaire	-11.7037
▁chaussure	-11.7038
▁péché	-11.7039
▁soldat	-11.7039
▁distance	-11.7039
▁nombreuse	-11.7039
▁perçoi	-11.704
▁bouge	-11.7042
▁àttan	-11.7044
▁démo	-11.7044
▁wujj	-11.7045
ête	-11.7045
adult	-11.7045
▁mètre	-11.7045
▁yónn	-11.7046
ège	-11.7047
▁Confi	-11.7048
▁Léeb	-11.7048
▁sermon	-11.705
bét	-11.7052
wees	-11.7054
évent	-11.7058
▁moomee	-11.7059
▁sandale	-11.706
con	-11.706
ères	-11.706
▁devenue	-11.7063
▁fesse	-11.7065
▁yàkkamt	-11.7067
▁graine	-11.7067
▁rituel	-11.7069
oxandéem	-11.7069
▁sébb	-11.7072
▁mbemb	-11.7074
efare	-11.7079
off	-11.7084
▁Rii	-11.7086
accueil	-11.7089
▁bouc	-11.7092
▁métal	-11.7096
ob	-11.7097
▁acte	-11.7098
baxana	-11.7099
▁Peul	-11.71
▁européen	-11.7101
▁bàkk	-11.7102
óllëre	-11.7103
▁Tonn	-11.7104
umtukaay	-11.7105
▁message	-11.7106
▁tou	-11.7106
▁agress	-11.7107
▁ke	-11.7107
▁jége	-11.7107
▁dinañ	-11.7107
▁tó	-11.7109
▁Babungo	-11.7109
▁mien	-11.711
▁grillé	-11.7112
▁ŋgoogu	-11.7113
▁allumette	-11.7114
wér	-11.7115
État	-11.7115
politesse	-11.7116
▁firnde	-11.7116
rection	-11.7116
sultat	-11.7117
▁tradition	-11.7117
4	-11.7117
7	-11.7117
Adamawa	-11.7117
Israël	-11.7117
autorisation	-11.7117
bêche	-11.7117
calpel	-11.7117
oesophage	-11.7117
opérer	-11.7117
urgence	-11.7117
Ô	-11.7117
▁195	-11.7117
▁6	-11.7117
▁Accepte	-11.7117
▁Algérie	-11.7117
▁Bénuwe	-11.7117
▁Bëccëg	-11.7117
▁Cokkeer	-11.7117
▁Fields	-11.7117
▁Français	-11.7117
▁Israyel	-11.7117
▁Mohamed	-11.7117
▁Radiyasi	-11.7117
▁Saupoudre	-11.7117
▁Sokhna	-11.7117
▁Thiès	-11.7117
▁Trempe	-11.7117
▁Vingt	-11.7117
▁assimilé	-11.7117
▁bandoulière	-11.7117
▁banlieue	-11.7117
▁benkeñenke	-11.7117
▁bànxaas	-11.7117
▁cancrelats	-11.7117
▁caricatural	-11.7117
▁carrefour	-11.7117
▁chevelure	-11.7117
▁chiffon	-11.7117
▁chirurgi	-11.7117
▁châle	-11.7117
▁circoncire	-11.7117
▁climatiseurs	-11.7117
▁colostrum	-11.7117
▁converti	-11.7117
▁corrompu	-11.7117
▁costaud	-11.7117
▁crocodile	-11.7117
▁disciples	-11.7117
▁discrétion	-11.7117
▁dispositions	-11.7117
▁distinguer	-11.7117
▁documents	-11.7117
▁drôle	-11.7117
▁dysenterie	-11.7117
▁déedéet	-11.7117
▁effronté	-11.7117
▁faculté	-11.7117
▁fidélité	-11.7117
▁flûte	-11.7117
▁funèbre	-11.7117
▁grelotte	-11.7117
▁guitariste	-11.7117
▁gàngiri	-11.7117
▁générosité	-11.7117
▁gëtën	-11.7117
▁immeuble	-11.7117
▁impeccable	-11.7117
▁incessant	-11.7117
▁indisciplin	-11.7117
▁indécent	-11.7117
▁insignifiante	-11.7117
▁invisible	-11.7117
▁invulnérable	-11.7117
▁kaabaab	-11.7117
▁khôl	-11.7117
▁kurpeñ	-11.7117
▁kàndaŋ	-11.7117
▁latkoloñ	-11.7117
▁louanges	-11.7117
▁luxuriante	-11.7117
▁lépreux	-11.7117
▁mbaxane	-11.7117
▁minuscule	-11.7117
▁méthod	-11.7117
▁nguuka	-11.7117
▁obèse	-11.7117
▁oleifera	-11.7117
▁orgueil	-11.7117
▁paralytique	-11.7117
▁piqûre	-11.7117
▁possession	-11.7117
▁professeur	-11.7117
▁profession	-11.7117
▁projectile	-11.7117
▁prothèse	-11.7117
▁quotidienne	-11.7117
▁raccourci	-11.7117
▁resplendis	-11.7117
▁ressources	-11.7117
▁roppëlaan	-11.7117
▁répliqua	-11.7117
▁réputation	-11.7117
▁résignation	-11.7117
▁scandale	-11.7117
▁scrotale	-11.7117
▁spacieuse	-11.7117
▁sélébe	-11.7117
▁sévère	-11.7117
▁talentueux	-11.7117
▁technique	-11.7117
▁telefone	-11.7117
▁treize	-11.7117
▁tribales	-11.7117
▁vrombi	-11.7117
▁Éloigne	-11.7117
▁éveillé	-11.7117
▁ñànjaxeer	-11.7117
▁ófise	-11.7117
▁ŋalaab	-11.7117
▁gafaka	-11.7118
▁interverti	-11.7118
▁médiocr	-11.7118
▁proverbe	-11.7118
ébénier	-11.7118
▁Attrape	-11.7118
▁Kàttan	-11.7118
▁concubin	-11.7118
▁extralucide	-11.7118
▁gémir	-11.7118
▁naaféq	-11.7118
▁papillon	-11.7118
▁patates	-11.7118
▁pikiir	-11.7118
▁raisonnable	-11.7118
▁rassasi	-11.7118
▁râpe	-11.7118
▁réclame	-11.7118
▁violemment	-11.7118
instructions	-11.7118
▁Aïe	-11.7118
▁abcès	-11.7118
▁affluent	-11.7118
▁amélior	-11.7118
▁diminue	-11.7118
▁discrète	-11.7118
▁glacé	-11.7118
▁interrompu	-11.7118
▁irruption	-11.7118
▁jaloux	-11.7118
▁tàppandaar	-11.7118
▁biddanti	-11.7118
▁constituée	-11.7118
▁coudées	-11.7118
▁entorse	-11.7118
▁impuissant	-11.7118
▁njaaxum	-11.7118
▁prescrit	-11.7118
▁promesse	-11.7118
▁ridicule	-11.7118
▁totaux	-11.7118
▁avorté	-11.7118
▁ingénieux	-11.7118
▁njublaŋ	-11.7118
▁raciale	-11.7118
▁réparateur	-11.7118
▁enroulé	-11.7118
▁secrète	-11.7118
▁serviteurs	-11.7118
▁arbuste	-11.7118
▁liquide	-11.7118
escalad	-11.7118
▁Riwër	-11.7118
▁Tartar	-11.7118
▁corruption	-11.7118
▁mignon	-11.7118
▁misérable	-11.7118
▁virgule	-11.7118
▁Faranse	-11.7118
▁mollets	-11.7118
▁njukkal	-11.7118
▁ténia	-11.7118
▁vertige	-11.7118
▁Sunguf	-11.7118
▁journaux	-11.7118
▁kàmpa	-11.7118
▁mbiib	-11.7118
▁recouvert	-11.7118
▁véritable	-11.7118
▁xuréet	-11.7118
▁xéewal	-11.7118
▁éloigné	-11.7118
▁Saawusamton	-11.7118
▁yaradal	-11.7118
▁yéjje	-11.7118
▁sigaret	-11.7118
▁crapaud	-11.7118
▁dilapid	-11.7118
▁poobar	-11.7118
▁taariix	-11.7118
▁variole	-11.7118
Christ	-11.7118
▁Polisoŋ	-11.7118
▁colonisation	-11.7118
▁mouvement	-11.7118
▁comprimés	-11.7118
▁iróko	-11.7118
▁latérite	-11.7118
▁personnalité	-11.7118
▁merveille	-11.7118
emboît	-11.7118
▁njalbéen	-11.7118
▁salive	-11.7118
▁wokkatu	-11.7118
▁malentendu	-11.7118
▁sarica	-11.7118
▁galeries	-11.7118
▁étouffante	-11.7118
▁communauté	-11.7118
▁débarrasser	-11.7118
▁poids	-11.7118
▁Redresse	-11.7118
▁xereñ	-11.7118
▁suppose	-11.7118
▁Ajoute	-11.7118
▁Rafet	-11.7118
▁explication	-11.7118
▁toccami	-11.7118
▁bambara	-11.7118
▁délicieuse	-11.7118
enlaidi	-11.7118
▁Ndiaye	-11.7118
écurie	-11.7118
▁blotti	-11.7118
▁sculptés	-11.7118
▁xiibon	-11.7118
▁cuisinier	-11.7118
▁ginnax	-11.7118
▁boulevers	-11.7118
▁cinéma	-11.7118
▁coiffure	-11.7118
▁démange	-11.7118
▁reproche	-11.7118
▁victime	-11.7118
▁Alseri	-11.7118
▁différencie	-11.7118
▁plaindre	-11.7118
▁truc	-11.7118
▁déchirure	-11.7118
▁sëlmu	-11.7118
▁River	-11.7118
▁convoqué	-11.7118
▁Penku	-11.7118
▁batã	-11.7118
▁zéro	-11.7118
▁régner	-11.7118
▁injection	-11.7118
▁jégeñante	-11.7118
▁désordre	-11.7118
▁popula	-11.7118
▁Bénoué	-11.7118
▁impoli	-11.7118
▁insolen	-11.7118
▁gereew	-11.7118
▁Gambi	-11.7118
▁permission	-11.7118
▁sexuel	-11.7118
▁Méfie	-11.7118
▁moxoñ	-11.7118
▁pelouse	-11.7118
▁soulève	-11.7118
▁obligation	-11.7118
▁Remets	-11.7118
▁Gerte	-11.7118
▁Lébou	-11.7118
▁warugar	-11.7118
▁souffrir	-11.7118
▁sourate	-11.7118
▁allongé	-11.7118
▁baakaar	-11.7118
▁pacifi	-11.7118
▁taksi	-11.7118
▁initié	-11.7118
▁magnifique	-11.7118
▁rongoñ	-11.7118
▁verrue	-11.7118
▁gësëm	-11.7118
▁ŋexal	-11.7118
inquiète	-11.7118
▁jafandu	-11.7119
▁walbatiku	-11.7119
▁rañaan	-11.7119
▁ŋiis	-11.7119
▁janool	-11.7119
▁choeur	-11.7119
▁privé	-11.7119
▁fànn	-11.7119
endormir	-11.7119
▁prétendant	-11.7119
▁recoudre	-11.7119
▁entraîné	-11.7119
▁élancé	-11.7119
▁Fiild	-11.7119
▁repentir	-11.7119
▁rougeâtre	-11.7119
▁vallée	-11.7119
▁sucrée	-11.7119
▁apparaître	-11.7119
▁rammu	-11.7119
▁déborda	-11.7119
▁réchauffe	-11.7119
▁réconciliation	-11.7119
▁renvoyer	-11.7119
hiver	-11.7119
▁jàmbat	-11.7119
▁dignité	-11.7119
▁certitude	-11.7119
▁séparés	-11.7119
▁féewal	-11.7119
▁soppikoo	-11.7119
▁pataas	-11.7119
▁glace	-11.7119
▁malhonnête	-11.7119
▁Diop	-11.7119
▁percé	-11.7119
▁Teraanga	-11.7119
▁fluide	-11.7119
▁fourbe	-11.7119
▁pis	-11.712
▁Jànguloo	-11.712
▁xalima	-11.712
▁Hier	-11.712
▁triste	-11.712
▁wanteer	-11.712
▁garbo	-11.712
▁Kaamil	-11.712
▁défricher	-11.712
étagère	-11.712
▁mérou	-11.712
▁ndëpp	-11.712
▁borgne	-11.712
▁assassiné	-11.712
▁wesar	-11.712
▁coépouse	-11.712
▁jonkon	-11.712
▁jokkoo	-11.712
▁plantation	-11.712
▁haine	-11.712
▁Indiens	-11.712
▁tournant	-11.712
activité	-11.712
▁Gànnaar	-11.7121
▁gousse	-11.7121
▁rewle	-11.7121
▁cheville	-11.7121
▁salade	-11.7121
▁Niseer	-11.7121
▁njiitlaay	-11.7121
▁flanqu	-11.7121
▁maïs	-11.7121
▁renforc	-11.7121
▁kilifteef	-11.7121
▁vêtements	-11.7121
▁Mbuum	-11.7121
▁aimait	-11.7121
▁Àddina	-11.7121
▁transversale	-11.7121
▁mbonaat	-11.7121
▁niébé	-11.7121
▁sinemaa	-11.7121
▁saŋx	-11.7121
▁métallique	-11.7121
▁grue	-11.7121
▁lottal	-11.7121
▁barigo	-11.7121
▁Ijama	-11.7121
▁disparaître	-11.7121
▁Charge	-11.7122
▁noyyee	-11.7122
▁duuful	-11.7122
▁bavardage	-11.7122
▁suuxat	-11.7122
▁proue	-11.7122
▁taafant	-11.7122
▁naŋgu	-11.7122
▁làqarci	-11.7122
▁yoxoom	-11.7122
▁dormait	-11.7122
▁centimes	-11.7122
▁Pecc	-11.7122
▁bluffer	-11.7122
▁Yemal	-11.7122
▁rouille	-11.7122
▁orages	-11.7122
▁juuyoo	-11.7122
▁nappaaj	-11.7122
▁Mouille	-11.7122
▁xadar	-11.7122
▁mangions	-11.7123
▁yóos	-11.7123
▁ngoox	-11.7123
▁opprim	-11.7123
▁gayet	-11.7123
▁carafe	-11.7123
▁jujubes	-11.7123
▁naawtal	-11.7123
▁gagné	-11.7123
▁monument	-11.7123
ddiw	-11.7124
▁Mbootaay	-11.7124
▁inquiet	-11.7124
▁baadoolo	-11.7124
▁yàkki	-11.7124
▁tóoju	-11.7124
ree	-11.7124
▁ňoom	-11.7124
▁Niger	-11.7124
▁proie	-11.7124
▁yelloo	-11.7124
▁intelligent	-11.7124
▁cornet	-11.7124
taññ	-11.7124
▁cohabiter	-11.7124
▁politique	-11.7124
▁Waalo	-11.7125
▁sifflet	-11.7125
▁bêle	-11.7125
▁dévasté	-11.7125
▁Tënk	-11.7125
▁Déwén	-11.7125
▁arrivaient	-11.7125
▁vieillesse	-11.7125
▁calao	-11.7125
▁wéñ	-11.7125
▁faible	-11.7125
▁généralement	-11.7125
Dakaar	-11.7125
▁ndóbin	-11.7125
▁ràgg	-11.7126
▁cuq	-11.7126
oublierai	-11.7126
▁Yooyu	-11.7126
▁relève	-11.7126
▁vivaient	-11.7126
▁Yawut	-11.7126
▁brûlait	-11.7126
▁touché	-11.7126
▁grasse	-11.7126
▁pomme	-11.7127
▁kànja	-11.7127
▁kurus	-11.7127
baissé	-11.7127
▁profondeur	-11.7127
▁secoué	-11.7127
▁Jataŋ	-11.7128
▁sourcils	-11.7128
▁cassure	-11.7128
▁aspire	-11.7128
▁gâteaux	-11.7128
▁rhume	-11.7128
▁póot	-11.7128
▁péey	-11.7128
▁croyant	-11.7128
▁wëñ	-11.7128
▁tigi	-11.7128
▁Lëkkaay	-11.7128
▁yolom	-11.7129
▁xultu	-11.7129
▁njàmbal	-11.7129
▁figuier	-11.7129
pto	-11.7129
▁mijote	-11.713
▁geestu	-11.713
▁léger	-11.713
▁réfléchir	-11.713
▁Ràññ	-11.713
▁duggsee	-11.713
▁fëlë	-11.713
▁jéex	-11.713
▁gagner	-11.713
▁téereem	-11.7131
▁religieuse	-11.7131
▁fronde	-11.7131
▁taaxum	-11.7131
▁aboient	-11.7131
▁habillé	-11.7131
ignorance	-11.7131
▁Caabi	-11.7131
▁embarrassant	-11.7131
ouï	-11.7131
▁revend	-11.7132
▁redire	-11.7132
▁légèrement	-11.7132
▁Tubay	-11.7132
▁sémmiñ	-11.7132
mitation	-11.7132
▁courut	-11.7132
▁fàddu	-11.7132
▁Xaraf	-11.7132
▁féexlu	-11.7132
▁Lundi	-11.7132
▁mouiller	-11.7133
▁tremper	-11.7133
▁karaaf	-11.7133
▁goroŋ	-11.7133
▁troupeaux	-11.7133
▁Jóob	-11.7133
▁ongle	-11.7133
▁cuub	-11.7133
▁enflé	-11.7133
▁xalab	-11.7133
▁craquer	-11.7133
▁ràcc	-11.7133
▁remit	-11.7134
▁worma	-11.7134
▁xutt	-11.7134
▁rajoutes	-11.7134
▁folie	-11.7134
▁Sikket	-11.7134
▁moderne	-11.7134
▁conséquen	-11.7134
▁Aide	-11.7135
efface	-11.7135
▁travaillait	-11.7135
▁karne	-11.7135
▁njaw	-11.7135
▁rawale	-11.7135
▁rendons	-11.7135
▁gëmoon	-11.7136
▁semblait	-11.7136
▁abondante	-11.7136
▁kéwël	-11.7136
▁colons	-11.7136
▁Enfin	-11.7136
▁Wiyaa	-11.7136
▁transformé	-11.7136
▁waaso	-11.7137
▁guérisseur	-11.7137
▁Ngom	-11.7137
▁prisonnier	-11.7137
▁agricoles	-11.7138
▁incisives	-11.7138
▁reconnaître	-11.7138
▁difficilement	-11.7138
▁binage	-11.7138
▁taché	-11.7138
▁pecc	-11.7138
formation	-11.7138
▁Aadamawa	-11.7139
▁demkoonul	-11.7139
▁réjj	-11.7139
▁dëmm	-11.7139
▁soupir	-11.7139
▁gorilles	-11.7139
▁détacher	-11.714
▁prétexte	-11.714
▁revanche	-11.714
▁féticheur	-11.714
▁élégante	-11.714
▁miséricorde	-11.714
▁boucles	-11.714
▁équatoriale	-11.714
▁craquelée	-11.714
▁réchauffer	-11.714
▁Wéer	-11.714
▁devinette	-11.714
▁lugat	-11.714
▁réconcili	-11.714
▁pistes	-11.7141
▁bienfait	-11.7141
▁cherchait	-11.7141
▁kalaas	-11.7141
usine	-11.7141
▁bénéfice	-11.7141
▁mbaxanaam	-11.7141
▁yedd	-11.7141
▁visiteurs	-11.7142
njaan	-11.7142
tombe	-11.7142
▁Wekki	-11.7142
▁touristes	-11.7142
▁Dites	-11.7142
onnais	-11.7143
▁remonter	-11.7143
▁kàttanam	-11.7143
▁tijji	-11.7143
▁traitement	-11.7143
▁bày	-11.7143
▁raffiné	-11.7144
▁grillées	-11.7144
▁yéreem	-11.7144
▁lëm	-11.7144
▁remonte	-11.7144
▁heureuse	-11.7144
▁coquill	-11.7145
▁disperser	-11.7145
▁concert	-11.7145
épouser	-11.7145
▁protègent	-11.7146
▁dëkkandoom	-11.7146
▁justifi	-11.7146
▁bàkkaar	-11.7146
▁parlais	-11.7146
elokaan	-11.7146
▁héritier	-11.7146
▁tëll	-11.7146
▁ŋàdd	-11.7146
▁clairière	-11.7147
▁glorifi	-11.7147
▁attiré	-11.7147
▁ànduñu	-11.7148
▁yegsi	-11.7149
▁kókkali	-11.7149
▁déris	-11.7149
▁wërngalu	-11.7149
▁incite	-11.715
▁inventé	-11.715
▁fóon	-11.715
▁siiru	-11.715
▁utilis	-11.715
▁Jën	-11.7151
▁fouettera	-11.7151
▁laabiir	-11.7151
eetul	-11.7151
▁croc	-11.7152
index	-11.7152
gganti	-11.7152
▁défoncé	-11.7153
▁Teew	-11.7153
▁démonté	-11.7153
▁Abdu	-11.7154
▁yarlu	-11.7154
▁guddaay	-11.7155
▁Emili	-11.7155
▁Couvre	-11.7155
▁révélé	-11.7155
▁répéter	-11.7155
▁dalukaay	-11.7156
▁uuf	-11.7156
▁Tibb	-11.7156
tagne	-11.7156
▁baar	-11.7157
▁wutsi	-11.7157
▁njekk	-11.7157
égorge	-11.7157
▁Montar	-11.7158
▁plis	-11.7158
▁Biig	-11.7158
agace	-11.7158
▁wef	-11.7158
▁encerclé	-11.7158
rves	-11.7159
▁njariñam	-11.7159
▁seddul	-11.7159
iijaan	-11.7159
▁Sédd	-11.7159
▁reelu	-11.7159
▁tombait	-11.7159
▁yëddu	-11.716
▁circon	-11.716
▁fell	-11.716
▁repousse	-11.7161
▁génnaan	-11.7161
▁jélsi	-11.7161
▁sukku	-11.7161
▁sikkim	-11.7161
▁xuuf	-11.7162
▁ganej	-11.7162
▁habitudes	-11.7162
▁wiiri	-11.7162
▁yeeru	-11.7162
▁dédd	-11.7163
▁délic	-11.7163
▁respirer	-11.7163
▁wóorul	-11.7163
▁Bro	-11.7163
▁renard	-11.7163
▁couteaux	-11.7164
▁travaillent	-11.7164
demba	-11.7164
▁sakkan	-11.7164
▁danger	-11.7165
▁masque	-11.7165
▁frapperai	-11.7165
usure	-11.7165
▁baisse	-11.7165
▁touchent	-11.7165
▁Jaxaa	-11.7166
▁excité	-11.7166
▁mortel	-11.7166
▁remplir	-11.7166
▁samdi	-11.7166
▁goûté	-11.7166
▁mesuré	-11.7167
▁tóox	-11.7167
▁ramollisse	-11.7168
▁ancienne	-11.7168
▁dattes	-11.7169
▁plaintes	-11.7169
▁yërëm	-11.7169
raiment	-11.717
▁cueillir	-11.717
▁ngàll	-11.717
▁lointains	-11.7171
▁natale	-11.7172
▁mbañ	-11.7172
▁tiroirs	-11.7172
▁occultes	-11.7172
▁comestibles	-11.7172
▁margouillats	-11.7172
▁spirituels	-11.7172
▁rodd	-11.7172
▁bonbons	-11.7172
▁yéexal	-11.7172
▁événements	-11.7172
▁intens	-11.7172
▁Tóor	-11.7172
▁allumées	-11.7173
▁tembe	-11.7173
▁xél	-11.7173
▁nuuru	-11.7173
▁carence	-11.7174
▁pagaie	-11.7174
▁Fenn	-11.7174
▁weccee	-11.7174
▁Faisons	-11.7174
▁active	-11.7175
▁Bois	-11.7175
▁consacré	-11.7175
▁tiiñ	-11.7175
tèrent	-11.7175
▁giron	-11.7176
▁piir	-11.7176
▁suspendu	-11.7176
▁jaayaan	-11.7176
▁dënnam	-11.7176
orpheline	-11.7176
▁encombr	-11.7176
▁menton	-11.7177
▁parcours	-11.7177
▁Kari	-11.7177
▁mbooy	-11.7179
▁yafal	-11.7179
zar	-11.718
▁ganesi	-11.718
▁sanqal	-11.7183
▁nëx	-11.7183
▁brique	-11.7183
▁bàkku	-11.7183
▁Aca	-11.7183
▁toux	-11.7184
▁composé	-11.7184
▁Coono	-11.7185
▁chaussée	-11.7185
▁confier	-11.7185
▁njëmbët	-11.7186
▁yégle	-11.7186
▁léebal	-11.7186
▁défens	-11.7187
▁rongé	-11.7187
▁plancher	-11.7187
▁bague	-11.7187
examen	-11.7188
▁xewoon	-11.7188
▁millions	-11.7189
▁ligot	-11.7189
▁xumbal	-11.7189
▁contrebas	-11.719
spect	-11.7191
▁Fanaan	-11.7191
▁mbej	-11.7192
Louisien	-11.7192
▁tawee	-11.7192
▁griffé	-11.7194
▁poson	-11.7194
▁noonam	-11.7194
▁mâcher	-11.7194
mo	-11.7194
▁partez	-11.7195
▁kooba	-11.7196
▁giir	-11.7196
▁agréable	-11.7196
▁góob	-11.7196
▁consent	-11.7196
▁duuf	-11.7196
▁origines	-11.7197
▁xëccee	-11.7197
▁augmente	-11.7197
▁yàkkali	-11.7197
▁leerul	-11.7198
▁suivant	-11.7198
▁commentaire	-11.7198
▁étourdi	-11.7199
▁manies	-11.7199
▁Con	-11.7199
▁ruur	-11.7199
▁grouill	-11.7199
▁téq	-11.72
▁film	-11.7201
▁jëpp	-11.7201
▁Yëng	-11.7201
▁justice	-11.7202
▁éraflé	-11.7203
uel	-11.7203
▁nuage	-11.7203
▁nécessite	-11.7203
▁poose	-11.7204
ain	-11.7204
▁gland	-11.7205
▁tayal	-11.7205
▁convainc	-11.7206
▁crépi	-11.7206
▁Fàttewu	-11.7206
opération	-11.7206
▁ardo	-11.7206
▁xóll	-11.7207
▁sandales	-11.7207
▁obligations	-11.7208
▁butit	-11.7208
▁douze	-11.7208
▁Pardonne	-11.7208
▁utilisé	-11.7209
▁barewul	-11.7209
▁saakam	-11.7209
▁conservé	-11.7209
▁paradis	-11.7209
▁wërsëg	-11.7209
▁oignons	-11.721
▁nasax	-11.721
▁échelle	-11.7211
▁bourbouille	-11.7211
▁mbuusu	-11.7212
▁niróo	-11.7212
arrachait	-11.7213
▁souchet	-11.7214
mission	-11.7214
▁organisme	-11.7214
▁défend	-11.7214
▁weexaay	-11.7214
▁occupé	-11.7215
▁taaj	-11.7215
▁zé	-11.7215
▁résonner	-11.7216
▁xatal	-11.7217
▁contenu	-11.7218
▁saisir	-11.7219
▁gaana	-11.7221
▁dépe	-11.7222
▁magie	-11.7222
▁jaambaar	-11.7222
▁mortelle	-11.7222
▁ordinaire	-11.7224
▁feem	-11.7224
▁jéggal	-11.7224
▁européenne	-11.7225
▁Kaa	-11.7225
▁bec	-11.7225
▁Nguur	-11.7226
intiir	-11.7227
▁Raay	-11.7227
▁wund	-11.7227
lug	-11.7227
▁Tagg	-11.7227
▁abeilles	-11.7228
▁flotte	-11.7229
▁sonnee	-11.7229
▁exploit	-11.723
▁bandit	-11.723
▁sàppi	-11.7231
▁bijou	-11.7231
▁Ëndi	-11.7232
▁brouiller	-11.7232
▁formé	-11.7232
▁arête	-11.7232
▁Jëkk	-11.7234
▁xoox	-11.7234
▁nuire	-11.7236
▁sédd	-11.7236
arme	-11.7237
▁kur	-11.7237
▁ndawtal	-11.7239
▁wéetaay	-11.7239
impossib	-11.724
▁xul	-11.724
▁adapt	-11.7241
▁jébbale	-11.7241
▁transe	-11.7241
▁dammat	-11.7241
▁complets	-11.7241
▁Solal	-11.7242
▁dëgëral	-11.7242
▁palmiers	-11.7243
▁moustiquaires	-11.7243
▁incendie	-11.7243
allaitement	-11.7244
▁gàcce	-11.7244
▁tappale	-11.7244
▁veuille	-11.7244
▁Sikk	-11.7245
▁Ngoy	-11.7245
▁détail	-11.7246
▁joy	-11.7246
▁favoris	-11.7247
tuaire	-11.7247
▁ganale	-11.7249
▁sëng	-11.7249
▁ñawal	-11.7249
▁planches	-11.7251
▁débarqu	-11.7251
▁Neex	-11.7252
▁naqad	-11.7253
▁pond	-11.7253
▁jàllee	-11.7253
▁retournes	-11.7253
▁woyal	-11.7254
▁Suku	-11.7254
▁franco	-11.7254
▁soufflet	-11.7254
galaas	-11.7254
▁jafal	-11.7254
▁Leer	-11.7255
▁piquet	-11.7256
▁profiter	-11.7258
▁rappel	-11.7258
maar	-11.7259
▁jéndoon	-11.7262
comparable	-11.7263
▁étage	-11.7265
▁annoncer	-11.7265
▁bañee	-11.7266
▁méprise	-11.7266
▁Kàddu	-11.7267
▁gérer	-11.7267
▁confié	-11.7268
▁épines	-11.7268
▁Néegu	-11.7269
▁luxe	-11.7269
▁defarlu	-11.7269
▁disposé	-11.7271
▁sóobu	-11.7272
▁rév	-11.7272
lin	-11.7273
rum	-11.7274
▁sél	-11.7275
▁démarches	-11.7276
▁écarte	-11.7276
▁peuples	-11.7278
naissance	-11.7278
▁greniers	-11.7278
▁mensonges	-11.7278
▁mont	-11.7278
▁muuñ	-11.7279
àbbi	-11.7279
▁bà	-11.728
▁imagin	-11.728
gir	-11.7282
▁xon	-11.7282
▁différentes	-11.7282
▁bonul	-11.7282
raŋ	-11.7288
▁continue	-11.729
dits	-11.7291
▁sajj	-11.7291
▁croisés	-11.7291
▁Sës	-11.7292
▁yëngoo	-11.7292
▁conçus	-11.7293
▁tiitar	-11.7294
▁guddal	-11.7295
▁rép	-11.7298
▁épuis	-11.7299
▁Bitik	-11.7301
▁woote	-11.7302
▁appel	-11.7302
▁âgés	-11.7304
▁akara	-11.7308
▁dawee	-11.7309
▁soins	-11.7309
▁ndés	-11.731
▁faxas	-11.7313
▁défauts	-11.7313
▁filé	-11.7313
▁mbiram	-11.7313
▁magique	-11.7314
▁flèches	-11.7314
▁chaînes	-11.7314
▁miroirs	-11.7314
▁fàll	-11.7314
▁baatam	-11.7317
▁sortent	-11.7317
▁rapports	-11.7318
▁mott	-11.7318
attache	-11.7318
▁Colonie	-11.7319
▁différente	-11.7319
▁bàyyima	-11.732
▁siens	-11.7321
▁Gumb	-11.7321
▁sànneek	-11.7321
▁Ave	-11.7325
▁plantes	-11.7325
▁wéq	-11.7326
▁magum	-11.7326
▁rattaxal	-11.7327
llaay	-11.7327
▁casse	-11.7327
▁ressembler	-11.733
par	-11.733
▁Jéeg	-11.7331
▁anneau	-11.7332
▁wisit	-11.7333
▁dàqal	-11.7333
▁labat	-11.7334
▁entretien	-11.7334
▁chère	-11.7335
▁yàggee	-11.7335
▁buntam	-11.7335
▁Lonk	-11.7336
▁raax	-11.7336
▁prendras	-11.7338
▁refl	-11.7339
▁tape	-11.7339
emb	-11.7341
▁tempe	-11.7343
▁paume	-11.7343
reuse	-11.7344
▁songe	-11.7344
▁méchan	-11.7345
▁géant	-11.7346
▁wot	-11.7347
▁tëñëx	-11.7348
▁entrait	-11.7348
▁appartement	-11.7349
▁offre	-11.7349
▁àjji	-11.735
▁quartiers	-11.735
▁aigre	-11.735
▁étoile	-11.735
liku	-11.7351
▁leçons	-11.7352
▁taab	-11.7352
▁kumpa	-11.7352
▁soj	-11.7352
▁googa	-11.7353
▁sampu	-11.7353
issons	-11.7354
cu	-11.7354
ballax	-11.7355
bari	-11.7358
▁jóor	-11.7359
▁sañul	-11.7359
▁tasses	-11.7363
mène	-11.7364
▁boucher	-11.7364
▁pleures	-11.7364
ñéññ	-11.7366
▁Rase	-11.7367
▁pensées	-11.737
▁arrachée	-11.737
▁messie	-11.737
▁seef	-11.737
▁Góox	-11.7371
▁gang	-11.7371
▁toxal	-11.7372
▁paire	-11.7373
▁gât	-11.7374
▁tëx	-11.7376
rée	-11.7376
▁yombal	-11.7377
▁mësu	-11.738
▁entrave	-11.7381
▁sabaru	-11.7382
▁ëndi	-11.7383
▁ñàmb	-11.7384
▁cuillères	-11.7385
▁conditions	-11.7386
ekte	-11.7388
vis	-11.7388
▁fuuy	-11.7389
▁africaines	-11.7389
▁téene	-11.7392
▁pooj	-11.7392
▁objet	-11.7393
▁verts	-11.7393
▁aveugles	-11.7394
▁moomeel	-11.74
▁fem	-11.7401
duis	-11.7403
▁gëje	-11.7403
▁bóoy	-11.7404
▁Ex	-11.7404
▁étendue	-11.7405
▁Riis	-11.7405
▁laxal	-11.7405
▁meeb	-11.7405
immobilis	-11.7406
▁bindal	-11.7407
▁paye	-11.7409
▁ñukk	-11.7411
let	-11.7411
hari	-11.7414
▁lem	-11.7416
▁frappes	-11.7417
▁répare	-11.7422
▁moque	-11.7423
▁racontes	-11.7425
vois	-11.7426
▁tegoo	-11.7428
▁idées	-11.7428
cière	-11.7428
▁cuisiner	-11.7428
▁raté	-11.7429
▁waaru	-11.7431
interroge	-11.7432
▁Mësul	-11.7433
▁tëmb	-11.7434
▁Ngu	-11.7443
méro	-11.7444
▁léppam	-11.7446
▁organisé	-11.7449
▁Seeti	-11.7452
▁couchés	-11.7452
▁décoré	-11.7456
▁gubal	-11.7457
▁palissades	-11.7458
▁tombant	-11.746
ravo	-11.7461
▁rêves	-11.7463
▁Tuub	-11.7466
▁jarul	-11.7467
▁dajeel	-11.7469
exe	-11.7469
▁Mënu	-11.7472
▁futbal	-11.7473
▁égard	-11.7474
▁ñefe	-11.7474
▁Tee	-11.7474
▁jiitle	-11.7474
▁achet	-11.7476
▁suub	-11.7476
▁partirait	-11.7479
▁saraxe	-11.7479
▁fuit	-11.7483
▁Bariwu	-11.7483
attraper	-11.7487
▁nangul	-11.7488
▁lekkam	-11.7488
▁reçue	-11.7489
▁enclos	-11.749
▁espoir	-11.7492
▁Sérères	-11.7493
urant	-11.7493
▁soloo	-11.7494
▁Condui	-11.7494
▁interprète	-11.7494
ànjaŋ	-11.7504
▁defarkat	-11.7504
▁xelal	-11.7505
▁abuser	-11.7506
aari	-11.7507
▁Soppi	-11.7509
▁plaid	-11.7513
▁pouce	-11.7516
étache	-11.7518
▁confus	-11.7518
ol	-11.752
▁ruq	-11.752
oppaliku	-11.7524
▁dëkkoo	-11.7525
▁connus	-11.7525
▁résonn	-11.7526
▁leble	-11.7526
▁compati	-11.7527
▁mêler	-11.7527
▁Ngóo	-11.7528
▁dessine	-11.7528
▁histoire	-11.7528
▁yoll	-11.753
óob	-11.7533
▁màcc	-11.7533
▁Dunu	-11.7533
mburam	-11.7534
▁contrai	-11.7537
▁yaŋa	-11.7544
▁jaadu	-11.7544
▁Jël	-11.7545
▁Agsi	-11.7546
▁dàgga	-11.7546
ndul	-11.7546
▁Dio	-11.755
▁yakkal	-11.7555
▁xadde	-11.7559
▁jalouse	-11.756
▁enterr	-11.7562
▁connue	-11.7566
óol	-11.7568
▁aiguis	-11.7568
▁gamb	-11.757
▁xees	-11.757
ccaat	-11.7573
mall	-11.7573
aajo	-11.7575
▁xeeñal	-11.7576
▁destinat	-11.7577
▁mayul	-11.7577
▁Tontu	-11.7577
▁section	-11.7579
xaam	-11.758
▁Yée	-11.7581
▁complic	-11.7583
▁xos	-11.7585
▁pënde	-11.7589
▁gajaf	-11.7589
▁clés	-11.759
▁Njàng	-11.759
▁ràll	-11.7593
▁conven	-11.7594
▁broy	-11.7595
▁ndawal	-11.7595
▁feyul	-11.7597
▁souvenirs	-11.7601
▁tagg	-11.7601
▁Suis	-11.7602
▁he	-11.7602
▁kort	-11.7603
▁anecdote	-11.7603
atee	-11.7605
▁difficiles	-11.7606
▁maigri	-11.761
doŋ	-11.7615
▁Àkk	-11.7615
▁ver	-11.7615
▁emport	-11.7617
▁jàlle	-11.7617
▁fréquent	-11.7618
▁vieil	-11.762
▁allume	-11.762
▁ñettee	-11.7624
▁courba	-11.7624
▁maîtresse	-11.7626
▁newu	-11.7628
▁Foof	-11.763
▁relev	-11.7632
iser	-11.7633
▁taqal	-11.7635
▁souffl	-11.7636
▁amitié	-11.7637
▁soppe	-11.7648
if	-11.7649
▁faisai	-11.7653
▁enlev	-11.7653
▁erre	-11.7654
▁togge	-11.7654
kaa	-11.7655
jugub	-11.7657
▁briser	-11.7657
▁dons	-11.7659
▁salaat	-11.7659
▁Go	-11.7663
àggu	-11.7663
euses	-11.7667
▁coupés	-11.7671
▁jolies	-11.7672
▁kanna	-11.7676
▁sebe	-11.7684
jurukaay	-11.7688
▁rugi	-11.7689
▁amagul	-11.7692
érie	-11.7696
accepterai	-11.7699
▁béj	-11.77
▁assises	-11.7701
▁rusé	-11.7704
castés	-11.7704
élic	-11.7707
▁diri	-11.7707
▁Boy	-11.771
▁fru	-11.7717
▁dresser	-11.772
▁polis	-11.7721
▁jamu	-11.7725
▁Mori	-11.7727
▁turu	-11.7728
▁foison	-11.7734
ache	-11.7734
nqal	-11.7735
lika	-11.7736
▁tële	-11.7736
iisu	-11.7736
▁faat	-11.7737
sañ	-11.7741
angui	-11.7744
éegu	-11.7746
entreteni	-11.7746
▁irrit	-11.7749
▁sam	-11.775
▁canon	-11.7757
▁adopt	-11.7758
▁caŋ	-11.7764
tin	-11.7766
▁dàqa	-11.777
yee	-11.777
▁Tëng	-11.7774
▁leva	-11.7774
▁perce	-11.7774
▁langues	-11.7775
▁defante	-11.778
▁amène	-11.7781
▁nodd	-11.7784
▁yeel	-11.7786
lution	-11.7789
▁waxul	-11.779
▁tegle	-11.7791
▁combatt	-11.7791
atim	-11.7796
▁ngóora	-11.7797
▁cimenté	-11.7799
▁jéemant	-11.7801
essence	-11.7802
koonuñu	-11.7803
▁tromp	-11.7807
▁couler	-11.7811
▁renverse	-11.7816
▁colonie	-11.782
ification	-11.7821
▁Dog	-11.7822
▁Njaal	-11.7823
allonge	-11.7823
▁luxu	-11.7827
▁hurle	-11.7827
ger	-11.7827
▁Fàll	-11.7829
▁déf	-11.783
▁bols	-11.783
▁creus	-11.7834
▁allumer	-11.7839
▁offr	-11.7839
vre	-11.7841
▁Ndok	-11.7842
▁déplaisa	-11.7848
▁Kee	-11.7848
gard	-11.7852
▁demb	-11.7852
èle	-11.7853
▁Ñag	-11.7854
▁watu	-11.7857
ňeent	-11.7859
tribut	-11.7869
▁woor	-11.787
▁taire	-11.787
▁calcule	-11.7871
ller	-11.7874
▁sein	-11.7876
ho	-11.7877
▁suit	-11.7878
▁retire	-11.7881
▁Gàcce	-11.7883
▁prépar	-11.7889
▁opeereka	-11.7891
Làbbe	-11.7891
▁surveille	-11.7896
dons	-11.79
tendait	-11.7902
▁raas	-11.7905
nze	-11.7922
▁poutre	-11.7925
eaux	-11.7927
▁xàjj	-11.793
rél	-11.7931
▁frotter	-11.7938
▁meneen	-11.7943
raax	-11.7943
▁autrefois	-11.7944
atique	-11.7944
▁Ree	-11.7945
oŋŋ	-11.7951
érité	-11.7955
▁Tuñu	-11.7956
oolaa	-11.7961
▁Séex	-11.7962
▁wuuf	-11.7962
▁Yi	-11.7963
llaaji	-11.797
jàmbaar	-11.7971
v	-11.7973
akh	-11.7973
ron	-11.7973
▁tremble	-11.7977
▁emp	-11.7981
▁conv	-11.7983
▁épine	-11.7983
▁Sang	-11.7987
▁compl	-11.7988
▁Nou	-11.7989
▁Ngon	-11.7992
▁fabrique	-11.7992
▁paree	-11.8002
▁tabaxe	-11.8004
iti	-11.8005
occupera	-11.8008
ques	-11.8009
▁gallax	-11.801
▁appare	-11.8011
▁ailles	-11.802
▁agrandi	-11.8024
▁frapp	-11.8027
▁trouvée	-11.8029
ŋat	-11.803
▁compens	-11.8032
▁méfi	-11.8033
▁xarab	-11.8037
pulsé	-11.8045
▁gardes	-11.8047
aaki	-11.8048
▁o	-11.8051
acc	-11.8051
fant	-11.8053
amen	-11.8057
▁Lekku	-11.8058
▁xolu	-11.8058
▁noppalu	-11.8061
pain	-11.8062
ott	-11.8069
eti	-11.8073
jee	-11.8074
▁Nangu	-11.8077
▁gratt	-11.8078
▁médicale	-11.8079
▁réveill	-11.8086
▁gén	-11.8087
arñi	-11.8088
waaŋ	-11.8091
iakha	-11.8091
▁Sar	-11.8093
attax	-11.8097
ooñii	-11.8103
orsque	-11.8105
▁Bay	-11.8105
riété	-11.8105
araan	-11.8108
▁ker	-11.8109
▁ñaanal	-11.811
▁jéeg	-11.8112
anaa	-11.8116
▁jawwu	-11.8117
uloon	-11.8117
domodaa	-11.8121
▁bouse	-11.8122
▁purg	-11.8126
▁tamis	-11.8129
endue	-11.8132
▁prépares	-11.8133
awle	-11.8138
waare	-11.814
aane	-11.8143
▁dibi	-11.8145
▁Dou	-11.8148
▁saisi	-11.815
bra	-11.8153
▁një	-11.816
llet	-11.8166
oublies	-11.8168
filtre	-11.8174
▁Foor	-11.8174
arangue	-11.8177
▁jombu	-11.8178
▁doxale	-11.818
iltre	-11.8182
▁Firi	-11.8185
ours	-11.8186
nier	-11.8186
▁Autre	-11.8187
oxaan	-11.8192
▁léem	-11.8201
ettre	-11.8201
▁mars	-11.8202
▁Cite	-11.8204
envol	-11.8207
cé	-11.8208
exal	-11.8214
edaay	-11.8217
▁transport	-11.8218
orte	-11.8233
▁booboo	-11.8234
▁Jaf	-11.8244
enez	-11.8252
▁goor	-11.8253
guiss	-11.8253
èt	-11.8255
▁tombés	-11.8257
▁gué	-11.8257
▁gliss	-11.826
▁agir	-11.8269
▁Ànda	-11.827
▁lib	-11.8273
▁brûl	-11.8275
élève	-11.8279
▁écout	-11.8281
è	-11.8282
oyez	-11.8285
▁supp	-11.8299
▁moue	-11.83
▁yëgu	-11.8301
▁siti	-11.8303
uste	-11.8305
▁doyu	-11.8309
uusal	-11.8325
uezz	-11.8329
▁roo	-11.8331
▁canal	-11.8333
▁rë	-11.8338
▁gont	-11.8346
àllarb	-11.835
▁remettr	-11.8359
isol	-11.8359
▁captur	-11.8363
▁mber	-11.8365
kkee	-11.8366
▁bière	-11.8371
▁Q	-11.8384
apitaine	-11.8386
ançai	-11.8388
laient	-11.8398
appartien	-11.8399
poussiér	-11.8402
ération	-11.8404
llant	-11.8404
▁modd	-11.8407
▁arrives	-11.8407
▁violente	-11.8408
▁trempe	-11.8413
▁atam	-11.842
hn	-11.8427
▁Gara	-11.8428
tron	-11.8442
ignés	-11.8443
naires	-11.8443
▁pleuv	-11.8444
cir	-11.8446
gay	-11.845
utt	-11.8455
mmi	-11.8459
ppu	-11.8465
ér	-11.8468
oroxl	-11.8472
▁principale	-11.8475
mbaalu	-11.8475
▁déey	-11.8479
pis	-11.848
▁cuisines	-11.8481
▁baye	-11.8482
▁santal	-11.8486
▁mettiwul	-11.8488
taas	-11.8492
▁suffisante	-11.85
▁siit	-11.8509
▁retournera	-11.8511
▁tournée	-11.8515
▁turi	-11.8515
▁yóor	-11.852
▁install	-11.8521
▁grave	-11.8533
ënoon	-11.8535
▁duñ	-11.8541
▁Fum	-11.8542
▁tari	-11.8546
▁fier	-11.8549
▁revi	-11.8549
▁mépris	-11.8553
ndoll	-11.8554
urent	-11.8555
utér	-11.8559
▁moll	-11.8565
▁mang	-11.8565
▁bagarreu	-11.8566
▁Daw	-11.8567
▁dëggu	-11.8571
anoui	-11.8571
jal	-11.8571
écroul	-11.8586
▁dóo	-11.8587
▁écouta	-11.8602
▁rev	-11.8603
àng	-11.8605
▁Él	-11.8609
▁demandai	-11.8615
▁conc	-11.8618
▁odeur	-11.8622
ñoom	-11.8622
▁Ñent	-11.8624
mësa	-11.8627
▁soppul	-11.8634
▁dénu	-11.864
▁Kepp	-11.864
àndarma	-11.8641
▁chercha	-11.8641
detteel	-11.8645
▁pers	-11.8648
uuraay	-11.8654
trappe	-11.8655
▁tàggatoo	-11.8656
amuse	-11.8661
▁amer	-11.8668
mines	-11.8669
onk	-11.8673
▁joos	-11.8675
▁saan	-11.8681
▁Yà	-11.8685
niiw	-11.87
▁Nii	-11.871
lus	-11.872
▁naane	-11.8721
ugub	-11.8728
dée	-11.8731
▁Xay	-11.8735
▁kiir	-11.8755
ña	-11.8757
▁Daawul	-11.8763
▁xaal	-11.8772
▁fâch	-11.8781
maag	-11.8783
▁Av	-11.8789
axe	-11.8791
éjal	-11.8794
▁mène	-11.8795
ph	-11.8795
avane	-11.8795
▁hui	-11.8796
▁réparer	-11.8796
hère	-11.8797
▁exige	-11.8805
nes	-11.8812
▁Yar	-11.882
▁Waxa	-11.8822
▁prélev	-11.8831
we	-11.8834
ampoules	-11.8839
â	-11.8841
▁palp	-11.8847
rite	-11.8849
▁fëll	-11.8849
isole	-11.8854
▁étal	-11.8854
▁ben	-11.8857
▁ranc	-11.886
ebbe	-11.886
baru	-11.8866
nement	-11.8869
ëfal	-11.887
lax	-11.8873
▁frit	-11.8875
▁yàmba	-11.8875
bles	-11.8877
▁Në	-11.8877
nté	-11.8885
▁allai	-11.8889
▁recommencera	-11.8893
▁nëw	-11.8895
àngóor	-11.8896
amaale	-11.89
rab	-11.8904
awtan	-11.8907
▁Mak	-11.8908
▁Wer	-11.891
▁heurt	-11.891
agante	-11.8915
▁marchan	-11.8916
▁rii	-11.8919
▁côtés	-11.8931
▁Dée	-11.8932
▁Déca	-11.8935
▁caw	-11.8935
▁rouillé	-11.8939
▁bésu	-11.8942
▁Ti	-11.8944
qal	-11.8945
bedd	-11.8946
▁dà	-11.8948
rigue	-11.8948
▁fet	-11.8953
ët	-11.8957
▁mask	-11.896
̺ŋa	-11.8962
ubal	-11.8967
stique	-11.8971
▁Gil	-11.8986
àllaa	-11.8991
fara	-11.8992
▁Mbi	-11.9002
▁applique	-11.9006
▁laisserai	-11.9007
eefu	-11.9007
▁cul	-11.9011
▁ñoy	-11.9016
▁clou	-11.9019
▁sàtt	-11.9019
ttre	-11.902
ambaar	-11.9021
▁atte	-11.9021
onnée	-11.9022
▁néglige	-11.9024
▁détach	-11.9026
▁baraque	-11.9028
▁importe	-11.903
ame	-11.9032
▁Jeex	-11.9033
took	-11.904
▁Saba	-11.9044
▁signifie	-11.9044
▁total	-11.9046
▁takkandeer	-11.9049
mboo	-11.9049
oué	-11.9052
▁choi	-11.9053
jënd	-11.9063
gallax	-11.9067
▁xollit	-11.9078
▁empo	-11.9079
▁rit	-11.9079
mbu	-11.908
▁hé	-11.9083
▁vid	-11.9087
inka	-11.9089
▁fie	-11.9097
▁saura	-11.9097
colis	-11.9098
▁contracte	-11.91
interdits	-11.91
▁caf	-11.9104
gourdes	-11.9112
évente	-11.9112
▁déq	-11.9119
▁préc	-11.9119
lais	-11.9119
▁née	-11.9121
▁digaale	-11.9123
▁nuyoo	-11.9137
▁lent	-11.9138
aag	-11.9138
endorme	-11.9148
▁lux	-11.9151
andi	-11.9151
▁pouss	-11.9151
▁critique	-11.9152
▁fokk	-11.9153
che	-11.9155
▁adore	-11.9161
▁wer	-11.9176
ëdd	-11.9185
▁consta	-11.9185
▁Kóo	-11.9189
▁sàdd	-11.9198
èce	-11.9199
eeño	-11.9204
▁lepp	-11.9209
▁pomm	-11.921
▁nara	-11.9212
▁jà	-11.9217
▁Ñooñ	-11.9221
▁Bokku	-11.923
ntôt	-11.9242
ëq	-11.9242
yez	-11.9246
ciller	-11.9261
▁promen	-11.9263
buy	-11.9266
▁parcour	-11.9267
▁cachée	-11.9269
▁signifiai	-11.9271
▁wos	-11.9272
lay	-11.9278
awal	-11.9281
▁rentr	-11.9293
▁naax	-11.9293
ornes	-11.9294
▁Yuu	-11.9298
▁attribu	-11.9299
▁gré	-11.9315
▁Nuy	-11.933
▁Wal	-11.9345
rager	-11.9345
▁ragg	-11.9349
▁vraie	-11.9357
fay	-11.9363
▁att	-11.9366
▁dëdd	-11.9367
▁dugge	-11.9376
▁lo	-11.9386
▁Aie	-11.9391
ingue	-11.9394
▁châti	-11.9395
▁pé	-11.9399
▁écras	-11.9403
▁gr	-11.9404
▁Feya	-11.9426
▁Celle	-11.9432
lukaay	-11.9435
▁crue	-11.9437
▁Gej	-11.9437
▁koll	-11.9437
sion	-11.9444
▁cons	-11.9449
▁taaw	-11.945
ootul	-11.9454
▁donna	-11.9459
baax	-11.9462
rass	-11.9463
goo	-11.9463
▁mariera	-11.9464
▁direct	-11.9465
ëddal	-11.9469
▁Tooga	-11.9476
▁paresseu	-11.9493
atience	-11.9497
▁Toppu	-11.9499
▁cherch	-11.9505
▁wërale	-11.9509
ersi	-11.9509
▁senn	-11.9509
anal	-11.9511
▁dévers	-11.9514
▁Jub	-11.9521
▁bouscula	-11.9534
▁Saxa	-11.9539
rant	-11.954
▁Ñaaw	-11.9546
▁taxi	-11.9554
▁uns	-11.9554
▁rase	-11.9561
▁ador	-11.9564
ës	-11.9569
▁naw	-11.957
ors	-11.9582
▁Nëg	-11.9587
▁bokkoo	-11.9588
▁circule	-11.9589
tirer	-11.9592
▁tuya	-11.9599
▁déem	-11.9599
▁Do	-11.9609
▁xolli	-11.9615
xee	-11.9617
▁Boolee	-11.9645
raake	-11.965
po	-11.9654
▁accroch	-11.9655
▁détache	-11.966
▁nas	-11.9662
▁dib	-11.9666
▁puiss	-11.967
▁yéege	-11.967
▁Namm	-11.9671
▁Mal	-11.9672
▁caar	-11.9673
▁déchir	-11.9675
▁yé	-11.9675
▁rapproche	-11.9682
▁normale	-11.9684
uand	-11.9687
▁Tera	-11.9691
bras	-11.9693
eb	-11.9695
axndiku	-11.9704
▁détend	-11.9707
▁Pass	-11.9714
▁sé	-11.9715
▁fâche	-11.9717
▁louche	-11.9719
▁tuwaal	-11.972
far	-11.9721
▁voy	-11.9721
▁Xeet	-11.9724
béeru	-11.9724
▁Gene	-11.9729
▁plong	-11.9732
▁kes	-11.9752
▁Mos	-11.9758
rde	-11.9759
▁gé	-11.9764
venait	-11.9766
▁pleu	-11.9774
▁vain	-11.9777
lettes	-11.9777
▁tor	-11.9778
▁baaxu	-11.9787
▁gaspill	-11.9789
rmis	-11.9797
ong	-11.9799
▁null	-11.9806
▁gë	-11.9806
▁redout	-11.9807
▁gourde	-11.9807
▁pacc	-11.9808
▁xer	-11.9812
▁mbas	-11.9812
▁ampoule	-11.9815
ncé	-11.9815
▁partit	-11.9826
▁réere	-11.9828
tation	-11.9831
▁nugg	-11.9836
▁paré	-11.984
▁demandera	-11.9841
dànk	-11.9843
▁déclar	-11.9846
ip	-11.9847
train	-11.9847
▁Kar	-11.9849
▁añe	-11.9852
▁manul	-11.9852
tiques	-11.9862
▁sóor	-11.9862
▁jaŋ	-11.9871
axu	-11.9873
▁rouillée	-11.9876
gorn	-11.9883
cant	-11.9886
rotte	-11.9887
ing	-11.9891
▁sob	-11.9891
▁ava	-11.9892
▁entr	-11.9893
jot	-11.9895
▁ubb	-11.9898
pus	-11.9898
▁ngii	-11.9898
laires	-11.99
▁prostitue	-11.9904
engage	-11.9906
▁Ch	-11.9908
cif	-11.9915
▁koko	-11.9915
▁foto	-11.9921
▁See	-11.9921
▁Xob	-11.9923
biy	-11.9925
▁tri	-11.9925
▁Suñ	-11.993
rig	-11.9931
gante	-11.9937
▁brad	-11.995
▁termine	-11.9954
▁gain	-11.9954
ula	-11.996
▁dundal	-11.997
▁ngale	-11.9973
▁repouss	-11.9985
aleekum	-11.9985
▁gên	-11.9985
▁occup	-11.9986
ciel	-11.999
▁yaxu	-11.9992
ôt	-11.9995
▁agg	-11.9995
isse	-11.9996
▁jale	-11.9998
sam	-12.0001
étal	-12.0001
bre	-12.0005
▁cachai	-12.0009
ive	-12.0012
▁brill	-12.0012
erre	-12.0013
▁mbaaru	-12.0021
▁spéci	-12.0024
raquer	-12.0028
▁xej	-12.0029
▁Liy	-12.0039
▁bark	-12.0041
óom	-12.0043
▁prison	-12.0049
▁cax	-12.0051
écoupe	-12.0055
oppose	-12.0057
alalu	-12.0059
▁Tekki	-12.0062
▁jeng	-12.0064
▁tambaa	-12.0073
lavé	-12.0078
éef	-12.0079
gam	-12.0091
ëmbal	-12.0097
humili	-12.01
▁biiri	-12.0103
gourdi	-12.0105
ngo	-12.0107
▁larme	-12.011
bën	-12.0112
▁quitt	-12.0116
▁bagarre	-12.0123
uré	-12.0124
gguma	-12.0124
ston	-12.0127
▁pouv	-12.0137
atteindra	-12.0158
▁contente	-12.0159
▁sexe	-12.0165
▁taas	-12.0185
▁App	-12.0191
▁confin	-12.0195
▁Joue	-12.0196
▁épi	-12.0197
▁Kaas	-12.0199
édiction	-12.0203
tuwaale	-12.0205
senega	-12.0215
▁wëre	-12.0221
▁copp	-12.0228
▁voudra	-12.0228
anti	-12.0232
ressée	-12.0238
porté	-12.0244
▁tëkk	-12.0244
▁coo	-12.0254
▁rocci	-12.0261
▁texe	-12.0267
cre	-12.0267
▁survi	-12.0277
aax	-12.0288
▁principal	-12.0289
vu	-12.0295
▁vibre	-12.03
bat	-12.0302
osse	-12.0312
gui	-12.0312
▁xun	-12.0319
▁Bà	-12.0323
▁contract	-12.0324
ots	-12.0327
▁Um	-12.0327
óot	-12.0333
▁jaab	-12.0343
▁rencontr	-12.0343
eff	-12.0345
▁purifi	-12.0351
omp	-12.0355
▁pla	-12.0359
▁chauffe	-12.0359
sais	-12.036
▁Prend	-12.036
▁fël	-12.0389
▁poussée	-12.0392
ances	-12.0398
éré	-12.0403
▁parer	-12.0408
▁juboo	-12.0414
▁Kàcc	-12.0424
▁faale	-12.0425
bbal	-12.0429
▁daas	-12.0429
lbéen	-12.0431
▁ressembl	-12.0433
▁bri	-12.0435
▁digal	-12.0437
éri	-12.044
▁àkk	-12.044
aguma	-12.0447
▁Siis	-12.0448
▁Aj	-12.0451
▁rois	-12.0459
mag	-12.046
▁Roo	-12.046
ëti	-12.0472
▁jëli	-12.0475
ppi	-12.0477
jali	-12.0485
▁descente	-12.0487
ser	-12.049
▁réc	-12.0493
▁Serre	-12.0495
▁fourni	-12.0496
▁rug	-12.0504
ines	-12.051
P	-12.0511
ñal	-12.0511
uuj	-12.0512
▁waxatu	-12.0519
▁bac	-12.052
▁pion	-12.0522
▁boira	-12.0527
▁hu	-12.0529
▁polémique	-12.0529
iraas	-12.0535
épi	-12.0537
limaan	-12.0587
▁oppos	-12.0589
▁fecci	-12.0596
▁dàqee	-12.0596
aff	-12.0605
▁wë	-12.0611
▁naxante	-12.0624
foo	-12.063
hum	-12.0636
▁dëgm	-12.0641
▁Fai	-12.0643
▁permettra	-12.0665
ds	-12.0672
▁fronce	-12.0686
baa	-12.0687
▁ñàkke	-12.0689
mpa	-12.0691
etu	-12.0697
▁irai	-12.071
▁paroi	-12.0711
▁côt	-12.0711
▁suus	-12.0713
▁Kaj	-12.0714
axambaane	-12.0715
▁médical	-12.0726
▁confiden	-12.0731
issez	-12.0733
appellerai	-12.0737
ilège	-12.0743
ojj	-12.0754
▁Sax	-12.0756
▁regret	-12.0758
▁construis	-12.0763
utilis	-12.0772
▁gardée	-12.0779
ailles	-12.0782
▁Malheureu	-12.0785
ets	-12.0797
▁Waxul	-12.08
▁bl	-12.0801
▁Xë	-12.0803
▁brille	-12.0805
▁domp	-12.0807
ama	-12.0807
gàdd	-12.0811
▁ñañ	-12.0825
▁demeur	-12.0826
édd	-12.0827
axal	-12.0834
▁Monte	-12.0835
▁wuut	-12.0848
▁Décou	-12.0856
▁défi	-12.0856
▁Tuur	-12.0859
dola	-12.0864
▁brûlante	-12.0865
▁mbàpp	-12.0868
▁leb	-12.0878
▁connaiss	-12.0882
▁kaka	-12.0893
▁emprunt	-12.0894
xaan	-12.0908
ital	-12.0912
▁reto	-12.092
▁commissa	-12.092
lam	-12.0923
alaat	-12.0935
▁affront	-12.0935
bou	-12.0936
ñe	-12.0937
▁Allaa	-12.0938
▁Degg	-12.0938
▁conseil	-12.0938
▁yée	-12.094
leur	-12.0941
▁capit	-12.0946
▁farata	-12.0947
▁lew	-12.0952
▁musel	-12.0952
▁sauv	-12.0952
▁gaas	-12.0963
▁ndombo	-12.0968
▁gam	-12.0973
▁remise	-12.0977
▁Ñee	-12.098
mbali	-12.0984
rois	-12.0988
▁Nde	-12.0989
▁jig	-12.099
▁situ	-12.0992
orox	-12.0996
▁Ngé	-12.1
▁tribu	-12.1001
▁Gala	-12.1003
▁nà	-12.1007
▁fàttalik	-12.1012
gement	-12.1015
▁ñàkku	-12.1016
▁jay	-12.1017
▁consul	-12.1019
jiite	-12.1024
lées	-12.1025
▁toje	-12.1031
▁Jana	-12.1031
▁refusai	-12.1033
entend	-12.1035
▁oublie	-12.1036
éwén	-12.1036
boŋ	-12.1038
eçon	-12.1045
▁neb	-12.1047
imé	-12.1062
▁waas	-12.1068
▁préjudic	-12.1076
rén	-12.1076
▁Kaka	-12.1077
yi	-12.108
▁làppto	-12.1081
▁màbb	-12.1085
▁léj	-12.1086
▁Daj	-12.109
sum	-12.1092
▁sevr	-12.1094
▁Sooy	-12.1099
▁croi	-12.1099
ens	-12.1101
eru	-12.111
▁Màgga	-12.1114
nait	-12.1124
▁manqu	-12.1138
oût	-12.1147
ndaas	-12.1147
àkkat	-12.115
cents	-12.1152
ank	-12.1153
▁claqu	-12.1156
tëx	-12.1171
▁Doxa	-12.1172
▁remplis	-12.1175
▁rafete	-12.1185
▁trembl	-12.1188
arya	-12.1194
▁àlle	-12.1199
ancre	-12.1202
rude	-12.1204
▁jàmb	-12.1205
▁guus	-12.121
▁insoucian	-12.1211
ees	-12.1211
▁sembl	-12.122
jaratu	-12.122
cheter	-12.1221
aliku	-12.1225
▁ŋaa	-12.1225
▁vé	-12.1227
saient	-12.1229
▁Ŋgo	-12.1233
▁Cin	-12.1238
róon	-12.1244
▁gaw	-12.1244
▁fr	-12.1245
mball	-12.1247
▁bëgge	-12.1254
olof	-12.1255
quement	-12.1257
▁muut	-12.1261
ages	-12.1262
rions	-12.1263
▁lëng	-12.1266
▁pénétra	-12.1271
yyi	-12.1275
▁répond	-12.1282
▁xub	-12.1284
ssé	-12.1286
▁nenn	-12.129
▁gerc	-12.1295
▁tette	-12.1297
▁dàkka	-12.1298
▁seel	-12.1309
▁Yee	-12.131
▁tos	-12.1314
ouffant	-12.1314
▁tepp	-12.1316
inquiét	-12.132
neuses	-12.1322
▁jekkali	-12.1323
ëmmentu	-12.1327
▁Kó	-12.1333
occidentale	-12.134
empil	-12.135
mets	-12.1351
raan	-12.1355
afal	-12.1366
▁Toppa	-12.1366
▁déserte	-12.1373
▁démen	-12.1383
▁actuelle	-12.1384
S	-12.1384
andal	-12.1387
ouche	-12.1387
▁nekkal	-12.1397
▁désespér	-12.1398
▁Ñaare	-12.1408
isons	-12.1409
néeg	-12.1413
▁troubl	-12.1413
▁Wan	-12.1415
▁jibe	-12.1422
ñëw	-12.1424
▁vendue	-12.1424
▁honore	-12.1429
rer	-12.143
ask	-12.1435
ëriis	-12.144
▁tendu	-12.1444
▁waan	-12.1446
▁Dagga	-12.1448
▁trac	-12.1455
eries	-12.1455
▁suivai	-12.1459
ouvre	-12.1465
ccroche	-12.1473
emal	-12.1473
▁yégul	-12.1477
▁accueill	-12.148
ilité	-12.1482
ran	-12.1484
▁cang	-12.1486
nalité	-12.1487
N	-12.1487
téri	-12.1493
▁coupée	-12.1495
slaa	-12.1499
iwul	-12.1504
▁prév	-12.1508
vel	-12.1519
suuf	-12.1524
▁Defar	-12.1528
▁énergi	-12.153
marché	-12.1533
▁crach	-12.1534
mat	-12.1534
jéeg	-12.1538
lancent	-12.1549
▁law	-12.155
jag	-12.155
▁aigu	-12.1554
àggan	-12.1558
masi	-12.1559
aobab	-12.1561
▁bël	-12.1565
of	-12.1572
▁Cola	-12.1574
chauffé	-12.1574
▁occupe	-12.1579
▁Wute	-12.158
nopp	-12.158
iste	-12.1584
▁inex	-12.1586
▁jàngee	-12.1586
qata	-12.1595
verses	-12.1596
ira	-12.1596
▁paiera	-12.16
▁raxase	-12.1601
▁xaañ	-12.1601
ñépp	-12.1609
épie	-12.1612
▁Mbo	-12.1612
étroit	-12.1613
▁garden	-12.1614
▁échou	-12.1616
▁Cam	-12.1619
▁méc	-12.1622
▁remet	-12.1624
côté	-12.1627
fël	-12.1628
échapp	-12.1628
▁assailli	-12.163
geek	-12.1645
▁wéer	-12.1653
invent	-12.1653
jox	-12.1656
▁pl	-12.166
ewu	-12.1666
embarras	-12.1671
observe	-12.1674
▁pêch	-12.1675
alors	-12.168
forme	-12.168
Tubaab	-12.168
▁wéra	-12.1683
ancien	-12.1683
▁Piki	-12.1685
étincelle	-12.1685
oubli	-12.1687
dagg	-12.169
▁daggu	-12.1691
pël	-12.1692
soeur	-12.1695
pluies	-12.1695
eront	-12.1698
cinq	-12.1698
venir	-12.1699
avance	-12.17
diku	-12.1701
▁oblige	-12.1702
étudiant	-12.1703
▁nawe	-12.1703
▁fër	-12.1705
xiis	-12.1706
▁Gó	-12.1707
iction	-12.1708
écrire	-12.1714
accouchement	-12.1714
propre	-12.1716
inéluctable	-12.1719
influence	-12.172
accouchée	-12.1721
Dakar	-12.1723
nañu	-12.1723
uver	-12.1723
xorom	-12.1725
enlèvera	-12.1726
juddu	-12.1728
ëppaa	-12.1729
▁restera	-12.1732
▁weddi	-12.1733
dehors	-12.1735
19	-12.1737
solo	-12.1743
parfum	-12.1743
▁ndon	-12.1743
honnête	-12.1743
ouiller	-12.1744
entrave	-12.1747
effray	-12.1747
Y	-12.1747
arrache	-12.1748
étoile	-12.1749
attention	-12.175
café	-12.1751
appartement	-12.1751
tëñëx	-12.1752
oublie	-12.1752
calebasse	-12.1754
lla	-12.1754
màtt	-12.1754
kumpa	-12.1755
jaŋ	-12.1758
eeguñu	-12.1758
incendie	-12.1758
▁ñef	-12.1759
butéel	-12.176
jiitle	-12.1763
humeur	-12.1765
stitué	-12.1766
jàngoro	-12.1766
bëccëg	-12.1766
▁honor	-12.1768
njariñ	-12.1768
Acacia	-12.1768
US	-12.1769
kàttan	-12.1769
Aiya	-12.1769
mbaam	-12.1769
kilo	-12.177
féexal	-12.177
viendra	-12.1771
pattes	-12.1771
▁ceen	-12.1771
exemple	-12.1772
sept	-12.1773
ural	-12.1773
ëlëb	-12.1774
xosi	-12.1774
kersa	-12.1775
va	-12.1775
sànni	-12.1776
apprend	-12.1776
île	-12.1776
éprouve	-12.1777
xarit	-12.1777
cambar	-12.178
assiette	-12.178
ñaq	-12.178
▁tuer	-12.1782
ennemi	-12.1783
attacher	-12.1783
sori	-12.1785
étage	-12.1785
séex	-12.1785
▁détrui	-12.1786
ndombo	-12.1787
yaasa	-12.1788
épaisse	-12.1789
▁porterai	-12.1789
▁bouill	-12.179
▁ndi	-12.179
deret	-12.1792
▁Wot	-12.1793
plexe	-12.1794
▁habi	-12.1794
coté	-12.1796
rka	-12.1801
▁servira	-12.1801
▁préparai	-12.1802
▁but	-12.1803
▁Commence	-12.1806
waañ	-12.1807
futt	-12.1807
avancé	-12.1809
inspir	-12.1811
ykat	-12.1813
▁dîn	-12.1815
gris	-12.1817
▁Fasu	-12.1817
▁buu	-12.1817
▁firi	-12.1821
àgg	-12.1823
assé	-12.1824
▁pil	-12.1825
queue	-12.1826
arrivent	-12.183
duit	-12.1831
yo	-12.1832
▁Ngel	-12.1832
sedd	-12.1834
diine	-12.1834
oûte	-12.1835
▁sànnee	-12.1836
feti	-12.1836
exprim	-12.1837
▁jaf	-12.184
élever	-12.1843
▁ind	-12.1846
▁ge	-12.185
▁Masu	-12.1857
éduque	-12.1858
pax	-12.1859
▁coût	-12.1859
écorch	-12.186
éclat	-12.1861
golo	-12.1862
ume	-12.1866
utile	-12.1868
inst	-12.1869
woŋ	-12.1872
feu	-12.1873
entretien	-12.1874
habits	-12.1874
iitar	-12.1875
Africain	-12.1877
jaune	-12.1878
rëb	-12.1879
▁caus	-12.1888
▁naaje	-12.1891
enveloppe	-12.1895
▁wuñ	-12.19
nière	-12.1902
▁tango	-12.1902
▁riv	-12.1904
▁dîne	-12.1907
▁wote	-12.1909
bëtt	-12.1914
mbe	-12.1914
▁kéemaan	-12.1928
▁xelu	-12.1928
ongama	-12.193
▁débar	-12.193
▁personn	-12.1932
▁bibe	-12.1937
uwul	-12.1943
années	-12.1944
▁unis	-12.1948
▁sànk	-12.195
▁leew	-12.1952
▁hérit	-12.1953
éfique	-12.1957
urait	-12.1958
▁yeww	-12.1959
▁xënd	-12.1961
▁retrait	-12.1962
vivre	-12.1967
▁xàmm	-12.1973
dë	-12.1974
▁neveu	-12.1978
▁vomi	-12.1979
▁érafl	-12.198
considéra	-12.1981
médi	-12.1986
▁xér	-12.1986
▁oreill	-12.1988
ide	-12.1988
▁affol	-12.1989
jom	-12.199
▁Fr	-12.1998
▁kedd	-12.1999
▁griff	-12.2001
épile	-12.2001
ngale	-12.2001
▁flot	-12.2003
▁Daa	-12.2003
▁cuisin	-12.2012
▁Lorsqu	-12.2012
▁accouché	-12.2014
▁gratuit	-12.2015
▁nonchalant	-12.2016
écroche	-12.2016
▁animé	-12.2018
▁spermatozoïde	-12.2021
▁traditionnelle	-12.2021
▁pâturage	-12.2021
▁sportive	-12.2021
▁bouclier	-12.2021
▁endurci	-12.2021
bru	-12.2021
▁goyave	-12.2022
▁grimace	-12.2022
orphelin	-12.2022
▁morsure	-12.2023
gat	-12.2023
▁crabe	-12.2023
▁Fil	-12.2024
▁entassé	-12.2024
▁sànn	-12.2024
awaan	-12.2026
▁ruine	-12.2027
▁pneu	-12.2029
▁visible	-12.2029
▁veine	-12.2029
▁margouillat	-12.2029
▁comestible	-12.2029
▁spirituel	-12.2029
▁occulte	-12.2029
▁rejet	-12.203
wut	-12.2031
affût	-12.2031
▁ç	-12.2031
▁Demerara	-12.2031
▁lointain	-12.2033
▁privilège	-12.2033
ongtemps	-12.2034
▁kilomètre	-12.2035
▁vieillard	-12.2035
▁hamac	-12.2035
▁hanche	-12.2035
▁servant	-12.2036
insecte	-12.2036
entoure	-12.2037
▁chaussette	-12.2038
matu	-12.2038
▁semblable	-12.2039
▁tiroir	-12.2039
rrache	-12.2039
▁bonbon	-12.204
▁meuble	-12.2042
▁valet	-12.2043
▁berger	-12.2044
▁ndank	-12.2044
▁Biram	-12.2045
agrippe	-12.2045
▁diamant	-12.2046
oreilles	-12.2048
▁doxee	-12.2049
aram	-12.2049
▁cuisse	-12.205
major	-12.2052
arrêter	-12.2054
àllu	-12.2055
aaje	-12.2055
▁quatr	-12.2056
œu	-12.2057
▁conform	-12.2057
▁constip	-12.2059
▁laissa	-12.2059
▁jëfandik	-12.2059
▁concern	-12.206
▁blesse	-12.206
exila	-12.206
eral	-12.2061
▁fulaar	-12.2064
ruqu	-12.2065
▁provision	-12.2066
▁kókkal	-12.2066
▁riche	-12.2067
ences	-12.207
▁environ	-12.2071
▁wërngal	-12.2072
êle	-12.2072
gén	-12.2073
opérati	-12.2075
ivré	-12.2075
▁Che	-12.2075
▁agité	-12.2078
▁actuel	-12.2078
teg	-12.2082
éndal	-12.2082
▁Aadama	-12.2083
▁ngor	-12.2085
▁fóo	-12.2087
ultiver	-12.2087
aambur	-12.2088
▁Kowe	-12.2089
onsidère	-12.209
ilmaxa	-12.209
▁cé	-12.2092
érieux	-12.2093
act	-12.2093
bégte	-12.2095
ofeel	-12.2095
▁résiste	-12.2096
▁timi	-12.2097
▁réfléchi	-12.2098
▁roussi	-12.2099
Inde	-12.21
ënfandikoo	-12.2101
▁apport	-12.2101
àppaa	-12.2102
▁vét	-12.2103
▁Solda	-12.2103
▁berge	-12.2103
▁lijaasa	-12.2106
▁dévast	-12.2106
ssantes	-12.2107
▁ndën	-12.2107
▁Bernadet	-12.2107
▁détermin	-12.2107
racelet	-12.2108
ëmëx	-12.2108
rûle	-12.2109
résidents	-12.211
▁Camero	-12.2111
qarci	-12.2111
▁yegs	-12.2111
▁disparaît	-12.2111
▁proc	-12.2112
▁dépays	-12.2112
engrais	-12.2112
rofiter	-12.2112
ganu	-12.2112
▁positi	-12.2112
▁accél	-12.2114
accommode	-12.2114
▁coiff	-12.2114
àncax	-12.2114
▁complète	-12.2115
étouff	-12.2115
échauffe	-12.2115
▁futur	-12.2115
▁aff	-12.2116
àngam	-12.2116
▁inject	-12.2117
▁précipit	-12.2117
▁walbati	-12.2117
udduwaale	-12.2117
▁196	-12.2117
/	-12.2117
▁bougainvill	-12.2117
▁Z	-12.2117
anthropophag	-12.2117
▁Kupuru	-12.2117
▁bifurque	-12.2117
▁calomni	-12.2117
▁consanguin	-12.2117
▁déclench	-12.2117
▁dégingandé	-12.2117
▁folklor	-12.2117
▁handicapé	-12.2117
▁héroï	-12.2117
▁infranchissable	-12.2117
▁permangana	-12.2117
▁riccamt	-12.2117
▁régurgit	-12.2117
▁touffu	-12.2117
Allemagne	-12.2117
accroupi	-12.2117
albumine	-12.2117
appuyer	-12.2117
awanpoor	-12.2117
cohérent	-12.2117
congelé	-12.2117
effaçait	-12.2117
emmitoufl	-12.2117
englouti	-12.2117
euphorbe	-12.2117
hadji	-12.2117
harmattan	-12.2117
hippopotame	-12.2117
indefondi	-12.2117
infirmière	-12.2117
inkilibaa	-12.2117
intimité	-12.2117
intérêt	-12.2117
occiput	-12.2117
proportion	-12.2117
raisemblablement	-12.2117
stafirlaa	-12.2117
ubérante	-12.2117
È	-12.2117
égoutter	-12.2117
épervier	-12.2117
épluchures	-12.2117
▁1913	-12.2117
▁1914	-12.2117
▁1939	-12.2117
▁1940	-12.2117
▁Bayruut	-12.2117
▁Cawnpore	-12.2117
▁Corporation	-12.2117
▁Cymbium	-12.2117
▁Dispañseer	-12.2117
▁Duwaalaa	-12.2117
▁Désormais	-12.2117
▁Foumban	-12.2117
▁Hoggar	-12.2117
▁Hérode	-12.2117
▁Kamakusa	-12.2117
▁Kishong	-12.2117
▁Kwaja	-12.2117
▁Kótónu	-12.2117
▁Londres	-12.2117
▁Memfo	-12.2117
▁Normàndi	-12.2117
▁Petroleum	-12.2117
▁Répète	-12.2117
▁Sadiola	-12.2117
▁Senghor	-12.2117
▁Tokyo	-12.2117
▁Touareg	-12.2117
▁Tàcculeen	-12.2117
▁Yoroubas	-12.2117
▁absorb	-12.2117
▁admirable	-12.2117
▁alaateret	-12.2117
▁alfunni	-12.2117
▁ambassade	-12.2117
▁amygdales	-12.2117
▁appartenaient	-12.2117
▁armiňoŋ	-12.2117
▁aubergine	-12.2117
▁audacieux	-12.2117
▁bejjaaw	-12.2117
▁bilimbaane	-12.2117
▁broussaille	-12.2117
▁bànqaas	-12.2117
▁béntéñe	-12.2117
▁calvitie	-12.2117
▁capricieux	-12.2117
▁carapaces	-12.2117
▁carrelage	-12.2117
▁catastrophes	-12.2117
▁cavalier	-12.2117
▁caïlcédrat	-12.2117
▁charitable	-12.2117
▁charlatan	-12.2117
▁chevreau	-12.2117
▁chiffres	-12.2117
▁châteaux	-12.2117
▁clampser	-12.2117
▁clitoris	-12.2117
▁cohorte	-12.2117
▁conception	-12.2117
▁constitution	-12.2117
▁contrôle	-12.2117
▁cormoran	-12.2117
▁corresponde	-12.2117
▁corrompre	-12.2117
▁crevettes	-12.2117
▁cunkóor	-12.2117
▁célébr	-12.2117
▁disloqua	-12.2117
▁distingué	-12.2117
▁doléances	-12.2117
▁dommages	-12.2117
▁débroussaille	-12.2117
▁déformée	-12.2117
▁délibéré	-12.2117
▁désordonnée	-12.2117
▁déséquilibrée	-12.2117
▁dévoré	-12.2117
▁embelli	-12.2117
▁endommagé	-12.2117
▁enrôlé	-12.2117
▁exaspéré	-12.2117
▁faraňse	-12.2117
▁fentaakoon	-12.2117
▁formidable	-12.2117
▁foxoj	-12.2117
▁fracassé	-12.2117
▁fromager	-12.2117
▁frôlé	-12.2117
▁féroces	-12.2117
▁gouttière	-12.2117
▁goyavier	-12.2117
▁gringalet	-12.2117
▁généreuse	-12.2117
▁harcèle	-12.2117
▁horizon	-12.2117
▁hérissé	-12.2117
▁inadvertance	-12.2117
▁incombe	-12.2117
▁indolore	-12.2117
▁inflexible	-12.2117
▁inscription	-12.2117
▁insuffle	-12.2117
▁jàmmaarloo	-12.2117
▁jébbaane	-12.2117
▁kemtalaayu	-12.2117
▁kitikaŋ	-12.2117
▁kópp	-12.2117
▁luqnjuur	-12.2117
▁lèpre	-12.2117
▁mafñàndu	-12.2117
▁malléole	-12.2117
▁mandibules	-12.2117
▁marionnette	-12.2117
▁marécages	-12.2117
▁mausolée	-12.2117
▁mbów	-12.2117
▁migraines	-12.2117
▁migrateurs	-12.2117
▁mâchoire	-12.2117
▁navigu	-12.2117
▁ndarakàmm	-12.2117
▁njaxlaf	-12.2117
▁njogonal	-12.2117
▁njàmburam	-12.2117
▁njériñ	-12.2117
▁nuptiale	-12.2117
▁obstacle	-12.2117
▁obtenu	-12.2117
▁ordisawel	-12.2117
▁palabres	-12.2117
▁palissandre	-12.2117
▁patienter	-12.2117
▁pessimisme	-12.2117
▁pessimiste	-12.2117
▁pharmacie	-12.2117
▁pidgin	-12.2117
▁pikini	-12.2117
▁principes	-12.2117
▁prodige	-12.2117
▁promiscuité	-12.2117
▁protégé	-12.2117
▁punaises	-12.2117
▁python	-12.2117
▁pàpaaya	-12.2117
▁pédophilie	-12.2117
▁pëqéet	-12.2117
▁póliti	-12.2117
▁pótit	-12.2117
▁rapiécé	-12.2117
▁reconstituer	-12.2117
▁rectiligne	-12.2117
▁redorer	-12.2117
▁renvoyé	-12.2117
▁retiendra	-12.2117
▁revêtu	-12.2117
▁ronchonne	-12.2117
▁ràŋŋatik	-12.2117
▁résisté	-12.2117
▁résoudre	-12.2117
▁rëppéel	-12.2117
▁rósi	-12.2117
▁sarwiis	-12.2117
▁saupoudr	-12.2117
▁seytaane	-12.2117
▁soubresauts	-12.2117
▁strident	-12.2117
▁surprenant	-12.2117
▁sànjaafu	-12.2117
▁taajabóon	-12.2117
▁taalibeem	-12.2117
▁takkarnaase	-12.2117
▁talaabiir	-12.2117
▁trafic	-12.2117
▁tragique	-12.2117
▁trottoir	-12.2117
▁trébuche	-12.2117
▁tubercule	-12.2117
▁tulaabéer	-12.2117
▁turbulence	-12.2117
▁vétérinaire	-12.2117
▁waasintóor	-12.2117
▁waŋŋeetu	-12.2117
▁xoñoñ	-12.2117
▁yërmaande	-12.2117
▁zizanie	-12.2117
▁Àjjuma	-12.2117
▁émissaire	-12.2117
▁énormément	-12.2117
▁éreinté	-12.2117
▁ótó	-12.2117
abîm	-12.2118
espiègle	-12.2118
ègre	-12.2118
égoïs	-12.2118
▁Armeel	-12.2118
▁Kikuyu	-12.2118
▁Pensées	-12.2118
▁Présent	-12.2118
▁Soccet	-12.2118
▁apaisée	-12.2118
▁argument	-12.2118
▁association	-12.2118
▁bestiaux	-12.2118
▁bilharzi	-12.2118
▁cambré	-12.2118
▁caméléon	-12.2118
▁chapitre	-12.2118
▁dortoirs	-12.2118
▁douloureuse	-12.2118
▁décomposition	-12.2118
▁dédommage	-12.2118
▁dépréci	-12.2118
▁dérangé	-12.2118
▁dévorant	-12.2118
▁employés	-12.2118
▁foufou	-12.2118
▁gaanuwaay	-12.2118
▁gapparu	-12.2118
▁gecko	-12.2118
▁gourmand	-12.2118
▁introdu	-12.2118
▁kerewol	-12.2118
▁kàbbar	-12.2118
▁laspeer	-12.2118
▁léthargi	-12.2118
▁lëñbët	-12.2118
▁molleton	-12.2118
▁mërgalu	-12.2118
▁nervure	-12.2118
▁paddaañ	-12.2118
▁parisienne	-12.2118
▁propriété	-12.2118
▁pustules	-12.2118
▁reewaande	-12.2118
▁ruggéeku	-12.2118
▁réplique	-12.2118
▁répudi	-12.2118
▁saumâtre	-12.2118
▁seekeeg	-12.2118
▁souffert	-12.2118
▁sournois	-12.2118
▁soviétique	-12.2118
▁succès	-12.2118
▁surexcité	-12.2118
▁taquiner	-12.2118
▁volontaire	-12.2118
▁écarquill	-12.2118
▁émoussé	-12.2118
▁épidémie	-12.2118
▁épingle	-12.2118
▁évidence	-12.2118
nɛ	-12.2118
ranchement	-12.2118
étancher	-12.2118
▁Rolex	-12.2118
▁absurde	-12.2118
▁assommé	-12.2118
▁canapé	-12.2118
▁climat	-12.2118
▁confession	-12.2118
▁désenfl	-12.2118
▁emphase	-12.2118
▁excisée	-12.2118
▁fretin	-12.2118
▁guimbarde	-12.2118
▁hoquet	-12.2118
▁matériel	-12.2118
▁menuisier	-12.2118
▁provisoire	-12.2118
▁responsabilité	-12.2118
▁rogations	-12.2118
▁sacrifi	-12.2118
▁short	-12.2118
▁soliloque	-12.2118
▁verticale	-12.2118
▁économi	-12.2118
▁Futbal	-12.2118
▁Palestin	-12.2118
▁barsàq	-12.2118
▁calamité	-12.2118
▁croissance	-12.2118
▁divulgue	-12.2118
▁jàmmarloo	-12.2118
▁obstiné	-12.2118
▁panaris	-12.2118
▁percept	-12.2118
▁teqalikoo	-12.2118
▁xurfaan	-12.2118
▁Àbbaa	-12.2118
▁excellent	-12.2118
▁rassurant	-12.2118
▁rôti	-12.2118
appétit	-12.2118
effondr	-12.2118
gëjjëx	-12.2118
ovule	-12.2118
èbres	-12.2118
ébène	-12.2118
▁Angalteer	-12.2118
▁accoucher	-12.2118
▁ballarñi	-12.2118
▁bruyante	-12.2118
▁caïd	-12.2118
▁généralisée	-12.2118
▁njaaxaanaay	-12.2118
▁patients	-12.2118
▁prolonge	-12.2118
áa	-12.2118
▁Kaburi	-12.2118
▁Ndeysaan	-12.2118
▁Tàmbali	-12.2118
▁Yàkkamtiwuñu	-12.2118
▁gymnas	-12.2118
▁implora	-12.2118
▁tremblote	-12.2118
▁témoign	-12.2118
▁évacu	-12.2118
Ermeno	-12.2118
▁Finissez	-12.2118
▁Féexal	-12.2118
▁Ibada	-12.2118
▁aménage	-12.2118
▁caprice	-12.2118
▁désapprouv	-12.2118
▁fentaakon	-12.2118
▁gàngune	-12.2118
▁interruption	-12.2118
▁margelle	-12.2118
▁répugne	-12.2118
▁xàññaaral	-12.2118
▁yërëmtalu	-12.2118
▁brèche	-12.2118
▁coranique	-12.2118
▁toftal	-12.2118
▁1938	-12.2118
▁blanchâtre	-12.2118
▁confronté	-12.2118
▁féetale	-12.2118
▁littéra	-12.2118
▁mourut	-12.2118
▁ndékkee	-12.2118
▁pincée	-12.2118
▁pâtir	-12.2118
▁scrut	-12.2118
▁Afirig	-12.2118
▁Lëmës	-12.2118
▁Tudduma	-12.2118
▁chevauche	-12.2118
▁discours	-12.2118
▁hypo	-12.2118
▁mbootaay	-12.2118
▁obole	-12.2118
amadoue	-12.2118
▁cawarte	-12.2118
▁courtaud	-12.2118
▁exquis	-12.2118
▁itinérant	-12.2118
▁Albura	-12.2118
▁Ngàngoor	-12.2118
▁aubaine	-12.2118
▁baptis	-12.2118
▁bloc	-12.2118
▁décider	-12.2118
▁indifférent	-12.2118
▁manchot	-12.2118
▁menaçant	-12.2118
▁ngonnal	-12.2118
▁pólis	-12.2118
▁vaincu	-12.2118
▁Teeylu	-12.2118
▁précisément	-12.2118
▁rangooñ	-12.2118
▁satiété	-12.2118
▁scarification	-12.2118
céphal	-12.2118
enfuit	-12.2118
▁mesquin	-12.2118
▁ndeetel	-12.2118
▁relief	-12.2118
▁rogoj	-12.2118
▁sàllarñi	-12.2118
▁vigoureu	-12.2118
▁décoché	-12.2118
▁1900	-12.2118
▁1932	-12.2118
▁carrossable	-12.2118
▁dédaigne	-12.2118
▁galéj	-12.2118
▁mauricien	-12.2118
▁suscité	-12.2118
▁Remue	-12.2118
▁abondance	-12.2118
▁cotisera	-12.2118
▁deppaas	-12.2118
▁permanent	-12.2118
▁pijin	-12.2118
▁Mbembe	-12.2118
▁nurool	-12.2118
▁téen	-12.2118
▁écume	-12.2118
innocen	-12.2118
▁Dirige	-12.2118
▁pépin	-12.2118
▁Londar	-12.2118
▁Sérigne	-12.2118
▁débrouillard	-12.2118
▁écoulé	-12.2118
▁déferle	-12.2118
▁tasaare	-12.2118
▁victoire	-12.2118
urtica	-12.2118
▁Godag	-12.2118
▁concassé	-12.2118
▁gangrène	-12.2118
▁gloire	-12.2118
▁imposé	-12.2118
▁yelleef	-12.2118
▁austère	-12.2118
gurbaan	-12.2118
▁Javel	-12.2118
▁furtivement	-12.2118
▁occidentaux	-12.2118
▁égratignure	-12.2118
▁Bakalu	-12.2118
▁docile	-12.2118
▁maasàllaa	-12.2118
▁mulâtre	-12.2118
▁nullard	-12.2118
hymne	-12.2118
▁inaccessible	-12.2118
▁réflexion	-12.2118
interstice	-12.2118
jaillir	-12.2118
▁Taalif	-12.2118
▁sotteegul	-12.2118
▁yoloos	-12.2118
▁génital	-12.2118
▁rebrouss	-12.2118
engraisser	-12.2118
▁Féetale	-12.2118
▁dépôt	-12.2118
▁yàmboŋ	-12.2118
▁àjjuma	-12.2118
▁tempête	-12.2118
daaxër	-12.2118
▁Chérie	-12.2118
▁bundux	-12.2118
▁jàkkarloo	-12.2118
▁ŋàppati	-12.2118
▁beerso	-12.2118
▁conjoint	-12.2118
obscurité	-12.2118
▁bambou	-12.2118
▁buisson	-12.2118
▁dévoil	-12.2118
▁marõ	-12.2118
▁njombor	-12.2118
▁calleuses	-12.2118
cesseur	-12.2118
móoyu	-12.2118
ujjóot	-12.2118
ñettee	-12.2118
▁badamier	-12.2118
▁salliir	-12.2118
▁birrea	-12.2118
▁carreaux	-12.2118
▁ndagaan	-12.2118
▁xayadi	-12.2118
▁bastonn	-12.2118
▁taaxuraan	-12.2118
▁wolandoo	-12.2118
▁Bokas	-12.2118
▁cellule	-12.2118
▁crochu	-12.2118
▁herbeuses	-12.2118
▁distendu	-12.2118
▁guerrières	-12.2118
▁tiède	-12.2118
▁àntuwul	-12.2118
▁sursaut	-12.2118
hygiène	-12.2118
▁précipitèrent	-12.2118
▁Descend	-12.2118
▁nombril	-12.2118
▁irritable	-12.2118
▁yorouba	-12.2118
achever	-12.2118
hospitalité	-12.2118
▁brutalité	-12.2118
▁wësin	-12.2118
▁disparaissait	-12.2118
▁promptement	-12.2118
▁retournant	-12.2118
▁sexuellement	-12.2118
▁xuuxaan	-12.2118
▁ngànt	-12.2118
▁ràddi	-12.2118
accumul	-12.2118
▁transmis	-12.2118
alimentés	-12.2118
aplati	-12.2118
▁faucher	-12.2118
identité	-12.2118
kànkarla	-12.2118
▁canards	-12.2118
▁désigne	-12.2118
▁péŋŋ	-12.2118
égorgé	-12.2118
▁comblé	-12.2118
▁déshonneur	-12.2118
▁jàkkaarloo	-12.2118
▁protect	-12.2118
▁saaloñ	-12.2118
uumandaat	-12.2118
▁saillant	-12.2118
jaatige	-12.2118
▁Mettez	-12.2118
▁ombrageux	-12.2118
enfuir	-12.2118
▁hérisson	-12.2118
▁ndawràbbin	-12.2118
▁siyaare	-12.2118
▁élections	-12.2118
aawtéef	-12.2118
▁repens	-12.2118
▁wommat	-12.2118
▁Bawop	-12.2118
▁tourmente	-12.2118
▁àjjana	-12.2118
▁altern	-12.2118
▁daxin	-12.2118
▁Toujours	-12.2118
▁sécrét	-12.2118
▁valise	-12.2118
▁contamin	-12.2118
▁dàkkental	-12.2118
▁uppukaay	-12.2118
▁batañse	-12.2118
univers	-12.2118
▁dénicher	-12.2118
▁sermonné	-12.2118
pëti	-12.2118
▁Njuumte	-12.2118
▁imprim	-12.2118
▁friture	-12.2118
▁administrative	-12.2118
▁côtière	-12.2118
▁Daraame	-12.2118
▁double	-12.2118
▁raadu	-12.2118
▁rumine	-12.2118
▁xàmpi	-12.2118
▁dartres	-12.2118
▁jabraan	-12.2118
▁pentuur	-12.2118
▁Gunge	-12.2118
▁félicite	-12.2118
▁sédenta	-12.2118
▁Walbati	-12.2118
éliba	-12.2119
▁irokos	-12.2119
▁Accra	-12.2119
▁grammes	-12.2119
▁trombe	-12.2119
beau	-12.2119
▁accusation	-12.2119
▁œufs	-12.2119
▁rembet	-12.2119
jooylu	-12.2119
▁bourgeo	-12.2119
▁amoureuse	-12.2119
▁Ogaar	-12.2119
autobus	-12.2119
▁wëraalu	-12.2119
▁xuuge	-12.2119
▁informations	-12.2119
étonnement	-12.2119
▁profondément	-12.2119
▁keww	-12.2119
émeut	-12.2119
▁bivoua	-12.2119
▁nettoie	-12.2119
▁sëppéen	-12.2119
▁tranchant	-12.2119
▁crinière	-12.2119
▁énonc	-12.2119
▁fermenté	-12.2119
▁Appuie	-12.2119
▁rajout	-12.2119
▁Junni	-12.2119
▁carnet	-12.2119
▁paître	-12.2119
ternité	-12.2119
▁ruade	-12.2119
adouci	-12.2119
▁lëmës	-12.2119
▁nylon	-12.2119
Laper	-12.2119
expliqu	-12.2119
▁broder	-12.2119
▁moket	-12.2119
houette	-12.2119
▁mottaliku	-12.2119
ññi	-12.2119
▁houe	-12.2119
▁voisinage	-12.2119
▁inouï	-12.2119
▁Gesam	-12.2119
▁bisaab	-12.2119
▁intégralement	-12.2119
▁Kinne	-12.2119
▁alamaan	-12.2119
▁kanaara	-12.2119
emballe	-12.2119
▁Vitex	-12.2119
▁toussote	-12.2119
▁wëttéen	-12.2119
▁ñambaan	-12.2119
▁Pullóox	-12.2119
▁maudit	-12.2119
autopsie	-12.2119
▁hennit	-12.2119
▁narines	-12.2119
▁épissure	-12.2119
▁pastèque	-12.2119
▁Géwél	-12.2119
▁Aawo	-12.2119
▁kaldu	-12.2119
▁écorné	-12.2119
▁Saxaraa	-12.2119
acharn	-12.2119
▁jubadi	-12.2119
▁maamaati	-12.2119
▁nawleem	-12.2119
▁echelle	-12.2119
▁pettaaw	-12.2119
▁chantonna	-12.2119
▁grumeaux	-12.2119
▁Yekkal	-12.2119
▁friche	-12.2119
▁mungaas	-12.2119
▁totalité	-12.2119
▁embauché	-12.2119
▁souffrance	-12.2119
oisif	-12.2119
▁Jubb	-12.2119
▁empesé	-12.2119
bortaan	-12.2119
▁fiftin	-12.2119
▁sumaare	-12.2119
▁sukkloo	-12.2119
▁naawantu	-12.2119
▁embouteillée	-12.2119
escroquer	-12.212
▁Lièvre	-12.212
illustra	-12.212
investi	-12.212
▁Kiris	-12.212
▁Kenya	-12.212
▁concord	-12.212
cajou	-12.212
jaleñ	-12.212
▁lagaj	-12.212
▁porche	-12.212
▁Griot	-12.212
▁ténj	-12.212
fection	-12.212
▁accouru	-12.212
▁koppar	-12.212
▁lafañ	-12.212
▁10	-12.212
▁machette	-12.212
▁fëggës	-12.212
acacia	-12.212
▁moontin	-12.212
▁comptant	-12.212
▁komfi	-12.212
▁ubbeeku	-12.212
▁ndëll	-12.212
▁savate	-12.212
▁bascule	-12.212
▁délaissé	-12.212
▁déposé	-12.212
▁querellaient	-12.212
▁sottee	-12.212
▁Njegemaar	-12.212
▁nëtëri	-12.212
▁solitaire	-12.212
▁Agwu	-12.212
▁carabine	-12.212
▁Àttan	-12.212
▁brandiss	-12.212
▁menteñ	-12.212
▁sécuri	-12.212
▁beyaat	-12.212
▁sàrt	-12.212
▁saccadé	-12.212
▁Panama	-12.212
▁architectur	-12.212
▁yitteel	-12.212
▁Fanweer	-12.212
▁aadawoo	-12.212
▁Mbembé	-12.212
▁ñaawtéef	-12.212
▁rocciku	-12.212
▁haïssai	-12.212
▁aérien	-12.212
▁motoxal	-12.212
▁jàngiwul	-12.212
▁recommençait	-12.212
▁sélmu	-12.212
▁adieux	-12.212
▁tabaski	-12.212
▁teerusi	-12.212
▁woyantu	-12.212
▁titub	-12.212
▁bërki	-12.2121
▁acras	-12.2121
▁Kàngam	-12.2121
▁type	-12.2121
installaient	-12.2121
▁entrailles	-12.2121
▁mbugal	-12.2121
▁maritim	-12.2121
▁greff	-12.2121
▁jumeet	-12.2121
▁attaqué	-12.2121
letmaa	-12.2121
▁Miinante	-12.2121
▁dangereux	-12.2121
▁informé	-12.2121
▁soppeeku	-12.2121
▁cubb	-12.2121
▁marron	-12.2121
bâill	-12.2121
▁attentif	-12.2121
▁mouvant	-12.2121
▁Marok	-12.2121
accapar	-12.2121
▁Yób	-12.2121
▁Njeex	-12.2121
▁germé	-12.2121
▁njéeréer	-12.2121
▁selew	-12.2121
▁rugira	-12.2121
assèche	-12.2121
▁reewantu	-12.2121
▁encourage	-12.2121
versaire	-12.2121
▁toléra	-12.2121
▁rido	-12.2121
▁poireauter	-12.2121
▁chevron	-12.2121
▁malaxer	-12.2121
▁raccommode	-12.2121
▁Wutël	-12.2121
▁Gardez	-12.2121
cycl	-12.2121
▁poin	-12.2121
entourant	-12.2121
▁nëww	-12.2121
▁crasse	-12.2122
▁radier	-12.2122
▁Yëg	-12.2122
▁ormaal	-12.2122
▁bronz	-12.2122
envisage	-12.2122
▁xabaar	-12.2122
▁batise	-12.2122
▁dëddale	-12.2122
▁bossu	-12.2122
embarrasse	-12.2122
xuux	-12.2122
▁accélérer	-12.2122
▁déclin	-12.2122
▁keppukaay	-12.2122
▁grange	-12.2122
▁paresseuse	-12.2122
▁berceau	-12.2122
dëngaañ	-12.2122
▁Eend	-12.2122
▁déménagé	-12.2122
▁récupéré	-12.2122
▁vénéré	-12.2122
▁stoppe	-12.2122
▁razzié	-12.2122
▁Kaani	-12.2122
▁envolé	-12.2122
▁Ràbb	-12.2122
▁retiens	-12.2122
arrose	-12.2122
▁faneetar	-12.2122
aakiri	-12.2122
▁cafko	-12.2122
▁frigo	-12.2122
▁rebord	-12.2123
▁kompale	-12.2123
▁soulag	-12.2123
▁sëqat	-12.2123
▁empêchement	-12.2123
ëtuñu	-12.2123
▁gronde	-12.2123
▁frimer	-12.2123
jóol	-12.2123
▁tunnel	-12.2123
▁Àndandoo	-12.2123
▁repro	-12.2123
▁toucouleur	-12.2123
▁Bawob	-12.2123
▁foraatu	-12.2123
▁implant	-12.2123
▁jaloore	-12.2123
▁matadi	-12.2123
▁Kiné	-12.2123
▁verge	-12.2123
▁débattons	-12.2123
▁péter	-12.2123
▁wiccax	-12.2123
▁connaissons	-12.2123
▁fanane	-12.2123
▁aniin	-12.2123
▁insurgé	-12.2123
▁Roule	-12.2123
▁tiitaange	-12.2123
autom	-12.2123
▁aboli	-12.2123
▁fibre	-12.2123
▁attiser	-12.2123
▁téll	-12.2124
▁yaatuwaay	-12.2124
▁minutes	-12.2124
▁saleté	-12.2124
▁wëq	-12.2124
▁stature	-12.2124
▁ñép	-12.2124
▁faiblement	-12.2124
▁haoussa	-12.2124
▁Enterre	-12.2124
▁juubu	-12.2124
embarque	-12.2124
éndël	-12.2124
▁tripes	-12.2124
▁crap	-12.2124
▁empliss	-12.2124
▁jàngalekat	-12.2125
▁suñel	-12.2125
▁ardent	-12.2125
▁revenant	-12.2125
▁yërë	-12.2125
▁Tuufa	-12.2125
▁limaale	-12.2125
▁turist	-12.2125
▁mbugël	-12.2125
▁xërëmkat	-12.2125
▁nécessiteux	-12.2125
▁dynami	-12.2125
▁Berbi	-12.2125
▁Talaata	-12.2125
▁cahot	-12.2125
▁tidiane	-12.2125
▁sommaire	-12.2125
▁raŋale	-12.2125
▁décomposer	-12.2125
▁yóbbante	-12.2125
▁exiguë	-12.2125
▁Wékk	-12.2125
▁dipparñi	-12.2126
▁dodeliner	-12.2126
▁rengagé	-12.2126
▁Ësen	-12.2126
respectueux	-12.2126
▁mbañeel	-12.2126
▁obéi	-12.2126
▁libéré	-12.2126
assoupir	-12.2126
▁sànjaay	-12.2126
▁battra	-12.2126
▁creusant	-12.2126
▁wànnent	-12.2126
▁yoxoos	-12.2126
▁digaaleel	-12.2126
▁sëqatoo	-12.2126
estime	-12.2126
▁ndell	-12.2126
auteur	-12.2126
▁gagne	-12.2126
écorchure	-12.2126
▁Ekool	-12.2127
▁majeur	-12.2127
▁Mesure	-12.2127
▁écartées	-12.2127
▁Récite	-12.2127
▁grotte	-12.2127
▁décroché	-12.2127
▁frange	-12.2127
▁xewwi	-12.2127
▁similaak	-12.2127
angulaire	-12.2127
▁summi	-12.2127
▁bâtisse	-12.2127
▁pétri	-12.2127
▁Waruleen	-12.2127
▁caaxoñ	-12.2127
▁Taabal	-12.2127
▁attrapé	-12.2127
▁armal	-12.2127
▁Chante	-12.2127
▁dangereuse	-12.2127
▁randal	-12.2127
▁fidèle	-12.2127
▁peser	-12.2127
▁John	-12.2127
▁contemple	-12.2127
awriñ	-12.2128
▁wegoon	-12.2128
▁mbiskit	-12.2128
▁pleurant	-12.2128
▁baamtu	-12.2128
▁njatt	-12.2128
▁éléphants	-12.2128
▁yaraax	-12.2128
▁Bernadette	-12.2128
▁Pënd	-12.2128
▁Tenez	-12.2128
▁zébr	-12.2128
▁Congo	-12.2128
▁jànkonteel	-12.2128
▁xiiroonte	-12.2128
▁giclé	-12.2128
▁jalaal	-12.2128
▁pintiir	-12.2128
angasin	-12.2128
▁mbamb	-12.2128
▁falaŋ	-12.2128
▁sanglot	-12.2129
▁concurrent	-12.2129
▁Yaasin	-12.2129
asthm	-12.2129
▁Barke	-12.2129
▁turki	-12.2129
▁commandement	-12.2129
▁jéllale	-12.2129
arrange	-12.2129
▁courageux	-12.2129
▁parasit	-12.2129
▁lijaasaam	-12.2129
▁décolle	-12.213
▁bëqët	-12.213
gracieux	-12.213
eŋoor	-12.213
▁boddi	-12.213
▁ubbee	-12.213
▁voyagé	-12.213
▁pesé	-12.213
▁Bouc	-12.213
▁xiiroon	-12.213
hell	-12.213
sting	-12.213
▁Geenu	-12.213
▁gëŋ	-12.213
▁liaison	-12.213
▁glaner	-12.213
apparence	-12.213
àqami	-12.213
▁dépaysé	-12.213
▁jógewaan	-12.2131
▁nooraan	-12.2131
▁vitesse	-12.2131
▁rejeté	-12.2131
▁cohabitent	-12.2131
▁pëdd	-12.2131
▁Mouche	-12.2131
▁Babungoo	-12.2131
▁xàww	-12.2131
▁détri	-12.2131
▁tooke	-12.2131
▁frappait	-12.2131
▁Sauf	-12.2131
▁entrevu	-12.2131
▁noflaay	-12.2131
▁sevré	-12.2131
▁élan	-12.2131
jayaŋ	-12.2131
lxames	-12.2132
ññaaral	-12.2132
▁pâ	-12.2132
▁limpid	-12.2132
▁Xew	-12.2132
▁ndimbal	-12.2132
▁tutelle	-12.2132
▁Këpp	-12.2132
▁club	-12.2132
▁nokki	-12.2132
▁wonewu	-12.2132
▁Certainement	-12.2132
▁coûté	-12.2132
▁débrouill	-12.2132
▁prêterais	-12.2132
▁mentales	-12.2132
▁wocc	-12.2132
▁tandale	-12.2132
▁averti	-12.2132
▁Dénk	-12.2132
jàmpe	-12.2132
▁dîné	-12.2132
▁netetu	-12.2132
dàmpaay	-12.2132
▁nettoy	-12.2132
▁guléet	-12.2133
▁verrouill	-12.2133
▁hommage	-12.2133
▁téyewul	-12.2133
▁laytaay	-12.2133
ccor	-12.2133
▁sànq	-12.2133
▁Tàppa	-12.2133
▁Suusal	-12.2133
▁Hann	-12.2133
éthér	-12.2133
▁placard	-12.2133
▁croix	-12.2134
▁kulëer	-12.2134
▁Ganaa	-12.2134
▁Donga	-12.2134
▁musalkat	-12.2134
▁résonné	-12.2134
▁passion	-12.2134
étire	-12.2134
▁ňaw	-12.2134
▁wàññiku	-12.2134
▁bàjjan	-12.2134
▁citadin	-12.2134
▁jënfandikoo	-12.2134
▁jaxaay	-12.2135
▁yikkat	-12.2135
▁Plant	-12.2135
▁Njarum	-12.2135
importune	-12.2135
▁sippax	-12.2135
▁téléphonerai	-12.2135
▁visais	-12.2135
▁poème	-12.2135
▁gaññ	-12.2135
▁insur	-12.2135
ègue	-12.2136
▁redevi	-12.2136
ggatu	-12.2136
▁pardonné	-12.2136
▁tayel	-12.2136
▁partisane	-12.2136
▁yetam	-12.2136
▁vilain	-12.2136
▁lourdement	-12.2137
▁labour	-12.2137
▁dégain	-12.2137
▁joqa	-12.2137
▁développé	-12.2137
▁bàyyeeku	-12.2137
▁vidé	-12.2138
▁xàndi	-12.2138
▁brac	-12.2138
▁woñaaru	-12.2138
▁toxoñu	-12.2138
▁përngalu	-12.2138
▁flagorneur	-12.2138
otiques	-12.2138
▁nettaliji	-12.2138
▁sóoblu	-12.2138
▁Mokkal	-12.2139
▁bourdonn	-12.2139
▁Tóo	-12.2139
▁Laissez	-12.2139
▁critiquent	-12.2139
▁ŋaamaan	-12.2139
▁dukkat	-12.2139
▁faatoo	-12.2139
▁roussir	-12.2139
▁résister	-12.2139
▁diigal	-12.2139
▁laaxira	-12.2139
▁rides	-12.2139
aigle	-12.2139
oyyanti	-12.2139
▁fabriquent	-12.2139
▁repent	-12.2139
pé	-12.214
▁pakku	-12.214
▁social	-12.214
▁Rappelle	-12.214
▁Fett	-12.214
▁pànk	-12.214
▁Muñal	-12.214
uniform	-12.214
▁dédai	-12.2141
▁woddoo	-12.2141
▁Ogil	-12.2141
▁galeux	-12.2141
▁talaata	-12.2141
▁célèbrent	-12.2141
▁céq	-12.2141
▁màngaan	-12.2141
▁réaliser	-12.2141
▁vomir	-12.2141
▁maltrait	-12.2141
▁Jubbanti	-12.2141
▁Gént	-12.2141
▁sokku	-12.2142
▁ŋàyy	-12.2142
▁châtré	-12.2142
▁jommi	-12.2142
▁bravo	-12.2142
▁dënk	-12.2142
▁woteel	-12.2142
▁sawoor	-12.2142
▁Avale	-12.2142
▁fajukaay	-12.2142
▁étalon	-12.2142
▁taises	-12.2143
ësër	-12.2143
▁sonjaan	-12.2143
▁tailleur	-12.2143
▁sempi	-12.2143
▁Farm	-12.2143
bes	-12.2144
harmoni	-12.2144
▁jabb	-12.2144
allaiter	-12.2144
▁ravins	-12.2144
▁xeesal	-12.2144
mili	-12.2144
▁Koth	-12.2144
▁Njoya	-12.2144
▁loca	-12.2144
▁dundaat	-12.2144
▁taalif	-12.2144
▁complot	-12.2144
ukwu	-12.2145
▁njaambaar	-12.2145
▁lëkkoo	-12.2145
▁bagaasam	-12.2145
▁suturaam	-12.2145
▁gratifi	-12.2145
▁dipite	-12.2145
▁Siiru	-12.2145
▁cotonnier	-12.2145
▁yaafus	-12.2145
▁tabaar	-12.2145
▁pët	-12.2145
▁Samdi	-12.2145
▁affect	-12.2145
▁révoltent	-12.2145
▁commis	-12.2146
▁màggetloo	-12.2146
▁kokko	-12.2146
▁trompent	-12.2146
▁oh	-12.2146
▁jouons	-12.2146
▁pilote	-12.2146
▁suppli	-12.2146
▁sangatu	-12.2146
▁consis	-12.2146
▁darajaam	-12.2146
▁asperg	-12.2147
équipe	-12.2147
▁kidd	-12.2147
▁kaso	-12.2147
▁yéglu	-12.2147
▁surface	-12.2147
▁xobbi	-12.2147
piri	-12.2147
▁jegeyoo	-12.2147
▁titre	-12.2147
percevoir	-12.2147
▁Améri	-12.2147
▁tàndarma	-12.2147
▁cadenc	-12.2147
▁yilifoon	-12.2148
▁Mills	-12.2148
iffés	-12.2148
quetés	-12.2148
▁Maman	-12.2148
antiku	-12.2148
▁Kowet	-12.2148
yugur	-12.2148
▁ndiir	-12.2148
▁médd	-12.2149
▁payis	-12.2149
▁Tàggoo	-12.2149
▁ficelle	-12.2149
▁kala	-12.2149
▁diffus	-12.2149
▁fripes	-12.215
▁gënnam	-12.215
▁trahison	-12.215
▁ñulug	-12.215
▁maladi	-12.215
ŋoos	-12.215
▁Ñeme	-12.215
gho	-12.215
▁tournoy	-12.215
▁Noirs	-12.215
pati	-12.2151
▁wëgg	-12.2151
▁amuloo	-12.2151
Obukun	-12.2151
▁medaay	-12.2151
▁soulevé	-12.2151
▁wootal	-12.2151
▁facilitera	-12.2151
nom	-12.2151
▁Xanq	-12.2151
▁xóoy	-12.2151
▁gànnaayoo	-12.2152
▁pàq	-12.2152
▁gisaane	-12.2152
▁flotter	-12.2152
▁coggal	-12.2152
▁justement	-12.2152
▁njig	-12.2152
▁tienne	-12.2152
▁tordu	-12.2152
▁Xooj	-12.2152
▁rebelle	-12.2153
▁fufu	-12.2153
▁peeral	-12.2153
▁Ital	-12.2153
▁supplé	-12.2153
atteler	-12.2153
▁xàcci	-12.2153
▁caraxam	-12.2153
▁écailles	-12.2153
▁orteil	-12.2153
▁carpes	-12.2153
▁exposé	-12.2153
▁chasserait	-12.2153
▁portraits	-12.2153
▁intéressants	-12.2153
▁sotoo	-12.2153
▁nokkas	-12.2153
▁députés	-12.2153
▁biscuits	-12.2153
▁frissons	-12.2153
▁paraboles	-12.2154
▁créatures	-12.2154
▁administrateurs	-12.2154
▁tëraloon	-12.2154
▁cigarettes	-12.2154
▁excuses	-12.2154
▁Juifs	-12.2154
▁rêverie	-12.2154
▁poulains	-12.2154
▁Lëmb	-12.2154
▁màkka	-12.2154
▁teggee	-12.2155
obtiendra	-12.2155
▁fegu	-12.2155
téef	-12.2155
mentalement	-12.2155
ctifié	-12.2155
▁ñow	-12.2155
intéressera	-12.2156
▁valeur	-12.2156
▁lox	-12.2156
orité	-12.2156
arrêtait	-12.2156
▁divorcée	-12.2156
▁yambar	-12.2157
▁cadeaux	-12.2157
▁póon	-12.2157
Agade	-12.2157
▁progresse	-12.2157
▁sauta	-12.2157
▁automobile	-12.2157
▁exaucée	-12.2157
▁vermoulue	-12.2157
▁coxor	-12.2157
▁Monro	-12.2157
latel	-12.2157
yubés	-12.2158
▁bëreel	-12.2158
▁épousée	-12.2158
▁feq	-12.2158
▁paraître	-12.2158
▁rigid	-12.2158
▁divisé	-12.2158
▁wàkk	-12.2158
▁échanger	-12.2158
▁cadre	-12.2158
▁bànk	-12.2159
▁combattant	-12.2159
▁sëqët	-12.2159
▁tardif	-12.2159
▁manifestent	-12.2159
▁sàggan	-12.2159
▁déjj	-12.2159
▁xasan	-12.216
▁njàngam	-12.216
océ	-12.216
▁retarder	-12.216
▁seetloo	-12.2161
▁battais	-12.2161
▁ruum	-12.2161
▁gard	-12.2161
fiévr	-12.2161
▁làmboo	-12.2162
▁sexaw	-12.2162
▁Onits	-12.2162
▁tebbi	-12.2162
▁gàpp	-12.2162
▁xiim	-12.2162
▁maabo	-12.2163
▁obsédant	-12.2163
▁important	-12.2163
▁neige	-12.2163
▁nooju	-12.2163
▁exterminé	-12.2163
▁nësër	-12.2164
uche	-12.2164
▁fabri	-12.2164
▁Baol	-12.2165
éteigne	-12.2165
▁découvrir	-12.2165
réer	-12.2165
▁fréquentation	-12.2165
▁indiens	-12.2165
encre	-12.2165
▁seqi	-12.2165
▁chocra	-12.2166
environnement	-12.2166
▁salaan	-12.2166
▁confr	-12.2167
▁Lebou	-12.2167
▁Sénégalais	-12.2167
▁ganesee	-12.2167
▁anémié	-12.2167
▁cuuraay	-12.2167
▁défais	-12.2167
▁possédé	-12.2167
▁kapo	-12.2168
▁Ub	-12.2168
▁recroquevillé	-12.2168
aataangoom	-12.2168
▁dooleem	-12.2168
▁Mawdo	-12.2168
▁koddaay	-12.2168
erreurs	-12.2168
▁jariñoo	-12.2168
▁waxande	-12.2169
▁bén	-12.2169
▁sukkuraatam	-12.2169
▁cadet	-12.2169
▁silencieuse	-12.2169
▁mince	-12.217
gàmbi	-12.217
▁tàngaayam	-12.217
▁féey	-12.217
▁tojtal	-12.217
▁Musta	-12.2171
▁jéllam	-12.2171
▁poigne	-12.2172
▁Chin	-12.2172
stën	-12.2172
▁simmi	-12.2173
▁cirées	-12.2173
▁excise	-12.2173
▁baatin	-12.2173
▁fulaaru	-12.2174
verrez	-12.2174
▁ceindre	-12.2174
▁siraas	-12.2174
▁jamp	-12.2175
▁sombi	-12.2175
▁Woyal	-12.2175
▁ruiné	-12.2175
▁njoos	-12.2175
▁pie	-12.2176
▁tirage	-12.2176
occ	-12.2176
▁reviennent	-12.2177
▁digesti	-12.2177
▁yalwaanam	-12.2177
▁nuróo	-12.2177
▁xaajaan	-12.2178
▁ressent	-12.2178
▁guider	-12.2178
▁parcouru	-12.2178
▁gilets	-12.2178
▁éteintes	-12.2178
naissent	-12.2179
▁Wàll	-12.2179
▁intime	-12.2179
▁entendue	-12.2179
▁monture	-12.218
▁conforme	-12.218
▁tëfli	-12.218
▁farlu	-12.218
▁Taxawaay	-12.218
ddina	-12.218
▁événement	-12.2181
kasaw	-12.2182
onnés	-12.2182
▁indiqué	-12.2183
▁tourbillonnai	-12.2183
▁Wall	-12.2183
▁apparent	-12.2183
▁flou	-12.2183
▁arrivait	-12.2183
▁plateau	-12.2184
▁règlement	-12.2184
▁Tellement	-12.2184
▁excit	-12.2184
▁wattu	-12.2185
découvrant	-12.2185
▁gënaloon	-12.2186
imer	-12.2186
▁Gisewu	-12.2186
gation	-12.2186
▁yëbb	-12.2186
bëtu	-12.2187
▁misère	-12.2187
mond	-12.2188
▁joxante	-12.2188
▁relative	-12.2188
▁déplaça	-12.2189
▁déggatul	-12.2189
▁accent	-12.219
▁respecté	-12.219
▁saigne	-12.219
▁Ngaar	-12.219
▁xalamal	-12.2191
▁invite	-12.2191
▁créanc	-12.2191
mero	-12.2191
▁foroxal	-12.2192
▁lançant	-12.2192
▁Tappal	-12.2192
▁beesul	-12.2192
▁pind	-12.2192
▁Juug	-12.2193
▁écho	-12.2193
ëk	-12.2193
▁baisser	-12.2193
▁Jarul	-12.2194
▁géex	-12.2194
▁lumineuse	-12.2194
▁indienne	-12.2194
ueille	-12.2195
▁compliqu	-12.2195
▁wengal	-12.2196
▁Guppa	-12.2196
▁respecter	-12.2197
▁voisin	-12.2197
▁ñoree	-12.2197
▁aggrav	-12.2197
▁ennuyé	-12.2197
▁entrelac	-12.2198
andaŋ	-12.2198
astiku	-12.2198
Orient	-12.2198
▁remm	-12.2198
▁mirage	-12.2199
ngé	-12.2199
▁rëgë	-12.2199
▁dégonflé	-12.2199
wel	-12.2199
▁Durba	-12.2199
▁woomal	-12.22
▁jéggalu	-12.2201
▁têtu	-12.2201
antalon	-12.2201
caboss	-12.2202
▁vertus	-12.2202
▁diffam	-12.2203
▁tunique	-12.2203
▁faillite	-12.2203
▁chaux	-12.2203
▁reyul	-12.2203
▁19	-12.2204
▁rejette	-12.2204
▁tortille	-12.2204
▁luqi	-12.2205
▁statut	-12.2205
affûta	-12.2205
▁Demeraraa	-12.2206
ŋŋaaral	-12.2206
▁jélloo	-12.2206
▁ñagas	-12.2207
bóoy	-12.2208
mandat	-12.2208
▁Fix	-12.2208
oulou	-12.2208
seoir	-12.2209
missements	-12.2209
▁amiin	-12.2211
▁comportement	-12.2211
▁accents	-12.2211
▁crête	-12.2211
▁njaam	-12.2211
▁ndóo	-12.2212
▁pneus	-12.2212
▁fàkk	-12.2212
▁moisson	-12.2212
▁wéqu	-12.2212
▁Jàmm	-12.2212
▁Déjà	-12.2212
▁entassés	-12.2213
▁visibles	-12.2213
▁exilé	-12.2213
▁veines	-12.2213
rog	-12.2213
▁heurtant	-12.2213
▁éclo	-12.2213
▁Ndañ	-12.2214
▁siboor	-12.2214
▁Yaali	-12.2214
▁goyaves	-12.2214
▁ruines	-12.2214
▁bergers	-12.2214
▁Caaya	-12.2214
▁précision	-12.2215
▁picore	-12.2215
▁provisions	-12.2215
▁diamants	-12.2215
▁grimaces	-12.2215
▁pâturages	-12.2215
▁sportives	-12.2215
▁spermatozoïdes	-12.2215
▁traditionnelles	-12.2215
▁boucliers	-12.2215
▁élargir	-12.2216
▁morsures	-12.2216
appren	-12.2216
▁Parti	-12.2216
▁gigot	-12.2216
▁Genn	-12.2217
▁civilisé	-12.2217
onde	-12.2217
ulcère	-12.2217
émiett	-12.2218
▁recoucher	-12.2218
▁sàqami	-12.2218
▁sisal	-12.2218
▁yiiwul	-12.2219
▁vif	-12.2219
▁Fee	-12.2219
▁tendus	-12.2219
sung	-12.2219
▁valets	-12.2219
▁boyal	-12.222
ubéer	-12.222
▁coiffe	-12.222
▁Sell	-12.2221
▁lëmb	-12.2221
▁génie	-12.2221
▁troupe	-12.2221
▁sàddu	-12.2222
▁mukàlla	-12.2222
▁gratuite	-12.2222
▁accompli	-12.2222
▁Gine	-12.2223
▁régnait	-12.2223
appare	-12.2223
▁ràngu	-12.2223
▁metital	-12.2223
▁endurcis	-12.2223
▁adroit	-12.2223
▁sóoru	-12.2223
offre	-12.2223
▁importante	-12.2224
▁décroch	-12.2224
▁tëf	-12.2224
▁nonchalante	-12.2224
eraanga	-12.2224
▁animée	-12.2225
▁ajag	-12.2225
▁dawsi	-12.2225
▁déeyante	-12.2225
▁diisoo	-12.2225
baxtal	-12.2226
▁rechercher	-12.2226
▁Birame	-12.2226
▁duppati	-12.2226
▁tresse	-12.2226
▁servante	-12.2226
▁warga	-12.2226
▁éclairée	-12.2227
▁hausse	-12.2227
▁Siggi	-12.2227
▁destinée	-12.2227
interroger	-12.2228
▁substan	-12.2228
▁Ngonka	-12.2229
▁Tombe	-12.223
▁agitée	-12.223
éeku	-12.223
▁reprises	-12.2231
▁palanteeram	-12.2232
▁barkeel	-12.2232
▁sermonne	-12.2233
▁impé	-12.2233
▁Pile	-12.2233
assit	-12.2233
▁sautant	-12.2233
▁wàllam	-12.2234
▁échapp	-12.2234
▁géjj	-12.2234
▁jaarukaay	-12.2234
▁rétribuer	-12.2235
▁sibir	-12.2235
▁bouillant	-12.2235
▁espionn	-12.2235
▁rêver	-12.2236
konte	-12.2236
▁jigad	-12.2236
nts	-12.2237
▁Xalaat	-12.2238
▁industrielle	-12.2238
▁anges	-12.2238
▁commenceras	-12.2239
▁réconcilie	-12.2239
▁duggsi	-12.2239
▁clous	-12.224
▁résum	-12.2241
▁hérité	-12.2241
▁màww	-12.2241
nduŋ	-12.2242
aboot	-12.2242
salaam	-12.2242
▁convers	-12.2242
▁séqal	-12.2242
▁tissée	-12.2243
▁confortable	-12.2244
▁dépouiller	-12.2244
▁remplit	-12.2244
▁poq	-12.2245
▁pêcher	-12.2245
▁rëy	-12.2246
▁minces	-12.2246
▁lenqali	-12.2246
▁cargo	-12.2246
▁décapit	-12.2246
▁boivent	-12.2246
▁retourné	-12.2247
▁sukk	-12.2247
▁moomoo	-12.2247
laawaal	-12.2247
▁bakkanam	-12.2248
▁incantat	-12.2248
▁collection	-12.2248
▁affolé	-12.2249
nuwaa	-12.2249
▁mooma	-12.2249
▁plaigne	-12.225
▁Cast	-12.2251
▁geg	-12.2252
▁xàppati	-12.2252
oppite	-12.2252
▁affection	-12.2253
▁repère	-12.2253
▁rituels	-12.2253
albin	-12.2254
▁contrée	-12.2254
analete	-12.2255
▁Gumbe	-12.2255
ccéder	-12.2256
▁tawte	-12.2256
▁gànj	-12.2257
▁direz	-12.2258
▁chamaill	-12.2258
ŋgoo	-12.2259
▁mënuñu	-12.2259
▁acide	-12.2259
trave	-12.226
vier	-12.226
▁Change	-12.226
▁instinctive	-12.2261
▁Réy	-12.2261
▁bindante	-12.2261
▁émerveill	-12.2261
▁démarr	-12.2262
▁décorés	-12.2262
▁takkaay	-12.2262
enseigne	-12.2263
▁yombut	-12.2264
▁Lorsque	-12.2264
▁buddat	-12.2264
▁encadré	-12.2264
▁noirci	-12.2264
▁poñe	-12.2265
▁wékku	-12.2267
omprends	-12.2267
ration	-12.2267
▁rogaa	-12.2268
▁tëru	-12.2268
▁giiru	-12.2268
▁Fic	-12.2268
énètre	-12.2269
fumez	-12.227
▁sortirent	-12.227
▁crabes	-12.227
ëqët	-12.2271
▁yendusi	-12.2272
▁destitué	-12.2272
▁tissées	-12.2273
▁tërëf	-12.2273
▁xàddam	-12.2274
▁courbé	-12.2274
laayu	-12.2274
▁trach	-12.2274
▁existait	-12.2275
▁congés	-12.2275
▁tampo	-12.2275
▁extrémité	-12.2275
▁exceptionnel	-12.2276
▁sërëx	-12.2276
▁poign	-12.2276
▁indésirable	-12.2276
▁base	-12.2277
▁infirmiers	-12.2277
▁expéditi	-12.2277
▁immensité	-12.2277
▁écureuil	-12.2277
▁yéwén	-12.2277
▁pann	-12.2277
▁clients	-12.2278
▁pëtëm	-12.2278
ngalu	-12.2278
▁reviendras	-12.2278
▁répét	-12.2279
firmer	-12.2279
▁nkom	-12.2279
▁së	-12.2279
▁gerbes	-12.2279
idée	-12.2279
▁Africaine	-12.2279
▁allumettes	-12.228
▁applaudiss	-12.228
aska	-12.228
▁incendies	-12.228
uqéel	-12.228
ónnee	-12.2281
▁entretiennent	-12.2282
▁gants	-12.2282
▁bañoon	-12.2282
enduira	-12.2282
▁fonk	-12.2282
▁illusion	-12.2282
offe	-12.2282
▁um	-12.2283
▁judduwaale	-12.2283
▁offens	-12.2284
fite	-12.2284
vertisse	-12.2285
▁Teenu	-12.2285
▁Ndeyu	-12.2285
▁perle	-12.2286
▁éloignement	-12.2286
tres	-12.2287
awbe	-12.2287
insultes	-12.2288
▁puurit	-12.2288
▁élevage	-12.2288
robes	-12.2288
▁cath	-12.229
▁àttanul	-12.2291
▁odeurs	-12.2291
▁étendues	-12.2291
▁wujje	-12.2292
▁Bépp	-12.2292
▁plains	-12.2293
fide	-12.2294
▁fabriqué	-12.2294
▁rivalis	-12.2295
▁fàttal	-12.2295
▁juumul	-12.2296
▁écrira	-12.2296
ignées	-12.2296
▁habituelle	-12.2296
▁añaan	-12.2296
▁ëlëm	-12.2298
▁xóotal	-12.2298
igation	-12.2298
▁waga	-12.2299
▁toogaay	-12.2299
ëlé	-12.2299
uŋlu	-12.2299
▁dogoo	-12.23
équat	-12.23
▁dóox	-12.2301
▁File	-12.2302
▁askanam	-12.2302
▁tât	-12.2302
▁rangs	-12.2303
dèle	-12.2304
▁wóom	-12.2304
▁fusillé	-12.2305
▁booyal	-12.2305
▁arène	-12.2305
▁cajj	-12.2307
▁dégluti	-12.2307
▁ajouter	-12.2307
▁Masur	-12.2308
▁glissant	-12.2309
embryon	-12.2309
▁Demul	-12.2309
▁opeeree	-12.2309
▁accrocher	-12.2309
▁feeň	-12.231
▁microb	-12.231
hostil	-12.231
▁lëlu	-12.2312
▁champi	-12.2312
assembler	-12.2312
xarle	-12.2312
▁kàll	-12.2312
▁Màr	-12.2312
▁accompagnent	-12.2313
▁bootal	-12.2313
empris	-12.2313
▁sàqam	-12.2314
▁sumb	-12.2314
bouche	-12.2314
▁passionn	-12.2314
▁dànka	-12.2316
▁repose	-12.2316
▁Faye	-12.2317
atement	-12.2318
énig	-12.2319
▁sëpp	-12.2319
▁presti	-12.2321
▁Mbóo	-12.2322
plié	-12.2322
▁Ruux	-12.2323
▁ñàdd	-12.2324
ciné	-12.2324
observer	-12.2325
▁ordonne	-12.2327
▁màngi	-12.2328
▁Dàtt	-12.2329
▁sëb	-12.233
▁Paas	-12.2331
▁énorme	-12.2331
initi	-12.2331
▁Tëri	-12.2332
▁assure	-12.2333
▁dàmp	-12.2333
▁visiter	-12.2334
sensible	-12.2334
▁kutt	-12.2336
▁makar	-12.2336
▁grandeur	-12.2337
bukun	-12.2338
▁enfoncés	-12.2338
▁Baje	-12.234
▁désherb	-12.234
▁voudras	-12.234
uvée	-12.2341
▁defati	-12.2342
▁utiles	-12.2342
hili	-12.2342
▁mérites	-12.2343
▁pintades	-12.2343
ôtre	-12.2343
▁ngaana	-12.2344
▁entendent	-12.2344
▁gindi	-12.2344
▁troué	-12.2344
▁boobale	-12.2345
bolique	-12.2346
▁malaan	-12.2346
▁digle	-12.2346
éetaay	-12.2347
▁rës	-12.2348
▁présidents	-12.235
commençait	-12.2352
▁tubaar	-12.2352
▁ginnaawam	-12.2352
▁usés	-12.2353
▁caravanes	-12.2354
▁corrig	-12.2354
▁castes	-12.2355
▁liyaar	-12.2355
▁sosu	-12.2356
àttalikuwu	-12.2357
▁qualités	-12.2358
gée	-12.2358
▁pair	-12.2358
▁taaxu	-12.2359
▁nawle	-12.2359
▁fourré	-12.2359
▁int	-12.236
▁dresse	-12.236
wàŋŋ	-12.2361
▁dàmb	-12.2361
▁wà	-12.2364
▁signal	-12.2364
▁précédée	-12.2365
▁mbuum	-12.2366
▁càq	-12.2366
▁niis	-12.2366
▁calmer	-12.2366
ayim	-12.2368
▁teeŋ	-12.2368
▁présenta	-12.237
▁soox	-12.237
▁mesurer	-12.2371
▁Saaf	-12.2371
▁rela	-12.2371
▁ndull	-12.2372
▁puu	-12.2373
▁dàllam	-12.2373
▁Waxam	-12.2373
▁Bari	-12.2374
▁teeru	-12.2375
▁froissé	-12.2375
▁Dë	-12.2376
▁jarre	-12.2376
▁saint	-12.2378
▁càcc	-12.2378
▁yóotu	-12.2378
▁douille	-12.2381
▁ngonk	-12.2384
▁xàjjalek	-12.2386
▁tàmmul	-12.2386
▁dim	-12.2386
▁këppu	-12.2387
▁Wutkat	-12.2388
▁tël	-12.2388
▁nappi	-12.239
▁sànku	-12.2391
▁sauvé	-12.2392
▁ndong	-12.2394
▁photographié	-12.2394
oogaan	-12.2395
ignons	-12.2396
▁jañ	-12.2398
▁retrouvés	-12.2398
▁Akara	-12.2398
▁ñanka	-12.2399
▁coute	-12.24
▁Baali	-12.24
▁Filee	-12.2402
▁évid	-12.2402
enant	-12.2403
éebéer	-12.2403
gémmiñ	-12.2404
doles	-12.2404
▁procure	-12.2404
▁nganj	-12.2405
▁mottes	-12.2405
▁wallu	-12.2405
▁Bira	-12.2406
▁juuge	-12.2406
▁groupes	-12.2407
▁chansons	-12.2407
▁Ero	-12.2407
▁prospères	-12.2408
▁tojal	-12.2408
▁incapables	-12.2408
▁connaissances	-12.2408
▁vautours	-12.2409
▁jàmbaar	-12.2409
▁dindee	-12.241
▁céy	-12.241
▁quart	-12.2411
okkas	-12.2411
kurti	-12.2411
▁cof	-12.2411
érñéññ	-12.2414
▁siso	-12.2419
▁tempor	-12.2419
▁destiné	-12.242
agin	-12.242
▁traire	-12.2421
▁kawam	-12.2422
clite	-12.2425
dra	-12.2426
▁étroit	-12.2426
▁rajouter	-12.2426
▁bâti	-12.2428
▁Nattal	-12.243
▁terminée	-12.2434
àyy	-12.2434
envoyer	-12.2434
undu	-12.2434
▁amen	-12.2434
▁Sànda	-12.2435
▁jàppoo	-12.2435
▁como	-12.2435
▁coyy	-12.2436
▁reyal	-12.2438
▁avancé	-12.244
démb	-12.2442
▁fermés	-12.2446
▁jegeñ	-12.2446
▁réserves	-12.2448
▁effray	-12.245
▁désirs	-12.245
▁jotul	-12.245
▁cont	-12.245
▁rest	-12.245
▁accept	-12.2452
▁applaudir	-12.2452
▁dogale	-12.2454
▁dawalkat	-12.2455
▁rassembl	-12.2455
▁Kawóo	-12.2456
concis	-12.2457
▁réeroo	-12.2458
aabal	-12.2458
▁choir	-12.2459
seudo	-12.2461
ñam	-12.2462
▁Rus	-12.2463
▁fl	-12.2463
▁Saatu	-12.2464
▁Fin	-12.2466
▁Sore	-12.2468
auche	-12.2469
ñaay	-12.2469
▁vanne	-12.247
▁mâles	-12.2472
▁siif	-12.2472
▁deqi	-12.2473
▁peñew	-12.2474
artère	-12.2474
▁fuñ	-12.2475
▁Ropp	-12.2475
▁éliminer	-12.2477
▁Nge	-12.2477
unóor	-12.2477
▁Maasal	-12.2478
siez	-12.2478
▁disons	-12.2478
asonk	-12.2478
▁wolofal	-12.2479
▁nettal	-12.2479
▁chauff	-12.2481
▁laalo	-12.2484
▁Patient	-12.2486
Ja	-12.2487
▁terrasserai	-12.2488
▁jaru	-12.2489
▁cerve	-12.249
▁fande	-12.249
ndiku	-12.249
▁somp	-12.249
▁embr	-12.249
▁dalul	-12.2491
▁jélaat	-12.2492
ubbanti	-12.2494
▁wóo	-12.2495
ginaar	-12.2496
▁ëlëb	-12.2496
ndait	-12.2496
▁coord	-12.2497
▁Sene	-12.2498
uló	-12.2499
monte	-12.2499
▁endormie	-12.25
▁Jaa	-12.25
tait	-12.25
▁liise	-12.25
▁jàmbure	-12.25
nokkos	-12.2501
quo	-12.2504
▁outre	-12.2505
▁écritures	-12.2505
▁lourdes	-12.2505
▁ràjj	-12.2505
▁désespérant	-12.2506
▁kuti	-12.2507
▁nëpp	-12.2508
▁maamam	-12.2509
▁Kas	-12.2509
▁lànk	-12.2509
▁fument	-12.2509
▁watat	-12.251
▁fof	-12.251
▁brisée	-12.251
▁Giiru	-12.2514
▁Tooy	-12.2514
▁compare	-12.2518
engager	-12.252
mbaay	-12.252
▁sensible	-12.2521
▁nouvel	-12.2521
▁roulé	-12.2521
▁fumeur	-12.2522
▁balafr	-12.2523
▁latérale	-12.2523
▁lente	-12.2524
▁marques	-12.2526
▁doxin	-12.2526
▁feyu	-12.253
▁inéluctable	-12.2532
▁détal	-12.2532
▁influence	-12.2534
peindre	-12.2535
▁soxlawul	-12.2536
▁accouchement	-12.2537
▁manie	-12.2537
Bri	-12.2539
ouch	-12.2539
génte	-12.2539
digg	-12.254
▁péri	-12.254
▁écrire	-12.254
▁vari	-12.2541
▁seere	-12.2544
enferme	-12.2544
▁moelle	-12.2545
▁léebu	-12.2546
▁bànneexu	-12.2548
▁wotu	-12.2551
▁meram	-12.2552
iri	-12.2553
gale	-12.2553
▁levés	-12.2562
▁sewal	-12.2563
▁Set	-12.2563
▁mbaq	-12.2564
▁avis	-12.2564
▁racle	-12.2564
▁débouch	-12.2565
énerve	-12.2565
imistes	-12.2566
▁waxtaanee	-12.2566
▁antilopes	-12.2566
▁étudiant	-12.2568
▁guid	-12.2569
nee	-12.2571
▁dimb	-12.2573
▁lugg	-12.2573
▁mûrs	-12.2576
▁caaxaane	-12.2577
▁woŋ	-12.2577
▁ext	-12.2579
stig	-12.258
jàmbataan	-12.2582
ements	-12.2582
▁ginnaa	-12.2584
▁Pikin	-12.2584
▁Bàmb	-12.2585
▁bugg	-12.2585
aab	-12.259
▁confies	-12.2591
▁Bir	-12.2591
▁écorch	-12.2592
▁ful	-12.2593
▁cherchée	-12.2595
▁ñàpp	-12.2596
▁fital	-12.2597
▁consulter	-12.2598
▁discut	-12.26
▁Ser	-12.2601
ulsion	-12.2602
▁manguiers	-12.2603
▁goree	-12.2604
▁officielle	-12.2605
▁surviv	-12.2606
lluwa	-12.2607
▁Joxa	-12.2609
▁yaaf	-12.261
▁cobra	-12.2611
▁bavards	-12.2611
▁céeb	-12.2612
▁ronfle	-12.2614
▁wokk	-12.2617
▁aññaa	-12.2617
ernob	-12.2618
maté	-12.2618
▁verte	-12.2618
▁Yàqu	-12.2622
▁douan	-12.2624
entraîn	-12.2624
▁guérira	-12.2624
▁tofl	-12.2624
kooy	-12.2626
▁démon	-12.2626
▁gisagum	-12.2627
▁xiix	-12.2628
▁atroc	-12.2629
assaillir	-12.2629
▁fëx	-12.263
▁mout	-12.263
▁tëggkat	-12.2631
aimerai	-12.2634
[...]
