{
  "version": "1.0",
  "truncation": null,
  "padding": null,
  "added_tokens": [
    {
      "id": 0,
      "content": "<cls>",
      "single_word": false,
      "lstrip": false,
      "rstrip": false,
      "normalized": false,
      "special": true
    },
    {
      "id": 1,
      "content": "<sep>",
      "single_word": false,
      "lstrip": false,
      "rstrip": false,
      "normalized": false,
      "special": true
    },
    {
      "id": 2,
      "content": "<unk>",
      "single_word": false,
      "lstrip": false,
      "rstrip": false,
      "normalized": false,
      "special": true
    },
    {
      "id": 3,
      "content": "<pad>",
      "single_word": false,
      "lstrip": false,
      "rstrip": false,
      "normalized": false,
      "special": true
    },
    {
      "id": 4,
      "content": "<mask>",
      "single_word": false,
      "lstrip": false,
      "rstrip": false,
      "normalized": false,
      "special": true
    },
    {
      "id": 5,
      "content": "<s>",
      "single_word": false,
      "lstrip": false,
      "rstrip": false,
      "normalized": false,
      "special": true
    },
    {
      "id": 6,
      "content": "</s>",
      "single_word": false,
      "lstrip": false,
      "rstrip": false,
      "normalized": false,
      "special": true
    }
  ],
  "normalizer": {
    "type": "Replace",
    "pattern": {
      "String": " {2,}"
    },
    "content": " "
  },
  "pre_tokenizer": {
    "type": "Metaspace",
    "replacement": "▁",
    "add_prefix_space": true
  },
  "post_processor": null,
  "decoder": {
    "type": "Metaspace",
    "replacement": "▁",
    "add_prefix_space": true
  },
  "model": {
    "type": "Unigram",
    "unk_id": 2,
    "vocab": [
      [
        "<cls>",
        0.0
      ],
      [
        "<sep>",
        0.0
      ],
      [
        "<unk>",
        0.0
      ],
      [
        "<pad>",
        0.0
      ],
      [
        "<mask>",
        0.0
      ],
      [
        "<s>",
        0.0
      ],
      [
        "</s>",
        0.0
      ],
      [
        ",",
        -2.999348555230366
      ],
      [
        ".",
        -3.2507147790131743
      ],
      [
        "s",
        -4.008424314545552
      ],
      [
        "▁de",
        -4.101506891857173
      ],
      [
        "▁",
        -4.121494508820199
      ],
      [
        "▁la",
        -4.184536285725797
      ],
      [
        "▁ci",
        -4.538549341505434
      ],
      [
        "y",
        -4.611213979120597
      ],
      [
        "▁a",
        -4.703140469011749
      ],
      [
        "e",
        -4.716478826963749
      ],
      [
        "▁!",
        -4.771021099255442
      ],
      [
        "▁?",
        -4.885306271740565
      ],
      [
        "i",
        -4.972163391801274
      ],
      [
        "▁et",
        -5.049461260704135
      ],
      [
        "▁à",
        -5.097032488448066
      ],
      [
        "▁les",
        -5.121614161620901
      ],
      [
        "▁des",
        -5.161714702575702
      ],
      [
        "▁un",
        -5.2067600325651435
      ],
      [
        "u",
        -5.230143663137298
      ],
      [
        "▁le",
        -5.238408509967197
      ],
      [
        "▁qui",
        -5.239522966572619
      ],
      [
        "▁mu",
        -5.2966086278389914
      ],
      [
        "▁ni",
        -5.3260387806094265
      ],
      [
        "▁na",
        -5.32754815313876
      ],
      [
        "r",
        -5.330359679347034
      ],
      [
        "▁ne",
        -5.380678379464994
      ],
      [
        "▁ma",
        -5.383781929552728
      ],
      [
        "▁que",
        -5.3987571732564
      ],
      [
        "▁bi",
        -5.428948026890782
      ],
      [
        "▁di",
        -5.462375131968621
      ],
      [
        "▁ko",
        -5.473281758884948
      ],
      [
        "▁du",
        -5.475951740750252
      ],
      [
        "▁ba",
        -5.480854720568767
      ],
      [
        "▁ak",
        -5.524149438572885
      ],
      [
        "▁pas",
        -5.626928639667579
      ],
      [
        "▁est",
        -5.650632080786504
      ],
      [
        "▁ñu",
        -5.655858202034424
      ],
      [
        "a",
        -5.680083331816087
      ],
      [
        "▁yu",
        -5.701713361260732
      ],
      [
        "▁gi",
        -5.71502587598775
      ],
      [
        "▁bu",
        -5.719841714824486
      ],
      [
        "▁en",
        -5.722607620141838
      ],
      [
        "▁yi",
        -5.7330985785647295
      ],
      [
        "▁il",
        -5.770557005888776
      ],
      [
        "▁dem",
        -5.775612508453496
      ],
      [
        "▁dans",
        -5.794388383597006
      ],
      [
        "t",
        -5.796798483374182
      ],
      [
        "▁Il",
        -5.7986704062855745
      ],
      [
        "▁ay",
        -5.810366505582844
      ],
      [
        "▁naa",
        -5.975516098493554
      ],
      [
        "▁ce",
        -5.996773200697766
      ],
      [
        "▁ngi",
        -6.007728169343666
      ],
      [
        "▁lu",
        -6.057410669716927
      ],
      [
        "▁am",
        -6.067593005506494
      ],
      [
        "▁C'est",
        -6.0828871022604885
      ],
      [
        "▁fa",
        -6.085110287063415
      ],
      [
        "▁seen",
        -6.095504348834877
      ],
      [
        "▁pour",
        -6.09597914278918
      ],
      [
        "▁te",
        -6.102301179000479
      ],
      [
        "n",
        -6.11073002307037
      ],
      [
        "une",
        -6.141317269929966
      ],
      [
        "▁woon",
        -6.166471138081979
      ],
      [
        "▁y",
        -6.241994371590459
      ],
      [
        "▁sama",
        -6.248570104989643
      ],
      [
        "▁ca",
        -6.257386026053599
      ],
      [
        "▁se",
        -6.264425085821694
      ],
      [
        "▁au",
        -6.27261747503437
      ],
      [
        "oon",
        -6.281995713450951
      ],
      [
        "▁sur",
        -6.283887420159001
      ],
      [
        "▁je",
        -6.314197215983514
      ],
      [
        "▁sa",
        -6.314463927485272
      ],
      [
        "▁qu'il",
        -6.3168352071010405
      ],
      [
        "▁vu",
        -6.317078054941686
      ],
      [
        "▁sont",
        -6.350489518366367
      ],
      [
        ":",
        -6.352622365899653
      ],
      [
        "▁daan",
        -6.367983037217073
      ],
      [
        "▁avec",
        -6.368777770548266
      ],
      [
        "▁Je",
        -6.372412511453592
      ],
      [
        "al",
        -6.39926534725952
      ],
      [
        "▁gis",
        -6.404341925578778
      ],
      [
        "▁doon",
        -6.416412750822002
      ],
      [
        "ent",
        -6.423563678025542
      ],
      [
        "▁nag",
        -6.445733585933652
      ],
      [
        "▁mi",
        -6.451644522052145
      ],
      [
        "▁ŋga",
        -6.458195342513073
      ],
      [
        "▁leen",
        -6.460810871967972
      ],
      [
        "▁xam",
        -6.461188852733546
      ],
      [
        "▁par",
        -6.461457429117045
      ],
      [
        "é",
        -6.518583450963106
      ],
      [
        "▁mon",
        -6.536255478686524
      ],
      [
        "▁père",
        -6.543074367737615
      ],
      [
        "▁wax",
        -6.559731781684361
      ],
      [
        "▁Góo",
        -6.579650611547997
      ],
      [
        "▁nekk",
        -6.587565082014954
      ],
      [
        "▁si",
        -6.595031676543379
      ],
      [
        "▁tu",
        -6.595443593051199
      ],
      [
        "nt",
        -6.599576404145518
      ],
      [
        "▁l'",
        -6.604975068953319
      ],
      [
        "▁benn",
        -6.608595434257182
      ],
      [
        "▁nit",
        -6.60895922904451
      ],
      [
        "▁Baay",
        -6.629052498679555
      ],
      [
        "▁nga",
        -6.637947814020763
      ],
      [
        "am",
        -6.638672216456925
      ],
      [
        "ul",
        -6.640936771019193
      ],
      [
        "▁mel",
        -6.646963992673833
      ],
      [
        "l",
        -6.663270749800473
      ],
      [
        "▁Gis",
        -6.67418490424508
      ],
      [
        "▁été",
        -6.679372927718886
      ],
      [
        "▁ya",
        -6.684839482852224
      ],
      [
        "er",
        -6.706558763987085
      ],
      [
        "▁sax",
        -6.708227029354459
      ],
      [
        "▁moom",
        -6.710084800030711
      ],
      [
        "▁où",
        -6.725425036939588
      ],
      [
        "▁moo",
        -6.7259915082060004
      ],
      [
        "▁Afrig",
        -6.727314417202381
      ],
      [
        "le",
        -6.734899690494559
      ],
      [
        "▁homme",
        -6.743879454010103
      ],
      [
        "▁son",
        -6.755404504884054
      ],
      [
        "ait",
        -6.77273932500799
      ],
      [
        "▁nu",
        -6.77557416642364
      ],
      [
        "▁c",
        -6.7948537190068246
      ],
      [
        "▁lui",
        -6.8003230977195255
      ],
      [
        "▁Tu",
        -6.803218715458989
      ],
      [
        "▁plus",
        -6.813122271351398
      ],
      [
        "▁biir",
        -6.824174199683259
      ],
      [
        "k",
        -6.8273383357117385
      ],
      [
        "▁def",
        -6.828959833299052
      ],
      [
        "▁J'ai",
        -6.8443926261113575
      ],
      [
        "▁li",
        -6.852923096579266
      ],
      [
        "▁L'homme",
        -6.861697707486346
      ],
      [
        "ee",
        -6.862340469890269
      ],
      [
        "▁ku",
        -6.878251108815226
      ],
      [
        "▁su",
        -6.88015214412986
      ],
      [
        "▁Le",
        -6.885560374828382
      ],
      [
        "te",
        -6.889562484677231
      ],
      [
        "▁photo",
        -6.895950441740586
      ],
      [
        "▁ñëw",
        -6.904054131608767
      ],
      [
        "«",
        -6.90634768435978
      ],
      [
        "▁»",
        -6.906388166044475
      ],
      [
        "▁La",
        -6.907543156746604
      ],
      [
        "▁tout",
        -6.915173048297424
      ],
      [
        "▁c'est",
        -6.91623679905484
      ],
      [
        "ant",
        -6.929355726486216
      ],
      [
        "▁d'un",
        -6.9406964955577335
      ],
      [
        "▁nous",
        -6.9532389254656835
      ],
      [
        "▁avait",
        -6.955922369194227
      ],
      [
        "▁d'",
        -6.977780409310973
      ],
      [
        "▁kenn",
        -6.982278588638976
      ],
      [
        "▁mën",
        -6.990740616075794
      ],
      [
        "▁ab",
        -6.999137845381474
      ],
      [
        "▁Ci",
        -7.004948257995246
      ],
      [
        "-",
        -7.010047885049892
      ],
      [
        "▁góor",
        -7.012259751712215
      ],
      [
        "▁cet",
        -7.013690551209841
      ],
      [
        "▁gu",
        -7.019992629158548
      ],
      [
        "▁Les",
        -7.027352712245881
      ],
      [
        "▁ou",
        -7.034447567662733
      ],
      [
        "▁nataal",
        -7.043149673359904
      ],
      [
        "▁bii",
        -7.063020954272783
      ],
      [
        "▁leur",
        -7.070716495799441
      ],
      [
        "▁fi",
        -7.080578181257023
      ],
      [
        "ment",
        -7.08630953019639
      ],
      [
        "oo",
        -7.089409172772932
      ],
      [
        "▁enfants",
        -7.089847024761614
      ],
      [
        "es",
        -7.090685354585789
      ],
      [
        "ñ",
        -7.095925781870501
      ],
      [
        "b",
        -7.096610487429769
      ],
      [
        "▁autre",
        -7.100457782638791
      ],
      [
        "▁l'homme",
        -7.108031882480353
      ],
      [
        "▁may",
        -7.112249996215125
      ],
      [
        "▁ñi",
        -7.13653102953011
      ],
      [
        "d",
        -7.146706536764155
      ],
      [
        "▁ces",
        -7.148384545086664
      ],
      [
        "g",
        -7.149109292366888
      ],
      [
        "▁dal",
        -7.149218643535465
      ],
      [
        "▁s",
        -7.15543372887928
      ],
      [
        "▁aussi",
        -7.165549090963241
      ],
      [
        "m",
        -7.1712081867854245
      ],
      [
        "▁on",
        -7.175175042742649
      ],
      [
        "ette",
        -7.175401535125294
      ],
      [
        "▁it",
        -7.182687224709711
      ],
      [
        "▁san",
        -7.185250836164547
      ],
      [
        "▁comme",
        -7.188247595996017
      ],
      [
        "▁rekk",
        -7.189662035881145
      ],
      [
        "▁daf",
        -7.191752492736012
      ],
      [
        "que",
        -7.208094175666909
      ],
      [
        "▁dëkk",
        -7.216184179291978
      ],
      [
        "▁ju",
        -7.219424575311507
      ],
      [
        "▁lool",
        -7.221256087159198
      ],
      [
        "▁A",
        -7.224461283154091
      ],
      [
        "▁mère",
        -7.227178410646694
      ],
      [
        "▁Nit",
        -7.227748332615135
      ],
      [
        "▁me",
        -7.234881187360223
      ],
      [
        "▁bëgg",
        -7.236657376432922
      ],
      [
        "▁Sur",
        -7.243236810546629
      ],
      [
        "▁dara",
        -7.251114298282676
      ],
      [
        "▁ji",
        -7.254813573885945
      ],
      [
        "▁fu",
        -7.255955495156998
      ],
      [
        "▁teg",
        -7.272928325536788
      ],
      [
        "▁là",
        -7.279108493031646
      ],
      [
        "▁ñaar",
        -7.280027246186532
      ],
      [
        "▁Am",
        -7.2805386111919255
      ],
      [
        "▁parti",
        -7.285649112928558
      ],
      [
        "▁moi",
        -7.291502877476782
      ],
      [
        "▁même",
        -7.297348214061978
      ],
      [
        "▁kër",
        -7.306959730450995
      ],
      [
        "▁laa",
        -7.3133802558042245
      ],
      [
        "x",
        -7.315862124365306
      ],
      [
        "à",
        -7.317072249303241
      ],
      [
        "▁maison",
        -7.319388690438626
      ],
      [
        "▁ki",
        -7.327192369486166
      ],
      [
        "▁boo",
        -7.3392972889212205
      ],
      [
        "▁xale",
        -7.34686303233348
      ],
      [
        "▁ndax",
        -7.34814615188684
      ],
      [
        "▁gën",
        -7.348183162012881
      ],
      [
        "▁jigéen",
        -7.354279382677062
      ],
      [
        "▁Ce",
        -7.356102952176929
      ],
      [
        "▁pays",
        -7.35727985077598
      ],
      [
        "di",
        -7.372593342956549
      ],
      [
        "▁–",
        -7.375433085824814
      ],
      [
        "▁Nataal",
        -7.375435445144369
      ],
      [
        "▁était",
        -7.376785635562805
      ],
      [
        "▁mbaa",
        -7.384587458756355
      ],
      [
        "▁ñoo",
        -7.3895961150803275
      ],
      [
        "▁Su",
        -7.399879830358021
      ],
      [
        "▁n'es",
        -7.437235198373858
      ],
      [
        "▁war",
        -7.4414161186888865
      ],
      [
        "▁d",
        -7.443519487759329
      ],
      [
        "▁À",
        -7.444627682828547
      ],
      [
        "▁man",
        -7.45795321793224
      ],
      [
        "▁chose",
        -7.464578318664751
      ],
      [
        "▁lépp",
        -7.483555659633368
      ],
      [
        "▁Un",
        -7.483633703389621
      ],
      [
        "▁D",
        -7.488173396351949
      ],
      [
        "▁j'ai",
        -7.499666133261324
      ],
      [
        "▁walla",
        -7.499674529151113
      ],
      [
        "▁qu'on",
        -7.500245638448048
      ],
      [
        "▁vois",
        -7.501938997802721
      ],
      [
        "▁Mu",
        -7.502596994872716
      ],
      [
        "▁n",
        -7.506776871764809
      ],
      [
        "▁weex",
        -7.516262328748458
      ],
      [
        "eneen",
        -7.518785417157161
      ],
      [
        "▁De",
        -7.521452391456795
      ],
      [
        "▁Ma",
        -7.529071003685141
      ],
      [
        "▁baax",
        -7.532786286366906
      ],
      [
        "▁parle",
        -7.539399272571817
      ],
      [
        "▁loolu",
        -7.541114872930314
      ],
      [
        "▁Li",
        -7.550380501824746
      ],
      [
        "▁l'intérieur",
        -7.550502761592937
      ],
      [
        "▁mag",
        -7.567406955219656
      ],
      [
        "ŋ",
        -7.5680760090155585
      ],
      [
        "▁bien",
        -7.5779756908622815
      ],
      [
        "▁ŋgi",
        -7.578497921254484
      ],
      [
        "▁l",
        -7.581749807137263
      ],
      [
        "▁xar",
        -7.585796831109951
      ],
      [
        "▁Waaye",
        -7.585911869050426
      ],
      [
        "▁fait",
        -7.588973247352623
      ],
      [
        "▁dañ",
        -7.591229649089449
      ],
      [
        "▁aux",
        -7.602786309751844
      ],
      [
        "▁Te",
        -7.604213833259884
      ],
      [
        "▁ñoom",
        -7.605633758483355
      ],
      [
        "▁yaay",
        -7.610653652994115
      ],
      [
        "▁En",
        -7.6186199055416965
      ],
      [
        "▁très",
        -7.622582992294607
      ],
      [
        "▁réew",
        -7.624679341513994
      ],
      [
        "▁garab",
        -7.625631016474552
      ],
      [
        "▁yoon",
        -7.6269463398267
      ],
      [
        "s.",
        -7.629418119694101
      ],
      [
        "▁koo",
        -7.640615375870123
      ],
      [
        "▁yooyu",
        -7.641760131826073
      ],
      [
        "▁cela",
        -7.64208273766997
      ],
      [
        "re",
        -7.647954139698722
      ],
      [
        "leurs",
        -7.6483276148148125
      ],
      [
        ")",
        -7.652165389692456
      ],
      [
        "'est",
        -7.652525554986182
      ],
      [
        "▁néeg",
        -7.654133493958287
      ],
      [
        "ée",
        -7.654682485190557
      ],
      [
        "▁J",
        -7.6558613320837825
      ],
      [
        "▁dul",
        -7.657750272079468
      ],
      [
        "▁ont",
        -7.65932458066956
      ],
      [
        "▁vous",
        -7.660691153722524
      ],
      [
        "▁deux",
        -7.668086144593568
      ],
      [
        "▁couleur",
        -7.677264150062873
      ],
      [
        "▁monde",
        -7.680894164791344
      ],
      [
        "▁mais",
        -7.684902019670702
      ],
      [
        "▁Maa",
        -7.685595185085548
      ],
      [
        "▁Waaw",
        -7.687452320443747
      ],
      [
        "▁ag",
        -7.687601393643341
      ],
      [
        "▁yi.",
        -7.688015943890894
      ],
      [
        "▁demee",
        -7.690214729330437
      ],
      [
        "▁dit",
        -7.6949953008541145
      ],
      [
        "▁vie",
        -7.699586648006633
      ],
      [
        ";",
        -7.7002860351834235
      ],
      [
        "▁Mais",
        -7.700958626749959
      ],
      [
        "▁guerre",
        -7.701484142713209
      ],
      [
        "▁sunu",
        -7.701599271262861
      ],
      [
        "▁lañu",
        -7.710911703143263
      ],
      [
        "▁ka",
        -7.7126463976895945
      ],
      [
        "▁maa",
        -7.712829515370671
      ],
      [
        "it",
        -7.712994700955457
      ],
      [
        "▁suuf",
        -7.720774627148119
      ],
      [
        "▁G",
        -7.721939713200115
      ],
      [
        "▁yépp",
        -7.722049038394218
      ],
      [
        "aient",
        -7.729210199679144
      ],
      [
        "▁yiy",
        -7.731823506501855
      ],
      [
        "▁gone",
        -7.734248326576168
      ],
      [
        "▁bés",
        -7.734259289701823
      ],
      [
        "▁P",
        -7.734498990805042
      ],
      [
        "▁porte",
        -7.735395116674264
      ],
      [
        "▁tax",
        -7.739327420344582
      ],
      [
        "▁sol",
        -7.740857264916736
      ],
      [
        "▁temps",
        -7.741466411873732
      ],
      [
        "▁tamit",
        -7.74157848428297
      ],
      [
        "▁jusqu'",
        -7.749108239848059
      ],
      [
        "▁part",
        -7.75133182794462
      ],
      [
        "▁lii",
        -7.758363818357651
      ],
      [
        "▁toog",
        -7.761856092687709
      ],
      [
        "▁Ogosaa",
        -7.762804128500909
      ],
      [
        "▁celui-là",
        -7.762923414816145
      ],
      [
        "o",
        -7.764569486772364
      ],
      [
        "▁at",
        -7.769177072762883
      ],
      [
        "▁Du",
        -7.771887625042943
      ],
      [
        "▁tou",
        -7.772580993110476
      ],
      [
        "tte",
        -7.779875531417918
      ],
      [
        "▁venu",
        -7.786539796133811
      ],
      [
        "▁femme",
        -7.788446415746985
      ],
      [
        "▁la.",
        -7.794241593106126
      ],
      [
        "▁bopp",
        -7.797156084986783
      ],
      [
        "w",
        -7.797826194304921
      ],
      [
        "▁Ñu",
        -7.799673793223873
      ],
      [
        "▁xel",
        -7.805157713144981
      ],
      [
        "▁ndaw",
        -7.8068845172054555
      ],
      [
        "▁quelque",
        -7.8070831268370835
      ],
      [
        "▁fekk",
        -7.812989523029094
      ],
      [
        "▁partir",
        -7.815518177733958
      ],
      [
        "▁tey",
        -7.815986618966972
      ],
      [
        "▁n'a",
        -7.81971509528082
      ],
      [
        "▁Cet",
        -7.82328909802565
      ],
      [
        "...",
        -7.826838527685256
      ],
      [
        "▁cha",
        -7.8285918433093435
      ],
      [
        "▁L",
        -7.830192104102135
      ],
      [
        "▁yaram",
        -7.830211287887474
      ],
      [
        "▁noppi",
        -7.830727042689725
      ],
      [
        "is",
        -7.830784768087416
      ],
      [
        "▁waay",
        -7.839171219211017
      ],
      [
        "▁ànd",
        -7.8480526369048835
      ],
      [
        "▁ga",
        -7.848105836663626
      ],
      [
        "▁Tugal",
        -7.852869010031263
      ],
      [
        "▁k",
        -7.855432293033511
      ],
      [
        "▁Dem",
        -7.858994423054828
      ],
      [
        "▁être",
        -7.86275628054076
      ],
      [
        "woon",
        -7.86338626988076
      ],
      [
        "▁O",
        -7.864008960515243
      ],
      [
        "▁jëm",
        -7.864239597027756
      ],
      [
        "▁soo",
        -7.86792690631423
      ],
      [
        "▁as",
        -7.875370282050534
      ],
      [
        "▁doŋŋ",
        -7.876589665988362
      ],
      [
        "▁boobu",
        -7.876775301717988
      ],
      [
        "▁gens",
        -7.877099605045878
      ],
      [
        "▁Nou",
        -7.87772076648521
      ],
      [
        "▁mouton",
        -7.878033648974868
      ],
      [
        "▁j'",
        -7.882122909313619
      ],
      [
        "▁ñuul",
        -7.8849234301020825
      ],
      [
        "▁àll",
        -7.885570184200784
      ],
      [
        "e,",
        -7.8858237582325765
      ],
      [
        "▁n'",
        -7.891733324472044
      ],
      [
        "▁toi",
        -7.897719633028434
      ],
      [
        "▁naan",
        -7.899344932307748
      ],
      [
        "▁encore",
        -7.900971812060713
      ],
      [
        "▁doole",
        -7.90125948813265
      ],
      [
        "▁veux",
        -7.901359362550357
      ],
      [
        "▁wër",
        -7.902428283538798
      ],
      [
        "▁peu",
        -7.914061384442755
      ],
      [
        "eek",
        -7.916525163993118
      ],
      [
        "▁yëg",
        -7.9171357455614295
      ],
      [
        "▁nañ",
        -7.924683435699599
      ],
      [
        "▁ñax",
        -7.9259158630742235
      ],
      [
        "▁qu'elle",
        -7.926083044258547
      ],
      [
        "▁faire",
        -7.926581270582008
      ],
      [
        "▁wi",
        -7.92898223059024
      ],
      [
        "▁(",
        -7.930656661815112
      ],
      [
        "▁réer",
        -7.931161606054401
      ],
      [
        "▁Si",
        -7.932595313947806
      ],
      [
        "▁amul",
        -7.933405776613521
      ],
      [
        "▁m",
        -7.934775888955062
      ],
      [
        "▁saa",
        -7.937100903086909
      ],
      [
        "▁kow",
        -7.939948246468283
      ],
      [
        "um",
        -7.944692595704835
      ],
      [
        "▁rafet",
        -7.948324611900974
      ],
      [
        "▁demul",
        -7.9485754073127435
      ],
      [
        "▁jamono",
        -7.951589383317535
      ],
      [
        "▁voilà",
        -7.951606315465154
      ],
      [
        "▁dont",
        -7.95270708400909
      ],
      [
        "yeek",
        -7.956889644789889
      ],
      [
        "▁Moo",
        -7.9572870249859315
      ],
      [
        "▁nañu",
        -7.960250267098061
      ],
      [
        "▁S",
        -7.9675312067050745
      ],
      [
        "▁liggéey",
        -7.9715254654884635
      ],
      [
        "tre",
        -7.971972707570799
      ],
      [
        "tu",
        -7.97316309250293
      ],
      [
        "és",
        -7.974900104557216
      ],
      [
        "▁Comme",
        -7.977545020032057
      ],
      [
        "▁daal",
        -7.980561438754616
      ],
      [
        "ions",
        -7.987947914392324
      ],
      [
        "▁p",
        -7.993010690373174
      ],
      [
        "▁Quel",
        -7.995528148849839
      ],
      [
        "▁ñépp",
        -8.005108108076616
      ],
      [
        "▁Ndax",
        -8.00543953140841
      ],
      [
        "vait",
        -8.008154415322716
      ],
      [
        "▁semble",
        -8.013442584388839
      ],
      [
        "▁dañu",
        -8.01480572213385
      ],
      [
        "▁m'a",
        -8.015419354758526
      ],
      [
        "▁t",
        -8.017448498444425
      ],
      [
        "ù",
        -8.030341641820339
      ],
      [
        "▁xare",
        -8.031719374392079
      ],
      [
        "▁l'autre",
        -8.032722989092322
      ],
      [
        "pendant",
        -8.033023495116426
      ],
      [
        "▁Mon",
        -8.03358601750901
      ],
      [
        "kat",
        -8.034254081522946
      ],
      [
        "▁rien",
        -8.035546248683948
      ],
      [
        "▁itam",
        -8.037265027044722
      ],
      [
        "▁elle",
        -8.042407347559143
      ],
      [
        "ak",
        -8.047166474640779
      ],
      [
        "▁ban",
        -8.054273728307862
      ],
      [
        "▁sui",
        -8.054550690980982
      ],
      [
        "s-tu",
        -8.055588083197243
      ],
      [
        "▁àddina",
        -8.056405609629063
      ],
      [
        "▁Ba",
        -8.056805363750811
      ],
      [
        "▁taxaw",
        -8.058667086099778
      ],
      [
        "▁bët",
        -8.060360195168695
      ],
      [
        "▁génn",
        -8.061563116493248
      ],
      [
        "ses",
        -8.06219089196352
      ],
      [
        "▁lañ",
        -8.063909519667321
      ],
      [
        "▁Xam",
        -8.067780757034107
      ],
      [
        "▁peut",
        -8.068539940678427
      ],
      [
        "ante",
        -8.069691987817823
      ],
      [
        "▁va",
        -8.069729116459733
      ],
      [
        "▁l'a",
        -8.070235371565797
      ],
      [
        "▁personne",
        -8.071957979692506
      ],
      [
        "▁loxo",
        -8.074018646233604
      ],
      [
        "eux",
        -8.074195011905566
      ],
      [
        "ma",
        -8.077708014865447
      ],
      [
        "▁jot",
        -8.079925157515845
      ],
      [
        "▁jël",
        -8.080995014950776
      ],
      [
        "▁femmes",
        -8.085803507938758
      ],
      [
        "▁dex",
        -8.090042519948817
      ],
      [
        "▁xonq",
        -8.090697145943173
      ],
      [
        "▁jamais",
        -8.090705438516906
      ],
      [
        "▁corps",
        -8.090936647544082
      ],
      [
        "▁ŋgeen",
        -8.092442272491226
      ],
      [
        "▁sous",
        -8.09351700108116
      ],
      [
        "épp",
        -8.094004614715399
      ],
      [
        "▁mes",
        -8.095089567341192
      ],
      [
        "▁waa",
        -8.106984587211652
      ],
      [
        "▁jóge",
        -8.110305090844435
      ],
      [
        "▁dugg",
        -8.11249150513971
      ],
      [
        "▁xarit",
        -8.116824776161463
      ],
      [
        "▁doute",
        -8.121097855934822
      ],
      [
        "▁bari",
        -8.123364389465037
      ],
      [
        "▁dégg",
        -8.123748839230458
      ],
      [
        "quelle",
        -8.123946107950655
      ],
      [
        "▁jour",
        -8.125200001708661
      ],
      [
        "▁C",
        -8.128216277970438
      ],
      [
        "▁yaa",
        -8.128500253128665
      ],
      [
        "▁ja",
        -8.131766876928756
      ],
      [
        "▁neex",
        -8.136178851907621
      ],
      [
        "▁nii",
        -8.139609633349728
      ],
      [
        "'",
        -8.148967691662712
      ],
      [
        "▁noonu",
        -8.154122506711962
      ],
      [
        "ation",
        -8.154807346073817
      ],
      [
        "on",
        -8.15819592392863
      ],
      [
        "▁Lu",
        -8.159314474563713
      ],
      [
        "▁wu",
        -8.159735965235345
      ],
      [
        "▁mbir",
        -8.180077431861283
      ],
      [
        "▁fii",
        -8.180440292376101
      ],
      [
        "▁sorte",
        -8.183068386616025
      ],
      [
        "▁kaw",
        -8.183321182674025
      ],
      [
        "▁loin",
        -8.184502577066146
      ],
      [
        "▁léeg-léeg",
        -8.18450424259472
      ],
      [
        "▁Kamerun",
        -8.184504242815052
      ],
      [
        "▁là-bas",
        -8.184504243531332
      ],
      [
        "▁Tubaab",
        -8.185708165056285
      ],
      [
        "▁terre",
        -8.186621825630905
      ],
      [
        "▁Daf",
        -8.187152334305768
      ],
      [
        "▁re",
        -8.199673232693272
      ],
      [
        "uñu",
        -8.210618544746707
      ],
      [
        "▁ginnaaw",
        -8.213783019715267
      ],
      [
        "▁B",
        -8.214900421634365
      ],
      [
        "▁N",
        -8.21657721569451
      ],
      [
        "▁foofu",
        -8.217979802091765
      ],
      [
        "▁fois",
        -8.21885460552111
      ],
      [
        "▁d'autres",
        -8.221774583003098
      ],
      [
        "▁ai",
        -8.222594898155293
      ],
      [
        "▁f",
        -8.223396130678962
      ],
      [
        "▁Bu",
        -8.22663066895945
      ],
      [
        "ale",
        -8.226893297588258
      ],
      [
        "▁Lii",
        -8.231871660937156
      ],
      [
        "▁bare",
        -8.231963053766762
      ],
      [
        "▁da",
        -8.240117113807747
      ],
      [
        "▁nee",
        -8.241429120847004
      ],
      [
        "▁daa",
        -8.241980267092146
      ],
      [
        "▁quan",
        -8.245897238708523
      ],
      [
        "▁Xar",
        -8.246555214145737
      ],
      [
        "▁Fa",
        -8.24933342325766
      ],
      [
        "▁yeneen",
        -8.250941584751061
      ],
      [
        "▁bois",
        -8.252462163885742
      ],
      [
        "▁dee",
        -8.253266259937732
      ],
      [
        "▁waaw",
        -8.253507805301089
      ],
      [
        "▁Et",
        -8.25499327229231
      ],
      [
        "▁jaar",
        -8.257184382424473
      ],
      [
        "▁Ku",
        -8.257733119759541
      ],
      [
        "▁F",
        -8.263473231575617
      ],
      [
        "▁voir",
        -8.26433354104861
      ],
      [
        "▁dox",
        -8.27896780697515
      ],
      [
        "▁étai",
        -8.28061106068705
      ],
      [
        "▁'",
        -8.284021514661402
      ],
      [
        "▁après",
        -8.288318570872967
      ],
      [
        "▁peut-être",
        -8.288673317188591
      ],
      [
        "▁c'était",
        -8.289045414966488
      ],
      [
        "▁daw",
        -8.290899265654264
      ],
      [
        "▁boppam",
        -8.29099230835925
      ],
      [
        "▁crois",
        -8.291242476603317
      ],
      [
        "▁On",
        -8.291775864290619
      ],
      [
        "▁entre",
        -8.291976246323118
      ],
      [
        "▁non",
        -8.292014658040086
      ],
      [
        "▁arbres",
        -8.295863819910156
      ],
      [
        "▁dund",
        -8.30539017087131
      ],
      [
        "▁route",
        -8.307004795593137
      ],
      [
        "en",
        -8.311805334344369
      ],
      [
        "f",
        -8.318281759500568
      ],
      [
        "e.",
        -8.318673811715657
      ],
      [
        "▁l'Afrique",
        -8.325071657327928
      ],
      [
        "▁veut",
        -8.325091853825574
      ],
      [
        "▁Loolu",
        -8.325270817944237
      ],
      [
        "▁ňu",
        -8.32579927238578
      ],
      [
        "▁années",
        -8.326636653570965
      ],
      [
        "▁xaw",
        -8.32813496465236
      ],
      [
        "▁Sée",
        -8.328856817545876
      ],
      [
        "▁Tout",
        -8.331237723081173
      ],
      [
        "▁devant",
        -8.332544373239978
      ],
      [
        "▁in",
        -8.334299562575232
      ],
      [
        "▁ans",
        -8.337213948087792
      ],
      [
        "▁mer",
        -8.33735749744662
      ],
      [
        "▁chambre",
        -8.341390788817233
      ],
      [
        "▁yoo",
        -8.34920549379813
      ],
      [
        "▁gii",
        -8.354981473572511
      ],
      [
        "▁Mi",
        -8.355007755470009
      ],
      [
        "▁solo",
        -8.355777542575318
      ],
      [
        "▁travers",
        -8.359440503152308
      ],
      [
        "▁bañ",
        -8.363170465788464
      ],
      [
        "▁Qui",
        -8.363533195759551
      ],
      [
        "▁Ogoja",
        -8.363533195777542
      ],
      [
        "▁Afrique",
        -8.363533200303676
      ],
      [
        "▁forêt",
        -8.3635340994586
      ],
      [
        "▁beaucoup",
        -8.363544211036748
      ],
      [
        "▁dëgg",
        -8.363824952486441
      ],
      [
        "▁Oui",
        -8.3661799860672
      ],
      [
        "▁avant",
        -8.367730146733974
      ],
      [
        "▁Ni",
        -8.368452287057154
      ],
      [
        "▁Xale",
        -8.370612155387157
      ],
      [
        "▁rouge",
        -8.381890423424812
      ],
      [
        "▁Bi",
        -8.387434917935837
      ],
      [
        "▁wet",
        -8.387706682899285
      ],
      [
        "▁nuit",
        -8.38772504185367
      ],
      [
        "▁haut",
        -8.390456030148744
      ],
      [
        "▁g",
        -8.396127921655554
      ],
      [
        "▁lal",
        -8.398917384294483
      ],
      [
        "-là",
        -8.399297186196318
      ],
      [
        "▁moutons",
        -8.401039022287424
      ],
      [
        "▁Ca",
        -8.402685574164927
      ],
      [
        "▁kooku",
        -8.402739215850072
      ],
      [
        "▁Man",
        -8.402789460363813
      ],
      [
        "▁celui",
        -8.403185533057348
      ],
      [
        "▁topp",
        -8.403517228314119
      ],
      [
        "▁daanaka",
        -8.403822479402063
      ],
      [
        "▁contre",
        -8.403841594211833
      ],
      [
        "▁jooju",
        -8.404144616400163
      ],
      [
        "▁Ceci",
        -8.40424528940978
      ],
      [
        "▁vers",
        -8.404755837840227
      ],
      [
        "ont",
        -8.409823075623136
      ],
      [
        "ce",
        -8.411075158733752
      ],
      [
        "▁E",
        -8.41255885598593
      ],
      [
        "▁bunt",
        -8.415691853919762
      ],
      [
        "uma",
        -8.415940604013901
      ],
      [
        "ées",
        -8.419014209039943
      ],
      [
        "▁amis",
        -8.419955201410104
      ],
      [
        "et",
        -8.422935066169812
      ],
      [
        "▁blanche",
        -8.423841728911068
      ],
      [
        "ne",
        -8.42772979648748
      ],
      [
        "▁case",
        -8.428148323224624
      ],
      [
        "c",
        -8.428821322465659
      ],
      [
        "▁médecin",
        -8.432650716384202
      ],
      [
        "▁tànk",
        -8.432904344288437
      ],
      [
        "▁mas",
        -8.43351599565075
      ],
      [
        "▁Soo",
        -8.43495738808591
      ],
      [
        "▁tudd",
        -8.436500346851602
      ],
      [
        "eurs",
        -8.437710990372768
      ],
      [
        "▁eux",
        -8.439821788449205
      ],
      [
        "quoi",
        -8.44273094680295
      ],
      [
        "▁France",
        -8.44520424279257
      ],
      [
        "▁Vous",
        -8.445205083792533
      ],
      [
        "▁Cameroun",
        -8.445212539681037
      ],
      [
        "▁quelqu'un",
        -8.445233488953809
      ],
      [
        "▁fàww",
        -8.445245074971304
      ],
      [
        "▁ceux-là",
        -8.4454186860936
      ],
      [
        "▁matin",
        -8.445688073834258
      ],
      [
        "▁voit",
        -8.44590404322548
      ],
      [
        "▁Sama",
        -8.446057061794662
      ],
      [
        "▁Elle",
        -8.446112950866327
      ],
      [
        "aan",
        -8.446331491823894
      ],
      [
        "▁pouvait",
        -8.453817483863416
      ],
      [
        "▁nuy",
        -8.457550386098792
      ],
      [
        "▁metti",
        -8.457900152542994
      ],
      [
        "▁day",
        -8.461996781325508
      ],
      [
        "▁vo",
        -8.466188907345174
      ],
      [
        "▁blanc",
        -8.468111026736006
      ],
      [
        "▁Y",
        -8.469109658034984
      ],
      [
        "ir",
        -8.472761077610153
      ],
      [
        "▁autres",
        -8.476895544688194
      ],
      [
        "▁Dan",
        -8.479458593756945
      ],
      [
        "▁lan",
        -8.479567193074768
      ],
      [
        "▁Que",
        -8.48683769963202
      ],
      [
        "▁fas",
        -8.486848658246434
      ],
      [
        "▁es",
        -8.489784040049402
      ],
      [
        "▁aujourd'hui",
        -8.490266365936627
      ],
      [
        "▁soit",
        -8.490317895218396
      ],
      [
        "▁donné",
        -8.490739862390884
      ],
      [
        "▁ici",
        -8.491357081038611
      ],
      [
        "▁kan",
        -8.49164108263876
      ],
      [
        "▁ceux",
        -8.492402070680903
      ],
      [
        "▁enfant",
        -8.493201443963603
      ],
      [
        "▁Na",
        -8.49433848175093
      ],
      [
        "vaient",
        -8.496105038222789
      ],
      [
        "▁noir",
        -8.49759758677206
      ],
      [
        "autour",
        -8.500467352335605
      ],
      [
        "avoir",
        -8.50182305416274
      ],
      [
        "▁jàpp",
        -8.5019115328004
      ],
      [
        "▁Sa",
        -8.504584604801423
      ],
      [
        "▁wàn",
        -8.506486187057163
      ],
      [
        "▁quelle",
        -8.507772826684565
      ],
      [
        "ook",
        -8.509538329646606
      ],
      [
        "▁fàttaliku",
        -8.509869523241733
      ],
      [
        "ek",
        -8.510615712805594
      ],
      [
        "▁xol",
        -8.51501270994622
      ],
      [
        "▁personnes",
        -8.517586247683745
      ],
      [
        "iers",
        -8.519038748943693
      ],
      [
        "h",
        -8.519890101492757
      ],
      [
        "▁M",
        -8.522309567519915
      ],
      [
        "▁Ay",
        -8.525699896860342
      ],
      [
        "▁ëpp",
        -8.525932319731336
      ],
      [
        "▁port",
        -8.529390054095286
      ],
      [
        "▁yaakaar",
        -8.534139396630678
      ],
      [
        "▁Naka",
        -8.534180541596747
      ],
      [
        "▁au-dessus",
        -8.534275693940499
      ],
      [
        "▁verre",
        -8.534305533920309
      ],
      [
        "▁Pour",
        -8.534462425224081
      ],
      [
        "▁aucun",
        -8.535020867705292
      ],
      [
        "▁lequel",
        -8.536206985482362
      ],
      [
        "aat",
        -8.53624940462819
      ],
      [
        "▁dóor",
        -8.537007664665044
      ],
      [
        "▁bout",
        -8.538490338345282
      ],
      [
        "▁gaal",
        -8.538926019623162
      ],
      [
        "▁xamul",
        -8.547476512865074
      ],
      [
        "▁qu'",
        -8.549835553118289
      ],
      [
        "▁So",
        -8.552416246053188
      ],
      [
        "▁dana",
        -8.5545279605934
      ],
      [
        "▁puis",
        -8.562300247015607
      ],
      [
        "▁bokk",
        -8.565512527781866
      ],
      [
        "▁seul",
        -8.565730302692234
      ],
      [
        "▁s'",
        -8.568941420199874
      ],
      [
        "▁leer",
        -8.569019803958746
      ],
      [
        "▁jox",
        -8.569658983604622
      ],
      [
        "▁posé",
        -8.57200823184722
      ],
      [
        "▁passé",
        -8.573366482901967
      ],
      [
        "▁Ken",
        -8.577729552281363
      ],
      [
        "▁soleil",
        -8.581759543259356
      ],
      [
        "▁Wànte",
        -8.581767589516854
      ],
      [
        "▁milieu",
        -8.58176841688347
      ],
      [
        "▁xalaat",
        -8.581841192182221
      ],
      [
        "▁Bëgg",
        -8.581863691719008
      ],
      [
        "▁tali",
        -8.581899436486392
      ],
      [
        "▁yàgg",
        -8.582387543115109
      ],
      [
        "▁coté",
        -8.582440722338895
      ],
      [
        "▁say",
        -8.582538830875805
      ],
      [
        "▁weer",
        -8.583079682130933
      ],
      [
        "▁J'",
        -8.584101869935832
      ],
      [
        "▁For",
        -8.588511912234004
      ],
      [
        "▁C'étai",
        -8.588643953184777
      ],
      [
        "il",
        -8.592757792741393
      ],
      [
        "kk",
        -8.593787810217114
      ],
      [
        "ata",
        -8.596003251323026
      ],
      [
        "▁hommes",
        -8.596633819342209
      ],
      [
        "-il",
        -8.59787460584118
      ],
      [
        "enn",
        -8.600746024256031
      ],
      [
        "▁Au",
        -8.601605154095255
      ],
      [
        "ug",
        -8.603006884325069
      ],
      [
        "▁pu",
        -8.60362285717858
      ],
      [
        "▁n'étai",
        -8.607547508028182
      ],
      [
        "▁defar",
        -8.607733584900643
      ],
      [
        "té",
        -8.608327118752083
      ],
      [
        "-ci",
        -8.608837682787037
      ],
      [
        "▁village",
        -8.611773366481547
      ],
      [
        "ine",
        -8.611831910507403
      ],
      [
        "▁Waa",
        -8.61444676601246
      ],
      [
        "▁fan",
        -8.61744236317708
      ],
      [
        "▁gaa",
        -8.618723653344345
      ],
      [
        "koon",
        -8.619040065537794
      ],
      [
        "▁dina",
        -8.626535425066743
      ],
      [
        "▁passe",
        -8.62841525296427
      ],
      [
        "▁Seet",
        -8.628915755384096
      ],
      [
        "▁fin",
        -8.62908150598636
      ],
      [
        "▁reste",
        -8.629935910197167
      ],
      [
        "▁bind",
        -8.630677767433655
      ],
      [
        "▁lay",
        -8.630914043813785
      ],
      [
        "igéen",
        -8.63162580139616
      ],
      [
        "▁Móris",
        -8.63175171704154
      ],
      [
        "▁seulement",
        -8.632365838803192
      ],
      [
        "▁Niseryaa",
        -8.632453146311313
      ],
      [
        "▁bord",
        -8.63289792402199
      ],
      [
        "▁debout",
        -8.633174538387374
      ],
      [
        "▁Quan",
        -8.634024654567828
      ],
      [
        "▁réy",
        -8.635113163981503
      ],
      [
        "▁jeex",
        -8.635215946559711
      ],
      [
        "▁jaay",
        -8.637020133880991
      ],
      [
        "▁murs",
        -8.637341634858128
      ],
      [
        "▁guddi",
        -8.63804693134519
      ],
      [
        "▁Wax",
        -8.639201433900638
      ],
      [
        "▁ndox",
        -8.644516902323586
      ],
      [
        "▁Ben",
        -8.64726884824503
      ],
      [
        "▁parler",
        -8.659025920359412
      ],
      [
        "geen",
        -8.660762378633212
      ],
      [
        "▁vrai",
        -8.66126991264288
      ],
      [
        "▁ville",
        -8.661443213517567
      ],
      [
        "ez",
        -8.663877220624776
      ],
      [
        "▁ñàkk",
        -8.666513892002621
      ],
      [
        "▁seet",
        -8.670551535809963
      ],
      [
        "▁regard",
        -8.676550526769912
      ],
      [
        "▁ressemble",
        -8.683423651623137
      ],
      [
        "▁souviens",
        -8.68438329544525
      ],
      [
        "▁grand-mère",
        -8.684383310681326
      ],
      [
        "▁doom-aadama",
        -8.684395465557612
      ],
      [
        "▁Nigeria",
        -8.684395873563181
      ],
      [
        "▁question",
        -8.684414542383127
      ],
      [
        "▁gàtt",
        -8.684423978153564
      ],
      [
        "▁l'eau",
        -8.684574980751238
      ],
      [
        "▁nettali",
        -8.684624711206066
      ],
      [
        "▁dellu",
        -8.684645200649207
      ],
      [
        "▁wéy",
        -8.684732136255747
      ],
      [
        "▁Bansoo",
        -8.684805400366884
      ],
      [
        "▁Cela",
        -8.68487192155189
      ],
      [
        "▁Keneen",
        -8.684938896379848
      ],
      [
        "▁beneen",
        -8.684985352411143
      ],
      [
        "▁manière",
        -8.685958751863158
      ],
      [
        "▁Yaa",
        -8.686218950205738
      ],
      [
        "▁côté",
        -8.686410069029037
      ],
      [
        "▁door",
        -8.688309501178763
      ],
      [
        "in",
        -8.689677096642432
      ],
      [
        "j",
        -8.690422298603162
      ],
      [
        "▁yeux",
        -8.690573100211456
      ],
      [
        "▁baay",
        -8.696567923544285
      ],
      [
        "▁eu",
        -8.697008272301412
      ],
      [
        "▁yee",
        -8.699219054032454
      ],
      [
        "▁n'ai",
        -8.701157860399306
      ],
      [
        "▁poisson",
        -8.703080601876088
      ],
      [
        "wul",
        -8.703683834449635
      ],
      [
        "loo",
        -8.705229474158486
      ],
      [
        "▁fo",
        -8.705793054398905
      ],
      [
        "ux",
        -8.709335689373548
      ],
      [
        "▁n'avai",
        -8.710774154444676
      ],
      [
        "▁jiit",
        -8.710933274962573
      ],
      [
        "▁bon",
        -8.711402704441172
      ],
      [
        "ci",
        -8.712287780324097
      ],
      [
        "▁kii",
        -8.713201320083066
      ],
      [
        "▁maam",
        -8.716676501729886
      ],
      [
        "▁bay",
        -8.720452325728713
      ],
      [
        "▁rivière",
        -8.721306487157129
      ],
      [
        "▁voyage",
        -8.724989993113162
      ],
      [
        "maa",
        -8.725572651497004
      ],
      [
        "lu",
        -8.72803818190187
      ],
      [
        "▁faj",
        -8.72818184749619
      ],
      [
        "?",
        -8.729113711147908
      ],
      [
        "▁aw",
        -8.733613470846397
      ],
      [
        "▁bàyyi",
        -8.73949687200004
      ],
      [
        "▁Laobe",
        -8.739939123584112
      ],
      [
        "▁njëkk",
        -8.73993941415078
      ],
      [
        "▁S'il",
        -8.739941579570752
      ],
      [
        "▁Samba",
        -8.739965937322797
      ],
      [
        "▁séen",
        -8.739967904433723
      ],
      [
        "▁cheval",
        -8.73999053541501
      ],
      [
        "béré",
        -8.740019172142496
      ],
      [
        "▁quel",
        -8.740105421317917
      ],
      [
        "▁xeer",
        -8.74015987829806
      ],
      [
        "▁téere",
        -8.740412608474374
      ],
      [
        "▁faa",
        -8.74068361209881
      ],
      [
        "▁dénk",
        -8.740706262531663
      ],
      [
        "▁yor",
        -8.74148507771124
      ],
      [
        "▁fourmis",
        -8.74166254642968
      ],
      [
        "▁soir",
        -8.742043496229485
      ],
      [
        "▁Moom",
        -8.742105344250223
      ],
      [
        "▁mot",
        -8.742348916661797
      ],
      [
        "▁vache",
        -8.742991866777562
      ],
      [
        "▁ubbi",
        -8.743390036512535
      ],
      [
        "▁gee",
        -8.743806556309465
      ],
      [
        "▁près",
        -8.747774165341616
      ],
      [
        "'exil",
        -8.749251580657305
      ],
      [
        "▁tudde",
        -8.752622023165806
      ],
      [
        "▁aller",
        -8.753185785227997
      ],
      [
        "▁ñ",
        -8.755229813326395
      ],
      [
        "ukaay",
        -8.755685034981045
      ],
      [
        "▁tel",
        -8.758302984272316
      ],
      [
        "ng",
        -8.76266449950427
      ],
      [
        "▁nun",
        -8.764587018719777
      ],
      [
        "▁égaré",
        -8.76640166940663
      ],
      [
        "▁ña",
        -8.768485485987867
      ],
      [
        "▁amoon",
        -8.768861969387808
      ],
      [
        "▁long",
        -8.769701644332635
      ],
      [
        "▁mat",
        -8.771781965063235
      ],
      [
        "▁dëkki",
        -8.77304053921933
      ],
      [
        "▁no",
        -8.77352238863643
      ],
      [
        "▁moment",
        -8.77808414405308
      ],
      [
        "▁montre",
        -8.77937785108621
      ],
      [
        "être",
        -8.779469048897958
      ],
      [
        "▁lion",
        -8.781177683897138
      ],
      [
        "▁lanu",
        -8.781536650586473
      ],
      [
        "▁dé",
        -8.786275290538612
      ],
      [
        "▁toute",
        -8.786801156148687
      ],
      [
        "▁grande",
        -8.78836218819258
      ],
      [
        "▁mal",
        -8.789795767342175
      ],
      [
        "▁so",
        -8.790691771614227
      ],
      [
        "▁aperç",
        -8.792957598026824
      ],
      [
        "nu",
        -8.794699970511614
      ],
      [
        "▁Banso",
        -8.798289793819928
      ],
      [
        "▁Àngalteer",
        -8.798762380290219
      ],
      [
        "▁Alors",
        -8.79876249578797
      ],
      [
        "▁tàmbal",
        -8.798764898741751
      ],
      [
        "▁gunóor",
        -8.79878523758459
      ],
      [
        "▁peau",
        -8.798819759353592
      ],
      [
        "▁Àngale",
        -8.798854329701829
      ],
      [
        "▁dàll",
        -8.798938038523051
      ],
      [
        "▁seetlu",
        -8.798983660553889
      ],
      [
        "▁Ñoom",
        -8.79924916363645
      ],
      [
        "▁tuuti",
        -8.799522525114403
      ],
      [
        "▁plaine",
        -8.799987588888559
      ],
      [
        "▁yaatu",
        -8.80072983212671
      ],
      [
        "▁mii",
        -8.801440464225905
      ],
      [
        "▁dire",
        -8.801844602415649
      ],
      [
        "▁doomu",
        -8.802512792387354
      ],
      [
        "▁kanam",
        -8.802854541220972
      ],
      [
        "▁mujje",
        -8.803180773707037
      ],
      [
        "▁lit",
        -8.804937419786054
      ],
      [
        "▁dama",
        -8.805222610674111
      ],
      [
        "am.",
        -8.805895100077532
      ],
      [
        "▁toit",
        -8.806929438745472
      ],
      [
        "▁maanaa",
        -8.809862033888189
      ],
      [
        "▁gaynde",
        -8.810139454714138
      ],
      [
        "▁miir",
        -8.810468288818175
      ],
      [
        "▁Ra",
        -8.810887131637113
      ],
      [
        "▁assis",
        -8.812220158792902
      ],
      [
        "▁bant",
        -8.812734941240558
      ],
      [
        "▁Di",
        -8.813580488352876
      ],
      [
        "▁mains",
        -8.813842912341428
      ],
      [
        "▁wut",
        -8.815584546942166
      ],
      [
        "▁gudd",
        -8.820063157388118
      ],
      [
        "tôt",
        -8.828602090197414
      ],
      [
        "▁grand",
        -8.82980228967352
      ],
      [
        "▁l'ai",
        -8.831241347551412
      ],
      [
        "-na",
        -8.83239313349548
      ],
      [
        "▁W",
        -8.832760037801467
      ],
      [
        "em",
        -8.834104059048455
      ],
      [
        "▁aurait",
        -8.83487894739607
      ],
      [
        "▁jours",
        -8.83718424908243
      ],
      [
        "▁plu",
        -8.841278022133736
      ],
      [
        "▁lorsqu",
        -8.842135892817673
      ],
      [
        "ère",
        -8.845687169447748
      ],
      [
        "▁doom",
        -8.846501643461444
      ],
      [
        "▁waaj",
        -8.848928918088959
      ],
      [
        "ngir",
        -8.851778390582664
      ],
      [
        "▁t'a",
        -8.854330995994548
      ],
      [
        "▁way-jur",
        -8.858558227268649
      ],
      [
        "faral",
        -8.859589692960443
      ],
      [
        "▁Kooku",
        -8.860876344340754
      ],
      [
        "àddaay",
        -8.861059115569942
      ],
      [
        "▁<mask>",
        -8.861262380283865
      ],
      [
        "▁jardin",
        -8.861263092542236
      ],
      [
        "▁l'Ouest",
        -8.8613115382882
      ],
      [
        "▁moroom",
        -8.861368431483442
      ],
      [
        "▁dunyaa",
        -8.861413169048237
      ],
      [
        "▁xeet",
        -8.86185651499229
      ],
      [
        "▁trois",
        -8.862119614174249
      ],
      [
        "▁trop",
        -8.862119969221348
      ],
      [
        "▁Kon",
        -8.862258632832779
      ],
      [
        "▁takk",
        -8.863436147185892
      ],
      [
        "▁s'il",
        -8.863493637115042
      ],
      [
        "avons",
        -8.864027781420978
      ],
      [
        "▁leneen",
        -8.864601633396454
      ],
      [
        "▁feebar",
        -8.865125991779195
      ],
      [
        "▁demkoon",
        -8.865380847603383
      ],
      [
        "▁moomu",
        -8.867970785309527
      ],
      [
        "▁laaj",
        -8.86855120068567
      ],
      [
        "▁ta",
        -8.869160179719906
      ],
      [
        "▁K",
        -8.869783776142611
      ],
      [
        "▁montagnes",
        -8.871043679754091
      ],
      [
        "▁vient",
        -8.876063463289986
      ],
      [
        "▁ko.",
        -8.877393661280339
      ],
      [
        "▁jeune",
        -8.877608936018735
      ],
      [
        "▁mort",
        -8.879946542407277
      ],
      [
        "▁Bamenda",
        -8.881869782107922
      ],
      [
        "▁nos",
        -8.881992142332141
      ],
      [
        "▁wone",
        -8.884073210759635
      ],
      [
        "ub",
        -8.886047238129475
      ],
      [
        "voir",
        -8.890151109723831
      ],
      [
        "▁marché",
        -8.896415555252933
      ],
      [
        "armée",
        -8.898005586196115
      ],
      [
        "▁Boo",
        -8.901737589850445
      ],
      [
        "leen",
        -8.901959800006493
      ],
      [
        "ur",
        -8.903803687482458
      ],
      [
        "▁L'",
        -8.904350917928452
      ],
      [
        "▁ami",
        -8.904436440949961
      ],
      [
        "▁won",
        -8.904548806304936
      ],
      [
        "▁Fu",
        -8.905679700688358
      ],
      [
        "▁yére",
        -8.908708720974703
      ],
      [
        "▁Va",
        -8.909665718785165
      ],
      [
        "age",
        -8.911653630899647
      ],
      [
        "▁parte",
        -8.914573283653787
      ],
      [
        "▁fond",
        -8.918376665228623
      ],
      [
        "▁garde",
        -8.918457314125645
      ],
      [
        "▁defe",
        -8.920721400325217
      ],
      [
        "▁partie",
        -8.922686295462748
      ],
      [
        "ñu",
        -8.925133746437584
      ],
      [
        "▁trouve",
        -8.92690945312537
      ],
      [
        "▁lieu",
        -8.927366757233738
      ],
      [
        "▁violence",
        -8.927929811123086
      ],
      [
        "▁House",
        -8.927939711128388
      ],
      [
        "▁tollu",
        -8.927947218861563
      ],
      [
        "▁làrme",
        -8.92795426673972
      ],
      [
        "▁doktoor",
        -8.927955610536191
      ],
      [
        "▁Aucun",
        -8.927960692969476
      ],
      [
        "▁jéem",
        -8.927969428701346
      ],
      [
        "▁ëe",
        -8.92797065722505
      ],
      [
        "▁Celui-là",
        -8.927980965650004
      ],
      [
        "▁yónnee",
        -8.928301533235969
      ],
      [
        "▁Yaw",
        -8.928303543745962
      ],
      [
        "▁simplement",
        -8.928312766170297
      ],
      [
        "▁gént",
        -8.928410220767201
      ],
      [
        "▁cause",
        -8.928905894903785
      ],
      [
        "▁salle",
        -8.929098076466591
      ],
      [
        "▁Ak",
        -8.929611490750366
      ],
      [
        "▁ňaar",
        -8.929705382267148
      ],
      [
        "▁deret",
        -8.929785177978708
      ],
      [
        "ël",
        -8.92982330498634
      ],
      [
        "▁ñan",
        -8.93084874385372
      ],
      [
        "▁dame",
        -8.931229395037352
      ],
      [
        "▁Noonu",
        -8.931238004358159
      ],
      [
        "▁Dama",
        -8.93124974003278
      ],
      [
        "▁boog",
        -8.932456079488935
      ],
      [
        "estr",
        -8.93262394076169
      ],
      [
        "ons",
        -8.933367562793956
      ],
      [
        "▁romb",
        -8.93407264157551
      ],
      [
        "▁ciel",
        -8.934319602051234
      ],
      [
        "▁bëggul",
        -8.934378711500996
      ],
      [
        "▁portent",
        -8.9347853431685
      ],
      [
        "▁doomi",
        -8.935310536276411
      ],
      [
        "▁allé",
        -8.935718352854757
      ],
      [
        "▁marche",
        -8.935879936123133
      ],
      [
        "ra",
        -8.938897774932746
      ],
      [
        "▁buntu",
        -8.942123006106966
      ],
      [
        "▁fut",
        -8.943602623441876
      ],
      [
        "▁neen",
        -8.950356793385698
      ],
      [
        "▁niroo",
        -8.954284705711428
      ],
      [
        "▁villages",
        -8.955440475598495
      ],
      [
        "▁song",
        -8.956601984313298
      ],
      [
        "▁jii",
        -8.95666942376825
      ],
      [
        "▁tur",
        -8.960482112428016
      ],
      [
        "▁blancs",
        -8.961617030892183
      ],
      [
        "rait",
        -8.965686956370575
      ],
      [
        "▁fàtte",
        -8.967128461593184
      ],
      [
        "eur",
        -8.969396398370321
      ],
      [
        "▁baa",
        -8.97132084219618
      ],
      [
        "▁travail",
        -8.973850697480035
      ],
      [
        "▁jolie",
        -8.975735054666714
      ],
      [
        "ň",
        -8.97730276868734
      ],
      [
        "▁souvenir",
        -8.97890305060656
      ],
      [
        "▁Kan",
        -8.983532694186671
      ],
      [
        "▁Là",
        -8.986415639066404
      ],
      [
        "▁parles",
        -8.98763822707056
      ],
      [
        "atul",
        -8.991275207944133
      ],
      [
        "▁néegu",
        -8.995418637929896
      ],
      [
        "óon",
        -8.996067193770557
      ],
      [
        "▁portes",
        -8.997128735784862
      ],
      [
        "▁Saint-Louis",
        -8.99935761857643
      ],
      [
        "▁endroit",
        -8.999357715373339
      ],
      [
        "▁Yàlla",
        -8.9993588251101
      ],
      [
        "▁famille",
        -8.999358962099533
      ],
      [
        "▁togg",
        -8.999359754343482
      ],
      [
        "▁mémoire",
        -8.999360249674282
      ],
      [
        "▁diiwaan",
        -8.999398462764498
      ],
      [
        "▁paix",
        -8.999425481322739
      ],
      [
        "▁ngelaw",
        -8.99942908000876
      ],
      [
        "▁tangor",
        -8.999564894910646
      ],
      [
        "▁celui-ci",
        -8.99960601200379
      ],
      [
        "▁l'hôpital",
        -8.999748569989633
      ],
      [
        "▁Seen",
        -8.999774190269894
      ],
      [
        "▁Qu'il",
        -8.999825129073455
      ],
      [
        "▁heures",
        -8.999951563601076
      ],
      [
        "▁gaaw",
        -9.000272574666173
      ],
      [
        "▁wóor",
        -9.000292087951648
      ],
      [
        "▁vécu",
        -9.000364180692012
      ],
      [
        "▁mépp",
        -9.000403837623088
      ],
      [
        "as-tu",
        -9.002597117621495
      ],
      [
        "aire",
        -9.002978055422815
      ],
      [
        "▁tard",
        -9.003071505906451
      ],
      [
        "▁Wall",
        -9.003362660307008
      ],
      [
        "▁Ndar",
        -9.003403214454618
      ],
      [
        "▁bras",
        -9.003426796102973
      ],
      [
        "▁taxoon",
        -9.005727597907255
      ],
      [
        "▁gendarmes",
        -9.006374067197326
      ],
      [
        "ité",
        -9.008346551240159
      ],
      [
        "▁jënd",
        -9.008919662498492
      ],
      [
        "▁Fan",
        -9.010896385140565
      ],
      [
        "at",
        -9.011006463525762
      ],
      [
        "atum",
        -9.011277651552437
      ],
      [
        "▁s'en",
        -9.011464570441083
      ],
      [
        "▁celle",
        -9.013779311583027
      ],
      [
        "▁parlait",
        -9.014164957607829
      ],
      [
        "▁masu",
        -9.016728802422723
      ],
      [
        "▁An",
        -9.017069834059022
      ],
      [
        "▁googu",
        -9.019195975360418
      ],
      [
        "▁Nga",
        -9.020631785322662
      ],
      [
        "▁Mën",
        -9.021187455822531
      ],
      [
        "▁Da",
        -9.021913286839718
      ],
      [
        "▁petit",
        -9.02406833783024
      ],
      [
        "▁pres",
        -9.026688953390924
      ],
      [
        "▁sais",
        -9.027127716525804
      ],
      [
        "▁sore",
        -9.028659190598864
      ],
      [
        "▁tabax",
        -9.030016715071675
      ],
      [
        "waat",
        -9.032121976950078
      ],
      [
        "▁toutes",
        -9.034206552550774
      ],
      [
        "▁qu'un",
        -9.035115992309315
      ],
      [
        "▁appelle",
        -9.035863610543505
      ],
      [
        "▁j",
        -9.036115638670314
      ],
      [
        "▁noirs",
        -9.037347078394284
      ],
      [
        "oŋ",
        -9.03970468157129
      ],
      [
        "▁connu",
        -9.04015102118407
      ],
      [
        "▁vieille",
        -9.040327282406041
      ],
      [
        "▁sori",
        -9.041463096957933
      ],
      [
        "▁noo",
        -9.041490227708639
      ],
      [
        "▁dellusi",
        -9.041992609538688
      ],
      [
        "▁forme",
        -9.048364379393593
      ],
      [
        "▁xool",
        -9.050118468389336
      ],
      [
        "les",
        -9.052245688055926
      ],
      [
        "▁Bamendaa",
        -9.05237811120621
      ],
      [
        "▁fille",
        -9.05296310800448
      ],
      [
        "▁àgg",
        -9.056230549969246
      ],
      [
        "ance",
        -9.059173547233966
      ],
      [
        "où",
        -9.060465286149041
      ],
      [
        "▁dëkke",
        -9.063586062306513
      ],
      [
        "▁Par",
        -9.067277954954177
      ],
      [
        "▁dëkku",
        -9.068288663583102
      ],
      [
        "q",
        -9.069870705201048
      ],
      [
        "▁tàng",
        -9.073242356461591
      ],
      [
        "▁X",
        -9.073815444076535
      ],
      [
        "▁britannique",
        -9.076280695303746
      ],
      [
        "▁liberté",
        -9.076280698091793
      ],
      [
        "▁géej",
        -9.076280985774966
      ],
      [
        "▁palais",
        -9.076281380454995
      ],
      [
        "▁weesoo",
        -9.076281593284232
      ],
      [
        "▁sucre",
        -9.076282894798558
      ],
      [
        "▁soldaar",
        -9.076283161189734
      ],
      [
        "▁wirgo",
        -9.076285264623033
      ],
      [
        "▁Mbaa",
        -9.076285468453019
      ],
      [
        "▁théière",
        -9.076301815213128
      ],
      [
        "▁tëdd",
        -9.07630502380679
      ],
      [
        "▁kese",
        -9.076321357214383
      ],
      [
        "▁gis-gis",
        -9.076356829552358
      ],
      [
        "▁surtout",
        -9.076536671244577
      ],
      [
        "▁Yéen",
        -9.076609903399827
      ],
      [
        "▁sedd",
        -9.076685829356478
      ],
      [
        "▁asamaan",
        -9.07668611577439
      ],
      [
        "ri",
        -9.07686482246663
      ],
      [
        "▁jëkk",
        -9.076903785225166
      ],
      [
        "▁Maurice",
        -9.076988718195235
      ],
      [
        "▁Bés",
        -9.077160923928918
      ],
      [
        "▁Ibo",
        -9.07725079100582
      ],
      [
        "▁vas-tu",
        -9.077303663933762
      ],
      [
        "▁Frãs",
        -9.07735823912049
      ],
      [
        "▁ainsi",
        -9.077373025871676
      ],
      [
        "▁Jox",
        -9.077636805852674
      ],
      [
        "▁tëj",
        -9.07774034115301
      ],
      [
        "▁acheté",
        -9.077765008867738
      ],
      [
        "▁n'en",
        -9.078086579044438
      ],
      [
        "▁café",
        -9.079277430710995
      ],
      [
        "▁sàkk",
        -9.079779542842438
      ],
      [
        "▁ça",
        -9.079941034792949
      ],
      [
        "▁viendra",
        -9.080059148229111
      ],
      [
        "▁we",
        -9.08068766367543
      ],
      [
        "▁d'herbes",
        -9.082110421675797
      ],
      [
        "▁xelam",
        -9.082428226694432
      ],
      [
        "st-ce",
        -9.082706374872906
      ],
      [
        "▁suba",
        -9.083430331511982
      ],
      [
        "▁habits",
        -9.0844439898578
      ],
      [
        "▁jant",
        -9.087867067798344
      ],
      [
        "naa",
        -9.088330895175734
      ],
      [
        "▁ñuul.",
        -9.088470324389748
      ],
      [
        "▁nanu",
        -9.091309182800279
      ],
      [
        "si",
        -9.094486824285504
      ],
      [
        "▁bee",
        -9.09558663624614
      ],
      [
        "▁deme",
        -9.09710714344822
      ],
      [
        "▁pars",
        -9.09992177517262
      ],
      [
        "▁grands",
        -9.100654963576378
      ],
      [
        "na",
        -9.101281204991821
      ],
      [
        "▁yit",
        -9.103162361549192
      ],
      [
        "▁per",
        -9.103667258439648
      ],
      [
        "▁Quelle",
        -9.105000723973061
      ],
      [
        "▁biti",
        -9.10601949009924
      ],
      [
        "▁wetu",
        -9.108958630110116
      ],
      [
        "un",
        -9.10953652410235
      ],
      [
        "os",
        -9.109784708577903
      ],
      [
        "me",
        -9.1113380194593
      ],
      [
        "fin",
        -9.118545615683269
      ],
      [
        "▁doi",
        -9.120998267786177
      ],
      [
        "▁pris",
        -9.123217751878267
      ],
      [
        "▁lekk",
        -9.12467980695766
      ],
      [
        "▁baat",
        -9.125593462070752
      ],
      [
        "▁May",
        -9.12618122640091
      ],
      [
        "or",
        -9.128446396855493
      ],
      [
        "▁b",
        -9.131344496059809
      ],
      [
        "▁l'un",
        -9.133295640005821
      ],
      [
        "▁ñii",
        -9.13433604611738
      ],
      [
        "▁yem",
        -9.134474625053574
      ],
      [
        "ati",
        -9.135284414059054
      ],
      [
        "▁carte",
        -9.135979951993257
      ],
      [
        "▁vienne",
        -9.138003143395004
      ],
      [
        "▁choses",
        -9.140180103815474
      ],
      [
        "▁garçon",
        -9.141612093255437
      ],
      [
        "vant",
        -9.141864897948377
      ],
      [
        "▁ŋgii",
        -9.145026056528565
      ],
      [
        "ais",
        -9.14585764818981
      ],
      [
        "▁D'",
        -9.148083762473386
      ],
      [
        "▁main",
        -9.148953709101747
      ],
      [
        "▁fàttali",
        -9.1491395561479
      ],
      [
        "'était",
        -9.153424150990924
      ],
      [
        "▁daj",
        -9.153464993721892
      ],
      [
        "woo",
        -9.153894517966659
      ],
      [
        "▁coup",
        -9.158036724183152
      ],
      [
        "▁Cherche",
        -9.159614035102324
      ],
      [
        "▁mellentaan",
        -9.159614039974706
      ],
      [
        "▁xar-kanam",
        -9.15961405227866
      ],
      [
        "▁Homme",
        -9.159614183186418
      ],
      [
        "▁làmp",
        -9.159614539723867
      ],
      [
        "▁région",
        -9.159615686987095
      ],
      [
        "▁xanaa",
        -9.159651555249258
      ],
      [
        "▁Kër",
        -9.15966773296031
      ],
      [
        "▁déglu",
        -9.159674606021175
      ],
      [
        "▁boroom",
        -9.15968559722859
      ],
      [
        "▁herbes",
        -9.159691876897098
      ],
      [
        "▁Lawbe",
        -9.159707481997449
      ],
      [
        "▁raison",
        -9.15972746650212
      ],
      [
        "▁manger",
        -9.159735198616845
      ],
      [
        "▁delloo",
        -9.159768772236912
      ],
      [
        "▁Ceux-là",
        -9.159777608006756
      ],
      [
        "▁passage",
        -9.159822470156257
      ],
      [
        "▁longue",
        -9.1598462065421
      ],
      [
        "▁yuuxu",
        -9.159880030240082
      ],
      [
        "▁derrière",
        -9.15994532446665
      ],
      [
        "▁Ñ",
        -9.16028596144091
      ],
      [
        "▁ngoon",
        -9.160363306975263
      ],
      [
        "▁appris",
        -9.16049383658711
      ],
      [
        "▁envoyée",
        -9.16054238186017
      ],
      [
        "▁takk-der",
        -9.16078037558395
      ],
      [
        "▁nangu",
        -9.160797259291115
      ],
      [
        "▁Jaam",
        -9.161291541525273
      ],
      [
        "▁kàddu",
        -9.161509378833868
      ],
      [
        "▁màgget",
        -9.162306737751422
      ],
      [
        "▁Defe",
        -9.162703126036497
      ],
      [
        "▁large",
        -9.16303252688094
      ],
      [
        "▁màggat",
        -9.164629695774625
      ],
      [
        "▁woo",
        -9.165075074984664
      ],
      [
        "▁Demal",
        -9.165754181359784
      ],
      [
        "▁yaw",
        -9.166288733742178
      ],
      [
        "de",
        -9.167581976547996
      ],
      [
        "▁të",
        -9.168917867673628
      ],
      [
        "▁duñu",
        -9.17017446625146
      ],
      [
        "▁Me",
        -9.170691193611244
      ],
      [
        "est-ce",
        -9.173101384925413
      ],
      [
        "beek",
        -9.17310518623556
      ],
      [
        "▁pieds",
        -9.173355057498041
      ],
      [
        "▁couleurs",
        -9.173497321263884
      ],
      [
        "▁seule",
        -9.175608383860114
      ],
      [
        "▁jan",
        -9.175647873422628
      ],
      [
        "▁fees",
        -9.175882957558198
      ],
      [
        "belle",
        -9.180226359613027
      ],
      [
        "▁fleuves",
        -9.181756317266832
      ],
      [
        "▁San",
        -9.186530382200921
      ],
      [
        "▁lakk",
        -9.187356317817015
      ],
      [
        "lli",
        -9.188973686890062
      ],
      [
        "▁jàng",
        -9.18986972316997
      ],
      [
        "▁arrivé",
        -9.191703428089681
      ],
      [
        "▁sang",
        -9.1980269082641
      ],
      [
        "▁doxandéem",
        -9.20276202666372
      ],
      [
        "llait",
        -9.203785374577045
      ],
      [
        "▁Moi",
        -9.207603097792422
      ],
      [
        "-tu",
        -9.20761337131097
      ],
      [
        "▁égarée",
        -9.207938395161612
      ],
      [
        "eut-être",
        -9.208587351611168
      ],
      [
        "▁mêmes",
        -9.211227603467579
      ],
      [
        "▁doy",
        -9.214794284683931
      ],
      [
        "▁Ña",
        -9.21502630419098
      ],
      [
        "▁Xa",
        -9.215389086547912
      ],
      [
        "▁roi",
        -9.21662780437165
      ],
      [
        "▁conçue",
        -9.216762578145214
      ],
      [
        "vent",
        -9.219980100399784
      ],
      [
        "▁kaa",
        -9.224049270526324
      ],
      [
        "▁tan",
        -9.224365901127403
      ],
      [
        "▁vent",
        -9.22598700286612
      ],
      [
        "▁do",
        -9.226593620206419
      ],
      [
        "▁fleuve",
        -9.226824230271985
      ],
      [
        "kër",
        -9.227911479146737
      ],
      [
        "▁yab",
        -9.228326186790998
      ],
      [
        "▁séché",
        -9.228899711756329
      ],
      [
        "▁première",
        -9.22956900284662
      ],
      [
        "uis",
        -9.229960121478058
      ],
      [
        "▁mis",
        -9.234028241452465
      ],
      [
        "ppelle",
        -9.240409939392057
      ],
      [
        "▁Koo",
        -9.241725107236002
      ],
      [
        "je",
        -9.244765769223275
      ],
      [
        "▁dayo",
        -9.246932623211714
      ],
      [
        "▁dagg",
        -9.247477502310756
      ],
      [
        "▁vi",
        -9.248522463087268
      ],
      [
        "▁d'Ogoja",
        -9.25052311954544
      ],
      [
        "▁bëj-saalum",
        -9.250523119549536
      ],
      [
        "▁Moussa",
        -9.250523124357757
      ],
      [
        "▁Guwiyaan",
        -9.250523124637585
      ],
      [
        "▁yëkkati",
        -9.250523198486983
      ],
      [
        "▁Guyane",
        -9.250524423833347
      ],
      [
        "▁lumière",
        -9.250524600283983
      ],
      [
        "zone",
        -9.250526316571266
      ],
      [
        "▁tiim",
        -9.250529503144712
      ],
      [
        "▁rawati",
        -9.250529856738357
      ],
      [
        "▁frère",
        -9.250540568052585
      ],
      [
        "▁Xammee",
        -9.25054555913744
      ],
      [
        "▁d'Europe",
        -9.250560231204522
      ],
      [
        "▁force",
        -9.250569279435634
      ],
      [
        "▁chevaux",
        -9.25057131118713
      ],
      [
        "▁feuilles",
        -9.250577563930861
      ],
      [
        "▁yéeg",
        -9.250594648209605
      ],
      [
        "▁téye",
        -9.250640782417287
      ],
      [
        "▁jàll",
        -9.250714735511524
      ],
      [
        "▁Gone",
        -9.2508215858117
      ],
      [
        "▁Moonte",
        -9.250822153485029
      ],
      [
        "▁poste",
        -9.251013227912445
      ],
      [
        "▁jéggi",
        -9.251036784951598
      ],
      [
        "▁chez",
        -9.251097988460144
      ],
      [
        "▁bépp",
        -9.251159215356026
      ],
      [
        "▁tàll",
        -9.251225664615667
      ],
      [
        "▁silence",
        -9.251305134299923
      ],
      [
        "▁toogukaay",
        -9.251312606096894
      ],
      [
        "▁kilifa",
        -9.251404116040542
      ],
      [
        "▁xéy",
        -9.251418876944676
      ],
      [
        "▁fépp",
        -9.251513172074459
      ],
      [
        "▁bateau",
        -9.251611319048338
      ],
      [
        "▁faisait",
        -9.251650276186917
      ],
      [
        "▁toujours",
        -9.251805413913953
      ],
      [
        "▁fenn",
        -9.251882941158518
      ],
      [
        "▁rëdd",
        -9.251933039976723
      ],
      [
        "▁xaar",
        -9.251974472826623
      ],
      [
        "▁faut",
        -9.252033000449327
      ],
      [
        "▁feneen",
        -9.25229023812172
      ],
      [
        "▁yóbbu",
        -9.252292632451915
      ],
      [
        "▁Ñii",
        -9.252982803524365
      ],
      [
        "▁teel",
        -9.253311715008481
      ],
      [
        "kati",
        -9.253673951717905
      ],
      [
        "▁retraite",
        -9.253704581670181
      ],
      [
        "▁Bon",
        -9.25397940134082
      ],
      [
        "▁sortir",
        -9.254069204091795
      ],
      [
        "▁Loo",
        -9.254183141036764
      ],
      [
        "pp",
        -9.254286635074745
      ],
      [
        "▁Sud",
        -9.255673840287814
      ],
      [
        "iez",
        -9.255691792458242
      ],
      [
        "▁ñetti",
        -9.25644235031679
      ],
      [
        "▁tund",
        -9.25673038192204
      ],
      [
        "▁avions",
        -9.257282280799505
      ],
      [
        "▁cuir",
        -9.257322659996783
      ],
      [
        "▁miin",
        -9.258438524615695
      ],
      [
        "▁pierres",
        -9.259022217068093
      ],
      [
        "▁telle",
        -9.26319553977622
      ],
      [
        "▁tàkk",
        -9.263407039697103
      ],
      [
        "▁baxa",
        -9.265220459823794
      ],
      [
        "▁tay",
        -9.267730897147656
      ],
      [
        "yan",
        -9.27173007191467
      ],
      [
        "▁fais",
        -9.27223807154525
      ],
      [
        "▁Ne",
        -9.273230525750702
      ],
      [
        "▁meloon",
        -9.276174324851134
      ],
      [
        "▁naaj",
        -9.278656613061905
      ],
      [
        "▁ira",
        -9.279671966525912
      ],
      [
        "▁dexu",
        -9.280772018740837
      ],
      [
        "▁men",
        -9.282535484561107
      ],
      [
        "▁Jo",
        -9.285120591736096
      ],
      [
        "▁petite",
        -9.289749320946687
      ],
      [
        "▁ragal",
        -9.290208654037299
      ],
      [
        "▁ex",
        -9.291519364493706
      ],
      [
        "lon",
        -9.291912100026035
      ],
      [
        "ement",
        -9.292257147630474
      ],
      [
        "ul.",
        -9.293552566781031
      ],
      [
        "▁sera",
        -9.303178961373938
      ],
      [
        "▁partis",
        -9.305374069826833
      ],
      [
        "▁toogu",
        -9.307226947602908
      ],
      [
        "nga",
        -9.308168398712581
      ],
      [
        "ture",
        -9.308616799653182
      ],
      [
        "▁Go",
        -9.311022671717641
      ],
      [
        "▁...",
        -9.311249185701582
      ],
      [
        "▁réewu",
        -9.3151987758506
      ],
      [
        "▁cases",
        -9.315535142942995
      ],
      [
        "kkali",
        -9.315599622617125
      ],
      [
        "▁cuisine",
        -9.316015156364292
      ],
      [
        "naka",
        -9.319315750396449
      ],
      [
        "▁point",
        -9.321553517659662
      ],
      [
        "▁po",
        -9.322531421132789
      ],
      [
        "▁cons",
        -9.322768291625822
      ],
      [
        "▁Ta",
        -9.322975170365694
      ],
      [
        "aller",
        -9.327788169444545
      ],
      [
        "▁arbre",
        -9.32826399624116
      ],
      [
        "▁tere",
        -9.331660807240711
      ],
      [
        "tant",
        -9.331670774040733
      ],
      [
        "▁livre",
        -9.331720449475478
      ],
      [
        "▁waxtaan",
        -9.332470605171178
      ],
      [
        "ique",
        -9.334305654044162
      ],
      [
        "▁Ceux",
        -9.334732706197325
      ],
      [
        "▁feu",
        -9.344279459875942
      ],
      [
        "▁Foo",
        -9.344969441612793
      ],
      [
        "û",
        -9.3470218750888
      ],
      [
        "▁Daan",
        -9.348796161504248
      ],
      [
        "▁kook",
        -9.349720187957189
      ],
      [
        "▁compl",
        -9.350246412307172
      ],
      [
        "▁pirogue",
        -9.350523127667124
      ],
      [
        "▁nouveau",
        -9.350523281152022
      ],
      [
        "▁chaussures",
        -9.350524786665765
      ],
      [
        "▁U2",
        -9.350525706851169
      ],
      [
        "-fukk",
        -9.350525732901735
      ],
      [
        "▁samp",
        -9.350526339024785
      ],
      [
        "▁mbóot",
        -9.350550277648718
      ],
      [
        "▁Nord",
        -9.350569839906072
      ],
      [
        "▁Ñàkk",
        -9.350582781228578
      ],
      [
        "▁l'enfant",
        -9.350590435439454
      ],
      [
        "▁subë",
        -9.35059841139187
      ],
      [
        "▁sentiment",
        -9.35060848356624
      ],
      [
        "▁voix",
        -9.350657021868468
      ],
      [
        "▁train",
        -9.35066097699149
      ],
      [
        "▁façon",
        -9.350664700903492
      ],
      [
        "▁tubaab",
        -9.350667459258666
      ],
      [
        "▁diggante",
        -9.350694472339736
      ],
      [
        "▁jëfandikoo",
        -9.35074525835049
      ],
      [
        "▁Fatim",
        -9.350822056352765
      ],
      [
        "▁danga",
        -9.35100877246162
      ],
      [
        "▁metit",
        -9.351041379402465
      ],
      [
        "▁loxoom",
        -9.351088026817374
      ],
      [
        "▁Voil",
        -9.351196050741567
      ],
      [
        "▁fanaan",
        -9.35122568282657
      ],
      [
        "▁gor",
        -9.351262794904624
      ],
      [
        "▁genn",
        -9.351283796010078
      ],
      [
        "▁moins",
        -9.351441877007282
      ],
      [
        "▁bonne",
        -9.351542752096542
      ],
      [
        "▁morceau",
        -9.35161025589694
      ],
      [
        "▁donc",
        -9.351956995769433
      ],
      [
        "atim",
        -9.352091641834045
      ],
      [
        "▁jege",
        -9.352281227039594
      ],
      [
        "▁yëf",
        -9.35228392272484
      ],
      [
        "▁xuus",
        -9.35276206739722
      ],
      [
        "▁njiit",
        -9.352767597624576
      ],
      [
        "tes",
        -9.352817793699852
      ],
      [
        "▁rek",
        -9.353365269678438
      ],
      [
        "▁Non",
        -9.353540994715908
      ],
      [
        "▁fer",
        -9.353606311339846
      ],
      [
        "▁neneen",
        -9.356058587942853
      ],
      [
        "▁nul",
        -9.356298245088752
      ],
      [
        "ral",
        -9.35753715043401
      ],
      [
        "▁buur",
        -9.357663405279562
      ],
      [
        "▁joor",
        -9.358454208606227
      ],
      [
        "▁fils",
        -9.358669254866017
      ],
      [
        "▁noon",
        -9.358983731640777
      ],
      [
        "mettre",
        -9.359034736148285
      ],
      [
        "▁feeñ",
        -9.3595684117305
      ],
      [
        "▁wuti",
        -9.363583229255301
      ],
      [
        "▁hautes",
        -9.363732431512789
      ],
      [
        "ewul",
        -9.363878279844911
      ],
      [
        "▁jeu",
        -9.36498904758727
      ],
      [
        "▁partira",
        -9.365358375733742
      ],
      [
        "▁avais",
        -9.367090119766617
      ],
      [
        "lle",
        -9.36994000351426
      ],
      [
        "▁connais",
        -9.370019468049811
      ],
      [
        "venir",
        -9.370343414734757
      ],
      [
        "wu",
        -9.372058970933239
      ],
      [
        "▁garçons",
        -9.372752741603682
      ],
      [
        "▁kon",
        -9.376846191657737
      ],
      [
        "▁Ou",
        -9.378799059871831
      ],
      [
        "euse",
        -9.378848729837559
      ],
      [
        "▁eû",
        -9.378945910577478
      ],
      [
        "▁xëcc",
        -9.3805549165013
      ],
      [
        "▁ñëwul",
        -9.3811571475302
      ],
      [
        "▁s'agi",
        -9.382572718276904
      ],
      [
        "▁waral",
        -9.384578159032197
      ],
      [
        "▁gan",
        -9.38630819637807
      ],
      [
        "▁Fi",
        -9.386890444111481
      ],
      [
        "▁partes",
        -9.387011032178336
      ],
      [
        "▁tefes",
        -9.389049278222164
      ],
      [
        "▁fukk",
        -9.392974852245526
      ],
      [
        "▁garabi",
        -9.393045250307333
      ],
      [
        "▁R",
        -9.394503410959642
      ],
      [
        "eŋ",
        -9.394602229129365
      ],
      [
        "oom",
        -9.398768075412864
      ],
      [
        "aw",
        -9.40045953686138
      ],
      [
        "▁Saa",
        -9.404766816608282
      ],
      [
        "▁Ki",
        -9.411509125742318
      ],
      [
        "▁cour",
        -9.412546453943124
      ],
      [
        "ès",
        -9.413424054558732
      ],
      [
        "▁doo",
        -9.414590312643437
      ],
      [
        "éy",
        -9.415294163020235
      ],
      [
        "▁jusqu'au",
        -9.420168518188962
      ],
      [
        "▁soi",
        -9.420279967749757
      ],
      [
        "ngi",
        -9.420343532446061
      ],
      [
        "▁kee",
        -9.421519616503193
      ],
      [
        "▁table",
        -9.422083046087575
      ],
      [
        "ète",
        -9.424772987440065
      ],
      [
        "▁froid",
        -9.428957047202541
      ],
      [
        "▁set",
        -9.429442213980693
      ],
      [
        "▁ét",
        -9.431492776138345
      ],
      [
        "dé",
        -9.432336573239498
      ],
      [
        "▁pou",
        -9.432717495537851
      ],
      [
        "▁entrai",
        -9.433024005457362
      ],
      [
        "impression",
        -9.434858760543037
      ],
      [
        "nie",
        -9.435485978641696
      ],
      [
        "▁nom",
        -9.435648923821704
      ],
      [
        "mbaar",
        -9.438434642996185
      ],
      [
        "▁bol",
        -9.440158561213806
      ],
      [
        "▁chef",
        -9.440551453174937
      ],
      [
        "'avez",
        -9.441794765571633
      ],
      [
        "réer",
        -9.44208591963072
      ],
      [
        "▁visage",
        -9.442986230532368
      ],
      [
        "▁bool",
        -9.443282113091515
      ],
      [
        "!",
        -9.44442055298969
      ],
      [
        "okk",
        -9.444732013347807
      ],
      [
        "r.",
        -9.448101372881695
      ],
      [
        "▁wan",
        -9.453252077161753
      ],
      [
        "▁entier",
        -9.458176733683084
      ],
      [
        "▁tekk",
        -9.458629828542113
      ],
      [
        "▁dënn",
        -9.458680130208974
      ],
      [
        "▁foo",
        -9.459377013475343
      ],
      [
        "aale",
        -9.459867855339407
      ],
      [
        "▁palanteer",
        -9.45987943941199
      ],
      [
        "ëgg",
        -9.46075235505317
      ],
      [
        "▁juste",
        -9.461001035480798
      ],
      [
        "▁yegg",
        -9.461161590303188
      ],
      [
        "▁Sénégal",
        -9.461213109731872
      ],
      [
        "▁drap",
        -9.461307588713783
      ],
      [
        "éjà",
        -9.46131740671779
      ],
      [
        "▁Aujourd'hui",
        -9.461634230659406
      ],
      [
        "▁Biyaafaraa",
        -9.461634230664892
      ],
      [
        "▁wëndéelu",
        -9.461634230671978
      ],
      [
        "▁médicaments",
        -9.46163423070609
      ],
      [
        "▁d'Afrique",
        -9.461634230900325
      ],
      [
        "▁bëj-gànnaar",
        -9.461634230980149
      ],
      [
        "▁yëngu",
        -9.46163423127576
      ],
      [
        "▁savane",
        -9.461634232480533
      ],
      [
        "▁lëndëm",
        -9.46163423278392
      ],
      [
        "▁Senegaal",
        -9.461634244569828
      ],
      [
        "▁sowu-jant",
        -9.461634248422206
      ],
      [
        "▁société",
        -9.461634257082888
      ],
      [
        "▁bànneex",
        -9.461634267732649
      ],
      [
        "▁Jamono",
        -9.461634331737447
      ],
      [
        "▁reconna",
        -9.461634366891307
      ],
      [
        "▁jàmm",
        -9.461634601595936
      ],
      [
        "▁Ainsi",
        -9.46163779073202
      ],
      [
        "▁paaka",
        -9.461638391204183
      ],
      [
        "▁yow",
        -9.461639191086999
      ],
      [
        "▁comport",
        -9.461640242448418
      ],
      [
        "▁lampe",
        -9.461643692819028
      ],
      [
        "▁insectes",
        -9.461644793544973
      ],
      [
        "▁cosaan",
        -9.461649017023255
      ],
      [
        "▁Sérère",
        -9.461651218429234
      ],
      [
        "▁Almaañ",
        -9.461658747472276
      ],
      [
        "▁Déedéet",
        -9.461674208841693
      ],
      [
        "▁l'âge",
        -9.46167704074093
      ],
      [
        "▁chaleur",
        -9.461681820557178
      ],
      [
        "▁naqar",
        -9.461685560929318
      ],
      [
        "▁woto",
        -9.461685707099367
      ],
      [
        "▁baraada",
        -9.461716765241814
      ],
      [
        "-t-il",
        -9.46172890605852
      ],
      [
        "▁longtemps",
        -9.461747742948146
      ],
      [
        "▁parfois",
        -9.46175398356268
      ],
      [
        "▁wanag",
        -9.461762465005556
      ],
      [
        "▁Ici",
        -9.461776964232044
      ],
      [
        "▁wow",
        -9.461792101122256
      ],
      [
        "▁Musaa",
        -9.461936509394123
      ],
      [
        "▁gémmiñ",
        -9.461937432401987
      ],
      [
        "▁woowe",
        -9.4619534853904
      ],
      [
        "▁ràbb",
        -9.462030676632274
      ],
      [
        "▁étions",
        -9.462119403773402
      ],
      [
        "▁Teewul",
        -9.462177558239148
      ],
      [
        "▁ŋgoon",
        -9.462219039336077
      ],
      [
        "▁jaŋg",
        -9.462441398791569
      ],
      [
        "▁tukki",
        -9.462625456134319
      ],
      [
        "▁weñ",
        -9.462798871808408
      ],
      [
        "▁Toi",
        -9.463001039981883
      ],
      [
        "▁sànni",
        -9.463095984473707
      ],
      [
        "▁côte",
        -9.463103683919247
      ],
      [
        "▁alors",
        -9.463210277746727
      ],
      [
        "▁Niis",
        -9.46336659922959
      ],
      [
        "▁ciment",
        -9.463699666218863
      ],
      [
        "▁yar",
        -9.463702945468444
      ],
      [
        "▁booba",
        -9.464254916569637
      ],
      [
        "▁demande",
        -9.464416112205043
      ],
      [
        "▁place",
        -9.464430347506207
      ],
      [
        "▁pourtant",
        -9.464525068810023
      ],
      [
        "▁parlé",
        -9.464606415833615
      ],
      [
        "▁Doo",
        -9.464820035477787
      ],
      [
        "▁meubles",
        -9.465123175828408
      ],
      [
        "quel",
        -9.465405458035356
      ],
      [
        "▁mucc",
        -9.465476664482534
      ],
      [
        "ton",
        -9.465489179856801
      ],
      [
        "▁ñooñu",
        -9.465778430590131
      ],
      [
        "▁gisaat",
        -9.466048688069568
      ],
      [
        "▁car",
        -9.466217796851655
      ],
      [
        "▁ñaan",
        -9.466644860581614
      ],
      [
        "▁Alma",
        -9.466788839840664
      ],
      [
        "▁objets",
        -9.46680809965961
      ],
      [
        "▁donne",
        -9.467167508131801
      ],
      [
        "▁lieux",
        -9.468135166869327
      ],
      [
        "▁bula",
        -9.468312335668823
      ],
      [
        "▁Noon",
        -9.469674810278965
      ],
      [
        "▁ceci",
        -9.46969176095734
      ],
      [
        "▁mar",
        -9.469754732630712
      ],
      [
        "▁Fii",
        -9.469846850447231
      ],
      [
        "▁sew",
        -9.470904339037789
      ],
      [
        "▁fleurs",
        -9.471090813178836
      ],
      [
        "▁enfance",
        -9.471471263533587
      ],
      [
        "▁nan",
        -9.472065761132146
      ],
      [
        "▁alal",
        -9.472243175756944
      ],
      [
        "▁bâtons",
        -9.473529518182474
      ],
      [
        "▁Tay",
        -9.473603794443925
      ],
      [
        "▁m'en",
        -9.474591842952876
      ],
      [
        "▁Nu",
        -9.475872008005677
      ],
      [
        "▁këram",
        -9.482221978761043
      ],
      [
        "aa",
        -9.482488170715639
      ],
      [
        "Après",
        -9.48443257380037
      ],
      [
        "▁Woo",
        -9.485056869934764
      ],
      [
        "▁T",
        -9.488539881592118
      ],
      [
        "▁viennes",
        -9.491181396483809
      ],
      [
        "▁bees",
        -9.493794522707006
      ],
      [
        "▁petits",
        -9.495061611968652
      ],
      [
        "▁Nda",
        -9.495143229295326
      ],
      [
        "ter",
        -9.49530436626754
      ],
      [
        "▁jeunes",
        -9.49884917488463
      ],
      [
        "▁H",
        -9.499386371017955
      ],
      [
        "▁rey",
        -9.50166445158539
      ],
      [
        "nde",
        -9.5090486478842
      ],
      [
        "el",
        -9.510476913614259
      ],
      [
        "ti",
        -9.511409204303728
      ],
      [
        "▁yat",
        -9.517829297989715
      ],
      [
        "een",
        -9.518049831177573
      ],
      [
        "▁raconte",
        -9.518959887696138
      ],
      [
        "▁routes",
        -9.520096114332183
      ],
      [
        "▁teew",
        -9.523128529140498
      ],
      [
        "▁kay",
        -9.523652579778446
      ],
      [
        "tendre",
        -9.525040895060226
      ],
      [
        "part",
        -9.52639673642226
      ],
      [
        "p",
        -9.526448671150147
      ],
      [
        "▁fee",
        -9.530176957806624
      ],
      [
        "▁Ñoo",
        -9.530218013021498
      ],
      [
        "▁dakk",
        -9.53188660982211
      ],
      [
        "▁vas",
        -9.531951848261519
      ],
      [
        "▁serai",
        -9.532832325535216
      ],
      [
        "▁Ya",
        -9.533872832435852
      ],
      [
        "▁wute",
        -9.53481870139303
      ],
      [
        "ëf",
        -9.536024499533093
      ],
      [
        "▁Ri",
        -9.536156570759822
      ],
      [
        "▁gise",
        -9.53876188996421
      ],
      [
        "ou",
        -9.539368346371278
      ],
      [
        "▁bleu",
        -9.542930635154429
      ],
      [
        "z",
        -9.543498762157556
      ],
      [
        "▁wa",
        -9.546470763391735
      ],
      [
        "▁në",
        -9.54982088967892
      ],
      [
        "▁far",
        -9.552399456951665
      ],
      [
        "▁rêve",
        -9.552426144510441
      ],
      [
        "▁nature",
        -9.555247274142648
      ],
      [
        "ar.",
        -9.555845279749796
      ],
      [
        "▁tool",
        -9.55595847373905
      ],
      [
        "▁j'en",
        -9.558120243958717
      ],
      [
        "▁janoo",
        -9.560781482178504
      ],
      [
        "▁tête",
        -9.563813338579614
      ],
      [
        "es.",
        -9.563956625206647
      ],
      [
        "▁africain",
        -9.565379996759034
      ],
      [
        "▁pied",
        -9.56778517652784
      ],
      [
        "▁montagne",
        -9.567882257526493
      ],
      [
        "▁gardé",
        -9.568720700598568
      ],
      [
        "▁Tou",
        -9.568957879262351
      ],
      [
        "▁elles",
        -9.569500852769218
      ],
      [
        "mi",
        -9.570576078368639
      ],
      [
        "▁tas",
        -9.572783690572312
      ],
      [
        "▁tóo",
        -9.574360659384249
      ],
      [
        "▁guy",
        -9.576019716431013
      ],
      [
        "▁nopp",
        -9.576831869460907
      ],
      [
        "▁Re",
        -9.577168351150835
      ],
      [
        "maana",
        -9.577358951288767
      ],
      [
        "an",
        -9.577772050402865
      ],
      [
        "▁v",
        -9.57793649616825
      ],
      [
        "▁jën",
        -9.578929961223658
      ],
      [
        "▁instant",
        -9.582830406821886
      ],
      [
        "gré",
        -9.58335799040828
      ],
      [
        "▁yilif",
        -9.584338806108008
      ],
      [
        "▁Victoria",
        -9.58663423066851
      ],
      [
        "▁L'Afrique",
        -9.586634230668583
      ],
      [
        "▁Léeg-léeg",
        -9.586634230675209
      ],
      [
        "▁kéemaane",
        -9.5866342308729
      ],
      [
        "▁yëngal",
        -9.586634231038554
      ],
      [
        "▁histoire",
        -9.586634231487967
      ],
      [
        "▁mauvais",
        -9.586634231555852
      ],
      [
        "▁xàmmee",
        -9.586634233612042
      ],
      [
        "▁assurément",
        -9.586634238239913
      ],
      [
        "▁difficile",
        -9.586634240519377
      ],
      [
        "▁accroché",
        -9.586634243019972
      ],
      [
        "▁ensemble",
        -9.586634243545092
      ],
      [
        "▁Liggéey",
        -9.5866342750119
      ],
      [
        "▁Monsieur",
        -9.586634394547072
      ],
      [
        "▁pantalon",
        -9.586634396135429
      ],
      [
        "▁xaalis",
        -9.586634701428784
      ],
      [
        "▁Laobé",
        -9.586634717570497
      ],
      [
        "▁chaussettes",
        -9.586635957790989
      ],
      [
        "▁Legoos",
        -9.586641534103409
      ],
      [
        "▁présent",
        -9.586650203688801
      ],
      [
        "▁palaat",
        -9.58666125796926
      ],
      [
        "▁keroog",
        -9.586663753024371
      ],
      [
        "▁plein",
        -9.586669232460915
      ],
      [
        "▁Réew",
        -9.586670022234909
      ],
      [
        "▁dernier",
        -9.586675672575335
      ],
      [
        "▁janeer",
        -9.586676367898983
      ],
      [
        "▁puissance",
        -9.58668104462838
      ],
      [
        "▁juddoo",
        -9.586691911071927
      ],
      [
        "▁l'amour",
        -9.586695153890426
      ],
      [
        "▁frontière",
        -9.586716803028107
      ],
      [
        "▁douceur",
        -9.586751141351373
      ],
      [
        "▁colère",
        -9.58678361771499
      ],
      [
        "▁départ",
        -9.586827361376713
      ],
      [
        "▁Dëkk",
        -9.586885671038562
      ],
      [
        "ax",
        -9.586955065543005
      ],
      [
        "▁proche",
        -9.586992636931154
      ],
      [
        "▁Officer",
        -9.587003989574352
      ],
      [
        "▁dénd",
        -9.587105612511559
      ],
      [
        "▁bouche",
        -9.587173827090115
      ],
      [
        "▁lonk",
        -9.587199562070705
      ],
      [
        "▁fajkat",
        -9.587431459032889
      ],
      [
        "▁Nice",
        -9.587571498983868
      ],
      [
        "▁Plu",
        -9.58791432838514
      ],
      [
        "▁bekk",
        -9.587989732089468
      ],
      [
        "▁prend",
        -9.588107191481459
      ],
      [
        "▁goût",
        -9.588458080348234
      ],
      [
        "▁cœur",
        -9.588459516226063
      ],
      [
        "▁Buur",
        -9.588814841643636
      ],
      [
        "▁riir",
        -9.58917693178753
      ],
      [
        "▁gejje",
        -9.589245448437444
      ],
      [
        "▁vais",
        -9.589291925753374
      ],
      [
        "▁l'entr",
        -9.589299803277592
      ],
      [
        "▁Kookule",
        -9.589360343911384
      ],
      [
        "▁Cha",
        -9.589640885299755
      ],
      [
        "▁ton",
        -9.58989882538831
      ],
      [
        "▁viennent",
        -9.590838242561464
      ],
      [
        "▁compte",
        -9.590957628901053
      ],
      [
        "▁Sunu",
        -9.591029089487948
      ],
      [
        "▁ndey",
        -9.59127183518155
      ],
      [
        "▁sës",
        -9.59194590044289
      ],
      [
        "▁soppi",
        -9.592434055505308
      ],
      [
        "aux",
        -9.592545940104804
      ],
      [
        "▁unique",
        -9.593264068091706
      ],
      [
        "▁mill",
        -9.593443567164194
      ],
      [
        "▁Wu",
        -9.593497145993508
      ],
      [
        "istrict",
        -9.593761888416179
      ],
      [
        "▁regarder",
        -9.59405485218143
      ],
      [
        "▁raay",
        -9.594140098425026
      ],
      [
        "▁waxtu",
        -9.594395626619509
      ],
      [
        "▁tar",
        -9.594796539570698
      ],
      [
        "▁Dañ",
        -9.595018991520273
      ],
      [
        "▁boy",
        -9.595557341589561
      ],
      [
        "▁bëggée",
        -9.595885003628032
      ],
      [
        "umes",
        -9.596122207197606
      ],
      [
        "▁parents",
        -9.596983539590568
      ],
      [
        "▁sauvages",
        -9.599138151500593
      ],
      [
        "▁jaune",
        -9.599163774599154
      ],
      [
        "▁bes",
        -9.599910785621514
      ],
      [
        "▁six",
        -9.600443295019964
      ],
      [
        "ez-vous",
        -9.602226634427602
      ],
      [
        "▁t'ai",
        -9.602238469857706
      ],
      [
        "▁not",
        -9.602253206641151
      ],
      [
        "-mo",
        -9.602454693443937
      ],
      [
        "▁êtes",
        -9.602719877288983
      ],
      [
        "du",
        -9.603813307613377
      ],
      [
        "▁cherche",
        -9.605183737441283
      ],
      [
        "ient",
        -9.606332901620616
      ],
      [
        "▁yenu",
        -9.607509970079857
      ],
      [
        "▁noms",
        -9.607831471749197
      ],
      [
        "▁ra",
        -9.609769006445946
      ],
      [
        "▁waar",
        -9.610580453665913
      ],
      [
        "ables",
        -9.615759064088838
      ],
      [
        "▁kaas",
        -9.616184281476738
      ],
      [
        "bée",
        -9.616458122267538
      ],
      [
        "▁beau",
        -9.616926842582771
      ],
      [
        "▁diis",
        -9.622496296912534
      ],
      [
        "▁jur",
        -9.623634816356091
      ],
      [
        "▁Vas",
        -9.626212411812489
      ],
      [
        "▁inter",
        -9.63070980180504
      ],
      [
        "▁ñen",
        -9.63255539636786
      ],
      [
        "vions",
        -9.63271260917695
      ],
      [
        "▁max",
        -9.634675495962052
      ],
      [
        "▁peur",
        -9.63522172945326
      ],
      [
        "▁sor",
        -9.63549646067598
      ],
      [
        "▁pro",
        -9.639047271764888
      ],
      [
        "▁sant",
        -9.642546279864417
      ],
      [
        "▁sokolaa",
        -9.642956169363272
      ],
      [
        "▁dalal",
        -9.643065597729402
      ],
      [
        "cc",
        -9.643690409239998
      ],
      [
        "▁tub",
        -9.64456662535354
      ],
      [
        "nce",
        -9.645663542342625
      ],
      [
        "▁t'en",
        -9.64727482223315
      ],
      [
        "▁conti",
        -9.647472276523386
      ],
      [
        "▁noire.",
        -9.648441829981975
      ],
      [
        "▁daawu",
        -9.648752196804594
      ],
      [
        "▁sonal",
        -9.648829579006614
      ],
      [
        "tion",
        -9.649902573521917
      ],
      [
        "use",
        -9.650492869618478
      ],
      [
        "nn",
        -9.651122315105388
      ],
      [
        "▁parc",
        -9.651780591171176
      ],
      [
        "ble",
        -9.654557481217022
      ],
      [
        "▁loo",
        -9.657921922966255
      ],
      [
        "garde",
        -9.661196243249236
      ],
      [
        "▁lesquel",
        -9.66336790545026
      ],
      [
        "▁Tey",
        -9.66616616869624
      ],
      [
        "kaay",
        -9.667585648466916
      ],
      [
        "▁luy",
        -9.668390147108155
      ],
      [
        "▁tày",
        -9.677149836431424
      ],
      [
        "▁retour",
        -9.682208489041962
      ],
      [
        "▁sou",
        -9.682239315922548
      ],
      [
        "kom",
        -9.684724236435436
      ],
      [
        "▁yii",
        -9.685208071447255
      ],
      [
        "oivent",
        -9.685737395250472
      ],
      [
        "▁hu",
        -9.687370640190498
      ],
      [
        "▁dessin",
        -9.701590238503469
      ],
      [
        "autorité",
        -9.703018969721061
      ],
      [
        "▁ré",
        -9.704076909060042
      ],
      [
        "ke",
        -9.704148518665383
      ],
      [
        "▁met",
        -9.705878770270576
      ],
      [
        "▁siy",
        -9.705914087526265
      ],
      [
        "▁gris",
        -9.706681924827524
      ],
      [
        "▁scorpion",
        -9.706878914595546
      ],
      [
        "unu",
        -9.70744479272361
      ],
      [
        "▁français",
        -9.708387805073949
      ],
      [
        "▁vivre",
        -9.709179375534642
      ],
      [
        "▁nëbb",
        -9.709865355610686
      ],
      [
        "la",
        -9.71015950772011
      ],
      [
        "ngóor",
        -9.710621708803433
      ],
      [
        "avais",
        -9.71085661186055
      ],
      [
        "▁pënd",
        -9.712225912850984
      ],
      [
        "▁bo",
        -9.71301088713913
      ],
      [
        "▁cee",
        -9.714405572712904
      ],
      [
        "▁ñett",
        -9.720137084096724
      ],
      [
        "▁muur",
        -9.722954640701607
      ],
      [
        "▁jafe",
        -9.72411241888866
      ],
      [
        "▁jàkk",
        -9.72487535118345
      ],
      [
        "▁askan",
        -9.725795427089517
      ],
      [
        "ji",
        -9.726649493895259
      ],
      [
        "kki",
        -9.72712582761962
      ],
      [
        "▁pom",
        -9.727791956920472
      ],
      [
        "▁simple",
        -9.728827357395561
      ],
      [
        "exe",
        -9.728876038751512
      ],
      [
        "▁gouvernement",
        -9.729491373727912
      ],
      [
        "▁calebasse",
        -9.72949137400154
      ],
      [
        "▁gàncax",
        -9.729491375247575
      ],
      [
        "▁màndarga",
        -9.729491375309829
      ],
      [
        "▁rëcc",
        -9.729491376043192
      ],
      [
        "▁Óbudu",
        -9.729491378975267
      ],
      [
        "▁solitude",
        -9.729491383094505
      ],
      [
        "▁màrse",
        -9.729491387997452
      ],
      [
        "▁Ó",
        -9.729491390934236
      ],
      [
        "▁immense",
        -9.72949139202704
      ],
      [
        "▁Casamance",
        -9.729491395094996
      ],
      [
        "▁âge",
        -9.729491416272129
      ],
      [
        "▁tôle",
        -9.729491417583885
      ],
      [
        "▁époque",
        -9.729491418525187
      ],
      [
        "▁loppitaan",
        -9.729491427450753
      ],
      [
        "▁reconnu",
        -9.729491434172516
      ],
      [
        "▁bonheur",
        -9.729491457027743
      ],
      [
        "▁premier",
        -9.729491463811952
      ],
      [
        "▁Ayijoo",
        -9.729491485061661
      ],
      [
        "▁boeuf",
        -9.729491525862159
      ],
      [
        "▁sukkuraat",
        -9.729491608196295
      ],
      [
        "▁Yaakaar",
        -9.729491708993931
      ],
      [
        "▁dehors",
        -9.7294919696081
      ],
      [
        "▁simoŋ",
        -9.72949439506094
      ],
      [
        "▁terrain",
        -9.729494491207914
      ],
      [
        "▁visite",
        -9.72949525661382
      ],
      [
        "▁assiette",
        -9.729495302305432
      ],
      [
        "▁yànj",
        -9.729496108251679
      ],
      [
        "▁wurus",
        -9.729496861180543
      ],
      [
        "▁Deŋk",
        -9.72949816385796
      ],
      [
        "▁suukër",
        -9.729501649619879
      ],
      [
        "▁pañe",
        -9.729502666438162
      ],
      [
        "▁égale",
        -9.729506331002193
      ],
      [
        "▁bâtiment",
        -9.72950812959782
      ],
      [
        "▁réalité",
        -9.729524872959015
      ],
      [
        "▁bett",
        -9.72952620773293
      ],
      [
        "▁Palais",
        -9.729541052842084
      ],
      [
        "▁mourir",
        -9.72954119884762
      ],
      [
        "▁dëgër",
        -9.729556454916139
      ],
      [
        "▁mbedd",
        -9.72956414694765
      ],
      [
        "▁nelaw",
        -9.729567737318906
      ],
      [
        "▁servir",
        -9.729574806471339
      ],
      [
        "▁croyai",
        -9.729596275727408
      ],
      [
        "▁d'abord",
        -9.729598260378575
      ],
      [
        "▁campement",
        -9.729608222791374
      ],
      [
        "▁l'Angleterre",
        -9.729613326169726
      ],
      [
        "▁yeksi",
        -9.729660831403626
      ],
      [
        "▁plateaux",
        -9.72966203276917
      ],
      [
        "▁Fekk",
        -9.729668974694297
      ],
      [
        "▁màndi",
        -9.729677110729709
      ],
      [
        "▁xeex",
        -9.72967977361461
      ],
      [
        "▁dessus",
        -9.729685708546794
      ],
      [
        "▁droit",
        -9.729720717351746
      ],
      [
        "kàlla",
        -9.7298012763435
      ],
      [
        "uukar",
        -9.729838012049363
      ],
      [
        "▁sowu",
        -9.729877454521962
      ],
      [
        "▁dajale",
        -9.729988324070446
      ],
      [
        "▁reçu",
        -9.729996498348157
      ],
      [
        "▁raglu",
        -9.729996561918465
      ],
      [
        "▁wépp",
        -9.730023089627446
      ],
      [
        "▁malade",
        -9.730093272649327
      ],
      [
        "▁Ayaa",
        -9.730209002888397
      ],
      [
        "-do",
        -9.730237490349579
      ],
      [
        "▁jeeg",
        -9.73029735403234
      ],
      [
        "odeur",
        -9.730336665317711
      ],
      [
        "thme",
        -9.730417917019533
      ],
      [
        "▁porteurs",
        -9.730426788530835
      ],
      [
        "▁lëf",
        -9.730435368649195
      ],
      [
        "▁Pël",
        -9.73052578817893
      ],
      [
        "▁jàppale",
        -9.730528455486567
      ],
      [
        "ñeen",
        -9.730635566704272
      ],
      [
        "▁moto",
        -9.731007882888724
      ],
      [
        "▁ensuite",
        -9.731053345145089
      ],
      [
        "▁commence",
        -9.731092088256101
      ],
      [
        "▁images",
        -9.7311155828599
      ],
      [
        "▁couteau",
        -9.73115117034732
      ],
      [
        "▁propre",
        -9.73121090374404
      ],
      [
        "▁courant",
        -9.731216398519454
      ],
      [
        "▁më",
        -9.73130757992774
      ],
      [
        "▁ventre",
        -9.731381032693381
      ],
      [
        "▁palmes",
        -9.731545153283784
      ],
      [
        "▁laisser",
        -9.731571272139451
      ],
      [
        "▁sens",
        -9.73158686851736
      ],
      [
        "▁vêtu",
        -9.731617454062453
      ],
      [
        "▁000",
        -9.731618181302402
      ],
      [
        "▁sàmm",
        -9.731618230772737
      ],
      [
        "▁woy",
        -9.731723533391696
      ],
      [
        "▁termites",
        -9.731778676152919
      ],
      [
        "▁wàll",
        -9.731818096229095
      ],
      [
        "▁nuages",
        -9.731974767127301
      ],
      [
        "▁Parle",
        -9.73225028896786
      ],
      [
        "▁denc",
        -9.732298079749855
      ],
      [
        "▁kukk",
        -9.732321058990975
      ],
      [
        "▁naqadi",
        -9.732427533445328
      ],
      [
        "▁Fais",
        -9.732459407931843
      ],
      [
        "▁pouvai",
        -9.732622640041223
      ],
      [
        "▁depuis",
        -9.732752660084408
      ],
      [
        "-je",
        -9.732900277043795
      ],
      [
        "▁vaste",
        -9.733455914337924
      ],
      [
        "▁district",
        -9.733662919062887
      ],
      [
        "▁jooy",
        -9.733816376005892
      ],
      [
        "▁Foofu",
        -9.733958269255101
      ],
      [
        "▁seng",
        -9.734423481733808
      ],
      [
        "▁chaise",
        -9.734445031570376
      ],
      [
        "▁d'eux",
        -9.73475861556471
      ],
      [
        "▁sorti",
        -9.734829112889274
      ],
      [
        "▁danu",
        -9.73506419560438
      ],
      [
        "▁àngale",
        -9.735533840894792
      ],
      [
        "▁xoolee",
        -9.735562954932963
      ],
      [
        "▁chasse",
        -9.735692826235638
      ],
      [
        "▁tour",
        -9.736175918972826
      ],
      [
        "▁cours",
        -9.736885754800062
      ],
      [
        "▁fuir",
        -9.737038549664348
      ],
      [
        "▁dirait",
        -9.737683973921385
      ],
      [
        "▁jag",
        -9.737804486357218
      ],
      [
        "espère",
        -9.739273783355046
      ],
      [
        "▁ňuul",
        -9.739625230854333
      ],
      [
        "▁cru",
        -9.739655303659434
      ],
      [
        "ande",
        -9.741842431623637
      ],
      [
        "▁wane",
        -9.742024425144429
      ],
      [
        "▁provi",
        -9.742705046413858
      ],
      [
        "▁jàn",
        -9.743294136531523
      ],
      [
        "▁mukk",
        -9.74341414605383
      ],
      [
        "▁anglaise",
        -9.74402377408903
      ],
      [
        "as",
        -9.744528323200404
      ],
      [
        "▁defare",
        -9.74456837120102
      ],
      [
        "▁kowam",
        -9.745967293634251
      ],
      [
        "▁yaak",
        -9.74608697337652
      ],
      [
        "▁chemins",
        -9.747525267252769
      ],
      [
        "▁comment",
        -9.748016192875266
      ],
      [
        "▁mbë",
        -9.748111723045918
      ],
      [
        "▁regardes",
        -9.748628318092244
      ],
      [
        "▁coloniale",
        -9.74912081176196
      ],
      [
        "▁française",
        -9.75104904633379
      ],
      [
        "▁photos",
        -9.751919591266489
      ],
      [
        "▁bëggoon",
        -9.752420769101336
      ],
      [
        "▁ñibbi",
        -9.753876410037655
      ],
      [
        "▁lim",
        -9.754251504099377
      ],
      [
        "▁gros",
        -9.757258931712258
      ],
      [
        "▁doxe",
        -9.758104329836724
      ],
      [
        "▁wutal",
        -9.75826905624118
      ],
      [
        "aay",
        -9.758508425808582
      ],
      [
        "▁crise",
        -9.758568319725256
      ],
      [
        "▁tànki",
        -9.760101311541353
      ],
      [
        "li",
        -9.760435000349624
      ],
      [
        "▁Yan",
        -9.761832736943825
      ],
      [
        "lo",
        -9.761833301449382
      ],
      [
        "▁arrivés",
        -9.761881598295915
      ],
      [
        "ay",
        -9.762518133336307
      ],
      [
        "oir",
        -9.763522884115297
      ],
      [
        "▁refuse",
        -9.76380237751336
      ],
      [
        "▁premières",
        -9.764283800688236
      ],
      [
        "▁w",
        -9.770769736598647
      ],
      [
        "▁all",
        -9.773011052237955
      ],
      [
        "▁Car",
        -9.774037236826096
      ],
      [
        "▁siiw",
        -9.77469328399408
      ],
      [
        "▁waxoon",
        -9.775806281544426
      ],
      [
        "▁No",
        -9.78360617798704
      ],
      [
        "▁jàngal",
        -9.78468137134237
      ],
      [
        "▁aar",
        -9.785695753354688
      ],
      [
        "▁mari",
        -9.785878398207304
      ],
      [
        "▁ven",
        -9.787602136477965
      ],
      [
        "aanaka",
        -9.788451544774816
      ],
      [
        "▁donn",
        -9.791459134638577
      ],
      [
        "sse",
        -9.792083420155176
      ],
      [
        "rie",
        -9.792341363755408
      ],
      [
        "▁ñooña",
        -9.793314657859195
      ],
      [
        "▁saba",
        -9.793432962704241
      ],
      [
        "ns",
        -9.795134206160327
      ],
      [
        "▁ndi",
        -9.795898373411935
      ],
      [
        "éeri",
        -9.7974376807601
      ],
      [
        "▁L'un",
        -9.798176037036907
      ],
      [
        "▁Ji",
        -9.805858774833414
      ],
      [
        "vient",
        -9.805964953795362
      ],
      [
        "ku",
        -9.80642620579199
      ],
      [
        "▁cinq",
        -9.808093519803013
      ],
      [
        "▁arrivée",
        -9.810344282405183
      ],
      [
        "▁masuma",
        -9.810356064148564
      ],
      [
        "óor",
        -9.812838918217542
      ],
      [
        "est",
        -9.81468281625387
      ],
      [
        "▁taabal",
        -9.814761562410823
      ],
      [
        "▁jànq",
        -9.814945355152245
      ],
      [
        "▁fall",
        -9.816309896792347
      ],
      [
        "▁dàq",
        -9.816435398698816
      ],
      [
        "tends",
        -9.818962121042366
      ],
      [
        "▁kowe",
        -9.819753740518578
      ],
      [
        "▁rue",
        -9.820425379968858
      ],
      [
        "▁nak",
        -9.820825861424591
      ],
      [
        "▁suñ",
        -9.821021770465547
      ],
      [
        "sait",
        -9.827896784422295
      ],
      [
        "▁boue",
        -9.828207713992537
      ],
      [
        "▁ressenti",
        -9.829549561896677
      ],
      [
        "mu",
        -9.83098215958342
      ],
      [
        "▁noire",
        -9.832899227329852
      ],
      [
        "niki",
        -9.833051808993297
      ],
      [
        "ure",
        -9.833614727087227
      ],
      [
        "▁nañoo",
        -9.835800855206378
      ],
      [
        "sin",
        -9.836786696673013
      ],
      [
        "▁kàttan",
        -9.837080843916421
      ],
      [
        "-elle",
        -9.838178688141328
      ],
      [
        "près",
        -9.838405936238853
      ],
      [
        "aas",
        -9.839741984816683
      ],
      [
        "ññ",
        -9.842703162064883
      ],
      [
        "▁faite",
        -9.843611436100058
      ],
      [
        "▁l'avai",
        -9.843787534282777
      ],
      [
        "ches",
        -9.845086432250017
      ],
      [
        "▁taal",
        -9.84555947292144
      ],
      [
        "▁Mas",
        -9.85278557246298
      ],
      [
        "ool",
        -9.853084012889227
      ],
      [
        "▁nja",
        -9.855780094114275
      ],
      [
        "andoo",
        -9.857412493516838
      ],
      [
        "▁xamant",
        -9.859069525196778
      ],
      [
        "ène",
        -9.859235623757797
      ],
      [
        "▁pa",
        -9.862205854374613
      ],
      [
        "endant",
        -9.864825140553576
      ],
      [
        "▁tab",
        -9.866730987890316
      ],
      [
        "▁mb",
        -9.867219727094058
      ],
      [
        "celle",
        -9.868441146519995
      ],
      [
        "▁bou",
        -9.871009578128387
      ],
      [
        "▁Ka",
        -9.871797434593885
      ],
      [
        "▁l'ét",
        -9.872896627653363
      ],
      [
        "▁destin",
        -9.873308333664061
      ],
      [
        "ngui",
        -9.87416146568235
      ],
      [
        "▁fenêtre",
        -9.874569474292615
      ],
      [
        "▁d'autre",
        -9.875350957678329
      ],
      [
        "▁coupé",
        -9.876000730835298
      ],
      [
        "▁colonial",
        -9.876127128178272
      ],
      [
        "▁maladie",
        -9.876646616062432
      ],
      [
        "▁chemin",
        -9.877758770768388
      ],
      [
        "▁anglais",
        -9.879263588035203
      ],
      [
        "▁étranger",
        -9.87998974808315
      ],
      [
        "'individu",
        -9.880327028566914
      ],
      [
        "▁regarde",
        -9.883076375145842
      ],
      [
        "waan",
        -9.884915412426222
      ],
      [
        "▁duma",
        -9.885080575106073
      ],
      [
        "ŋŋ",
        -9.886080762589497
      ],
      [
        "▁juróom",
        -9.886424140139397
      ],
      [
        "eel",
        -9.88766285850708
      ],
      [
        "x-ci",
        -9.887835141884803
      ],
      [
        "▁xob",
        -9.888167012103539
      ],
      [
        "▁V",
        -9.888544295211446
      ],
      [
        "▁sopp",
        -9.888819991747937
      ],
      [
        "bu",
        -9.889009942250443
      ],
      [
        "▁sago",
        -9.88904369999527
      ],
      [
        "bi",
        -9.890286270781361
      ],
      [
        "▁Ja",
        -9.891248001575699
      ],
      [
        "▁jo",
        -9.891672496849237
      ],
      [
        "ières",
        -9.89290590805186
      ],
      [
        "▁habit",
        -9.893355633649433
      ],
      [
        "▁frapp",
        -9.894343043899761
      ],
      [
        "▁aime",
        -9.894508117187943
      ],
      [
        "▁tiit",
        -9.894714981178339
      ],
      [
        "añse",
        -9.895112095145937
      ],
      [
        "▁féex",
        -9.895144108077085
      ],
      [
        "▁chapeau",
        -9.895425686006195
      ],
      [
        "errière",
        -9.895522254339788
      ],
      [
        "00",
        -9.895868283576139
      ],
      [
        "▁mbind",
        -9.896114946342543
      ],
      [
        "8",
        -9.896135541883375
      ],
      [
        "▁accompagné",
        -9.896158040192338
      ],
      [
        "▁Wiktoryaa",
        -9.896158040192347
      ],
      [
        "▁auparavant",
        -9.896158040197742
      ],
      [
        "▁petorool",
        -9.896158040219587
      ],
      [
        "▁dëggëntaan",
        -9.896158040226254
      ],
      [
        "▁Mellentaan",
        -9.896158040583657
      ],
      [
        "▁territoire",
        -9.896158042495292
      ],
      [
        "▁dóomu-taal",
        -9.896158045332507
      ],
      [
        "▁dëgg-dëgg",
        -9.89615804690617
      ],
      [
        "▁règle",
        -9.896158049200382
      ],
      [
        "▁officer",
        -9.896158050110664
      ],
      [
        "▁rideau",
        -9.896158051213348
      ],
      [
        "▁l'époque",
        -9.89615805771422
      ],
      [
        "▁ngëlén",
        -9.896158058731947
      ],
      [
        "▁ponkal",
        -9.896158068340725
      ],
      [
        "▁jaxasoo",
        -9.896158075683726
      ],
      [
        "▁chemise",
        -9.896158130453905
      ],
      [
        "▁coiff",
        -9.896158223894881
      ],
      [
        "▁veulent",
        -9.896158371951024
      ],
      [
        "▁tàmm",
        -9.896158400504051
      ],
      [
        "▁chacun",
        -9.89615844049656
      ],
      [
        "▁besoin",
        -9.896158440827548
      ],
      [
        "▁caaxaan",
        -9.896158626392802
      ],
      [
        "▁désert",
        -9.896158654272678
      ],
      [
        "▁rêvé",
        -9.896158665072436
      ],
      [
        "▁adulte",
        -9.896158858446839
      ],
      [
        "▁L'enfant",
        -9.896159153175624
      ],
      [
        "▁vingt",
        -9.896159186274593
      ],
      [
        "▁Waxtaan",
        -9.896160724453928
      ],
      [
        "▁ressens",
        -9.896161168671405
      ],
      [
        "▁féete",
        -9.896161598593217
      ],
      [
        "▁Africains",
        -9.896162579651904
      ],
      [
        "▁xibaar",
        -9.896163067498964
      ],
      [
        "▁Génn",
        -9.896163792457603
      ],
      [
        "▁Lagos",
        -9.8961639624041
      ],
      [
        "▁d'autrefois",
        -9.896164225269489
      ],
      [
        "▁contact",
        -9.896170436313332
      ],
      [
        "▁domaine",
        -9.896171632184664
      ],
      [
        "▁jékkee-j",
        -9.896172943526429
      ],
      [
        "▁Wolof",
        -9.896173513620626
      ],
      [
        "▁commun",
        -9.896175093567496
      ],
      [
        "▁njël",
        -9.896175890984884
      ],
      [
        "▁fetal",
        -9.896176699680806
      ],
      [
        "▁construction",
        -9.896178071893477
      ],
      [
        "▁vérité",
        -9.89617858577397
      ],
      [
        "▁séq",
        -9.896182636848149
      ],
      [
        "▁lonet",
        -9.896189364284245
      ],
      [
        "▁cheveux",
        -9.896194760547454
      ],
      [
        "▁jumtukaay",
        -9.896198565325037
      ],
      [
        "▁peinture",
        -9.896206819562341
      ],
      [
        "▁j'étais",
        -9.896229874702646
      ],
      [
        "▁werante",
        -9.89623112899514
      ],
      [
        "▁léeb",
        -9.896238326413952
      ],
      [
        "▁début",
        -9.896246812298287
      ],
      [
        "▁mbokk",
        -9.896249032281082
      ],
      [
        "▁sotti",
        -9.896271219194494
      ],
      [
        "▁j'imagine",
        -9.896278142740908
      ],
      [
        "▁Donne",
        -9.89629507753667
      ],
      [
        "▁Port",
        -9.896307390530232
      ],
      [
        "▁cofeel",
        -9.896310397572284
      ],
      [
        "▁gox",
        -9.896313302347654
      ],
      [
        "▁légère",
        -9.896334254050114
      ],
      [
        "▁jabar",
        -9.896342679396366
      ],
      [
        "▁d'esprit",
        -9.896358124008277
      ],
      [
        "▁wéet",
        -9.896399326437518
      ],
      [
        "existe",
        -9.896429826535758
      ],
      [
        "▁sëkk",
        -9.89647974900744
      ],
      [
        "▁chocolatée",
        -9.896538868728822
      ],
      [
        "▁meňň",
        -9.896561011077242
      ],
      [
        "▁courir",
        -9.896582608618868
      ],
      [
        "▁Tugël",
        -9.896679269218167
      ],
      [
        "▁partout",
        -9.896706997120225
      ],
      [
        "▁taamu",
        -9.89676164406449
      ],
      [
        "▁njabootam",
        -9.896771956042135
      ],
      [
        "▁gunge",
        -9.896848012814115
      ],
      [
        "▁seetaan",
        -9.896917473733899
      ],
      [
        "▁journée",
        -9.896978006699749
      ],
      [
        "▁kawas",
        -9.897083296735273
      ],
      [
        "▁Jënd",
        -9.897102238126294
      ],
      [
        "▁certainement",
        -9.89712208153803
      ],
      [
        "▁Force",
        -9.897129241415103
      ],
      [
        "▁baaraam",
        -9.897130937671035
      ],
      [
        "▁Aro",
        -9.897154787048471
      ],
      [
        "▁connaissent",
        -9.897233489798037
      ],
      [
        "▁revenir",
        -9.897238326292271
      ],
      [
        "▁coucher",
        -9.897275808035653
      ],
      [
        "▁l'aventure",
        -9.89733843069014
      ],
      [
        "▁jouer",
        -9.89736056057578
      ],
      [
        "▁tàngaay",
        -9.897460216938459
      ],
      [
        "▁brousse",
        -9.897482341143625
      ],
      [
        "▁tata",
        -9.897497723870632
      ],
      [
        "▁mangé",
        -9.897529876858297
      ],
      [
        "▁néew",
        -9.897962314524385
      ],
      [
        "▁taw",
        -9.898012362266455
      ],
      [
        "▁comprends",
        -9.898096414604506
      ],
      [
        "▁déet",
        -9.898105054190125
      ],
      [
        "▁ñor",
        -9.898169360553421
      ],
      [
        "▁taaru",
        -9.89818239866947
      ],
      [
        "▁travailleurs",
        -9.898187931794851
      ],
      [
        "▁écrit",
        -9.898297740845354
      ],
      [
        "▁habitants",
        -9.898396527451888
      ],
      [
        "▁tolloo",
        -9.898631457453416
      ],
      [
        "▁démb",
        -9.898639508391227
      ],
      [
        "▁Obudu",
        -9.898702185954814
      ],
      [
        "▁soosu",
        -9.898787924730739
      ],
      [
        "▁agsi",
        -9.898798530585182
      ],
      [
        "▁thé",
        -9.89880594540421
      ],
      [
        "▁ñaxtu",
        -9.89890667830966
      ],
      [
        "▁arrêté",
        -9.899276400473534
      ],
      [
        "▁yéene",
        -9.899571687867162
      ],
      [
        "▁juum",
        -9.89959216345793
      ],
      [
        "▁fût",
        -9.899606532934216
      ],
      [
        "▁tontu",
        -9.8996584820337
      ],
      [
        "▁monter",
        -9.899719371420996
      ],
      [
        "▁tàngal",
        -9.900037458760647
      ],
      [
        "▁sanc",
        -9.90005117037613
      ],
      [
        "▁yéemu",
        -9.900076065226004
      ],
      [
        "▁autre-là",
        -9.90015486999432
      ],
      [
        "▁rencontrer",
        -9.900763017453361
      ],
      [
        "▁kafe",
        -9.901316070373129
      ],
      [
        "▁Quelque",
        -9.902024047864115
      ],
      [
        "▁serais",
        -9.902240072060657
      ],
      [
        "▁Kor",
        -9.902398827329097
      ],
      [
        "▁taxu",
        -9.902509172614403
      ],
      [
        "▁doonkoon",
        -9.902603037406584
      ],
      [
        "▁2",
        -9.90325294488226
      ],
      [
        "▁wor",
        -9.903447281637018
      ],
      [
        "▁humaine",
        -9.903547715522652
      ],
      [
        "▁africaine",
        -9.903831086734494
      ],
      [
        "▁juróomi",
        -9.903893117738912
      ],
      [
        "'image",
        -9.904005207925488
      ],
      [
        "▁Bunt",
        -9.904114190167524
      ],
      [
        "▁lenn",
        -9.904447783641885
      ],
      [
        "▁jotee",
        -9.905463170902419
      ],
      [
        "▁Dañu",
        -9.905881116228406
      ],
      [
        "▁Mag",
        -9.906063956639178
      ],
      [
        "▁policiers",
        -9.90624670792588
      ],
      [
        "▁masques",
        -9.9063338288607
      ],
      [
        "▁jambes",
        -9.907675469922193
      ],
      [
        "▁certaine",
        -9.90808777385171
      ],
      [
        "▁souffle",
        -9.908242991620615
      ],
      [
        "▁Ver",
        -9.908284342407173
      ],
      [
        "▁dawal",
        -9.908307999819842
      ],
      [
        "▁viens",
        -9.909037621109192
      ],
      [
        "▁Nko",
        -9.909316577658743
      ],
      [
        "▁darab",
        -9.9094887146554
      ],
      [
        "ll",
        -9.909648115982524
      ],
      [
        "▁wetam",
        -9.909654070848259
      ],
      [
        "▁rage",
        -9.909766767062935
      ],
      [
        "▁tekki",
        -9.910621765130397
      ],
      [
        "ion",
        -9.911803182487303
      ],
      [
        "▁bir",
        -9.912855561228762
      ],
      [
        "▁aurais",
        -9.913323036064421
      ],
      [
        "éel",
        -9.913616898915674
      ],
      [
        "▁surga",
        -9.91381148579519
      ],
      [
        "▁reer",
        -9.914480116632593
      ],
      [
        "▁traverse",
        -9.915405824714085
      ],
      [
        "▁xet",
        -9.916193029793753
      ],
      [
        "▁jaam",
        -9.91623319601388
      ],
      [
        "▁naissance",
        -9.916771885970286
      ],
      [
        "▁xew",
        -9.917604884660657
      ],
      [
        "▁Se",
        -9.91770694684361
      ],
      [
        "▁buum",
        -9.91820515816665
      ],
      [
        "▁passer",
        -9.918228842812187
      ],
      [
        "▁fenêtres",
        -9.91833832154371
      ],
      [
        "▁àpp",
        -9.918402930823795
      ],
      [
        "▁charge",
        -9.918427190371437
      ],
      [
        "▁yax",
        -9.919589395682845
      ],
      [
        "▁haute",
        -9.920535405245218
      ],
      [
        "▁amen",
        -9.920767669219114
      ],
      [
        "▁ouverte",
        -9.921152796253503
      ],
      [
        "ok",
        -9.921326868016717
      ],
      [
        "▁Ñe",
        -9.922007532150086
      ],
      [
        "▁tours",
        -9.922377539354827
      ],
      [
        "▁dois",
        -9.924206338314164
      ],
      [
        "▁souhaite",
        -9.924406012494565
      ],
      [
        "▁soup",
        -9.925113692996312
      ],
      [
        "▁At",
        -9.925160965697033
      ],
      [
        "▁Ngi",
        -9.925286287363342
      ],
      [
        "▁yeew",
        -9.925469029267884
      ],
      [
        "▁visages",
        -9.925637295207112
      ],
      [
        "▁woowu",
        -9.926845202918436
      ],
      [
        "▁tableau",
        -9.927830360659588
      ],
      [
        "▁coono",
        -9.928074800301738
      ],
      [
        "▁daanu",
        -9.928419071553797
      ],
      [
        "'habitude",
        -9.929320043262237
      ],
      [
        "▁pis",
        -9.931859854556055
      ],
      [
        "▁ser",
        -9.933796806814545
      ],
      [
        "▁àtte",
        -9.934759645948564
      ],
      [
        "u-ñax",
        -9.940238965212224
      ],
      [
        "▁coups",
        -9.942225592533878
      ],
      [
        "▁dikk",
        -9.942397284496543
      ],
      [
        "▁Dana",
        -9.943483751129824
      ],
      [
        "▁nguur",
        -9.94384801440937
      ],
      [
        "▁Dis",
        -9.943884844767293
      ],
      [
        "tions",
        -9.943891679458709
      ],
      [
        "▁pos",
        -9.944502334145957
      ],
      [
        "▁Yara",
        -9.945314244072657
      ],
      [
        "eelu",
        -9.945699536750237
      ],
      [
        "▁cherch",
        -9.946020580215825
      ],
      [
        "▁Mar",
        -9.946311425303394
      ],
      [
        "▁melo",
        -9.949047443388933
      ],
      [
        "aatu",
        -9.951260151013832
      ],
      [
        "tt",
        -9.951428832858863
      ],
      [
        "▁wàcce",
        -9.954137814393794
      ],
      [
        "hoisi",
        -9.955948717559831
      ],
      [
        "nement",
        -9.956065870331186
      ],
      [
        "pe",
        -9.957328849051992
      ],
      [
        "▁rivières",
        -9.957712639061384
      ],
      [
        "rends",
        -9.959115813142757
      ],
      [
        "entiers",
        -9.959237295107682
      ],
      [
        "▁ha",
        -9.961517910774264
      ],
      [
        "▁qua",
        -9.963900862032565
      ],
      [
        "▁Bii",
        -9.964868214465206
      ],
      [
        "▁grandi",
        -9.965100652964455
      ],
      [
        "▁arrive",
        -9.965633618723004
      ],
      [
        "▁dinaa",
        -9.96611631779665
      ],
      [
        "▁con",
        -9.96777368549897
      ],
      [
        "▁Leur",
        -9.96918817328753
      ],
      [
        "▁ti",
        -9.97012988301456
      ],
      [
        "▁jar",
        -9.972597257885173
      ],
      [
        "ar",
        -9.9782069513282
      ],
      [
        "▁ressentir",
        -9.978306327636517
      ],
      [
        "▁sain",
        -9.979714086572526
      ],
      [
        "▁waxe",
        -9.980685325079623
      ],
      [
        "▁Xe",
        -9.981382609279647
      ],
      [
        "▁soxna",
        -9.982488198998764
      ],
      [
        "ire",
        -9.982558906244252
      ],
      [
        "ni",
        -9.983370088731006
      ],
      [
        "▁Vie",
        -9.985132432783782
      ],
      [
        "▁Afrigam",
        -9.987657806925217
      ],
      [
        "▁quelles",
        -9.99043686913447
      ],
      [
        "ages",
        -9.99066386290698
      ],
      [
        "▁anim",
        -9.99450106788948
      ],
      [
        "galu",
        -9.998003483771711
      ],
      [
        "▁rouges",
        -9.998417724351485
      ],
      [
        "▁donner",
        -9.998912103287568
      ],
      [
        "▁chang",
        -10.000196585399094
      ],
      [
        "▁batt",
        -10.000246601805951
      ],
      [
        "jaa",
        -10.008055306005797
      ],
      [
        "rai",
        -10.00841624189159
      ],
      [
        "our",
        -10.008820425273294
      ],
      [
        "▁sokolaa.",
        -10.00900927624286
      ],
      [
        "▁daje",
        -10.009444060730202
      ],
      [
        "eef",
        -10.010251959858865
      ],
      [
        "▁Ar",
        -10.011273604509768
      ],
      [
        "▁individu",
        -10.01128091600236
      ],
      [
        "elle",
        -10.011375132120003
      ],
      [
        "éri",
        -10.014565789681761
      ],
      [
        "ré",
        -10.014885348895703
      ],
      [
        "uni",
        -10.016220925300996
      ],
      [
        "▁kë",
        -10.016844062465939
      ],
      [
        "tal",
        -10.018498890242153
      ],
      [
        "ama",
        -10.018620207144162
      ],
      [
        "▁alla",
        -10.019078667488623
      ],
      [
        "▁ñe",
        -10.021255390709463
      ],
      [
        "▁mise",
        -10.031745133607858
      ],
      [
        "▁goog",
        -10.032429111419084
      ],
      [
        "ard",
        -10.033108911278472
      ],
      [
        "ssent",
        -10.036528411491284
      ],
      [
        "▁naat",
        -10.03676826462314
      ],
      [
        "▁clair",
        -10.03750867118067
      ],
      [
        "tation",
        -10.03986560191613
      ],
      [
        "▁nguuru",
        -10.040869141275895
      ],
      [
        "▁suiv",
        -10.041016373945888
      ],
      [
        "▁devenu",
        -10.041069774555819
      ],
      [
        "▁jou",
        -10.04163325635424
      ],
      [
        "▁utilise",
        -10.042393642025168
      ],
      [
        "▁dun",
        -10.043581536552962
      ],
      [
        "▁prêt",
        -10.044545844947733
      ],
      [
        "▁nag.",
        -10.046145244705375
      ],
      [
        "nte",
        -10.048620687670178
      ],
      [
        "cteur",
        -10.051347158217286
      ],
      [
        "▁bë",
        -10.052104996503672
      ],
      [
        "▁maître",
        -10.053658445939138
      ],
      [
        "t-ce",
        -10.05417083842214
      ],
      [
        "▁Aw",
        -10.05460291249478
      ],
      [
        "▁tee",
        -10.056232660599639
      ],
      [
        "▁d'or",
        -10.05844169604768
      ],
      [
        "wuñu",
        -10.059738367868082
      ],
      [
        "qu'un",
        -10.0600216205366
      ],
      [
        "▁Abo",
        -10.060295463807408
      ],
      [
        "ka",
        -10.060818273132265
      ],
      [
        "habitude",
        -10.060847555583736
      ],
      [
        "aal",
        -10.06136064814039
      ],
      [
        "▁neex.",
        -10.061517231572322
      ],
      [
        "▁Men",
        -10.061544894848108
      ],
      [
        "▁champ",
        -10.061636763408371
      ],
      [
        "▁couvert",
        -10.06205967820398
      ],
      [
        "▁ressembl",
        -10.064339773677457
      ],
      [
        "▁liggéeye",
        -10.065587013550083
      ],
      [
        "gé",
        -10.067658275985229
      ],
      [
        "instant",
        -10.068237444752986
      ],
      [
        "▁sec",
        -10.071345686267842
      ],
      [
        "▁digg",
        -10.071581710341952
      ],
      [
        "▁ñeme",
        -10.072340087459235
      ],
      [
        "ëpp",
        -10.072661021508996
      ],
      [
        "ndax",
        -10.073452710662451
      ],
      [
        "▁sûr",
        -10.073539658636626
      ],
      [
        "▁fit",
        -10.073655245989283
      ],
      [
        "▁bâton",
        -10.074139645787037
      ],
      [
        "▁affaire",
        -10.075570138643517
      ],
      [
        "▁sauvage",
        -10.075710775563063
      ],
      [
        "▁voiture",
        -10.07605421153199
      ],
      [
        "▁pierre",
        -10.076677318302913
      ],
      [
        "waa",
        -10.076875526030271
      ],
      [
        "▁éclat",
        -10.077076696029264
      ],
      [
        "▁ñaa",
        -10.077350905978939
      ],
      [
        "▁chaud",
        -10.078483226249263
      ],
      [
        "▁mba",
        -10.078543201689412
      ],
      [
        "▁I",
        -10.079679250542704
      ],
      [
        "vec",
        -10.081143686372105
      ],
      [
        "▁joli",
        -10.082332254970646
      ],
      [
        "▁entendu",
        -10.08347920215251
      ],
      [
        "▁fort",
        -10.085325565998012
      ],
      [
        "ndait",
        -10.087157161742505
      ],
      [
        "▁im",
        -10.08733281926946
      ],
      [
        "ch",
        -10.088325813583486
      ],
      [
        "-y",
        -10.08866857769707
      ],
      [
        "▁Luga",
        -10.088707378651703
      ],
      [
        "▁h",
        -10.088854484152511
      ],
      [
        "mes",
        -10.088964216314066
      ],
      [
        "▁taax",
        -10.089700875050516
      ],
      [
        "▁rencontre",
        -10.090565692977634
      ],
      [
        "▁jaa",
        -10.090701770357926
      ],
      [
        "koo",
        -10.091300081554387
      ],
      [
        "▁làq",
        -10.091600581158634
      ],
      [
        "roule",
        -10.092029171304354
      ],
      [
        "▁fey",
        -10.092108714389008
      ],
      [
        "▁Néeg",
        -10.0929810841719
      ],
      [
        "aayu",
        -10.093816033900127
      ],
      [
        "'imagine",
        -10.09402920049506
      ],
      [
        "veille",
        -10.094106081669187
      ],
      [
        "▁trente",
        -10.09481754044123
      ],
      [
        "▁Jën",
        -10.095072373865406
      ],
      [
        "▁Daŋg",
        -10.095139614055313
      ],
      [
        "ï",
        -10.09569720611505
      ],
      [
        "tin",
        -10.095700984657102
      ],
      [
        "ersonne",
        -10.09581448235204
      ],
      [
        "0",
        -10.09587050783945
      ],
      [
        "▁bomb",
        -10.096119378162589
      ],
      [
        "▁douce",
        -10.096121500030383
      ],
      [
        "▁ustensile",
        -10.096158040193327
      ],
      [
        "▁Adekunle",
        -10.096158040194451
      ],
      [
        "▁Georgetown",
        -10.096158040196832
      ],
      [
        "▁camerounais",
        -10.096158040197828
      ],
      [
        "▁Sefiriis",
        -10.096158040198695
      ],
      [
        "▁bûcheron",
        -10.09615804020562
      ],
      [
        "▁njàqare",
        -10.096158040221727
      ],
      [
        "”",
        -10.09615804023228
      ],
      [
        "Ç",
        -10.09615804023228
      ],
      [
        "▁Southampton",
        -10.09615804023228
      ],
      [
        "▁Biafra",
        -10.096158041116027
      ],
      [
        "▁biafrais",
        -10.096158041589344
      ],
      [
        "▁Abaakaliki",
        -10.096158043118306
      ],
      [
        "▁retrouve",
        -10.096158043305287
      ],
      [
        "▁termitières",
        -10.096158044135716
      ],
      [
        "▁après-midi",
        -10.096158047597218
      ],
      [
        "▁alkaati",
        -10.096158050299351
      ],
      [
        "▁Yoruba",
        -10.096158052562446
      ],
      [
        "▁allemande",
        -10.09615805485797
      ],
      [
        "▁tronc",
        -10.0961580645648
      ],
      [
        "▁“",
        -10.096158074150583
      ],
      [
        "▁Anglais",
        -10.096158080839391
      ],
      [
        "▁grand-père",
        -10.096158083859038
      ],
      [
        "▁mosquée",
        -10.09615810800671
      ],
      [
        "▁photographi",
        -10.096158155649753
      ],
      [
        "▁alkol",
        -10.09615816010395
      ],
      [
        "▁Cross",
        -10.096158178883575
      ],
      [
        "'occupa",
        -10.096158201794355
      ],
      [
        "▁mélang",
        -10.096158328044414
      ],
      [
        "angoisse",
        -10.09615833942515
      ],
      [
        "▁kalaate",
        -10.096159137045673
      ],
      [
        "▁terrible",
        -10.096159209239822
      ],
      [
        "▁l'entoure",
        -10.096159548029682
      ],
      [
        "▁sàndarm",
        -10.096159582303319
      ],
      [
        "▁Sorstaawun",
        -10.096159945441071
      ],
      [
        "▁zinc",
        -10.096160008012735
      ],
      [
        "▁probable",
        -10.096161142202064
      ],
      [
        "▁Salut",
        -10.096161761085051
      ],
      [
        "▁Moontin",
        -10.096162063730759
      ],
      [
        "▁gentil",
        -10.096162295384772
      ],
      [
        "▁xaaju",
        -10.096162847358022
      ],
      [
        "▁métier",
        -10.096163893986843
      ],
      [
        "▁branche",
        -10.096164477621373
      ],
      [
        "▁collines",
        -10.09616461049402
      ],
      [
        "▁d'arbres",
        -10.096164974140443
      ],
      [
        "▁service",
        -10.096165728795619
      ],
      [
        "▁rejoindre",
        -10.096166450912156
      ],
      [
        "▁compris",
        -10.096167621689654
      ],
      [
        "▁poussière",
        -10.096167792774219
      ],
      [
        "▁ndànk",
        -10.096168479792246
      ],
      [
        "▁ndóol",
        -10.096170796118463
      ],
      [
        "▁douche",
        -10.09617201808304
      ],
      [
        "▁brûlure",
        -10.096175484975337
      ],
      [
        "▁fecc",
        -10.096175543395113
      ],
      [
        "▁ndigg",
        -10.096179995760162
      ],
      [
        "▁nàññ",
        -10.096183972164527
      ],
      [
        "▁yàlla",
        -10.09618410333183
      ],
      [
        "▁bërëb",
        -10.096184286897659
      ],
      [
        "arrière",
        -10.096184938028404
      ],
      [
        "▁fauve",
        -10.096186233617031
      ],
      [
        "▁karaw",
        -10.096187053302392
      ],
      [
        "▁Guddi",
        -10.096187336510525
      ],
      [
        "▁resté",
        -10.096189001756466
      ],
      [
        "▁gànnaay",
        -10.096189997270091
      ],
      [
        "▁apporté",
        -10.096195586921604
      ],
      [
        "▁noyyi",
        -10.096196537233864
      ],
      [
        "▁rares",
        -10.096201366034183
      ],
      [
        "▁Aiya",
        -10.096201677514475
      ],
      [
        "▁gannaaw",
        -10.096207525561368
      ],
      [
        "▁doxantu",
        -10.096210356286864
      ],
      [
        "▁continent",
        -10.096211797794254
      ],
      [
        "▁këll",
        -10.096216168164379
      ],
      [
        "▁ondul",
        -10.096226346102009
      ],
      [
        "▁ëmb",
        -10.096229096150383
      ],
      [
        "▁connaissais",
        -10.096240773105933
      ],
      [
        "▁Qu'est-ce",
        -10.09624837889298
      ],
      [
        "▁way-",
        -10.096250973682476
      ],
      [
        "science",
        -10.096284568963528
      ],
      [
        "▁soppiku",
        -10.096304174530482
      ],
      [
        "▁fowukaay",
        -10.096305076602228
      ],
      [
        "▁taille",
        -10.096305969683453
      ],
      [
        "▁mbégte",
        -10.096310448126214
      ],
      [
        "▁làquji",
        -10.096334484707592
      ],
      [
        "nore",
        -10.096341734388531
      ],
      [
        "▁avance",
        -10.096350235016207
      ],
      [
        "▁delsi",
        -10.09635068968809
      ],
      [
        "▁maintenant",
        -10.096358866514043
      ],
      [
        "▁tap",
        -10.096396077411876
      ],
      [
        "▁ndab",
        -10.096415847625963
      ],
      [
        "▁l'argent",
        -10.096420956680895
      ],
      [
        "▁xaj",
        -10.096421488725692
      ],
      [
        "▁fitna",
        -10.096437511578543
      ],
      [
        "▁oncle",
        -10.096444904876428
      ],
      [
        "▁awsa",
        -10.09647112232157
      ],
      [
        "▁courage",
        -10.0964928441046
      ],
      [
        "▁dirigeant",
        -10.096512042055739
      ],
      [
        "▁cercl",
        -10.096606731041991
      ],
      [
        "▁juddu",
        -10.096620309283514
      ],
      [
        "-tiir",
        -10.09662186942838
      ],
      [
        "▁Pourtant",
        -10.096657493444205
      ],
      [
        "▁raxas",
        -10.09667334299956
      ],
      [
        "▁d'eau",
        -10.096724564592389
      ],
      [
        "▁sàcc",
        -10.09681919062283
      ],
      [
        "▁dékku",
        -10.096857141082314
      ],
      [
        "▁tiis",
        -10.096861527304172
      ],
      [
        "▁hutte",
        -10.096917386433033
      ],
      [
        "▁ŋgoogule",
        -10.096934783301418
      ],
      [
        "▁lui-même",
        -10.096957442353427
      ],
      [
        "▁puj",
        -10.09700127951263
      ],
      [
        "▁simis",
        -10.097003251761004
      ],
      [
        "▁jàppukaay",
        -10.097005282776747
      ],
      [
        "▁gàddaay",
        -10.097061616317403
      ],
      [
        "▁rire",
        -10.097116159826292
      ],
      [
        "▁brave",
        -10.097224773476393
      ],
      [
        "▁yàpp",
        -10.097249699591444
      ],
      [
        "▁déci",
        -10.097281709480251
      ],
      [
        "▁prendre",
        -10.097345226318652
      ],
      [
        "▁assez",
        -10.097380424768115
      ],
      [
        "atoo",
        -10.097421846328022
      ],
      [
        "▁Ñooñu",
        -10.097440442170903
      ],
      [
        "▁Xaw",
        -10.09745524857868
      ],
      [
        "▁vivant",
        -10.097457143846691
      ],
      [
        "▁cacher",
        -10.097534323520355
      ],
      [
        "▁xur",
        -10.097683979359495
      ],
      [
        "▁mbaxana",
        -10.097753806250271
      ],
      [
        "▁parole",
        -10.09778746715348
      ],
      [
        "▁sensation",
        -10.097818790775134
      ],
      [
        "▁wér",
        -10.097870342271634
      ],
      [
        "▁J'en",
        -10.098083362471822
      ],
      [
        "▁volets",
        -10.098516432251563
      ],
      [
        "▁exemple",
        -10.09854010476849
      ],
      [
        "▁armes",
        -10.098615249382922
      ],
      [
        "▁melax",
        -10.098700434702454
      ],
      [
        "▁Ñaar",
        -10.09875374179581
      ],
      [
        "▁daawul",
        -10.098837449126371
      ],
      [
        "▁doomi-",
        -10.099099060874554
      ],
      [
        "▁rappelle",
        -10.099209122456715
      ],
      [
        "▁vide",
        -10.099216550254372
      ],
      [
        "▁fortune",
        -10.099253810278459
      ],
      [
        "▁kookee",
        -10.09936855245969
      ],
      [
        "▁njort",
        -10.099384422162858
      ],
      [
        "▁Garab",
        -10.099439634886698
      ],
      [
        "▁tawat",
        -10.099514118964501
      ],
      [
        "▁daaneel",
        -10.099654344237894
      ],
      [
        "▁sommet",
        -10.099690087607573
      ],
      [
        "▁casque",
        -10.099926301657694
      ],
      [
        "▁jaaxa",
        -10.099998270881917
      ],
      [
        "▁bleue",
        -10.10003152786512
      ],
      [
        "▁pince",
        -10.100154971516735
      ],
      [
        "▁wóolu",
        -10.100184776412206
      ],
      [
        "waale",
        -10.100308861873568
      ],
      [
        "▁hamacs",
        -10.100480636116714
      ],
      [
        "▁vertes",
        -10.100487996647358
      ],
      [
        "▁recherche",
        -10.100790462543966
      ],
      [
        "▁rive",
        -10.100847226961866
      ],
      [
        "▁sombre",
        -10.100927969555533
      ],
      [
        "▁tir",
        -10.101234884365182
      ],
      [
        "▁panier",
        -10.101378046229057
      ],
      [
        "▁somme",
        -10.101392102487399
      ],
      [
        "▁voulu",
        -10.101636409208714
      ],
      [
        "▁co",
        -10.101643049784489
      ],
      [
        "▁revienne",
        -10.101765055117479
      ],
      [
        "▁(ce",
        -10.1018024489114
      ],
      [
        "▁nijaay",
        -10.101855188662958
      ],
      [
        "obul",
        -10.102094351745277
      ],
      [
        "▁màgge",
        -10.10219770162595
      ],
      [
        "▁marchent",
        -10.102481166909989
      ],
      [
        "▁ňi",
        -10.102837080705283
      ],
      [
        "▁làqu",
        -10.102864109673629
      ],
      [
        "▁pareil",
        -10.10308502780366
      ],
      [
        "▁couch",
        -10.10331316369807
      ],
      [
        "▁dàtt",
        -10.103341612010517
      ],
      [
        "▁naaxi",
        -10.103433762172758
      ],
      [
        "▁nouvelles",
        -10.103986758030942
      ],
      [
        "abond",
        -10.10403777486328
      ],
      [
        "▁ñeent",
        -10.104158171115227
      ],
      [
        "▁entré",
        -10.104360886778519
      ],
      [
        "▁doomam",
        -10.104593253851768
      ],
      [
        "▁joge",
        -10.104937985233107
      ],
      [
        "▁mesure",
        -10.10495462987951
      ],
      [
        "▁pluie",
        -10.105609461645283
      ],
      [
        "▁yéeme",
        -10.106919900826416
      ],
      [
        "▁étage",
        -10.107717148175892
      ],
      [
        "▁savoir",
        -10.108696714237617
      ],
      [
        "▁forte",
        -10.108929981829768
      ],
      [
        "▁soldats",
        -10.109041556132995
      ],
      [
        "▁militaires",
        -10.109045854843997
      ],
      [
        "▁feeñu",
        -10.10915683744724
      ],
      [
        "▁mbooloo",
        -10.109296263236228
      ],
      [
        "▁julli",
        -10.109561851439118
      ],
      [
        "fippu",
        -10.109631399215207
      ],
      [
        "▁nourri",
        -10.110050276248835
      ],
      [
        "▁Xare",
        -10.110807686705002
      ],
      [
        "kóon",
        -10.110954554370718
      ],
      [
        "▁bancs",
        -10.111201075183066
      ],
      [
        "▁dig",
        -10.111694174464377
      ],
      [
        "▁mënut",
        -10.112303128765872
      ],
      [
        "ati-",
        -10.113201292871224
      ],
      [
        "ssant",
        -10.114067248448363
      ],
      [
        "▁yëgaat",
        -10.114189131761815
      ],
      [
        "ëm",
        -10.114629683993634
      ],
      [
        "aak",
        -10.11572166661363
      ],
      [
        "▁troupeau",
        -10.116126009760617
      ],
      [
        "▁fermée",
        -10.116516993820861
      ],
      [
        "▁devenus",
        -10.116754360431067
      ],
      [
        "▁lire",
        -10.117136691867405
      ],
      [
        "▁guyy",
        -10.117546425850463
      ],
      [
        "▁rayon",
        -10.117831526964972
      ],
      [
        "▁marcher",
        -10.118318804251656
      ],
      [
        "▁monté",
        -10.118546240235977
      ],
      [
        "▁retourne",
        -10.118686736395354
      ],
      [
        "▁pans",
        -10.120206283868807
      ],
      [
        "▁Bum",
        -10.120376444975125
      ],
      [
        "▁seetu",
        -10.12174695970122
      ],
      [
        "▁croi",
        -10.12200559455365
      ],
      [
        "▁dessiné",
        -10.122388545894282
      ],
      [
        "▁kam",
        -10.12285438793626
      ],
      [
        "ommé",
        -10.124311731137745
      ],
      [
        "▁face",
        -10.124502552183758
      ],
      [
        "ékk",
        -10.12458677622891
      ],
      [
        "▁xaritam",
        -10.127526085006224
      ],
      [
        "▁defaree",
        -10.128549224756055
      ],
      [
        "▁mënee",
        -10.129305112159237
      ],
      [
        "▁kookuu",
        -10.129603684571372
      ],
      [
        "▁scorpions",
        -10.129823016770182
      ],
      [
        "▁four",
        -10.130719779236458
      ],
      [
        "▁këru",
        -10.130740793677198
      ],
      [
        "▁dëkkoon",
        -10.131101157412777
      ],
      [
        "êtes",
        -10.131359106072459
      ],
      [
        "▁voul",
        -10.133281788860476
      ],
      [
        "▁saf",
        -10.134116816550888
      ],
      [
        "▁pré",
        -10.135063024597866
      ],
      [
        "isme",
        -10.136352189650157
      ],
      [
        "enti",
        -10.136982924885404
      ],
      [
        "ñii",
        -10.137364531637838
      ],
      [
        "▁amour",
        -10.137437936213281
      ],
      [
        "▁livres",
        -10.137547866595476
      ],
      [
        "avez",
        -10.137876524551444
      ],
      [
        "▁nus",
        -10.140130169195864
      ],
      [
        "▁maîtres",
        -10.140539320805882
      ],
      [
        "▁dur",
        -10.140743436097907
      ],
      [
        "▁bleus",
        -10.143237870786736
      ],
      [
        "rt",
        -10.143749777921512
      ],
      [
        "▁Ŋg",
        -10.144689557819929
      ],
      [
        "sement",
        -10.144962313423218
      ],
      [
        "son",
        -10.14539786980276
      ],
      [
        "▁désir",
        -10.148374531482762
      ],
      [
        "▁ndo",
        -10.148714611621235
      ],
      [
        "▁séchée",
        -10.148905335993122
      ],
      [
        "▁impression",
        -10.149216827308553
      ],
      [
        "▁yé",
        -10.15089499005219
      ],
      [
        "▁sàn",
        -10.152282530131513
      ],
      [
        "▁Fo",
        -10.15376108494668
      ],
      [
        "lé",
        -10.153986141230446
      ],
      [
        "▁mënuma",
        -10.157305272341645
      ],
      [
        "▁prise",
        -10.157359765911902
      ],
      [
        "▁eusse",
        -10.15776127612508
      ],
      [
        "▁ras",
        -10.157916041478357
      ],
      [
        "▁laine",
        -10.159387945982557
      ],
      [
        "hier",
        -10.159927320042906
      ],
      [
        "▁pointe",
        -10.16008936150511
      ],
      [
        "▁baŋ",
        -10.161785342525837
      ],
      [
        "toon",
        -10.164554412559374
      ],
      [
        "▁fur",
        -10.165060740048695
      ],
      [
        "'appartien",
        -10.165889168212633
      ],
      [
        "mar",
        -10.167837912276712
      ],
      [
        "oindre",
        -10.169996528974607
      ],
      [
        "gal",
        -10.17016124346188
      ],
      [
        "hôpital",
        -10.17083618821989
      ],
      [
        "asi",
        -10.171528927415315
      ],
      [
        "▁x",
        -10.173576972301538
      ],
      [
        "laam",
        -10.175544640390978
      ],
      [
        "▁vari",
        -10.17615522926624
      ],
      [
        "ñoo",
        -10.177842812369928
      ],
      [
        "▁niir",
        -10.180910910125222
      ],
      [
        "▁Aa",
        -10.181836643764715
      ],
      [
        "▁lits",
        -10.182142280598521
      ],
      [
        "▁Gan",
        -10.185994419028514
      ],
      [
        "gu",
        -10.186247965846656
      ],
      [
        "▁Mii",
        -10.187056554320767
      ],
      [
        "▁Gu",
        -10.188090928589766
      ],
      [
        "▁seuls",
        -10.188288114910014
      ],
      [
        "daa",
        -10.190543948612717
      ],
      [
        "▁néegi",
        -10.190791947874493
      ],
      [
        "▁jooja",
        -10.191271580635563
      ],
      [
        "▁l'é",
        -10.1915240877466
      ],
      [
        "▁dos",
        -10.196184312236163
      ],
      [
        "▁wiy",
        -10.197446906481996
      ],
      [
        "▁deey",
        -10.199804316677342
      ],
      [
        "▁l'on",
        -10.20001217598769
      ],
      [
        "garder",
        -10.20041377364067
      ],
      [
        "▁cou",
        -10.201915931099613
      ],
      [
        "rit",
        -10.202359630381494
      ],
      [
        "▁Celui",
        -10.207670298920503
      ],
      [
        "u-",
        -10.208700977325552
      ],
      [
        "▁dugal",
        -10.209876566142356
      ],
      [
        "▁ñee",
        -10.215104333478168
      ],
      [
        "fu",
        -10.217014569280607
      ],
      [
        "▁plan",
        -10.218162422486277
      ],
      [
        "ide",
        -10.220462577981285
      ],
      [
        "▁suffi",
        -10.221481616519425
      ],
      [
        "▁yàq",
        -10.222464546136631
      ],
      [
        "'orage",
        -10.22249986881526
      ],
      [
        "▁Def",
        -10.223586985132357
      ],
      [
        "▁cas",
        -10.224894900204529
      ],
      [
        "▁chocolat",
        -10.225277732246742
      ],
      [
        "naissance",
        -10.228440934201368
      ],
      [
        "erre",
        -10.229387289677287
      ],
      [
        "uits",
        -10.22963512126741
      ],
      [
        "ër",
        -10.230329281964305
      ],
      [
        "iques",
        -10.233742002381788
      ],
      [
        "hez",
        -10.234361696381837
      ],
      [
        "▁m'",
        -10.23464156996593
      ],
      [
        "▁chambres",
        -10.234954954944506
      ],
      [
        "nent",
        -10.236717634255552
      ],
      [
        "▁outil",
        -10.236776697579149
      ],
      [
        "▁jàppe",
        -10.243025572353456
      ],
      [
        "▁dan",
        -10.243285046409738
      ],
      [
        "▁coupe",
        -10.243743874816722
      ],
      [
        "▁sañ",
        -10.244960979757106
      ],
      [
        "ole",
        -10.246460118761277
      ],
      [
        "▁entend",
        -10.247529819559965
      ],
      [
        "▁posée",
        -10.249426134127372
      ],
      [
        "tul",
        -10.249983718965797
      ],
      [
        "aires",
        -10.25544846477649
      ],
      [
        "t-il",
        -10.256127280562408
      ],
      [
        "▁be",
        -10.25815826389642
      ],
      [
        "▁wàcc",
        -10.26172524259884
      ],
      [
        "dar",
        -10.262177428635955
      ],
      [
        "bbe",
        -10.262608721790784
      ],
      [
        "▁trou",
        -10.262843962658351
      ],
      [
        "▁pourra",
        -10.26300158676568
      ],
      [
        "▁rend",
        -10.263300768454217
      ],
      [
        "tam",
        -10.265741450508601
      ],
      [
        "▁armé",
        -10.265808051620363
      ],
      [
        "ã",
        -10.271505403176011
      ],
      [
        "goom",
        -10.272266260530207
      ],
      [
        "▁tam",
        -10.272805621478557
      ],
      [
        "▁n'as",
        -10.273158580502349
      ],
      [
        "▁jé",
        -10.273199947914298
      ],
      [
        "▁armée",
        -10.273933097237359
      ],
      [
        "▁cont",
        -10.274206627377096
      ],
      [
        "▁ndugg",
        -10.274419888837603
      ],
      [
        "uwaay",
        -10.275062297236667
      ],
      [
        "▁ño",
        -10.275416642794859
      ],
      [
        "sant",
        -10.278702274140144
      ],
      [
        "ailles",
        -10.279647294162771
      ],
      [
        "▁pouss",
        -10.279791954060235
      ],
      [
        "▁tra",
        -10.279909080844892
      ],
      [
        "ût",
        -10.280266413346027
      ],
      [
        "googule",
        -10.281756172651114
      ],
      [
        "▁Yo",
        -10.28273882046299
      ],
      [
        "nge",
        -10.283754921460876
      ],
      [
        "▁rajo",
        -10.284051605042084
      ],
      [
        "▁dure",
        -10.284141108161672
      ],
      [
        "ins",
        -10.286451417818386
      ],
      [
        "óo",
        -10.287992467794806
      ],
      [
        "àkk",
        -10.288631904959619
      ],
      [
        "▁quitte",
        -10.29046829827188
      ],
      [
        "▁tegu",
        -10.292869341253413
      ],
      [
        "▁différent",
        -10.29322391659805
      ],
      [
        "▁ñaw",
        -10.293247603418138
      ],
      [
        "▁pensé",
        -10.293594773548161
      ],
      [
        "allaient",
        -10.29373144845123
      ],
      [
        "▁Leer",
        -10.293886003436697
      ],
      [
        "▁entouré",
        -10.293959458346462
      ],
      [
        "▁teewu",
        -10.29401709166863
      ],
      [
        "▁étalé",
        -10.29406920026856
      ],
      [
        "▁sub",
        -10.298209740850382
      ],
      [
        "to",
        -10.299268714444615
      ],
      [
        "▁conten",
        -10.299892613662625
      ],
      [
        "▁mêl",
        -10.30001561063772
      ],
      [
        "ŋga",
        -10.302170475037627
      ],
      [
        "kke",
        -10.304782394662729
      ],
      [
        "aurais",
        -10.304946139214717
      ],
      [
        "leel",
        -10.304971426559353
      ],
      [
        "lal",
        -10.30586026482695
      ],
      [
        "▁décor",
        -10.305994491795623
      ],
      [
        "▁travaill",
        -10.306596858306598
      ],
      [
        "▁kà",
        -10.307710677986464
      ],
      [
        "ombre",
        -10.307851176328723
      ],
      [
        "▁Daawu",
        -10.308083683218223
      ],
      [
        "▁natt",
        -10.311330985176546
      ],
      [
        "▁ouvert",
        -10.311698721321024
      ],
      [
        "▁président",
        -10.311806419951095
      ],
      [
        "▁qu",
        -10.311929691680067
      ],
      [
        "▁miroir",
        -10.311940814664407
      ],
      [
        "ier",
        -10.314068768575176
      ],
      [
        "▁fui",
        -10.314237638081503
      ],
      [
        "▁jam",
        -10.314949928000939
      ],
      [
        "gul",
        -10.315594845705272
      ],
      [
        "at.",
        -10.316014537838731
      ],
      [
        "▁toj",
        -10.3169887426075
      ],
      [
        "▁laissé",
        -10.317855936247984
      ],
      [
        "▁nju",
        -10.318199718662328
      ],
      [
        "▁gendarme",
        -10.319706282947145
      ],
      [
        "▁découvert",
        -10.319984195240293
      ],
      [
        "fal",
        -10.320031629553974
      ],
      [
        "auté",
        -10.320543477868219
      ],
      [
        "▁né",
        -10.320834186393009
      ],
      [
        "war",
        -10.32155111493123
      ],
      [
        "▁Yen",
        -10.321966210858141
      ],
      [
        "▁Wa",
        -10.322132505081607
      ],
      [
        "F",
        -10.322790979784331
      ],
      [
        "▁sépar",
        -10.322839042284393
      ],
      [
        "▁Bul",
        -10.323058671471177
      ],
      [
        "con",
        -10.324493400909557
      ],
      [
        "▁ancien",
        -10.32472074178018
      ],
      [
        "▁d'herbe",
        -10.325733284120119
      ],
      [
        "▁certain",
        -10.326285080360973
      ],
      [
        "▁tasse",
        -10.32632230229443
      ],
      [
        "ille",
        -10.326769904244978
      ],
      [
        "▁méng",
        -10.326820952053382
      ],
      [
        "ru",
        -10.327898106934438
      ],
      [
        "jafe",
        -10.328159801446802
      ],
      [
        "▁précédé",
        -10.328302691055486
      ],
      [
        "▁yéem",
        -10.32840734502355
      ],
      [
        "àngi",
        -10.32869373892285
      ],
      [
        "▁général",
        -10.329003170766644
      ],
      [
        "▁guerr",
        -10.330516566199156
      ],
      [
        "▁nombre",
        -10.330553930284868
      ],
      [
        "innaaw",
        -10.33201136551867
      ],
      [
        "▁cré",
        -10.334431728753753
      ],
      [
        "enfance",
        -10.334480785821723
      ],
      [
        "sion",
        -10.335476721467286
      ],
      [
        "ver",
        -10.335477250997064
      ],
      [
        "ish",
        -10.335601364294098
      ],
      [
        "▁Ko",
        -10.335825610731623
      ],
      [
        "▁rëbb",
        -10.336042470010362
      ],
      [
        "▁golf",
        -10.336224912399212
      ],
      [
        "▁dootu",
        -10.338126616286464
      ],
      [
        "ko",
        -10.339734721724556
      ],
      [
        "ddina",
        -10.340231236306467
      ],
      [
        "▁kàdd",
        -10.340533945431647
      ],
      [
        "▁xii",
        -10.340708355639372
      ],
      [
        "▁faf",
        -10.340853459889047
      ],
      [
        "▁Moka",
        -10.34135590696829
      ],
      [
        "orts",
        -10.341696056093458
      ],
      [
        "▁gëm",
        -10.341751039247699
      ],
      [
        "▁indi",
        -10.341966200464574
      ],
      [
        "able",
        -10.34237205812412
      ],
      [
        "mbres",
        -10.342448072243938
      ],
      [
        "▁c'étai",
        -10.342959027569703
      ],
      [
        "▁Doom",
        -10.342993202556778
      ],
      [
        "▁Foof",
        -10.343379563695684
      ],
      [
        "▁Qu'",
        -10.344252283406838
      ],
      [
        "▁révolte",
        -10.344435990368165
      ],
      [
        "ément",
        -10.344817889299515
      ],
      [
        "cture",
        -10.34504403515892
      ],
      [
        "▁accepte",
        -10.345207299707193
      ],
      [
        "▁tente",
        -10.345612691770752
      ],
      [
        "▁xërëm",
        -10.345780398072423
      ],
      [
        "àww",
        -10.345860935369272
      ],
      [
        "▁cr",
        -10.346029788193555
      ],
      [
        "araada",
        -10.346041028959725
      ],
      [
        "3",
        -10.346134384993729
      ],
      [
        "▁trapèze",
        -10.346158040192329
      ],
      [
        "▁l'après-midi",
        -10.34615804019235
      ],
      [
        "▁véhicule",
        -10.3461580401933
      ],
      [
        "▁discipline",
        -10.34615804019331
      ],
      [
        "▁junniy-junni",
        -10.346158040193686
      ],
      [
        "▁Harcourt",
        -10.346158040194158
      ],
      [
        "▁caravane",
        -10.346158040195332
      ],
      [
        "▁NGo",
        -10.346158040205168
      ],
      [
        "▁privilèges",
        -10.346158040210973
      ],
      [
        "▁Ahidjo",
        -10.346158040215906
      ],
      [
        "▁béjjén",
        -10.346158040216244
      ],
      [
        "▁incapable",
        -10.346158040219994
      ],
      [
        "…",
        -10.34615804023228
      ],
      [
        "▁accepté",
        -10.346158040243509
      ],
      [
        "D.O.",
        -10.346158040252023
      ],
      [
        "▁yëngatu",
        -10.346158040260553
      ],
      [
        "▁tés-tés",
        -10.346158040325662
      ],
      [
        "▁lorgnons",
        -10.346158040336693
      ],
      [
        "▁ndànk-ndànk",
        -10.346158040450021
      ],
      [
        "▁éprouv",
        -10.346158040467591
      ],
      [
        "▁rajaxe",
        -10.346158040490181
      ],
      [
        "▁1928",
        -10.346158040545417
      ],
      [
        "▁1948",
        -10.34615804073582
      ],
      [
        "▁grâce",
        -10.346158041373798
      ],
      [
        "▁l'extérieur",
        -10.346158041829641
      ],
      [
        "▁Bërëtaañ",
        -10.346158042088572
      ],
      [
        "▁BBC",
        -10.346158042248614
      ],
      [
        "'arachide",
        -10.346158043704461
      ],
      [
        "▁trésor",
        -10.346158044084763
      ],
      [
        "▁Bretagne",
        -10.34615804569269
      ],
      [
        "▁excessive",
        -10.346158047031622
      ],
      [
        "▁Europe",
        -10.346158047434397
      ],
      [
        "▁Kalabaar",
        -10.346158047943204
      ],
      [
        "▁proximité",
        -10.346158047980659
      ],
      [
        "llemands",
        -10.346158050496088
      ],
      [
        "▁ràññe",
        -10.346158050751992
      ],
      [
        "▁sèche",
        -10.346158051484514
      ],
      [
        "▁tekk-tekkaaral",
        -10.346158052954848
      ],
      [
        "▁officier",
        -10.346158055359256
      ],
      [
        "▁Voyage",
        -10.34615805635841
      ],
      [
        "▁Jeffries",
        -10.346158057958354
      ],
      [
        "▁ruisseau",
        -10.34615806064404
      ],
      [
        "▁Calabar",
        -10.346158070840062
      ],
      [
        "▁Ñëw",
        -10.346158078841011
      ],
      [
        "▁sibbiru",
        -10.346158102631556
      ],
      [
        "▁obsession",
        -10.346158170341111
      ],
      [
        "▁alentour",
        -10.346158187047703
      ],
      [
        "▁ndanka",
        -10.346158230802315
      ],
      [
        "▁Louga",
        -10.346158232050684
      ],
      [
        "▁juróom-ň",
        -10.346158241300051
      ],
      [
        "▁njege",
        -10.346158268239478
      ],
      [
        "▁possible",
        -10.34615827131714
      ],
      [
        "▁bavarda",
        -10.346158286126887
      ],
      [
        "▁disparu",
        -10.346158293861011
      ],
      [
        "▁tropicale",
        -10.346158413630327
      ],
      [
        "▁soixante",
        -10.346158449279038
      ],
      [
        "▁présence",
        -10.346158476980925
      ],
      [
        "▁L'autre",
        -10.346158481535081
      ],
      [
        "▁Chuku",
        -10.346158504632678
      ],
      [
        "▁légende",
        -10.346158570598245
      ],
      [
        "▁cliché",
        -10.346158595407541
      ],
      [
        "▁radio",
        -10.346158687738782
      ],
      [
        "▁extraordinaire",
        -10.346158939148642
      ],
      [
        "▁saxaaru-géej",
        -10.34615895555228
      ],
      [
        "▁kilomet",
        -10.346159113216558
      ],
      [
        "▁vieillard",
        -10.346159134603283
      ],
      [
        "▁pénétr",
        -10.34615926919281
      ],
      [
        "▁l'abri",
        -10.34615969847144
      ],
      [
        "▁bakkan",
        -10.346160166459688
      ],
      [
        "▁Birayim",
        -10.346160371446073
      ],
      [
        "▁fauteuil",
        -10.34616039445819
      ],
      [
        "▁accroche",
        -10.34616046766228
      ],
      [
        "▁njariñ",
        -10.346160787158922
      ],
      [
        "▁l'hum",
        -10.346160868507884
      ],
      [
        "▁répond",
        -10.346161800026833
      ],
      [
        "▁guyaab",
        -10.346162333588541
      ],
      [
        "▁ëlëk",
        -10.346162747281472
      ],
      [
        "▁mbemb",
        -10.346163171177551
      ],
      [
        "▁xamantane",
        -10.34616333256622
      ],
      [
        "▁soxla",
        -10.346163787762004
      ],
      [
        "▁magasin",
        -10.346163888008261
      ],
      [
        "▁Alfa",
        -10.346164115129094
      ],
      [
        "▁fonction",
        -10.346165570893428
      ],
      [
        "▁Macron",
        -10.346170339397878
      ],
      [
        "▁toilettes",
        -10.346170458573395
      ],
      [
        "▁gazelle",
        -10.346172915169992
      ],
      [
        "▁sept",
        -10.346173939813218
      ],
      [
        "▁coow",
        -10.346174214742451
      ],
      [
        "▁règne",
        -10.34617548382752
      ],
      [
        "▁l'aube",
        -10.34617813260998
      ],
      [
        "▁interdit",
        -10.346179543342421
      ],
      [
        "▁imagin",
        -10.346180769706288
      ],
      [
        "▁jërr",
        -10.34618252506693
      ],
      [
        "▁weesu",
        -10.346182678006885
      ],
      [
        "▁1968",
        -10.346182785200977
      ],
      [
        "▁Kipli",
        -10.346182834678652
      ],
      [
        "▁Demuloo",
        -10.346183140332561
      ],
      [
        "▁fanweer",
        -10.346190291894423
      ],
      [
        "▁Gaynd",
        -10.34619112869873
      ],
      [
        "▁dëll",
        -10.346192597080588
      ],
      [
        "▁moyen",
        -10.34619497383419
      ],
      [
        "▁poitrine",
        -10.346195735026123
      ],
      [
        "▁Confi",
        -10.346196338812707
      ],
      [
        "▁firndeel",
        -10.346197556690635
      ],
      [
        "▁xayma",
        -10.346203489090458
      ],
      [
        "▁effect",
        -10.346204602153549
      ],
      [
        "▁Agsil",
        -10.346209485631299
      ],
      [
        "▁conduis",
        -10.346211962255978
      ],
      [
        "▁riz",
        -10.346212056043996
      ],
      [
        "▁caract",
        -10.346220543789517
      ],
      [
        "▁soxal",
        -10.346222113540131
      ],
      [
        "▁ňàkk",
        -10.346224820017742
      ],
      [
        "▁ràpp",
        -10.346226060535262
      ],
      [
        "▁peine",
        -10.34623097635626
      ],
      [
        "▁compos",
        -10.346234064050268
      ],
      [
        "▁meetar",
        -10.346234956003327
      ],
      [
        "▁bënn",
        -10.34623543978141
      ],
      [
        "▁móobal",
        -10.346236506766154
      ],
      [
        "▁mbindeef",
        -10.34624001492221
      ],
      [
        "▁heureux",
        -10.346240730106022
      ],
      [
        "▁baobab",
        -10.346247104194559
      ],
      [
        "▁maasaloo",
        -10.346248639115746
      ],
      [
        "▁Au-dessus",
        -10.346250434695282
      ],
      [
        "▁larmes",
        -10.346279653673179
      ],
      [
        "▁bãŋ",
        -10.346285317748226
      ],
      [
        "▁décrit",
        -10.346285887485575
      ],
      [
        "▁lentement",
        -10.34628749573823
      ],
      [
        "▁naître",
        -10.34629163281479
      ],
      [
        "▁habituellement",
        -10.346294801458878
      ],
      [
        "▁dëppoo",
        -10.346295482806344
      ],
      [
        "▁électrique",
        -10.346299758581461
      ],
      [
        "▁foudre",
        -10.346304725729242
      ],
      [
        "▁fomp",
        -10.346305425812297
      ],
      [
        "▁flamme",
        -10.346305448897217
      ],
      [
        "▁comprendre",
        -10.346313739711395
      ],
      [
        "▁lëmm",
        -10.346318710692195
      ],
      [
        "▁verra",
        -10.346322150554379
      ],
      [
        "▁revenu",
        -10.346326493431702
      ],
      [
        "▁fureur",
        -10.346337264011172
      ],
      [
        "▁s'installe",
        -10.346351471971674
      ],
      [
        "▁tàggat",
        -10.346389572863043
      ],
      [
        "▁Dieu",
        -10.346391332276871
      ],
      [
        "▁daŋar",
        -10.346398405411696
      ],
      [
        "▁capable",
        -10.34640206290024
      ],
      [
        "▁Mbam",
        -10.346413152862523
      ],
      [
        "▁sauce",
        -10.346430298921549
      ],
      [
        "▁échappé",
        -10.346432193985756
      ],
      [
        "▁perdre",
        -10.346437096279756
      ],
      [
        "▁pension",
        -10.346438353464837
      ],
      [
        "▁semaine",
        -10.346460500024834
      ],
      [
        "▁Combi",
        -10.346462788240292
      ],
      [
        "▁gosse",
        -10.346480123256615
      ],
      [
        "▁commencé",
        -10.346523284232937
      ],
      [
        "▁simila",
        -10.34652430537458
      ],
      [
        "▁genre",
        -10.346535843552468
      ],
      [
        "▁màtt",
        -10.346544090177344
      ],
      [
        "▁pegg",
        -10.34654920958306
      ],
      [
        "▁bruit",
        -10.346569719934497
      ],
      [
        "▁fièvre",
        -10.346578384160066
      ],
      [
        "▁install",
        -10.346578967649467
      ],
      [
        "▁contraire",
        -10.346598754233074
      ],
      [
        "▁prière",
        -10.346600587604273
      ],
      [
        "▁tubay",
        -10.346636771218146
      ],
      [
        "▁gëléem",
        -10.346645532953382
      ],
      [
        "▁serré",
        -10.346649062733064
      ],
      [
        "▁soxor",
        -10.346684188498639
      ],
      [
        "▁Banyo",
        -10.346717894367623
      ],
      [
        "▁taq",
        -10.346729892845325
      ],
      [
        "▁voudrait",
        -10.346731354873262
      ],
      [
        "▁frappions",
        -10.346767770556841
      ],
      [
        "▁wert",
        -10.346805063638678
      ],
      [
        "▁l'indépendance",
        -10.34680645487792
      ],
      [
        "▁Dégg",
        -10.346872909794369
      ],
      [
        "▁Bateri",
        -10.346875448127278
      ],
      [
        "▁woowa",
        -10.346894420017087
      ],
      [
        "▁appelé",
        -10.34689933431499
      ],
      [
        "▁caisse",
        -10.346900076362338
      ],
      [
        "▁d'ici",
        -10.346926640879605
      ],
      [
        "▁drapeau",
        -10.346949024500784
      ],
      [
        "▁Looloo",
        -10.346984238657022
      ],
      [
        "-lu",
        -10.347005320317093
      ],
      [
        "▁absent",
        -10.34701383740499
      ],
      [
        "▁miirloo",
        -10.347052063653988
      ],
      [
        "▁semble-t-il",
        -10.34705992207606
      ],
      [
        "▁sooke",
        -10.34707475076449
      ],
      [
        "▁Joor",
        -10.347082835121874
      ],
      [
        "itié",
        -10.347177631981522
      ],
      [
        "▁yemale",
        -10.347214285986455
      ],
      [
        "▁causé",
        -10.347262592850827
      ],
      [
        "▁c'est-à-dire",
        -10.34727683356877
      ],
      [
        "▁meññ",
        -10.347287497508038
      ],
      [
        "▁chapeaux",
        -10.347317144133216
      ],
      [
        "▁Bamako",
        -10.347332186558376
      ],
      [
        "-réew",
        -10.347349272179278
      ],
      [
        "▁tuuru",
        -10.347360135341269
      ],
      [
        "▁marqué",
        -10.347385158658783
      ],
      [
        "▁ràkkaaju",
        -10.347396092474472
      ],
      [
        "▁oublier",
        -10.347431325100416
      ],
      [
        "erig",
        -10.347439441040978
      ],
      [
        "saŋ",
        -10.347467624453955
      ],
      [
        "▁bég",
        -10.347493902121444
      ],
      [
        "▁dég",
        -10.347508761166434
      ],
      [
        "▁fen",
        -10.347530814906722
      ],
      [
        "▁raconté",
        -10.347593339095585
      ],
      [
        "▁nangoo",
        -10.347628372608996
      ],
      [
        "▁rose",
        -10.34771954923936
      ],
      [
        "▁tëgg",
        -10.34772938514662
      ],
      [
        "▁aigu",
        -10.347762527727756
      ],
      [
        "▁d'entre",
        -10.347813101123423
      ],
      [
        "▁poudre",
        -10.347931557864998
      ],
      [
        "▁charme",
        -10.348035652786628
      ],
      [
        "▁muraille",
        -10.348118699659741
      ],
      [
        "▁portale",
        -10.34812001438319
      ],
      [
        "▁remis",
        -10.348142235878193
      ],
      [
        "▁élevé",
        -10.348254575159011
      ],
      [
        "▁Tann",
        -10.34826644684296
      ],
      [
        "▁cent",
        -10.348288190183752
      ],
      [
        "▁brûlant",
        -10.348373295027727
      ],
      [
        "▁càkk",
        -10.348404667695734
      ],
      [
        "▁kookale",
        -10.348412829796015
      ],
      [
        "▁qu'en",
        -10.348438334730726
      ],
      [
        "▁penku",
        -10.348465580667451
      ],
      [
        "▁d'habitude",
        -10.348474964363932
      ],
      [
        "▁nuru",
        -10.348478254360712
      ],
      [
        "roya",
        -10.348485959122197
      ],
      [
        "▁Mbir",
        -10.3485318234152
      ],
      [
        "▁n'importe",
        -10.348556314869553
      ],
      [
        "▁dijj",
        -10.348563786680076
      ],
      [
        "▁naň",
        -10.348566478895986
      ],
      [
        "tiens",
        -10.348595806181184
      ],
      [
        "▁móol",
        -10.348598207300524
      ],
      [
        "▁Demkoon",
        -10.34864980040182
      ],
      [
        "▁surveill",
        -10.348699298527809
      ],
      [
        "▁soirée",
        -10.348870238301092
      ],
      [
        "▁neuf",
        -10.34894301621456
      ],
      [
        "▁Demuma",
        -10.348946802629403
      ],
      [
        "▁pétrole",
        -10.34894932986821
      ],
      [
        "▁travailler",
        -10.349000828125364
      ],
      [
        "▁léeg",
        -10.349040280692725
      ],
      [
        "▁weg",
        -10.349246917130465
      ],
      [
        "▁dikkul",
        -10.34927993989838
      ],
      [
        "▁sœurs",
        -10.349304749015547
      ],
      [
        "▁juges",
        -10.349313053320943
      ],
      [
        "ulëer",
        -10.349398834284429
      ],
      [
        "empire",
        -10.34941604049394
      ],
      [
        "▁cultive",
        -10.34944847115512
      ],
      [
        "▁yeggee",
        -10.34947290817675
      ],
      [
        "▁d'Ar",
        -10.349484660610528
      ],
      [
        "▁matinée",
        -10.349777168642017
      ],
      [
        "ňu",
        -10.349953239822128
      ],
      [
        "▁exerc",
        -10.350046486164288
      ],
      [
        "▁oreilles",
        -10.350115286380262
      ],
      [
        "▁kayit",
        -10.350116100288405
      ],
      [
        "▁apparaissent",
        -10.350326144744015
      ],
      [
        "-tuut",
        -10.350447839912832
      ],
      [
        "▁plats",
        -10.350537363622085
      ],
      [
        "▁sell",
        -10.35057396442446
      ],
      [
        "▁fowu",
        -10.350708226533243
      ],
      [
        "▁éta",
        -10.350709397577077
      ],
      [
        "▁Mac",
        -10.350828156790053
      ],
      [
        "rass",
        -10.350926161602684
      ],
      [
        "▁corde",
        -10.35100099871365
      ],
      [
        "▁Mokaa",
        -10.351015314023154
      ],
      [
        "óoy",
        -10.3513732698081
      ],
      [
        "▁kaki",
        -10.351495427875927
      ],
      [
        "▁accepter",
        -10.35150988178551
      ],
      [
        "▁tëwa",
        -10.351648924401038
      ],
      [
        "▁puur",
        -10.352161293367105
      ],
      [
        "▁l'inst",
        -10.352216712621303
      ],
      [
        "▁rendu",
        -10.352287871491063
      ],
      [
        "▁Njiit",
        -10.352349925487578
      ],
      [
        "▁ver",
        -10.352608622846088
      ],
      [
        "▁dress",
        -10.352733071446124
      ],
      [
        "▁étrange",
        -10.352836634044012
      ],
      [
        "▁ñaaw",
        -10.3528767650379
      ],
      [
        "▁d'art",
        -10.353082610952466
      ],
      [
        "▁libre",
        -10.353202933281915
      ],
      [
        "▁Cependant",
        -10.353349358820797
      ],
      [
        "▁jog",
        -10.353430162084555
      ],
      [
        "▁battant",
        -10.353538602116398
      ],
      [
        "▁marque",
        -10.35386980017703
      ],
      [
        "▁waaxu",
        -10.353997760820908
      ],
      [
        "egg",
        -10.354011503109009
      ],
      [
        "▁battu",
        -10.354851097943897
      ],
      [
        "▁Nun",
        -10.354932295178322
      ],
      [
        "▁jàkka",
        -10.355027470390654
      ],
      [
        "▁gës",
        -10.355368690911963
      ],
      [
        "▁patte",
        -10.35578589594186
      ],
      [
        "▁joow",
        -10.356136499942412
      ],
      [
        "▁faax",
        -10.3566532056308
      ],
      [
        "▁rëbbi",
        -10.35679644317128
      ],
      [
        "▁kilomètres",
        -10.356884081179
      ],
      [
        "▁fruits",
        -10.356891325622906
      ],
      [
        "▁xamu",
        -10.35701388108682
      ],
      [
        "▁US",
        -10.357569475471966
      ],
      [
        "▁xer",
        -10.35761441484727
      ],
      [
        "▁d'il",
        -10.35764129489487
      ],
      [
        "mmeel",
        -10.357902155089842
      ],
      [
        "▁ger",
        -10.357983020570156
      ],
      [
        "▁demain",
        -10.358078267144476
      ],
      [
        "▁wuut",
        -10.358126324558977
      ],
      [
        "▁way-juram",
        -10.358145858968689
      ],
      [
        "▁Amin",
        -10.35843151335596
      ],
      [
        "▁kooka",
        -10.358721298502749
      ],
      [
        "▁xobi",
        -10.358965413000076
      ],
      [
        "▁d'enfants",
        -10.359079262189953
      ],
      [
        "▁xóot",
        -10.359232870935916
      ],
      [
        "▁pain",
        -10.359355541872791
      ],
      [
        "▁jàppoon",
        -10.359394186564533
      ],
      [
        "▁confie",
        -10.359405134472555
      ],
      [
        "emelle",
        -10.359683786757735
      ],
      [
        "▁jeux",
        -10.359872599295048
      ],
      [
        "▁pax",
        -10.359906189889568
      ],
      [
        "kkati",
        -10.360142783398082
      ],
      [
        "▁secondes",
        -10.360347594736343
      ],
      [
        "▁vagues",
        -10.360498205505468
      ],
      [
        "▁Éta",
        -10.360580948489497
      ],
      [
        "▁idée",
        -10.361393017214782
      ],
      [
        "entre",
        -10.361623093790332
      ],
      [
        "▁tenue",
        -10.361925835313734
      ],
      [
        "▁roo",
        -10.362130201909
      ],
      [
        "▁manque",
        -10.362377344386532
      ],
      [
        "▁créé",
        -10.362719682556433
      ],
      [
        "▁l'est",
        -10.362884715328493
      ],
      [
        "▁pourquoi",
        -10.36327041916926
      ],
      [
        "gante",
        -10.363290767997627
      ],
      [
        "▁guis",
        -10.363549208168084
      ],
      [
        "▁prenant",
        -10.363926124071188
      ],
      [
        "▁fameuse",
        -10.364104666730206
      ],
      [
        "wi",
        -10.364333676822827
      ],
      [
        "▁ceeb",
        -10.36448867943647
      ],
      [
        "▁courses",
        -10.364488713772865
      ],
      [
        "▁cat",
        -10.36459752493976
      ],
      [
        "▁baň",
        -10.36461914227782
      ],
      [
        "▁peinte",
        -10.365277105249799
      ],
      [
        "▁pé",
        -10.365465895670058
      ],
      [
        "▁fum",
        -10.365498519938141
      ],
      [
        "▁construi",
        -10.365583851971031
      ],
      [
        "▁Ñi",
        -10.365757461561351
      ],
      [
        "nd",
        -10.365904652171787
      ],
      [
        "▁méngale",
        -10.365906665461335
      ],
      [
        "bët",
        -10.365960402622504
      ],
      [
        "▁sipp",
        -10.3661095743601
      ],
      [
        "▁cri",
        -10.366471385748874
      ],
      [
        "▁yóbb",
        -10.366483412095317
      ],
      [
        "cousu",
        -10.366652210971012
      ],
      [
        "▁Aka",
        -10.366744294110058
      ],
      [
        "▁muus",
        -10.367676549065097
      ],
      [
        "uver",
        -10.367910297026267
      ],
      [
        "àll",
        -10.370365813399392
      ],
      [
        "oroom",
        -10.370990427975489
      ],
      [
        "▁découverte",
        -10.373047843004747
      ],
      [
        "▁diine",
        -10.373195791806298
      ],
      [
        "▁toogoon",
        -10.373224061985516
      ],
      [
        "▁Xo",
        -10.37404102404089
      ],
      [
        "▁demuñu",
        -10.374350916120168
      ],
      [
        "'exerce",
        -10.374892622764476
      ],
      [
        "wuma",
        -10.375022743517697
      ],
      [
        "▁anciens",
        -10.375270051867826
      ],
      [
        "▁n'ira",
        -10.375641464141523
      ],
      [
        "▁Nag",
        -10.37634852535706
      ],
      [
        "g.",
        -10.376989948105464
      ],
      [
        "andis",
        -10.377089965757822
      ],
      [
        "▁maladies",
        -10.37748469418768
      ],
      [
        "▁partent",
        -10.377555911672301
      ],
      [
        "▁gale",
        -10.377835519997127
      ],
      [
        "▁bàn",
        -10.378056829769722
      ],
      [
        "▁manifest",
        -10.378147226137225
      ],
      [
        "▁att",
        -10.379014293406305
      ],
      [
        "ju",
        -10.38063320459328
      ],
      [
        "uf",
        -10.38091303935991
      ],
      [
        "▁her",
        -10.383028093350134
      ],
      [
        "▁Nee",
        -10.383220573464735
      ],
      [
        "▁diir",
        -10.383227989467617
      ],
      [
        "▁naŋg",
        -10.383372688223725
      ],
      [
        "▁diggu",
        -10.383766541186587
      ],
      [
        "▁jafee",
        -10.38478661266302
      ],
      [
        "▁gar",
        -10.385637337980775
      ],
      [
        "▁dundam",
        -10.386359015880824
      ],
      [
        "ga",
        -10.386466424945251
      ],
      [
        "▁mbal",
        -10.386469508940449
      ],
      [
        "▁ňa",
        -10.386575540628515
      ],
      [
        "▁répu",
        -10.386886091694084
      ],
      [
        "▁instants",
        -10.388197809420141
      ],
      [
        "▁Doon",
        -10.389883505342928
      ],
      [
        "▁sib",
        -10.390025750273727
      ],
      [
        "▁sonn",
        -10.39022168127147
      ],
      [
        "▁trait",
        -10.390324837359062
      ],
      [
        "▁char",
        -10.390327400337341
      ],
[...]
