{
  "version": "1.0",
  "truncation": null,
  "padding": null,
  "added_tokens": [
    {
      "id": 0,
      "content": "<cls>",
      "single_word": false,
      "lstrip": false,
      "rstrip": false,
      "normalized": false,
      "special": true
    },
    {
      "id": 1,
      "content": "<sep>",
      "single_word": false,
      "lstrip": false,
      "rstrip": false,
      "normalized": false,
      "special": true
    },
    {
      "id": 2,
      "content": "<unk>",
      "single_word": false,
      "lstrip": false,
      "rstrip": false,
      "normalized": false,
      "special": true
    },
    {
      "id": 3,
      "content": "<pad>",
      "single_word": false,
      "lstrip": false,
      "rstrip": false,
      "normalized": false,
      "special": true
    },
    {
      "id": 4,
      "content": "<mask>",
      "single_word": false,
      "lstrip": false,
      "rstrip": false,
      "normalized": false,
      "special": true
    },
    {
      "id": 5,
      "content": "<s>",
      "single_word": false,
      "lstrip": false,
      "rstrip": false,
      "normalized": false,
      "special": true
    },
    {
      "id": 6,
      "content": "</s>",
      "single_word": false,
      "lstrip": false,
      "rstrip": false,
      "normalized": false,
      "special": true
    }
  ],
  "normalizer": {
    "type": "Replace",
    "pattern": {
      "String": " {2,}"
    },
    "content": " "
  },
  "pre_tokenizer": {
    "type": "Metaspace",
    "replacement": "▁",
    "add_prefix_space": true
  },
  "post_processor": null,
  "decoder": {
    "type": "Metaspace",
    "replacement": "▁",
    "add_prefix_space": true
  },
  "model": {
    "type": "Unigram",
    "unk_id": 2,
    "vocab": [
      [
        "<cls>",
        0.0
      ],
      [
        "<sep>",
        0.0
      ],
      [
        "<unk>",
        0.0
      ],
      [
        "<pad>",
        0.0
      ],
      [
        "<mask>",
        0.0
      ],
      [
        "<s>",
        0.0
      ],
      [
        "</s>",
        0.0
      ],
      [
        ",",
        -2.9794159103509834
      ],
      [
        ".",
        -3.276967080236558
      ],
      [
        "s",
        -3.9950052873416873
      ],
      [
        "▁de",
        -4.091562119403663
      ],
      [
        "▁",
        -4.13234896062606
      ],
      [
        "▁la",
        -4.163205887160718
      ],
      [
        "▁ci",
        -4.56003599772736
      ],
      [
        "y",
        -4.607298473750259
      ],
      [
        "e",
        -4.668283591148272
      ],
      [
        "▁!",
        -4.713113027267793
      ],
      [
        "▁a",
        -4.714666671445895
      ],
      [
        "▁?",
        -4.819791224989286
      ],
      [
        "i",
        -5.001076522130601
      ],
      [
        "▁et",
        -5.0549440993806485
      ],
      [
        "▁à",
        -5.086973623179528
      ],
      [
        "▁les",
        -5.110281853846007
      ],
      [
        "u",
        -5.181337083960419
      ],
      [
        "▁des",
        -5.22505557210601
      ],
      [
        "▁un",
        -5.229072045277766
      ],
      [
        "▁le",
        -5.259025644621645
      ],
      [
        "▁mu",
        -5.2785707766319065
      ],
      [
        "▁qui",
        -5.281426138833161
      ],
      [
        "r",
        -5.291982786419697
      ],
      [
        "▁ni",
        -5.315248789004672
      ],
      [
        "▁na",
        -5.360048314606481
      ],
      [
        "▁ma",
        -5.371381718734679
      ],
      [
        "▁ne",
        -5.389807130522378
      ],
      [
        "▁que",
        -5.408854648922692
      ],
      [
        "▁di",
        -5.468538097858883
      ],
      [
        "▁ba",
        -5.473188547423733
      ],
      [
        "▁bi",
        -5.483386580356073
      ],
      [
        "▁du",
        -5.490735649547284
      ],
      [
        "▁ko",
        -5.533517320755344
      ],
      [
        "▁ak",
        -5.53444865153937
      ],
      [
        "t",
        -5.564288793384564
      ],
      [
        "▁pas",
        -5.600589326423426
      ],
      [
        "▁gi",
        -5.678498988226585
      ],
      [
        "▁est",
        -5.6951626393588946
      ],
      [
        "▁dem",
        -5.717697457818725
      ],
      [
        "▁yi",
        -5.728721040492141
      ],
      [
        "▁en",
        -5.731652274003223
      ],
      [
        "▁ñu",
        -5.736430985392438
      ],
      [
        "▁dans",
        -5.740976741820314
      ],
      [
        "▁yu",
        -5.748352064533089
      ],
      [
        "▁il",
        -5.785871236411082
      ],
      [
        "a",
        -5.7950541168927865
      ],
      [
        "▁bu",
        -5.79840045482071
      ],
      [
        "▁Il",
        -5.875691262081448
      ],
      [
        "▁naa",
        -6.006757632003188
      ],
      [
        "▁ay",
        -6.014526377292979
      ],
      [
        "▁fa",
        -6.036158609724205
      ],
      [
        "▁te",
        -6.047175050367647
      ],
      [
        "▁C'est",
        -6.088040471805678
      ],
      [
        "▁pour",
        -6.106399298569507
      ],
      [
        "▁seen",
        -6.110361843239028
      ],
      [
        "▁woon",
        -6.118506732493517
      ],
      [
        "▁ngi",
        -6.124964935969305
      ],
      [
        "n",
        -6.137344324337946
      ],
      [
        "▁lu",
        -6.141950720394561
      ],
      [
        "▁ce",
        -6.142987196785302
      ],
      [
        "▁am",
        -6.155439948255946
      ],
      [
        "oon",
        -6.172335377974041
      ],
      [
        "▁sama",
        -6.19268975508437
      ],
      [
        "une",
        -6.258600845225073
      ],
      [
        "▁ca",
        -6.270865360544071
      ],
      [
        "▁au",
        -6.273341773604387
      ],
      [
        ":",
        -6.2872336070918005
      ],
      [
        "▁qu'il",
        -6.287571171552433
      ],
      [
        "▁je",
        -6.291233042219037
      ],
      [
        "▁daan",
        -6.302212893912926
      ],
      [
        "▁sa",
        -6.307455488586281
      ],
      [
        "▁se",
        -6.3312925519648156
      ],
      [
        "ent",
        -6.332507406683838
      ],
      [
        "▁doon",
        -6.347644557399426
      ],
      [
        "▁sur",
        -6.3647758360630435
      ],
      [
        "al",
        -6.373819678971007
      ],
      [
        "▁Je",
        -6.379379667127032
      ],
      [
        "▁vu",
        -6.381330667162255
      ],
      [
        "▁ŋga",
        -6.392816516610677
      ],
      [
        "▁avec",
        -6.398457032577213
      ],
      [
        "▁par",
        -6.410210010825778
      ],
      [
        "é",
        -6.420990028194355
      ],
      [
        "▁y",
        -6.447609189110533
      ],
      [
        "▁sont",
        -6.450515856170606
      ],
      [
        "▁mi",
        -6.4545043396312725
      ],
      [
        "▁mon",
        -6.459670972094597
      ],
      [
        "▁leen",
        -6.4681687953134475
      ],
      [
        "▁père",
        -6.4905033953673135
      ],
      [
        "▁gis",
        -6.501438306132344
      ],
      [
        "ul",
        -6.5126532689658
      ],
      [
        "▁Góo",
        -6.5207114736338765
      ],
      [
        "am",
        -6.54800370415968
      ],
      [
        "▁l'",
        -6.555073615281655
      ],
      [
        "▁wax",
        -6.555480726793196
      ],
      [
        "▁Baay",
        -6.563665829139135
      ],
      [
        "▁nag",
        -6.564560850605189
      ],
      [
        "▁xam",
        -6.574260123102509
      ],
      [
        "▁nit",
        -6.579443685523272
      ],
      [
        "er",
        -6.582654838761741
      ],
      [
        "nt",
        -6.584690400462343
      ],
      [
        "l",
        -6.592086977671505
      ],
      [
        "▁tu",
        -6.600000874958233
      ],
      [
        "▁été",
        -6.621265107033071
      ],
      [
        "▁si",
        -6.623690233133381
      ],
      [
        "▁ya",
        -6.634974190016604
      ],
      [
        "▁Afrig",
        -6.664017099565736
      ],
      [
        "▁sax",
        -6.665519429195585
      ],
      [
        "▁nga",
        -6.667655152394802
      ],
      [
        "▁Gis",
        -6.668830774288519
      ],
      [
        "▁nekk",
        -6.674647619814705
      ],
      [
        "▁où",
        -6.683177292981833
      ],
      [
        "ait",
        -6.691737936808464
      ],
      [
        "▁mel",
        -6.693356152541196
      ],
      [
        "▁homme",
        -6.702202811606988
      ],
      [
        "▁moom",
        -6.707803165680951
      ],
      [
        "le",
        -6.7084007078724595
      ],
      [
        "▁son",
        -6.720411357040528
      ],
      [
        "▁benn",
        -6.7208194041167415
      ],
      [
        "te",
        -6.742032696725906
      ],
      [
        "▁nu",
        -6.749711109436663
      ],
      [
        "▁Tu",
        -6.762930302416247
      ],
      [
        "▁moo",
        -6.773074846106579
      ],
      [
        "▁lui",
        -6.791619248666318
      ],
      [
        "▁L'homme",
        -6.796308948678854
      ],
      [
        "▁plus",
        -6.816458558353849
      ],
      [
        "k",
        -6.817175160297182
      ],
      [
        "ee",
        -6.827688135501812
      ],
      [
        "▁li",
        -6.835634106148186
      ],
      [
        "«",
        -6.840958925551927
      ],
      [
        "▁»",
        -6.840997041234166
      ],
      [
        "▁def",
        -6.843522986467982
      ],
      [
        "▁su",
        -6.847842293093601
      ],
      [
        "▁J'ai",
        -6.850136501134936
      ],
      [
        "▁biir",
        -6.872813375196242
      ],
      [
        "▁ñëw",
        -6.877105538895769
      ],
      [
        "▁cet",
        -6.878282465764882
      ],
      [
        "g",
        -6.882473516621596
      ],
      [
        "▁La",
        -6.883661589247374
      ],
      [
        "▁d'",
        -6.906542627108052
      ],
      [
        "▁tout",
        -6.906925397233578
      ],
      [
        "-",
        -6.918060796908356
      ],
      [
        "▁avait",
        -6.919843259000869
      ],
      [
        "▁c'est",
        -6.927334256290713
      ],
      [
        "▁ku",
        -6.936490786586461
      ],
      [
        "▁nous",
        -6.946987209463464
      ],
      [
        "▁kenn",
        -6.957106484477445
      ],
      [
        "▁Ci",
        -6.958773802948989
      ],
      [
        "▁d'un",
        -6.960617393518033
      ],
      [
        "▁c",
        -6.965967256928542
      ],
      [
        "es",
        -6.97953103960229
      ],
      [
        "▁mën",
        -6.989217693697911
      ],
      [
        "▁gu",
        -6.990476486468485
      ],
      [
        "▁t",
        -7.00080025723508
      ],
      [
        "▁góor",
        -7.009722492157505
      ],
      [
        "b",
        -7.029705284235684
      ],
      [
        "▁Le",
        -7.029900891989135
      ],
      [
        "▁Ce",
        -7.032160859448472
      ],
      [
        "▁Les",
        -7.032163345784587
      ],
      [
        "▁ou",
        -7.033581046870504
      ],
      [
        "▁autre",
        -7.034865808415403
      ],
      [
        "▁l'homme",
        -7.042643123685563
      ],
      [
        "ment",
        -7.046208335310747
      ],
      [
        "m",
        -7.055113696577626
      ],
      [
        "oo",
        -7.063681291816598
      ],
      [
        "▁may",
        -7.066026264787363
      ],
      [
        "d",
        -7.06809531164958
      ],
      [
        "▁enfants",
        -7.0690404422612305
      ],
      [
        "▁ces",
        -7.085776946915829
      ],
      [
        "▁leur",
        -7.102381111682129
      ],
      [
        "▁fi",
        -7.112314963277478
      ],
      [
        "ant",
        -7.113165386636007
      ],
      [
        "▁dal",
        -7.131336373984258
      ],
      [
        "▁bëgg",
        -7.133136479495772
      ],
      [
        "▁ab",
        -7.13445889356386
      ],
      [
        "ñ",
        -7.1386926802080755
      ],
      [
        "▁san",
        -7.146553943909081
      ],
      [
        "▁comme",
        -7.14700638048529
      ],
      [
        "▁fu",
        -7.151311627418967
      ],
      [
        "▁ju",
        -7.164049156371689
      ],
      [
        "▁it",
        -7.166244713278858
      ],
      [
        "que",
        -7.167035676660883
      ],
      [
        "▁me",
        -7.168655284871471
      ],
      [
        "▁boo",
        -7.172526403176357
      ],
      [
        "▁rekk",
        -7.173965288154025
      ],
      [
        "▁photo",
        -7.179563467398689
      ],
      [
        "▁D",
        -7.182868876522937
      ],
      [
        "▁mère",
        -7.187273399172008
      ],
      [
        "▁Nit",
        -7.188142596709058
      ],
      [
        "▁dara",
        -7.2002900731559984
      ],
      [
        "▁parti",
        -7.216872257961366
      ],
      [
        "▁A",
        -7.220106558083368
      ],
      [
        "▁nataal",
        -7.226084570167997
      ],
      [
        "▁ji",
        -7.2320397526498335
      ],
      [
        "▁dëkk",
        -7.234738823327685
      ],
      [
        "▁s",
        -7.239928361795154
      ],
      [
        "▁kër",
        -7.242921589431747
      ],
      [
        "▁moi",
        -7.253393327166167
      ],
      [
        "▁maison",
        -7.253992475237925
      ],
      [
        "▁là",
        -7.27370880098353
      ],
      [
        "▁même",
        -7.273991308948838
      ],
      [
        "▁ñi",
        -7.275663940245438
      ],
      [
        "▁aussi",
        -7.281298389346224
      ],
      [
        "▁gën",
        -7.282949361365388
      ],
      [
        "▁laa",
        -7.287915487394232
      ],
      [
        "▁ki",
        -7.290641511326263
      ],
      [
        "▁on",
        -7.292353781049774
      ],
      [
        "▁n'es",
        -7.306411931503869
      ],
      [
        "▁–",
        -7.310044327015279
      ],
      [
        "▁xale",
        -7.310129231941404
      ],
      [
        "à",
        -7.314066544844773
      ],
      [
        "▁lool",
        -7.319420070645991
      ],
      [
        "▁mbaa",
        -7.320675535450491
      ],
      [
        "▁ndax",
        -7.3262991097831796
      ],
      [
        "▁d",
        -7.333737075262465
      ],
      [
        "▁jigéen",
        -7.335206711479134
      ],
      [
        "▁Su",
        -7.335681540311699
      ],
      [
        "▁teg",
        -7.336912494302699
      ],
      [
        "x",
        -7.350791439773144
      ],
      [
        "▁pays",
        -7.351504932493415
      ],
      [
        "▁daf",
        -7.3602034422808345
      ],
      [
        "▁était",
        -7.373106846234109
      ],
      [
        "▁bii",
        -7.379734835619097
      ],
      [
        "di",
        -7.401554861094248
      ],
      [
        "▁Ma",
        -7.413593424530207
      ],
      [
        "▁lépp",
        -7.418146419864047
      ],
      [
        "▁À",
        -7.42707205497346
      ],
      [
        "▁war",
        -7.4294840830517135
      ],
      [
        "s-tu",
        -7.4339208663599665
      ],
      [
        "▁ñaar",
        -7.438116221717969
      ],
      [
        "▁chose",
        -7.448510996727186
      ],
      [
        "▁walla",
        -7.4509492588076975
      ],
      [
        "▁ñoo",
        -7.468002843489783
      ],
      [
        "▁Mu",
        -7.4712395375031395
      ],
      [
        "▁man",
        -7.477856114490445
      ],
      [
        "▁Am",
        -7.4832607328115825
      ],
      [
        "eneen",
        -7.483272503052698
      ],
      [
        "ŋ",
        -7.497209806777976
      ],
      [
        "ette",
        -7.499424172415831
      ],
      [
        "▁baax",
        -7.502226587932146
      ],
      [
        "▁Un",
        -7.503709440097352
      ],
      [
        "ée",
        -7.508967426087558
      ],
      [
        "▁loolu",
        -7.509943314054083
      ],
      [
        "▁ŋgi",
        -7.513324886232059
      ],
      [
        "▁xar",
        -7.5194746518818
      ],
      [
        "▁Li",
        -7.520720910758452
      ],
      [
        "▁parle",
        -7.532447422424411
      ],
      [
        "▁Waaye",
        -7.538706582229499
      ],
      [
        "▁Te",
        -7.539175084102837
      ],
      [
        "▁mag",
        -7.539557672528155
      ],
      [
        "▁De",
        -7.55332305687703
      ],
      [
        "▁aux",
        -7.555866553013736
      ],
      [
        "▁l'intérieur",
        -7.55721855711006
      ],
      [
        "▁fait",
        -7.559923240011878
      ],
      [
        "▁yoon",
        -7.5630820258278435
      ],
      [
        "▁garab",
        -7.568850626135524
      ],
      [
        "▁j'ai",
        -7.576071382902648
      ],
      [
        "▁yooyu",
        -7.576391969008553
      ],
      [
        "▁Sur",
        -7.58249513679473
      ],
      [
        "▁yaay",
        -7.5825431733397295
      ],
      [
        "▁bien",
        -7.584492427593966
      ],
      [
        ")",
        -7.588301701524175
      ],
      [
        "▁vois",
        -7.600033281146301
      ],
      [
        "re",
        -7.6079855333491935
      ],
      [
        "▁dul",
        -7.6118748682821415
      ],
      [
        "▁En",
        -7.611943527898983
      ],
      [
        "▁Nataal",
        -7.614897913471882
      ],
      [
        "▁cela",
        -7.615428566900201
      ],
      [
        "▁J",
        -7.6164827727203255
      ],
      [
        "▁vie",
        -7.62046989507412
      ],
      [
        "▁demee",
        -7.624714984865446
      ],
      [
        "rès",
        -7.635478710524961
      ],
      [
        "▁guerre",
        -7.635933494642657
      ],
      [
        "▁sunu",
        -7.636271838160782
      ],
      [
        "▁toog",
        -7.642363196585885
      ],
      [
        "▁ka",
        -7.652342120160007
      ],
      [
        "▁koo",
        -7.653811158497289
      ],
      [
        "▁néeg",
        -7.655501304380028
      ],
      [
        "▁yépp",
        -7.656391570574895
      ],
      [
        "▁l",
        -7.656684802486144
      ],
      [
        "▁mais",
        -7.6597525959663555
      ],
      [
        "▁réew",
        -7.661951134303847
      ],
      [
        "▁yiy",
        -7.662078849121158
      ],
      [
        "▁bés",
        -7.668429321825872
      ],
      [
        "s.",
        -7.669107845182254
      ],
      [
        "▁temps",
        -7.676081738891528
      ],
      [
        "▁monde",
        -7.676779126470631
      ],
      [
        "▁Mais",
        -7.67686582779492
      ],
      [
        "▁ñoom",
        -7.67787296231929
      ],
      [
        "▁Maa",
        -7.680185112839597
      ],
      [
        "▁yi.",
        -7.6827478020702555
      ],
      [
        "▁ag",
        -7.688358422128
      ],
      [
        "▁gone",
        -7.688488859184161
      ],
      [
        "it",
        -7.696593248870377
      ],
      [
        "▁Ogosaa",
        -7.697415369559786
      ],
      [
        "▁celui-là",
        -7.697529101153422
      ],
      [
        "▁Cet",
        -7.704829664184156
      ],
      [
        "▁tax",
        -7.708454557880308
      ],
      [
        "▁dañ",
        -7.708514617856901
      ],
      [
        "ci",
        -7.714725650290802
      ],
      [
        "▁xel",
        -7.718769741156002
      ],
      [
        "▁qu'on",
        -7.7200909180906505
      ],
      [
        "▁venu",
        -7.720528493189582
      ],
      [
        "'est",
        -7.725110668249689
      ],
      [
        "▁jusqu'",
        -7.729013041281356
      ],
      [
        "aient",
        -7.7294912680836365
      ],
      [
        "▁lañu",
        -7.729683899231413
      ],
      [
        "▁at",
        -7.731388565434921
      ],
      [
        "▁S",
        -7.731604242759582
      ],
      [
        "tte",
        -7.734287498249718
      ],
      [
        "▁weex",
        -7.7413576923063
      ],
      [
        "▁vous",
        -7.741396372271144
      ],
      [
        "▁femme",
        -7.745429155831641
      ],
      [
        "▁G",
        -7.749138442112976
      ],
      [
        "▁partir",
        -7.750503342223537
      ],
      [
        "▁n",
        -7.751394564524435
      ],
      [
        "▁fekk",
        -7.752735895485188
      ],
      [
        "▁soo",
        -7.7589789896803865
      ],
      [
        "▁L",
        -7.760542693818774
      ],
      [
        "▁cha",
        -7.762382356029107
      ],
      [
        "▁n'a",
        -7.762465011500623
      ],
      [
        "▁P",
        -7.765101047475464
      ],
      [
        "▁dit",
        -7.7652801823642035
      ],
      [
        "▁k",
        -7.77522733321609
      ],
      [
        "leurs",
        -7.780232742170391
      ],
      [
        "▁ont",
        -7.785720484311188
      ],
      [
        "▁as",
        -7.786519124629972
      ],
      [
        ";",
        -7.7873598080566575
      ],
      [
        "▁ndaw",
        -7.787477068890151
      ],
      [
        "▁Tugal",
        -7.787484192645867
      ],
      [
        "▁va",
        -7.793392140670601
      ],
      [
        "▁Dem",
        -7.794947697250193
      ],
      [
        "▁tou",
        -7.796230604108892
      ],
      [
        "▁Du",
        -7.800334084013841
      ],
      [
        "▁ga",
        -7.806028817482717
      ],
      [
        "▁part",
        -7.8098259336505516
      ],
      [
        "▁doŋŋ",
        -7.8112016275836424
      ],
      [
        "▁yaram",
        -7.811838173770127
      ],
      [
        "▁mouton",
        -7.81215204295132
      ],
      [
        "▁àll",
        -7.820635415693353
      ],
      [
        "▁maa",
        -7.821352589685564
      ],
      [
        "▁bopp",
        -7.8264537655671695
      ],
      [
        "woon",
        -7.827778875444723
      ],
      [
        "o",
        -7.829165843508897
      ],
      [
        "▁Ñu",
        -7.829660253886361
      ],
      [
        "▁ànd",
        -7.831442046339966
      ],
      [
        "▁suuf",
        -7.8356241776822735
      ],
      [
        "▁doole",
        -7.835875360451918
      ],
      [
        "▁wër",
        -7.838811168614366
      ],
      [
        "▁O",
        -7.845645198275374
      ],
      [
        "▁yëg",
        -7.85083855109762
      ],
      [
        "w",
        -7.851904794156965
      ],
      [
        "▁toi",
        -7.855744578849141
      ],
      [
        "▁gens",
        -7.860574174187561
      ],
      [
        "▁boobu",
        -7.860844077071828
      ],
      [
        "▁noppi",
        -7.86189156819853
      ],
      [
        "▁(",
        -7.862620139484048
      ],
      [
        "▁réer",
        -7.865732408818063
      ],
      [
        "▁saa",
        -7.8668007990007025
      ],
      [
        "▁tey",
        -7.870631401783015
      ],
      [
        "is",
        -7.878947192797005
      ],
      [
        "és",
        -7.88189343186068
      ],
      [
        "▁naan",
        -7.882242717176922
      ],
      [
        "▁voilà",
        -7.886217652319299
      ],
      [
        "▁encore",
        -7.886225754572742
      ],
      [
        "▁tamit",
        -7.88626306029413
      ],
      [
        "▁quelque",
        -7.886584398979425
      ],
      [
        "▁demul",
        -7.891033723880965
      ],
      [
        "▁amul",
        -7.893929997511817
      ],
      [
        "▁waay",
        -7.896438117313416
      ],
      [
        "▁être",
        -7.8967364065931545
      ],
      [
        "yeek",
        -7.899743982036273
      ],
      [
        "▁jëm",
        -7.900042260392089
      ],
      [
        "▁n'",
        -7.9017919004548975
      ],
      [
        "...",
        -7.902658821230958
      ],
      [
        "▁jamono",
        -7.91251641452259
      ],
      [
        "▁veux",
        -7.912954882768766
      ],
      [
        "▁ñax",
        -7.91588619645848
      ],
      [
        "eek",
        -7.916030862077143
      ],
      [
        "▁couleur",
        -7.91630794944974
      ],
      [
        "▁wi",
        -7.920468370470999
      ],
      [
        "▁Quel",
        -7.929671244000944
      ],
      [
        "▁dont",
        -7.940725280897027
      ],
      [
        "▁Nou",
        -7.941104187601913
      ],
      [
        "vait",
        -7.945274361484165
      ],
      [
        "▁Moo",
        -7.946564360102152
      ],
      [
        "▁Si",
        -7.9479456126342996
      ],
      [
        "tre",
        -7.949247555738683
      ],
      [
        "▁deux",
        -7.951991126254304
      ],
      [
        "▁p",
        -7.9527797917397764
      ],
      [
        "▁la.",
        -7.9586818684893625
      ],
      [
        "▁kow",
        -7.960797321702417
      ],
      [
        "▁lii",
        -7.964594248650757
      ],
      [
        "▁nañ",
        -7.96530116277417
      ],
      [
        "ù",
        -7.966884446010992
      ],
      [
        "▁qu'elle",
        -7.967516951903552
      ],
      [
        "▁xare",
        -7.9680011534965205
      ],
      [
        "um",
        -7.97224906184242
      ],
      [
        "▁Comme",
        -7.973899628524945
      ],
      [
        "▁liggéey",
        -7.974682182248294
      ],
      [
        "▁nañu",
        -7.976009636158164
      ],
      [
        "kat",
        -7.977675858528802
      ],
      [
        "▁ñuul",
        -7.980323619180835
      ],
      [
        "▁peu",
        -7.989366476700691
      ],
      [
        "▁àddina",
        -7.991568663017483
      ],
      [
        "▁rafet",
        -7.994154130359744
      ],
      [
        "▁génn",
        -7.996167364813354
      ],
      [
        "▁Mon",
        -7.996214877444622
      ],
      [
        "▁Ndax",
        -7.9964481869135415
      ],
      [
        "▁faire",
        -7.996626743736395
      ],
      [
        "▁dañu",
        -8.004542071602355
      ],
      [
        "▁ban",
        -8.004709272669007
      ],
      [
        "ions",
        -8.004796549524722
      ],
      [
        "▁loxo",
        -8.008137740411897
      ],
      [
        "▁porte",
        -8.017328062524236
      ],
      [
        "eux",
        -8.018783261604446
      ],
      [
        "tu",
        -8.019333322551716
      ],
      [
        "▁Waaw",
        -8.024950558879393
      ],
      [
        "▁ñépp",
        -8.025459406122279
      ],
      [
        "▁rien",
        -8.0268738658049
      ],
      [
        "▁ŋgeen",
        -8.027296805552453
      ],
      [
        "▁daal",
        -8.027915546677075
      ],
      [
        "▁sous",
        -8.028033235329575
      ],
      [
        "▁mes",
        -8.029743756355453
      ],
      [
        "▁dex",
        -8.031403123530374
      ],
      [
        "▁Ba",
        -8.041566448813136
      ],
      [
        "▁l'a",
        -8.043705922254112
      ],
      [
        "▁xarit",
        -8.054128313159296
      ],
      [
        "▁jamais",
        -8.055622720355938
      ],
      [
        "▁m'a",
        -8.055651780159184
      ],
      [
        "▁doute",
        -8.055712235338026
      ],
      [
        "▁Xam",
        -8.057648572952738
      ],
      [
        "épp",
        -8.058745252695033
      ],
      [
        "▁itam",
        -8.059719053117174
      ],
      [
        "▁bët",
        -8.061654740293818
      ],
      [
        "▁neex",
        -8.067832055574666
      ],
      [
        "▁waa",
        -8.073614447204111
      ],
      [
        "▁jot",
        -8.075788518583458
      ],
      [
        "ante",
        -8.078644955992722
      ],
      [
        "▁jóge",
        -8.078842635780552
      ],
      [
        "ses",
        -8.081474302699977
      ],
      [
        "▁l'autre",
        -8.086898633394284
      ],
      [
        "▁corps",
        -8.087115470764363
      ],
      [
        "▁dégg",
        -8.09085379945242
      ],
      [
        "▁sui",
        -8.095530191786764
      ],
      [
        "▁jour",
        -8.096550498840669
      ],
      [
        "▁elle",
        -8.100016310419075
      ],
      [
        "on",
        -8.11101816131647
      ],
      [
        "▁femmes",
        -8.113655112039613
      ],
      [
        "▁mbir",
        -8.117284386739117
      ],
      [
        "▁ja",
        -8.118441739156534
      ],
      [
        "▁léeg-léeg",
        -8.119115483789251
      ],
      [
        "▁Kamerun",
        -8.119115484166743
      ],
      [
        "▁c'étai",
        -8.119115652679001
      ],
      [
        "▁Tubaab",
        -8.120299579193272
      ],
      [
        "▁terre",
        -8.12285683566832
      ],
      [
        "ak",
        -8.12434399855048
      ],
      [
        "▁yaa",
        -8.125099687103845
      ],
      [
        "ation",
        -8.125626503641993
      ],
      [
        "▁wu",
        -8.137968277906507
      ],
      [
        "▁dugg",
        -8.14406173186391
      ],
      [
        "ma",
        -8.147581641141656
      ],
      [
        "▁loin",
        -8.152446260322243
      ],
      [
        "▁foofu",
        -8.152600045906754
      ],
      [
        "▁lañ",
        -8.15273392306041
      ],
      [
        "▁fois",
        -8.153409219534616
      ],
      [
        "▁noonu",
        -8.15434696356656
      ],
      [
        "▁m",
        -8.15537715153843
      ],
      [
        "▁Lu",
        -8.15965506654396
      ],
      [
        "▁f",
        -8.159803356015576
      ],
      [
        "quelle",
        -8.161698260387418
      ],
      [
        "▁peut",
        -8.165393100673093
      ],
      [
        "ce",
        -8.170863858010694
      ],
      [
        "▁B",
        -8.17345830406612
      ],
      [
        "▁Fa",
        -8.17930644032781
      ],
      [
        "▁Xar",
        -8.179600108962365
      ],
      [
        "uñu",
        -8.180811215130912
      ],
      [
        "▁étai",
        -8.188069429403233
      ],
      [
        "▁bari",
        -8.189349791630924
      ],
      [
        "▁Et",
        -8.1902948121513
      ],
      [
        "▁d'autres",
        -8.191075927914545
      ],
      [
        "▁Ku",
        -8.19316400905689
      ],
      [
        "▁bare",
        -8.20180893827968
      ],
      [
        "▁quan",
        -8.202463377916157
      ],
      [
        "▁sol",
        -8.205473838429443
      ],
      [
        "en",
        -8.20709448499608
      ],
      [
        "▁dee",
        -8.210438555377173
      ],
      [
        "▁re",
        -8.216577961015005
      ],
      [
        "▁taxaw",
        -8.219936584899527
      ],
      [
        "f",
        -8.222421647991279
      ],
      [
        "▁yeneen",
        -8.223049887416927
      ],
      [
        "▁peut-être",
        -8.223287216575144
      ],
      [
        "▁daw",
        -8.223626463390206
      ],
      [
        "▁boppam",
        -8.224851880851492
      ],
      [
        "▁non",
        -8.226465056212074
      ],
      [
        "▁N",
        -8.226990078292717
      ],
      [
        "▁arbres",
        -8.229715188019199
      ],
      [
        "▁Bu",
        -8.231790209580545
      ],
      [
        "▁voir",
        -8.234240550574379
      ],
      [
        "afa",
        -8.241287612898594
      ],
      [
        "▁semble",
        -8.248931471677626
      ],
      [
        "▁jël",
        -8.250825647882621
      ],
      [
        "▁mer",
        -8.25374214246018
      ],
      [
        "▁sorte",
        -8.25895804535364
      ],
      [
        "▁l'Afrique",
        -8.259682898490116
      ],
      [
        "▁veut",
        -8.259702950128716
      ],
      [
        "▁Sée",
        -8.26089574764519
      ],
      [
        "▁années",
        -8.261260014451166
      ],
      [
        "▁ňu",
        -8.261399057428966
      ],
      [
        "▁crois",
        -8.262856325133718
      ],
      [
        "▁entre",
        -8.263722678648124
      ],
      [
        "▁in",
        -8.27239959871318
      ],
      [
        "▁jaar",
        -8.272550272265985
      ],
      [
        "▁chambre",
        -8.275752734362987
      ],
      [
        "▁fii",
        -8.276892421207172
      ],
      [
        "▁mas",
        -8.277457271522142
      ],
      [
        "▁nee",
        -8.279054920007901
      ],
      [
        "▁personne",
        -8.279547468028964
      ],
      [
        "▁dund",
        -8.281246106788814
      ],
      [
        "▁gii",
        -8.28302982729032
      ],
      [
        "et",
        -8.284020956474558
      ],
      [
        "kki",
        -8.285078400760787
      ],
      [
        "▁après",
        -8.298082636133136
      ],
      [
        "▁Qui",
        -8.298144436951702
      ],
      [
        "▁Ogoja",
        -8.298144436971162
      ],
      [
        "▁là-bas",
        -8.298144438186199
      ],
      [
        "▁Afrique",
        -8.298144442580506
      ],
      [
        "▁forêt",
        -8.298145396912407
      ],
      [
        "▁xonq",
        -8.298150810210942
      ],
      [
        "▁Loolu",
        -8.298234316016831
      ],
      [
        "▁dëgg",
        -8.298455587378335
      ],
      [
        "▁Ni",
        -8.30038488915727
      ],
      [
        "▁avant",
        -8.301992612927103
      ],
      [
        "c",
        -8.30343104553421
      ],
      [
        "▁Tout",
        -8.303591931904492
      ],
      [
        "▁bañ",
        -8.308938071736154
      ],
      [
        "▁travers",
        -8.313637793673575
      ],
      [
        "▁j'",
        -8.31444026696309
      ],
      [
        "▁route",
        -8.319809049473195
      ],
      [
        "▁nuit",
        -8.321774369919877
      ],
      [
        "▁da",
        -8.323018529655233
      ],
      [
        "e.",
        -8.325547218410772
      ],
      [
        "▁solo",
        -8.326694866403233
      ],
      [
        "▁dox",
        -8.329363662420425
      ],
      [
        "▁moutons",
        -8.336482242857828
      ],
      [
        "▁ginnaaw",
        -8.337127574124093
      ],
      [
        "▁kooku",
        -8.337534670462478
      ],
      [
        "▁bois",
        -8.338281891413502
      ],
      [
        "▁daanaka",
        -8.338452922035842
      ],
      [
        "▁jooju",
        -8.338779823407318
      ],
      [
        "▁E",
        -8.34908953645274
      ],
      [
        "▁amis",
        -8.353859943184318
      ],
      [
        "▁Lii",
        -8.354055085914148
      ],
      [
        "iers",
        -8.355692282693383
      ],
      [
        "ez",
        -8.357440558964164
      ],
      [
        "▁case",
        -8.361554041634992
      ],
      [
        "▁haut",
        -8.365588626609092
      ],
      [
        "▁médecin",
        -8.366565855002706
      ],
      [
        "ale",
        -8.367157008190855
      ],
      [
        "▁Soo",
        -8.369695234207924
      ],
      [
        "▁F",
        -8.371805694988675
      ],
      [
        "ont",
        -8.373047487954945
      ],
      [
        "▁daa",
        -8.373717184998332
      ],
      [
        "▁celui",
        -8.379471745071056
      ],
      [
        "▁Cameroun",
        -8.37982285440145
      ],
      [
        "▁fàww",
        -8.37986048533283
      ],
      [
        "▁ceux-là",
        -8.379990010363157
      ],
      [
        "▁matin",
        -8.380000329895424
      ],
      [
        "▁Man",
        -8.380722514371458
      ],
      [
        "▁vers",
        -8.381086942986595
      ],
      [
        "▁devant",
        -8.387642310074764
      ],
      [
        "▁pouvait",
        -8.388730576286932
      ],
      [
        "▁lan",
        -8.38990229620475
      ],
      [
        "▁nuy",
        -8.390103467176754
      ],
      [
        "▁ans",
        -8.392468984855688
      ],
      [
        "▁nii",
        -8.395271647711095
      ],
      [
        "ées",
        -8.397626378445292
      ],
      [
        "▁Bi",
        -8.408397505002966
      ],
      [
        "-là",
        -8.408469880484038
      ],
      [
        "ukaay",
        -8.409873206078709
      ],
      [
        "▁s'",
        -8.415655701999572
      ],
      [
        "ux",
        -8.418187263059973
      ],
      [
        "▁M",
        -8.420830409581704
      ],
      [
        "▁Ca",
        -8.421851615575841
      ],
      [
        "▁Vous",
        -8.423295544135023
      ],
      [
        "▁beaucoup",
        -8.423302251984325
      ],
      [
        "▁Sama",
        -8.42419010578179
      ],
      [
        "▁Dan",
        -8.42443607837309
      ],
      [
        "▁kan",
        -8.427015585668725
      ],
      [
        "▁wàn",
        -8.427252009092815
      ],
      [
        "▁qu'",
        -8.427960715005593
      ],
      [
        "▁xaw",
        -8.428247307468606
      ],
      [
        "uma",
        -8.430357539654478
      ],
      [
        "▁Na",
        -8.431656967932394
      ],
      [
        "ook",
        -8.432679091322642
      ],
      [
        "▁metti",
        -8.436081693257785
      ],
      [
        "vaient",
        -8.436776676578868
      ],
      [
        "▁Y",
        -8.437274125077247
      ],
      [
        "▁quelle",
        -8.438543536069783
      ],
      [
        "▁day",
        -8.439499559845203
      ],
      [
        "▁vo",
        -8.443977885705715
      ],
      [
        "▁fàttaliku",
        -8.448440662684146
      ],
      [
        "ata",
        -8.450927172930196
      ],
      [
        "▁g",
        -8.45349715406009
      ],
      [
        "▁autres",
        -8.457732712453089
      ],
      [
        "▁tànk",
        -8.45903897533352
      ],
      [
        "▁tudd",
        -8.45948584449582
      ],
      [
        "▁fas",
        -8.466112398842217
      ],
      [
        "quoi",
        -8.466167717549798
      ],
      [
        "▁Que",
        -8.466935820621563
      ],
      [
        "▁kaw",
        -8.468133670667447
      ],
      [
        "▁topp",
        -8.4687074799428
      ],
      [
        "▁C'étai",
        -8.468743954780154
      ],
      [
        "▁France",
        -8.468749685363576
      ],
      [
        "▁yaakaar",
        -8.468751397258638
      ],
      [
        "▁blanche",
        -8.468781815560448
      ],
      [
        "▁Naka",
        -8.468785872765723
      ],
      [
        "▁Sa",
        -8.468829730009325
      ],
      [
        "▁aucun",
        -8.469603177719065
      ],
      [
        "▁aujourd'hui",
        -8.470398366120516
      ],
      [
        "▁bout",
        -8.471650350898488
      ],
      [
        "▁gaal",
        -8.473505801018336
      ],
      [
        "eurs",
        -8.473708355549528
      ],
      [
        "▁Xale",
        -8.476502961827185
      ],
      [
        "▁es",
        -8.479668504068572
      ],
      [
        "autour",
        -8.481128412274433
      ],
      [
        "▁xamul",
        -8.481776978563968
      ],
      [
        "▁jàpp",
        -8.483081239665292
      ],
      [
        "h",
        -8.488101982494591
      ],
      [
        "▁puis",
        -8.491049791939144
      ],
      [
        "aan",
        -8.497693896499364
      ],
      [
        "▁xol",
        -8.497818714689636
      ],
      [
        "▁regard",
        -8.498256703525676
      ],
      [
        "▁wet",
        -8.502995581648506
      ],
      [
        "▁passé",
        -8.50327032509399
      ],
      [
        "▁Mi",
        -8.510695881883553
      ],
      [
        "enn",
        -8.511486138663596
      ],
      [
        "▁say",
        -8.51169429957357
      ],
      [
        "▁Wànte",
        -8.516363007188698
      ],
      [
        "▁soleil",
        -8.516367791329166
      ],
      [
        "▁xalaat",
        -8.516447606002744
      ],
      [
        "▁Pour",
        -8.51674709005698
      ],
      [
        "▁yàgg",
        -8.516995196989944
      ],
      [
        "▁Waa",
        -8.517908531308372
      ],
      [
        "▁donné",
        -8.51891642098472
      ],
      [
        "▁dóor",
        -8.519245949053145
      ],
      [
        "aat",
        -8.519500756215887
      ],
      [
        "▁For",
        -8.526147446300184
      ],
      [
        "ir",
        -8.527397277714842
      ],
      [
        "▁hommes",
        -8.530109602585188
      ],
      [
        "ug",
        -8.531730360164227
      ],
      [
        "▁So",
        -8.53626084895442
      ],
      [
        "▁n'étai",
        -8.536873288268149
      ],
      [
        "▁pu",
        -8.540499191827609
      ],
      [
        "▁dana",
        -8.54083160560394
      ],
      [
        "▁Au",
        -8.541667577129271
      ],
      [
        "koon",
        -8.545626481495127
      ],
      [
        "▁village",
        -8.54614925241019
      ],
      [
        "ne",
        -8.54667319180465
      ],
      [
        "-il",
        -8.547374432986848
      ],
      [
        "▁seul",
        -8.547916081688605
      ],
      [
        "▁fan",
        -8.55143506413459
      ],
      [
        "j",
        -8.552301455810701
      ],
      [
        "ek",
        -8.552878941122804
      ],
      [
        "▁leer",
        -8.554096436368537
      ],
      [
        "avoir",
        -8.55693358649295
      ],
      [
        "▁ëpp",
        -8.558606571882166
      ],
      [
        "▁fin",
        -8.562696799263106
      ],
      [
        "▁Ken",
        -8.56384151440388
      ],
      [
        "igéen",
        -8.566204904682877
      ],
      [
        "▁Quan",
        -8.566362957563712
      ],
      [
        "▁Móris",
        -8.566362957744612
      ],
      [
        "▁Niseryaa",
        -8.567004440777623
      ],
      [
        "▁voit",
        -8.56727974741294
      ],
      [
        "▁bord",
        -8.567512959072804
      ],
      [
        "▁lequel",
        -8.568632280435182
      ],
      [
        "▁réy",
        -8.569131152050636
      ],
      [
        "▁jeex",
        -8.569612604244005
      ],
      [
        "▁enfant",
        -8.569650962562795
      ],
      [
        "▁Seet",
        -8.570921944853106
      ],
      [
        "▁jaay",
        -8.571091284110864
      ],
      [
        "té",
        -8.571360699513864
      ],
      [
        "▁guddi",
        -8.571735924344544
      ],
      [
        "▁murs",
        -8.572445429395719
      ],
      [
        "kk",
        -8.580401377592377
      ],
      [
        "▁bokk",
        -8.587070815200619
      ],
      [
        "▁ñàkk",
        -8.5956606043426
      ],
      [
        "il",
        -8.595722931758491
      ],
      [
        "wul",
        -8.596790779193283
      ],
      [
        "▁blanc",
        -8.599694190611089
      ],
      [
        "▁seet",
        -8.604449538113716
      ],
      [
        "▁Ay",
        -8.606654757761756
      ],
      [
        "▁gaa",
        -8.607253483589867
      ],
      [
        "▁dé",
        -8.613548879035129
      ],
      [
        "▁Bëgg",
        -8.61531381171324
      ],
      [
        "▁souviens",
        -8.618994536613071
      ],
      [
        "▁grand-mère",
        -8.6189945545959
      ],
      [
        "▁milieu",
        -8.618994577883266
      ],
      [
        "▁doom-aadama",
        -8.61900667462618
      ],
      [
        "▁Nigeria",
        -8.619006710196194
      ],
      [
        "▁question",
        -8.619028426953998
      ],
      [
        "▁gàtt",
        -8.619032314434962
      ],
      [
        "▁quelqu'un",
        -8.61904049651535
      ],
      [
        "▁tali",
        -8.619197224138574
      ],
      [
        "▁dellu",
        -8.619301570007808
      ],
      [
        "▁wéy",
        -8.619321913570335
      ],
      [
        "▁contre",
        -8.61934062946516
      ],
      [
        "▁Bansoo",
        -8.619391832370962
      ],
      [
        "▁Keneen",
        -8.61951736493233
      ],
      [
        "▁seulement",
        -8.619582333484178
      ],
      [
        "▁beneen",
        -8.619598137219352
      ],
      [
        "▁Elle",
        -8.619879624488044
      ],
      [
        "▁yee",
        -8.619888649015333
      ],
      [
        "▁Yaa",
        -8.620664753434554
      ],
      [
        "▁côté",
        -8.621014928352716
      ],
      [
        "▁soit",
        -8.621393150686266
      ],
      [
        "▁door",
        -8.622969656763335
      ],
      [
        "lu",
        -8.623077835774259
      ],
      [
        "▁ceux",
        -8.623430317396968
      ],
      [
        "▁On",
        -8.6242214009745
      ],
      [
        "▁bon",
        -8.624409304390293
      ],
      [
        "▁n'avai",
        -8.626848881466268
      ],
      [
        "▁lion",
        -8.631333060147455
      ],
      [
        "▁Wax",
        -8.633044735272387
      ],
      [
        "▁W",
        -8.638577387497172
      ],
      [
        "▁maam",
        -8.64958310863048
      ],
      [
        "▁vrai",
        -8.651109347828982
      ],
      [
        "▁ville",
        -8.651187870642254
      ],
      [
        "▁lit",
        -8.65207788499432
      ],
      [
        "▁rivière",
        -8.655646052040616
      ],
      [
        "▁voyage",
        -8.656221482479259
      ],
      [
        "▁faa",
        -8.662177334039283
      ],
      [
        "▁jox",
        -8.662421086073234
      ],
      [
        "▁faj",
        -8.662983684837375
      ],
      [
        "loo",
        -8.666406479698837
      ],
      [
        "▁eux",
        -8.668286648019556
      ],
      [
        "▁dina",
        -8.66910585914281
      ],
      [
        "▁reste",
        -8.673009695711492
      ],
      [
        "▁quel",
        -8.673233159151074
      ],
      [
        "▁eu",
        -8.674104809703557
      ],
      [
        "▁S'il",
        -8.674550152704079
      ],
      [
        "▁Laobe",
        -8.674550221555233
      ],
      [
        "▁njëkk",
        -8.674550542310469
      ],
      [
        "▁Samba",
        -8.674582203142654
      ],
      [
        "▁cheval",
        -8.67460284421687
      ],
      [
        "béré",
        -8.674674430720048
      ],
      [
        "▁nettali",
        -8.674799384723393
      ],
      [
        "▁l'eau",
        -8.674859824844054
      ],
      [
        "▁téere",
        -8.675128852236753
      ],
      [
        "▁passe",
        -8.675839455886717
      ],
      [
        "▁ña",
        -8.675960353960075
      ],
      [
        "▁fourmis",
        -8.676291968918894
      ],
      [
        "▁soir",
        -8.676523809495743
      ],
      [
        "▁bind",
        -8.677089229052164
      ],
      [
        "in",
        -8.677287645326992
      ],
      [
        "▁mot",
        -8.67766659114395
      ],
      [
        "▁gee",
        -8.677829010695204
      ],
      [
        "▁waaw",
        -8.678082905620407
      ],
      [
        "▁Oui",
        -8.678319469352315
      ],
      [
        "▁vache",
        -8.678529647521652
      ],
      [
        "▁ici",
        -8.681595612928687
      ],
      [
        "'exil",
        -8.68384726786873
      ],
      [
        "▁baay",
        -8.687281619128578
      ],
      [
        "▁bunt",
        -8.691502735631529
      ],
      [
        "▁n'ai",
        -8.69174470581514
      ],
      [
        "▁ndox",
        -8.69283895149075
      ],
      [
        "▁tel",
        -8.694575976719529
      ],
      [
        "▁bay",
        -8.698760432883201
      ],
      [
        "▁égaré",
        -8.698814209835053
      ],
      [
        "▁jiit",
        -8.702672383791022
      ],
      [
        "▁dëkki",
        -8.703964224503672
      ],
      [
        "▁moment",
        -8.712349833006762
      ],
      [
        "▁lal",
        -8.715179733078475
      ],
      [
        "▁toute",
        -8.720527805979001
      ],
      [
        "▁mal",
        -8.720639231138305
      ],
      [
        "▁yoo",
        -8.72185505131278
      ],
      [
        "▁grande",
        -8.724428847502972
      ],
      [
        "▁aperç",
        -8.728372888622733
      ],
      [
        "▁Banso",
        -8.732928805002903
      ],
      [
        "▁bàyyi",
        -8.732953947098718
      ],
      [
        "▁Àngalteer",
        -8.73337362148263
      ],
      [
        "▁Alors",
        -8.733373736571888
      ],
      [
        "▁tàmbal",
        -8.733376095195059
      ],
      [
        "▁gunóor",
        -8.733396170328675
      ],
      [
        "▁Àngale",
        -8.733427180874086
      ],
      [
        "▁peau",
        -8.73346370109752
      ],
      [
        "▁plaine",
        -8.734170209189092
      ],
      [
        "▁manière",
        -8.734913330166354
      ],
      [
        "▁weer",
        -8.735140145310796
      ],
      [
        "▁yaatu",
        -8.735237763239086
      ],
      [
        "▁doomu",
        -8.73687047508492
      ],
      [
        "▁dama",
        -8.739111878476809
      ],
      [
        "▁près",
        -8.741245453169272
      ],
      [
        "nu",
        -8.743036120683554
      ],
      [
        "▁mujje",
        -8.743213734318488
      ],
      [
        "▁miir",
        -8.744265245398974
      ],
      [
        "▁toit",
        -8.745297186543205
      ],
      [
        "▁C",
        -8.746024343608765
      ],
      [
        "▁aller",
        -8.747557725055119
      ],
      [
        "▁wut",
        -8.75030332154818
      ],
      [
        "▁nun",
        -8.75841039477288
      ],
      [
        "▁so",
        -8.759077003213317
      ],
      [
        "▁aurait",
        -8.761774840852166
      ],
      [
        "▁no",
        -8.762500634925322
      ],
      [
        "▁amoon",
        -8.762635263976211
      ],
      [
        "▁long",
        -8.76312314247588
      ],
      [
        "▁personnes",
        -8.76327035767993
      ],
      [
        "▁kii",
        -8.764128720351042
      ],
      [
        "tôt",
        -8.764910057031154
      ],
      [
        "ng",
        -8.768629367937786
      ],
      [
        "-na",
        -8.768863634463871
      ],
      [
        "em",
        -8.76956229096611
      ],
      [
        "▁grand",
        -8.77014746501892
      ],
      [
        "▁j",
        -8.775347340861403
      ],
      [
        "▁Di",
        -8.775894520425403
      ],
      [
        "être",
        -8.776070576050175
      ],
      [
        "▁Da",
        -8.779462226947029
      ],
      [
        "▁lanu",
        -8.78099498314527
      ],
      [
        "▁dire",
        -8.781293720365085
      ],
      [
        "▁lorsqu",
        -8.783982615070162
      ],
      [
        "▁aw",
        -8.784331631364298
      ],
      [
        "▁waaj",
        -8.785176665200936
      ],
      [
        "ngir",
        -8.791833660985613
      ],
      [
        "▁mii",
        -8.792060207734933
      ],
      [
        "▁way-jur",
        -8.794206803552044
      ],
      [
        "ra",
        -8.794544421997692
      ],
      [
        "▁Kooku",
        -8.79549193172956
      ],
      [
        "ub",
        -8.79557411286358
      ],
      [
        "àddaay",
        -8.795675892092287
      ],
      [
        "▁séen",
        -8.795913573747175
      ],
      [
        "▁l'Ouest",
        -8.795925321542445
      ],
      [
        "▁assis",
        -8.795927219165032
      ],
      [
        "▁dunyaa",
        -8.796024565412067
      ],
      [
        "▁au-dessus",
        -8.79607356880197
      ],
      [
        "▁seetlu",
        -8.796139216365066
      ],
      [
        "▁Cela",
        -8.796620020365326
      ],
      [
        "▁tuuti",
        -8.796677318459974
      ],
      [
        "▁Kon",
        -8.79684031131015
      ],
      [
        "▁leneen",
        -8.799012083208185
      ],
      [
        "▁demkoon",
        -8.800279146219125
      ],
      [
        "▁montre",
        -8.801556187409883
      ],
      [
        "▁yeux",
        -8.802831653656469
      ],
      [
        "▁moomu",
        -8.80297830796491
      ],
      [
        "▁laaj",
        -8.803223677572877
      ],
      [
        "▁montagnes",
        -8.805785484135352
      ],
      [
        "▁bant",
        -8.808660879323876
      ],
      [
        "▁tudde",
        -8.809864578034869
      ],
      [
        "▁mains",
        -8.812245924039878
      ],
      [
        "▁parler",
        -8.81411651229147
      ],
      [
        "▁fut",
        -8.815339246276622
      ],
      [
        "▁nos",
        -8.815678131148488
      ],
      [
        "▁regarde",
        -8.81596991907045
      ],
      [
        "▁port",
        -8.816054325733392
      ],
      [
        "▁ami",
        -8.817088465485874
      ],
      [
        "▁Bamenda",
        -8.819770029204214
      ],
      [
        "▁ko.",
        -8.821130057457406
      ],
      [
        "▁l'ai",
        -8.822401373215168
      ],
      [
        "▁poisson",
        -8.82633462919041
      ],
      [
        "▁Ra",
        -8.827916010600086
      ],
      [
        "▁Fu",
        -8.82819827272746
      ],
      [
        "-ci",
        -8.828211248422475
      ],
      [
        "leen",
        -8.8283088865973
      ],
      [
        "ur",
        -8.829377082247
      ],
      [
        "armée",
        -8.833299511536431
      ],
      [
        "▁jours",
        -8.836489598985484
      ],
      [
        "▁won",
        -8.838418183915595
      ],
      [
        "\"",
        -8.83848645515431
      ],
      [
        "▁defar",
        -8.8398543939567
      ],
      [
        "▁plu",
        -8.842448529294355
      ],
      [
        "▁rouge",
        -8.84272309105284
      ],
      [
        "▁Va",
        -8.843771717504527
      ],
      [
        "▁doom",
        -8.848592149402965
      ],
      [
        "▁fond",
        -8.85281178680611
      ],
      [
        "▁parte",
        -8.85336535860896
      ],
      [
        "ère",
        -8.855238766588862
      ],
      [
        "▁doi",
        -8.856612700789093
      ],
      [
        "?",
        -8.856618066291208
      ],
      [
        "▁mat",
        -8.859196096760492
      ],
      [
        "faral",
        -8.861400762482795
      ],
      [
        "▁lieu",
        -8.862113656168349
      ],
      [
        "▁violence",
        -8.862541084955543
      ],
      [
        "▁House",
        -8.862558232646506
      ],
      [
        "▁làrme",
        -8.862564500780122
      ],
      [
        "▁doktoor",
        -8.862571052731068
      ],
      [
        "▁jéem",
        -8.862584027669508
      ],
      [
        "▁ubbi",
        -8.862586820817988
      ],
      [
        "▁moroom",
        -8.862639238971312
      ],
      [
        "▁xeet",
        -8.86264852305383
      ],
      [
        "▁Yaw",
        -8.862865074972879
      ],
      [
        "▁simplement",
        -8.862943016886515
      ],
      [
        "▁gént",
        -8.863026340796843
      ],
      [
        "▁coté",
        -8.863532911963448
      ],
      [
        "▁deret",
        -8.863615272561265
      ],
      [
        "▁cause",
        -8.863635730991064
      ],
      [
        "▁salle",
        -8.863794985975282
      ],
      [
        "▁takk",
        -8.864186263110525
      ],
      [
        "▁ňaar",
        -8.864289525554659
      ],
      [
        "▁Ak",
        -8.864330702974936
      ],
      [
        "avons",
        -8.864535159652803
      ],
      [
        "▁L'",
        -8.865248119022144
      ],
      [
        "▁ñan",
        -8.865487871654455
      ],
      [
        "▁s'il",
        -8.865585188533842
      ],
      [
        "▁kanam",
        -8.865836954551016
      ],
      [
        "▁Noonu",
        -8.86601513208453
      ],
      [
        "▁dame",
        -8.866171407700714
      ],
      [
        "▁feebar",
        -8.866658623116692
      ],
      [
        "▁Kan",
        -8.867712673332495
      ],
      [
        "▁ciel",
        -8.86885184600477
      ],
      [
        "▁bëggul",
        -8.870360918851212
      ],
      [
        "estr",
        -8.8720756276829
      ],
      [
        "▁allé",
        -8.872114744634935
      ],
      [
        "▁J'",
        -8.872979868033864
      ],
      [
        "▁maanaa",
        -8.87384741607321
      ],
      [
        "▁gaynde",
        -8.877295693379928
      ],
      [
        "▁neen",
        -8.884054668567394
      ],
      [
        "▁noir",
        -8.884674274007116
      ],
      [
        "▁wone",
        -8.887691958415232
      ],
      [
        "▁jii",
        -8.888067409058838
      ],
      [
        "▁niroo",
        -8.890100744446269
      ],
      [
        "▁villages",
        -8.890383483193927
      ],
      [
        "▁K",
        -8.8910855788805
      ],
      [
        "▁tur",
        -8.892355976111784
      ],
      [
        "▁gudd",
        -8.894172657128312
      ],
      [
        "▁fàtte",
        -8.897856596333744
      ],
      [
        "▁t'a",
        -8.901109497827921
      ],
      [
        "voir",
        -8.903737871645696
      ],
      [
        "▁Ben",
        -8.904822609477916
      ],
      [
        "geen",
        -8.905292675188756
      ],
      [
        "age",
        -8.908490559369085
      ],
      [
        "▁souvenir",
        -8.91319172706478
      ],
      [
        "eur",
        -8.916562530794145
      ],
      [
        "ance",
        -8.917865141963599
      ],
      [
        "▁R",
        -8.919042162945738
      ],
      [
        "▁dëkku",
        -8.919753630175348
      ],
      [
        "les",
        -8.921841197664378
      ],
      [
        "maa",
        -8.921959140587152
      ],
      [
        "ais",
        -8.9253834310632
      ],
      [
        "▁defe",
        -8.925384972279378
      ],
      [
        "▁parles",
        -8.927502445156204
      ],
      [
        "óon",
        -8.930209006860974
      ],
      [
        "▁ai",
        -8.930803651486215
      ],
      [
        "ine",
        -8.93111069582873
      ],
      [
        "ň",
        -8.932199917921384
      ],
      [
        "ati",
        -8.933620247804342
      ],
      [
        "▁Saint-Louis",
        -8.93396885980155
      ],
      [
        "▁tollu",
        -8.933968980495571
      ],
      [
        "▁jardin",
        -8.93396969405661
      ],
      [
        "▁Yàlla",
        -8.933969932465748
      ],
      [
        "▁famille",
        -8.93397039115783
      ],
      [
        "▁togg",
        -8.933971297785856
      ],
      [
        "▁mémoire",
        -8.933971316543332
      ],
      [
        "▁vécu",
        -8.933992199851401
      ],
      [
        "▁Celui-là",
        -8.93400038548973
      ],
      [
        "▁Aucun",
        -8.934004336880225
      ],
      [
        "▁diiwaan",
        -8.934013546417798
      ],
      [
        "▁tangor",
        -8.9341738583052
      ],
      [
        "▁celui-ci",
        -8.934192870739004
      ],
      [
        "▁dellusi",
        -8.934333984517886
      ],
      [
        "▁l'hôpital",
        -8.934378698199556
      ],
      [
        "▁Qu'il",
        -8.934467482763004
      ],
      [
        "▁heures",
        -8.93464520376474
      ],
      [
        "▁gaaw",
        -8.934738079918354
      ],
      [
        "▁mépp",
        -8.934869748555123
      ],
      [
        "▁wóor",
        -8.934946586752266
      ],
      [
        "▁trois",
        -8.934952147580283
      ],
      [
        "▁trop",
        -8.934995591081119
      ],
      [
        "▁partie",
        -8.935417447574874
      ],
      [
        "▁debout",
        -8.93607825844639
      ],
      [
        "▁parlait",
        -8.936713955259204
      ],
      [
        "▁Wall",
        -8.93672493191189
      ],
      [
        "▁Ndar",
        -8.937133470741918
      ],
      [
        "▁ñ",
        -8.938149512199205
      ],
      [
        "▁song",
        -8.938823521800687
      ],
      [
        "▁Dama",
        -8.939329811490165
      ],
      [
        "▁taxoon",
        -8.940868653652284
      ],
      [
        "▁romb",
        -8.940896282292922
      ],
      [
        "▁doomi",
        -8.94116672423807
      ],
      [
        "▁ressemble",
        -8.943750273629771
      ],
      [
        "▁néegu",
        -8.944176154623449
      ],
      [
        "▁celle",
        -8.94543161346754
      ],
      [
        "▁Nga",
        -8.945866474665552
      ],
      [
        "▁Là",
        -8.94595141681729
      ],
      [
        "▁s'en",
        -8.947021427782724
      ],
      [
        "▁\"",
        -8.948650757731425
      ],
      [
        "▁jeune",
        -8.950415306912678
      ],
      [
        "▁vient",
        -8.950884199445575
      ],
      [
        "ons",
        -8.951102798607792
      ],
      [
        "▁googu",
        -8.95205967559729
      ],
      [
        "▁An",
        -8.954240953039834
      ],
      [
        "▁petit",
        -8.9561590476671
      ],
      [
        "▁sore",
        -8.959882083522032
      ],
      [
        "aire",
        -8.961453697905661
      ],
      [
        "▁tabax",
        -8.964865013704935
      ],
      [
        "ité",
        -8.966515369944673
      ],
      [
        "▁baa",
        -8.96957776697644
      ],
      [
        "▁toutes",
        -8.969635741775695
      ],
      [
        "at",
        -8.9702542461386
      ],
      [
        "▁mort",
        -8.970861081897816
      ],
      [
        "▁vieille",
        -8.973651169828912
      ],
      [
        "▁connu",
        -8.974536339390795
      ],
      [
        "▁we",
        -8.981132864248728
      ],
      [
        "▁Boo",
        -8.983054357156663
      ],
      [
        "▁Bamendaa",
        -8.983095930583211
      ],
      [
        "▁forme",
        -8.98549810463393
      ],
      [
        "▁marché",
        -8.989088168384896
      ],
      [
        "▁àgg",
        -8.98943454321904
      ],
      [
        "où",
        -8.989558633725835
      ],
      [
        "▁travail",
        -8.990123279081047
      ],
      [
        "▁dëkke",
        -8.990732988800715
      ],
      [
        "▁posé",
        -8.991987852179614
      ],
      [
        "▁masu",
        -8.992060589257546
      ],
      [
        "▁pres",
        -8.992952713851869
      ],
      [
        "ñu",
        -8.996079171937248
      ],
      [
        "▁deme",
        -8.998074767498645
      ],
      [
        "▁mar",
        -9.000307336565971
      ],
      [
        "▁D'",
        -9.000671246571162
      ],
      [
        "ël",
        -9.005191078520612
      ],
      [
        "▁xool",
        -9.005443920843097
      ],
      [
        "▁tàng",
        -9.007710728376363
      ],
      [
        "▁<mask>",
        -9.010891936494398
      ],
      [
        "▁britannique",
        -9.010891936496453
      ],
      [
        "▁liberté",
        -9.010891940510737
      ],
      [
        "▁endroit",
        -9.010892052040663
      ],
      [
        "▁weesoo",
        -9.010892940013834
      ],
      [
        "▁sucre",
        -9.010894465606182
      ],
      [
        "▁wirgo",
        -9.010896222501827
      ],
      [
        "▁Mbaa",
        -9.010897672998237
      ],
      [
        "▁gis-gis",
        -9.010961957017683
      ],
      [
        "▁surtout",
        -9.011126661665756
      ],
      [
        "▁jëkk",
        -9.011140956127779
      ],
      [
        "▁point",
        -9.011220962023653
      ],
      [
        "▁Yéen",
        -9.0112298087595
      ],
      [
        "▁sedd",
        -9.011288851950233
      ],
      [
        "▁asamaan",
        -9.01129375371921
      ],
      [
        "▁Maurice",
        -9.011411664163303
      ],
      [
        "▁Jox",
        -9.011639032111866
      ],
      [
        "▁tard",
        -9.011749934076368
      ],
      [
        "▁Bés",
        -9.011817696719097
      ],
      [
        "▁Ibo",
        -9.01185805886909
      ],
      [
        "▁X",
        -9.01194474724891
      ],
      [
        "▁dénk",
        -9.011957212193618
      ],
      [
        "▁Frãs",
        -9.01196233884949
      ],
      [
        "▁tëj",
        -9.012261584122706
      ],
      [
        "▁acheté",
        -9.012401108691655
      ],
      [
        "▁café",
        -9.01386684840774
      ],
      [
        "▁Moom",
        -9.014073224920327
      ],
      [
        "or",
        -9.014327366264535
      ],
      [
        "▁sàkk",
        -9.014448036475798
      ],
      [
        "▁viendra",
        -9.01447879938552
      ],
      [
        "st-ce",
        -9.016418625480004
      ],
      [
        "▁xelam",
        -9.01644031111186
      ],
      [
        "▁d'herbes",
        -9.016788833862122
      ],
      [
        "▁suba",
        -9.017261643233596
      ],
      [
        "▁marche",
        -9.018476938089332
      ],
      [
        "▁jënd",
        -9.01928554115873
      ],
      [
        "atum",
        -9.022210408353205
      ],
      [
        "▁choses",
        -9.02233525668685
      ],
      [
        "▁jant",
        -9.022827444419914
      ],
      [
        "▁nanu",
        -9.026020143973584
      ],
      [
        "▁bee",
        -9.030227347692925
      ],
      [
        "▁fo",
        -9.033778250000562
      ],
      [
        "atul",
        -9.034107815552346
      ],
      [
        "▁pars",
        -9.03433754379974
      ],
      [
        "▁grands",
        -9.035460301649163
      ],
      [
        "▁biti",
        -9.03740615361566
      ],
      [
        "▁wetu",
        -9.037646684986509
      ],
      [
        "▁ta",
        -9.040701583743559
      ],
      [
        "▁Quelle",
        -9.040715114008457
      ],
      [
        "▁qu'un",
        -9.048278601438694
      ],
      [
        "fin",
        -9.049366153554967
      ],
      [
        "▁baat",
        -9.054181688934214
      ],
      [
        "rrière",
        -9.055326499517882
      ],
      [
        "▁noo",
        -9.055830439246183
      ],
      [
        "▁sori",
        -9.056479918076228
      ],
      [
        "waat",
        -9.058073921314211
      ],
      [
        "▁lekk",
        -9.060348979092478
      ],
      [
        "▁yem",
        -9.060630689095028
      ],
      [
        "▁May",
        -9.062703187726802
      ],
      [
        "ils",
        -9.067380465738278
      ],
      [
        "▁jolie",
        -9.069962865064907
      ],
      [
        "▁carte",
        -9.070473450619886
      ],
      [
        "▁fille",
        -9.071441125311967
      ],
      [
        "▁vienne",
        -9.072302877174167
      ],
      [
        "▁b",
        -9.0748370662072
      ],
      [
        "▁daj",
        -9.076739686175227
      ],
      [
        "▁coup",
        -9.077310096859406
      ],
      [
        "▁Ña",
        -9.078369596513946
      ],
      [
        "▁ŋgii",
        -9.080443438492752
      ],
      [
        "▁sang",
        -9.081072917496197
      ],
      [
        "▁couleurs",
        -9.082492319728868
      ],
      [
        "▁main",
        -9.082550147785659
      ],
      [
        "woo",
        -9.087351065214602
      ],
      [
        "▁garde",
        -9.091810443263315
      ],
      [
        "aa",
        -9.091889905769992
      ],
      [
        "▁mellentaan",
        -9.094225280577499
      ],
      [
        "▁Cherche",
        -9.094225286576416
      ],
      [
        "▁xar-kanam",
        -9.094225297248794
      ],
      [
        "▁Homme",
        -9.094225448920845
      ],
      [
        "▁géej",
        -9.094225623176063
      ],
      [
        "▁làmp",
        -9.094225926005572
      ],
      [
        "▁théière",
        -9.094251587362134
      ],
      [
        "▁xanaa",
        -9.094261849560025
      ],
      [
        "▁Kër",
        -9.094278376853161
      ],
      [
        "▁soldaar",
        -9.094279114471522
      ],
      [
        "▁déglu",
        -9.09429319939856
      ],
      [
        "▁ngelaw",
        -9.094296397750464
      ],
      [
        "▁boroom",
        -9.09429804794864
      ],
      [
        "▁paix",
        -9.094309357653966
      ],
      [
        "▁herbes",
        -9.094315180965165
      ],
      [
        "▁Lawbe",
        -9.094323239428135
      ],
      [
        "▁delloo",
        -9.094380784593525
      ],
      [
        "▁passage",
        -9.094411100681683
      ],
      [
        "▁xeer",
        -9.094447800460262
      ],
      [
        "▁longue",
        -9.094469518065406
      ],
      [
        "▁yuuxu",
        -9.094507652522854
      ],
      [
        "▁yére",
        -9.094536622713852
      ],
      [
        "▁Seen",
        -9.09482300939651
      ],
      [
        "▁ngoon",
        -9.094971336851758
      ],
      [
        "▁appris",
        -9.095117944244679
      ],
      [
        "▁nangu",
        -9.09540847060817
      ],
      [
        "▁n'en",
        -9.096130389995395
      ],
      [
        "▁kàddu",
        -9.096218625523544
      ],
      [
        "▁Bon",
        -9.096357768080436
      ],
      [
        "▁Jaam",
        -9.096402504012175
      ],
      [
        "▁màgget",
        -9.097403008505072
      ],
      [
        "▁Defe",
        -9.097504598989108
      ],
      [
        "▁large",
        -9.097647003011051
      ],
      [
        "▁màggat",
        -9.09936258250737
      ],
      [
        "q",
        -9.10028024841931
      ],
      [
        "▁Me",
        -9.10042962325257
      ],
      [
        "▁Demal",
        -9.100459220854365
      ],
      [
        "▁duñu",
        -9.103025575637817
      ],
      [
        "est-ce",
        -9.108492744086155
      ],
      [
        "▁buntu",
        -9.108601321399115
      ],
      [
        "beek",
        -9.109433757654422
      ],
      [
        "▁fàttali",
        -9.110045515485023
      ],
      [
        "▁fees",
        -9.11049499285327
      ],
      [
        "os",
        -9.113281290143842
      ],
      [
        "▁jan",
        -9.113780440824522
      ],
      [
        "▁fleuves",
        -9.114415833867058
      ],
      [
        "na",
        -9.120027976665266
      ],
      [
        "lli",
        -9.120535335598388
      ],
      [
        "▁San",
        -9.122164925153406
      ],
      [
        "▁jàng",
        -9.123921450573242
      ],
      [
        "▁per",
        -9.124097407403937
      ],
      [
        "ement",
        -9.127121508955799
      ],
      [
        "▁sais",
        -9.131347260695716
      ],
      [
        "▁Moi",
        -9.13700859386749
      ],
      [
        "▁doxandéem",
        -9.139389050078169
      ],
      [
        "▁yit",
        -9.140521257426045
      ],
      [
        "▁mêmes",
        -9.141376958509401
      ],
      [
        "▁Mën",
        -9.144265861854604
      ],
      [
        "▁égarée",
        -9.145978010700704
      ],
      [
        "eut-être",
        -9.146474779929807
      ],
      [
        "▁roi",
        -9.151092830802892
      ],
      [
        "▁doy",
        -9.153128711493057
      ],
      [
        "▁vent",
        -9.153220264108757
      ],
      [
        "yan",
        -9.157025824641352
      ],
      [
        "un",
        -9.157403513193524
      ],
      [
        "▁Xa",
        -9.159309872213385
      ],
      [
        "vant",
        -9.16086392382815
      ],
      [
        "▁fil",
        -9.161895969299305
      ],
      [
        "▁séché",
        -9.162107307292029
      ],
      [
        "kër",
        -9.162667044325456
      ],
      [
        "▁première",
        -9.163937241542069
      ],
      [
        "si",
        -9.167063889726997
      ],
      [
        "▁Par",
        -9.175840073735884
      ],
      [
        "▁Koo",
        -9.176636530995882
      ],
      [
        "ture",
        -9.177533633937568
      ],
      [
        "de",
        -9.178363819439127
      ],
      [
        "▁dayo",
        -9.180399542076609
      ],
      [
        "▁dexu",
        -9.182505879999354
      ],
      [
        "-tu",
        -9.182966781899786
      ],
      [
        "▁d'Ogoja",
        -9.185134360737662
      ],
      [
        "▁bëj-saalum",
        -9.185134360742582
      ],
      [
        "▁Guwiyaan",
        -9.185134366054573
      ],
      [
        "▁yëkkati",
        -9.185134415809705
      ],
      [
        "▁Guyane",
        -9.185135409749611
      ],
      [
        "▁région",
        -9.185136356982618
      ],
      [
        "zone",
        -9.185137178651436
      ],
      [
        "▁rawati",
        -9.18513833791996
      ],
      [
        "▁Xammee",
        -9.185156654618645
      ],
      [
        "▁frère",
        -9.185159705124873
      ],
      [
        "▁d'Europe",
        -9.185177337056107
      ],
      [
        "▁kese",
        -9.185186208872471
      ],
      [
        "▁force",
        -9.18518943200761
      ],
      [
        "▁chez",
        -9.185221605301098
      ],
      [
        "▁manger",
        -9.185275434090578
      ],
      [
        "▁raison",
        -9.18527872954781
      ],
      [
        "▁jàll",
        -9.185357812824645
      ],
      [
        "▁Moonte",
        -9.185385891175882
      ],
      [
        "▁Gone",
        -9.18539825576244
      ],
      [
        "▁dàll",
        -9.185457389421689
      ],
      [
        "▁verre",
        -9.185468938398634
      ],
      [
        "kati",
        -9.185669203624121
      ],
      [
        "▁jéggi",
        -9.185672676456461
      ],
      [
        "▁silence",
        -9.185692889656515
      ],
      [
        "▁bépp",
        -9.185776829178247
      ],
      [
        "▁poste",
        -9.185854981054941
      ],
      [
        "▁Ñoom",
        -9.185954870491315
      ],
      [
        "▁kilifa",
        -9.186000292612194
      ],
      [
        "▁xéy",
        -9.1860423292175
      ],
      [
        "▁fépp",
        -9.186184278350629
      ],
      [
        "▁faisait",
        -9.186203094162877
      ],
      [
        "▁bateau",
        -9.186213252308
      ],
      [
        "▁toujours",
        -9.186410233552655
      ],
      [
        "▁ainsi",
        -9.186433480428697
      ],
      [
        "▁xaar",
        -9.186517571572839
      ],
      [
        "▁faut",
        -9.186735898098188
      ],
      [
        "▁yóbbu",
        -9.187004121804502
      ],
      [
        "▁feneen",
        -9.187008294162286
      ],
      [
        "▁teel",
        -9.188377316100784
      ],
      [
        "▁sortir",
        -9.1884738929561
      ],
      [
        "▁l'un",
        -9.190514737834402
      ],
      [
        "▁cuir",
        -9.1907417285566
      ],
      [
        "▁Sud",
        -9.19080938285871
      ],
      [
        "▁ñetti",
        -9.191031550328052
      ],
      [
        "▁avions",
        -9.191152151074025
      ],
      [
        "▁yaw",
        -9.191335495716821
      ],
      [
        "▁woo",
        -9.191814667522586
      ],
      [
        "▁Loo",
        -9.192043025476252
      ],
      [
        "▁miin",
        -9.19231407210066
      ],
      [
        "llait",
        -9.192365258829595
      ],
      [
        "ri",
        -9.194164059526766
      ],
      [
        "▁tund",
        -9.194232345249738
      ],
      [
        "▁tàkk",
        -9.195620054290728
      ],
      [
        "nga",
        -9.198519696793378
      ],
      [
        "▁tay",
        -9.200000148022065
      ],
      [
        "▁të",
        -9.20326989430009
      ],
      [
        "▁Ne",
        -9.20679359485664
      ],
      [
        "▁ira",
        -9.210871856513958
      ],
      [
        "▁...",
        -9.214030469893512
      ],
      [
        "me",
        -9.21733780373205
      ],
      [
        "je",
        -9.22120223203048
      ],
      [
        "▁ragal",
        -9.22428869449559
      ],
      [
        "▁Ñ",
        -9.226612977738766
      ],
      [
        "▁petite",
        -9.22728041274491
      ],
      [
        "iez",
        -9.230784784698926
      ],
      [
        "▁cour",
        -9.233793075844359
      ],
      [
        "lle",
        -9.238110418663563
      ],
      [
        "naka",
        -9.238799736348428
      ],
      [
        "▁partis",
        -9.24183659455047
      ],
      [
        "▁appelle",
        -9.242443123530453
      ],
      [
        "▁Go",
        -9.242578787120955
      ],
      [
        "▁réewu",
        -9.242873841595578
      ],
      [
        "naa",
        -9.246140381578002
      ],
      [
        "uis",
        -9.24918423848262
      ],
      [
        "▁po",
        -9.249497367379018
      ],
      [
        "▁cuisine",
        -9.251392100023423
      ],
      [
        "▁cons",
        -9.257639248473785
      ],
      [
        "▁tii",
        -9.257945448991473
      ],
      [
        "▁fleuve",
        -9.261232810785962
      ],
      [
        "kkali",
        -9.26130574447751
      ],
      [
        "aller",
        -9.26237344116624
      ],
      [
        "p",
        -9.26305560583436
      ],
      [
        "▁tere",
        -9.264278303914425
      ],
      [
        "▁livre",
        -9.266067339860932
      ],
      [
        "euse",
        -9.269903007797922
      ],
      [
        "▁Foo",
        -9.272309600376083
      ],
      [
        "▁gan",
        -9.273780401130631
      ],
      [
        "▁tan",
        -9.278054860601156
      ],
      [
        "▁kook",
        -9.280769226778622
      ],
      [
        "oŋ",
        -9.282612355586014
      ],
      [
        "▁serai",
        -9.284176940266544
      ],
      [
        "▁Daan",
        -9.28464195879311
      ],
      [
        "ëgg",
        -9.285133768942277
      ],
      [
        "▁Moussa",
        -9.285134365299207
      ],
      [
        "▁nouveau",
        -9.285134367604309
      ],
      [
        "▁pirogue",
        -9.28513436874407
      ],
      [
        "▁lumière",
        -9.285135943127624
      ],
      [
        "▁samp",
        -9.285138393307216
      ],
      [
        "▁T",
        -9.285151244302323
      ],
      [
        "▁mbóot",
        -9.285158132740158
      ],
      [
        "▁téye",
        -9.28516137109818
      ],
      [
        "▁chevaux",
        -9.285183634052279
      ],
      [
        "▁Ñàkk",
        -9.28519009108803
      ],
      [
        "▁l'enfant",
        -9.285194715566679
      ],
      [
        "▁subë",
        -9.28521152290957
      ],
      [
        "▁Nord",
        -9.285219472851054
      ],
      [
        "▁sentiment",
        -9.285227624262061
      ],
      [
        "▁diggante",
        -9.285233436964969
      ],
      [
        "▁jëfandikoo",
        -9.285236296229368
      ],
      [
        "▁voix",
        -9.285270230518238
      ],
      [
        "▁façon",
        -9.28528265205701
      ],
      [
        "▁train",
        -9.285352521984095
      ],
      [
        "▁Fatim",
        -9.28540651267353
      ],
      [
        "-fu",
        -9.285500304565597
      ],
      [
        "▁metit",
        -9.28550231589853
      ],
      [
        "▁Voil",
        -9.285618182897052
      ],
      [
        "▁fanaan",
        -9.285839203174385
      ],
      [
        "▁gor",
        -9.285871762248455
      ],
      [
        "▁moins",
        -9.286056759303317
      ],
      [
        "▁bonne",
        -9.286154116070362
      ],
      [
        "▁tàll",
        -9.286173156879201
      ],
      [
        "▁fenn",
        -9.286698016013442
      ],
      [
        "atim",
        -9.2869116321605
      ],
      [
        "▁rëdd",
        -9.286994816131728
      ],
      [
        "ral",
        -9.287535017962963
      ],
      [
        "▁xuus",
        -9.287915334942312
      ],
      [
        "▁Non",
        -9.28830056909877
      ],
      [
        "mbaar",
        -9.288317180365102
      ],
      [
        "▁jege",
        -9.288519991153445
      ],
      [
        "▁neneen",
        -9.289876308316593
      ],
      [
        "▁bras",
        -9.290052026660433
      ],
      [
        "▁kon",
        -9.291793462748979
      ],
      [
        "▁buur",
        -9.29179788495984
      ],
      [
        "▁naaj",
        -9.291901848430458
      ],
      [
        "ique",
        -9.29227610929047
      ],
      [
        "▁joor",
        -9.292504854981281
      ],
      [
        "▁hautes",
        -9.294692724378192
      ],
      [
        "▁wuti",
        -9.297865481529486
      ],
      [
        "▁partira",
        -9.298042446297364
      ],
      [
        "▁telle",
        -9.299314530835002
      ],
      [
        "▁jeu",
        -9.300194944156422
      ],
      [
        "▁vi",
        -9.300636645885701
      ],
      [
        "▁yab",
        -9.300706516256271
      ],
      [
        "▁ñëwul",
        -9.300803480786673
      ],
      [
        "▁pieds",
        -9.301172518351239
      ],
      [
        "▁soi",
        -9.303263579176159
      ],
      [
        "▁nul",
        -9.304996677242194
      ],
      [
        "▁seule",
        -9.305021121839019
      ],
      [
        "▁Fan",
        -9.306717378644281
      ],
      [
        "▁eû",
        -9.307868532075908
      ],
      [
        "▁connais",
        -9.311468190319037
      ],
      [
        "▁meloon",
        -9.313740981563317
      ],
      [
        "vent",
        -9.313960465671405
      ],
      [
        "▁Fi",
        -9.314500973458856
      ],
      [
        "es.",
        -9.318145382726323
      ],
      [
        "▁noirs",
        -9.318246963062231
      ],
      [
        "▁Ou",
        -9.320203855891249
      ],
      [
        "▁partes",
        -9.321831855077061
      ],
      [
        "eŋ",
        -9.322677443115259
      ],
      [
        "ewul",
        -9.322703526246702
      ],
      [
        "▁blancs",
        -9.32517670037775
      ],
      [
        "▁noire",
        -9.32518088837271
      ],
      [
        "▁garabi",
        -9.325965421860344
      ],
      [
        "▁tefes",
        -9.326574787786637
      ],
      [
        "▁avais",
        -9.327618101850781
      ],
      [
        "▁arrivé",
        -9.331320668860627
      ],
      [
        "ndant",
        -9.33172289944489
      ],
      [
        "▁fais",
        -9.33488268188052
      ],
      [
        "ès",
        -9.339286724013153
      ],
      [
        "▁doo",
        -9.340663103671194
      ],
      [
        "▁Saa",
        -9.34277637413232
      ],
      [
        "▁jusqu'au",
        -9.344761373199619
      ],
      [
        "ppelle",
        -9.344804755719617
      ],
      [
        "pp",
        -9.349514274873169
      ],
      [
        "▁mis",
        -9.353163113982484
      ],
      [
        "▁cases",
        -9.353503193727715
      ],
      [
        "▁men",
        -9.353877959943013
      ],
      [
        "▁kee",
        -9.356102950607808
      ],
      [
        "▁froid",
        -9.361436334679214
      ],
      [
        "▁pris",
        -9.361587026706898
      ],
      [
        "▁nom",
        -9.373200908045249
      ],
      [
        "rait",
        -9.373752020715331
      ],
      [
        "▁arbre",
        -9.37378690507415
      ],
      [
        "▁sera",
        -9.375473152471987
      ],
      [
        "réer",
        -9.377222890560901
      ],
      [
        "▁donne",
        -9.377628028983223
      ],
      [
        "▁nan",
        -9.382767053061436
      ],
      [
        "quel",
        -9.386800951428674
      ],
      [
        "▁gro",
        -9.387852097464894
      ],
      [
        "▁ex",
        -9.389131522575434
      ],
      [
        "▁trouve",
        -9.389318080976611
      ],
      [
        "▁entier",
        -9.391157001334562
      ],
      [
        "û",
        -9.391849999591352
      ],
      [
        "▁dagg",
        -9.392751529406976
      ],
      [
        "▁car",
        -9.393120906794815
      ],
      [
        "▁tekk",
        -9.39353450610496
      ],
      [
        "▁palanteer",
        -9.394326184930378
      ],
      [
        "▁dënn",
        -9.394794181847683
      ],
      [
        "▁foo",
        -9.395154028979803
      ],
      [
        "▁yegg",
        -9.395366354044581
      ],
      [
        "éjà",
        -9.395761702150894
      ],
      [
        "▁Aujourd'hui",
        -9.396245471851554
      ],
      [
        "▁Biyaafaraa",
        -9.396245471856673
      ],
      [
        "▁wëndéelu",
        -9.396245471865853
      ],
      [
        "▁médicaments",
        -9.39624547190307
      ],
      [
        "▁d'Afrique",
        -9.3962454721673
      ],
      [
        "▁bëj-gànnaar",
        -9.396245472225937
      ],
      [
        "▁yëngu",
        -9.39624547234211
      ],
      [
        "▁yónne",
        -9.396245473232499
      ],
      [
        "▁savane",
        -9.396245473605758
      ],
      [
        "▁lëndëm",
        -9.39624547421959
      ],
      [
        "▁sowu-jant",
        -9.396245487355278
      ],
      [
        "▁bànneex",
        -9.396245507005927
      ],
      [
        "▁société",
        -9.396245522283136
      ],
      [
        "▁Jamono",
        -9.396245555069877
      ],
      [
        "▁reconna",
        -9.396245656311933
      ],
      [
        "▁Ainsi",
        -9.396248410424132
      ],
      [
        "▁yow",
        -9.396248899568526
      ],
      [
        "▁paaka",
        -9.396248978509664
      ],
      [
        "▁morceau",
        -9.39625013068998
      ],
      [
        "▁insectes",
        -9.396255690468866
      ],
      [
        "▁lampe",
        -9.39625680294825
      ],
      [
        "▁Sérère",
        -9.396264524691638
      ],
      [
        "▁cosaan",
        -9.396264978393203
      ],
      [
        "▁Almaañ",
        -9.396271529504308
      ],
      [
        "▁naqar",
        -9.396287827214852
      ],
      [
        "▁l'âge",
        -9.396287844317254
      ],
      [
        "▁chaleur",
        -9.396295146059757
      ],
      [
        "▁Déedéet",
        -9.39629663448963
      ],
      [
        "▁ëe",
        -9.396308079123187
      ],
      [
        "▁tubaab",
        -9.396343121538617
      ],
      [
        "▁yéeg",
        -9.396354235678203
      ],
      [
        "▁longtemps",
        -9.396354941503272
      ],
      [
        "▁parfois",
        -9.396370959616455
      ],
      [
        "▁wanag",
        -9.396373428155403
      ],
      [
        "▁wow",
        -9.396409537959428
      ],
      [
        "-t-il",
        -9.396462274780461
      ],
      [
        "▁étions",
        -9.396651292068542
      ],
      [
        "▁Toi",
        -9.396734075674694
      ],
      [
        "▁danga",
        -9.396774794970224
      ],
      [
        "▁loxoom",
        -9.396782249266561
      ],
      [
        "▁Teewul",
        -9.396817543435077
      ],
      [
        "▁ŋgoon",
        -9.396835486790197
      ],
      [
        "▁jaŋg",
        -9.397229732988349
      ],
      [
        "▁côte",
        -9.397378912877318
      ],
      [
        "▁parlé",
        -9.397740997394402
      ],
      [
        "▁alors",
        -9.397813176760486
      ],
      [
        "▁donc",
        -9.397848490655976
      ],
      [
        "▁Niis",
        -9.397951043476832
      ],
      [
        "▁pourtant",
        -9.398500761800767
      ],
      [
        "▁booba",
        -9.398651735487208
      ],
      [
        "▁demande",
        -9.399010564709283
      ],
      [
        "▁Alma",
        -9.399051847905643
      ],
      [
        "▁rek",
        -9.3993747360521
      ],
      [
        "▁mucc",
        -9.399635040670352
      ],
      [
        "▁meubles",
        -9.399778911790143
      ],
      [
        "▁gisaat",
        -9.400092232294925
      ],
      [
        "▁tukki",
        -9.400327236642148
      ],
      [
        "▁ñooñu",
        -9.400385910587907
      ],
      [
        "▁fer",
        -9.40041734155892
      ],
      [
        "▁Doo",
        -9.4009981921951
      ],
      [
        "▁ñaan",
        -9.401331337781782
      ],
      [
        "▁lieux",
        -9.402585794745711
      ],
      [
        "▁enfance",
        -9.403028327794514
      ],
      [
        "mettre",
        -9.40391253414992
      ],
      [
        "▁Noon",
        -9.40497943946206
      ],
      [
        "▁fleurs",
        -9.405551214803493
      ],
      [
        "▁Tay",
        -9.406634691545635
      ],
      [
        "▁bol",
        -9.40702003664851
      ],
      [
        "▁noon",
        -9.40771369630405
      ],
      [
        "▁alal",
        -9.408125983817381
      ],
      [
        "tes",
        -9.408132841337553
      ],
      [
        "▁m'en",
        -9.408707898244089
      ],
      [
        "▁feu",
        -9.408952860333557
      ],
      [
        "▁këram",
        -9.409602200678036
      ],
      [
        "oom",
        -9.412400244808877
      ],
      [
        "▁garçons",
        -9.412747531501283
      ],
      [
        "▁Ta",
        -9.413513328353696
      ],
      [
        "▁baxa",
        -9.416600482766434
      ],
      [
        "▁toogu",
        -9.417153455251182
      ],
      [
        "venir",
        -9.419716478432573
      ],
      [
        "▁Nda",
        -9.422747308426885
      ],
      [
        "belle",
        -9.424724623289412
      ],
      [
        "ou",
        -9.424843381121264
      ],
      [
        "▁viennes",
        -9.42613458557336
      ],
      [
        "▁bees",
        -9.428914869976778
      ],
      [
        "▁teew",
        -9.428953290533661
      ],
      [
        "▁jeunes",
        -9.429116020629492
      ],
      [
        "▁petits",
        -9.430126257560078
      ],
      [
        "wu",
        -9.430620265053138
      ],
      [
        "▁waral",
        -9.431457725081147
      ],
      [
        "ax",
        -9.433273068941682
      ],
      [
        "▁rey",
        -9.433854030734736
      ],
      [
        "▁vas",
        -9.435606401456573
      ],
      [
        "▁do",
        -9.437738399066113
      ],
      [
        "▁ton",
        -9.445680627129885
      ],
      [
        "okk",
        -9.445699031419148
      ],
      [
        "▁gise",
        -9.448032434518684
      ],
      [
        "▁routes",
        -9.451007891250086
      ],
      [
        "tendre",
        -9.45201579852602
      ],
      [
        "ton",
        -9.453638400387291
      ],
      [
        "▁kay",
        -9.453990675812822
      ],
      [
        "▁dakk",
        -9.454049675901487
      ],
      [
        "▁j'en",
        -9.461001678670634
      ],
      [
        "▁ñii",
        -9.466161388569084
      ],
      [
        "el",
        -9.466215114302837
      ],
      [
        "▁fee",
        -9.467495290581569
      ],
      [
        "▁wute",
        -9.467820361715265
      ],
      [
        "ëf",
        -9.468809121644915
      ],
      [
        "▁s'agi",
        -9.469144763550057
      ],
      [
        "▁pou",
        -9.469774464857156
      ],
      [
        "▁Ya",
        -9.470338775157435
      ],
      [
        "▁Ki",
        -9.470406920210312
      ],
      [
        "▁tas",
        -9.4707116067621
      ],
      [
        "▁Ñoo",
        -9.472043905197854
      ],
      [
        "▁table",
        -9.472104365039495
      ],
      [
        "tion",
        -9.47220383822728
      ],
      [
        "▁wa",
        -9.473281368674654
      ],
      [
        "ngi",
        -9.4774394282214
      ],
      [
        "▁bleu",
        -9.481840588558121
      ],
      [
        "ti",
        -9.483439606498987
      ],
      [
        "▁nature",
        -9.484870950196298
      ],
      [
        "▁feeñ",
        -9.484885029920001
      ],
      [
        "▁tool",
        -9.486066977687168
      ],
      [
        "▁rêve",
        -9.486456625502466
      ],
      [
        "▁Ch",
        -9.48696901378844
      ],
      [
        "li",
        -9.489258675812028
      ],
      [
        "▁yat",
        -9.489305034046376
      ],
      [
        "▁janoo",
        -9.4908170476672
      ],
      [
        "▁ra",
        -9.491953258644743
      ],
      [
        "▁set",
        -9.494487896984165
      ],
      [
        "use",
        -9.50179522002174
      ],
      [
        "▁montagne",
        -9.50200064697386
      ],
      [
        "▁visage",
        -9.502327145890156
      ],
      [
        "▁waxtaan",
        -9.502560176951516
      ],
      [
        "▁garçon",
        -9.502872418725076
      ],
      [
        "▁nopp",
        -9.503078664711698
      ],
      [
        "▁pied",
        -9.5031466435005
      ],
      [
        "▁Ri",
        -9.503857200676558
      ],
      [
        "▁sant",
        -9.50437394307216
      ],
      [
        "galu",
        -9.50573507207601
      ],
      [
        "▁guy",
        -9.505834886852156
      ],
      [
        "▁africain",
        -9.508455117636085
      ],
      [
        "maana",
        -9.510723361652559
      ],
      [
        "nde",
        -9.513072929412775
      ],
      [
        "tant",
        -9.515454037059127
      ],
      [
        "▁tóo",
        -9.51627110970422
      ],
      [
        "▁instant",
        -9.518124081493083
      ],
      [
        "▁cherche",
        -9.518129900524855
      ],
      [
        "gré",
        -9.51835368770007
      ],
      [
        "▁yilif",
        -9.51866082743075
      ],
      [
        "▁juste",
        -9.520690176312135
      ],
      [
        "▁Victoria",
        -9.521245471860658
      ],
      [
        "▁L'Afrique",
        -9.521245471860716
      ],
      [
        "▁Léeg-léeg",
        -9.521245471874856
      ],
      [
        "▁kéemaane",
        -9.521245472064761
      ],
      [
        "▁yëngal",
        -9.521245472166436
      ],
      [
        "▁mauvais",
        -9.521245473178277
      ],
      [
        "▁xàmmee",
        -9.52124547502371
      ],
      [
        "▁ensemble",
        -9.521245482830533
      ],
      [
        "▁accroché",
        -9.521245483502529
      ],
      [
        "▁Monsieur",
        -9.521245636916074
      ],
      [
        "▁Laobé",
        -9.52124586608575
      ],
      [
        "▁jàmm",
        -9.521245987240405
      ],
      [
        "▁xaalis",
        -9.52124607488264
      ],
      [
        "▁Legoos",
        -9.521246371693389
      ],
      [
        "▁chaussettes",
        -9.521246932799134
      ],
      [
        "▁xëcc",
        -9.521267103457182
      ],
      [
        "▁janeer",
        -9.521273449629067
      ],
      [
        "▁puissance",
        -9.521276524973555
      ],
      [
        "▁keroog",
        -9.521276582085509
      ],
      [
        "▁dernier",
        -9.521291396273185
      ],
      [
        "▁Réew",
        -9.521295518504205
      ],
      [
        "▁sànni",
        -9.521299668558111
      ],
      [
        "▁l'amour",
        -9.52130578212819
      ],
      [
        "▁tëdd",
        -9.52130745775763
      ],
      [
        "▁feuilles",
        -9.521329176710905
      ],
      [
        "▁baraada",
        -9.521343032036055
      ],
      [
        "▁douceur",
        -9.521371840907467
      ],
      [
        "▁colère",
        -9.521417809284339
      ],
      [
        "▁départ",
        -9.521440045236455
      ],
      [
        "▁lonk",
        -9.521518704337085
      ],
      [
        "▁Musaa",
        -9.521564403661209
      ],
      [
        "▁woowe",
        -9.52158604230595
      ],
      [
        "▁gémmiñ",
        -9.52159634973292
      ],
      [
        "▁proche",
        -9.521598317504019
      ],
      [
        "▁Officer",
        -9.521634304438834
      ],
      [
        "▁Dëkk",
        -9.521757453283541
      ],
      [
        "▁plein",
        -9.522013786012222
      ],
      [
        "▁fajkat",
        -9.522095910952864
      ],
      [
        "▁Nice",
        -9.522376926813795
      ],
      [
        "▁weñ",
        -9.52256136031632
      ],
      [
        "▁bekk",
        -9.522634616717216
      ],
      [
        "▁prend",
        -9.52269688132824
      ],
      [
        "▁objets",
        -9.52299766322946
      ],
      [
        "▁goût",
        -9.523059256986649
      ],
      [
        "▁cœur",
        -9.523060562796202
      ],
      [
        "▁yëf",
        -9.523110153291391
      ],
      [
        "▁conçue",
        -9.523560611868986
      ],
      [
        "▁Buur",
        -9.523721918894111
      ],
      [
        "▁riir",
        -9.523768012462119
      ],
      [
        "▁gejje",
        -9.52400087847116
      ],
      [
        "▁Kookule",
        -9.524048005098726
      ],
      [
        "an",
        -9.524070236167757
      ],
      [
        "▁yenu",
        -9.524291989870328
      ],
      [
        "ts",
        -9.524617420354414
      ],
      [
        "▁mill",
        -9.524770052174627
      ],
      [
        "▁ça",
        -9.524887825314538
      ],
      [
        "▁place",
        -9.52489930797669
      ],
      [
        "▁compte",
        -9.525584924600352
      ],
      [
        "▁ndey",
        -9.525771648382829
      ],
      [
        "▁Sunu",
        -9.526045273265932
      ],
      [
        "▁sës",
        -9.526118323261137
      ],
      [
        "▁yar",
        -9.5265067480691
      ],
      [
        "istrict",
        -9.526872629694928
      ],
      [
        "▁unique",
        -9.52817525253607
      ],
      [
        "▁boy",
        -9.528341573489334
      ],
      [
        "▁waxtu",
        -9.52843818286593
      ],
      [
        "▁tar",
        -9.529162791030105
      ],
      [
        "▁Wu",
        -9.529280850651784
      ],
      [
        "▁sew",
        -9.530005764968315
      ],
      [
        "umes",
        -9.530830571705984
      ],
      [
        "▁lakk",
        -9.530849738075844
      ],
      [
        "▁bëggée",
        -9.53135561166919
      ],
      [
        "▁parents",
        -9.531666536186416
      ],
      [
        "▁jaune",
        -9.532112059227128
      ],
      [
        "▁sauvages",
        -9.533900882639207
      ],
      [
        "▁t'ai",
        -9.534415356507235
      ],
      [
        "▁Xan",
        -9.53543584169433
      ],
      [
        "▁êtes",
        -9.537201267141793
      ],
      [
        "▁not",
        -9.539230005561514
      ],
      [
        "▁kaas",
        -9.54044799307511
      ],
      [
        "nn",
        -9.540730819572634
      ],
      [
        "Après",
        -9.542393595395717
      ],
      [
        "▁noms",
        -9.542742023708536
      ],
      [
        "▁waar",
        -9.543632322438485
      ],
      [
        "du",
        -9.545302058984438
      ],
      [
        "ez-vous",
        -9.545793904143212
      ],
      [
        "kaay",
        -9.551300400922365
      ],
      [
        "▁Pe",
        -9.552300734954185
      ],
      [
        "▁daawu",
        -9.553110696348577
      ],
      [
        "▁diis",
        -9.553967808871421
      ],
      [
        "▁Cha",
        -9.554052409269154
      ],
      [
        "▁luy",
        -9.554219175613962
      ],
      [
        "▁beau",
        -9.555052516712733
      ],
      [
        "ables",
        -9.555448427725828
      ],
      [
        "▁Nu",
        -9.556352829958422
      ],
      [
        "ar",
        -9.56062510901435
      ],
      [
        "▁Vas",
        -9.561562737038065
      ],
      [
        "▁peur",
        -9.562446365793162
      ],
      [
        "pendan",
        -9.56451814017538
      ],
      [
        "▁max",
        -9.565196483770679
      ],
      [
        "▁sor",
        -9.566613533983862
      ],
      [
        "▁pos",
        -9.56703319483123
      ],
      [
        "▁Woo",
        -9.567278753324736
      ],
      [
        "ke",
        -9.568522619954335
      ],
      [
        "dé",
        -9.56867644879965
      ],
      [
        "▁kaa",
        -9.57046195392716
      ],
      [
        "▁Dañ",
        -9.57097292371135
      ],
      [
        "▁dalal",
        -9.571159839009729
      ],
      [
        "▁v",
        -9.572891566453443
      ],
      [
        "▁Jën",
        -9.573656721401651
      ],
      [
        "▁H",
        -9.575304949075715
      ],
      [
        "▁No",
        -9.57736031674987
      ],
      [
        "▁sonal",
        -9.578892808888769
      ],
      [
        "▁inter",
        -9.580484590297207
      ],
      [
        "▁raconte",
        -9.581903608402392
      ],
      [
        "nce",
        -9.582837935952607
      ],
      [
        "▁t'en",
        -9.584031591552037
      ],
      [
        "▁yii",
        -9.58428980716697
      ],
      [
        "est",
        -9.585874321659285
      ],
      [
        "▁në",
        -9.587994263507804
      ],
      [
        "sse",
        -9.58808217652617
      ],
      [
        "een",
        -9.591907355305429
      ],
      [
        "▁lesquel",
        -9.593644294286497
      ],
      [
        "▁all",
        -9.594521810762792
      ],
      [
        "▁photos",
        -9.596915902252885
      ],
      [
        "▁Tey",
        -9.60073998736162
      ],
      [
        "part",
        -9.604139827427963
      ],
      [
        "aale",
        -9.61403891661416
      ],
      [
        "▁retour",
        -9.615711921150732
      ],
      [
        "▁dénd",
        -9.628146653210154
      ],
      [
        "▁jur",
        -9.629290165930875
      ],
      [
        "▁pro",
        -9.631329167983775
      ],
      [
        "▁s'ét",
        -9.632201937133182
      ],
      [
        "▁dessin",
        -9.63383620685354
      ],
      [
        "autorité",
        -9.637718421546644
      ],
      [
        "impression",
        -9.638155462346383
      ],
      [
        "▁pouvai",
        -9.638253052426231
      ],
      [
        "▁ét",
        -9.638706154572455
      ],
      [
        "▁far",
        -9.639628611286053
      ],
      [
        "z",
        -9.640680776185665
      ],
      [
        "▁wan",
        -9.640872345075241
      ],
      [
        "▁tày",
        -9.641213678763616
      ],
      [
        "▁scorpion",
        -9.641245187564442
      ],
      [
        "▁vivre",
        -9.64353926501891
      ],
      [
        "▁pënd",
        -9.645965502207195
      ],
      [
        "▁nëbb",
        -9.64760838309889
      ],
      [
        "▁xoole",
        -9.648611836442898
      ],
      [
        "ñeen",
        -9.649553021642859
      ],
      [
        "kom",
        -9.65509700843382
      ],
      [
        "!",
        -9.656203594549686
      ],
      [
        "▁jafe",
        -9.656723750370656
      ],
      [
        "▁jàkk",
        -9.656872037676022
      ],
      [
        "▁muur",
        -9.657462281466128
      ],
      [
        "quelles",
        -9.660001962110481
      ],
      [
        "▁sorti",
        -9.660443410634056
      ],
      [
        "ient",
        -9.660716172137377
      ],
      [
        "▁xamant",
        -9.66118076688367
      ],
      [
        "aw",
        -9.66214567858124
      ],
      [
        "▁pa",
        -9.662559879501583
      ],
      [
        "▁denc",
        -9.662870563905752
      ],
      [
        "▁simple",
        -9.663406422453672
      ],
      [
        "▁compl",
        -9.663976353684996
      ],
      [
        "▁gouvernement",
        -9.664102614723863
      ],
      [
        "▁gàncax",
        -9.664102614759871
      ],
      [
        "▁reç",
        -9.664102615008517
      ],
      [
        "▁màndarga",
        -9.664102619016072
      ],
      [
        "▁solitude",
        -9.664102620490032
      ],
      [
        "▁Óbudu",
        -9.66410262072813
      ],
      [
        "▁assurément",
        -9.664102623603391
      ],
      [
        "▁immense",
        -9.664102623802114
      ],
      [
        "▁màrse",
        -9.664102627784892
      ],
      [
        "▁Ó",
        -9.66410263154866
      ],
      [
        "▁difficile",
        -9.664102632292217
      ],
      [
        "▁Casamance",
        -9.664102640192423
      ],
      [
        "▁loppitaan",
        -9.664102680193885
      ],
      [
        "▁Liggéey",
        -9.664102682522381
      ],
      [
        "▁reconnu",
        -9.664102684522431
      ],
      [
        "▁âge",
        -9.664102687352422
      ],
      [
        "▁bonheur",
        -9.66410270955502
      ],
      [
        "▁premier",
        -9.664102714461672
      ],
      [
        "▁tôle",
        -9.664102723369151
      ],
      [
        "▁Ayijoo",
        -9.664102730445052
      ],
      [
        "▁boeuf",
        -9.664102760507184
      ],
      [
        "▁sukkuraat",
        -9.66410286181443
      ],
      [
        "▁dehors",
        -9.664103259102014
      ],
      [
        "▁époque",
        -9.664104572500483
      ],
      [
        "▁yànj",
        -9.664106544311807
      ],
      [
        "▁wurus",
        -9.664108884294178
      ],
      [
        "▁Deŋk",
        -9.664109475196597
      ],
      [
        "▁suukër",
        -9.664113756901981
      ],
      [
        "▁bett",
        -9.6641211457451
      ],
      [
        "▁rëcc",
        -9.664133795961947
      ],
      [
        "▁simoŋ",
        -9.66414086145429
      ],
      [
        "▁mourir",
        -9.664150439904972
      ],
      [
        "▁woto",
        -9.664151729645033
      ],
      [
        "▁nelaw",
        -9.664167322938901
      ],
      [
        "▁juddoo",
        -9.664173155121624
      ],
      [
        "▁dëgër",
        -9.66417384253601
      ],
      [
        "▁servir",
        -9.664179242786652
      ],
      [
        "▁croyai",
        -9.664180689014284
      ],
      [
        "▁d'abord",
        -9.664217663049039
      ],
      [
        "▁l'Angleterre",
        -9.66423086986807
      ],
      [
        "▁yeksi",
        -9.66424554273543
      ],
      [
        "▁màndi",
        -9.664261497181874
      ],
      [
        "▁plateaux",
        -9.664267709076574
      ],
      [
        "▁Fekk",
        -9.664270322056154
      ],
      [
        "▁campement",
        -9.664288489449774
      ],
      [
        "▁droit",
        -9.664348630895313
      ],
      [
        "▁bouche",
        -9.66440801957244
      ],
      [
        "uukar",
        -9.664439773165046
      ],
      [
        "kàlla",
        -9.664448894882069
      ],
      [
        "▁sowu",
        -9.664454994126784
      ],
      [
        "▁Ici",
        -9.664491117581953
      ],
      [
        "▁dajale",
        -9.664537839733844
      ],
      [
        "▁wépp",
        -9.664583923276883
      ],
      [
        "▁raglu",
        -9.66463335303441
      ],
      [
        "-do",
        -9.664688434041643
      ],
      [
        "▁porteurs",
        -9.664745332350076
      ],
      [
        "odeur",
        -9.664754193031227
      ],
      [
        "▁genn",
        -9.6648218806601
      ],
      [
        "▁sens",
        -9.664835805159496
      ],
      [
        "▁Ayaa",
        -9.664838055683381
      ],
      [
        "▁jeeg",
        -9.664896157250633
      ],
      [
        "▁images",
        -9.664940737732817
      ],
      [
        "thme",
        -9.66494555573351
      ],
      [
        "▁Pël",
        -9.664974145832005
      ],
      [
        "▁jàppale",
        -9.664977846283048
      ],
      [
        "▁lëf",
        -9.665026462990525
      ],
      [
        "▁Plu",
        -9.66562352628049
      ],
      [
        "▁couteau",
        -9.665681470349135
      ],
      [
        "▁depuis",
        -9.665771840436186
      ],
      [
        "▁propre",
        -9.665798589613889
      ],
      [
        "▁courant",
        -9.66588356284622
      ],
      [
        "▁ventre",
        -9.665970763183795
      ],
      [
        "▁palmes",
        -9.666176545528907
      ],
      [
        "▁woy",
        -9.666237728484061
      ],
      [
        "▁Parle",
        -9.666398397221322
      ],
      [
        "▁termites",
        -9.66640679245328
      ],
      [
        "▁nuages",
        -9.666430396236565
      ],
      [
        "▁Ñii",
        -9.666922153681437
      ],
      [
        "▁naqadi",
        -9.666955757730287
      ],
      [
        "▁Fais",
        -9.667045049725491
      ],
      [
        "▁l'entr",
        -9.667067718456787
      ],
      [
        "▁marchent",
        -9.667413037746451
      ],
      [
        "▁vais",
        -9.667858229200888
      ],
      [
        "-je",
        -9.668043794007106
      ],
      [
        "▁defare",
        -9.668071414084393
      ],
      [
        "ool",
        -9.668090363572832
      ],
      [
        "▁district",
        -9.668334992572532
      ],
      [
        "▁écrit",
        -9.668348178859283
      ],
      [
        "▁vaste",
        -9.668359900022484
      ],
      [
        "▁seng",
        -9.66837263554985
      ],
      [
        "▁laisser",
        -9.668408088538374
      ],
      [
        "▁pom",
        -9.668545692608681
      ],
      [
        "▁Foofu",
        -9.668822382594083
      ],
      [
        "▁àngale",
        -9.669105075898344
      ],
      [
        "▁viennent",
        -9.669161882882387
      ],
      [
        "▁clair",
        -9.66978570483716
      ],
      [
        "▁ňuul",
        -9.6699476917514
      ],
      [
        "▁chasse",
        -9.670566911880169
      ],
      [
        "▁soppi",
        -9.670854921458618
      ],
      [
        "▁fuir",
        -9.671747354576794
      ],
      [
        "▁anglaise",
        -9.672487985756755
      ],
      [
        "▁kowam",
        -9.672815872419866
      ],
      [
        "▁raay",
        -9.672857412503191
      ],
      [
        "-mo",
        -9.673401082240796
      ],
      [
        "▁cours",
        -9.673475156827536
      ],
      [
        "ure",
        -9.673920311637849
      ],
      [
        "▁cru",
        -9.674234741443225
      ],
      [
        "▁wane",
        -9.674585979799158
      ],
      [
        "▁Fii",
        -9.674764026907441
      ],
      [
        "▁jàn",
        -9.675138702952914
      ],
      [
        "▁ñen",
        -9.675139595099793
      ],
      [
        "▁mukk",
        -9.677170538746035
      ],
      [
        "▁française",
        -9.677672489328206
      ],
      [
        "▁six",
        -9.678177180702201
      ],
      [
        "▁yaak",
        -9.679073550707386
      ],
      [
        "▁bâtons",
        -9.679082323068343
      ],
      [
        "aanaka",
        -9.679511778223075
      ],
      [
        "ji",
        -9.679908659985617
      ],
      [
        "▁coloniale",
        -9.680623137460435
      ],
      [
        "andoo",
        -9.68085792079647
      ],
      [
        "▁mbë",
        -9.682229710704835
      ],
      [
        "▁chemins",
        -9.682350434124366
      ],
      [
        "▁comment",
        -9.68296297562271
      ],
      [
        "éri",
        -9.684520604344195
      ],
      [
        "▁ñibbi",
        -9.68519785425325
      ],
      [
        "▁siiw",
        -9.686216034296212
      ],
      [
        "▁doxe",
        -9.6884222991909
      ],
      [
        "▁Yan",
        -9.69041215080042
      ],
      [
        "espère",
        -9.690761527473251
      ],
      [
        "▁rencontre",
        -9.690785099225227
      ],
      [
        "▁arrivés",
        -9.690852050693282
      ],
      [
        "▁pe",
        -9.692205260592385
      ],
      [
        "▁crise",
        -9.693510446593626
      ],
      [
        "exe",
        -9.697603048450217
      ],
      [
        "▁premières",
        -9.699310978439895
      ],
      [
        "▁refuse",
        -9.699960001522296
      ],
      [
        "▁entrai",
        -9.70099861450151
      ],
      [
        "▁w",
        -9.702216027388985
      ],
      [
        "cc",
        -9.708120381215982
      ],
      [
        "▁provi",
        -9.709141402833868
      ],
      [
        "ande",
        -9.709873760562497
      ],
      [
        "▁commence",
        -9.710377276553942
      ],
      [
        "óor",
        -9.714553454884001
      ],
      [
        "▁saba",
        -9.714611841816678
      ],
      [
        "▁donn",
        -9.715696287273326
      ],
      [
        "▁jàngal",
        -9.716489772223445
      ],
      [
        "▁bool",
        -9.720377222627945
      ],
      [
        "▁ñooña",
        -9.720751600299408
      ],
      [
        "▁boue",
        -9.7213261646694
      ],
      [
        "▁kowe",
        -9.721417744399432
      ],
      [
        "bi",
        -9.722778763718559
      ],
      [
        "aay",
        -9.724636248608983
      ],
      [
        "▁mari",
        -9.724724382272225
      ],
      [
        "▁Ja",
        -9.725917944074087
      ],
      [
        "éeri",
        -9.72964483377786
      ],
      [
        "▁ndi",
        -9.732889460661449
      ],
      [
        "bée",
        -9.733155638953093
      ],
      [
        "▁ressenti",
        -9.733837937133039
      ],
      [
        "▁fall",
        -9.734569496090225
      ],
      [
        "▁chocolat",
        -9.735485688050158
      ],
      [
        "rt",
        -9.736251192297397
      ],
      [
        "ion",
        -9.736961647992805
      ],
      [
        "▁arrivée",
        -9.740165805572268
      ],
      [
        "-elle",
        -9.74307349972625
      ],
      [
        "▁masuma",
        -9.74403517592465
      ],
      [
        "tends",
        -9.746387694197058
      ],
      [
        "vient",
        -9.746674337720393
      ],
      [
        "▁loo",
        -9.747278542419918
      ],
      [
        "▁taabal",
        -9.747370344164276
      ],
      [
        "▁jànq",
        -9.747554720976362
      ],
      [
        "▁siy",
        -9.747558005742288
      ],
      [
        "aas",
        -9.751619075887014
      ],
      [
        "▁nañoo",
        -9.760895205147252
      ],
      [
        "indre",
        -9.761314669269535
      ],
      [
        "sait",
        -9.76302147845723
      ],
      [
        "image",
        -9.765055064576618
      ],
      [
        "as",
        -9.769130833664653
      ],
      [
        "▁Ji",
        -9.769327253211337
      ],
      [
        "ññ",
        -9.769524869343602
      ],
      [
        "ré",
        -9.77123450255819
      ],
      [
        "▁cee",
        -9.772826682056774
      ],
      [
        "▁bir",
        -9.773192990142755
      ],
      [
        "▁accompagn",
        -9.773633030879568
      ],
      [
        "oivent",
        -9.773943551474474
      ],
      [
        "aatu",
        -9.774030971548873
      ],
      [
        "▁kàttan",
        -9.77580885455004
      ],
      [
        "ssent",
        -9.77584307349025
      ],
      [
        "▁portes",
        -9.77860139528844
      ],
      [
        "▁faite",
        -9.78012679338517
      ],
      [
        "▁l'é",
        -9.785335495955227
      ],
      [
        "ète",
        -9.785528960868415
      ],
      [
        "eel",
        -9.786025967051183
      ],
      [
        "▁Mas",
        -9.786201221849781
      ],
      [
        "▁Ceux",
        -9.78659522018444
      ],
      [
        "ns",
        -9.786641607618776
      ],
      [
        "ay",
        -9.787762990955567
      ],
      [
        "▁nja",
        -9.789098107360983
      ],
      [
        "ches",
        -9.79050692679284
      ],
      [
        "▁batt",
        -9.790536492791023
      ],
      [
        "▁tab",
        -9.791583141471154
      ],
      [
        "▁elles",
        -9.791958955622404
      ],
      [
        "▁parc",
        -9.792030860598553
      ],
      [
        "▁hu",
        -9.792346829039367
      ],
      [
        "▁destin",
        -9.792500168833447
      ],
      [
        "ène",
        -9.79393011218175
      ],
      [
        "▁jo",
        -9.795635893013161
      ],
      [
        "aux",
        -9.797394669186236
      ],
      [
        "la",
        -9.800585106917795
      ],
      [
        "ch",
        -9.80159883980885
      ],
      [
        "mi",
        -9.801679726334843
      ],
      [
        "mu",
        -9.801682562469914
      ],
      [
        "ŋŋ",
        -9.80300271565648
      ],
      [
        "ngui",
        -9.806693176151905
      ],
      [
        "▁fow",
        -9.808094738772297
      ],
      [
        "▁fenêtre",
        -9.808938415859457
      ],
      [
        "ñax",
        -9.80918719026777
      ],
      [
        "▁Tou",
        -9.80956207310346
      ],
      [
        "▁d'autre",
        -9.809725523661305
      ],
      [
        "▁duma",
        -9.810531156836337
      ],
      [
        "▁maladie",
        -9.810973455468364
      ],
      [
        "▁étranger",
        -9.811182885823923
      ],
      [
        "▁chemin",
        -9.812112995825471
      ],
      [
        "'individu",
        -9.813787233663103
      ],
      [
        "▁colonial",
        -9.814308699213896
      ],
      [
        "▁Jo",
        -9.814623794153192
      ],
      [
        "▁taal",
        -9.816172670465116
      ],
      [
        "▁gardé",
        -9.8204513074719
      ],
      [
        "▁anglais",
        -9.820956421065466
      ],
      [
        "▁ñett",
        -9.822198199558844
      ],
      [
        "▁sago",
        -9.82250841539886
      ],
      [
        "x-ci",
        -9.822963991347603
      ],
      [
        "▁sopp",
        -9.823040612691141
      ],
      [
        "▁co",
        -9.823122982018917
      ],
      [
        "unu",
        -9.823788121733395
      ],
      [
        "▁V",
        -9.824250147738553
      ],
      [
        "▁féex",
        -9.82497885915975
      ],
      [
        "ter",
        -9.82538762240184
      ],
      [
        "▁africaine",
        -9.82568576922431
      ],
      [
        "▁aime",
        -9.827122891815108
      ],
      [
        "▁l'ét",
        -9.82724908326794
      ],
      [
        "▁frapp",
        -9.828854156801404
      ],
      [
        "▁Nko",
        -9.829107424285251
      ],
      [
        "▁askan",
        -9.82980752197318
      ],
      [
        "ngóor",
        -9.83038406237433
      ],
      [
        "▁mbind",
        -9.830729614824202
      ],
      [
        "8",
        -9.830745266795734
      ],
      [
        "▁Wiktoryaa",
        -9.830769281384491
      ],
      [
        "▁auparavant",
        -9.830769281388827
      ],
      [
        "▁dëggëntaan",
        -9.830769281417538
      ],
      [
        "▁petorool",
        -9.830769281444521
      ],
      [
        "▁Mellentaan",
        -9.83076928157185
      ],
      [
        "▁territoire",
        -9.830769284112613
      ],
      [
        "▁dëgg-dëgg",
        -9.830769285697341
      ],
      [
        "▁règle",
        -9.830769292028867
      ],
      [
        "▁officer",
        -9.830769292182449
      ],
      [
        "▁ngëlén",
        -9.83076929831527
      ],
      [
        "▁rideau",
        -9.830769298575332
      ],
      [
        "▁ponkal",
        -9.830769310439585
      ],
      [
        "▁l'époque",
        -9.830769311898583
      ],
      [
        "▁jaxasoo",
        -9.830769314647952
      ],
      [
        "▁ràbb",
        -9.830769316276863
      ],
      [
        "▁chemise",
        -9.830769379318017
      ],
      [
        "▁coiff",
        -9.830769425883775
      ],
      [
        "▁tàmm",
        -9.830769570292874
      ],
      [
        "▁Yaakaar",
        -9.830769824819164
      ],
      [
        "▁caaxaan",
        -9.830769893340024
      ],
      [
        "▁rêvé",
        -9.830769957508144
      ],
      [
        "▁baaraam",
        -9.830770189963664
      ],
      [
        "▁désert",
        -9.830770211293075
      ],
      [
        "▁vingt",
        -9.830770553316864
      ],
      [
        "▁000",
        -9.830770588007445
      ],
      [
        "▁drap",
        -9.830770670977447
      ],
      [
        "▁Waxtaan",
        -9.83077193675402
      ],
      [
        "▁ressens",
        -9.830772590600112
      ],
      [
        "▁visite",
        -9.830772837118081
      ],
      [
        "▁féete",
        -9.830773960271335
      ],
      [
        "▁Africains",
        -9.830774026034616
      ],
      [
        "▁xibaar",
        -9.83077466408531
      ],
      [
        "▁Génn",
        -9.830775408909266
      ],
      [
        "▁d'autrefois",
        -9.830775864050723
      ],
      [
        "▁Lagos",
        -9.830776049803815
      ],
      [
        "▁comport",
        -9.83077902740278
      ],
      [
        "▁contact",
        -9.83078164762118
      ],
      [
        "▁njël",
        -9.83078644322515
      ],
      [
        "▁jékkee-j",
        -9.830787774855027
      ],
      [
        "▁Wolof",
        -9.830788142066673
      ],
      [
        "▁construction",
        -9.830788293171373
      ],
      [
        "▁commun",
        -9.830788851425801
      ],
      [
        "▁vérité",
        -9.83079059969532
      ],
      [
        "▁présent",
        -9.830793992219167
      ],
      [
        "▁égale",
        -9.830795967307044
      ],
      [
        "▁lonet",
        -9.830797583390595
      ],
      [
        "▁domaine",
        -9.83080376018254
      ],
      [
        "▁réalité",
        -9.83080771026538
      ],
      [
        "▁cheveux",
        -9.83080842948672
      ],
      [
        "▁peinture",
        -9.830816092853224
      ],
      [
        "▁jumtukaay",
        -9.83081957581826
      ],
      [
        "▁werante",
        -9.830828097374901
      ],
      [
        "▁début",
        -9.83087140980346
      ],
      [
        "▁léeb",
        -9.830873021250792
      ],
      [
        "▁mbedd",
        -9.830873666311877
      ],
      [
        "▁mbokk",
        -9.83087419998442
      ],
      [
        "▁sotti",
        -9.83089713253314
      ],
      [
        "▁frontière",
        -9.830897251224554
      ],
      [
        "▁cofeel",
        -9.830903263829752
      ],
      [
        "▁Donne",
        -9.830903559443888
      ],
      [
        "▁Port",
        -9.830906071695647
      ],
      [
        "▁j'imagine",
        -9.8309183368209
      ],
      [
        "▁xeex",
        -9.830938037656907
      ],
      [
        "▁jabar",
        -9.83095610334084
      ],
      [
        "▁wéet",
        -9.830985919283897
      ],
      [
        "▁sëkk",
        -9.83099294332532
      ],
      [
        "▁d'esprit",
        -9.831001006923916
      ],
      [
        "▁Ceux-là",
        -9.831002374290152
      ],
      [
        "▁légère",
        -9.831024121174268
      ],
      [
        "existe",
        -9.83107656148468
      ],
      [
        "▁masques",
        -9.831101554143018
      ],
      [
        "▁meňň",
        -9.831191562502454
      ],
      [
        "▁njabootam",
        -9.831210600268346
      ],
      [
        "▁courir",
        -9.831212765171415
      ],
      [
        "▁L'un",
        -9.831255523325519
      ],
      [
        "▁Tugël",
        -9.831299587344647
      ],
      [
        "▁partout",
        -9.83133787907347
      ],
      [
        "▁taamu",
        -9.831344267328424
      ],
      [
        "▁kawas",
        -9.831398572858435
      ],
      [
        "▁seetaan",
        -9.83149063949387
      ],
      [
        "▁gunge",
        -9.83153550359366
      ],
      [
        "▁journée",
        -9.831615030538433
      ],
      [
        "▁malade",
        -9.831649560648835
      ],
      [
        "▁Aro",
        -9.831691437805343
      ],
      [
        "▁certainement",
        -9.831766372330103
      ],
      [
        "▁revenir",
        -9.831768152081635
      ],
      [
        "▁brousse",
        -9.831785518235186
      ],
      [
        "▁tàngaay",
        -9.83197045960864
      ],
      [
        "▁l'aventure",
        -9.83200841241398
      ],
      [
        "▁coucher",
        -9.832015482540589
      ],
      [
        "▁mangé",
        -9.832231070258167
      ],
      [
        "▁connaissent",
        -9.832234486348408
      ],
      [
        "▁néew",
        -9.83238556554577
      ],
      [
        "▁travailleurs",
        -9.832435764689968
      ],
      [
        "▁taw",
        -9.83278884437804
      ],
      [
        "▁amour",
        -9.832852151139457
      ],
      [
        "▁déet",
        -9.833027626822256
      ],
      [
        "▁habitants",
        -9.83303679979616
      ],
      [
        "▁mb",
        -9.833180424172863
      ],
      [
        "▁agsi",
        -9.833180742487158
      ],
      [
        "▁démb",
        -9.833274199390944
      ],
      [
        "▁Obudu",
        -9.833300234733327
      ],
      [
        "▁histoire",
        -9.833301507533836
      ],
      [
        "▁fût",
        -9.833317729346215
      ],
      [
        "▁tolloo",
        -9.833359375871144
      ],
      [
        "▁thé",
        -9.833426695177646
      ],
      [
        "▁soosu",
        -9.833522025947765
      ],
      [
        "▁njiit",
        -9.833591675274322
      ],
      [
        "▁kukk",
        -9.833708176791458
      ],
      [
        "▁juum",
        -9.8337780981235
      ],
      [
        "▁vêtu",
        -9.833939354792799
      ],
      [
        "▁më",
        -9.834045098302362
      ],
      [
        "▁kafe",
        -9.834051751690986
      ],
      [
        "éy",
        -9.83416142324994
      ],
      [
        "▁arrêté",
        -9.83418308554529
      ],
      [
        "▁monter",
        -9.834274267959433
      ],
      [
        "▁juróomi",
        -9.834284946884575
      ],
      [
        "▁tontu",
        -9.8343058765618
      ],
      [
        "▁tata",
        -9.83435241948412
      ],
      [
        "▁yéene",
        -9.834524645951491
      ],
      [
        "▁autre-là",
        -9.83474159357921
      ],
      [
        "▁yéemu",
        -9.834896059149315
      ],
      [
        "▁sanc",
        -9.835074270684816
      ],
      [
        "▁humaine",
        -9.836795152428797
      ],
      [
        "▁Quelque",
        -9.836875444851177
      ],
      [
        "▁dirait",
        -9.83711184342899
      ],
      [
        "▁Kor",
        -9.837429913852933
      ],
      [
        "▁d'eux",
        -9.8375610854187
      ],
      [
        "▁naissance",
        -9.837585159027052
      ],
      [
        "▁doonkoon",
        -9.837742563427657
      ],
      [
        "▁danu",
        -9.83788222387402
      ],
      [
        "▁wor",
        -9.838298801995435
      ],
      [
        "▁jotee",
        -9.83947973620988
      ],
      [
        "▁certaine",
        -9.839676138600158
      ],
      [
        "waan",
        -9.839677534212173
      ],
      [
        "▁jaam",
        -9.841903851130592
      ],
      [
        "▁souffle",
        -9.842189691187048
      ],
      [
        "▁jambes",
        -9.842393234455608
      ],
      [
        "▁jag",
        -9.842461127502935
      ],
      [
        "▁ré",
        -9.842621562139724
      ],
      [
        "▁habit",
        -9.843023673611679
      ],
      [
        "▁dawal",
        -9.843302623857818
      ],
      [
        "▁Mag",
        -9.843839983448873
      ],
      [
        "ok",
        -9.843843645668825
      ],
      [
        "▁rage",
        -9.843874478802237
      ],
      [
        "▁dikk",
        -9.844795205222718
      ],
      [
        "▁reer",
        -9.845491379193545
      ],
      [
        "▁àpp",
        -9.845939256529208
      ],
      [
        "▁xet",
        -9.846828327173844
      ],
      [
        "▁aurais",
        -9.847905697703741
      ],
      [
        "▁tours",
        -9.84877495354841
      ],
      [
        "▁buum",
        -9.849076707848742
      ],
      [
        "lon",
        -9.84955246384461
      ],
      [
        "éel",
        -9.850589540303087
      ],
      [
        "▁habits",
        -9.851150903487685
      ],
      [
        "▁yax",
        -9.851916739445379
      ],
      [
        "▁passer",
        -9.851920479231817
      ],
      [
        "ll",
        -9.852346140972399
      ],
      [
        "▁serais",
        -9.8531627435963
      ],
      [
        "▁fenêtres",
        -9.853203612860256
      ],
      [
        "▁soup",
        -9.853331370720948
      ],
      [
        "▁tiit",
        -9.853566426323495
      ],
      [
        "▁tekki",
        -9.853698719014092
      ],
      [
        "▁amen",
        -9.85407599415887
      ],
      [
        "▁viens",
        -9.854495991827704
      ],
      [
        "▁bes",
        -9.855453316363993
      ],
      [
        "▁visages",
        -9.85712876402214
      ],
      [
        "▁yeew",
        -9.857460983829766
      ],
      [
        "▁Ngi",
        -9.857994285851893
      ],
      [
        "▁coono",
        -9.860699718790544
      ],
      [
        "▁woowu",
        -9.860907386140747
      ],
      [
        "▁souhaite",
        -9.861419052069058
      ],
      [
        "▁ha",
        -9.861955419303195
      ],
      [
        "▁pis",
        -9.862485198467226
      ],
      [
        "▁Ñe",
        -9.862766449523763
      ],
      [
        "▁At",
        -9.862911067278727
      ],
      [
        "▁tànki",
        -9.864181764749052
      ],
      [
        "ici",
        -9.865149747161203
      ],
      [
        "▁dois",
        -9.866745374974512
      ],
      [
        "▁Afrigam",
        -9.869319889780975
      ],
      [
        "▁dinaa",
        -9.870424943933436
      ],
      [
        "pe",
        -9.872249765449007
      ],
      [
        "▁mé",
        -9.872707665113001
      ],
      [
        "▁ñe",
        -9.872773475433183
      ],
      [
        "▁daanu",
        -9.873426251678795
      ],
      [
        "bu",
        -9.876341966144185
      ],
      [
        "▁coups",
        -9.87783015983019
      ],
      [
        "▁Dana",
        -9.880860460642744
      ],
      [
        "▁Dis",
        -9.881619629454878
      ],
      [
        "▁melo",
        -9.882075442020911
      ],
      [
        "▁Yara",
        -9.882323344202513
      ],
      [
        "▁Gan",
        -9.882664864536379
      ],
      [
        "▁surga",
        -9.882718146434181
      ],
      [
        "▁Mar",
        -9.885010229349056
      ],
      [
        "tions",
        -9.885936843709963
      ],
      [
        "▁wàcce",
        -9.888573076763457
      ],
      [
        "▁waxoon",
        -9.889489015446687
      ],
      [
        "▁Bii",
        -9.88977330622012
      ],
      [
        "▁nguur",
        -9.892461734748055
      ],
      [
        "waa",
        -9.892549528045732
      ],
      [
        "▁sain",
        -9.892987631391588
      ],
      [
        "rends",
        -9.893202987131097
      ],
      [
        "▁rivières",
        -9.893257955465721
      ],
      [
        "▁suñ",
        -9.89347271852927
      ],
      [
        "ama",
        -9.894210856662458
      ],
      [
        "▁cherch",
        -9.897421259064036
      ],
      [
        "▁ser",
        -9.898394570159697
      ],
      [
        "hoisi",
        -9.899564802964928
      ],
      [
        "▁lim",
        -9.900051620089437
      ],
      [
        "instant",
        -9.902302739282607
      ],
      [
        "▁jar",
        -9.9068348781491
      ],
      [
        "▁l'avai",
        -9.906902172123493
      ],
      [
        "entiers",
        -9.90709599766377
      ],
      [
        "▁éta",
        -9.907112236840371
      ],
      [
        "▁taxu",
        -9.90895969175176
      ],
      [
        "▁bo",
        -9.9093384531846
      ],
      [
        "laam",
        -9.914001821869652
      ],
      [
        "▁soxna",
        -9.914598051158707
      ],
      [
        "ni",
        -9.918607072122986
      ],
      [
        "ire",
        -9.919410435036948
      ],
      [
        "rie",
        -9.919778517632537
      ],
      [
        "ku",
        -9.921081894200377
      ],
      [
        "▁Vie",
        -9.924384001308571
      ],
      [
        "▁Ka",
        -9.925828183767436
      ],
      [
        "▁quelles",
        -9.926159940504629
      ],
      [
        "eef",
        -9.928622789467394
      ],
      [
        "▁sokolaa",
        -9.933025629125702
      ],
      [
        "ange",
        -9.93454082878662
      ],
      [
        "uni",
        -9.935687310507321
      ],
      [
        "▁dun",
        -9.935720856133006
      ],
      [
        "▁Ar",
        -9.936192455477514
      ],
      [
        "▁individu",
        -9.94361094888238
      ],
      [
        "▁cinq",
        -9.945494543670993
      ],
      [
        "▁dàq",
        -9.946369448723463
      ],
      [
        "▁traverse",
        -9.947553760502426
      ],
      [
        "▁chang",
        -9.948563155956133
      ],
      [
        "our",
        -9.949393392921781
      ],
      [
        "jaa",
        -9.951722604652083
      ],
      [
        "▁Xe",
        -9.951800681504723
      ],
      [
        "▁goog",
        -9.956425286771568
      ],
      [
        "▁ressentir",
        -9.956576270005304
      ],
      [
        "▁nguuru",
        -9.960278679312312
      ],
      [
        "ble",
        -9.960530256395543
      ],
      [
        "nent",
        -9.964855071200592
      ],
      [
        "▁devenu",
        -9.967577315254905
      ],
      [
        "be",
        -9.968818409461328
      ],
      [
        "oir",
        -9.97111917131421
      ],
      [
        "ard",
        -9.97425871684196
      ],
      [
        "▁prêt",
        -9.9754646449147
      ],
      [
        "près",
        -9.975564267738473
      ],
      [
        "▁nak",
        -9.980726506398687
      ],
      [
        "avais",
        -9.981084113638126
      ],
      [
        "▁ressembl",
        -9.981715174530526
      ],
      [
        "▁maître",
        -9.985291291475532
      ],
      [
        "▁utilise",
        -9.986244588942913
      ],
      [
        "▁Abo",
        -9.989679221466988
      ],
      [
        "t-ce",
        -9.989769371903492
      ],
      [
        "▁neex.",
        -9.990483040003507
      ],
      [
        "▁jou",
        -9.993057133754707
      ],
      [
        "qu'un",
        -9.993245509469261
      ],
      [
        "▁couvert",
        -9.99429541467544
      ],
      [
        "▁champ",
        -9.996005322846397
      ],
      [
        "▁ñaa",
        -10.002719367442175
      ],
      [
        "▁ñeme",
        -10.004165724017483
      ],
      [
        "▁cou",
        -10.0041768652291
      ],
      [
        "ver",
        -10.004536114002843
      ],
      [
        "▁voiture",
        -10.00815638543635
      ],
      [
        "ndax",
        -10.00819057120087
      ],
      [
        "▁fit",
        -10.008404901669739
      ],
      [
        "▁bâton",
        -10.009573314053027
      ],
      [
        "▁sauvage",
        -10.01007837423444
      ],
      [
        "mes",
        -10.010523387929751
      ],
      [
        "▁français",
        -10.011526920567148
      ],
      [
        "▁mba",
        -10.013021117514626
      ],
      [
        "▁tee",
        -10.013303316121027
      ],
      [
        "▁d'or",
        -10.01357486799195
      ],
      [
        "▁I",
        -10.014199856347684
      ],
      [
        "vec",
        -10.016381079526473
      ],
      [
        "▁chaud",
        -10.01647487453608
      ],
      [
        "▁Yo",
        -10.018425747118963
      ],
      [
        "wuñu",
        -10.020032469933108
      ],
      [
        "▁fort",
        -10.021984413805853
      ],
      [
        "avez",
        -10.022453179600355
      ],
      [
        "▁jën",
        -10.023228976162734
      ],
      [
        "tation",
        -10.02363285655475
      ],
      [
        "-y",
        -10.024143136334844
      ],
      [
        "▁entendu",
        -10.024685138784127
      ],
      [
        "▁rue",
        -10.02479593832454
      ],
      [
        "aayu",
        -10.0253947970636
      ],
      [
        "▁suiv",
        -10.025671880786023
      ],
      [
        "▁làq",
        -10.025683654139922
      ],
      [
        "▁fey",
        -10.026091487592947
      ],
      [
        "roule",
        -10.026466310804771
      ],
      [
        "cteur",
        -10.026946407721862
      ],
      [
        "▁trou",
        -10.027778278355601
      ],
      [
        "'imagine",
        -10.02844519149483
      ],
      [
        "veille",
        -10.029129303340156
      ],
      [
        "▁trente",
        -10.029367781994923
      ],
      [
        "waale",
        -10.030080202496725
      ],
      [
        "ï",
        -10.030247199316477
      ],
      [
        "0",
        -10.03066802996387
      ],
      [
        "▁douce",
        -10.030759042569418
      ],
      [
        "▁camerounais",
        -10.03076928138449
      ],
      [
        "▁ustensile",
        -10.030769281385785
      ],
      [
        "▁Adekunle",
        -10.030769281386332
      ],
      [
        "▁Georgetown",
        -10.030769281387506
      ],
      [
        "▁Sefiriis",
        -10.030769281389706
      ],
      [
        "▁bûcheron",
        -10.030769281397577
      ],
      [
        "▁njàqare",
        -10.030769281415225
      ],
      [
        "”",
        -10.030769281424428
      ],
      [
        "Ç",
        -10.030769281424428
      ],
      [
        "▁Southampton",
        -10.030769281424428
      ],
      [
        "▁calebasse",
        -10.030769281460932
      ],
      [
        "▁biafrais",
        -10.03076928198681
      ],
      [
        "▁Abaakaliki",
        -10.030769284225855
      ],
      [
        "▁termitières",
        -10.030769284906672
      ],
      [
        "▁Biafra",
        -10.030769285357088
      ],
      [
        "▁après-midi",
        -10.030769287339306
      ],
      [
        "▁allemande",
        -10.030769299240886
      ],
      [
        "▁Yoruba",
        -10.030769304857904
      ],
      [
        "▁“",
        -10.030769315317475
      ],
      [
        "▁mosquée",
        -10.030769331522603
      ],
      [
        "▁Anglais",
        -10.030769336973421
      ],
      [
        "▁grand-père",
        -10.03076934199093
      ],
      [
        "▁Cross",
        -10.030769372387589
      ],
      [
        "▁alkol",
        -10.030769386627876
      ],
      [
        "▁photographi",
        -10.030769392370884
      ],
      [
        "▁tronc",
        -10.030769423745022
      ],
      [
        "'occupa",
        -10.030769472565046
      ],
      [
        "▁pantalon",
        -10.03076951088068
      ],
      [
        "angoisse",
        -10.030769610768544
      ],
      [
        "▁besoin",
        -10.030769675827564
      ],
      [
        "▁chacun",
        -10.030769802303812
      ],
      [
        "▁veulent",
        -10.030769835500204
      ],
      [
        "▁kalaate",
        -10.030770168183079
      ],
      [
        "▁adulte",
        -10.03077065288143
      ],
      [
        "▁L'enfant",
        -10.03077070378017
      ],
      [
        "▁Sorstaawun",
        -10.030771311334755
      ],
      [
        "▁zinc",
        -10.030771497646956
      ],
      [
        "▁Moontin",
        -10.03077294433049
      ],
      [
        "▁terrible",
        -10.030772954725975
      ],
      [
        "▁probable",
        -10.030772971368567
      ],
      [
        "▁chaussures",
        -10.030773340741
      ],
      [
        "▁gentil",
        -10.03077340871784
      ],
      [
        "▁assiette",
        -10.030773793542238
      ],
      [
        "▁métier",
        -10.030774056881844
      ],
      [
        "▁rejoindre",
        -10.030774358721896
      ],
      [
        "▁branche",
        -10.030775502652846
      ],
      [
        "▁collines",
        -10.030776009524347
      ],
      [
        "▁xaaju",
        -10.030776056243203
      ],
      [
        "▁d'arbres",
        -10.030777205743506
      ],
      [
        "▁service",
        -10.030777426466972
      ],
      [
        "▁Aiya",
        -10.030777476769025
      ],
      [
        "▁compris",
        -10.030779633170319
      ],
      [
        "▁poussière",
        -10.030779695009873
      ],
      [
        "▁ndànk",
        -10.030781390741087
      ],
      [
        "▁douche",
        -10.03078330282899
      ],
      [
        "▁ndóol",
        -10.030783826231179
      ],
      [
        "▁fecc",
        -10.0307840000337
      ],
      [
        "▁fetal",
        -10.030789009301136
      ],
      [
        "▁brûlure",
        -10.030790010914307
      ],
      [
        "▁bërëb",
        -10.030790463817933
      ],
      [
        "▁yàlla",
        -10.03079195462426
      ],
      [
        "▁karaw",
        -10.030792356573064
      ],
      [
        "▁retraite",
        -10.030794928928726
      ],
      [
        "▁nàññ",
        -10.030797364932045
      ],
      [
        "▁continent",
        -10.030798605068938
      ],
      [
        "▁taaru",
        -10.030799171595358
      ],
      [
        "▁fauve",
        -10.03079944176352
      ],
      [
        "▁Guddi",
        -10.030800709066757
      ],
      [
        "▁gànnaay",
        -10.030800730460518
      ],
      [
        "▁resté",
        -10.030801501842554
      ],
      [
        "▁apporté",
        -10.030809102884628
      ],
      [
        "▁noyyi",
        -10.030809144578612
      ],
      [
        "▁doxantu",
        -10.03081266159991
      ],
      [
        "▁rares",
        -10.0308168239736
      ],
      [
        "▁palaat",
        -10.030818065983855
      ],
      [
        "▁ëmb",
        -10.030826931179172
      ],
      [
        "▁j'étais",
        -10.030833573284163
      ],
      [
        "▁ondul",
        -10.030844957992285
      ],
      [
        "▁Qu'est-ce",
        -10.030865698841973
      ],
      [
        "▁pince",
        -10.03088001098364
      ],
      [
        "▁soppiku",
        -10.030891893890757
      ],
      [
        "▁mbégte",
        -10.030899764511165
      ],
      [
        "▁connaissais",
        -10.030902127766094
      ],
      [
        "▁taille",
        -10.0309030627907
      ],
      [
        "nore",
        -10.03093922727251
      ],
      [
        "▁gox",
        -10.030943178693706
      ],
      [
        "▁làquji",
        -10.03095072477176
      ],
      [
        "▁delsi",
        -10.03095468016968
      ],
      [
        "▁envoyée",
        -10.03097411469481
      ],
      [
        "▁avance",
        -10.030979224394185
      ],
      [
        "▁ndab",
        -10.031025708621142
      ],
      [
        "▁awsa",
        -10.031027663850887
      ],
      [
        "▁fitna",
        -10.0310367919693
      ],
      [
        "▁l'argent",
        -10.031039021918907
      ],
      [
        "▁oncle",
        -10.031047596753393
      ],
      [
        "▁juddu",
        -10.031056835067254
      ],
      [
        "science",
        -10.031064671886906
      ],
      [
        "▁courage",
        -10.031154554218856
      ],
      [
        "▁Pourtant",
        -10.03116996214326
      ],
      [
        "▁cercl",
        -10.031196213853502
      ],
      [
        "▁yàpp",
        -10.031233309409195
      ],
      [
        "▁simis",
        -10.03124991211609
      ],
      [
        "egarde",
        -10.031259932920964
      ],
      [
        "▁raxas",
        -10.03128391749395
      ],
      [
        "▁sàcc",
        -10.031406218913041
      ],
      [
        "-tiir",
        -10.031407992079888
      ],
      [
        "▁dékku",
        -10.031521864168754
      ],
      [
        "▁ŋgoogule",
        -10.031571532812018
      ],
      [
        "▁lui-même",
        -10.031577319114419
      ],
      [
        "▁rire",
        -10.031620403114038
      ],
      [
        "▁gàddaay",
        -10.031646173485669
      ],
      [
        "▁hutte",
        -10.031675081634301
      ],
      [
        "▁puj",
        -10.031743285796
      ],
      [
        "▁jàppukaay",
        -10.031887762086463
      ],
      [
        "▁assez",
        -10.03199283166933
      ],
      [
        "▁brave",
        -10.032025558229583
      ],
      [
        "▁Ñooñu",
        -10.03209333739344
      ],
      [
        "▁exemple",
        -10.032103263931567
      ],
      [
        "▁J'en",
        -10.032146729743513
      ],
      [
        "▁parole",
        -10.032154320071996
      ],
      [
        "▁somme",
        -10.032183409883592
      ],
      [
        "▁Aw",
        -10.032222787676083
      ],
      [
        "▁xur",
        -10.03228863098969
      ],
      [
        "▁wér",
        -10.032304976295084
      ],
      [
        "▁vivant",
        -10.032317808232918
      ],
      [
        "▁Ver",
        -10.032613176648848
      ],
      [
        "▁précédé",
        -10.032620001290198
      ],
      [
        "▁be",
        -10.032691992309257
      ],
      [
        "▁cacher",
        -10.032880546354491
      ],
      [
        "▁jouer",
        -10.033011614612958
      ],
      [
        "▁voulu",
        -10.03304303566865
      ],
      [
        "▁sensation",
        -10.033140887962356
      ],
      [
        "▁volets",
        -10.033163271180628
      ],
      [
        "▁comprends",
        -10.033214684955423
      ],
      [
        "▁vide",
        -10.033376842108947
      ],
      [
        "▁melax",
        -10.03344154731983
      ],
      [
        "▁fortune",
        -10.033583414734569
      ],
      [
        "▁doomi-",
        -10.03373701945609
      ],
      [
        "▁rappelle",
        -10.033939964068612
      ],
      [
        "▁jaaxa",
        -10.033940289539455
      ],
      [
        "▁ñaxtu",
        -10.033951413545775
      ],
      [
        "▁njort",
        -10.033955090268243
      ],
      [
        "▁tawat",
        -10.034116765586838
      ],
      [
        "▁kookee",
        -10.034184415017469
      ],
      [
        "▁Fo",
        -10.034392495229634
      ],
      [
        "▁Garab",
        -10.034438992234534
      ],
      [
        "▁daaneel",
        -10.034622982804313
      ],
      [
        "▁jooy",
        -10.034724610994708
      ],
      [
        "▁màgge",
        -10.034804770677367
      ],
      [
        "▁wóolu",
        -10.034829376876418
      ],
      [
        "▁hamacs",
        -10.035107909755542
      ],
      [
        "▁sombre",
        -10.035523728843426
      ],
      [
        "▁rive",
        -10.035813406166618
      ],
      [
        "▁doomam",
        -10.03609467421832
      ],
      [
        "▁entouré",
        -10.036383401691143
      ],
      [
        "▁nijaay",
        -10.036450931658703
      ],
      [
        "▁(ce",
        -10.036774776539279
      ],
      [
        "▁couch",
        -10.037182123520578
      ],
      [
        "▁ňi",
        -10.037446730248801
      ],
      [
        "▁làqu",
        -10.037849061341065
      ],
      [
        "▁éclat",
        -10.038346726314511
      ],
      [
        "▁wetam",
        -10.038363564886511
      ],
      [
        "▁naaxi",
        -10.038443248095877
      ],
      [
        "▁pareil",
        -10.038445311586695
      ],
      [
        "▁nouvelles",
        -10.038684093178823
      ],
      [
        "▁dàtt",
        -10.038739360500442
      ],
      [
        "abond",
        -10.038755308209357
      ],
      [
        "▁mesure",
        -10.039919791665454
      ],
      [
        "▁pluie",
        -10.03999517287706
      ],
      [
        "▁joge",
        -10.040073538960641
      ],
      [
        "▁yéeme",
        -10.040283140093404
      ],
      [
        "▁revienne",
        -10.040544237844836
      ],
      [
        "▁entré",
        -10.041261869142646
      ],
      [
        "▁jàkka",
        -10.041547790483063
      ],
      [
        "▁sec",
        -10.04159244506271
      ],
      [
        "▁feeñu",
        -10.04188295868655
      ],
      [
        "▁savoir",
        -10.041979640827034
      ],
      [
        "▁forte",
        -10.04206042041496
      ],
      [
        "▁julli",
        -10.042184060591556
      ],
      [
        "▁étage",
        -10.042323324968056
      ],
      [
        "▁bula",
        -10.042467634001119
      ],
      [
        "▁daawul",
        -10.042629438261205
      ],
      [
        "▁xaritam",
        -10.042684975654302
      ],
      [
        "celle",
        -10.043398676529952
      ],
      [
        "▁militaires",
        -10.04379706494989
      ],
      [
        "▁met",
        -10.043980444513746
      ],
      [
        "fippu",
        -10.04404297233879
      ],
      [
        "▁mënut",
        -10.044150974590401
      ],
      [
        "gé",
        -10.044912049707689
      ],
      [
        "▁bancs",
        -10.045928565983285
      ],
      [
        "kóon",
        -10.046475317671504
      ],
      [
        "▁marcher",
        -10.046566170080066
      ],
      [
        "ières",
        -10.046849016609972
      ],
      [
        "▁h",
        -10.048015283218117
      ],
      [
        "▁yëgaat",
        -10.04919323160197
      ],
      [
        "habitude",
        -10.04940933421156
      ],
      [
        "▁lire",
        -10.049802516662012
      ],
      [
        "▁troupeau",
        -10.049876016736032
      ],
      [
        "andis",
        -10.051281754768826
      ],
      [
        "▁Bum",
        -10.051564571475613
      ],
      [
        "▁devenus",
        -10.051738804153002
      ],
      [
        "▁Xare",
        -10.051785217956766
      ],
      [
        "▁guyy",
        -10.052168080736884
      ],
      [
        "ati-",
        -10.052937998121676
      ],
      [
        "▁saf",
        -10.05395048502545
      ],
      [
        "▁retourne",
        -10.054154954962558
      ],
      [
        "▁pans",
        -10.05448366183018
      ],
      [
        "isme",
        -10.056369754230424
      ],
      [
        "▁croi",
        -10.056906119301102
      ],
      [
        "▁xew",
        -10.057452246672561
      ],
      [
        "▁ceci",
        -10.057625491450974
      ],
      [
        "▁seetu",
        -10.057704687409203
      ],
      [
        "▁Men",
        -10.058303796594295
      ],
      [
        "▁tir",
        -10.059472349515332
      ],
      [
        "▁kam",
        -10.059838006590619
      ],
      [
        "▁x",
        -10.060451107761283
      ],
      [
        "▁nus",
        -10.062131249084816
      ],
      [
        "ry",
        -10.062463765139622
      ],
      [
        "▁dur",
        -10.063562219480135
      ],
      [
        "▁mënee",
        -10.063664624490059
      ],
      [
        "▁këru",
        -10.064399125376598
      ],
      [
        "▁charge",
        -10.064624844941386
      ],
      [
        "▁scorpions",
        -10.064802187241792
      ],
      [
        "▁kookuu",
        -10.065893118153024
      ],
      [
        "▁dëkkoon",
        -10.066677998183582
      ],
      [
        "▁pré",
        -10.067381414499446
      ],
      [
        "▁impression",
        -10.070026220753393
      ],
      [
        "▁tour",
        -10.070783569411967
      ],
      [
        "▁four",
        -10.071562804602419
      ],
      [
        "ndait",
        -10.07242764414731
      ],
      [
        "êtes",
        -10.07257540731855
      ],
      [
        "▁livres",
        -10.072785538180801
      ],
      [
        "▁laine",
        -10.073235128510275
      ],
      [
        "▁tiis",
        -10.07344952286719
      ],
      [
        "atoo",
        -10.074909682102016
      ],
      [
        "▁connaiss",
        -10.075643864739316
      ],
      [
        "▁maîtres",
        -10.07840739112188
      ],
      [
        "▁désir",
        -10.078913228117672
      ],
      [
        "▁àtte",
        -10.079903681568235
      ],
      [
        "▁wutal",
        -10.07998970361115
      ],
      [
        "▁prise",
        -10.080415007032729
      ],
      [
        "▁ndo",
        -10.082422535011432
      ],
      [
        "▁alla",
        -10.082455603524267
      ],
      [
        "▁Ŋg",
        -10.084213655520117
      ],
      [
        "elle",
        -10.086532324159903
      ],
      [
        "▁séchée",
        -10.087077999438403
      ],
      [
        "▁grandi",
        -10.087510952466758
      ],
      [
        "sement",
        -10.08855293478343
      ],
      [
        "▁nourri",
        -10.088808589640408
      ],
      [
        "▁sàn",
        -10.091456203018403
      ],
      [
        "'appartien",
        -10.092300953426786
      ],
      [
        "ide",
        -10.09255050258617
      ],
      [
        "hier",
        -10.096624189230791
      ],
      [
        "▁Mii",
        -10.09921789367948
      ],
      [
        "▁niir",
        -10.100105391847185
      ],
      [
        "▁eusse",
        -10.100157539668546
      ],
      [
        "▁Gu",
        -10.100302764693486
      ],
      [
        "▁posée",
        -10.101664600322707
      ],
      [
        "▁mënuma",
        -10.1054942583077
      ],
      [
        "hôpital",
        -10.106484875765737
      ],
      [
        "▁fowu",
        -10.106532842293142
      ],
      [
        "▁Ceux-",
        -10.10682732364081
      ],
      [
        "▁ven",
        -10.107513405793744
      ],
      [
        "▁aar",
        -10.108130164500603
      ],
      [
        "aal",
        -10.108590424912677
      ],
      [
        "sant",
        -10.109868947997029
      ],
      [
        "▁jooja",
        -10.110507728139186
      ],
      [
        "ru",
        -10.110930946415973
      ],
      [
        "daa",
        -10.111046889822521
      ],
      [
        "ñii",
        -10.111779082434863
      ],
      [
        "u-",
        -10.111799056963536
      ],
      [
        "niki",
        -10.11330663323041
      ],
      [
        "▁sou",
        -10.1144650342002
      ],
      [
        "▁fur",
        -10.116385037567122
      ],
      [
        "son",
        -10.117754635761075
      ],
      [
        "▁ti",
        -10.117785153687844
      ],
      [
        "▁kë",
        -10.118678648017076
      ],
      [
        "▁vari",
        -10.118885712749968
      ],
      [
        "lée",
        -10.11904336383467
      ],
      [
        "lo",
        -10.119694994641605
      ],
      [
        "▁seuls",
        -10.119840799551893
      ],
      [
        "asi",
        -10.120436459526571
      ],
      [
        "tam",
        -10.125094102858212
      ],
      [
        "▁wiy",
        -10.126120538981532
      ],
      [
        "▁sañ",
        -10.126163360024496
      ],
      [
        "toon",
        -10.126665906313326
      ],
      [
        "lé",
        -10.12684727509715
      ],
      [
        "oindre",
        -10.127659150259209
      ],
      [
        "rit",
        -10.132113484404698
      ],
      [
        "gal",
        -10.132200076856384
      ],
      [
        "eelu",
        -10.133562288191525
      ],
      [
        "▁Leur",
        -10.134133151378785
      ],
      [
        "▁Sor",
        -10.134889873581926
      ],
      [
        "▁deey",
        -10.135267239986494
      ],
      [
        "▁sokolaa.",
        -10.139065099408556
      ],
      [
        "ailles",
        -10.140613086549576
      ],
      [
        "▁Celui-",
        -10.142199875571244
      ],
      [
        "▁Def",
        -10.142691544165876
      ],
      [
        "▁waxe",
        -10.143922515619767
      ],
      [
        "▁Daŋg",
        -10.146984276671246
      ],
      [
        "t-il",
        -10.14757786400708
      ],
      [
        "▁yàq",
        -10.148587799960785
      ],
      [
        "▁suffi",
        -10.148667402557667
      ],
      [
        "ër",
        -10.149886980407405
      ],
      [
        "ages",
        -10.1533407288585
      ],
      [
        "ka",
        -10.15476061142572
      ],
      [
        "▁plan",
        -10.156636723722483
      ],
      [
        "'orage",
        -10.15699861873044
      ],
      [
        "▁dan",
        -10.158381792571944
      ],
      [
        "ace",
        -10.159350929161377
      ],
      [
        "▁chocolat.",
        -10.16085063582618
      ],
      [
        "▁sau",
        -10.162242893904153
      ],
      [
        "▁dugal",
        -10.165381877122604
      ],
      [
        "▁outil",
        -10.165985720142576
      ],
      [
        "enti",
        -10.16802454023741
      ],
      [
        "▁chambres",
        -10.171226703495078
      ],
      [
        "▁enfant-",
        -10.173992751704153
      ],
      [
        "▁jàppe",
        -10.174483014814115
      ],
      [
        "▁entend",
        -10.175825741505935
      ],
      [
        "gu",
        -10.17901262353605
      ],
      [
        "▁cent",
        -10.181023669439643
      ],
      [
        "▁pourra",
        -10.18119903051702
      ],
      [
        "nge",
        -10.185766999714174
      ],
      [
        "uits",
        -10.188074195305155
      ],
      [
        "vions",
        -10.188983087494988
      ],
      [
        "▁sonn",
        -10.190865766188763
      ],
      [
        "able",
        -10.193945653575547
      ],
      [
        "▁armé",
        -10.196121290237079
      ],
      [
        "bbe",
        -10.196373286533387
      ],
      [
        "▁wàcc",
        -10.196567327889506
      ],
      [
        "▁pouss",
        -10.204848099077877
      ],
      [
        "óo",
        -10.205239755199074
      ],
      [
        "sin",
        -10.20716464352343
      ],
      [
        "àkk",
        -10.20782686746717
      ],
      [
        "▁coupe",
        -10.208018313544066
      ],
      [
        "ŋga",
        -10.20862873197952
      ],
      [
        "commencer",
        -10.208733366803342
      ],
      [
        "rai",
        -10.20949256639493
      ],
      [
        "▁armée",
        -10.210194743301916
      ],
      [
        "▁jé",
        -10.210574314781503
      ],
      [
        "▁dure",
        -10.212139299286987
      ],
      [
        "▁tegu",
        -10.212336310080259
      ],
      [
        "goom",
        -10.21391181985559
      ],
      [
        "▁venai",
        -10.214942666246735
      ],
      [
        "▁n'as",
        -10.215335602090454
      ],
      [
        "▁Daawu",
        -10.215865288141078
      ],
      [
        "aires",
        -10.216080504318823
      ],
      [
        "▁rajo",
        -10.216885455498286
      ],
      [
        "ëm",
        -10.219620142164887
      ],
      [
        "▁ge",
        -10.220821500465954
      ],
      [
        "▁Leer",
        -10.221606250194851
      ],
      [
        "googule",
        -10.223320740210154
      ],
      [
        "▁mêl",
        -10.22333690457414
      ],
      [
        "▁méng",
        -10.2236725603264
      ],
      [
        "▁pensé",
        -10.224435582453419
      ],
      [
        "▁différent",
        -10.224715540508619
      ],
      [
        "▁donner",
        -10.227142617075158
      ],
      [
        "▁ñaw",
        -10.228799498734817
      ],
      [
        "eau",
        -10.228850823572254
      ],
      [
        "▁qua",
        -10.229919839802797
      ],
      [
        "▁quitte",
        -10.230121093898948
      ],
      [
        "ût",
        -10.230157013454795
      ],
      [
        "▁cont",
        -10.230743652517129
      ],
      [
        "▁tam",
        -10.230753240589548
      ],
      [
        "▁conten",
        -10.231987521351389
      ],
      [
        "▁toj",
        -10.232213111548827
      ],
      [
        "ins",
        -10.235842435652676
      ],
      [
        "▁new",
        -10.236012726694312
      ],
      [
        "▁sub",
        -10.236870386213127
      ],
      [
        "▁décor",
        -10.236870972202324
      ],
      [
        "kke",
        -10.238360509670398
      ],
      [
        "aurais",
        -10.240362834213341
      ],
      [
        "▁arrive",
        -10.241230377937695
      ],
      [
        "▁naň",
        -10.24169710715421
      ],
      [
        "ombre",
        -10.242876237775818
      ],
      [
        "▁fui",
        -10.246020442140445
      ],
      [
        "▁miroir",
        -10.246324125564604
      ],
      [
        "tul",
        -10.247263474775501
      ],
      [
        "▁kà",
        -10.247959624473417
      ],
      [
        "▁nju",
        -10.249675652025836
      ],
      [
        "▁ouvert",
        -10.25016941384196
      ],
      [
        "▁xamu",
        -10.250860969371628
      ],
      [
        "auté",
        -10.251015376175895
      ],
      [
        "▁laissé",
        -10.251202897220931
      ],
      [
        "▁natt",
        -10.252381229028115
      ],
      [
        "▁découvert",
        -10.252760680972152
      ],
      [
        "wi",
        -10.25322214741852
      ],
      [
        "▁faf",
        -10.256296768116071
      ],
      [
        "allaient",
        -10.256814813513218
      ],
      [
        "war",
        -10.256897405495877
      ],
      [
        "▁tête",
        -10.25783511531062
      ],
      [
        "▁sûr",
        -10.257886754862152
      ],
      [
        "ëpp",
        -10.257911994976887
      ],
      [
        "▁ancien",
        -10.25901048456331
      ],
      [
        "▁Se",
        -10.259338352904031
      ],
      [
        "jafe",
        -10.259703129867567
      ],
      [
        "▁d'herbe",
        -10.260112280143426
      ],
      [
        "▁Bul",
        -10.260231277739392
      ],
      [
        "▁tasse",
        -10.260698495354184
      ],
      [
        "con",
        -10.26098319522174
      ],
      [
        "▁em",
        -10.261995255922233
      ],
      [
        "▁chef",
        -10.262469794058385
      ],
      [
        "▁tra",
        -10.262810626023757
      ],
      [
        "'habitude",
        -10.263235250494194
      ],
      [
        "▁yéem",
        -10.263911821396817
      ],
      [
        "nte",
        -10.26466476526488
      ],
      [
        "ille",
        -10.264810853216291
      ],
      [
        "àngi",
        -10.26507800002203
      ],
      [
        "ien",
        -10.265290696801179
      ],
      [
        "ish",
        -10.265696886582353
      ],
      [
        "▁Wa",
        -10.265812213790706
      ],
      [
        "▁d'Ar",
        -10.266271259462888
      ],
      [
        "▁joli",
        -10.267053188603668
      ],
      [
        "▁guerr",
        -10.267136065154302
      ],
      [
        "▁U",
        -10.267211823346983
      ],
      [
        "▁jam",
        -10.267555190155544
      ],
      [
        "▁cré",
        -10.267661198046513
      ],
      [
        "▁bë",
        -10.268628823292763
      ],
      [
        "▁Ko",
        -10.269517546424298
      ],
      [
        "▁Néeg",
        -10.27017798619963
      ],
      [
        "▁golf",
        -10.270530160408203
      ],
      [
        "▁rëbb",
        -10.270610477826448
      ],
      [
        "▁général",
        -10.271018555532414
      ],
      [
        "orts",
        -10.271097012509205
      ],
      [
        "▁teewu",
        -10.271133652988855
      ],
      [
        "uwaay",
        -10.272561895525103
      ],
      [
        "dire",
        -10.273136655825695
      ],
      [
        "▁taax",
        -10.27399017885121
      ],
      [
        "▁rend",
        -10.2741358397828
      ],
      [
        "han",
        -10.274531065232885
      ],
      [
        "ddina",
        -10.274776833673341
      ],
      [
        "▁kàdd",
        -10.27485609355955
      ],
      [
        "▁xii",
        -10.27502839541335
      ],
      [
        "▁indi",
        -10.27564303777894
      ],
      [
        "▁gëm",
        -10.276064602342597
      ],
      [
        "▁Moka",
        -10.276364389009537
      ],
      [
        "mbres",
        -10.27671596547005
      ],
      [
        "sion",
        -10.276932223045048
      ],
      [
        "▁Yen",
        -10.277017049313534
      ],
      [
        "▁Qu'",
        -10.278736770404342
      ],
      [
        "▁accepte",
        -10.279414843589826
      ],
      [
        "▁im",
        -10.279520469546455
      ],
      [
        "cture",
        -10.279866383939483
      ],
      [
        "añse",
        -10.280325035965658
      ],
      [
        "▁xërëm",
        -10.280365267390986
      ],
      [
        "ersonne",
        -10.280411007209615
      ],
      [
        "àww",
        -10.280443676712316
      ],
      [
        "araada",
        -10.280647366202587
      ],
      [
        "3",
        -10.280743967288787
      ],
      [
        "2",
        -10.280762154254411
      ],
      [
        "▁BBC",
        -10.280769281384476
      ],
      [
        "▁l'après-midi",
        -10.28076928138449
      ],
      [
        "▁trapèze",
        -10.280769281384499
      ],
      [
        "▁discipline",
        -10.280769281385462
      ],
      [
        "▁junniy-junni",
        -10.280769281386231
      ],
      [
        "▁Harcourt",
        -10.280769281386672
      ],
      [
        "▁électri",
        -10.280769281395294
      ],
      [
        "▁NGo",
        -10.280769281398037
      ],
      [
        "▁Ahidjo",
        -10.280769281401046
      ],
      [
        "▁caravane",
        -10.280769281407842
      ],
      [
        "▁béjjén",
        -10.280769281417427
      ],
      [
        "…",
        -10.280769281424428
      ],
      [
        "▁dóomu-taal",
        -10.280769281424428
      ],
      [
        "▁yëngatu",
        -10.280769281437738
      ],
      [
        "▁accepté",
        -10.280769281454148
      ],
      [
        "D.O.",
        -10.280769281457863
      ],
      [
        "▁tés-tés",
        -10.28076928150552
      ],
      [
        "▁lorgnons",
        -10.280769281561465
      ],
      [
        "▁ndànk-ndànk",
        -10.280769281697033
      ],
      [
        "▁éprouv",
        -10.280769281768443
      ],
      [
        "▁rajaxe",
        -10.280769281812105
      ],
      [
        "▁retrouve",
        -10.280769281989365
      ],
      [
        "▁1948",
        -10.28076928200524
      ],
      [
        "▁1928",
        -10.280769282250827
      ],
      [
        "▁grâce",
        -10.280769282761925
      ],
      [
        "▁l'extérieur",
        -10.280769283581021
      ],
      [
        "▁Bërëtaañ",
        -10.280769283932493
      ],
      [
        "▁Kalabaar",
        -10.280769286169457
      ],
      [
        "▁sèche",
        -10.28076928790729
      ],
      [
        "▁Bretagne",
        -10.280769287990172
      ],
      [
        "'arachide",
        -10.280769288000702
      ],
      [
        "▁excessive",
        -10.280769288060709
      ],
      [
        "▁proximité",
        -10.280769288888198
      ],
      [
        "▁Europe",
        -10.280769290173286
      ],
      [
        "▁ràññe",
        -10.280769292355629
      ],
      [
        "llemands",
        -10.280769292485314
      ],
      [
        "▁Jeffries",
        -10.280769292637732
      ],
      [
        "▁trésor",
        -10.280769292702649
      ],
      [
        "▁obsession",
        -10.28076929362674
      ],
      [
        "▁saxaaru-géej",
        -10.280769295722443
      ],
      [
        "▁tekk-tekkaaral",
        -10.280769296272128
      ],
      [
        "▁Voyage",
        -10.280769296793753
      ],
      [
        "▁Calabar",
        -10.280769309929973
      ],
      [
        "▁ruisseau",
        -10.28076931012906
      ],
      [
        "▁Ñëw",
        -10.280769312533725
      ],
      [
        "▁officier",
        -10.280769318829424
      ],
      [
        "▁juróom-ň",
        -10.280769345731054
      ],
      [
        "▁sibbiru",
        -10.280769354119531
      ],
      [
        "▁règne",
        -10.280769378309671
      ],
      [
        "▁alentour",
        -10.28076944245854
      ],
      [
        "▁ndanka",
        -10.280769452243698
      ],
      [
        "▁décrit",
        -10.280769493158072
      ],
      [
        "▁bavarda",
        -10.28076952276414
      ],
      [
        "▁disparu",
        -10.280769655730927
      ],
      [
        "▁kilomet",
        -10.28076972867382
      ],
      [
        "▁présence",
        -10.280769743641908
      ],
      [
        "▁tropicale",
        -10.280769766843672
      ],
      [
        "▁fabriqu",
        -10.280769786867056
      ],
      [
        "▁radio",
        -10.280769885148953
      ],
      [
        "▁légende",
        -10.280770021064646
      ],
      [
        "▁cliché",
        -10.280770076760085
      ],
      [
        "▁Chuku",
        -10.280770223102715
      ],
      [
        "▁extraordinaire",
        -10.280770247954221
      ],
      [
        "▁possible",
        -10.28077026280036
      ],
      [
        "▁vieillard",
        -10.28077049012351
      ],
      [
        "▁pénétr",
        -10.280770597563276
      ],
      [
        "▁l'abri",
        -10.280770827662788
      ],
      [
        "▁répond",
        -10.280771272289464
      ],
      [
        "▁bakkan",
        -10.28077130118936
      ],
      [
        "▁Birayim",
        -10.28077177395658
      ],
      [
        "▁accroche",
        -10.280771925441726
      ],
      [
        "▁l'hum",
        -10.280772073297081
      ],
      [
        "▁fauteuil",
        -10.280772139404863
      ],
      [
        "▁magasin",
        -10.280773324218028
      ],
      [
        "▁guyaab",
        -10.280773824968053
      ],
      [
        "▁genre",
        -10.280774359242708
      ],
      [
        "▁ëlëk",
        -10.280775568927858
      ],
      [
        "▁terrain",
        -10.280776500521638
      ],
      [
        "▁mbemb",
        -10.28077782713522
      ],
      [
        "▁coow",
        -10.280781987445687
      ],
      [
        "▁gazelle",
        -10.280782942592497
      ],
      [
        "▁l'aube",
        -10.280785213382908
      ],
      [
        "▁imagin",
        -10.280788263521934
      ],
      [
        "▁fonction",
        -10.280789014571926
      ],
      [
        "▁toilettes",
        -10.28078916640009
      ],
      [
        "▁nangoo",
        -10.2807904412103
      ],
      [
        "▁interdit",
        -10.280790949435705
      ],
      [
        "▁sept",
        -10.280791371558205
      ],
      [
        "▁Kipli",
        -10.280793465933789
      ],
      [
        "▁1968",
        -10.280795694081963
      ],
      [
        "▁jërr",
        -10.280795861617602
      ],
      [
        "▁Alfa",
        -10.280796304523413
      ],
      [
        "▁weesu",
        -10.280798177536223
      ],
      [
        "▁Gaynd",
        -10.280800293225022
      ],
      [
        "▁poitrine",
        -10.280801420599005
      ],
      [
        "▁fanweer",
        -10.280802317525506
      ],
      [
        "▁ràpp",
        -10.280802905315321
      ],
      [
        "▁dëll",
        -10.280805951826
      ],
      [
        "▁moyen",
        -10.280810307609894
      ],
      [
        "▁firndeel",
        -10.280812039300594
      ],
      [
        "00",
        -10.280812518599182
      ],
      [
        "▁xayma",
        -10.280812941794618
      ],
      [
        "▁Confi",
        -10.280812955111681
      ],
      [
        "▁effect",
        -10.280820823523058
      ],
      [
        "▁conduis",
        -10.28082268427608
      ],
      [
        "▁séq",
        -10.280826768821017
      ],
      [
        "▁soxal",
        -10.280828695129745
      ],
      [
        "▁Agsil",
        -10.280829523340888
      ],
      [
        "▁meetar",
        -10.280829794225943
      ],
      [
        "▁revenu",
        -10.280830723568863
      ],
      [
        "▁bënn",
        -10.280831384681848
      ],
      [
        "▁caract",
        -10.28083702667817
      ],
      [
        "▁móobal",
        -10.280837436689001
      ],
      [
        "▁ňàkk",
        -10.28083991050366
      ],
      [
        "▁plats",
        -10.280842947265175
      ],
      [
        "▁maasaloo",
        -10.280848206616124
      ],
      [
        "▁mbindeef",
        -10.280857459871125
      ],
      [
        "▁baobab",
        -10.280860999448572
      ],
      [
        "▁Demuloo",
        -10.280866970219572
      ],
      [
        "▁heureux",
        -10.280867716932454
      ],
      [
        "▁Au-dessus",
        -10.280867812454158
      ],
      [
        "▁naître",
        -10.28089666801913
      ],
      [
        "▁dëppoo",
        -10.280900892422856
      ],
      [
        "▁daŋar",
        -10.280901290185252
      ],
      [
        "▁bãŋ",
        -10.28090466819003
      ],
      [
        "▁way-",
        -10.280905855993112
      ],
      [
        "▁habituellement",
        -10.280912932995088
      ],
      [
        "▁comprendre",
        -10.28091400088527
      ],
      [
        "▁rapidement",
        -10.280926792211618
      ],
      [
        "▁flamme",
        -10.280927084262357
      ],
      [
        "▁perdre",
        -10.280927655844557
      ],
      [
        "▁foudre",
        -10.280928995048964
      ],
      [
        "▁peine",
        -10.280931398737694
      ],
      [
        "▁lentement",
        -10.280936479108185
      ],
      [
        "▁verra",
        -10.28094916744058
      ],
      [
        "▁s'installe",
        -10.280955268792328
      ],
      [
        "▁fureur",
        -10.280961288559592
      ],
      [
        "▁lëmm",
        -10.280961338245225
      ],
      [
        "▁maintenant",
        -10.28099771493603
      ],
      [
        "▁capable",
        -10.281023014593822
      ],
      [
        "▁Dieu",
        -10.281025698813885
      ],
      [
        "▁tubay",
        -10.281027913072936
      ],
      [
        "▁Mbam",
        -10.281052025375555
      ],
      [
        "▁pension",
        -10.281063215273878
      ],
      [
        "▁gosse",
        -10.281073158020734
      ],
      [
        "▁pegg",
        -10.281084121937395
      ],
      [
        "▁màtt",
        -10.28110489545443
      ],
      [
        "▁Combi",
        -10.281105401210343
      ],
      [
        "▁commencé",
        -10.281152550795971
      ],
      [
        "▁simila",
        -10.281160405611267
      ],
      [
        "▁fièvre",
        -10.281175482056
      ],
      [
        "▁install",
        -10.281187314240098
      ],
      [
        "▁bruit",
        -10.28120397146389
      ],
      [
        "▁taq",
        -10.281208413200293
      ],
      [
        "▁Ñaar",
        -10.281214150530396
      ],
      [
        "▁contraire",
        -10.28121899293922
      ],
      [
        "▁causé",
        -10.28123198751102
      ],
      [
        "▁prière",
        -10.28124188958515
      ],
      [
        "▁serré",
        -10.28126874660748
      ],
      [
        "▁soxor",
        -10.28127518105672
      ],
      [
        "▁xaj",
        -10.281292841869893
      ],
      [
        "▁Banyo",
        -10.281295324411808
      ],
      [
        "▁gëléem",
        -10.28129552268603
      ],
      [
        "▁Looloo",
        -10.281362634380619
      ],
      [
        "▁frappions",
        -10.281363550132333
      ],
      [
        "▁caisse",
        -10.281446840692096
      ],
      [
        "▁l'indépendance",
        -10.28145119192112
      ],
      [
        "▁voudrait",
        -10.281494762737873
      ],
      [
        "▁woowa",
        -10.281509307213597
      ],
      [
        "▁Bateri",
        -10.28150996665759
      ],
      [
        "▁absent",
        -10.281550571646875
      ],
      [
        "▁Joor",
        -10.281553410292895
      ],
      [
        "▁Ho",
        -10.281561683728047
      ],
      [
        "▁oublier",
        -10.281659881816566
      ],
      [
        "▁miirloo",
        -10.281698034742192
      ],
      [
        "▁sooke",
        -10.281701246729703
      ],
      [
        "▁yemale",
        -10.281720891834548
      ],
      [
        "▁Bamako",
        -10.281828511124267
      ],
      [
        "▁rose",
        -10.281833680242016
      ],
      [
        "▁aigu",
        -10.28183558586802
      ],
      [
        "▁Dégg",
        -10.281882005268512
      ],
      [
        "▁d'eau",
        -10.281938616221034
      ],
      [
        "itié",
        -10.281944641686493
      ],
      [
        "▁portale",
        -10.281963627918287
      ],
      [
        "▁meññ",
        -10.28196684950973
      ],
      [
        "▁échappé",
        -10.282027429426583
      ],
      [
        "-réew",
        -10.282032451213869
      ],
      [
        "▁marqué",
        -10.282075674139557
      ],
      [
        "▁tuuru",
        -10.282085992386975
      ],
      [
        "▁jaa",
        -10.282098000202899
      ],
      [
        "▁raconté",
        -10.282312499485423
      ],
      [
        "▁prendre",
        -10.28235815378614
      ],
      [
        "▁Xaw",
        -10.282378284411786
      ],
      [
        "▁bég",
        -10.28240980853423
      ],
      [
        "▁poudre",
        -10.28241282569594
      ],
      [
        "▁d'entre",
        -10.282433040760738
      ],
      [
        "▁fen",
        -10.282434958449443
      ],
      [
        "▁élevé",
        -10.282524173297647
      ],
      [
        "▁remis",
        -10.28263711752005
      ],
      [
        "pace",
        -10.282665364658616
      ],
      [
        "-lu",
        -10.282688388332197
      ],
      [
        "▁càkk",
        -10.282798989756436
      ],
      [
        "▁Tann",
        -10.282826679746393
      ],
      [
        "▁d'habitude",
        -10.28288796833942
      ],
      [
        "▁charme",
        -10.282900761417864
      ],
      [
        "▁n'importe",
        -10.282922060633634
      ],
      [
        "▁surveill",
        -10.282959211747679
      ],
      [
        "roya",
        -10.282962818891143
      ],
      [
        "▁brûlant",
        -10.282967709323898
      ],
      [
        "▁kookale",
        -10.28297376521032
      ],
      [
        "▁muraille",
        -10.283108293959708
      ],
      [
        "▁dikkul",
        -10.28314971153031
      ],
      [
        "▁dijj",
        -10.283153568280786
      ],
      [
        "▁pétrole",
        -10.283221610071323
      ],
      [
        "▁Mbir",
        -10.283266787653636
      ],
      [
        "▁qu'en",
        -10.283341567452354
      ],
      [
        "▁móol",
        -10.2834251464528
      ],
      [
        "▁panier",
        -10.28343673961709
      ],
      [
        "▁ràkkaaju",
        -10.283440223480001
      ],
      [
        "▁Demkoon",
        -10.283455775032376
      ],
      [
        "▁Demuma",
        -10.283467727669175
      ],
      [
        "▁penku",
        -10.283565402422996
      ],
      [
        "▁léeg",
        -10.283667238334814
      ],
      [
        "▁ensuite",
        -10.283802120726326
      ],
      [
        "▁soirée",
        -10.283905811366585
      ],
      [
        "▁sœurs",
        -10.283962187601613
      ],
      [
        "▁juges",
        -10.283974819735379
      ],
      [
        "erig",
        -10.284010606008433
      ],
      [
        "▁cultive",
        -10.284026160379701
      ],
      [
        "▁déci",
        -10.284066709287076
      ],
      [
        "▁tëgg",
        -10.284070556715802
      ],
      [
        "empire",
        -10.28423265968556
      ],
      [
        "▁yeggee",
        -10.284277139927868
      ],
      [
        "▁exerc",
        -10.284374720844648
      ],
      [
        "rass",
        -10.284566726908912
      ],
      [
        "ulëer",
        -10.284567896411815
      ],
      [
        "-der",
        -10.284810165300799
      ],
      [
        "▁weg",
        -10.284824683117524
      ],
      [
        "▁sàmm",
        -10.284939285360261
      ],
      [
        "▁matinée",
        -10.284979408807068
      ],
      [
        "▁Mokaa",
        -10.285195339081744
      ],
      [
        "▁jog",
        -10.285285654389428
      ],
      [
        "▁peint",
        -10.285506157388957
      ],
      [
        "tiens",
        -10.285597692612784
      ],
      [
        "▁néegu-",
        -10.285645074426723
      ],
      [
        "▁dég",
        -10.285789428503051
      ],
      [
        "▁kaki",
        -10.285833136489943
      ],
      [
        "▁sell",
        -10.285857488363064
      ],
      [
        "▁tëwa",
        -10.285892141026121
      ],
      [
        "▁corde",
        -10.285913050719484
      ],
      [
        "cousu",
        -10.286101547549498
      ],
      [
        "▁wàll",
        -10.286159527391959
      ],
      [
        "óoy",
        -10.28628005640158
      ],
      [
        "▁xobi",
        -10.286403961332237
      ],
      [
        "▁you",
        -10.286414739263893
      ],
      [
        "▁accepter",
        -10.286457867930553
      ],
      [
        "▁joow",
        -10.28647468116074
      ],
      [
        "▁puur",
        -10.286715665190542
      ],
      [
        "▁rendu",
        -10.28697532794707
      ],
      [
        "▁tub",
        -10.28700765876401
      ],
      [
        "▁tente",
        -10.287017273547804
      ],
      [
        "▁tàngal",
        -10.28725550061215
      ],
      [
        "▁dress",
        -10.287317056567318
      ],
      [
        "-tuut",
        -10.28752957669275
      ],
      [
        "▁fermée",
        -10.287554235991472
      ],
      [
        "▁libre",
        -10.287784531264363
      ],
      [
        "▁ñaaw",
        -10.287940295319682
      ],
      [
        "▁way-juram",
        -10.288137804689118
      ],
      [
        "▁cri",
        -10.288139514693565
      ],
      [
        "▁Nun",
        -10.288183271625368
      ],
      [
        "▁yor",
        -10.288210309566027
      ],
      [
        "▁étrange",
        -10.288223055795564
      ],
      [
        "boo",
        -10.288596781830272
      ],
      [
        "▁Amin",
        -10.288748707304915
      ],
      [
        "▁waaxu",
        -10.288886054265108
      ],
      [
        "▁marque",
        -10.289499643301511
      ],
      [
        "▁coupé",
        -10.290065395068506
      ],
      [
        "▁gës",
        -10.290137708458202
      ],
      [
        "▁xa",
        -10.290193907208645
      ],
      [
        "▁mbooloo",
        -10.290856716738553
      ],
      [
        "▁xer",
        -10.290868736604125
      ],
      [
        "▁sommet",
        -10.29107718014562
      ],
      [
        "▁battu",
        -10.29119653606979
      ],
      [
        "▁oreilles",
        -10.291595617626232
      ],
      [
        "▁kilomètres",
        -10.291602315609312
      ],
      [
        "▁fruits",
        -10.291613051959793
      ],
      [
        "▁kooka",
        -10.29205133723204
      ],
      [
        "▁rëbbi",
        -10.292126604861789
      ],
      [
        "▁Éta",
        -10.292418133018234
      ],
      [
        "▁demain",
        -10.292445405949316
      ],
      [
        "fal",
        -10.29258949051128
      ],
      [
        "▁ver",
        -10.292735797155832
      ],
      [
        "▁dundam",
        -10.293159180436772
      ],
      [
        "▁kayit",
        -10.293297007690471
      ],
      [
        "mmeel",
        -10.293551183941771
      ],
      [
        "▁d'enfants",
        -10.293779586954642
      ],
      [
        "▁xóot",
        -10.293831169629113
      ],
      [
        "▁faax",
        -10.294256475232816
      ],
      [
        "▁lenn",
        -10.294260754548041
      ],
      [
        "▁naŋg",
        -10.294269186629437
      ],
      [
        "bët",
        -10.294462694677662
      ],
      [
        "'avez",
        -10.294667794687665
      ],
      [
        "▁jàppoon",
        -10.294905679000811
      ],
      [
        "▁pierres",
        -10.295168725885361
      ],
      [
        "▁secondes",
        -10.295168746783416
      ],
      [
        "▁roo",
        -10.295176444606017
      ],
      [
        "▁vagues",
        -10.295368718504143
      ],
      [
        "▁Foof",
        -10.29541826160984
      ],
      [
        "▁ger",
        -10.295493641872575
      ],
      [
        "▁manque",
        -10.29626344058844
      ],
      [
        "▁l'est",
        -10.296301542334028
      ],
      [
        "emelle",
        -10.296335339036888
      ],
      [
        "▁idée",
        -10.296503277702012
      ],
      [
        "▁Dañu",
        -10.296655893110126
      ],
      [
        "▁guis",
        -10.297163241214527
      ],
      [
        "▁jeux",
        -10.297333652728813
      ],
      [
        "▁fameuse",
        -10.297896871929458
      ],
      [
        "▁sembl",
        -10.298221172521176
      ],
      [
        "▁diine",
        -10.298590118905906
      ],
      [
        "▁créé",
        -10.298871147111022
      ],
      [
        "▁pé",
        -10.298968815474328
      ],
      [
        "▁baň",
        -10.29912482011986
      ],
      [
        "▁Aka",
        -10.299274789597385
      ],
      [
        "▁sipp",
        -10.299658031716426
      ],
      [
        "gante",
        -10.299881306554425
      ],
      [
        "▁construi",
        -10.300076429984397
      ],
      [
        "obul",
        -10.301569641378139
      ],
      [
        "ément",
        -10.301696236762794
      ],
      [
        "▁diggu",
        -10.301769905298858
      ],
      [
        "▁muus",
        -10.302418767866227
      ],
      [
        "àll",
        -10.302708149752618
      ],
      [
        "▁auto",
        -10.302728333556596
      ],
      [
        "mo",
        -10.30318759823665
      ],
      [
        "ar.",
        -10.304337323300725
      ],
      [
        "▁grise",
        -10.304793321922652
      ],
      [
        "▁yóbb",
        -10.304947884520267
      ],
      [
        "▁Nag",
        -10.305005704792302
      ],
      [
        "▁n'ira",
        -10.309250919916465
      ],
      [
        "▁demuñu",
        -10.309534386795747
      ],
      [
        "▁découverte",
        -10.309582551628367
      ],
      [
        "oroom",
        -10.309978315817743
      ],
      [
        "▁anciens",
        -10.310105772483382
      ],
      [
        "▁partent",
        -10.310655109628982
      ],
      [
        "▁gale",
        -10.31106887671511
      ],
      [
        "à-",
        -10.311339568694557
      ],
      [
        "'exerce",
        -10.311567842623088
      ],
      [
        "▁Aa",
        -10.312217243257514
      ],
      [
        "▁diir",
        -10.312461325520816
      ],
      [
        "tal",
        -10.312517356699999
      ],
      [
        "▁maladies",
        -10.312564575936447
      ],
      [
        "▁toogoon",
        -10.312781309634675
      ],
      [
        "▁ouverte",
        -10.312786920857068
      ],
      [
        "▁bàn",
        -10.313524256279356
      ],
      [
        "tin",
        -10.315151481841388
      ],
      [
        "▁sépar",
        -10.315535504311015
      ],
      [
        "▁Ro",
        -10.316691204615012
      ],
      [
        "ëtt",
        -10.318185231466684
      ],
      [
        "▁Xo",
        -10.319317455830962
      ],
      [
        "▁Nee",
        -10.319378285189812
      ],
      [
        "▁jafee",
        -10.319997855467717
      ],
      [
        "▁mur",
        -10.320214141223818
      ],
      [
        "▁ras",
        -10.32036012910004
      ],
      [
        "▁cr",
        -10.321978728001227
      ],
      [
        "co",
        -10.32202394526096
      ],
      [
        "ju",
        -10.322307125913499
      ],
      [
        "▁waxi",
        -10.322741792954417
      ],
      [
        "▁sib",
        -10.323139222795918
      ],
      [
        "▁instants",
        -10.323445684787083
      ],
      [
        "▁voyai",
        -10.323696477994641
      ],
      [
        "▁dootu",
        -10.324399244997606
      ],
      [
        "▁fum",
        -10.32458578618818
      ],
      [
        "▁cat",
        -10.324957980212538
      ],
      [
        "▁Car",
        -10.326290638091768
      ],
      [
        "▁dessiné",
        -10.326721145991758
      ],
      [
        "▁Kakaa",
        -10.326848372842687
      ],
      [
        "▁mbal",
        -10.326887147361816
      ],
      [
        "ois",
        -10.32745950273582
      ],
      [
        "▁rob",
        -10.328277851476193
      ],
      [
        "▁wi.",
        -10.328744868284742
      ],
      [
        "ňu",
        -10.32893855684375
      ],
      [
        "▁Dina",
        -10.329956735427706
      ],
      [
        "aak",
        -10.332335155003738
      ],
      [
        "▁ker",
        -10.332378403580535
      ],
      [
        "lal",
        -10.333043539458743
      ],
      [
        "elu",
        -10.334234722052447
      ],
      [
        "▁haute",
        -10.335006749171217
      ],
      [
        "▁chameau",
        -10.335217649262674
      ],
      [
        "▁répu",
        -10.335711104633049
      ],
      [
        "▁Doon",
        -10.337239483549254
      ],
      [
        "▁nd",
        -10.337514335513232
      ],
      [
        "ddi",
        -10.339195218844468
      ],
      [
        "▁yare",
        -10.3404229948941
      ],
      [
        "▁méngale",
        -10.341618228757408
      ],
      [
        "▁jë",
        -10.342201234212187
      ],
      [
        "innaaw",
        -10.34315883004065
      ],
      [
        "ston",
        -10.343340941861147
      ],
      [
        "▁arriv",
        -10.343577727156642
      ],
      [
        "▁dig",
        -10.344521940927972
      ],
      [
        "▁tableau",
        -10.34709647861138
      ],
      [
        "▁Lui",
        -10.347991719848554
      ],
      [
        "▁char",
        -10.348018775449631
      ],
      [
        "oire",
        -10.34811800373937
      ],
      [
        "▁pri",
        -10.349025934496703
      ],
      [
        "ards",
        -10.350458831996791
      ],
      [
        "▁sot",
        -10.350800310399439
      ],
      [
        "▁Mari",
        -10.350873608185754
      ],
      [
        "▁devenue",
        -10.352004593082686
      ],
      [
        "▁ch",
        -10.352335392894393
      ],
      [
        "▁cas",
        -10.352597147823037
      ],
      [
        "▁vol",
        -10.352914034033782
      ],
      [
        "laay",
        -10.353510252871269
      ],
      [
        "▁àndal",
        -10.354618062196373
      ],
      [
        "añe",
        -10.357193810724516
      ],
      [
        "-même",
        -10.361194149568828
      ],
      [
        "alement",
        -10.361466390350525
      ],
      [
        "stique",
        -10.364357361180952
      ],
      [
        "▁cartes",
        -10.366059947404432
      ],
      [
        "▁rouges",
        -10.366760435632155
      ],
      [
        "▁filles",
        -10.367068432810115
      ],
      [
        "▁jigéen.",
        -10.3700889718635
      ],
      [
        "▁aventure",
        -10.370623003168449
      ],
      [
        "▁kot",
        -10.370983017524036
      ],
      [
        "ations",
        -10.372351960943446
      ],
      [
        "▁n'aurai",
        -10.373010544207647
      ],
      [
        "▁médecine",
        -10.373890529458826
      ],
      [
        "▁accompagne",
        -10.374452250835859
      ],
      [
        "fi",
        -10.374498500332475
      ],
      [
        "deux",
        -10.375744460219892
      ],
      [
        "▁xamoon",
        -10.375911367931085
      ],
      [
        "▁voici",
        -10.377559266373183
      ],
      [
        "▁leçon",
        -10.377826255771204
      ],
      [
        "▁int",
        -10.380833792395576
      ],
      [
        "▁jógee",
        -10.382035814450235
      ],
      [
        "ah",
        -10.382650497557465
      ],
      [
        "faites",
        -10.383138993917328
      ],
      [
        "▁xat",
        -10.384317831954855
      ],
      [
        "▁ri",
        -10.38487763182071
      ],
      [
        "▁att",
        -10.389148423558986
      ],
      [
        "banaan",
        -10.392525781455262
      ],
      [
        "▁Gisu",
        -10.393135893121363
      ],
      [
        "stice",
        -10.394010088128272
      ],
      [
        "▁dunde",
        -10.394326282037154
      ],
      [
        "▁continu",
        -10.395184578459165
      ],
      [
        "noo",
        -10.398095982405936
      ],
      [
        "ouille",
        -10.399596748540878
      ],
      [
        "▁seri",
        -10.400310619073469
      ],
      [
        "▁dos",
        -10.40249146430595
      ],
      [
        "rgent",
        -10.402629835469408
      ],
      [
        "▁demb",
        -10.402991563057578
      ],
      [
        "▁conti",
        -10.40431724630545
      ],
      [
        "▁ndeysaan.",
        -10.404744895842772
      ],
      [
        "▁njàmba",
        -10.405375220030287
      ],
      [
        "▁her",
        -10.407946684174053
      ],
      [
        "prè",
        -10.40961276124381
      ],
      [
        "▁ňa",
        -10.410583033369317
      ],
      [
        "-kow",
        -10.410739044084302
      ],
      [
        "aises",
        -10.41291564911436
      ],
      [
        "nie",
        -10.422197345097455
      ],
      [
        "écu",
        -10.422298876876738
      ],
      [
        "ekte",
        -10.423005449362291
      ],
      [
        "▁tama",
        -10.423908663488753
      ],
      [
        "▁liggéeye",
        -10.424796487581645
      ],
      [
        "oor",
        -10.425713490260806
      ],
      [
        "▁touch",
        -10.426508957761035
      ],
      [
        "▁form",
        -10.426580661249508
      ],
      [
        "▁jëmm",
        -10.426637613663209
      ],
      [
        "fu",
        -10.428664369590804
      ],
      [
        "ole",
        -10.429062714640564
      ],
      [
        "▁fini",
        -10.42930571244831
      ],
      [
        "▁con",
        -10.43033917384307
      ],
      [
        "igne",
        -10.430776792396125
      ],
      [
        "été",
        -10.430792545284794
      ],
      [
        "▁nuits",
        -10.430974083798617
      ],
      [
        "ga",
        -10.431204351517788
      ],
      [
        "▁yàqu",
        -10.433400131540298
      ],
      [
        "▁l'inst",
        -10.436330627143807
      ],
      [
        "▁yemu",
        -10.441599435670094
      ],
      [
        "ttes",
        -10.441765910868407
      ],
      [
        "▁l'on",
        -10.442673243330557
      ],
      [
        "entre",
        -10.443304640320877
      ],
      [
        "▁sida",
        -10.444841975390888
      ],
      [
        "▁Gi",
        -10.446174815359825
      ],
      [
        "▁chi",
        -10.448343399758166
      ],
      [
        "▁tus",
        -10.450134131242615
      ],
      [
        "▁racont",
        -10.45136662512702
      ],
      [
        "rète",
        -10.451418158936509
      ],
      [
        "▁ñee",
        -10.452772576010164
      ],
      [
        "▁l'in",
        -10.45383654306711
      ],
      [
        "▁allai",
        -10.45485211299679
      ],
      [
        "ève",
        -10.456717304293226
      ],
      [
        "▁m'",
        -10.457100269426158
      ],
      [
        "ee.",
        -10.458824686635207
      ],
      [
        "▁soul",
        -10.46111999821933
      ],
      [
        "▁pli",
        -10.46238557687456
      ],
      [
        "▁danañ",
        -10.46475020231391
      ],
      [
        "▁rec",
        -10.465976340068966
      ],
      [
        "▁anim",
        -10.46632111484254
      ],
      [
        "ère.",
        -10.467532994319289
      ],
      [
        "▁quitt",
        -10.469906864075122
      ],
      [
        "po",
        -10.473272544835233
      ],
      [
        "aloon",
        -10.474101150456246
      ],
      [
        "▁nag.",
        -10.474712291367066
      ],
      [
        "▁teqal",
        -10.477150838797453
      ],
      [
        "i-",
        -10.479304055408939
      ],
      [
        "▁ño",
        -10.480874766114153
      ],
      [
        "alal",
        -10.482232023926631
      ],
      [
        "koo",
        -10.482864099167307
      ],
      [
        "ŋgeen",
        -10.48349072787282
      ],
      [
        "▁lë",
        -10.484861697744702
      ],
      [
        "eem",
        -10.486075110659892
      ],
      [
        "▁kas",
        -10.4862576940532
      ],
      [
        "▁mënoo",
        -10.487477387719414
      ],
      [
        "▁mont",
        -10.487824434802956
      ],
      [
        "▁màng",
        -10.48929980499834
      ],
      [
        "▁Ng",
        -10.489865647916618
      ],
      [
        "▁Certain",
        -10.491445066224864
      ],
      [
        "▁yatt",
        -10.49186001959031
      ],
      [
        "kkal",
        -10.492148485410583
      ],
      [
        "the",
        -10.494815622653137
      ],
      [
        "▁cor",
        -10.494879065498003
      ],
      [
        "mb",
        -10.495151024989049
      ],
      [
        "▁Toog",
        -10.497533346584998
      ],
      [
        "▁bale",
        -10.498794618425288
      ],
      [
        "▁yaroo",
        -10.50488383908945
      ],
      [
        "▁nà",
        -10.506341288666201
      ],
      [
        "trait",
        -10.50763448674245
      ],
      [
        "bal",
        -10.507924945888654
      ],
      [
        "ro",
        -10.511026776903725
      ],
      [
        "▁boot",
        -10.511610938118213
      ],
      [
        "▁wal",
        -10.512490093382912
      ],
      [
        "▁tomb",
        -10.515498861320257
      ],
      [
        "▁moomee",
        -10.515859192419931
      ],
      [
        "cher",
        -10.516199798961713
      ],
      [
        "ssant",
        -10.516700334630452
      ],
      [
        "ivre",
        -10.520366221338447
      ],
      [
        "▁envahi",
        -10.521232665299358
      ],
      [
        "stitué",
[...]
