{
  "version": "1.0",
  "truncation": null,
  "padding": null,
  "added_tokens": [
    {
      "id": 0,
      "content": "<cls>",
      "single_word": false,
      "lstrip": false,
      "rstrip": false,
      "normalized": false,
      "special": true
    },
    {
      "id": 1,
      "content": "<sep>",
      "single_word": false,
      "lstrip": false,
      "rstrip": false,
      "normalized": false,
      "special": true
    },
    {
      "id": 2,
      "content": "<unk>",
      "single_word": false,
      "lstrip": false,
      "rstrip": false,
      "normalized": false,
      "special": true
    },
    {
      "id": 3,
      "content": "<pad>",
      "single_word": false,
      "lstrip": false,
      "rstrip": false,
      "normalized": false,
      "special": true
    },
    {
      "id": 4,
      "content": "<mask>",
      "single_word": false,
      "lstrip": false,
      "rstrip": false,
      "normalized": false,
      "special": true
    },
    {
      "id": 5,
      "content": "<s>",
      "single_word": false,
      "lstrip": false,
      "rstrip": false,
      "normalized": false,
      "special": true
    },
    {
      "id": 6,
      "content": "</s>",
      "single_word": false,
      "lstrip": false,
      "rstrip": false,
      "normalized": false,
      "special": true
    }
  ],
  "normalizer": {
    "type": "Replace",
    "pattern": {
      "String": " {2,}"
    },
    "content": " "
  },
  "pre_tokenizer": {
    "type": "Metaspace",
    "replacement": "▁",
    "add_prefix_space": true
  },
  "post_processor": null,
  "decoder": {
    "type": "Metaspace",
    "replacement": "▁",
    "add_prefix_space": true
  },
  "model": {
    "type": "Unigram",
    "unk_id": 2,
    "vocab": [
      [
        "<cls>",
        0.0
      ],
      [
        "<sep>",
        0.0
      ],
      [
        "<unk>",
        0.0
      ],
      [
        "<pad>",
        0.0
      ],
      [
        "<mask>",
        0.0
      ],
      [
        "<s>",
        0.0
      ],
      [
        "</s>",
        0.0
      ],
      [
        ",",
        -2.7949709463909276
      ],
      [
        "▁",
        -3.211895564405604
      ],
      [
        ".",
        -3.4997897593488707
      ],
      [
        "▁de",
        -4.00740096685527
      ],
      [
        "s",
        -4.023195490603371
      ],
      [
        "▁la",
        -4.216032253104305
      ],
      [
        "e",
        -4.480183204275669
      ],
      [
        "y",
        -4.535792456788459
      ],
      [
        "▁ci",
        -4.559349502777706
      ],
      [
        "i",
        -4.729901951628817
      ],
      [
        "▁a",
        -4.926205283614945
      ],
      [
        "u",
        -4.982522906068784
      ],
      [
        "▁les",
        -5.07166836671314
      ],
      [
        "▁à",
        -5.116299586305245
      ],
      [
        "▁ma",
        -5.141242848027804
      ],
      [
        "a",
        -5.15471411948294
      ],
      [
        "▁ni",
        -5.160466599949576
      ],
      [
        "▁des",
        -5.172065893498248
      ],
      [
        "▁mu",
        -5.2053650810469145
      ],
      [
        "▁le",
        -5.236550832781663
      ],
      [
        "▁et",
        -5.263088027583811
      ],
      [
        "▁du",
        -5.309181483275142
      ],
      [
        "▁ba",
        -5.33082045985641
      ],
      [
        "▁ko",
        -5.334924335382678
      ],
      [
        "ak",
        -5.377521880853452
      ],
      [
        "t",
        -5.379863163956509
      ],
      [
        "▁di",
        -5.417762909203999
      ],
      [
        "▁bi",
        -5.576226677677958
      ],
      [
        "▁dans",
        -5.602500606197892
      ],
      [
        "▁qui",
        -5.627784018336368
      ],
      [
        "▁yi",
        -5.66090593124697
      ],
      [
        "▁ñu",
        -5.675358489127018
      ],
      [
        "▁yu",
        -5.698513153252469
      ],
      [
        "▁en",
        -5.707888912201536
      ],
      [
        "▁un",
        -5.756011827665281
      ],
      [
        "▁que",
        -5.767456288192527
      ],
      [
        "▁bu",
        -5.796304201175549
      ],
      [
        "▁ne",
        -5.8040079545050585
      ],
      [
        "r",
        -5.825797143884299
      ],
      [
        "▁na",
        -5.844543193030017
      ],
      [
        "l",
        -5.862153068872762
      ],
      [
        "▁seen",
        -5.903468930926123
      ],
      [
        "▁sama",
        -5.904988465510162
      ],
      [
        "▁fa",
        -5.908561176980975
      ],
      [
        "▁daan",
        -5.984461094117828
      ],
      [
        "n",
        -5.994490849256488
      ],
      [
        ":",
        -6.018847136160995
      ],
      [
        "▁pour",
        -6.045382075333733
      ],
      [
        "▁woon",
        -6.059154076258688
      ],
      [
        "▁ca",
        -6.08956953695808
      ],
      [
        "▁au",
        -6.096702664303511
      ],
      [
        "▁lu",
        -6.120062167342035
      ],
      [
        "une",
        -6.1335985825068455
      ],
      [
        "▁son",
        -6.14305633676798
      ],
      [
        "▁mon",
        -6.1466253590286
      ],
      [
        "c",
        -6.153762196384942
      ],
      [
        "k",
        -6.156029678588596
      ],
      [
        "▁par",
        -6.166260162996159
      ],
      [
        "ent",
        -6.167511481485212
      ],
      [
        "▁pas",
        -6.168723715793354
      ],
      [
        "▁te",
        -6.168848197936917
      ],
      [
        "▁père",
        -6.176542103056953
      ],
      [
        "▁doon",
        -6.19023703446352
      ],
      [
        "▁sa",
        -6.197413290638181
      ],
      [
        "▁Baay",
        -6.202926784216151
      ],
      [
        "▁ngi",
        -6.206375655373253
      ],
      [
        "▁l'",
        -6.241941303681622
      ],
      [
        "et",
        -6.242960595150483
      ],
      [
        "oon",
        -6.2490530104734425
      ],
      [
        "er",
        -6.265313863414628
      ],
      [
        "▁Afrig",
        -6.296443381773929
      ],
      [
        "▁leen",
        -6.296979814906282
      ],
      [
        "▁sur",
        -6.302090763077696
      ],
      [
        "▁je",
        -6.314978786835887
      ],
      [
        "▁gi",
        -6.316736024174477
      ],
      [
        "é",
        -6.3329508553259535
      ],
      [
        "ait",
        -6.343021377981026
      ],
      [
        "am",
        -6.3618143746508675
      ],
      [
        "▁il",
        -6.418370455191847
      ],
      [
        "▁c",
        -6.420527795980164
      ],
      [
        "es",
        -6.430844902592084
      ],
      [
        "▁qu'il",
        -6.443488598158292
      ],
      [
        "m",
        -6.46857110029023
      ],
      [
        "▁sax",
        -6.476921344446382
      ],
      [
        "▁?",
        -6.49692208016059
      ],
      [
        "«",
        -6.518338873188955
      ],
      [
        "▁Il",
        -6.531031853984696
      ],
      [
        "▁d",
        -6.536476439116382
      ],
      [
        "▁nu",
        -6.548395356871877
      ],
      [
        "▁ave",
        -6.553102778830643
      ],
      [
        "▁ya",
        -6.557967899917682
      ],
      [
        "▁ay",
        -6.5664523444794245
      ],
      [
        "g",
        -6.589919732285443
      ],
      [
        "▁Le",
        -6.591157822735116
      ],
      [
        "▁»",
        -6.595363262114342
      ],
      [
        "▁mi",
        -6.5982560818261025
      ],
      [
        "▁se",
        -6.6056006765537525
      ],
      [
        "▁ce",
        -6.610768193999819
      ],
      [
        "à",
        -6.6288316981426485
      ],
      [
        "▁où",
        -6.629969793582258
      ],
      [
        "▁su",
        -6.634470850715284
      ],
      [
        "▁d'un",
        -6.653998866153442
      ],
      [
        "que",
        -6.677020676812482
      ],
      [
        "▁nous",
        -6.6873109453137625
      ],
      [
        "al",
        -6.689042163590184
      ],
      [
        "▁mel",
        -6.696623361528777
      ],
      [
        "▁li",
        -6.697866570281254
      ],
      [
        "b",
        -6.70064953495863
      ],
      [
        "▁est",
        -6.7162989917851466
      ],
      [
        "▁nga",
        -6.738936292704608
      ],
      [
        "▁plus",
        -6.744838480840902
      ],
      [
        "nt",
        -6.751296023203239
      ],
      [
        "▁avait",
        -6.753284974724379
      ],
      [
        "-",
        -6.778494001263724
      ],
      [
        "▁moo",
        -6.7927832727070845
      ],
      [
        "▁naa",
        -6.797203761752076
      ],
      [
        "▁am",
        -6.798405981100811
      ],
      [
        "ul",
        -6.818724483028834
      ],
      [
        "▁s",
        -6.831638146779158
      ],
      [
        "les",
        -6.831847298917786
      ],
      [
        "▁si",
        -6.843997469917055
      ],
      [
        "it",
        -6.853213215044813
      ],
      [
        "▁moom",
        -6.854610679148046
      ],
      [
        "▁l",
        -6.8700444410957155
      ],
      [
        "▁benn",
        -6.87385141771613
      ],
      [
        "▁dem",
        -6.875765165574909
      ],
      [
        "d",
        -6.899790452461809
      ],
      [
        "ment",
        -6.9102924119929785
      ],
      [
        "▁lui",
        -6.916593506025793
      ],
      [
        "▁may",
        -6.916629452840183
      ],
      [
        "▁comme",
        -6.9359964208693885
      ],
      [
        "ee",
        -6.941759132265784
      ],
      [
        "ette",
        -6.942447756348076
      ],
      [
        "▁mère",
        -6.9428772137704335
      ],
      [
        "▁dal",
        -6.949015632663978
      ],
      [
        "▁gu",
        -6.952185583353087
      ],
      [
        "▁nekk",
        -6.985044464354533
      ],
      [
        "▁d'",
        -6.986519664531577
      ],
      [
        "▁ku",
        -7.009563369599669
      ],
      [
        "▁–",
        -7.009739689738758
      ],
      [
        "▁ju",
        -7.014298276105952
      ],
      [
        "le",
        -7.0217801819418835
      ],
      [
        "▁xam",
        -7.026571536971496
      ],
      [
        "▁def",
        -7.0289688622059225
      ],
      [
        "▁me",
        -7.0302942130611825
      ],
      [
        "▁kenn",
        -7.038556459622554
      ],
      [
        "▁Ma",
        -7.040601388234065
      ],
      [
        "ant",
        -7.041051485273216
      ],
      [
        "▁n",
        -7.051419531451267
      ],
      [
        "▁m",
        -7.0540069824088905
      ],
      [
        "▁mbaa",
        -7.057622954113174
      ],
      [
        "▁san",
        -7.0615001748710045
      ],
      [
        "oo",
        -7.064872055525468
      ],
      [
        "leurs",
        -7.076680657998572
      ],
      [
        "▁tout",
        -7.109529832144589
      ],
      [
        "di",
        -7.111550717958354
      ],
      [
        "▁gën",
        -7.115390623763051
      ],
      [
        "▁mën",
        -7.119155392090081
      ],
      [
        "'est",
        -7.123798187188834
      ],
      [
        "▁pays",
        -7.12949786571675
      ],
      [
        "ñ",
        -7.134238598518658
      ],
      [
        "▁même",
        -7.136669445005759
      ],
      [
        "▁rekk",
        -7.137662566846258
      ],
      [
        "▁ces",
        -7.138159444254412
      ],
      [
        "▁wax",
        -7.139854081837548
      ],
      [
        "▁dara",
        -7.141483000872132
      ],
      [
        "▁La",
        -7.146156179437642
      ],
      [
        "▁nag",
        -7.148719276981278
      ],
      [
        "x",
        -7.176190185714997
      ],
      [
        "▁dëkk",
        -7.176799377406309
      ],
      [
        "▁gis",
        -7.179358878524353
      ],
      [
        "is",
        -7.18174118853273
      ],
      [
        "▁enfants",
        -7.200173462300693
      ],
      [
        "▁war",
        -7.2166073027665245
      ],
      [
        "▁Je",
        -7.219818984631365
      ],
      [
        "aient",
        -7.222940289154774
      ],
      [
        "▁fu",
        -7.223636394555757
      ],
      [
        "▁D",
        -7.224491215800855
      ],
      [
        "▁lépp",
        -7.229684718780181
      ],
      [
        "▁était",
        -7.230798590366896
      ],
      [
        "▁nit",
        -7.234694799650331
      ],
      [
        "▁N",
        -7.236054836210947
      ],
      [
        "ils",
        -7.236338193785072
      ],
      [
        "re",
        -7.246172796542872
      ],
      [
        "ont",
        -7.251422539199197
      ],
      [
        "▁guerre",
        -7.251524632016765
      ],
      [
        "▁vie",
        -7.252641101049647
      ],
      [
        "▁biir",
        -7.252689757822026
      ],
      [
        "▁ou",
        -7.25327057004877
      ],
      [
        "▁b",
        -7.266603622599343
      ],
      [
        "▁yaay",
        -7.27585985446956
      ],
      [
        "o",
        -7.279478284355509
      ],
      [
        "on",
        -7.280183665376075
      ],
      [
        "ses",
        -7.2921756289947695
      ],
      [
        "▁loolu",
        -7.299025929241559
      ],
      [
        "▁Ci",
        -7.29983139498099
      ],
      [
        "▁yi.",
        -7.314226996982841
      ],
      [
        "▁sunu",
        -7.314700653194954
      ],
      [
        "▁ñaar",
        -7.3202212946906275
      ],
      [
        "▁aux",
        -7.325472960638278
      ],
      [
        "▁yiy",
        -7.32873942036108
      ],
      [
        "▁bés",
        -7.332152037394704
      ],
      [
        ")",
        -7.334035769844871
      ],
      [
        "▁gone",
        -7.349736653899587
      ],
      [
        "▁Ogosaa",
        -7.349945694284946
      ],
      [
        "▁walla",
        -7.350652870916569
      ],
      [
        "▁temps",
        -7.352334699101283
      ],
      [
        "▁kër",
        -7.356545637320175
      ],
      [
        "▁y",
        -7.356667399107231
      ],
      [
        "▁teg",
        -7.358802888006188
      ],
      [
        "▁Su",
        -7.360526126294977
      ],
      [
        "en",
        -7.377086961141215
      ],
      [
        "▁lool",
        -7.381821986501823
      ],
      [
        "▁yoon",
        -7.386033793151704
      ],
      [
        "▁L",
        -7.401441045183764
      ],
      [
        "ŋ",
        -7.401530355289726
      ],
      [
        "▁t",
        -7.414250045594939
      ],
      [
        "▁Waaye",
        -7.416487819943072
      ],
      [
        "▁xel",
        -7.417724590706415
      ],
      [
        "▁leur",
        -7.419094959934515
      ],
      [
        "▁cela",
        -7.4209560038942755
      ],
      [
        "il",
        -7.42582363765433
      ],
      [
        "▁monde",
        -7.426047628771774
      ],
      [
        "te",
        -7.426059829080408
      ],
      [
        "▁mag",
        -7.429202381778106
      ],
      [
        "▁fekk",
        -7.441657514008519
      ],
      [
        "▁i",
        -7.448181270391716
      ],
      [
        "e.",
        -7.448373115317684
      ],
      [
        "▁Li",
        -7.4547035988605606
      ],
      [
        "▁Tugal",
        -7.463532084899702
      ],
      [
        "▁ñoom",
        -7.471870560055221
      ],
      [
        "ce",
        -7.473305512998494
      ],
      [
        "▁ndax",
        -7.474973340820043
      ],
      [
        "ay",
        -7.481934104690589
      ],
      [
        "▁yaram",
        -7.490471059835581
      ],
      [
        "▁doole",
        -7.4907152221935505
      ],
      [
        "eux",
        -7.509645953747885
      ],
      [
        "▁bopp",
        -7.511703065314688
      ],
      [
        "▁cha",
        -7.51337946548181
      ],
      [
        "▁G",
        -7.514321259853945
      ],
      [
        "▁C",
        -7.521664957850703
      ],
      [
        "▁yëg",
        -7.523627045805952
      ],
      [
        "és",
        -7.524276438623463
      ],
      [
        "▁it",
        -7.526975575496303
      ],
      [
        "▁Mu",
        -7.529196668213808
      ],
      [
        "▁tey",
        -7.5293916685777145
      ],
      [
        "yeek",
        -7.534692538873632
      ],
      [
        "▁S",
        -7.537690481731675
      ],
      [
        "▁jigéen",
        -7.538609135479291
      ],
      [
        "▁p",
        -7.545765848243841
      ],
      [
        "▁réew",
        -7.553823723943701
      ],
      [
        "▁f",
        -7.556591848417648
      ],
      [
        "▁nataal",
        -7.564845482824387
      ],
      [
        "▁maison",
        -7.568078011068678
      ],
      [
        "▁j'a",
        -7.57390631719536
      ],
      [
        "▁(",
        -7.576115451150177
      ],
      [
        "▁amul",
        -7.576512812955421
      ],
      [
        "▁mais",
        -7.579621485610676
      ],
      [
        "▁fi",
        -7.58924553226085
      ],
      [
        "▁jamono",
        -7.591849072018015
      ],
      [
        "ée",
        -7.592422203846404
      ],
      [
        "▁at",
        -7.5926927200714935
      ],
      [
        "▁À",
        -7.597581674490058
      ],
      [
        "▁xare",
        -7.603199534911427
      ],
      [
        "▁Tubaab",
        -7.604061668610755
      ],
      [
        "eek",
        -7.604295080100419
      ],
      [
        "la",
        -7.608130176196572
      ],
      [
        "▁tax",
        -7.613547352155797
      ],
      [
        "▁koo",
        -7.619363961343092
      ],
      [
        "▁baax",
        -7.622172491674302
      ],
      [
        "▁fait",
        -7.628523234949824
      ],
      [
        "▁àddina",
        -7.641171355706035
      ],
      [
        "un",
        -7.645777951440124
      ],
      [
        "▁yooyu",
        -7.64924168154581
      ],
      [
        "▁Te",
        -7.651586222299409
      ],
      [
        "▁saa",
        -7.661359344926723
      ],
      [
        "▁ànd",
        -7.673193205969999
      ],
      [
        "▁daf",
        -7.682667738346527
      ],
      [
        "ngir",
        -7.684117544050572
      ],
      [
        "▁En",
        -7.6849770793346455
      ],
      [
        "▁naan",
        -7.685686743479593
      ],
      [
        "être",
        -7.686909858344128
      ],
      [
        "▁sous",
        -7.689208723512104
      ],
      [
        ";",
        -7.705208001327115
      ],
      [
        "ma",
        -7.705431174525403
      ],
      [
        "▁moi",
        -7.723138039374101
      ],
      [
        "▁ñi",
        -7.733463246925772
      ],
      [
        "▁wër",
        -7.733818424372847
      ],
      [
        "▁suuf",
        -7.738921269478029
      ],
      [
        "▁jamais",
        -7.739041853462676
      ],
      [
        "▁Kamerun",
        -7.739083351322323
      ],
      [
        "▁doute",
        -7.739118928920169
      ],
      [
        "▁corps",
        -7.739129701052033
      ],
      [
        "▁boobu",
        -7.739390446675932
      ],
      [
        "▁c'est",
        -7.746162209725789
      ],
      [
        "▁àll",
        -7.74627722320812
      ],
      [
        "▁A",
        -7.749097543819337
      ],
      [
        "▁dex",
        -7.766745413691274
      ],
      [
        "▁jóge",
        -7.767454912701536
      ],
      [
        "▁léeg-léeg",
        -7.77140965011993
      ],
      [
        "▁Mon",
        -7.772799364127518
      ],
      [
        "▁ji",
        -7.776273719413397
      ],
      [
        "ions",
        -7.791054026347262
      ],
      [
        "▁loxo",
        -7.793996699544653
      ],
      [
        "▁kow",
        -7.796109092162589
      ],
      [
        "▁mbir",
        -7.803014246367193
      ],
      [
        "▁dégg",
        -7.806426571932523
      ],
      [
        "▁ga",
        -7.810094908099076
      ],
      [
        "▁n'",
        -7.8137039221808156
      ],
      [
        "▁jour",
        -7.8219208904900634
      ],
      [
        "▁man",
        -7.822429446794322
      ],
      [
        "tre",
        -7.823745756803817
      ],
      [
        "▁bëgg",
        -7.826314725669682
      ],
      [
        "▁bët",
        -7.826989427994535
      ],
      [
        "▁da",
        -7.829829638442355
      ],
      [
        "▁nañ",
        -7.8303960204813405
      ],
      [
        "▁ja",
        -7.838384346320881
      ],
      [
        "▁loin",
        -7.838855416045007
      ],
      [
        "▁so",
        -7.840595199916348
      ],
      [
        "f",
        -7.843143535918989
      ],
      [
        "de",
        -7.8436711921812385
      ],
      [
        "▁terre",
        -7.851442763312599
      ],
      [
        "▁jusqu'",
        -7.853432346053422
      ],
      [
        "▁mes",
        -7.85648933824066
      ],
      [
        "▁jot",
        -7.862193639924288
      ],
      [
        "▁encore",
        -7.874683704851102
      ],
      [
        "▁boppam",
        -7.876494464643964
      ],
      [
        "▁waay",
        -7.891638131357374
      ],
      [
        "▁faire",
        -7.895355659645373
      ],
      [
        "▁être",
        -7.909982067511068
      ],
      [
        "▁Ce",
        -7.91020364816198
      ],
      [
        "▁c'étai",
        -7.911663213526813
      ],
      [
        "▁l'Afrique",
        -7.9119140616315216
      ],
      [
        "▁Ogoja",
        -7.91646673884743
      ],
      [
        "▁ndaw",
        -7.917365893306562
      ],
      [
        "▁Afrique",
        -7.918346569503962
      ],
      [
        "▁ňu",
        -7.9248022733507195
      ],
      [
        "▁dund",
        -7.926533032247688
      ],
      [
        "▁wi",
        -7.934056347428491
      ],
      [
        "j",
        -7.942004559115759
      ],
      [
        "▁Ñu",
        -7.951954964619711
      ],
      [
        "▁années",
        -7.9548348266247775
      ],
      [
        "▁jëm",
        -7.961816161732594
      ],
      [
        "▁laa",
        -7.963291410268237
      ],
      [
        "▁dont",
        -7.963891322233651
      ],
      [
        "▁wu",
        -7.986938892567915
      ],
      [
        "▁toog",
        -7.987113969721058
      ],
      [
        "▁J",
        -7.988370024505454
      ],
      [
        "▁tamit",
        -7.990194023746319
      ],
      [
        "▁Cameroun",
        -7.990208059651205
      ],
      [
        "▁mas",
        -7.991190530812191
      ],
      [
        "ne",
        -7.993028061350861
      ],
      [
        "▁quelque",
        -7.996218882130085
      ],
      [
        "▁après",
        -7.996324466137212
      ],
      [
        "▁médecin",
        -8.000823897147086
      ],
      [
        "▁avant",
        -8.003952654376867
      ],
      [
        "at",
        -8.005425806447406
      ],
      [
        "▁solo",
        -8.009660119147705
      ],
      [
        "▁n'a",
        -8.01486372702552
      ],
      [
        "▁garab",
        -8.018892516958681
      ],
      [
        "▁M",
        -8.020444338413165
      ],
      [
        "▁ab",
        -8.025662664575988
      ],
      [
        "ation",
        -8.026541516172927
      ],
      [
        "▁Am",
        -8.0271899560805
      ],
      [
        "um",
        -8.030191895358211
      ],
      [
        "▁fàww",
        -8.031478155829937
      ],
      [
        "▁aussi",
        -8.03155835098313
      ],
      [
        "▁France",
        -8.031593449981557
      ],
      [
        "▁doŋŋ",
        -8.031924438526511
      ],
      [
        "▁yépp",
        -8.033022127600466
      ],
      [
        "▁daanaka",
        -8.033180880514507
      ],
      [
        "▁g",
        -8.033853974698271
      ],
      [
        "▁ginnaaw",
        -8.036489236681666
      ],
      [
        "▁Un",
        -8.03806576576171
      ],
      [
        "▁liggéey",
        -8.041434795598981
      ],
      [
        "▁Ni",
        -8.046683889582875
      ],
      [
        "rès",
        -8.058880900340977
      ],
      [
        "▁jaar",
        -8.063356596041274
      ],
      [
        "▁autre",
        -8.065219266635465
      ],
      [
        "▁ñoo",
        -8.06720991546528
      ],
      [
        "▁pouvait",
        -8.069365581602897
      ],
      [
        "été",
        -8.070967953549118
      ],
      [
        "▁deux",
        -8.073059740601895
      ],
      [
        "▁qu'elle",
        -8.07603414040166
      ],
      [
        "ement",
        -8.07894034875688
      ],
      [
        "▁daw",
        -8.079896850741282
      ],
      [
        "▁Du",
        -8.080485675753248
      ],
      [
        "▁lañu",
        -8.081789743779465
      ],
      [
        "▁fois",
        -8.08550791785984
      ],
      [
        "kat",
        -8.087458861324055
      ],
      [
        "▁peu",
        -8.090059146211686
      ],
      [
        "▁bien",
        -8.093841102993796
      ],
      [
        "ni",
        -8.09544381298657
      ],
      [
        "w",
        -8.101032944843753
      ],
      [
        "▁jël",
        -8.10312291438662
      ],
      [
        "ñu",
        -8.108499654177177
      ],
      [
        "▁tou",
        -8.116091716120582
      ],
      [
        "ci",
        -8.118140294534346
      ],
      [
        "▁yaa",
        -8.12099937389559
      ],
      [
        "▁Lu",
        -8.12219973772946
      ],
      [
        "▁dé",
        -8.124002874258021
      ],
      [
        "▁For",
        -8.126708050835546
      ],
      [
        "▁sol",
        -8.128202116918755
      ],
      [
        "▁mer",
        -8.128294006950924
      ],
      [
        "▁De",
        -8.13165663260111
      ],
      [
        "▁metti",
        -8.133867604472988
      ],
      [
        "▁Moo",
        -8.135820740480971
      ],
      [
        "▁nuy",
        -8.136575309984424
      ],
      [
        "▁m'a",
        -8.137636525826212
      ],
      [
        "▁ña",
        -8.147228919715136
      ],
      [
        "▁fàttaliku",
        -8.14725704606009
      ],
      [
        "▁travers",
        -8.147797228177405
      ],
      [
        "tu",
        -8.148707941547217
      ],
      [
        "▁non",
        -8.151579019189361
      ],
      [
        "▁bare",
        -8.153668966121385
      ],
      [
        "▁dañ",
        -8.165912133362609
      ],
      [
        "▁forêt",
        -8.1678568728353
      ],
      [
        "▁Wànte",
        -8.167911950868449
      ],
      [
        "▁yaakaar",
        -8.168247605501586
      ],
      [
        "▁fin",
        -8.169471524792996
      ],
      [
        "▁dëgg",
        -8.170292525057768
      ],
      [
        "▁Niseryaa",
        -8.171481824605998
      ],
      [
        "▁aucun",
        -8.172059504703775
      ],
      [
        "autour",
        -8.172433240443643
      ],
      [
        "▁noonu",
        -8.173689824557808
      ],
      [
        "épp",
        -8.17464890263778
      ],
      [
        "ante",
        -8.174898182649196
      ],
      [
        "▁ko.",
        -8.181242928135754
      ],
      [
        "us",
        -8.18155459852084
      ],
      [
        "▁elle",
        -8.184489156802622
      ],
      [
        "▁neex",
        -8.189088734203004
      ],
      [
        "▁j",
        -8.190577278121433
      ],
      [
        "▁case",
        -8.19608791920119
      ],
      [
        "▁tànk",
        -8.200204312081002
      ],
      [
        "ous",
        -8.20504093428963
      ],
      [
        "▁nuit",
        -8.20815299589141
      ],
      [
        "▁xol",
        -8.208451343413145
      ],
      [
        "ook",
        -8.216946383164693
      ],
      [
        "▁Móris",
        -8.217785798034397
      ],
      [
        "▁xalaat",
        -8.218026681862394
      ],
      [
        "▁lañ",
        -8.219833187050074
      ],
      [
        "▁yàgg",
        -8.222690021499941
      ],
      [
        "▁Bu",
        -8.223828735086448
      ],
      [
        "▁topp",
        -8.224291618111252
      ],
      [
        "▁ñuul",
        -8.225768184045542
      ],
      [
        "▁góor",
        -8.231468326230885
      ],
      [
        "▁gaal",
        -8.234185396930778
      ],
      [
        "▁bord",
        -8.236431894989312
      ],
      [
        "nte",
        -8.238293852609328
      ],
      [
        "▁k",
        -8.241794702064386
      ],
      [
        "▁vers",
        -8.243417180219035
      ],
      [
        "eurs",
        -8.247229669632276
      ],
      [
        "▁rien",
        -8.249067476753625
      ],
      [
        "▁maa",
        -8.252221846341929
      ],
      [
        "▁xale",
        -8.253190633623019
      ],
      [
        "▁route",
        -8.253895603231634
      ],
      [
        "iers",
        -8.254520673911955
      ],
      [
        "▁P",
        -8.256626066830437
      ],
      [
        "▁dóor",
        -8.256651777129305
      ],
      [
        "in",
        -8.258973296204452
      ],
      [
        "'exil",
        -8.264356965734551
      ],
      [
        "▁Nigeria",
        -8.270543524409295
      ],
      [
        "▁grand-mère",
        -8.270648276031611
      ],
      [
        "▁doom-aadama",
        -8.270682340938034
      ],
      [
        "▁souviens",
        -8.270686247236204
      ],
      [
        "▁wéy",
        -8.271354437282
      ],
      [
        "▁Bansoo",
        -8.272302153199412
      ],
      [
        "▁jeex",
        -8.2739125604581
      ],
      [
        "▁xamul",
        -8.273920743998953
      ],
      [
        "▁noppi",
        -8.274372330062548
      ],
      [
        "▁réy",
        -8.275161249152355
      ],
      [
        "▁qu'on",
        -8.275467815155253
      ],
      [
        "▁Sama",
        -8.275621495915866
      ],
      [
        "▁xonq",
        -8.27949191948731
      ],
      [
        "▁génn",
        -8.280786288269205
      ],
      [
        "▁Xam",
        -8.281488964363257
      ],
      [
        "▁guddi",
        -8.281887144404763
      ],
      [
        "▁door",
        -8.28523067575171
      ],
      [
        "▁bout",
        -8.285407188182656
      ],
      [
        "▁maam",
        -8.286754407878847
      ],
      [
        "▁!",
        -8.287880159075934
      ],
      [
        "ais",
        -8.29326255274158
      ],
      [
        "▁jàpp",
        -8.295267009674758
      ],
      [
        "▁puis",
        -8.297161752474647
      ],
      [
        "▁haut",
        -8.299833068229901
      ],
      [
        "▁cet",
        -8.301017634337107
      ],
      [
        "▁rivière",
        -8.30904196927765
      ],
      [
        "▁chose",
        -8.309100063063125
      ],
      [
        "▁village",
        -8.30944143615628
      ],
      [
        "▁femme",
        -8.310188605301395
      ],
      [
        "vaient",
        -8.31098858002674
      ],
      [
        "▁jaay",
        -8.315969928857777
      ],
      [
        "▁néeg",
        -8.316842783899139
      ],
      [
        "▁F",
        -8.317490283056376
      ],
      [
        "ux",
        -8.31876492036671
      ],
      [
        "▁w",
        -8.319540005833545
      ],
      [
        "▁say",
        -8.32268967888733
      ],
      [
        "àddaay",
        -8.32568150370032
      ],
      [
        "▁quan",
        -8.325746709710346
      ],
      [
        "▁Loolu",
        -8.3258469816954
      ],
      [
        "▁soleil",
        -8.325939467676909
      ],
      [
        "▁Àngalteer",
        -8.326076476193808
      ],
      [
        "▁nettali",
        -8.326149625159507
      ],
      [
        "▁ñépp",
        -8.326250356787257
      ],
      [
        "▁njëkk",
        -8.32638815050837
      ],
      [
        "▁Àngale",
        -8.326657878775451
      ],
      [
        "▁jooju",
        -8.327164410169956
      ],
      [
        "▁fourmis",
        -8.327389982277206
      ],
      [
        "tion",
        -8.328913271381769
      ],
      [
        "▁Et",
        -8.329170513819928
      ],
      [
        "▁devant",
        -8.330332073337114
      ],
      [
        "▁va",
        -8.332677399385139
      ],
      [
        "▁murs",
        -8.333000195836211
      ],
      [
        "ax",
        -8.338629819660051
      ],
      [
        "▁faj",
        -8.338647658686646
      ],
      [
        "▁jiit",
        -8.338672829670674
      ],
      [
        "▁itam",
        -8.339192358525318
      ],
      [
        "aan",
        -8.34307409578615
      ],
      [
        "tôt",
        -8.344038904725847
      ],
      [
        "▁fan",
        -8.34588009328861
      ],
      [
        "▁dugg",
        -8.351612919342847
      ],
      [
        "▁dellu",
        -8.352687072738409
      ],
      [
        "▁qu'",
        -8.359522106121613
      ],
      [
        "nu",
        -8.36055742191224
      ],
      [
        "▁jox",
        -8.362189055978439
      ],
      [
        "lu",
        -8.362535181120734
      ],
      [
        "▁passé",
        -8.36572543026734
      ],
      [
        "▁gàtt",
        -8.366595828622959
      ],
      [
        "▁dëkki",
        -8.367031861334556
      ],
      [
        "▁Da",
        -8.368914476385942
      ],
      [
        "té",
        -8.369154235784164
      ],
      [
        "ées",
        -8.373832059362877
      ],
      [
        "▁l'a",
        -8.38154725707997
      ],
      [
        "si",
        -8.382043856189062
      ],
      [
        "▁Banso",
        -8.382459835883937
      ],
      [
        "▁bàyyi",
        -8.383091279690749
      ],
      [
        "▁ans",
        -8.383765536361695
      ],
      [
        "▁taxaw",
        -8.384505329944773
      ],
      [
        "▁tàmbal",
        -8.384634378813857
      ],
      [
        "▁gunóor",
        -8.384694226090737
      ],
      [
        "▁Ndax",
        -8.38522014790924
      ],
      [
        "▁s'",
        -8.385313438486449
      ],
      [
        "▁toit",
        -8.386226368844994
      ],
      [
        "ale",
        -8.390625282375368
      ],
      [
        "▁plaine",
        -8.391736287401825
      ],
      [
        "▁lii",
        -8.39451389688466
      ],
      [
        "▁mujje",
        -8.395512895967366
      ],
      [
        "▁peau",
        -8.395669361561271
      ],
      [
        "▁homme",
        -8.396336109334037
      ],
      [
        "▁no",
        -8.396455966721094
      ],
      [
        "▁W",
        -8.398774801206585
      ],
      [
        "▁sorte",
        -8.39953397896014
      ],
      [
        "▁seul",
        -8.402079419619557
      ],
      [
        "béré",
        -8.406179270893468
      ],
      [
        "▁in",
        -8.407941608150308
      ],
      [
        "-na",
        -8.409218692066231
      ],
      [
        "entre",
        -8.4130445281197
      ],
      [
        "ir",
        -8.418368420229871
      ],
      [
        "▁boo",
        -8.419483188418145
      ],
      [
        "▁regard",
        -8.419915419177379
      ],
      [
        "afa",
        -8.42180620331608
      ],
      [
        "▁tudd",
        -8.425679161843616
      ],
      [
        "▁grande",
        -8.427947126548581
      ],
      [
        "▁voyage",
        -8.428065277422455
      ],
      [
        "▁masu",
        -8.432252713816407
      ],
      [
        "▁Ku",
        -8.433357864398333
      ],
      [
        "▁dox",
        -8.433674074652759
      ],
      [
        "▁enfant",
        -8.434347806147441
      ],
      [
        "▁L'",
        -8.436795825858876
      ],
      [
        "ans",
        -8.439924109770992
      ],
      [
        "▁Bamenda",
        -8.440977364346306
      ],
      [
        "▁Y",
        -8.441730326806837
      ],
      [
        "▁doom",
        -8.443903754428614
      ],
      [
        "▁dañu",
        -8.444275823874007
      ],
      [
        "▁way-jur",
        -8.445599639830014
      ],
      [
        "▁Au",
        -8.446181053922494
      ],
      [
        "▁ñëw",
        -8.446699169224214
      ],
      [
        "▁dunyaa",
        -8.44718035921244
      ],
      [
        "▁l'Ouest",
        -8.44725719287439
      ],
      [
        "▁weex",
        -8.45489776301627
      ],
      [
        "fa",
        -8.456279620052081
      ],
      [
        "▁daal",
        -8.458338721886713
      ],
      [
        "▁ñàkk",
        -8.459608759845818
      ],
      [
        "▁amoon",
        -8.461717360219632
      ],
      [
        "ek",
        -8.465429853124485
      ],
      [
        "uy",
        -8.467188030326376
      ],
      [
        "▁Ay",
        -8.4673022837293
      ],
      [
        "▁femmes",
        -8.473770904073476
      ],
      [
        "▁nun",
        -8.47385286400732
      ],
      [
        "▁mot",
        -8.474145818572405
      ],
      [
        "▁grand",
        -8.476365923085048
      ],
      [
        "▁won",
        -8.486201563122174
      ],
      [
        "loo",
        -8.489614940104207
      ],
      [
        "▁pu",
        -8.493458573761416
      ],
      [
        "▁dina",
        -8.502790503312296
      ],
      [
        "▁ét",
        -8.503237938387848
      ],
      [
        "▁ñ",
        -8.506730707479198
      ],
      [
        "est",
        -8.507623737349792
      ],
      [
        "▁waaj",
        -8.507999482219994
      ],
      [
        "▁ban",
        -8.508723238237609
      ],
      [
        "▁wut",
        -8.510298710608144
      ],
      [
        "elle",
        -8.512918276320622
      ],
      [
        "▁House",
        -8.513526766669433
      ],
      [
        "▁làrme",
        -8.513588988952048
      ],
      [
        "▁violence",
        -8.513718901830744
      ],
      [
        "▁Ca",
        -8.51379748785755
      ],
      [
        "▁doktoor",
        -8.51381377687058
      ],
      [
        "▁jéem",
        -8.513825612775307
      ],
      [
        "▁seetlu",
        -8.514269489850768
      ],
      [
        "▁yaatu",
        -8.516135716805094
      ],
      [
        "▁gént",
        -8.516892094147334
      ],
      [
        "▁Yàlla",
        -8.517354526834005
      ],
      [
        "▁ňaar",
        -8.518319608118732
      ],
      [
        "▁contre",
        -8.51913192991369
      ],
      [
        "▁C'étai",
        -8.521655922678773
      ],
      [
        "▁niroo",
        -8.522677174582999
      ],
      [
        "ri",
        -8.523126573657343
      ],
      [
        "▁Dan",
        -8.523573954845814
      ],
      [
        "▁feebar",
        -8.532015272578825
      ],
      [
        "▁Quan",
        -8.532089274129538
      ],
      [
        "faral",
        -8.533169848782046
      ],
      [
        "▁ciel",
        -8.53342922228669
      ],
      [
        "▁villages",
        -8.534056602194791
      ],
      [
        "▁laaj",
        -8.534132844509145
      ],
      [
        "▁long",
        -8.53592523983168
      ],
      [
        "▁tudde",
        -8.538972419275327
      ],
      [
        "▁ëpp",
        -8.539255701572156
      ],
      [
        "▁yeux",
        -8.542503244981372
      ],
      [
        "uñu",
        -8.542522075134348
      ],
      [
        "▁day",
        -8.544766498251452
      ],
      [
        "▁faa",
        -8.549446925457486
      ],
      [
        "▁nañu",
        -8.549648376697636
      ],
      [
        "▁re",
        -8.549944858105102
      ],
      [
        "▁No",
        -8.55028509899458
      ],
      [
        "▁leer",
        -8.557600194491183
      ],
      [
        "▁bay",
        -8.558023504578166
      ],
      [
        "▁dëkke",
        -8.559462347936432
      ],
      [
        "ient",
        -8.5629757884107
      ],
      [
        "▁wà",
        -8.565878120019848
      ],
      [
        "▁tel",
        -8.566493474150612
      ],
      [
        "▁souvenir",
        -8.567272773007232
      ],
      [
        "▁Ak",
        -8.57001159028298
      ],
      [
        "aat",
        -8.573046771487181
      ],
      [
        "▁do",
        -8.573169959706387
      ],
      [
        "armée",
        -8.575321925220749
      ],
      [
        "estr",
        -8.575396195302474
      ],
      [
        "▁étai",
        -8.577393797595313
      ],
      [
        "▁plu",
        -8.578214361876626
      ],
      [
        "▁Pour",
        -8.57938541179181
      ],
      [
        "▁we",
        -8.58047171317169
      ],
      [
        "ère",
        -8.58241461133058
      ],
      [
        "▁vécu",
        -8.584736805906553
      ],
      [
        "▁jardin",
        -8.58491904208923
      ],
      [
        "▁tangor",
        -8.58496316773086
      ],
      [
        "▁mémoire",
        -8.584984777585534
      ],
      [
        "▁moroom",
        -8.58499787002126
      ],
      [
        "▁wóor",
        -8.58506887319625
      ],
      [
        "▁gaaw",
        -8.585240387817464
      ],
      [
        "▁l'eau",
        -8.585435946035716
      ],
      [
        "▁gens",
        -8.585455630608509
      ],
      [
        "▁bois",
        -8.58558444737282
      ],
      [
        "▁l'hôpital",
        -8.585745622237638
      ],
      [
        "▁taxoon",
        -8.588301465555478
      ],
      [
        "▁Elle",
        -8.588673461672318
      ],
      [
        "▁là",
        -8.589638739073571
      ],
      [
        "▁n'étai",
        -8.590865594470323
      ],
      [
        "▁neen",
        -8.591498358439663
      ],
      [
        "▁côté",
        -8.593757126457092
      ],
      [
        "▁deret",
        -8.594176781072692
      ],
      [
        "▁montagnes",
        -8.59443266303503
      ],
      [
        "▁ki",
        -8.594480205957055
      ],
      [
        "▁romb",
        -8.601004978082594
      ],
      [
        "▁soo",
        -8.6010840858962
      ],
      [
        "quelle",
        -8.601627788285729
      ],
      [
        "p",
        -8.602449411701759
      ],
      [
        "▁bañ",
        -8.602681929830576
      ],
      [
        "▁peut",
        -8.604012689822607
      ],
      [
        "▁n'avai",
        -8.608155038366379
      ],
      [
        "▁defar",
        -8.609932885211977
      ],
      [
        "ng",
        -8.61032511350361
      ],
      [
        "▁sore",
        -8.610715938910362
      ],
      [
        "atum",
        -8.613031281630127
      ],
      [
        "▁song",
        -8.614917763327512
      ],
      [
        "▁xar",
        -8.616710234030787
      ],
      [
        "▁J'a",
        -8.617481731694307
      ],
      [
        "maa",
        -8.617767370775644
      ],
      [
        "r.",
        -8.61887717132062
      ],
      [
        "aux",
        -8.62026869571083
      ],
      [
        "ug",
        -8.621708805410425
      ],
      [
        "▁xaw",
        -8.622237250914136
      ],
      [
        "naa",
        -8.62331284531501
      ],
      [
        "▁jours",
        -8.626003894070655
      ],
      [
        "▁dama",
        -8.632061794624416
      ],
      [
        "▁gaa",
        -8.633301561544375
      ],
      [
        "▁fàtte",
        -8.635658642779683
      ],
      [
        "ou",
        -8.63744835509811
      ],
      [
        "ur",
        -8.637460992811121
      ],
      [
        "▁dexu",
        -8.638053151832406
      ],
      [
        "▁mort",
        -8.638739605832356
      ],
      [
        "eneen",
        -8.640294437666519
      ],
      [
        "▁mal",
        -8.640391922149274
      ],
      [
        "▁B",
        -8.64071151774511
      ],
      [
        "▁mënoo",
        -8.641268593316056
      ],
      [
        "▁K",
        -8.641292093598826
      ],
      [
        "kër",
        -8.643721092388375
      ],
      [
        "▁connu",
        -8.64787875293014
      ],
      [
        "▁nos",
        -8.648806745193788
      ],
      [
        "kki",
        -8.654535334579792
      ],
      [
        "▁mat",
        -8.655699531381085
      ],
      [
        "▁Bi",
        -8.65717070860185
      ],
      [
        "▁voir",
        -8.657175936962403
      ],
      [
        "▁tàng",
        -8.658744077874648
      ],
      [
        "▁port",
        -8.659129351463983
      ],
      [
        "▁tollu",
        -8.660977519981053
      ],
      [
        "▁tard",
        -8.661568772906291
      ],
      [
        "▁weesoo",
        -8.661723502614562
      ],
      [
        "▁liberté",
        -8.661780450326031
      ],
      [
        "▁gis-gis",
        -8.661803517914045
      ],
      [
        "▁Bés",
        -8.661866791544751
      ],
      [
        "▁britannique",
        -8.66192536841008
      ],
      [
        "▁diiwaan",
        -8.661986473648692
      ],
      [
        "▁asamaan",
        -8.662059957005606
      ],
      [
        "▁ubbi",
        -8.662215676394673
      ],
      [
        "▁séen",
        -8.663355757466174
      ],
      [
        "▁Maurice",
        -8.66341628470067
      ],
      [
        "▁yeneen",
        -8.664036793320532
      ],
      [
        "▁Kon",
        -8.664076819411381
      ],
      [
        "▁Ibo",
        -8.664260726142714
      ],
      [
        "▁parler",
        -8.664276918392911
      ],
      [
        "▁xelam",
        -8.665114522231299
      ],
      [
        "▁lorsqu",
        -8.665561972592323
      ],
      [
        "avoir",
        -8.666684686161517
      ],
      [
        "▁àgg",
        -8.668627256881114
      ],
      [
        "vait",
        -8.669775796638245
      ],
      [
        "▁xeet",
        -8.669845867323042
      ],
      [
        "▁Frãs",
        -8.669933034988965
      ],
      [
        "▁miir",
        -8.676708279265423
      ],
      [
        "tte",
        -8.677434292141518
      ],
      [
        "▁Bamendaa",
        -8.678244631153353
      ],
      [
        "▁coup",
        -8.68202728545645
      ],
      [
        "▁dire",
        -8.68296597783199
      ],
      [
        "▁jant",
        -8.683910809742562
      ],
      [
        "▁hommes",
        -8.684196791793273
      ],
      [
        "ň",
        -8.68511960453173
      ],
      [
        "▁tali",
        -8.689276516866881
      ],
      [
        "▁grands",
        -8.690599416087414
      ],
      [
        "▁demee",
        -8.692240771715362
      ],
      [
        "▁tur",
        -8.692553270342636
      ],
      [
        "avons",
        -8.693569203143129
      ],
      [
        "▁Maa",
        -8.696697763522474
      ],
      [
        "eur",
        -8.69719736642594
      ],
      [
        "▁aurait",
        -8.701874373066605
      ],
      [
        "▁bokk",
        -8.70425137673184
      ],
      [
        "▁Xa",
        -8.704306505522096
      ],
      [
        "wul",
        -8.705140184703184
      ],
      [
        "▁seule",
        -8.705901279642037
      ],
      [
        "▁réewu",
        -8.708082560494162
      ],
      [
        "▁gudd",
        -8.71101153032103
      ],
      [
        "▁fàttali",
        -8.714310967926348
      ],
      [
        "q",
        -8.714421803072057
      ],
      [
        "▁reste",
        -8.714768374381844
      ],
      [
        "▁ndox",
        -8.71832915885729
      ],
      [
        "▁baay",
        -8.721044509657244
      ],
      [
        "▁qu'un",
        -8.722533762147263
      ],
      [
        "an",
        -8.723311540204996
      ],
      [
        "▁po",
        -8.723628286260732
      ],
      [
        "▁fo",
        -8.724625393291966
      ],
      [
        "▁carte",
        -8.727343875158324
      ],
      [
        "▁Pe",
        -8.730347658453843
      ],
      [
        "▁ville",
        -8.73093850675578
      ],
      [
        "▁yee",
        -8.732842946328617
      ],
      [
        "▁celle",
        -8.73579980625657
      ],
      [
        "ns",
        -8.739295542274268
      ],
      [
        "▁sori",
        -8.742481504241333
      ],
      [
        "▁baat",
        -8.743645359983615
      ],
      [
        "▁Tout",
        -8.743942198962865
      ],
      [
        "▁soldaar",
        -8.743951362639631
      ],
      [
        "▁delloo",
        -8.743977407301443
      ],
      [
        "▁l'autre",
        -8.744052364641828
      ],
      [
        "me",
        -8.744248981710648
      ],
      [
        "▁sedd",
        -8.74442212375051
      ],
      [
        "▁passage",
        -8.744423965686082
      ],
      [
        "▁yuuxu",
        -8.744697316099051
      ],
      [
        "▁appris",
        -8.744993516838273
      ],
      [
        "▁xar-kanam",
        -8.745069346302575
      ],
      [
        "▁mellentaan",
        -8.745091443901908
      ],
      [
        "▁bëj-saalum",
        -8.74509400859397
      ],
      [
        "▁heures",
        -8.745894464270556
      ],
      [
        "▁mii",
        -8.746300320220328
      ],
      [
        "▁tëj",
        -8.746687562105976
      ],
      [
        "▁géej",
        -8.749528308750783
      ],
      [
        "dul",
        -8.750043721585886
      ],
      [
        "▁kàddu",
        -8.750212982217768
      ],
      [
        "▁aujourd'hui",
        -8.75073550507204
      ],
      [
        "▁nangu",
        -8.750972226834648
      ],
      [
        "▁Sud",
        -8.751532924160584
      ],
      [
        "se",
        -8.752896610121066
      ],
      [
        "▁jëkk",
        -8.752921611911583
      ],
      [
        "▁Si",
        -8.753236639889574
      ],
      [
        "▁seet",
        -8.755173908458545
      ],
      [
        "ub",
        -8.7558353869907
      ],
      [
        "vent",
        -8.757155629628409
      ],
      [
        "▁trop",
        -8.757824414554946
      ],
      [
        "▁fleuves",
        -8.758023029607008
      ],
      [
        "iy",
        -8.759316959887649
      ],
      [
        "ité",
        -8.761849067590209
      ],
      [
        "em",
        -8.762708971473334
      ],
      [
        "ons",
        -8.76881800818056
      ],
      [
        "▁bari",
        -8.769169804429911
      ],
      [
        "▁Ba",
        -8.771336474441064
      ],
      [
        "▁toutes",
        -8.775277780884807
      ],
      [
        "beek",
        -8.775980445309525
      ],
      [
        "▁pres",
        -8.776334912506565
      ],
      [
        "▁Sa",
        -8.777865549432919
      ],
      [
        "▁r",
        -8.783263711398535
      ],
      [
        "▁semble",
        -8.784141695898244
      ],
      [
        "▁X",
        -8.785666442106205
      ],
      [
        "▁baa",
        -8.786817786665027
      ],
      [
        "▁deme",
        -8.787230483154747
      ],
      [
        "▁wone",
        -8.78770128923284
      ],
      [
        "li",
        -8.788422360353342
      ],
      [
        "▁jàng",
        -8.80455499375802
      ],
      [
        "▁yem",
        -8.80603598889488
      ],
      [
        "aire",
        -8.808053900023959
      ],
      [
        "▁dayo",
        -8.808946000819137
      ],
      [
        "▁main",
        -8.809897105544776
      ],
      [
        "▁toute",
        -8.812397204211667
      ],
      [
        "▁doi",
        -8.81258892140562
      ],
      [
        "▁noir",
        -8.81413940696195
      ],
      [
        "▁moment",
        -8.818577337381893
      ],
      [
        "▁vrai",
        -8.819708545959298
      ],
      [
        "▁waa",
        -8.822726003985151
      ],
      [
        "mu",
        -8.8240964885942
      ],
      [
        "▁Guwiyaan",
        -8.834734944392196
      ],
      [
        "▁yëkkati",
        -8.8347350940101
      ],
      [
        "▁Guyane",
        -8.834741683440258
      ],
      [
        "zone",
        -8.834747534162911
      ],
      [
        "▁rawati",
        -8.834749238972968
      ],
      [
        "▁frère",
        -8.834800034450646
      ],
      [
        "▁Gone",
        -8.83486030241202
      ],
      [
        "▁d'Ogoja",
        -8.834883302649
      ],
      [
        "▁déglu",
        -8.834969184004269
      ],
      [
        "▁famille",
        -8.835104546161077
      ],
      [
        "▁xéy",
        -8.835179585431337
      ],
      [
        "▁force",
        -8.835222456604253
      ],
      [
        "▁Moonte",
        -8.835407071003564
      ],
      [
        "▁kese",
        -8.83550678982422
      ],
      [
        "▁cuir",
        -8.836022021257467
      ],
      [
        "▁jéggi",
        -8.83637725112122
      ],
      [
        "▁poste",
        -8.836495055950275
      ],
      [
        "▁xeer",
        -8.836512938612053
      ],
      [
        "▁faisait",
        -8.836521237642838
      ],
      [
        "▁marche",
        -8.836690451577937
      ],
      [
        "▁googu",
        -8.836731287751935
      ],
      [
        "▁longue",
        -8.836957527539914
      ],
      [
        "▁silence",
        -8.837024787146797
      ],
      [
        "▁réer",
        -8.838006522153089
      ],
      [
        "▁yóbbu",
        -8.838526115040388
      ],
      [
        "ati",
        -8.838883749577766
      ],
      [
        "▁bateau",
        -8.838897737149068
      ],
      [
        "▁mar",
        -8.839090475670845
      ],
      [
        "▁ngoon",
        -8.839309398635729
      ],
      [
        "▁tund",
        -8.840579741900969
      ],
      [
        "▁xaar",
        -8.840858936930703
      ],
      [
        "▁dàll",
        -8.841125199632284
      ],
      [
        "▁tuuti",
        -8.842151861667054
      ],
      [
        "age",
        -8.842639060936817
      ],
      [
        "▁cour",
        -8.843295964344811
      ],
      [
        "kati",
        -8.84552492621054
      ],
      [
        "▁toujours",
        -8.845666627543643
      ],
      [
        "▁màgget",
        -8.845784080444627
      ],
      [
        "▁kilifa",
        -8.846336999251976
      ],
      [
        "▁arbres",
        -8.846436038311348
      ],
      [
        "▁sang",
        -8.846504094574025
      ],
      [
        "ès",
        -8.84677687135527
      ],
      [
        "▁soir",
        -8.847321841400934
      ],
      [
        "▁Man",
        -8.848722175521788
      ],
      [
        "des",
        -8.85079167664867
      ],
      [
        "▁miin",
        -8.852366693689973
      ],
      [
        "▁teel",
        -8.854349348818149
      ],
      [
        "▁nee",
        -8.856193153690196
      ],
      [
        "▁të",
        -8.85761255623466
      ],
      [
        "▁fees",
        -8.858108156001315
      ],
      [
        "▁avions",
        -8.858943011825055
      ],
      [
        "▁nanu",
        -8.862855676133657
      ],
      [
        "▁takk",
        -8.863423074981961
      ],
      [
        "▁sàkk",
        -8.863980115141652
      ],
      [
        "▁T",
        -8.864114433317845
      ],
      [
        "ar",
        -8.865308249718629
      ],
      [
        "▁pa",
        -8.869207784311165
      ],
      [
        "▁per",
        -8.869426853413689
      ],
      [
        "▁fas",
        -8.872542945522868
      ],
      [
        "▁bant",
        -8.87327187250104
      ],
      [
        "▁fall",
        -8.874583907232596
      ],
      [
        "▁doomi",
        -8.87582817991213
      ],
      [
        "▁vi",
        -8.880104578024966
      ],
      [
        "▁Daan",
        -8.883168516609548
      ],
      [
        "▁Nga",
        -8.884286447338754
      ],
      [
        "eŋ",
        -8.884462219784067
      ],
      [
        "▁lan",
        -8.88763115223354
      ],
      [
        "▁forme",
        -8.888481713130187
      ],
      [
        "kkali",
        -8.88973249842715
      ],
      [
        "waat",
        -8.891762298520067
      ],
      [
        "kk",
        -8.899578341547372
      ],
      [
        "▁regarde",
        -8.89999970301015
      ],
      [
        "▁sui",
        -8.901053233511535
      ],
      [
        "▁noo",
        -8.903197866108359
      ],
      [
        "▁doxandéem",
        -8.903446479971505
      ],
      [
        "▁doy",
        -8.908205984035346
      ],
      [
        "▁Boo",
        -8.910389012057676
      ],
      [
        "près",
        -8.916628609415753
      ],
      [
        "▁photo",
        -8.917589171282076
      ],
      [
        "▁première",
        -8.917795037019866
      ],
      [
        "▁fleuve",
        -8.917820422158684
      ],
      [
        "▁fond",
        -8.919013608170431
      ],
      [
        "▁partir",
        -8.92860208373679
      ],
      [
        "du",
        -8.930163903955474
      ],
      [
        "▁tii",
        -8.930414103939384
      ],
      [
        "▁nouveau",
        -8.934737851102359
      ],
      [
        "▁Almaañ",
        -8.934776339362246
      ],
      [
        "▁mbóot",
        -8.934819631980309
      ],
      [
        "▁Ñàkk",
        -8.934822650270265
      ],
      [
        "▁téye",
        -8.934890006779831
      ],
      [
        "▁Nord",
        -8.93490888686329
      ],
      [
        "▁d'Afrique",
        -8.934915091867833
      ],
      [
        "▁sentiment",
        -8.934986332280776
      ],
      [
        "▁ngelaw",
        -8.935037702211494
      ],
      [
        "▁téere",
        -8.935112627688449
      ],
      [
        "▁Officer",
        -8.935137597464818
      ],
      [
        "▁metit",
        -8.935181867525426
      ],
      [
        "▁voix",
        -8.93530928351853
      ],
      [
        "▁yegg",
        -8.935886840988546
      ],
      [
        "▁moins",
        -8.93654888427255
      ],
      [
        "▁matin",
        -8.936662863000521
      ],
      [
        "▁point",
        -8.936926974801757
      ],
      [
        "▁xuus",
        -8.937075589868158
      ],
      [
        "▁Fa",
        -8.937289549772624
      ],
      [
        "▁jege",
        -8.93734661420018
      ],
      [
        "▁Niis",
        -8.937782709885376
      ],
      [
        "▁joor",
        -8.939929123566094
      ],
      [
        "▁San",
        -8.94172128272406
      ],
      [
        "▁bras",
        -8.942479671456795
      ],
      [
        "▁daj",
        -8.944417479588628
      ],
      [
        "▁maanaa",
        -8.945494949093861
      ],
      [
        "▁wetu",
        -8.94584277641255
      ],
      [
        "▁pieds",
        -8.946460549435798
      ],
      [
        "▁meloon",
        -8.947358288404796
      ],
      [
        "▁partie",
        -8.947558781185688
      ],
      [
        "▁janoo",
        -8.952477810259651
      ],
      [
        "▁ta",
        -8.953313998863694
      ],
      [
        "▁mains",
        -8.956853008854255
      ],
      [
        "▁Sur",
        -8.957318321435917
      ],
      [
        "▁vois",
        -8.958232307932533
      ],
      [
        "istrict",
        -8.964921155805031
      ],
      [
        "▁lekk",
        -8.965399503986703
      ],
      [
        "▁garabi",
        -8.966774807259918
      ],
      [
        "?",
        -8.967390759104335
      ],
      [
        "▁weer",
        -8.97002912081486
      ],
      [
        "biy",
        -8.970354802957
      ],
      [
        "▁wuti",
        -8.973148287056727
      ],
      [
        "▁co",
        -8.978485386733414
      ],
      [
        "ewul",
        -8.982987797108366
      ],
      [
        "ure",
        -8.986207603893341
      ],
      [
        "▁Alma",
        -8.990929954056824
      ],
      [
        "▁yit",
        -8.996776470419817
      ],
      [
        "ts",
        -8.997364866030967
      ],
      [
        "nga",
        -8.997394946470555
      ],
      [
        "ance",
        -8.997476759299076
      ],
      [
        "▁ragal",
        -8.999537595067785
      ],
      [
        "▁xool",
        -9.00383878909015
      ],
      [
        "▁tefes",
        -9.00405206593868
      ],
      [
        "▁Wa",
        -9.004776101555391
      ],
      [
        "▁Kan",
        -9.008913010223097
      ],
      [
        "vous",
        -9.010353912307103
      ],
      [
        "▁africain",
        -9.013048624540357
      ],
      [
        "▁lit",
        -9.013863159765165
      ],
      [
        "▁petite",
        -9.017394260967464
      ],
      [
        "▁gise",
        -9.018143585730737
      ],
      [
        "où",
        -9.023394277854532
      ],
      [
        "▁tan",
        -9.024295799691824
      ],
      [
        "▁bee",
        -9.024318702857489
      ],
      [
        "os",
        -9.027104495682462
      ],
      [
        "▁porte",
        -9.031046304420462
      ],
      [
        "atul",
        -9.036172653803987
      ],
      [
        "▁bind",
        -9.041375011762915
      ],
      [
        "▁moomu",
        -9.04332074606732
      ],
      [
        "▁dënn",
        -9.044714059027381
      ],
      [
        "▁façon",
        -9.045846053911912
      ],
      [
        "▁bëj-gànnaar",
        -9.045846054241824
      ],
      [
        "▁Biyaafaraa",
        -9.045846054574548
      ],
      [
        "▁lëndëm",
        -9.045846057352414
      ],
      [
        "▁pirogue",
        -9.045846077405166
      ],
      [
        "▁sowu-jant",
        -9.045846617437514
      ],
      [
        "▁Jamono",
        -9.045846943473885
      ],
      [
        "▁bànneex",
        -9.045847836526612
      ],
      [
        "▁société",
        -9.045848216293244
      ],
      [
        "▁lumière",
        -9.045849329057196
      ],
      [
        "▁l'âge",
        -9.045853395837952
      ],
      [
        "▁Nataal",
        -9.045854947815862
      ],
      [
        "▁raison",
        -9.045857468747164
      ],
      [
        "▁diggante",
        -9.04586604576205
      ],
      [
        "▁savane",
        -9.045893316722493
      ],
      [
        "▁cosaan",
        -9.045938043820946
      ],
      [
        "▁boroom",
        -9.045989214111552
      ],
      [
        "▁Kër",
        -9.045989934404169
      ],
      [
        "▁yow",
        -9.046215854954912
      ],
      [
        "▁Teewul",
        -9.046260136352162
      ],
      [
        "▁manger",
        -9.046350318215493
      ],
      [
        "▁parfois",
        -9.046368287689905
      ],
      [
        "▁chaleur",
        -9.046384675870236
      ],
      [
        "▁yëngu",
        -9.046531027873208
      ],
      [
        "▁gisaat",
        -9.046726742758063
      ],
      [
        "▁foofu",
        -9.046771365647029
      ],
      [
        "▁d'herbes",
        -9.047162443136102
      ],
      [
        "▁marché",
        -9.047179605471708
      ],
      [
        "▁Buur",
        -9.04768684361297
      ],
      [
        "▁Nice",
        -9.047782153970463
      ],
      [
        "▁vieille",
        -9.048037583907515
      ],
      [
        "▁insectes",
        -9.04862870404089
      ],
      [
        "▁Seen",
        -9.049017080242058
      ],
      [
        "▁jàll",
        -9.049095567975016
      ],
      [
        "▁neneen",
        -9.050512547838023
      ],
      [
        "▁couleur",
        -9.05059661723169
      ],
      [
        "▁garçons",
        -9.051115083915565
      ],
      [
        "▁étions",
        -9.051311651860985
      ],
      [
        "bi",
        -9.052110464688527
      ],
      [
        "▁leneen",
        -9.05325227947296
      ],
      [
        "▁këram",
        -9.053444572276671
      ],
      [
        "▁cause",
        -9.054787611852547
      ],
      [
        "▁côte",
        -9.055770347183472
      ],
      [
        "▁kanam",
        -9.056827017331358
      ],
      [
        "▁pro",
        -9.057715352705408
      ],
      [
        "▁blancs",
        -9.059824916424038
      ],
      [
        "▁Ou",
        -9.060264994069836
      ],
      [
        "▁crois",
        -9.060411975922968
      ],
      [
        "▁enfance",
        -9.061812349105832
      ],
      [
        "▁na.",
        -9.064523995491546
      ],
      [
        "▁part",
        -9.065130330918185
      ],
      [
        "ku",
        -9.066775147833875
      ],
      [
        "▁lakk",
        -9.066927738007543
      ],
      [
        "▁boy",
        -9.071311710375472
      ],
      [
        "▁Saa",
        -9.073309777750675
      ],
      [
        "▁vent",
        -9.078318035791444
      ],
      [
        "▁routes",
        -9.082639770325027
      ],
      [
        "▁tere",
        -9.08517954259359
      ],
      [
        "▁yére",
        -9.0852995283693
      ],
      [
        "▁Fi",
        -9.085811225680473
      ],
      [
        "▁roi",
        -9.087087748048095
      ],
      [
        "▁vu",
        -9.08952892964246
      ],
      [
        "▁R",
        -9.089989516234308
      ],
      [
        "añoo",
        -9.091014131301229
      ],
      [
        "▁luy",
        -9.099833839288758
      ],
      [
        "▁froid",
        -9.103040877995825
      ],
      [
        "▁nii",
        -9.103152414936332
      ],
      [
        "▁kook",
        -9.103719629514035
      ],
      [
        "▁suba",
        -9.104040211380504
      ],
      [
        "naka",
        -9.104704772428356
      ],
      [
        "▁l'ai",
        -9.104827863846465
      ],
      [
        "▁rey",
        -9.106738515742432
      ],
      [
        "▁Dañ",
        -9.111684125254845
      ],
      [
        "ër",
        -9.114393882423382
      ],
      [
        "▁samp",
        -9.116041957760356
      ],
      [
        "▁tàkk",
        -9.118238240511134
      ],
      [
        "wu",
        -9.119960455463666
      ],
      [
        "tant",
        -9.125120860968291
      ],
      [
        "▁d'a",
        -9.125403181117898
      ],
      [
        "▁nature",
        -9.126910272425285
      ],
      [
        "▁bo",
        -9.128641016656847
      ],
      [
        "enn",
        -9.132112620392224
      ],
      [
        "▁So",
        -9.132340180967436
      ],
      [
        "pendan",
        -9.140404218166104
      ],
      [
        "oŋ",
        -9.140501498361264
      ],
      [
        "▁telle",
        -9.143114458687133
      ],
      [
        "▁wute",
        -9.143470300215418
      ],
      [
        "ànte",
        -9.145803835432883
      ],
      [
        "woo",
        -9.146130706628545
      ],
      [
        "▁rêve",
        -9.146178232769705
      ],
      [
        "▁doomi-",
        -9.147450405475706
      ],
      [
        "uis",
        -9.149943541852316
      ],
      [
        "▁feu",
        -9.151497487988243
      ],
      [
        "▁rouge",
        -9.152132881828125
      ],
      [
        "▁inter",
        -9.152195920211813
      ],
      [
        "▁montre",
        -9.152946004217995
      ],
      [
        "▁visage",
        -9.153299453540686
      ],
      [
        "ez",
        -9.155039915135543
      ],
      [
        "▁montagne",
        -9.157684918166659
      ],
      [
        "ra",
        -9.157896283221955
      ],
      [
        "▁tekk",
        -9.159488823423409
      ],
      [
        "gré",
        -9.16041143318081
      ],
      [
        "û",
        -9.160419991380557
      ],
      [
        "▁qu",
        -9.160809595282743
      ],
      [
        "▁sera",
        -9.16178318068188
      ],
      [
        "ndant",
        -9.161872637132642
      ],
      [
        "ture",
        -9.163089958518688
      ],
      [
        "▁bon",
        -9.165027331380717
      ],
      [
        "▁feeñ",
        -9.167577579908057
      ],
      [
        "▁sais",
        -9.168353595642543
      ],
      [
        "▁yilif",
        -9.169214128755153
      ],
      [
        "▁tóo",
        -9.170427365705397
      ],
      [
        "8",
        -9.170817773727919
      ],
      [
        "▁Victoria",
        -9.170846053919625
      ],
      [
        "▁Léeg-léeg",
        -9.170846053927434
      ],
      [
        "▁wëndéelu",
        -9.170846054113152
      ],
      [
        "▁médicaments",
        -9.170846054507287
      ],
      [
        "▁kéemaane",
        -9.170846055602716
      ],
      [
        "▁Óbudu",
        -9.170846120201764
      ],
      [
        "▁xàmmee",
        -9.170846125319278
      ],
      [
        "▁Legoos",
        -9.170848856969446
      ],
      [
        "▁chaussettes",
        -9.170849320497945
      ],
      [
        "▁simple",
        -9.170851473077082
      ],
      [
        "▁puissance",
        -9.1708627688386
      ],
      [
        "▁làmp",
        -9.170868141239417
      ],
      [
        "▁janeer",
        -9.170869079808577
      ],
      [
        "▁feuilles",
        -9.170874259135697
      ],
      [
        "▁L'Afrique",
        -9.170893822436495
      ],
      [
        "▁keroog",
        -9.170902937858996
      ],
      [
        "▁yëngal",
        -9.170908212939398
      ],
      [
        "▁blanche",
        -9.170931400744266
      ],
      [
        "▁l'amour",
        -9.170982814225956
      ],
      [
        "▁Waaw",
        -9.171119447101233
      ],
      [
        "▁douceur",
        -9.17112595805682
      ],
      [
        "▁xanaa",
        -9.171280424436361
      ],
      [
        "▁région",
        -9.171289262011866
      ],
      [
        "▁dernier",
        -9.171360348795506
      ],
      [
        "▁fajkat",
        -9.17136128471466
      ],
      [
        "▁plein",
        -9.171416223538149
      ],
      [
        "▁gémmiñ",
        -9.171523031218797
      ],
      [
        "▁longtemps",
        -9.171547790648185
      ],
      [
        "na",
        -9.1715828221072
      ],
      [
        "▁sànni",
        -9.171618664814229
      ],
      [
        "▁surtout",
        -9.17169913347509
      ],
      [
        "▁loxoom",
        -9.17220211671749
      ],
      [
        "▁Ayaa",
        -9.172271745613827
      ],
      [
        "▁wow",
        -9.172282504711614
      ],
      [
        "▁Xare",
        -9.172459702451293
      ],
      [
        "▁meubles",
        -9.172487265741296
      ],
      [
        "▁Ñoom",
        -9.172586381875611
      ],
      [
        "▁fanaan",
        -9.1730190498195
      ],
      [
        "▁tukki",
        -9.173055920536008
      ],
      [
        "▁debout",
        -9.173885621259418
      ],
      [
        "▁riir",
        -9.174205669428794
      ],
      [
        "▁salle",
        -9.174207379412124
      ],
      [
        "▁Comme",
        -9.174402936214154
      ],
      [
        "▁manière",
        -9.174676487955525
      ],
      [
        "▁départ",
        -9.174866743060061
      ],
      [
        "▁tubaab",
        -9.175778999092461
      ],
      [
        "▁I",
        -9.176180465545215
      ],
      [
        "▁faut",
        -9.176610204877417
      ],
      [
        "▁sew",
        -9.178017625638418
      ],
      [
        "▁yab",
        -9.178070121209483
      ],
      [
        "▁sowu",
        -9.17815480297034
      ],
      [
        "▁district",
        -9.178460330874543
      ],
      [
        "▁proche",
        -9.179517306138148
      ],
      [
        "▁hautes",
        -9.180487116581245
      ],
      [
        "▁goût",
        -9.181408152609915
      ],
      [
        "▁sauvages",
        -9.181514017016658
      ],
      [
        "▁eu",
        -9.181761394247122
      ],
      [
        "▁noms",
        -9.182195445735545
      ],
      [
        "▁cœur",
        -9.182517184903183
      ],
      [
        "▁Sunu",
        -9.183702823398601
      ],
      [
        "▁waar",
        -9.184552661168897
      ],
      [
        "»",
        -9.184897486706387
      ],
      [
        "▁bunt",
        -9.18502250177673
      ],
      [
        "▁petit",
        -9.185212954879049
      ],
      [
        "avait",
        -9.185565162766675
      ],
      [
        "▁Dama",
        -9.185579482580081
      ],
      [
        "▁màggat",
        -9.186717480531431
      ],
      [
        "uma",
        -9.187554909202682
      ],
      [
        "▁fii",
        -9.187557763730016
      ],
      [
        "▁compte",
        -9.18876465959261
      ],
      [
        "▁Non",
        -9.19171259222157
      ],
      [
        "▁près",
        -9.19188321423156
      ],
      [
        "▁photos",
        -9.192982344814698
      ],
      [
        "▁bees",
        -9.1937471888906
      ],
      [
        "▁dalal",
        -9.19407601023536
      ],
      [
        "▁jënd",
        -9.194276514660258
      ],
      [
        "▁doomu",
        -9.19575417575611
      ],
      [
        "ine",
        -9.196971505857755
      ],
      [
        "▁ex",
        -9.200311012760821
      ],
      [
        "ec",
        -9.201238064382746
      ],
      [
        "oom",
        -9.201689842267498
      ],
      [
        "▁sago",
        -9.20210823027465
      ],
      [
        "▁coloniale",
        -9.203226950989974
      ],
      [
        "▁teew",
        -9.206031332929545
      ],
      [
        "▁ch",
        -9.207267504738088
      ],
      [
        "▁Tey",
        -9.21001489788536
      ],
      [
        "▁choses",
        -9.211045444308123
      ],
      [
        "▁nëbb",
        -9.211528601477225
      ],
      [
        "▁tar",
        -9.212493434472687
      ],
      [
        "▁diis",
        -9.212977492104123
      ],
      [
        "woon",
        -9.2131034569077
      ],
      [
        "▁connaiss",
        -9.214598784806386
      ],
      [
        "▁jeu",
        -9.215690047967364
      ],
      [
        "i.",
        -9.216110767053156
      ],
      [
        "▁lanu",
        -9.219349251571733
      ],
      [
        "▁h",
        -9.219400520595851
      ],
      [
        "ukki",
        -9.223422229966154
      ],
      [
        "▁dëkku",
        -9.22715651616252
      ],
      [
        "▁Mën",
        -9.228212497928132
      ],
      [
        "▁sonal",
        -9.229337967725215
      ],
      [
        "leen",
        -9.22986786066353
      ],
      [
        "▁dee",
        -9.232427435835984
      ],
      [
        "▁noon",
        -9.23635273433015
      ],
      [
        "▁mo",
        -9.237411360657303
      ],
      [
        "▁max",
        -9.239456461835578
      ],
      [
        "▁Jo",
        -9.239564379675667
      ],
      [
        "▁yenu",
        -9.24094373208802
      ],
      [
        "impression",
        -9.241617128449764
      ],
      [
        "▁gii",
        -9.241816753510646
      ],
      [
        "aay",
        -9.241901501837779
      ],
      [
        "▁la.",
        -9.242863313951855
      ],
      [
        "▁bii",
        -9.244554018865978
      ],
      [
        "▁der",
        -9.244858574086898
      ],
      [
        "▁pënd",
        -9.244984337350816
      ],
      [
        "lla",
        -9.245780417912723
      ],
      [
        "▁dit",
        -9.248565261366227
      ],
      [
        "▁pouvai",
        -9.251712162986514
      ],
      [
        "bu",
        -9.2532870890483
      ],
      [
        "▁parlait",
        -9.25666194625591
      ],
      [
        "homme",
        -9.261236932205351
      ],
      [
        "▁cours",
        -9.261355063901487
      ],
      [
        "▁Ben",
        -9.264649812571369
      ],
      [
        "▁certaine",
        -9.265054860125119
      ],
      [
        "▁peur",
        -9.265647732203718
      ],
      [
        "▁parc",
        -9.266149274234838
      ],
      [
        "▁cons",
        -9.266708286793223
      ],
      [
        "▁rëdd",
        -9.270198097393335
      ],
      [
        "aata",
        -9.276907771875415
      ],
      [
        "▁dénd",
        -9.276958292394564
      ],
      [
        "▁raconte",
        -9.282612825373905
      ],
      [
        "nce",
        -9.283468744784381
      ],
      [
        "▁O",
        -9.287425273567022
      ],
      [
        "▁retour",
        -9.28828569257809
      ],
      [
        "▁vivre",
        -9.294453366055645
      ],
      [
        "▁on",
        -9.295563859800627
      ],
      [
        "▁scorpion",
        -9.296333978110958
      ],
      [
        "▁D'",
        -9.299502046264525
      ],
      [
        "ch",
        -9.299813546341245
      ],
      [
        "▁travail",
        -9.301221312857443
      ],
      [
        "▁woow",
        -9.301358849480371
      ],
      [
        "▁blanc",
        -9.305156362885104
      ],
      [
        "ables",
        -9.307356056242792
      ],
      [
        "dé",
        -9.30830754144448
      ],
      [
        "▁pied",
        -9.30974559135397
      ],
      [
        "àkk",
        -9.310140599266498
      ],
      [
        "▁dagg",
        -9.311070972431603
      ],
      [
        "▁palanteer",
        -9.31200202210938
      ],
      [
        "▁Soo",
        -9.312378187054856
      ],
      [
        "ter",
        -9.313613943569798
      ],
      [
        "▁l'Angleterre",
        -9.313703196776444
      ],
      [
        "▁gouvernement",
        -9.313703196846841
      ],
      [
        "▁reç",
        -9.313703197174027
      ],
      [
        "▁sukkuraat",
        -9.313703197834002
      ],
      [
        "▁loppitaan",
        -9.313703199377644
      ],
      [
        "▁officer",
        -9.313703209447226
      ],
      [
        "▁bonheur",
        -9.313703229105432
      ],
      [
        "▁difficile",
        -9.313703255111333
      ],
      [
        "▁Ayijoo",
        -9.31370348951567
      ],
      [
        "▁mourir",
        -9.31370589159455
      ],
      [
        "▁màrse",
        -9.31370604180965
      ],
      [
        "▁l'intérieur",
        -9.313706251990409
      ],
      [
        "▁rafet",
        -9.31370807019544
      ],
      [
        "▁premier",
        -9.313709114237069
      ],
      [
        "▁solitude",
        -9.313715757881539
      ],
      [
        "▁Alors",
        -9.313720891604337
      ],
      [
        "▁Réew",
        -9.313729718556976
      ],
      [
        "▁tôle",
        -9.313741714818383
      ],
      [
        "▁cheval",
        -9.313748293275165
      ],
      [
        "▁Déedéet",
        -9.313749113074355
      ],
      [
        "▁xëcc",
        -9.313759128104028
      ],
      [
        "▁woto",
        -9.31380448476592
      ],
      [
        "▁juddoo",
        -9.313848929258054
      ],
      [
        "▁beaucoup",
        -9.313858914744555
      ],
      [
        "▁d'autre",
        -9.3139104901857
      ],
      [
        "▁dëgër",
        -9.313918966393999
      ],
      [
        "▁plateaux",
        -9.313940204045934
      ],
      [
        "▁simoŋ",
        -9.31396353835305
      ],
      [
        "▁campement",
        -9.313969291353944
      ],
      [
        "▁train",
        -9.31397037935941
      ],
      [
        "▁tëdd",
        -9.313996877795407
      ],
      [
        "▁nelaw",
        -9.314123336181172
      ],
      [
        "▁d'abord",
        -9.314223294967688
      ],
      [
        "▁large",
        -9.314326193557434
      ],
      [
        "ukaay",
        -9.314453291654637
      ],
      [
        "▁jàppale",
        -9.314472209409358
      ],
      [
        "▁celui",
        -9.314535824475504
      ],
      [
        "▁palmes",
        -9.314749969902305
      ],
      [
        "▁au-de",
        -9.314887967515713
      ],
      [
        "thme",
        -9.314939664109938
      ],
      [
        "mettre",
        -9.31502624141756
      ],
      [
        "▁Noonu",
        -9.315029656220348
      ],
      [
        "▁raglu",
        -9.315077839782253
      ],
      [
        "▁termites",
        -9.31530331638242
      ],
      [
        "▁bett",
        -9.315374740573903
      ],
      [
        "▁immense",
        -9.315587418907565
      ],
      [
        "▁nuages",
        -9.315837055714129
      ],
      [
        "▁courant",
        -9.315869518698515
      ],
      [
        "▁images",
        -9.316050796510845
      ],
      [
        "▁depuis",
        -9.316082142807419
      ],
      [
        "▁mucc",
        -9.31652303370837
      ],
      [
        "ti",
        -9.31655203576213
      ],
      [
        "▁àngale",
        -9.316742849352254
      ],
      [
        "▁ňuul",
        -9.316946441890032
      ],
      [
        "▁gro",
        -9.317489035922632
      ],
      [
        "▁lonk",
        -9.317542182962956
      ],
      [
        "▁yat",
        -9.31761469794891
      ],
      [
        "▁Plu",
        -9.31798002482424
      ],
      [
        "▁kon",
        -9.31809028327931
      ],
      [
        "▁âge",
        -9.318319759743241
      ],
      [
        "▁ventre",
        -9.318482784018608
      ],
      [
        "▁dellusi",
        -9.318516754301424
      ],
      [
        "▁prend",
        -9.3189893772262
      ],
      [
        "▁Ken",
        -9.319501043876441
      ],
      [
        "▁seng",
        -9.31998452931251
      ],
      [
        "-fu",
        -9.320192215570206
      ],
      [
        "▁accroché",
        -9.321925259084594
      ],
      [
        "▁gor",
        -9.322036834245774
      ],
      [
        "odeur",
        -9.322156104489892
      ],
      [
        "▁Obudu",
        -9.322356424751488
      ],
      [
        "▁porteurs",
        -9.32441289520182
      ],
      [
        "▁anglaise",
        -9.324578740994435
      ],
      [
        "▁mukk",
        -9.324747055755314
      ],
      [
        "▁chemins",
        -9.325375542264148
      ],
      [
        "▁sou",
        -9.325445336765112
      ],
      [
        "▁tas",
        -9.32565395460455
      ],
      [
        "▁siiw",
        -9.325690799688925
      ],
      [
        "▁six",
        -9.32616037362508
      ],
      [
        "▁lesquel",
        -9.326633325720811
      ],
      [
        "▁Fekk",
        -9.32702363998862
      ],
      [
        "▁lieux",
        -9.327742549940458
      ],
      [
        "▁buur",
        -9.32798551172329
      ],
      [
        "▁soppi",
        -9.328697824536812
      ],
      [
        "▁new",
        -9.32902440969534
      ],
      [
        "▁ndey",
        -9.329690272203806
      ],
      [
        "▁jafe",
        -9.3303495648474
      ],
      [
        "▁aw",
        -9.332085463837197
      ],
      [
        "▁s'il",
        -9.33224145796386
      ],
      [
        "ba",
        -9.335447337995825
      ],
      [
        "▁chasse",
        -9.337464477325705
      ],
      [
        "▁jàn",
        -9.33838932124435
      ],
      [
        "▁premières",
        -9.33903481913716
      ],
      [
        "▁lieu",
        -9.34201256579957
      ],
      [
        "▁noirs",
        -9.342989238561236
      ],
      [
        "▁cru",
        -9.343435913844157
      ],
      [
        "▁pom",
        -9.343622930767014
      ],
      [
        "▁masuma",
        -9.346263419523126
      ],
      [
        "▁raay",
        -9.348263711599985
      ],
      [
        "▁doxe",
        -9.349040873446219
      ],
      [
        "▁petits",
        -9.34996005000826
      ],
      [
        "autorité",
        -9.35235753245959
      ],
      [
        "▁màndi",
        -9.353230505343301
      ],
      [
        "▁aller",
        -9.354070184294304
      ],
      [
        "▁mënu",
        -9.35639624951278
      ],
      [
        "entiers",
        -9.359823691503973
      ],
      [
        "ut-",
        -9.361797457988555
      ],
      [
        "▁tab",
        -9.363355811493411
      ],
      [
        "▁ñii",
        -9.368611406199609
      ],
      [
        "▁jii",
        -9.375654058116442
      ],
      [
        "▁waral",
        -9.37729582113388
      ],
      [
        "ré",
        -9.378779465764376
      ],
      [
        "▁entend",
        -9.379983872604162
      ],
      [
        "éri",
        -9.380783084754258
      ],
      [
        "ral",
        -9.381088273537083
      ],
      [
        "▁nañoo",
        -9.381812197071078
      ],
      [
        "▁togg",
        -9.384155692166829
      ],
      [
        "▁neex.",
        -9.386582609610068
      ],
      [
        "▁crise",
        -9.389049276773248
      ],
      [
        "gé",
        -9.389292245997055
      ],
      [
        "ooy",
        -9.389764134498517
      ],
      [
        "son",
        -9.389797324360567
      ],
      [
        "tes",
        -9.3917780821741
      ],
      [
        "êtes",
        -9.392971068822959
      ],
      [
        "m.",
        -9.395383707366515
      ],
      [
        "▁devai",
        -9.396908883969907
      ],
      [
        "▁habit",
        -9.400070513520209
      ],
      [
        "res",
        -9.400297596248691
      ],
      [
        "▁kowe",
        -9.401032973580683
      ],
      [
        "kom",
        -9.401164427848139
      ],
      [
        "▁jàngal",
        -9.40195106844403
      ],
      [
        "ll",
        -9.402469155586857
      ],
      [
        "een",
        -9.403007838910627
      ],
      [
        "okk",
        -9.404635005263966
      ],
      [
        "ngóor",
        -9.405203938276145
      ],
      [
        "▁pris",
        -9.405994333100852
      ],
      [
        "h",
        -9.406035607334294
      ],
      [
        "nde",
        -9.406433160372421
      ],
      [
        "▁teewu",
        -9.40655896008547
      ],
      [
        "voir",
        -9.408589803546034
      ],
      [
        "▁s'ét",
        -9.410182166439814
      ],
      [
        "and",
        -9.412999760191358
      ],
      [
        "ata",
        -9.416090738252727
      ],
      [
        "waan",
        -9.4171895074529
      ],
      [
        "▁Nko",
        -9.418953180931856
      ],
      [
        "▁waxtaan",
        -9.419312134611708
      ],
      [
        "▁con",
        -9.424648918420107
      ],
      [
        "▁jànq",
        -9.425694265936349
      ],
      [
        "▁E",
        -9.430003826686377
      ],
      [
        "▁français",
        -9.431107169045333
      ],
      [
        "▁éta",
        -9.432009696074275
      ],
      [
        "▁l'entr",
        -9.432766161126924
      ],
      [
        "je",
        -9.435009684702603
      ],
      [
        "nd",
        -9.435107222708671
      ],
      [
        "t-",
        -9.435749608645775
      ],
      [
        "maana",
        -9.43606358087788
      ],
      [
        "▁duma",
        -9.436479670626952
      ],
      [
        "▁toogu",
        -9.439175279085193
      ],
      [
        "▁vo",
        -9.440396244671506
      ],
      [
        "▁nja",
        -9.440657036662985
      ],
      [
        "▁boue",
        -9.4435918586982
      ],
      [
        "▁kàttan",
        -9.445320844514741
      ],
      [
        "▁pe",
        -9.447129986453634
      ],
      [
        "lle",
        -9.447871504330003
      ],
      [
        "▁colonial",
        -9.44842419217562
      ],
      [
        "▁destin",
        -9.449003590856089
      ],
      [
        "▁dakk",
        -9.449891493411808
      ],
      [
        "▁ka",
        -9.454801074945365
      ],
      [
        "▁ra",
        -9.459579522385262
      ],
      [
        "▁gardé",
        -9.461017303031962
      ],
      [
        "▁maladie",
        -9.462287330407214
      ],
      [
        "▁ressenti",
        -9.462668710437637
      ],
      [
        "▁v",
        -9.464061977690791
      ],
      [
        "▁foo",
        -9.46431712962429
      ],
      [
        "▁Par",
        -9.464873444667486
      ],
      [
        "ire",
        -9.464954739055498
      ],
      [
        "▁m'en",
        -9.466818622375994
      ],
      [
        "▁V",
        -9.467016661243044
      ],
      [
        "▁étranger",
        -9.469139985530571
      ],
      [
        "▁fow",
        -9.474351456928416
      ],
      [
        "▁wa",
        -9.47549192679548
      ],
      [
        "▁Nu",
        -9.475937215361565
      ],
      [
        "▁fee",
        -9.476427355798306
      ],
      [
        "▁Fu",
        -9.476443965148944
      ],
      [
        "aas",
        -9.479124659992376
      ],
      [
        "▁muur",
        -9.479186127060501
      ],
      [
        "tt",
        -9.47987182192528
      ],
      [
        "▁nopp",
        -9.480238601323384
      ],
      [
        "▁Wiktoryaa",
        -9.480369863443158
      ],
      [
        "▁dëggëntaan",
        -9.480369863590761
      ],
      [
        "▁Mellentaan",
        -9.480369864463157
      ],
      [
        "▁gàncax",
        -9.480369864623631
      ],
      [
        "▁Abaakaliki",
        -9.48036987233657
      ],
      [
        "▁petorool",
        -9.480369877607814
      ],
      [
        "▁territoire",
        -9.48036989844463
      ],
      [
        "▁jaxasoo",
        -9.480369952070214
      ],
      [
        "▁dëgg-dëgg",
        -9.480369977238048
      ],
      [
        "▁xibaar",
        -9.48036998235998
      ],
      [
        "▁ponkal",
        -9.48037019413566
      ],
      [
        "▁règle",
        -9.480370871214596
      ],
      [
        "▁ngëlén",
        -9.480371170490393
      ],
      [
        "▁Cross",
        -9.480372940005331
      ],
      [
        "▁Lagos",
        -9.480373034334328
      ],
      [
        "▁désert",
        -9.480375471258903
      ],
      [
        "▁000",
        -9.480376653302804
      ],
      [
        "▁Africains",
        -9.480377945559967
      ],
      [
        "▁kawas",
        -9.480378073454077
      ],
      [
        "▁chemise",
        -9.480379199913346
      ],
      [
        "▁vingt",
        -9.48038509233665
      ],
      [
        "▁baaraam",
        -9.48038567227826
      ],
      [
        "▁werante",
        -9.480396182468436
      ],
      [
        "▁pierre",
        -9.48039919880786
      ],
      [
        "▁féete",
        -9.480404231338147
      ],
      [
        "▁mbedd",
        -9.480408170872272
      ],
      [
        "▁cheveux",
        -9.48041434498037
      ],
      [
        "aa",
        -9.480423004526344
      ],
      [
        "▁ressens",
        -9.480433928770232
      ],
      [
        "▁jumtukaay",
        -9.480442539539071
      ],
      [
        "▁jékkee-j",
        -9.480449013984897
      ],
      [
        "▁réalité",
        -9.480449589658855
      ],
      [
        "▁servir",
        -9.480480756891033
      ],
      [
        "▁époque",
        -9.48050270177055
      ],
      [
        "▁njabootam",
        -9.480514167292451
      ],
      [
        "▁frontière",
        -9.480523809128169
      ],
      [
        "▁cofeel",
        -9.480554573704119
      ],
      [
        "▁légère",
        -9.480567572074738
      ],
      [
        "▁jàmm",
        -9.480608495636341
      ],
      [
        "▁début",
        -9.480720141276548
      ],
      [
        "▁herbes",
        -9.480731628461806
      ],
      [
        "▁vaste",
        -9.480747272861322
      ],
      [
        "▁gunge",
        -9.480776551245023
      ],
      [
        "▁caaxaan",
        -9.480794206057958
      ],
      [
        "▁rêvé",
        -9.480815333825646
      ],
      [
        "▁agsi",
        -9.480815945074974
      ],
      [
        "▁tàngaay",
        -9.480852746555103
      ],
      [
        "▁tàmm",
        -9.480858606711996
      ],
      [
        "▁seetaan",
        -9.480872305251516
      ],
      [
        "▁dajale",
        -9.480875758197703
      ],
      [
        "▁j'imagine",
        -9.480921247532823
      ],
      [
        "▁juum",
        -9.480931517087745
      ],
      [
        "▁meňň",
        -9.481023668228238
      ],
      [
        "▁voiture",
        -9.481031795179835
      ],
      [
        "▁yéeg",
        -9.481167070970898
      ],
      [
        "▁nouvelle",
        -9.481215454262486
      ],
      [
        "▁jëfandikoo",
        -9.48134811047748
      ],
      [
        "▁courir",
        -9.481349595611054
      ],
      [
        "▁jàkk",
        -9.481499264282904
      ],
      [
        "▁néew",
        -9.481528501125574
      ],
      [
        "▁masques",
        -9.481625976912035
      ],
      [
        "▁sëkk",
        -9.481639026752642
      ],
      [
        "▁lequel",
        -9.481690928865875
      ],
      [
        "▁bouche",
        -9.481745891641843
      ],
      [
        "▁partout",
        -9.48182137551559
      ],
      [
        "▁askan",
        -9.481846656342565
      ],
      [
        "▁arrêté",
        -9.482001356969096
      ],
      [
        "▁wéet",
        -9.482097438668093
      ],
      [
        "▁lonet",
        -9.482122821597219
      ],
      [
        "▁njël",
        -9.482135824740833
      ],
      [
        "▁habitants",
        -9.4824290136864
      ],
      [
        "▁Aro",
        -9.482642949163845
      ],
      [
        "▁brousse",
        -9.482794206729725
      ],
      [
        "▁gàddaay",
        -9.483027903032767
      ],
      [
        "au",
        -9.484379870346402
      ],
      [
        "▁fuir",
        -9.484519903800699
      ],
      [
        "▁tolloo",
        -9.484655971387895
      ],
      [
        "▁waxtu",
        -9.484776265936524
      ],
      [
        "..",
        -9.484879609290196
      ],
      [
        "▁booba",
        -9.484891672434898
      ],
      [
        "quoi",
        -9.484987829530429
      ],
      [
        "▁tontu",
        -9.485012882709032
      ],
      [
        "▁malade",
        -9.485072759126883
      ],
      [
        "▁jambes",
        -9.485312628837248
      ],
      [
        "▁l'aventure",
        -9.485640424170699
      ],
      [
        "▁naqadi",
        -9.485893069878042
      ],
      [
        "▁tata",
        -9.486025935377983
      ],
      [
        "▁soosu",
        -9.486221741159907
      ],
      [
        "▁laisser",
        -9.486586413666952
      ],
      [
        "▁surga",
        -9.486689143934388
      ],
      [
        "▁démb",
        -9.487343502242624
      ],
      [
        "▁souffle",
        -9.487393798926933
      ],
      [
        "▁écrit",
        -9.488547510652301
      ],
      [
        "▁jo",
        -9.488737265013969
      ],
      [
        "▁fenn",
        -9.489608875081453
      ],
      [
        "▁Europe",
        -9.489887939067428
      ],
      [
        "▁yéemu",
        -9.490547931316426
      ],
      [
        "▁reer",
        -9.49216550327367
      ],
      [
        "▁livre",
        -9.493766635990408
      ],
      [
        "▁Aiya",
        -9.493828158677733
      ],
      [
        "▁Port",
        -9.493839955321626
      ],
      [
        "▁sens",
        -9.493849151391764
      ],
      [
        "▁thé",
        -9.49494258649477
      ],
      [
        "▁objets",
        -9.495171928512242
      ],
      [
        "▁danga",
        -9.495203642776985
      ],
      [
        "▁histoire",
        -9.496494206958433
      ],
      [
        "▁tours",
        -9.496862553603833
      ],
      [
        "▁accompagn",
        -9.498165589432585
      ],
      [
        "aale",
        -9.4987895823756
      ],
      [
        "kkal",
        -9.499486996697762
      ],
      [
        "-t-il",
        -9.499563165334852
      ],
      [
        "▁Fii",
        -9.49998660834238
      ],
      [
        "▁vêtu",
        -9.50014888759231
      ],
      [
        "▁Quelque",
        -9.500248338974817
      ],
      [
        "▁jotee",
        -9.501769285239318
      ],
      [
        "▁ressentir",
        -9.50219183432936
      ],
      [
        "▁ré",
        -9.502596074031342
      ],
      [
        "àll",
        -9.50263241865148
      ],
      [
        "▁sës",
        -9.502975766182404
      ],
      [
        "▁humaine",
        -9.503942221277944
      ],
      [
        "▁dawal",
        -9.504115765258167
      ],
      [
        "▁visages",
        -9.504804687581652
      ],
      [
        "▁jag",
        -9.50515328901087
      ],
      [
        "▁alal",
        -9.50574559492615
      ],
      [
        "aw",
        -9.506362525755314
      ],
      [
        "▁yeew",
        -9.50654984439586
      ],
      [
        "▁fer",
        -9.507236934205523
      ],
      [
        "▁tekki",
        -9.507387183902587
      ],
      [
        "▁kay",
        -9.50870790243865
      ],
      [
        "▁Kor",
        -9.508934426964275
      ],
      [
        "▁africaine",
        -9.509094578990403
      ],
      [
        "▁sanc",
        -9.509477267171231
      ],
      [
        "▁ng",
        -9.512323319177352
      ],
      [
        "image",
        -9.5131300216246
      ],
      [
        "▁tee",
        -9.513790755736858
      ],
      [
        "▁Afrigam",
        -9.51539519162243
      ],
      [
        "▁portes",
        -9.515509616416297
      ],
      [
        "▁coups",
        -9.516444057516775
      ],
      [
        "▁naissance",
        -9.518054631237106
      ],
      [
        "▁coono",
        -9.51877069144301
      ],
      [
        "▁déet",
        -9.519054839040718
      ],
      [
        "bar",
        -9.519210030536176
      ],
      [
        "▁yax",
        -9.52195297080221
      ],
      [
        "▁l'é",
        -9.523041109768565
      ],
      [
        "▁car",
        -9.525374981268424
      ],
      [
        "▁màndarga",
        -9.525531765957982
      ],
      [
        "▁féex",
        -9.52734148820867
      ],
      [
        "▁wur",
        -9.527664488461149
      ],
      [
        "andoo",
        -9.52860218545014
      ],
      [
        "nn",
        -9.531899149466605
      ],
      [
        "▁française",
        -9.532235909519294
      ],
      [
        "▁parle",
        -9.533669898189068
      ],
      [
        "▁rivières",
        -9.53615183034761
      ],
      [
        "sait",
        -9.537178633978133
      ],
      [
        "▁nguuru",
        -9.539153580584536
      ],
      [
        "▁doo",
        -9.540998315346798
      ],
      [
        "part",
        -9.541957264916995
      ],
      [
        "▁hu",
        -9.5425526142584
      ],
      [
        "exe",
        -9.544702472035027
      ],
      [
        "▁daawu",
        -9.54510131158807
      ],
      [
        "▁commence",
        -9.546265976446913
      ],
      [
        "▁devenu",
        -9.546429845413806
      ],
      [
        "▁yaak",
        -9.546817869017012
      ],
      [
        "yu",
        -9.549060258206861
      ],
      [
        "▁rage",
        -9.549197849039633
      ],
      [
        "▁xet",
        -9.550587691705736
      ],
      [
        "▁àpp",
        -9.550916997007697
      ],
      [
        "ññ",
        -9.551723031165311
      ],
      [
        "▁Abo",
        -9.552472709555351
      ],
      [
        "▁dun",
        -9.553266698797307
      ],
      [
        "▁Ra",
        -9.553387291264885
      ],
      [
        "▁tànki",
        -9.555457119861979
      ],
      [
        "▁Di",
        -9.556653003737566
      ],
      [
        "▁not",
        -9.557291802969747
      ],
      [
        "▁traverse",
        -9.559072907253327
      ],
      [
        "▁dikk",
        -9.559404729497036
      ],
      [
        "▁woy",
        -9.560688813190147
      ],
      [
        "▁dan",
        -9.566121662770378
      ],
      [
        "-là",
        -9.570779804214904
      ],
      [
        "tions",
        -9.575519386959492
      ],
      [
        "▁jou",
        -9.577436810500743
      ],
      [
        "óor",
        -9.58211878285488
      ],
      [
        "▁danu",
        -9.58367068785932
      ],
      [
        "▁naň",
        -9.585937305621602
      ],
      [
        "▁pos",
        -9.586786666246136
      ],
      [
        "tation",
        -9.587726057653743
      ],
      [
        "▁venu",
        -9.588582560115643
      ],
      [
        "instant",
        -9.590183751694957
      ],
      [
        "ëgg",
        -9.59208473888156
      ],
      [
        "▁waroo",
        -9.592578367405988
      ],
      [
        "leek",
        -9.592652180482084
      ],
      [
        "▁ñeme",
        -9.596507649211611
      ],
      [
        "▁H",
        -9.598703553325766
      ],
      [
        "▁dinaa",
        -9.599843745664664
      ],
      [
        "▁yen",
        -9.60217654420856
      ],
      [
        "▁nus",
        -9.60233714944211
      ],
      [
        "▁Ngi",
        -9.60430089748178
      ],
      [
        "ko",
        -9.60839511804113
      ],
      [
        "▁cou",
        -9.6119718692933
      ],
      [
        "▁nguur",
        -9.613124105277329
      ],
      [
        "▁suiv",
        -9.618694292235581
      ],
      [
        "el",
        -9.618926563985521
      ],
      [
        "▁Peu",
        -9.619766336236452
      ],
      [
        "oy",
        -9.620849532885307
      ],
      [
        "ga",
        -9.623675851418193
      ],
      [
        "▁garde",
        -9.62400646463382
      ],
      [
        "▁ro",
        -9.628043045475405
      ],
      [
        "▁Mar",
        -9.629790722846595
      ],
      [
        "▁j'",
        -9.630326449575339
      ],
      [
        "ai",
        -9.632492254715906
      ],
      [
        "▁nan",
        -9.636304858063568
      ],
      [
        "ji",
        -9.636734867816745
      ],
      [
        "0",
        -9.637230934299511
      ],
      [
        "▁chaud",
        -9.637518376255446
      ],
      [
        "▁Ñoo",
        -9.644036598487105
      ],
      [
        "ique",
        -9.645143211485578
      ],
      [
        "ët",
        -9.648060622155779
      ],
      [
        "ète",
        -9.649282510042505
      ],
      [
        "▁far",
        -9.651821441736919
      ],
      [
        "▁jur",
        -9.651939957910473
      ],
      [
        "▁Foo",
        -9.653398188631352
      ],
      [
        "▁làq",
        -9.655436265668644
      ],
      [
        "ta",
        -9.657079711498605
      ],
      [
        "▁ger",
        -9.657682087902362
      ],
      [
        "euse",
        -9.658106947437465
      ],
      [
        "indre",
        -9.658284388810756
      ],
      [
        "n.",
        -9.660807493582139
      ],
      [
        "▁sauvage",
        -9.662896891680777
      ],
      [
        "umes",
        -9.665831474435137
      ],
      [
        "▁daanu",
        -9.670218860627507
      ],
      [
        "ok",
        -9.672470215424656
      ],
      [
        "eef",
        -9.67427232549626
      ],
      [
        "▁màgge",
        -9.674617189303827
      ],
      [
        "or",
        -9.674639505908068
      ],
      [
        "▁sopp",
        -9.674874720298593
      ],
      [
        "▁entendu",
        -9.67650910014247
      ],
      [
        "▁chemin",
        -9.679635054633497
      ],
      [
        "▁camerounais",
        -9.680369863445735
      ],
      [
        "▁Sefiriis",
        -9.680369863473711
      ],
      [
        "”",
        -9.680369863483067
      ],
      [
        "▁Southampton",
        -9.680369863483067
      ],
      [
        "▁Georgetown",
        -9.680369863514688
      ],
      [
        "▁Adekunle",
        -9.680369863624286
      ],
      [
        "▁njàqare",
        -9.680369863812546
      ],
      [
        "▁biafrais",
        -9.680369866098221
      ],
      [
        "▁Biafra",
        -9.68036987830277
      ],
      [
        "▁termitières",
        -9.680369878853917
      ],
      [
        "▁photographi",
        -9.680369888280545
      ],
      [
        "▁Yoruba",
        -9.680369898231866
      ],
      [
        "▁Ó",
        -9.680369919225
      ],
      [
        "▁l'époque",
        -9.680370004286337
      ],
      [
        "▁“",
        -9.680370011652855
      ],
      [
        "D.O.",
        -9.680370241569683
      ],
      [
        "▁grand-père",
        -9.680370493214978
      ],
      [
        "▁continent",
        -9.680370706965302
      ],
      [
        "▁Sorstaawun",
        -9.680371916445148
      ],
      [
        "▁probable",
        -9.680375017711775
      ],
      [
        "▁visite",
        -9.68037574665732
      ],
      [
        "▁chaussures",
        -9.680378084105717
      ],
      [
        "▁ndóol",
        -9.680379904741551
      ],
      [
        "▁rejoindre",
        -9.680379940857781
      ],
      [
        "▁service",
        -9.680380365691304
      ],
      [
        "▁métier",
        -9.680381941040396
      ],
      [
        "▁kalaate",
        -9.680383835183816
      ],
      [
        "▁contact",
        -9.680383850010015
      ],
      [
        "▁taabal",
        -9.68038763613075
      ],
      [
        "▁branche",
        -9.680388083420604
      ],
      [
        "▁noyyi",
        -9.680390548605763
      ],
      [
        "▁compris",
        -9.680392537093146
      ],
      [
        "▁retraite",
        -9.68039353152358
      ],
      [
        "▁tronc",
        -9.680394341447636
      ],
      [
        "▁collines",
        -9.680394504270058
      ],
      [
        "▁terrible",
        -9.68039517825658
      ],
      [
        "▁karaw",
        -9.680397759725071
      ],
      [
        "▁l'aube",
        -9.68040454859723
      ],
      [
        "▁brûlure",
        -9.680410336435829
      ],
      [
        "▁poussière",
        -9.680420280547104
      ],
      [
        "▁xaaju",
        -9.680431931188766
      ],
      [
        "▁assis",
        -9.680438353488505
      ],
      [
        "▁gànnaay",
        -9.680459390088961
      ],
      [
        "▁alkol",
        -9.680472562543208
      ],
      [
        "▁làquji",
        -9.680481689459675
      ],
      [
        "▁fetal",
        -9.680515260098826
      ],
      [
        "▁doxantu",
        -9.6805180489736
      ],
      [
        "▁juste",
        -9.680534527404676
      ],
      [
        "▁fût",
        -9.68055152972644
      ],
      [
        "▁revenir",
        -9.68055178831305
      ],
      [
        "▁fauve",
        -9.680599734264844
      ],
      [
        "▁séchée",
        -9.680610523678231
      ],
      [
        "▁j'étais",
        -9.680616426754888
      ],
      [
        "▁Pourtant",
        -9.680631591578408
      ],
      [
        "▁naqar",
        -9.680652947850195
      ],
      [
        "▁rares",
        -9.680694464643388
      ],
      [
        "▁lampe",
        -9.680741316021278
      ],
      [
        "▁fruit",
        -9.680741923907464
      ],
      [
        "-tiir",
        -9.680744776739704
      ],
      [
        "▁ondul",
        -9.680776487840687
      ],
      [
        "▁soppiku",
        -9.680840711147999
      ],
      [
        "▁awsa",
        -9.680965775331183
      ],
      [
        "▁hutte",
        -9.680972444866327
      ],
      [
        "▁xeex",
        -9.681068913403934
      ],
      [
        "▁colère",
        -9.681103071064319
      ],
      [
        "▁mbind",
        -9.681140701477172
      ],
      [
        "▁Ijama",
        -9.681145959032312
      ],
      [
        "▁journée",
        -9.681153958396504
      ],
      [
        "▁mbégte",
        -9.681182759517366
      ],
      [
        "▁commun",
        -9.681222124560689
      ],
      [
        "▁yàlla",
        -9.681251885726976
      ],
      [
        "▁place",
        -9.681365189110277
      ],
      [
        "▁précédé",
        -9.681400529293915
      ],
      [
        "▁Dëkk",
        -9.68147703031693
      ],
      [
        "▁oncle",
        -9.681480233930746
      ],
      [
        "▁dékku",
        -9.681617028954102
      ],
      [
        "▁yëf",
        -9.681676591429516
      ],
      [
        "▁gox",
        -9.681731967558491
      ],
      [
        "▁vivant",
        -9.681824376971536
      ],
      [
        "▁fitna",
        -9.682033602315663
      ],
      [
        "▁juddu",
        -9.682657210564507
      ],
      [
        "▁sàcc",
        -9.682681681620238
      ],
      [
        "▁daaneel",
        -9.682786930350852
      ],
      [
        "▁hamacs",
        -9.682804199098388
      ],
      [
        "▁yàpp",
        -9.682823435491306
      ],
      [
        "▁volets",
        -9.682833539782413
      ],
      [
        "▁pince",
        -9.682882919204237
      ],
      [
        "▁sensation",
        -9.6828869249977
      ],
      [
        "▁apporté",
        -9.682944834085763
      ],
      [
        "▁kukk",
        -9.68302849787595
      ],
      [
        "▁jouer",
        -9.683171622506702
      ],
      [
        "▁feneen",
        -9.68320955170127
      ],
      [
        "▁Av",
        -9.68333299244903
      ],
      [
        "▁delsi",
        -9.683432663358323
      ],
      [
        "▁sombre",
        -9.683453170196417
      ],
      [
        "▁fey",
        -9.683690077615093
      ],
      [
        "pp",
        -9.684000093055934
      ],
      [
        "our",
        -9.684227127934664
      ],
      [
        "▁fépp",
        -9.684291596427375
      ],
      [
        "▁nom",
        -9.684316207217666
      ],
      [
        "▁simis",
        -9.684428260486317
      ],
      [
        "▁yéene",
        -9.684837399621442
      ],
      [
        "tiens",
        -9.68496518310886
      ],
      [
        "▁taw",
        -9.685087663973993
      ],
      [
        "oog",
        -9.685160551812551
      ],
      [
        "▁xur",
        -9.68551317185666
      ],
      [
        "▁bonne",
        -9.685871827593612
      ],
      [
        "▁melax",
        -9.6861165567849
      ],
      [
        "▁égale",
        -9.68656459568076
      ],
      [
        "erig",
        -9.686594458320608
      ],
      [
        "▁ëmb",
        -9.68678510026855
      ],
      [
        "▁yëgaat",
        -9.68723080272409
      ],
      [
        "▁voit",
        -9.687251606154641
      ],
      [
        "▁alors",
        -9.68730302418823
      ],
      [
        "▁fort",
        -9.687540874270551
      ],
      [
        "▁droit",
        -9.688352973267332
      ],
      [
        "▁dajee",
        -9.688743538445923
      ],
      [
        "▁douce",
        -9.688978736720287
      ],
      [
        "fippu",
        -9.688992033218657
      ],
      [
        "▁eux",
        -9.689623574246545
      ],
      [
        "▁resté",
        -9.689634714104535
      ],
      [
        "▁kowam",
        -9.690152828807403
      ],
      [
        "▁allemande",
        -9.690458437148258
      ],
      [
        "▁militaires",
        -9.69072428592624
      ],
      [
        "▁rire",
        -9.690800216963945
      ],
      [
        "▁njort",
        -9.690862063926586
      ],
      [
        "▁cuisine",
        -9.691486948851072
      ],
      [
        "▁nijaay",
        -9.691601614725121
      ],
      [
        "▁savoir",
        -9.692166591741644
      ],
      [
        "▁taamu",
        -9.692289151439942
      ],
      [
        "▁guyy",
        -9.69288262687783
      ],
      [
        "▁buum",
        -9.69296133426736
      ],
      [
        "▁pans",
        -9.693272720405119
      ],
      [
        "▁sell",
        -9.693467432323523
      ],
      [
        "▁personne",
        -9.693542111469725
      ],
      [
        "▁différent",
        -9.694177714452398
      ],
      [
        "▁vide",
        -9.694202085223441
      ],
      [
        "alla",
        -9.69626490072477
      ],
      [
        "ati-",
        -9.69628231192959
      ],
      [
        "▁dàtt",
        -9.697159326906805
      ],
      [
        "▁ainsi",
        -9.697503774772201
      ],
      [
        "lon",
        -9.697679188630405
      ],
      [
        "▁couch",
        -9.697723550715217
      ],
      [
        "▁tiit",
        -9.698560016762677
      ],
      [
        "▁dëkkoon",
        -9.699745415822425
      ],
      [
        "▁donc",
        -9.699765897904804
      ],
      [
        "elles",
        -9.70074943512139
      ],
      [
        "▁forte",
        -9.700859980974359
      ],
      [
        "▁lal",
        -9.70111880080725
      ],
      [
        "ŋŋ",
        -9.701745761772315
      ],
      [
        "▁charge",
        -9.701941843949628
      ],
      [
        "▁armé",
        -9.703555522582077
      ],
      [
        "▁laine",
        -9.704356063743397
      ],
      [
        "▁dàq",
        -9.705343795703023
      ],
      [
        "▁siy",
        -9.705464544772278
      ],
      [
        "▁naaxi",
        -9.705923255366288
      ],
      [
        "▁néegu-",
        -9.706065077464036
      ],
      [
        "▁scorpions",
        -9.706436450633985
      ],
      [
        "ène",
        -9.70684553433036
      ],
      [
        "▁laissé",
        -9.707248521141874
      ],
      [
        "▁làqu",
        -9.707500572379342
      ],
      [
        "▁rive",
        -9.70782247102696
      ],
      [
        "aanaka",
        -9.707842816894184
      ],
      [
        "veux",
        -9.708473504518262
      ],
      [
        "▁lire",
        -9.709262787623036
      ],
      [
        "▁mill",
        -9.710437548758147
      ],
      [
        "▁waru",
        -9.710565870639662
      ],
      [
        "▁yéeme",
        -9.711106481938005
      ],
      [
        "▁devenus",
        -9.71131942451601
      ],
      [
        "▁àtte",
        -9.71132504963137
      ],
      [
        "▁baxa",
        -9.711934182931406
      ],
      [
        "'imagine",
        -9.712558243565592
      ],
      [
        "▁tour",
        -9.71261833432641
      ],
      [
        "était",
        -9.713046308327755
      ],
      [
        "▁mënuma",
        -9.713640318228215
      ],
      [
        "▁avance",
        -9.715464410084351
      ],
      [
        "▁Mag",
        -9.715481726423487
      ],
      [
        "sant",
        -9.71568122333763
      ],
      [
        "▁dev",
        -9.715932155397294
      ],
      [
        "▁dugal",
        -9.716571642464944
      ],
      [
        "ya",
        -9.718749747231069
      ],
      [
        "ches",
        -9.718984861295228
      ],
      [
        "▁l'ét",
        -9.720152786080801
      ],
      [
        "▁niir",
        -9.72018817254
      ],
      [
        "▁tiis",
        -9.721358714867415
      ],
      [
        "mi",
        -9.72157604371428
      ],
      [
        "▁wutal",
        -9.722672507098196
      ],
      [
        "▁rend",
        -9.723013733839112
      ],
      [
        "auté",
        -9.723327910697808
      ],
      [
        "▁pareil",
        -9.723802119016723
      ],
      [
        "▁pluie",
        -9.725334645595119
      ],
      [
        "kaay",
        -9.725388184747764
      ],
      [
        "angoisse",
        -9.727188338469135
      ],
      [
        "▁buntu",
        -9.727444015952116
      ],
      [
        "▁wàcce",
        -9.728404346915635
      ],
      [
        "▁kan",
        -9.729543470592338
      ],
      [
        "▁mënee",
        -9.730521691236499
      ],
      [
        "▁Moi",
        -9.733473819658917
      ],
      [
        "toon",
        -9.73380047395657
      ],
      [
        "ces",
        -9.734073163977556
      ],
      [
        "▁présent",
        -9.734458568989506
      ],
      [
        "▁troupeau",
        -9.734471214279791
      ],
      [
        "-d",
        -9.735642270004798
      ],
      [
        "▁saf",
        -9.73565160182389
      ],
      [
        "ju",
        -9.735892529457278
      ],
      [
        "andis",
        -9.737529771597055
      ],
      [
        "▁plan",
        -9.738449143389342
      ],
      [
        "▁instant",
        -9.738784509936147
      ],
      [
        "▁ňi",
        -9.73926832616679
      ],
      [
        "ption",
        -9.73928449042105
      ],
      [
        "▁Xe",
        -9.739873397777362
      ],
      [
        "▁kii",
        -9.741293104172215
      ],
      [
        "om",
        -9.742021014537576
      ],
      [
        "ins",
        -9.742169106456412
      ],
      [
        "▁pis",
        -9.744667032906914
      ],
      [
        "▁fil",
        -9.74480448116764
      ],
      [
        "mes",
        -9.7463416931556
      ],
      [
        "▁taxu",
        -9.747085110347633
      ],
      [
        "▁seuls",
        -9.747138150672052
      ],
      [
        "▁tus",
        -9.750653638354125
      ],
      [
        "▁arrivée",
        -9.75197912666032
      ],
      [
        "suñ",
        -9.75422997506642
      ],
      [
        "tam",
        -9.755290406957906
      ],
      [
        "▁provi",
        -9.756776478428229
      ],
      [
        "▁auto",
        -9.757294528906069
      ],
      [
        "▁prise",
        -9.757970359312043
      ],
      [
        "▁jaa",
        -9.758023743346564
      ],
      [
        "▁Ri",
        -9.760408569631052
      ],
      [
        "▁l'avai",
        -9.761571448167556
      ],
      [
        "▁léeb",
        -9.76183893060465
      ],
      [
        "▁duñu",
        -9.763319729094064
      ],
      [
        "▁Tu",
        -9.763914045135897
      ],
      [
        "koo",
        -9.76600574774072
      ],
      [
        "▁At",
        -9.766219371482538
      ],
      [
        "▁wet",
        -9.767378496957777
      ],
      [
        "▁pourra",
        -9.76822663418443
      ],
      [
        "-ci",
        -9.768712078929013
      ],
      [
        "co",
        -9.76975881971751
      ],
      [
        "▁x",
        -9.773381451952876
      ],
      [
        "▁soup",
        -9.774563679141338
      ],
      [
        "boole",
        -9.776039006637877
      ],
      [
        "▁donn",
        -9.776560212962373
      ],
      [
        "▁d'or",
        -9.78006622114075
      ],
      [
        "aka",
        -9.780369802660532
      ],
      [
        "éy",
        -9.783102582955097
      ],
      [
        "Tubaab",
        -9.787621130521838
      ],
      [
        "▁cee",
        -9.791440105467775
      ],
      [
        "▁mënut",
        -9.792248854458888
      ],
      [
        "▁m'",
        -9.792551599225211
      ],
      [
        "▁rappel",
        -9.79255212442734
      ],
      [
        "▁sant",
        -9.793224673387222
      ],
      [
        "waa",
        -9.794816781285876
      ],
      [
        "rt",
        -9.795138214234697
      ],
      [
        "▁Pu",
        -9.795955965474805
      ],
      [
        "▁cr",
        -9.796968913041937
      ],
      [
        "su",
        -9.797287290768455
      ],
      [
        "semble",
        -9.798391710857961
      ],
      [
        "pe",
        -9.800076436743947
      ],
      [
        "aayu",
        -9.801792261025541
      ],
      [
        "▁pouss",
        -9.801953296722374
      ],
      [
        "▁e",
        -9.802310333536694
      ],
      [
        "▁mari",
        -9.803748932058287
      ],
      [
        "▁vari",
        -9.804078538005529
      ],
      [
        "ières",
        -9.80486218916002
      ],
      [
        "▁impression",
        -9.806767845331006
      ],
      [
        "▁grandi",
        -9.807420528260383
      ],
      [
        "ndax",
        -9.80773148781051
      ],
      [
        "▁guy",
        -9.80814265616865
      ],
      [
        "aatu",
        -9.809240535271881
      ],
      [
        "▁(ce",
        -9.809332878980918
      ],
      [
        "ton",
        -9.809367282122034
      ],
      [
        "▁pensé",
        -9.809391883498856
      ],
      [
        "▁ami",
        -9.809409925294371
      ],
      [
        "'occupa",
        -9.809554053644572
      ],
      [
        "▁table",
        -9.809811250339308
      ],
      [
        "▁lim",
        -9.81148462309871
      ],
      [
        "waale",
        -9.812514037733369
      ],
      [
        "vais",
        -9.812978759312372
      ],
      [
        "▁qua",
        -9.814487969062544
      ],
      [
        "▁donne",
        -9.814586330978562
      ],
      [
        "ombre",
        -9.816163504665322
      ],
      [
        "sse",
        -9.817006986307643
      ],
      [
        "ait-il",
        -9.819756691108878
      ],
      [
        "rait",
        -9.821151614502382
      ],
      [
        "▁waxi",
        -9.825572108903433
      ],
      [
        "use",
        -9.827238270510167
      ],
      [
        "▁cont",
        -9.828133026904784
      ],
      [
        "gi",
        -9.828286406189882
      ],
      [
        "éjà",
        -9.830080796075327
      ],
      [
        "▁sor",
        -9.831027041398915
      ],
      [
        "ca",
        -9.832949999660913
      ],
      [
        "▁gee",
        -9.835743363978068
      ],
      [
        "ish",
        -9.838135375751193
      ],
      [
        "▁tool",
        -9.840045206049071
      ],
      [
        "lli",
        -9.84013328191033
      ],
      [
        "▁yemu",
        -9.840483644988568
      ],
      [
        "u-",
        -9.840669959219127
      ],
      [
        "cc",
        -9.840680420406944
      ],
      [
        "▁jé",
        -9.841901984595996
      ],
      [
        "roule",
        -9.846474851755055
      ],
      [
        "▁wor",
        -9.847338546638632
      ],
      [
        "▁kam",
        -9.848823632547804
      ],
      [
        "▁xa",
        -9.84897103149369
      ],
      [
        "▁croi",
        -9.849061197019807
      ],
      [
        "ànd",
        -9.854043550025594
      ],
      [
        "▁pourrai",
        -9.85411840548749
      ],
      [
        "▁est-",
        -9.854984596520248
      ],
      [
        "▁Dëg",
        -9.855369915481699
      ],
      [
        "▁mb",
        -9.856427326869408
      ],
      [
        "▁Gu",
        -9.857542835186123
      ],
      [
        "▁wiy",
        -9.859014005765435
      ],
      [
        "▁découvert",
        -9.859761116051093
      ],
      [
        "gu",
        -9.85989944110229
      ],
      [
        "ieux",
        -9.8612786053262
      ],
      [
        "porter",
        -9.861907085532398
      ],
      [
        "▁soxna",
        -9.862127742895911
      ],
      [
        "ément",
        -9.864306318020203
      ],
      [
        "aller",
        -9.864503530095972
      ],
      [
        "▁Mi",
        -9.866570223166416
      ],
      [
        "isme",
        -9.869271139787022
      ],
      [
        "▁Co",
        -9.869454950428661
      ],
      [
        "▁wàcc",
        -9.872483728353515
      ],
      [
        "as",
        -9.872775500764817
      ],
      [
        "▁Ña",
        -9.872802893147888
      ],
      [
        "▁be",
        -9.875640999164585
      ],
      [
        "▁fit",
        -9.877570100914005
      ],
      [
        "▁couvert",
        -9.877717968118823
      ],
      [
        "t.",
        -9.87841506061468
      ],
      [
        "celle",
        -9.878415753164564
      ],
      [
        "▁quitte",
        -9.878447793432573
      ],
      [
        "▁daa",
        -9.879070882790964
      ],
      [
        "vant",
        -9.87913000314337
      ],
      [
        "▁Ko",
        -9.881836820593184
      ],
      [
        "rète",
        -9.883462802131238
      ],
      [
        "sion",
        -9.883476692604507
      ],
      [
        "▁yéem",
        -9.884219342809617
      ],
      [
        "▁fenêtre",
        -9.884607095725393
      ],
      [
        "▁see",
        -9.88666009600967
      ],
      [
        "uwaa",
        -9.888781676713252
      ],
      [
        "aires",
        -9.889168517938607
      ],
      [
        "mb",
        -9.88923380243478
      ],
      [
        "▁rëbb",
        -9.889720910269919
      ],
      [
        "ékk",
        -9.891193800184634
      ],
      [
        "▁këru",
        -9.89126029998491
      ],
      [
        "▁av",
        -9.893229835904426
      ],
      [
        "moon",
        -9.893632851701103
      ],
      [
        "▁waxe",
        -9.893762823936987
      ],
      [
        "▁toj",
        -9.893914685523743
      ],
      [
        "jafe",
        -9.894309786928194
      ],
      [
        "ry",
        -9.898511441326667
      ],
      [
        "▁coupé",
        -9.90031156297357
      ],
      [
        "▁col",
        -9.900411513221686
      ],
      [
        "▁cherch",
        -9.901618065974692
      ],
      [
        "ël",
        -9.905276780604941
      ],
      [
        "▁yàq",
        -9.905523706523974
      ],
      [
        "▁rue",
        -9.907081935744973
      ],
      [
        "▁xii",
        -9.908783701986975
      ],
      [
        "▁tête",
        -9.909880107446682
      ],
      [
        "▁anglais",
        -9.910571961126205
      ],
      [
        "▁kàdd",
        -9.910880713933164
      ],
      [
        "▁tama",
        -9.911664208439117
      ],
      [
        "▁yar",
        -9.912123894425022
      ],
      [
        "▁bâton",
        -9.912182950857488
      ],
      [
        "▁décor",
        -9.912468097913948
      ],
      [
        "▁natt",
        -9.912777299809251
      ],
      [
        "▁Moka",
        -9.914271378095563
      ],
      [
        "ù",
        -9.914597879824779
      ],
      [
        "▁tegu",
        -9.914617870855496
      ],
      [
        "ion",
        -9.915321594903702
      ],
      [
        "milie",
        -9.915684953411294
      ],
      [
        "ssu",
        -9.915871129593278
      ],
      [
        "olli",
        -9.916329001386547
      ],
      [
        "▁frapp",
        -9.918411444868052
      ],
      [
        "ama",
        -9.919860551050963
      ],
      [
        "▁chang",
        -9.920332872634443
      ],
      [
        "▁taax",
        -9.921231394928808
      ],
      [
        "▁gëm",
        -9.921292992368288
      ],
      [
        "▁batt",
        -9.921747641670057
      ],
      [
        "euses",
        -9.922754020848188
      ],
      [
        "uñ",
        -9.92354799211943
      ],
      [
        "ñoo",
        -9.924943913434715
      ],
      [
        "ers",
        -9.926330086553415
      ],
      [
        "▁com",
        -9.929519587511917
      ],
      [
        "2",
        -9.930363854567906
      ],
      [
        "▁trapèze",
        -9.930369863443822
      ],
      [
        "▁Bërëtaañ",
        -9.930369863444302
      ],
      [
        "▁ndànk-ndànk",
        -9.930369863446566
      ],
      [
        "▁Ahidjo",
        -9.930369863449089
      ],
      [
        "▁États-Unis",
        -9.930369863453663
      ],
      [
        "▁dóomu-taal",
        -9.930369863483067
      ],
      [
        "▁junniy-junni",
        -9.930369863504652
      ],
      [
        "▁Angleterre",
        -9.930369863567769
      ],
      [
        "▁Abakaliki",
        -9.930369863622783
      ],
      [
        "▁béjjén",
        -9.930369863989604
      ],
      [
        "▁lorgnons",
        -9.930369864198468
      ],
      [
        "▁Kalabaar",
        -9.930369864608096
      ],
      [
        "▁discipline",
        -9.930369864982074
      ],
      [
        "▁1948",
        -9.930369864991352
      ],
      [
        "▁1928",
        -9.930369865603769
      ],
      [
        "▁électri",
        -9.930369867108972
      ],
      [
        "▁tés-tés",
        -9.930369868077479
      ],
      [
        "▁éprouv",
        -9.9303698711748
      ],
      [
        "▁Harcourt",
        -9.93036987183401
      ],
      [
        "▁fièvre",
        -9.930369872376168
      ],
      [
        "▁BBC",
        -9.930369873401073
      ],
      [
        "▁tekk-tekkaaral",
        -9.930369876368044
      ],
      [
        "▁Allemand",
        -9.930369879613037
      ],
      [
        "▁proximité",
        -9.93036988202337
      ],
      [
        "▁rajaxe",
        -9.930369892023586
      ],
      [
        "▁caravane",
        -9.930369900604273
      ],
      [
        "▁saxaaru-géej",
        -9.930369902123688
      ],
      [
        "▁Bretagne",
        -9.930369916262372
      ],
      [
        "▁officier",
        -9.930369920106177
      ],
      [
        "▁Anglais",
        -9.930369989920123
      ],
      [
        "▁trésor",
        -9.93037000126536
      ],
      [
        "▁sibbiru",
        -9.930370070606191
      ],
      [
        "▁Jeffries",
        -9.930370119174263
      ],
      [
        "▁Certain",
        -9.930370144244558
      ],
      [
        "▁règne",
        -9.930370510918774
      ],
      [
        "▁accepté",
        -9.930370625987003
      ],
      [
        "▁Calabar",
        -9.930370706667624
      ],
      [
        "▁alentour",
        -9.930370955534201
      ],
      [
        "▁cliché",
        -9.930370962302788
      ],
      [
        "▁pénétr",
        -9.93037097306862
      ],
      [
        "▁assiette",
        -9.93037259634473
      ],
      [
        "▁extraordinaire",
        -9.930372842031048
      ],
      [
        "▁Chuku",
        -9.930373003554635
      ],
      [
        "▁ruisseau",
        -9.930374367828252
      ],
      [
        "▁l'abri",
        -9.930374420445691
      ],
      [
        "▁radio",
        -9.930374484777147
      ],
      [
        "▁Blanc",
        -9.930375003289548
      ],
      [
        "▁kilomet",
        -9.930375673657256
      ],
      [
        "▁tropicale",
        -9.930378128973189
      ],
      [
        "▁yëngatu",
        -9.930380444494595
      ],
      [
        "▁Panama",
        -9.930381786398312
      ],
      [
        "▁Riwër",
        -9.930383378255138
      ],
      [
        "▁ràññe",
        -9.930385890637428
      ],
      [
        "▁foudre",
        -9.93038619920481
      ],
      [
        "▁guyaab",
        -9.930391343857499
      ],
      [
        "▁décrit",
        -9.930393671792542
      ],
      [
        "▁répond",
        -9.930394319623339
      ],
      [
        "▁Kipli",
        -9.930394345972447
      ],
      [
        "▁Guddi",
        -9.930395153249648
      ],
      [
        "▁légende",
        -9.930399949365945
      ],
      [
        "▁obsession",
        -9.930401218289054
      ],
      [
        "▁entouré",
        -9.930401979560775
      ],
      [
        "▁jërr",
        -9.930403329941683
      ],
      [
        "▁ndànk",
        -9.930405216993089
      ],
      [
        "▁fauteuil",
        -9.930407761090077
      ],
      [
        "▁River",
        -9.930414135831574
      ],
      [
        "▁1968",
        -9.930417310873132
      ],
      [
        "▁mbindeef",
        -9.930418148487753
      ],
      [
        "▁poitrine",
        -9.93042659294788
      ],
      [
        "▁Looloo",
        -9.930449185845156
      ],
      [
        "▁daŋar",
        -9.930451280270386
      ],
      [
        "▁firndeel",
        -9.930473627324046
      ],
      [
        "▁fonction",
        -9.930477491002202
      ],
      [
        "▁dëll",
        -9.930498289824001
      ],
      [
        "▁champ",
        -9.930508665312916
      ],
      [
        "▁maintenant",
        -9.930512109416652
      ],
      [
        "▁naître",
        -9.930515464053064
      ],
      [
        "▁fureur",
        -9.930523056973534
      ],
      [
        "▁surveill",
        -9.930564553641359
      ],
      [
        "▁comprendre",
        -9.930565863914914
      ],
      [
        "▁dure",
        -9.930591247412115
      ],
      [
        "▁l'hum",
        -9.930601162160443
      ],
      [
        "▁refus",
        -9.930606193033526
      ],
      [
        "▁rëcc",
        -9.930612847429959
      ],
      [
        "▁maasaloo",
        -9.930616442742528
      ],
      [
        "▁dëppoo",
        -9.930644561529233
      ],
      [
        "▁pegg",
        -9.930647002200287
      ],
      [
        "▁Pël",
        -9.930648409616431
      ],
      [
        "▁móol",
        -9.930655867229044
      ],
      [
        "▁possible",
        -9.930659905589474
      ],
      [
        "▁perdre",
        -9.930660100969032
      ],
      [
        "▁lui-même",
        -9.930667145121905
      ],
      [
        "▁vieillard",
        -9.9306675157674
      ],
      [
        "▁meetar",
        -9.930669506816217
      ],
      [
        "▁frappions",
        -9.930672311204944
      ],
      [
        "▁penku",
        -9.93067686649618
      ],
      [
        "▁charme",
        -9.930692832839084
      ],
      [
        "▁ňàkk",
        -9.930699642964171
      ],
      [
        "▁Suuf",
        -9.930760758023796
      ],
      [
        "▁weesu",
        -9.930788848909376
      ],
      [
        "▁móobal",
        -9.930821106909992
      ],
      [
        "▁contraire",
        -9.930837008923373
      ],
      [
        "▁Ñaar",
        -9.930848823466842
      ],
      [
        "▁capable",
        -9.930854897332168
      ],
      [
        "▁pension",
        -9.930863601805344
      ],
      [
        "▁raxas",
        -9.930908056879023
      ],
      [
        "▁Kari",
        -9.930912498431692
      ],
      [
        "▁miirloo",
        -9.930932553090576
      ],
      [
        "▁ràpp",
        -9.930952086377763
      ],
      [
        "▁ndab",
        -9.93095626731775
      ],
      [
        "▁dijj",
        -9.930984119896179
      ],
      [
        "▁bruit",
        -9.931033894420404
      ],
      [
        "▁tubay",
        -9.931124055243966
      ],
      [
        "▁nangoo",
        -9.931155514608154
      ],
      [
        "▁yemale",
        -9.931167088880489
      ],
      [
        "▁l'indépendance",
        -9.931197299536912
      ],
      [
        "▁commencé",
        -9.93127947884965
      ],
      [
        "▁lëmm",
        -9.9313425360684
      ],
      [
        "▁soxal",
        -9.931421206289116
      ],
      [
        "▁flamme",
        -9.9314654487353
      ],
      [
        "▁assez",
        -9.931500211835324
      ],
      [
        "▁muraille",
        -9.93154272844491
      ],
      [
        "▁taq",
        -9.931556969872759
      ],
      [
        "▁d'eau",
        -9.931646454197683
      ],
      [
        "empire",
        -9.931681721900187
      ],
      [
        "▁sooke",
        -9.931699419352787
      ],
      [
        "▁tabax",
        -9.931703180724995
      ],
      [
        "▁Joor",
        -9.932119664745835
      ],
      [
        "▁mangé",
        -9.93222298062536
      ],
      [
        "▁Xaw",
        -9.932291864961115
      ],
      [
        "▁Banyo",
        -9.932325195992302
      ],
      [
        "▁brûlant",
        -9.93235220672112
      ],
      [
        "▁aigu",
        -9.932365497601474
      ],
      [
        "▁raconté",
        -9.932370329403227
      ],
      [
        "▁peine",
        -9.932397417836487
      ],
      [
        "▁méngale",
        -9.932492921695571
      ],
      [
        "▁màtt",
        -9.932703689710584
      ],
      [
        "▁portale",
        -9.932728017982145
      ],
      [
        "▁Bamako",
        -9.932772335886364
      ],
      [
        "▁l'imp",
        -9.933103500726606
      ],
      [
        "deux",
        -9.933114467077305
      ],
      [
        "ures",
        -9.933182546884188
      ],
      [
        "▁marqué",
        -9.933279999511978
      ],
      [
        "▁cacher",
        -9.933403458888716
      ],
      [
        "▁Mbam",
        -9.933580106681251
      ],
      [
        "▁Ch",
        -9.93415731841041
      ],
      [
        "▁fameuse",
        -9.934251115495393
      ],
      [
        "▁mbooloo",
        -9.934256485166607
      ],
      [
        "▁diggu",
        -9.934505052102647
      ],
      [
        "▁njiit",
        -9.934607037257166
      ],
      [
        "▁ràkkaaju",
        -9.934646676745311
      ],
      [
        "▁oublier",
        -9.934834339541691
      ],
      [
        "▁dég",
        -9.93524111614878
      ],
      [
        "▁Mbir",
        -9.935256300532927
      ],
      [
        "eau",
        -9.935425853033117
      ],
      [
        "▁Daawu",
        -9.935498497903263
      ],
      [
        "▁cré",
        -9.935740712570915
      ],
      [
        "▁séq",
        -9.935769179888513
      ],
      [
        "▁joow",
        -9.93581191067579
      ],
      [
        "▁Éta",
        -9.936757007537508
      ],
      [
        "▁way-juram",
        -9.937042153432037
      ],
      [
        "▁waaxu",
        -9.937235589536677
      ],
      [
        "▁install",
        -9.937442146583319
      ],
      [
        "▁donner",
        -9.937613769270722
      ],
      [
        "▁jeeg",
        -9.937967354114868
      ],
      [
        "▁ñaaw",
        -9.938079249498461
      ],
      [
        "▁jooy",
        -9.938409832688357
      ],
      [
        "▁kilomètres",
        -9.938625819159
      ],
      [
        "▁xarit",
        -9.938807690364587
      ],
      [
        "▁créé",
        -9.938816458245176
      ],
      [
        "▁sœurs",
        -9.93914984364591
      ],
      [
        "▁jàppoon",
        -9.93917174277022
      ],
      [
        "-tuut",
        -9.939402656742693
      ],
      [
        "àcc",
        -9.939515169938495
      ],
      [
        "▁d'enfants",
        -9.939585769088932
      ],
      [
        "armes",
        -9.939604195816747
      ],
      [
        "▁après-midi",
        -9.94003832203922
      ],
      [
        "▁d'eux",
        -9.94025533352093
      ],
      [
        "▁wér",
        -9.940743552087
      ],
      [
        "eu",
        -9.941456240791638
      ],
      [
        "▁kaki",
        -9.941834680540007
      ],
      [
        "▁conduis",
        -9.942463527430762
      ],
      [
        "▁càkk",
        -9.942651370161308
      ],
      [
        "▁Xale",
        -9.94273984897072
      ],
      [
        "▁tawat",
        -9.943459499763993
      ],
      [
        "▁secondes",
        -9.943886896134181
      ],
      [
        "▁vagues",
        -9.943892715113291
      ],
      [
        "▁jeunes",
        -9.944165266334146
      ],
      [
        "▁ndeysaan.",
        -9.944318190031204
      ],
      [
        "▁xobi",
        -9.944848923518679
      ],
      [
        "▁baň",
        -9.945115272138473
      ],
      [
        "▁imagin",
        -9.945661860232214
      ],
      [
        "▁dinañ",
        -9.946051598750216
      ],
      [
        "▁dundam",
        -9.946171883319485
      ],
      [
        "▁diine",
        -9.946459905261587
      ],
      [
        "▁propre",
        -9.94671441818728
      ],
      [
        "▁golf",
        -9.946801513030367
      ],
      [
        "▁Mokaa",
        -9.946939439646615
      ],
      [
        "▁pétrole",
        -9.947193643535988
      ],
      [
        "sàmm",
        -9.94724087039078
      ],
      [
        "-je",
        -9.947347704906857
      ],
      [
        "▁d'Ar",
        -9.94753054277282
      ],
      [
        "▁chef",
        -9.948586951688565
      ],
      [
        "▁bâtons",
        -9.948900085974486
      ],
      [
        "▁sipp",
        -9.948901125207978
      ],
      [
        "▁rendu",
        -9.949410997891189
      ],
      [
        "▁kayit",
        -9.949571941785564
      ],
      [
        "▁grise",
        -9.949922941534131
      ],
      [
        "▁ňa",
        -9.950164376853582
      ],
      [
        "▁way-",
        -9.950262727586086
      ],
      [
        "▁maîtres",
        -9.950663512754852
      ],
      [
        "▁acheté",
        -9.950884130916219
      ],
      [
        "▁jeux",
        -9.951368711798741
      ],
      [
        "▁noire",
        -9.95351509437501
      ],
      [
        "▁wóolu",
        -9.953835777850218
      ],
      [
        "▁men",
        -9.954466376123744
      ],
      [
        "▁jë",
        -9.95465152888114
      ],
      [
        "▁instants",
        -9.955276198009614
      ],
      [
        "ëpp",
        -9.955320979507533
      ],
      [
        "▁xamoon",
        -9.955380692465578
      ],
      [
        "▁julli",
        -9.95579111007447
      ],
      [
        "gante",
        -9.955863028975331
      ],
      [
        "▁Aka",
        -9.95602764813226
      ],
      [
        "▁juróomi",
        -9.956042121245169
      ],
      [
        "▁parents",
        -9.956130785491707
      ],
      [
        "▁weg",
        -9.95627262339379
      ],
      [
        "▁chambre",
        -9.956580496631076
      ],
      [
        "▁trouve",
        -9.956983990261403
      ],
      [
        "àww",
        -9.95711143857869
      ],
      [
        "▁Doon",
        -9.957381660651654
      ],
      [
        "▁mesure",
        -9.957777657846275
      ],
      [
        "nnee",
        -9.95866280798875
      ],
      [
        "▁faax",
        -9.959192863579444
      ],
      [
        "▁maladies",
        -9.959366751744259
      ],
      [
        "▁libre",
        -9.959634263140483
      ],
      [
        "▁Nun",
        -9.96208256039726
      ],
      [
        "▁répu",
        -9.962163176352114
      ],
      [
        "vers",
        -9.96305744777872
      ],
      [
        "venir",
        -9.963648496265831
      ],
      [
        "oir",
        -9.96379721787837
      ],
      [
        "▁El",
        -9.964229306687104
      ],
      [
        "▁feeñu",
        -9.965302075485562
      ],
      [
        "▁marque",
        -9.966177656082483
      ],
      [
        "▁nekkin",
        -9.966433821548911
      ],
      [
        "▁compl",
        -9.96665713071563
      ],
      [
        "▁exerc",
        -9.967088340631323
      ],
      [
        "▁wàll",
        -9.967579147080567
      ],
      [
        "daa",
        -9.969936957460067
      ],
      [
        "▁rajo",
        -9.970351733594098
      ],
      [
        "▁sida",
        -9.970354921944201
      ],
      [
        "commencer",
        -9.971371713581405
      ],
      [
        "ru",
        -9.971677242748827
      ],
      [
        "▁l'inst",
        -9.973997167961738
      ],
      [
        "▁diir",
        -9.974182856165571
      ],
      [
        "▁n'aura",
        -9.974211092599347
      ],
      [
        "añse",
        -9.974715883836513
      ],
      [
        "▁endroit",
        -9.975197311115071
      ],
      [
        "▁soit",
        -9.976490030550703
      ],
      [
        "▁idée",
        -9.977744005289995
      ],
      [
        "▁juge",
        -9.978066125323
      ],
      [
        "▁rëbbi",
        -9.978190841751259
      ],
      [
        "▁éclat",
        -9.97871404424419
      ],
      [
        "▁all",
        -9.979478247929707
      ],
      [
        "▁fais",
        -9.97975086844053
      ],
      [
        "▁jafee",
        -9.981177987076709
      ],
      [
        "mmeel",
        -9.982678282343414
      ],
      [
        "▁mor",
        -9.98322366850448
      ],
      [
        "▁jaaxa",
        -9.983613410977584
      ],
      [
        "▁étrange",
        -9.984084533410977
      ],
      [
        "▁Mari",
        -9.98412731419322
      ],
      [
        "ourquoi",
        -9.984342434716666
      ],
      [
        "▁njàmba",
        -9.984934534967975
      ],
      [
        "▁tra",
        -9.985575290459803
      ],
      [
        "oindre",
        -9.985881005236509
      ],
      [
        "▁ñetti",
        -9.98645197499625
      ],
      [
        "▁allé",
        -9.987253522838607
      ],
      [
        "▁racont",
        -9.988594802184645
      ],
      [
        "▁xaj",
        -9.988726895911867
      ],
      [
        "▁cartes",
        -9.988978208110707
      ],
      [
        "▁mé",
        -9.989605172592206
      ],
      [
        "▁xóot",
        -9.992568919547246
      ],
      [
        "▁gës",
        -9.99472743471293
      ],
      [
        "eelu",
        -9.99545444643651
      ],
      [
        "'orage",
        -9.996001520703448
      ],
      [
        "▁imp",
        -9.997712262095977
      ],
      [
        "▁char",
        -9.997903959317298
      ],
      [
        "kàlla",
        -10.000917241046803
      ],
      [
        "arrière",
        -10.00176666361723
      ],
      [
        "▁seetu",
        -10.00383080428369
      ],
      [
        "▁Masu",
        -10.004387030861439
      ],
      [
        "oire",
        -10.00546500929796
      ],
      [
        "ŋun",
        -10.006230208655877
      ],
      [
        "▁l'est",
        -10.006379495197551
      ],
      [
        "▁Wil",
        -10.006584958156646
      ],
      [
        "enti",
        -10.006722886066628
      ],
      [
        "'exerce",
        -10.007066718624086
      ],
      [
        "▁découverte",
        -10.007197527439484
      ],
      [
        "▁cord",
        -10.00860374995602
      ],
      [
        "z",
        -10.008984407588489
      ],
      [
        "▁Ar",
        -10.009604885907349
      ],
      [
        "cteur",
        -10.01026988399742
      ],
      [
        "▁choi",
        -10.011390840452512
      ],
      [
        "sa",
        -10.011694078519564
      ],
      [
        "▁Kakaa",
        -10.013596016123213
      ],
      [
        "▁colonie",
        -10.013691816253406
      ],
      [
        "▁tableau",
        -10.014368769430202
      ],
      [
        "ston",
        -10.016117829549795
      ],
      [
        "▁muus",
        -10.016239464764414
      ],
      [
        "▁bég",
        -10.016458534225302
      ],
      [
        "-il",
        -10.016700724675111
      ],
      [
        "▁Leer",
        -10.016852249340563
      ],
      [
        "niki",
        -10.016912815158463
      ],
      [
        "noo",
        -10.01831552435052
      ],
      [
        "▁pou",
        -10.018787256636411
      ],
      [
        "mêmes",
        -10.018898216038144
      ],
      [
        "▁yare",
        -10.020691934209351
      ],
      [
        "▁guerr",
        -10.02279254955986
      ],
      [
        "bët",
        -10.02290401909076
      ],
      [
        "tul",
        -10.024474297818358
      ],
      [
        "▁certain",
        -10.027007496449636
      ],
      [
        "ants",
        -10.028512514908831
      ],
      [
        "hôpital",
        -10.02897183710209
      ],
      [
        "ve",
        -10.029320818256576
      ],
      [
        "ards",
        -10.031385705799536
      ],
      [
        "▁sañ",
        -10.03201626069811
      ],
      [
        "▁entré",
        -10.032423646513054
      ],
      [
        "▁nuits",
        -10.032548628004374
      ],
      [
        "▁sib",
        -10.033792292793988
      ],
      [
        "▁laisse",
        -10.035958117984805
      ],
      [
        "exemple",
        -10.036187662884018
      ],
      [
        "▁tëwa",
        -10.039570924731352
      ],
      [
        "▁mbemb",
        -10.042248080658892
      ],
      [
        "àbbe",
        -10.043047562214001
      ],
      [
        "▁autres",
        -10.043406518369062
      ],
      [
        "▁cercl",
        -10.045042233137966
      ],
      [
        "▁s'installe",
        -10.045639888249472
      ],
      [
        "▁yatt",
        -10.04576338293493
      ],
      [
        "▁générale",
        -10.045844631267247
      ],
      [
        "umeur",
        -10.048413622971346
      ],
      [
        "▁her",
        -10.049570273249845
      ],
      [
        "stique",
        -10.050406532838075
      ],
      [
        "monter",
        -10.05125881499082
      ],
      [
        "▁d'en",
        -10.052509020031588
      ],
      [
        "ard",
        -10.056102378060592
      ],
      [
        "▁tegoo",
        -10.056243729542748
      ],
      [
        "ations",
        -10.056530052816141
      ],
      [
        "▁xoole",
        -10.056981679305698
      ],
      [
        "▁retourne",
        -10.057077185935485
      ],
      [
        "ekk",
        -10.057386763973522
      ],
      [
        "▁yaroo",
        -10.057664436776298
      ],
      [
        "banaan",
        -10.057695119743206
      ],
      [
        "ille",
        -10.060200259690873
      ],
      [
        "▁Mba",
        -10.061076034575757
      ],
      [
        "▁dib",
        -10.061582823541041
      ],
      [
        "resse",
        -10.06704474279079
      ],
      [
        "▁kas",
        -10.068047314682907
      ],
      [
        "▁mur",
        -10.068701093673535
      ],
      [
        "▁faf",
        -10.068727149162548
      ],
      [
        "▁attend",
        -10.06877934888726
      ],
      [
        "eem",
        -10.069059035351106
      ],
      [
        "âche",
        -10.072572797525233
      ],
      [
        "▁ñaw",
        -10.07268148193104
      ],
      [
        "▁l'an",
        -10.073085491098029
      ],
      [
        "▁mili",
        -10.074759616316893
      ],
      [
        "▁nju",
        -10.075787344241409
      ],
      [
        "▁pé",
        -10.076529051492823
      ],
      [
        "lieu",
        -10.077399099903518
      ],
      [
        "àngi",
        -10.077630138799325
      ],
      [
        "▁touch",
        -10.080225924965113
      ],
      [
        "▁aventure",
        -10.08224718472366
      ],
      [
        "galu",
        -10.083053798320531
      ],
      [
        "▁neexu",
        -10.084089771337592
      ],
      [
        "▁aar",
        -10.084555040996271
      ],
      [
        "ser",
        -10.085814568391259
      ],
      [
        "▁nourri",
        -10.085869275680455
      ],
      [
        "3",
        -10.085903487613788
      ],
      [
        "00",
        -10.086037641293784
      ],
      [
        "▁fur",
        -10.086852861048481
      ],
      [
        "▁jógee",
        -10.089147743462753
      ],
      [
        "ï",
        -10.089912775661126
      ],
      [
        "ñ.",
        -10.090768868673111
      ],
      [
        "-kow",
        -10.091244875182227
      ],
      [
        "▁gr",
        -10.092315543813395
      ],
      [
        "è",
        -10.094084727393998
      ],
      [
        "▁Se",
        -10.09448979747944
      ],
      [
        "▁jàppe",
        -10.09470952932292
      ],
      [
        "ière",
        -10.095212464268517
      ],
      [
        "i-",
        -10.095591632381076
      ],
      [
        "▁var",
        -10.09564407299754
      ],
      [
        "▁venai",
        -10.09698304066694
      ],
      [
        "dre",
        -10.098107814234087
      ],
      [
        "ration",
        -10.101667073412848
      ],
      [
        "▁continu",
        -10.102061130143676
      ],
      [
        "atu",
        -10.102690853650397
      ],
      [
        "▁dur",
        -10.103706938286214
      ],
      [
        "ence",
        -10.104783079491773
      ],
      [
        "jaa",
        -10.107588673605106
      ],
      [
        "ssent",
        -10.110504196462553
      ],
      [
        "ande",
        -10.110677702362915
      ],
      [
        "ww",
        -10.110888958546187
      ],
      [
        "ndait",
        -10.111028825449525
      ],
      [
        "rass",
        -10.111368756317626
      ],
      [
        "▁jusqu'au",
        -10.112378108087192
      ],
      [
        "▁Góo",
        -10.1131738905052
      ],
      [
        "▁rencontre",
        -10.114166028737788
      ],
      [
        "eeku",
        -10.114398091561402
      ],
      [
        "tait",
        -10.115236596243912
      ],
      [
        "▁d'ar",
        -10.117075409029802
      ],
      [
        "▁May",
        -10.11733698105643
      ],
      [
        "▁sec",
        -10.117939574442499
      ],
      [
        "▁xamu",
        -10.120499369113356
      ],
      [
        "▁Ro",
        -10.121036562229834
      ],
      [
        "▁devenue",
        -10.123299039380845
      ],
      [
        "rie",
        -10.123636218895573
      ],
      [
        "antee",
        -10.124045200174416
      ],
      [
        "▁wi.",
        -10.124781987701503
      ],
      [
        "▁xul",
        -10.125965230324983
      ],
      [
        "▁général",
        -10.127089896764549
      ],
      [
        "▁newu",
        -10.12834992463552
      ],
      [
        "▁ouverte",
        -10.128358837228053
      ],
      [
        "aloon",
        -10.130221182727054
      ],
      [
        "▁cris",
        -10.130658193340336
      ],
      [
        "▁xat",
        -10.130966963227731
      ],
      [
        "▁màng",
        -10.131852856387443
      ],
      [
        "▁Ji",
        -10.132219924189176
      ],
      [
        "–",
        -10.135178361572057
      ],
      [
        "▁sembl",
        -10.135459443562805
      ],
      [
        "▁ressembl",
        -10.135718471248799
      ],
      [
        "▁isolé",
        -10.136182523589579
      ],
      [
        "mère",
        -10.13711523829999
      ],
      [
        "ttes",
        -10.139698816394613
      ],
      [
        "aj",
        -10.142032892551397
      ],
      [
        "▁dos",
        -10.142503353993083
      ],
      [
        "▁bët.",
        -10.145624839187516
      ],
      [
        "ke",
        -10.146791674991494
      ],
      [
        "ell",
        -10.147911126870437
      ],
      [
        "▁dootu",
        -10.148669992360134
      ],
      [
        "▁amu",
        -10.151073440018067
      ],
      [
        "ňň",
        -10.152375529233229
      ],
      [
        "peur",
        -10.153044000678918
      ],
      [
        "▁Qu'",
        -10.154082149175347
      ],
      [
        "ble",
        -10.155246671896776
      ],
      [
        "▁leçon",
        -10.156164914558415
      ],
      [
        "▁déci",
        -10.157378627983196
      ],
      [
        "▁tam",
        -10.157823214386198
      ],
      [
        "ee.",
        -10.157986254558713
      ],
      [
        "▁lect",
        -10.158123552274901
      ],
      [
        "▁mba",
        -10.158208265002806
      ],
      [
        "▁vol",
        -10.158819561665698
      ],
      [
        "▁pré",
        -10.1615744125901
      ],
      [
        "fal",
        -10.163803309832666
      ],
      [
        "▁médecine",
        -10.164886990711357
      ],
      [
        "aar",
        -10.165400392825797
      ],
      [
        "venus",
        -10.165594636383032
      ],
      [
        "▁jëmm",
        -10.16565352946699
      ],
      [
        "ram",
        -10.165667940156768
      ],
      [
        "▁indi",
        -10.167702302309356
      ],
      [
        "heure",
        -10.167707938152983
      ],
      [
        "weer",
        -10.171645113027571
      ],
      [
        "▁cinq",
        -10.17169981285781
      ],
      [
        "feebar",
        -10.172329095330298
      ],
      [
        "▁yóbba",
        -10.17249023121191
      ],
      [
        "manche",
        -10.176209547620804
      ],
      [
        "laay",
        -10.177711540138802
      ],
      [
        "▁l'ex",
        -10.178408091836955
      ],
      [
        "▁ouvert",
        -10.180589531541239
      ],
      [
        "▁xolu",
        -10.182638975984343
      ],
      [
        "▁fowe",
        -10.18911928906461
      ],
      [
        "▁ñàkku",
        -10.190212539015041
      ],
      [
        "tin",
        -10.191647541673179
      ],
      [
        "▁cent",
        -10.19294453584992
      ],
      [
        "▁moomee",
        -10.193764113003725
      ],
      [
        "construi",
        -10.194142267854676
      ],
      [
        "cation",
        -10.197330339672224
      ],
      [
        "errière",
        -10.197360781753236
      ],
      [
        "▁écout",
        -10.197601503962362
      ],
      [
        "ver",
        -10.198406798617254
      ],
      [
        "▁Ta",
        -10.198672049706262
      ],
      [
        "▁cor",
        -10.199950164827241
      ],
      [
        "▁jubal",
        -10.200438714879995
      ],
      [
        "▁ha",
        -10.202285319300753
      ],
      [
        "▁daju",
        -10.203397702062404
      ],
      [
        "uni",
        -10.20396226581034
      ],
      [
        "▁ker",
        -10.20399249572825
      ],
      [
        "▁bra",
        -10.205987114326973
      ],
      [
        "lée",
        -10.206126681326491
      ],
      [
        "▁coll",
        -10.209552152677261
      ],
      [
        "embre",
        -10.211821397102227
      ],
      [
        "▁dunde",
        -10.212691218310654
      ],
      [
        "fin",
        -10.212764188966787
      ],
      [
        "▁armée",
        -10.212794318692785
      ],
      [
        "▁humain",
        -10.214273041656977
      ],
      [
        "dée",
        -10.21507220292479
      ],
      [
        "▁mont",
        -10.215987929426063
      ],
      [
        "▁gan",
        -10.216735590897391
      ],
      [
        "ier",
        -10.217261325695924
      ],
      [
        "▁mbal",
        -10.218483663333515
      ],
      [
        "▁soul",
        -10.218618338259793
      ],
      [
        "▁doxal",
        -10.219885223806571
      ],
      [
        "▁anim",
        -10.220007722075879
      ],
      [
        "aram",
        -10.220500791811524
      ],
      [
        "iques",
        -10.223211714611402
      ],
      [
        "sus",
        -10.223270213301635
      ],
      [
        "alu",
        -10.224106643107197
      ],
      [
        "aaral",
        -10.225951560762756
      ],
      [
        "table",
        -10.227042082635458
      ],
      [
        "▁C'",
        -10.228008803507574
      ],
      [
        "▁arrivé",
        -10.228773525247727
      ],
      [
        "iw",
        -10.23064305517968
      ],
      [
        "elu",
        -10.231699467649559
      ],
      [
        "▁bri",
        -10.231718136228189
      ],
      [
        "ie",
        -10.232934970559345
      ],
      [
        "▁milli",
        -10.23407680751608
      ],
      [
        "arrivée",
        -10.234580358720637
      ],
      [
        "▁bleu",
        -10.236363336567965
      ],
      [
        "▁sub",
        -10.23649106465799
      ],
      [
        "▁kee",
        -10.236498595664585
      ],
      [
        "▁dress",
        -10.236878327808633
      ],
      [
        "rrière",
        -10.236953110521691
      ],
      [
        "▁bàn",
        -10.237046993534117
      ],
      [
        "▁Ñ",
        -10.238108287400854
      ],
      [
        "▁sonn",
        -10.239320352228432
      ],
      [
        "▁civil",
        -10.23972493309206
      ],
      [
        "sin",
        -10.240205666015669
      ],
      [
        "st-",
        -10.240340847234135
      ],
      [
        "étendue",
        -10.240838045597839
      ],
      [
        "▁envahi",
        -10.241846234923056
      ],
      [
        "men",
        -10.242471027371199
      ],
      [
        "▁moustiquaire",
        -10.242815823574302
      ],
      [
        "▁fatigu",
        -10.242935219947533
      ],
      [
        "▁canal",
        -10.242975697618256
      ],
      [
        "▁miroir",
        -10.243080837946515
      ],
      [
        "▁distance",
        -10.243111593844
      ],
      [
        "▁sàpp",
        -10.2444434119626
      ],
      [
        "▁cri",
        -10.244484817664958
      ],
      [
        "▁seconde",
        -10.24520364246994
      ],
      [
        "urant",
        -10.245391375649703
      ],
      [
        "▁vague",
        -10.245607576441135
      ],
      [
        "▁militaire",
        -10.245656404372394
      ],
      [
        "▁ñett",
        -10.245684754886039
      ],
      [
        "▁garçon",
        -10.246193929011985
      ],
      [
        "▁arbre",
        -10.246451302335206
      ],
      [
        "▁xob",
        -10.24647192603361
      ],
      [
        "▁Cet",
        -10.246516211105403
      ],
      [
        "▁sau",
        -10.246878244673098
      ],
      [
        "▁taal",
        -10.24753401504365
      ],
      [
        "▁ň",
        -10.24870291677621
      ],
      [
        "▁ancien",
        -10.24897923354276
      ],
      [
        "▁noppal",
        -10.250101830720913
      ],
      [
        "urs",
        -10.25101064574481
      ],
      [
        "-f",
        -10.25144283673995
      ],
      [
        "▁naqad",
        -10.251785352736013
      ],
      [
        "▁s'en",
        -10.252532823266833
      ],
      [
        "▁wë",
        -10.254407270629873
      ],
      [
        "abax",
        -10.254740685127084
      ],
      [
        "▁yëge",
        -10.254742750143487
      ],
      [
        "▁trace",
        -10.255105949658057
      ],
      [
        "▁parcour",
        -10.2566042162922
      ],
      [
        "▁fulla",
        -10.258619879127425
      ],
      [
        "▁yii",
        -10.25950281503366
      ],
      [
        "▁sàn",
        -10.259854064906598
      ],
      [
        "tuaire",
        -10.259985542216743
      ],
      [
        "ême",
        -10.260343089818765
      ],
      [
        "oit",
        -10.26102543355799
      ],
      [
        "nge",
        -10.261192606897326
      ],
      [
        "▁Babungo",
        -10.261315133933904
      ],
      [
        "▁méng",
        -10.261450805676578
      ],
      [
        "▁échapp",
        -10.261615064390153
      ],
      [
        "▁Fo",
        -10.261933648933695
      ],
      [
        "▁trente",
        -10.262177739336192
      ],
      [
        "ème",
        -10.2624049286727
      ],
      [
        "▁yó",
        -10.262530234668153
      ],
      [
        "aak",
        -10.26286245626366
      ],
      [
        "-lu",
        -10.263249171114635
      ],
      [
        "àyyee",
        -10.263437271171936
      ],
      [
        "▁xërëm",
        -10.263563455538325
      ],
      [
        "çai",
        -10.263644163557467
      ],
      [
        "4",
        -10.263703192991784
      ],
      [
        "▁Aujourd'hui",
        -10.263703196776452
      ],
      [
        "▁privilèges",
        -10.263703196776476
      ],
      [
        "▁grâce",
        -10.26370319677655
      ],
      [
        "▁trône",
        -10.263703196777579
      ],
      [
        "▁l'Adamawa",
        -10.263703196777925
      ],
      [
        "▁roppëlaan",
        -10.263703196780014
      ],
      [
        "▁invisible",
        -10.263703196829395
      ],
      [
        "▁195",
        -10.263703196835692
      ],
      [
        "▁mettee-metti",
        -10.263703196842428
      ],
      [
        "▁ëllëg",
        -10.26370319687119
      ],
      [
        "▁d'Abakaliki",
        -10.26370319698478
      ],
      [
        "▁dysenterie",
        -10.263703197102812
      ],
      [
        "▁caricatural",
        -10.263703197307953
      ],
      [
        "▁dankalikoo",
        -10.263703197462386
      ],
      [
        "▁Poor-Arkuur",
        -10.263703198140039
      ],
      [
        "▁excessive",
        -10.26370319872653
      ],
      [
        "▁impeccable",
        -10.263703198877542
      ],
      [
        "▁incapable",
        -10.263703199159481
      ],
      [
        "▁jekk-jekkal",
        -10.263703200317858
      ],
      [
        "▁s'éloigne",
        -10.263703211044481
      ],
      [
        "▁conservé",
        -10.263703212942959
      ],
      [
        "▁Aadamawa",
        -10.263703215871423
      ],
      [
        "▁dispensaire",
        -10.263703221696925
      ],
      [
        "▁Bawob",
        -10.26370322195617
      ],
      [
        "▁fréquenta",
        -10.263703222498794
      ],
      [
        "▁ridicule",
        -10.263703227675162
      ],
      [
        "▁d'alcool",
        -10.263703229513428
      ],
      [
        "▁sañ-sañ",
        -10.263703231065401
      ],
      [
        "▁Baterik",
        -10.26370323151943
      ],
      [
        "▁Fields",
        -10.26370323244594
      ],
      [
        "▁waxambaane",
        -10.263703239489855
      ],
      [
        "▁Bawop",
        -10.263703241079615
      ],
      [
        "▁bataaxal",
        -10.263703247128511
      ],
      [
        "▁sukkandik",
        -10.26370324748931
      ],
      [
        "▁physique",
        -10.263703278306815
      ],
      [
        "▁bànxaas",
        -10.263703281178618
      ],
      [
        "▁njoowaan",
        -10.26370328757091
      ],
      [
        "calpel",
        -10.263703323525
      ],
      [
        "▁Bénuwe",
        -10.26370332375662
      ],
      [
        "▁latérite",
        -10.263703356234384
      ],
      [
        "▁Ghana",
        -10.263703376512776
      ],
      [
        "▁Bénoué",
        -10.26370338589262
      ],
      [
        "▁ófise",
        -10.263703408756133
      ],
      [
        "▁affluent",
        -10.263703417350817
      ],
      [
        "▁dog-dog",
        -10.263703445822845
      ],
      [
        "ez-vous",
        -10.263703469732555
      ],
      [
        "▁Tàngaay",
        -10.263703474122151
      ],
      [
        "▁serviteurs",
        -10.26370349181864
      ],
      [
        "▁6",
        -10.26370351022242
      ],
      [
        "▁sèche",
        -10.263703521334406
      ],
      [
        "▁tambours",
        -10.263703559672146
      ],
      [
        "▁tribales",
        -10.26370356737415
      ],
      [
        "▁chirurgi",
        -10.263703581011082
      ],
      [
        "▁Normàndi",
        -10.263703708298882
      ],
      [
        "▁politique",
        -10.263703745124266
      ],
      [
        "▁étouffante",
        -10.263703924852553
      ],
      [
        "▁effray",
        -10.26370410373323
      ],
      [
        "▁oreilles",
        -10.263704109786563
      ],
      [
        "▁d'opération",
        -10.263704121128704
      ],
      [
        "▁présence",
        -10.263704190300531
      ],
      [
        "▁Sahara",
        -10.26370423274068
      ],
      [
        "▁pelouse",
        -10.263704255284537
      ],
      [
        "▁Voyage",
        -10.26370435162955
      ],
      [
        "▁xam-xam",
        -10.26370435690167
      ],
      [
        "▁gàngiri",
        -10.263704519346538
      ],
      [
        "▁brindille",
        -10.263704536530685
      ],
      [
        "▁biiru-ta",
        -10.26370463108315
      ],
      [
        "▁recouvert",
        -10.263704644786763
      ],
      [
        "▁cafards",
        -10.263704676832358
      ],
      [
        "▁ceinture",
        -10.263704785529821
      ],
      [
        "▁Algérie",
        -10.263704889982645
      ],
      [
        "▁Baterig",
        -10.263705104899916
      ],
      [
        "▁coiff",
        -10.263705175923343
      ],
      [
        "▁camarades",
        -10.263705575427611
      ],
      [
        "▁dispañseer",
        -10.263705579804041
      ],
      [
        "▁banlieue",
        -10.263705695399661
      ],
      [
        "▁jaar-jaar",
        -10.263705815639675
      ],
      [
        "▁habillé",
        -10.263705864866472
      ],
      [
        "▁regret",
        -10.263706407463626
      ],
      [
        "▁colonne",
        -10.263706472558756
      ],
      [
        "▁lëkkale",
        -10.263706493378166
      ],
      [
        "▁suppose",
        -10.263706585044307
      ],
      [
        "▁vaisselle",
        -10.263706878179688
      ],
      [
        "▁pikiir",
        -10.263708271882749
      ],
      [
        "▁réponse",
        -10.263708353515558
      ],
      [
        "▁soixante",
        -10.263709003640459
      ],
      [
        "▁visible",
        -10.263709187182458
      ],
      [
        "éwén",
        -10.263709301966585
      ],
      [
        "▁quartier",
        -10.263709541924905
      ],
      [
        "voûte",
        -10.263710823385983
      ],
      [
        "▁résignation",
        -10.263711098571427
      ],
      [
        "▁callweer",
        -10.263711219999115
      ],
      [
        "▁Indiens",
        -10.263711311955328
      ],
      [
        "▁minuscule",
        -10.263711494941127
      ],
      [
        "▁craquelée",
        -10.263711819992384
      ],
      [
        "▁popula",
        -10.263711822367783
      ],
      [
        "▁Fàttewu",
        -10.263713470094556
      ],
      [
        "▁Saawusamton",
        -10.263714727974394
      ],
      [
        "▁mébét",
        -10.263714859368996
      ],
      [
        "▁répandu",
        -10.263716352666101
      ],
      [
        "▁reetaan",
        -10.263718852280233
      ],
      [
        "▁galeries",
        -10.2637198671911
      ],
      [
        "▁njariñ",
        -10.26372016680003
      ],
      [
        "▁xaalis",
        -10.263721013064966
      ],
      [
        "▁ténia",
        -10.263723559906783
      ],
      [
        "igéen",
        -10.26372499262193
      ],
      [
        "urgence",
        -10.263726461746248
      ],
      [
        "▁Polisoŋ",
        -10.263728976402307
      ],
      [
        "▁Yéesu",
        -10.263729055548035
      ],
      [
        "▁jaabante",
        -10.263729083040237
      ],
      [
        "▁profit",
        -10.26373045740008
      ],
      [
        "▁Fiild",
        -10.26373470832317
      ],
      [
        "▁procur",
        -10.263738446879973
      ],
      [
        "▁consacré",
        -10.263739845846269
      ],
      [
        "▁contrebas",
        -10.263741276184467
      ],
      [
        "▁piège",
        -10.263747213632588
      ],
      [
        "▁colonisation",
        -10.263748807953382
      ],
      [
        "▁repris",
        -10.263751051356815
      ],
      [
        "▁doomi-tubaab",
        -10.2637536565158
      ],
      [
        "▁défens",
        -10.26375445216684
      ],
      [
        "▁ndaje",
        -10.263759663022682
      ],
      [
        "▁ŋàññ",
        -10.263760617555576
      ],
      [
        "obab",
        -10.263765348883066
      ],
      [
        "▁lançai",
        -10.2637664210164
      ],
      [
        "▁mauvais",
        -10.263769238933165
      ],
      [
        "▁gorilles",
        -10.263773793784981
      ],
      [
        "▁Alseri",
        -10.263780914234797
      ],
      [
        "boît",
        -10.26378398118901
      ],
      [
        "▁yàkkamt",
        -10.26378957646867
      ],
      [
        "▁xélu",
        -10.263794663269534
      ],
      [
        "▁(car",
        -10.263796021938445
      ],
      [
        "▁caract",
        -10.263797553922437
      ],
      [
        "▁bref",
        -10.263799992384488
      ],
      [
        "▁douleur",
        -10.263800870294185
      ],
      [
        "▁toppatoo",
        -10.263802711553012
      ],
      [
        "▁foyer",
        -10.263804750771182
      ],
      [
        "▁interdit",
        -10.26380569915967
      ],
      [
        "▁sept",
        -10.263805773303421
      ],
      [
        "▁adulte",
        -10.263812247384609
      ],
      [
        "▁surviv",
        -10.26381700148977
      ],
      [
        "▁sculptés",
        -10.263828423189288
      ],
      [
        "▁mbagg",
        -10.263830739128514
      ],
      [
        "▁m'a-t-",
        -10.263836876636365
      ],
      [
        "▁Bariwu",
        -10.263839281917614
      ],
      [
        "▁juróom-benn",
        -10.263852209709402
      ],
      [
        "▁qu'aucun",
        -10.263860953748361
      ],
      [
        "▁ruqu-géeju",
        -10.26386286083127
      ],
      [
        "▁d'Européens",
        -10.263866895373049
      ],
      [
        "▁tukkee",
        -10.263869097323887
      ],
      [
        "▁plaintes",
        -10.263870549630571
      ],
      [
        "▁yegsi",
        -10.26388685555091
      ],
      [
        "con",
        -10.263896016472064
      ],
      [
        "▁l'inter",
        -10.263899437771974
      ],
      [
        "▁iróko",
        -10.263902149056165
      ],
      [
        "▁fecc",
        -10.263907340090142
      ],
      [
        "▁kawar",
        -10.263912242359066
      ],
      [
        "▁ginnax",
        -10.263924359963026
      ],
      [
        "▁fusils",
        -10.263937650828503
      ],
      [
        "▁vieillesse",
        -10.263942670682273
      ],
      [
        "▁laxas",
        -10.263956023606346
      ],
      [
        "▁moment-là",
        -10.26395862902452
      ],
      [
        "▁terrain",
        -10.263971162954403
      ],
      [
        "▁palais",
        -10.263979666199425
      ],
      [
        "▁allumette",
        -10.263991003376816
      ],
      [
        "▁xàmb",
        -10.263996924913904
      ],
      [
        "▁fomp",
        -10.263999348635984
      ],
      [
        "▁natale",
        -10.264004226574478
      ],
      [
        "▁vérité",
        -10.264014537950668
      ],
      [
        "▁Toog",
        -10.264031334115598
      ],
      [
        "▁wecc",
        -10.264057287381027
      ],
      [
        "▁totale",
        -10.264064557058388
      ],
      [
        "▁l'enthousiasme",
        -10.264076189370016
      ],
      [
        "▁Jàng",
        -10.264078744539578
      ],
      [
        "▁yaxeet",
        -10.264089558618558
      ],
      [
        "▁l'horreur",
        -10.26409514508026
      ],
      [
        "▁gëdd",
        -10.264108789163616
      ],
      [
        "▁to",
        -10.26411018545234
      ],
      [
        "▁chute",
        -10.26411046926607
      ],
      [
        "▁soppikoo",
        -10.264112708152721
      ],
      [
        "▁Niseer",
        -10.264121062528835
      ],
      [
        "▁poing",
        -10.264127892478063
      ],
      [
        "▁plage",
        -10.264129882778116
      ],
      [
        "paradis",
        -10.264135014837796
      ],
      [
        "▁ganesi",
        -10.264136434484588
      ],
      [
        "▁moytu",
        -10.264137630632291
      ],
      [
        "▁Ndox",
        -10.264152514048945
      ],
      [
        "▁jadd",
        -10.26416108510486
      ],
      [
        "▁remonte",
        -10.264181356409992
      ],
      [
        "▁sucre",
        -10.264183700101283
      ],
      [
        "▁Kàttan",
        -10.264184877917383
      ],
      [
        "▁colons",
        -10.264188697473339
      ],
      [
        "▁dëj",
        -10.26423597959263
      ],
      [
        "▁wotoom",
        -10.264237124707009
      ],
      [
        "▁tëral",
        -10.264237421037933
      ],
      [
        "▁lentement",
        -10.264250077818051
      ],
      [
        "▁rajoom",
        -10.264251265681823
      ],
      [
        "▁l'après-midi",
        -10.264269073337282
      ],
      [
        "▁familier",
        -10.264284563197364
      ],
      [
        "▁Niger",
        -10.264289237655897
      ],
      [
        "▁parfaite",
        -10.264323395683054
      ],
      [
        "▁ndoorte",
        -10.264324927762365
      ],
      [
        "▁chapeaux",
        -10.264333134486456
      ],
      [
        "▁reyante",
        -10.264368347645535
      ],
      [
        "-Ma",
        -10.264368812915555
      ],
      [
        "▁effect",
        -10.264393194025768
      ],
      [
        "▁crép",
        -10.264441800299531
      ],
      [
        "▁brûlait",
        -10.26445116597408
      ],
      [
        "▁paille",
        -10.264483544459544
      ],
      [
        "épaisse",
        -10.26449116107755
      ],
      [
        "▁plonge",
        -10.264533317517056
      ],
      [
        "▁neuf",
        -10.264563791188111
      ],
      [
        "▁ñàng",
        -10.264584351067008
      ],
      [
        "▁cornes",
        -10.264589070062755
      ],
      [
        "▁soxor",
        -10.264620286036774
      ],
      [
        "outils",
        -10.264629257866108
      ],
      [
        "▁Ganaa",
        -10.26464925394722
      ],
      [
        "▁tënk",
        -10.264655913659329
      ],
      [
        "▁orages",
        -10.264686773558092
      ],
      [
        "▁là-bas",
        -10.264694277541311
      ],
      [
        "▁nombreux",
        -10.264710303362879
      ],
      [
        "▁mëdd",
        -10.264720215128227
      ],
      [
        "▁compagnie",
        -10.264735694284886
      ],
      [
        "▁jeunesse",
        -10.264759176876238
      ],
      [
        "▁temps-là",
        -10.264796414551519
      ],
      [
        "aakaar",
        -10.264798859788948
      ],
      [
        "▁tàgg",
        -10.264844709055382
      ],
      [
        "▁camp",
        -10.264871556543417
      ],
      [
        "▁Bro",
        -10.264873609518942
      ],
      [
        "▁ndigg",
        -10.264882421611581
      ],
      [
        "▁tooñ",
        -10.264943243606009
      ],
      [
        "▁domestique",
        -10.265021210554284
      ],
      [
        "x.",
        -10.265038278106239
      ],
      [
        "▁relev",
        -10.265088491159531
      ],
      [
        "▁absent",
        -10.26509346695063
      ],
      [
        "▁këruus",
        -10.265099724521416
      ],
      [
        "▁bomb",
        -10.265107159658399
      ],
      [
        "▁màkkaan",
        -10.265154109188767
      ],
      [
        "▁repas",
        -10.26515901099703
      ],
      [
        "▁disparu",
        -10.265192685802791
      ],
      [
        "▁d'après",
        -10.265209419619817
      ],
      [
        "▁Dieu",
        -10.265228263662227
      ],
      [
        "ag",
        -10.265245066487429
      ],
      [
        "▁génnaan",
        -10.265338870460727
      ],
      [
        "▁torche",
        -10.265380042523828
      ],
      [
        "▁meññ",
        -10.265393178207598
      ],
      [
        "▁nàññ",
        -10.26541614695725
      ],
      [
        "▁segg",
        -10.26541622371456
      ],
      [
        "▁vivaient",
        -10.26554893819242
      ],
      [
        "▁sóob",
        -10.26556018079417
      ],
      [
        "zar",
        -10.265587883845082
      ],
      [
        "▁aada",
        -10.265594089156725
      ],
      [
        "▁pâte",
        -10.265611992608969
      ],
      [
        "▁yànj",
        -10.265613268143836
      ],
      [
        "▁changement",
        -10.26563238574209
      ],
      [
        "▁paaka",
        -10.26567341601008
      ],
      [
        "▁proie",
        -10.26574344269851
      ],
      [
        "▁dalukaay",
        -10.265787653308069
      ],
      [
        "▁penser",
        -10.265788401314401
      ],
      [
        "particulièrement",
        -10.265818465852396
      ],
      [
        "▁policier",
        -10.26587153800482
      ],
      [
        "▁chantant",
        -10.265912420004089
      ],
      [
        "▁fexe",
        -10.265974793105329
      ],
      [
        "▁quitté",
        -10.265976344285429
      ],
      [
        "▁rejet",
        -10.265976365252365
      ],
      [
        "▁weexaay",
        -10.265990629013617
      ],
      [
        "▁lunette",
        -10.26601628633177
      ],
      [
        "▁partager",
        -10.266038507040127
      ],
      [
        "▁gëmoon",
        -10.266106599565578
      ],
      [
        "▁tëri",
        -10.26611965730562
      ],
      [
        "▁Riis",
        -10.266121068589996
      ],
      [
        "▁poison",
        -10.266129350569543
      ],
      [
        "▁xaritam",
        -10.266141459683086
      ],
      [
        "▁captur",
        -10.266252720055357
      ],
      [
        "▁coucher",
        -10.266278433402086
      ],
      [
        "▁hérit",
        -10.266289668659285
      ],
      [
        "▁aimer",
        -10.266303156697582
      ],
      [
        "▁l'I",
        -10.266395270877457
      ],
      [
        "▁inventé",
        -10.266399612332608
      ],
      [
        "▁l'enfant",
        -10.266410942830838
      ],
      [
        "▁inspiré",
        -10.266503076010643
      ],
      [
        "▁John",
        -10.266515209200119
      ],
      [
        "méeri",
        -10.26653401295199
      ],
      [
        "▁camion",
        -10.266544156125473
      ],
      [
        "▁connaissais",
        -10.266615115444626
      ],
      [
        "àtt",
        -10.266662990254902
      ],
      [
        "▁résidence",
        -10.266710732364395
      ],
      [
        "▁tàggat",
        -10.266724586615226
      ],
      [
        "▁recherche",
        -10.266894250609827
      ],
      [
        "▁signifiai",
        -10.266985303511996
      ],
      [
        "ois",
        -10.266994858269987
      ],
      [
        "▁manies",
        -10.267140468025104
      ],
      [
        "arrachait",
        -10.267232681069263
      ],
      [
        "▁wépp",
        -10.267451064663192
      ],
      [
        "oolu-xare",
        -10.267548991898634
      ],
      [
        "▁ŋaam",
        -10.267674527729891
      ],
      [
        "▁Wiyaa",
        -10.267752686249976
      ],
      [
        "▁wékk",
        -10.267791250574223
      ],
      [
        "▁âgés",
        -10.26794673608021
      ],
      [
        "▁pourquoi",
        -10.26799012267555
      ],
      [
        "▁daagu",
        -10.268024747753751
      ],
      [
        "▁vaccins",
        -10.268153069409315
      ],
      [
        "▁palmiers",
        -10.268196787751444
      ],
      [
        "▁yaatal",
        -10.268229391919718
      ],
      [
        "▁encerclé",
        -10.268280706822399
      ],
      [
        "▁pistes",
        -10.268362852318305
      ],
      [
        "▁comprends",
        -10.268585714350541
      ],
      [
        "▁entr",
        -10.268680228700696
      ],
      [
        "▁campagne",
        -10.268788920091412
      ],
      [
        "▁moderne",
        -10.268842703665136
      ],
      [
        "▁revanche",
        -10.268873465405655
      ],
      [
        "▁équatoriale",
        -10.268896971577277
      ],
      [
        "▁sànneek",
        -10.268962990072808
      ],
      [
        "▁dënnam",
        -10.268968909276582
      ],
      [
        "▁baraa",
        -10.268978368359361
      ],
      [
        "▁bouill",
        -10.269031212034788
      ],
      [
        "▁ancienne",
        -10.26930151824214
      ],
      [
        "innaaw",
        -10.269304364577582
      ],
      [
        "▁enfin",
        -10.269355587609155
      ],
      [
        "▁juróom-ň",
        -10.269430828313915
      ],
      [
        "▁tàngal",
        -10.269512409812807
      ],
      [
        "▁retrouve",
        -10.269639321250317
      ],
      [
        "▁Suku",
        -10.269821394318164
      ],
      [
        "▁bokkul",
        -10.269822593674
      ],
      [
        "▁doux",
        -10.269966389410596
      ],
      [
        "▁prière",
        -10.270026821307402
      ],
      [
        "mall",
        -10.270292304527448
      ],
      [
        "▁Tont",
        -10.270339542813034
      ],
      [
        "ave",
        -10.270364963745296
      ],
      [
        "ifs",
        -10.270671913738168
      ],
      [
        "▁tàkkal",
        -10.270724118819675
      ],
      [
        "xosi",
        -10.270762276169311
      ],
      [
        "▁causé",
        -10.270801437023852
      ],
      [
        "ève",
        -10.270894473690277
      ],
      [
        "▁géant",
        -10.270899537190664
      ],
      [
        "▁fullaal",
        -10.271001454861771
      ],
      [
        "▁Sopp",
        -10.271365045767588
      ],
      [
        "▁rencontré",
        -10.271790443755666
      ],
      [
        "coph",
        -10.27216698345554
      ],
      [
        "boo",
        -10.272289965628165
      ],
      [
        "▁Pom",
        -10.272328168950784
      ],
      [
        "▁luxe",
        -10.272337268738637
      ],
      [
        "leel",
        -10.27275572971601
      ],
      [
        "▁complet",
        -10.272960561404602
      ],
      [
        "dar",
        -10.272971491444071
      ],
      [
        "▁constat",
        -10.273106526543636
      ],
      [
        "▁trempé",
        -10.273171275067773
      ],
      [
        "▁Bien",
        -10.273730580663754
      ],
      [
        "▁genn",
        -10.273748342854613
      ],
      [
        "▁saba",
        -10.274005134266654
      ],
      [
        "▁revenu",
        -10.274435112188895
      ],
      [
        "▁débarqu",
        -10.274587988623315
      ],
      [
        "▁baree-bare",
        -10.274857429321472
      ],
      [
        "▁tëgg",
        -10.27502724479268
      ],
      [
        "▁désir",
        -10.275043672550606
      ],
      [
        "▁xarat",
        -10.275094430383877
      ],
      [
        "▁drap",
        -10.275362001285632
      ],
      [
        "▁lointains",
        -10.275522366002319
      ],
      [
        "▁ňoom",
        -10.27577941829034
      ],
      [
        "▁rituel",
        -10.27579268654145
      ],
      [
        "▁d'imagin",
        -10.275891625910022
      ],
      [
        "▁kaf",
        -10.275916342445077
      ],
      [
        "▁poudre",
        -10.27620788656067
      ],
      [
        "yeux",
        -10.276518549989753
      ],
      [
        "angue",
        -10.276557734510522
      ],
      [
        "▁kur",
        -10.27658439214326
      ],
      [
        "▁accepter",
        -10.277638285311232
      ],
      [
        "▁xame",
        -10.277669064254496
      ],
      [
        "▁qu'en",
        -10.277744072488309
      ],
      [
        "▁Far",
        -10.277806075911279
      ],
      [
        "rôle",
        -10.277905974869185
      ],
      [
        "▁élev",
        -10.278082485365829
      ],
      [
        "▁secours",
        -10.278273227419154
      ],
      [
        "▁jekk",
        -10.278454428316365
      ],
      [
        "▁dig",
        -10.27853222190405
      ],
      [
        "▁sommet",
        -10.278560422259563
      ],
      [
        "▁Dina",
        -10.27861882837604
      ],
      [
        "▁im",
        -10.278681948762376
      ],
      [
        "nze",
        -10.2789889830253
      ],
      [
        "▁nawet",
        -10.279041422485527
      ],
      [
        "▁toogoon",
        -10.279056397454587
      ],
      [
        "▁Yoon",
        -10.279122166468778
      ],
      [
        "▁S'il",
        -10.279308641757968
      ],
      [
        "▁luisant",
        -10.279471781964421
      ],
      [
        "yaa",
        -10.279633434111062
      ],
      [
        "▁sotti",
        -10.27970993679539
      ],
      [
        "▁sortir",
        -10.279936787729671
      ],
      [
        "▁lutte",
        -10.279939572520547
      ],
      [
        "▁myst",
        -10.280170506897987
      ],
      [
        "soin",
        -10.280289584682889
      ],
      [
        "▁Amu",
        -10.280296741295114
      ],
      [
        "▁viennent",
        -10.280390208633474
      ],
      [
        "▁pàkk",
        -10.280423796428462
      ],
      [
        "▁bëtam",
        -10.280727186709466
      ],
      [
        "▁géey",
        -10.280963750103803
      ],
      [
        "tóor",
        -10.28122281125351
      ],
      [
        "awoo",
        -10.281578123662896
      ],
      [
        "▁Garab",
        -10.281863254739083
      ],
      [
        "▁disait",
        -10.282075627861214
      ],
      [
        "▁denc",
        -10.282393692128531
      ],
      [
        "▁jaawale",
        -10.283043534770968
      ],
      [
        "▁relié",
        -10.28313123828424
      ],
      [
        "▁regardent",
        -10.283605179495835
      ],
      [
        "▁Paris",
        -10.283995924283394
      ],
      [
        "sting",
        -10.28401125821161
      ],
      [
        "▁paysage",
        -10.284429507184635
      ],
      [
        "▁Pari",
        -10.284634384652133
      ],
      [
        "ilité",
        -10.284905855439781
      ],
      [
        "▁passer",
        -10.285182781190164
      ],
      [
        "▁voyageur",
        -10.285869585772106
      ],
      [
        "▁vend",
        -10.286019227855897
      ],
      [
        "▁ñor",
        -10.286041225269923
      ],
      [
        "▁tanc",
        -10.286060825074607
      ],
      [
        "mbrées",
        -10.286219286677294
      ],
      [
        "aque",
        -10.287204892840439
      ],
      [
        "▁Colonie",
        -10.287390002287358
      ],
      [
        "▁échange",
        -10.288285385807649
      ],
      [
        "poussiér",
        -10.288879905716813
      ],
      [
        "▁opeereka",
        -10.289082312754955
      ],
      [
        "▁dog",
        -10.289233907889507
      ],
      [
        "jënd",
        -10.289299373379517
      ],
      [
        "▁yooy",
        -10.289534438407824
      ],
      [
        "▁woo",
        -10.289622430301456
      ],
      [
        "ňeent",
        -10.29004859435311
      ],
      [
        "▁Guy",
        -10.29009807797856
      ],
      [
        "▁l'anti",
        -10.290338013322183
      ],
      [
        "▁yoonam",
        -10.291223467290807
      ],
      [
        "▁verre",
        -10.292092840329644
      ],
      [
        "▁Dem",
        -10.29216252310709
      ],
      [
        "▁tepp",
        -10.292207977999075
      ],
      [
        "▁nd",
        -10.292711183439415
      ],
      [
        "▁perdue",
        -10.292922462798085
      ],
      [
        "▁rax",
        -10.293135845192102
      ],
      [
        "▁Sooy",
        -10.293288276498838
      ],
      [
        "▁goyave",
        -10.294110902399447
      ],
      [
        "▁tournée",
        -10.294339017349236
      ],
      [
        "▁respect",
        -10.295821815686349
      ],
      [
        "▁pén",
        -10.296430465605184
      ],
      [
        "▁Gis",
        -10.296467312712446
      ],
      [
        "▁chauff",
        -10.296681048290322
      ],
      [
        "▁siècle",
        -10.29682394038678
      ],
      [
        "ension",
        -10.296907166516577
      ],
      [
        "▁casque",
        -10.29717213791769
      ],
      [
        "▁waxoon",
        -10.297196147194496
      ],
      [
        "▁tor",
        -10.297338150544189
      ],
      [
        "▁Ñi",
        -10.297352453981762
      ],
      [
        "ole",
        -10.297530366101803
      ],
      [
        "▁gëj",
        -10.298286607982476
      ],
      [
        "▁tuutee",
        -10.298499442415018
      ],
      [
        "▁ordinaire",
        -10.298683684044729
      ],
      [
        "àddu",
        -10.298709794670135
      ],
      [
        "▁In",
        -10.299804018706292
      ],
      [
        "▁xiir",
        -10.300120976316352
      ],
      [
        "▁moomoo",
        -10.300366248598543
      ],
      [
        "▁demul",
        -10.300417066093585
      ],
      [
        "▁étage",
        -10.300597005146567
      ],
      [
        "▁noppalu",
        -10.300617009902412
      ],
      [
        "▁voul",
        -10.300930268630617
      ],
      [
        "▁bà",
        -10.301253391794676
      ],
      [
        "père",
        -10.301290590318896
      ],
      [
        "▁rendi",
        -10.301547757955131
      ],
      [
        "▁fés",
        -10.30160538912939
      ],
      [
        "▁unique",
        -10.301628230170648
      ],
      [
        "▁yëngoo",
        -10.302843245139204
      ],
      [
        "▁waajal",
        -10.302950582153663
      ],
      [
        "▁mètres",
        -10.303370969828634
      ],
      [
        "▁anciens",
        -10.304418716983557
      ],
      [
        "▁usé",
        -10.306704197294541
      ],
      [
        "eeñ",
        -10.307592170175727
      ],
      [
        "▁woowu",
        -10.307633455847478
      ],
      [
        "▁boug",
        -10.308425254231722
      ],
      [
        "'entend",
        -10.308435363352876
      ],
      [
        "▁dieu",
        -10.308478820782948
      ],
      [
        "niróo",
        -10.309668259538903
      ],
      [
        "▁appartement",
        -10.309925154960768
      ],
      [
        "ide",
        -10.310001529230634
      ],
      [
        "prenant",
        -10.310150920599977
      ],
      [
        "▁defante",
        -10.310320509123638
      ],
      [
        "jjant",
        -10.31040759584656
      ],
      [
        "▁hauteur",
        -10.31048063184226
      ],
      [
        "-de",
        -10.310537658307128
      ],
      [
        "▁ñaan",
        -10.31165168327912
      ],
      [
        "alement",
        -10.311974106406698
      ],
      [
        "▁waxtoo",
        -10.312210603045894
      ],
      [
        "▁làmb",
        -10.312219142246343
      ],
      [
        "etti",
        -10.313716071935389
      ],
      [
        "▁rem",
        -10.313812011036843
      ],
      [
        "bé",
        -10.313831402747988
      ],
      [
        "▁anecdote",
        -10.314556156726542
      ],
      [
        "▁raŋ",
        -10.314827054692225
      ],
      [
        "▁africaines",
        -10.315373661603676
      ],
      [
        "▁lenn",
        -10.315558391506125
      ],
      [
        "▁mêl",
        -10.3162857165005
      ],
      [
        "ab",
        -10.318068813518437
      ],
      [
        "▁revien",
        -10.318555757005306
      ],
      [
        "agrandi",
        -10.318988976131747
      ],
      [
        "▁toje",
        -10.320266935233121
      ],
      [
        "axum",
        -10.320279280044005
      ],
      [
        "▁l'on",
        -10.320540399571824
      ],
      [
        "▁épi",
        -10.32060456416903
      ],
      [
        "▁rouges",
        -10.321477772914488
      ],
      [
        "▁rêves",
        -10.32247480691723
      ],
      [
        "changer",
        -10.323432223174951
      ],
      [
        "▁jeune",
        -10.323798640216241
      ],
      [
        "▁melo",
        -10.325447834685912
      ],
      [
        "lit",
        -10.326159556286974
      ],
      [
        "rois",
        -10.326552730654464
      ],
      [
        "▁Waa",
        -10.327169552983376
      ],
      [
        "aumes",
        -10.327315752647106
      ],
      [
        "▁glac",
        -10.328056578878872
      ],
      [
        "gation",
        -10.328279439520497
      ],
      [
        "▁int",
        -10.328750189708904
      ],
      [
        "▁médicale",
        -10.328945087813572
      ],
      [
        "source",
        -10.329473394078587
      ],
      [
        "ott",
        -10.329731012520067
      ],
      [
        "▁Gara",
        -10.331270707457442
      ],
      [
        "▁fenêtres",
        -10.331559391223143
      ],
      [
        "▁quel",
        -10.332293882428088
      ],
      [
        "▁écouta",
        -10.332353176500114
      ],
      [
        "▁servai",
        -10.333007769270761
      ],
      [
        "ôt",
        -10.333567789007782
      ],
      [
        "▁démo",
        -10.333603724196372
      ],
      [
        "▁emport",
        -10.334535338595135
      ],
      [
        "aal",
        -10.33489030498288
      ],
      [
        "▁njaay",
        -10.335189764893217
      ],
      [
        "▁dàqee",
        -10.335513982135735
      ],
      [
        "▁amis",
        -10.336686226374683
      ],
      [
        "▁pain",
        -10.337011741507897
      ],
      [
        "maine",
        -10.337043732660765
      ],
      [
        "its",
        -10.338377308004622
      ],
      [
        "▁île",
        -10.338775786693667
      ],
      [
        "aisons",
        -10.33917025272247
      ],
      [
        "▁kà",
        -10.341703457558241
      ],
      [
        "▁destiné",
        -10.341767241633313
      ],
      [
        "▁comment",
        -10.342562365448458
      ],
      [
        "▁ñam",
        -10.342928770647354
      ],
      [
        "▁Sh",
        -10.344069346775223
      ],
      [
        "emelle",
        -10.344236656079618
      ],
      [
        "▁lorsqu'",
        -10.344284475857405
      ],
      [
        "▁moments",
        -10.344375012936565
      ],
      [
        "▁kàttanu",
        -10.344632533200242
      ],
      [
        "▁xer",
        -10.345006445140195
      ],
      [
        "▁chaude",
        -10.346026853799502
      ],
      [
        "élan",
        -10.346469038131488
      ],
      [
        "▁Mii",
        -10.347147943701447
      ],
      [
        "▁demand",
        -10.347413415835293
      ],
      [
        "▁Bam",
        -10.347448974803896
      ],
      [
        "▁yóbb",
        -10.34756396707163
      ],
      [
        "▁canne",
        -10.348424508424811
      ],
      [
        "▁souven",
        -10.348848068718748
      ],
      [
        "▁manque",
        -10.34913142072675
      ],
      [
        "jum",
        -10.35297691950714
      ],
      [
        "yaam",
        -10.353445074031907
      ],
      [
        "▁safar",
        -10.35411429747456
      ],
      [
        "▁Der",
        -10.355211718453848
      ],
      [
        "▁cli",
        -10.355347728962489
      ],
      [
        "it.",
        -10.356694536804593
      ],
      [
        "able",
        -10.357154959439464
      ],
      [
        "▁cach",
        -10.357991168941064
      ],
      [
        "'écouter",
        -10.358259169479075
      ],
      [
        "▁dépass",
        -10.360584637327335
      ],
      [
        "▁dese",
        -10.361431430416989
      ],
      [
        "-elle",
        -10.361496818207126
      ],
      [
        "▁four",
        -10.363650121547819
      ],
      [
        "▁souvenirs",
        -10.364594231406356
      ],
      [
        "▁soos",
        -10.366091432427805
      ],
      [
        "▁allai",
        -10.366183316673073
      ],
      [
        "▁Mb",
        -10.366554182303245
      ],
      [
        "▁br",
        -10.367032249409132
      ],
      [
        "▁noot",
        -10.367198013257383
      ],
      [
        "▁soxnaa",
        -10.367545273993167
      ],
      [
        "tee",
        -10.367952398972493
      ],
      [
        "nique",
        -10.36879556490319
      ],
      [
        "▁vue",
        -10.370025969918947
      ],
      [
        "▁Ek",
        -10.37061641721036
      ],
      [
        "chaîn",
        -10.37113454555038
      ],
      [
        "uits",
        -10.37162385370844
      ],
      [
        "po",
        -10.371751979543095
      ],
      [
        "▁gëne",
        -10.372128122140946
      ],
      [
        "mag",
        -10.372329638790784
      ],
      [
        "eñ",
        -10.373862249981887
      ],
      [
        "▁rentr",
        -10.374515017335726
      ],
      [
        "▁pil",
        -10.377214015425313
      ],
      [
        "uvet",
        -10.377384382175471
[...]
