{
  "version": "1.0",
  "truncation": null,
  "padding": null,
  "added_tokens": [
    {
      "id": 0,
      "content": "<cls>",
      "single_word": false,
      "lstrip": false,
      "rstrip": false,
      "normalized": false,
      "special": true
    },
    {
      "id": 1,
      "content": "<sep>",
      "single_word": false,
      "lstrip": false,
      "rstrip": false,
      "normalized": false,
      "special": true
    },
    {
      "id": 2,
      "content": "<unk>",
      "single_word": false,
      "lstrip": false,
      "rstrip": false,
      "normalized": false,
      "special": true
    },
    {
      "id": 3,
      "content": "<pad>",
      "single_word": false,
      "lstrip": false,
      "rstrip": false,
      "normalized": false,
      "special": true
    },
    {
      "id": 4,
      "content": "<mask>",
      "single_word": false,
      "lstrip": false,
      "rstrip": false,
      "normalized": false,
      "special": true
    },
    {
      "id": 5,
      "content": "<s>",
      "single_word": false,
      "lstrip": false,
      "rstrip": false,
      "normalized": false,
      "special": true
    },
    {
      "id": 6,
      "content": "</s>",
      "single_word": false,
      "lstrip": false,
      "rstrip": false,
      "normalized": false,
      "special": true
    }
  ],
  "normalizer": {
    "type": "Replace",
    "pattern": {
      "String": " {2,}"
    },
    "content": " "
  },
  "pre_tokenizer": {
    "type": "Metaspace",
    "replacement": "▁",
    "add_prefix_space": true
  },
  "post_processor": null,
  "decoder": {
    "type": "Metaspace",
    "replacement": "▁",
    "add_prefix_space": true
  },
  "model": {
    "type": "Unigram",
    "unk_id": 2,
    "vocab": [
      [
        "<cls>",
        0.0
      ],
      [
        "<sep>",
        0.0
      ],
      [
        "<unk>",
        0.0
      ],
      [
        "<pad>",
        0.0
      ],
      [
        "<mask>",
        0.0
      ],
      [
        "<s>",
        0.0
      ],
      [
        "</s>",
        0.0
      ],
      [
        "▁",
        -2.3916887425899738
      ],
      [
        ".",
        -3.216915886534892
      ],
      [
        "!",
        -3.657711105521787
      ],
      [
        "?",
        -3.681880108332418
      ],
      [
        "s",
        -3.9916810211073006
      ],
      [
        ",",
        -4.012087545391159
      ],
      [
        "▁la",
        -4.497497683573387
      ],
      [
        "'est",
        -4.527387123435662
      ],
      [
        "i",
        -4.570584801409007
      ],
      [
        "▁dem",
        -4.621500405149816
      ],
      [
        "u",
        -4.688846368628902
      ],
      [
        "▁!",
        -4.713226552009803
      ],
      [
        "n",
        -4.791237603538004
      ],
      [
        "▁pas",
        -4.793699790775407
      ],
      [
        "e",
        -4.801849960057823
      ],
      [
        "a",
        -4.843332344657441
      ],
      [
        "▁C",
        -4.855041325444548
      ],
      [
        "▁gi",
        -4.889388590364689
      ],
      [
        "▁de",
        -4.928381581816734
      ],
      [
        "▁qui",
        -4.939207350485887
      ],
      [
        "▁que",
        -4.9726681652297255
      ],
      [
        "t",
        -4.979969500782936
      ],
      [
        "▁ŋga",
        -5.016491144466891
      ],
      [
        "▁na",
        -5.0714217725122595
      ],
      [
        "▁est",
        -5.1143657882306
      ],
      [
        "▁G",
        -5.124990009626091
      ],
      [
        "óor",
        -5.129673592239406
      ],
      [
        "▁vu",
        -5.209572299671932
      ],
      [
        "▁naa",
        -5.265274924500123
      ],
      [
        "▁ne",
        -5.284896440671753
      ],
      [
        "▁Il",
        -5.329749781091832
      ],
      [
        "▁Gis",
        -5.348325171853742
      ],
      [
        "▁Tu",
        -5.388925887526554
      ],
      [
        "▁homme",
        -5.396867992886761
      ],
      [
        "▁été",
        -5.420763044245199
      ],
      [
        "▁un",
        -5.428383114535368
      ],
      [
        "▁L'homme",
        -5.443506820441905
      ],
      [
        "▁tu",
        -5.515736269915261
      ],
      [
        "▁J'a",
        -5.645518341346385
      ],
      [
        "▁Je",
        -5.653077653316643
      ],
      [
        "y",
        -5.655683136567901
      ],
      [
        "l",
        -5.667327095591092
      ],
      [
        "▁l'homme",
        -5.688253185421277
      ],
      [
        "▁ce",
        -5.689266636298024
      ],
      [
        "▁ñëw",
        -5.69004275878311
      ],
      [
        "▁ci",
        -5.6992358408895285
      ],
      [
        "▁wax",
        -5.715399383046846
      ],
      [
        "le",
        -5.792282619016853
      ],
      [
        "▁parti",
        -5.809994266348376
      ],
      [
        "▁mu",
        -5.815506990177595
      ],
      [
        "r",
        -5.851389395082167
      ],
      [
        "▁nit",
        -5.872845784983725
      ],
      [
        "▁Nit",
        -5.878044792787868
      ],
      [
        "▁góor",
        -5.899224034468441
      ],
      [
        "▁a",
        -5.907713036999571
      ],
      [
        "▁à",
        -5.9129373357117
      ],
      [
        "▁di",
        -5.918699249317225
      ],
      [
        "▁qu'il",
        -5.927907448060751
      ],
      [
        "et",
        -5.987097733707742
      ],
      [
        "à",
        -6.007758620885788
      ],
      [
        "▁les",
        -6.020871068307163
      ],
      [
        "▁cet",
        -6.0477000917957096
      ],
      [
        "▁c",
        -6.086464849272685
      ],
      [
        "▁le",
        -6.086958265797079
      ],
      [
        "x",
        -6.086959412873493
      ],
      [
        "▁autre",
        -6.104064170097541
      ],
      [
        "▁yi",
        -6.113351688102309
      ],
      [
        "é",
        -6.122849281003602
      ],
      [
        "▁sont",
        -6.126103777817374
      ],
      [
        "▁ŋgi",
        -6.126345797078029
      ],
      [
        "eneen",
        -6.15209897207412
      ],
      [
        "▁ba",
        -6.16033548857965
      ],
      [
        "▁ki",
        -6.18100628997464
      ],
      [
        "▁te",
        -6.230848238493701
      ],
      [
        "▁bëgg",
        -6.243074815130127
      ],
      [
        "▁xale",
        -6.246635630345784
      ],
      [
        "▁gis",
        -6.272530253299021
      ],
      [
        "▁ka",
        -6.30185880844758
      ],
      [
        "oon",
        -6.3168803982567265
      ],
      [
        "▁bi",
        -6.317661414326196
      ],
      [
        "▁celui-là",
        -6.330325828051418
      ],
      [
        "▁parle",
        -6.342496693422566
      ],
      [
        "▁as",
        -6.342543523522302
      ],
      [
        "woon",
        -6.35961602153159
      ],
      [
        "▁woon",
        -6.379167679590612
      ],
      [
        "▁A",
        -6.414810729748622
      ],
      [
        "▁je",
        -6.4185768894598825
      ],
      [
        "c",
        -6.4326891249472755
      ],
      [
        "▁Dem",
        -6.434087698430677
      ],
      [
        "▁mi",
        -6.4341036796234805
      ],
      [
        "▁xar",
        -6.444039266434871
      ],
      [
        "▁lui",
        -6.459225812637935
      ],
      [
        "▁mouton",
        -6.470598449407984
      ],
      [
        "▁voilà",
        -6.470701767844647
      ],
      [
        "al",
        -6.481184491365836
      ],
      [
        "il",
        -6.505979179128095
      ],
      [
        "▁il",
        -6.508707617093016
      ],
      [
        "▁là",
        -6.516135845729071
      ],
      [
        "▁venu",
        -6.553271634650846
      ],
      [
        "▁demee",
        -6.554880672059978
      ],
      [
        "▁biir",
        -6.559196747075216
      ],
      [
        "▁ji",
        -6.57151548805769
      ],
      [
        "▁partir",
        -6.581305684741678
      ],
      [
        "▁du",
        -6.582819574419553
      ],
      [
        "▁ma",
        -6.586210598113388
      ],
      [
        "▁J",
        -6.600815042711099
      ],
      [
        "▁demul",
        -6.604483552040976
      ],
      [
        "o",
        -6.606458780396065
      ],
      [
        "▁enfants",
        -6.613203343928476
      ],
      [
        "▁Cet",
        -6.620902777143192
      ],
      [
        "▁ya",
        -6.630017000101852
      ],
      [
        "▁des",
        -6.64982823798319
      ],
      [
        "▁Quel",
        -6.6553365570990834
      ],
      [
        "▁n",
        -6.655728220519624
      ],
      [
        "▁ŋgeen",
        -6.659832227487213
      ],
      [
        "▁fi",
        -6.660647577739039
      ],
      [
        "▁dit",
        -6.661458019100553
      ],
      [
        "▁Ci",
        -6.662137859642302
      ],
      [
        "m",
        -6.663647153240406
      ],
      [
        "▁l'intérieur",
        -6.666385973492684
      ],
      [
        "▁moi",
        -6.66957765046898
      ],
      [
        "▁laa",
        -6.674258927439521
      ],
      [
        "▁kenn",
        -6.697244786589946
      ],
      [
        "▁ami",
        -6.6990060081714
      ],
      [
        "▁O",
        -6.7100354652531085
      ],
      [
        "▁toi",
        -6.713479999139147
      ],
      [
        "ul",
        -6.715222955921247
      ],
      [
        "▁tout",
        -6.71887833382865
      ],
      [
        "s-t",
        -6.7202860081301345
      ],
      [
        "▁part",
        -6.729806136455824
      ],
      [
        "ci",
        -6.737435790872652
      ],
      [
        "est",
        -6.74147368764018
      ],
      [
        "ù",
        -6.749550806108374
      ],
      [
        "▁nag",
        -6.7593741451481915
      ],
      [
        "▁n'a",
        -6.759393527168001
      ],
      [
        "▁pour",
        -6.761807933336936
      ],
      [
        "ez",
        -6.763046052461846
      ],
      [
        "▁peut-",
        -6.766665071935936
      ],
      [
        "▁veux",
        -6.7716466811051275
      ],
      [
        "nt",
        -6.781192064479408
      ],
      [
        "▁en",
        -6.784302364610648
      ],
      [
        "▁Ce",
        -6.789353747257352
      ],
      [
        "▁vous",
        -6.791141502796451
      ],
      [
        "re",
        -6.791810381849746
      ],
      [
        "▁Le",
        -6.794602041854242
      ],
      [
        "▁xarit",
        -6.797707729139403
      ],
      [
        "▁ñi",
        -6.798451044009296
      ],
      [
        "▁Xar",
        -6.80943040828382
      ],
      [
        "▁E",
        -6.823209942123551
      ],
      [
        "▁réer",
        -6.848623171456077
      ],
      [
        "▁sa",
        -6.853558939425978
      ],
      [
        "▁Les",
        -6.854746742233871
      ],
      [
        "▁ag",
        -6.858553797321608
      ],
      [
        "ak",
        -6.860897538412109
      ],
      [
        "es",
        -6.862909400918341
      ],
      [
        "▁jigéen",
        -6.86988153982286
      ],
      [
        "▁Qui",
        -6.875019339342627
      ],
      [
        "▁Fa",
        -6.885574174305506
      ],
      [
        "▁Sée",
        -6.886508383727845
      ],
      [
        "ne",
        -6.895766343484376
      ],
      [
        "▁L",
        -6.914771801543315
      ],
      [
        "▁moom",
        -6.931446605784686
      ],
      [
        "▁l",
        -6.934908537014833
      ],
      [
        "oo",
        -6.944623634427115
      ],
      [
        "▁moutons",
        -6.949136678563809
      ],
      [
        "▁d",
        -6.952163910312201
      ],
      [
        "▁femme",
        -6.964826061130328
      ],
      [
        "▁veut",
        -6.964980887988181
      ],
      [
        "▁nda",
        -6.977668297004083
      ],
      [
        "ont",
        -6.985056730313758
      ],
      [
        "tu",
        -6.994724737167186
      ],
      [
        "▁k",
        -7.000224995039528
      ],
      [
        "▁So",
        -7.010088934143447
      ],
      [
        "▁kooku",
        -7.010099187937215
      ],
      [
        "-",
        -7.026193552678615
      ],
      [
        "▁s",
        -7.029137064834791
      ],
      [
        "fa",
        -7.033397545347326
      ],
      [
        "w",
        -7.035485753971095
      ],
      [
        "▁personne",
        -7.036446831834507
      ],
      [
        "▁ave",
        -7.040410265066988
      ],
      [
        "▁où",
        -7.042128946876002
      ],
      [
        "▁Su",
        -7.050226843207222
      ],
      [
        "▁chose",
        -7.052005771515773
      ],
      [
        "▁m",
        -7.060391433050874
      ],
      [
        "te",
        -7.068734923280488
      ],
      [
        "▁se",
        -7.0725889502824
      ],
      [
        "▁Maa",
        -7.072592793650882
      ],
      [
        "▁Vous",
        -7.0772176300103355
      ],
      [
        "▁ceux-là",
        -7.078092007828614
      ],
      [
        "▁Que",
        -7.087808394627299
      ],
      [
        "▁ku",
        -7.109705700055844
      ],
      [
        "▁si",
        -7.110181621333675
      ],
      [
        "s.",
        -7.123502220482296
      ],
      [
        "▁maison",
        -7.125621081968141
      ],
      [
        "▁y",
        -7.126024740780862
      ],
      [
        "▁dan",
        -7.128874189315065
      ],
      [
        "▁foofu",
        -7.129038047326043
      ],
      [
        "▁moo",
        -7.134645067084566
      ],
      [
        "▁doon",
        -7.136005869676712
      ],
      [
        "▁Na",
        -7.140350272830473
      ],
      [
        "▁ni",
        -7.149934415752403
      ],
      [
        "uñu",
        -7.159243666547451
      ],
      [
        "▁Du",
        -7.163430565375149
      ],
      [
        "na",
        -7.163928612080857
      ],
      [
        "épp",
        -7.165294675597407
      ],
      [
        "▁nañu",
        -7.167864571437058
      ],
      [
        "▁aussi",
        -7.174928733166808
      ],
      [
        "▁gens",
        -7.176987672593598
      ],
      [
        "▁F",
        -7.177707510395172
      ],
      [
        "▁baax",
        -7.1789514478192835
      ],
      [
        "tre",
        -7.181526736688639
      ],
      [
        "g",
        -7.186155622526761
      ],
      [
        "▁K",
        -7.187999585484668
      ],
      [
        "▁vois",
        -7.20280377137672
      ],
      [
        "▁waa",
        -7.203841893601085
      ],
      [
        "▁dana",
        -7.207461583375949
      ],
      [
        "▁Te",
        -7.209065258569931
      ],
      [
        "koon",
        -7.212161005907605
      ],
      [
        "-là",
        -7.220426585109962
      ],
      [
        "▁La",
        -7.2206485711669135
      ],
      [
        "▁jusqu'",
        -7.226328759515793
      ],
      [
        "▁Xale",
        -7.22728949399613
      ],
      [
        "▁yépp",
        -7.228469314825797
      ],
      [
        "▁Keneen",
        -7.229717284627087
      ],
      [
        "▁fu",
        -7.239400801222782
      ],
      [
        "▁Yaa",
        -7.2400883510740535
      ],
      [
        "▁ñu",
        -7.2654206195238915
      ],
      [
        "▁Va",
        -7.265714413830944
      ],
      [
        "on",
        -7.278533447493844
      ],
      [
        "▁égaré",
        -7.2789076369298025
      ],
      [
        "▁lion",
        -7.280474257209855
      ],
      [
        "▁doŋŋ",
        -7.2823164207288045
      ],
      [
        "▁Samba",
        -7.282924193695583
      ],
      [
        "▁donné",
        -7.282933414260304
      ],
      [
        "▁l'autre",
        -7.283580888636248
      ],
      [
        "▁quelqu'un",
        -7.283793035144111
      ],
      [
        "▁croi",
        -7.28959518225331
      ],
      [
        "▁Laobe",
        -7.2914495712808485
      ],
      [
        "▁Ma",
        -7.29163987197629
      ],
      [
        "▁S",
        -7.292804436675874
      ],
      [
        "▁man",
        -7.293996954471644
      ],
      [
        "▁Da",
        -7.295778304793608
      ],
      [
        "▁Bëgg",
        -7.300737121277734
      ],
      [
        "▁Nda",
        -7.30377422476393
      ],
      [
        "is",
        -7.316020542450753
      ],
      [
        "une",
        -7.316589719213827
      ],
      [
        "▁t'a",
        -7.31975271224544
      ],
      [
        "▁quelle",
        -7.324560859551107
      ],
      [
        "▁dee",
        -7.330053853809849
      ],
      [
        "or",
        -7.33094461232027
      ],
      [
        "▁Moo",
        -7.3387323288757775
      ],
      [
        "▁rekk",
        -7.341101920880567
      ],
      [
        "▁là-bas",
        -7.341945379250209
      ],
      [
        "▁celui",
        -7.342010793425285
      ],
      [
        "rç",
        -7.342171010405143
      ],
      [
        "▁Mais",
        -7.342838204352102
      ],
      [
        "▁lañu",
        -7.3470408331842325
      ],
      [
        "▁so",
        -7.347419729874294
      ],
      [
        "▁Seet",
        -7.351429157976469
      ],
      [
        "soo",
        -7.354576342981154
      ],
      [
        "▁fa",
        -7.359027663374606
      ],
      [
        "▁autres",
        -7.362211404837494
      ],
      [
        "▁Mi",
        -7.367894338336659
      ],
      [
        "it",
        -7.373955022277332
      ],
      [
        "▁dul",
        -7.375616169305337
      ],
      [
        "▁ñoo",
        -7.376022004765646
      ],
      [
        "▁parte",
        -7.3848760315702195
      ],
      [
        "un",
        -7.385923870728359
      ],
      [
        "igéen",
        -7.400000936963746
      ],
      [
        "ent",
        -7.401685110246291
      ],
      [
        "▁Un",
        -7.402787695241363
      ],
      [
        "▁benn",
        -7.4039036321260525
      ],
      [
        "ay",
        -7.405679036228184
      ],
      [
        "▁vache",
        -7.405725898559107
      ],
      [
        "ment",
        -7.407747867742684
      ],
      [
        "▁D",
        -7.4092784734523
      ],
      [
        "▁demkoon",
        -7.412076832732724
      ],
      [
        "▁Waa",
        -7.413099098331841
      ],
      [
        "ère",
        -7.418261421657599
      ],
      [
        "▁pars",
        -7.422856722289319
      ],
      [
        "▁fait",
        -7.4274611773745765
      ],
      [
        "▁j",
        -7.441602626364958
      ],
      [
        "▁Si",
        -7.441823280385772
      ],
      [
        "▁leen",
        -7.4531081653435205
      ],
      [
        "▁n'es",
        -7.455364081994759
      ],
      [
        "▁es",
        -7.46190232497808
      ],
      [
        "▁De",
        -7.46940477459179
      ],
      [
        "▁rien",
        -7.4701049702953055
      ],
      [
        "▁dara",
        -7.470106821676307
      ],
      [
        "▁ñépp",
        -7.470468902725733
      ],
      [
        "▁Kooku",
        -7.470560461022938
      ],
      [
        "▁ñan",
        -7.470626424654029
      ],
      [
        "▁yooyu",
        -7.471417602858418
      ],
      [
        "▁Ya",
        -7.471780625621509
      ],
      [
        "▁Yaw",
        -7.477310039823577
      ],
      [
        "en",
        -7.4869470969753165
      ],
      [
        "▁fii",
        -7.507464589669185
      ],
      [
        "▁Y",
        -7.50881594091063
      ],
      [
        "▁da",
        -7.514435744590974
      ],
      [
        "▁tou",
        -7.5254592746102205
      ],
      [
        "▁Ba",
        -7.526358753385037
      ],
      [
        "▁S'il",
        -7.540977530979092
      ],
      [
        "▁Aucun",
        -7.5412943407996185
      ],
      [
        "▁Celui-là",
        -7.542104720522788
      ],
      [
        "▁simplement",
        -7.542223459066056
      ],
      [
        "▁Saint-Louis",
        -7.542325126406082
      ],
      [
        "▁celui-ci",
        -7.54286402046519
      ],
      [
        "▁mépp",
        -7.543922382227661
      ],
      [
        "▁gaynde",
        -7.54464896973168
      ],
      [
        "▁dame",
        -7.546417995869411
      ],
      [
        "▁Tout",
        -7.548552730248432
      ],
      [
        "▁Ndar",
        -7.552937602564404
      ],
      [
        "▁d'autres",
        -7.5594343386598215
      ],
      [
        "ñ",
        -7.5602746831280125
      ],
      [
        "C",
        -7.565412688835704
      ],
      [
        "▁n'",
        -7.5708316358770125
      ],
      [
        "ê",
        -7.580825978537211
      ],
      [
        "▁son",
        -7.588697134900472
      ],
      [
        "▁b",
        -7.589191505926282
      ],
      [
        "▁seul",
        -7.591411439002792
      ],
      [
        "êt",
        -7.596872375995107
      ],
      [
        "▁avait",
        -7.605564686612221
      ],
      [
        "▁quel",
        -7.6057083194081585
      ],
      [
        ":",
        -7.611869615867844
      ],
      [
        "▁su",
        -7.614549722567125
      ],
      [
        "▁jëm",
        -7.617549324252362
      ],
      [
        "▁matin",
        -7.617936035587752
      ],
      [
        "▁Yéen",
        -7.619033475675843
      ],
      [
        "▁Mu",
        -7.61941149682796
      ],
      [
        "▁jeune",
        -7.619618146283745
      ],
      [
        "▁d'",
        -7.621186277042758
      ],
      [
        "▁bëggul",
        -7.623840407315237
      ],
      [
        "ape",
        -7.62625401457055
      ],
      [
        "▁viendra",
        -7.633366629258392
      ],
      [
        "-ci",
        -7.633419470908967
      ],
      [
        "▁À",
        -7.637735492079091
      ],
      [
        "▁l'",
        -7.641377340416341
      ],
      [
        "▁étai",
        -7.645483286204341
      ],
      [
        "ël",
        -7.649937279776555
      ],
      [
        "▁fas",
        -7.657658404077342
      ],
      [
        "▁bii",
        -7.663764878340957
      ],
      [
        "▁femmes",
        -7.664765794494331
      ],
      [
        "▁bon",
        -7.665337769836794
      ],
      [
        "óon",
        -7.666660434761846
      ],
      [
        "▁Ken",
        -7.675926807242466
      ],
      [
        "▁Quelle",
        -7.680670514652775
      ],
      [
        "▁vienne",
        -7.6808412169349225
      ],
      [
        "la",
        -7.682275997888768
      ],
      [
        "de",
        -7.682753924257808
      ],
      [
        "▁R",
        -7.688920414241917
      ],
      [
        "▁def",
        -7.69122661810284
      ],
      [
        "▁kër",
        -7.699845991390628
      ],
      [
        "▁Jox",
        -7.700155649744103
      ],
      [
        "▁génn",
        -7.700576678571518
      ],
      [
        "▁Lawbe",
        -7.701044217694719
      ],
      [
        "▁Defe",
        -7.701277012615213
      ],
      [
        "▁Cherche",
        -7.701438112769951
      ],
      [
        "▁question",
        -7.701632142123803
      ],
      [
        "▁bañ",
        -7.702638335989981
      ],
      [
        "gee",
        -7.703406408598056
      ],
      [
        "oi",
        -7.7058034485285605
      ],
      [
        "▁Demal",
        -7.706046133031327
      ],
      [
        "▁doom",
        -7.716700309677213
      ],
      [
        "▁fut",
        -7.717699400437253
      ],
      [
        "▁Bi",
        -7.7276877244323705
      ],
      [
        "kan",
        -7.734110310800094
      ],
      [
        "▁ŋgii",
        -7.736864737353472
      ],
      [
        "▁bien",
        -7.738011634209468
      ],
      [
        "▁Wax",
        -7.745186526959969
      ],
      [
        "▁parles",
        -7.749988445578872
      ],
      [
        "▁nul",
        -7.751070439953191
      ],
      [
        "▁Di",
        -7.7517775369470545
      ],
      [
        "▁qu",
        -7.753568457900826
      ],
      [
        "▁ca",
        -7.756399210243192
      ],
      [
        "▁C'",
        -7.766899698026888
      ],
      [
        "▁daa",
        -7.768062042153332
      ],
      [
        "ñu",
        -7.768797069607427
      ],
      [
        "▁vas",
        -7.770509962486054
      ],
      [
        "▁l'a",
        -7.770651158452825
      ],
      [
        "▁partis",
        -7.771982468471362
      ],
      [
        "é.",
        -7.773953050357957
      ],
      [
        "▁qu'",
        -7.774872705425507
      ],
      [
        "naa",
        -7.777165735062628
      ],
      [
        "▁parl",
        -7.781043928690268
      ],
      [
        "▁liggéey",
        -7.783628429479128
      ],
      [
        "G",
        -7.784933362576744
      ],
      [
        "▁Homme",
        -7.7914849998331395
      ],
      [
        "▁cheval",
        -7.791641995660009
      ],
      [
        "▁Xammee",
        -7.791769092194691
      ],
      [
        "▁Qu'il",
        -7.792072587596296
      ],
      [
        "▁dañu",
        -7.792430022374679
      ],
      [
        "▁kii",
        -7.792702305747973
      ],
      [
        "ement",
        -7.793291546574965
      ],
      [
        "▁yaw",
        -7.7935735413425435
      ],
      [
        "▁va",
        -7.7979821544873085
      ],
      [
        "▁égarée",
        -7.798043195507834
      ],
      [
        "▁fille",
        -7.7980762467590115
      ],
      [
        "ais",
        -7.804947590267382
      ],
      [
        "▁defe",
        -7.811461729977421
      ],
      [
        "am",
        -7.812324467146833
      ],
      [
        "▁P",
        -7.8140955573236095
      ],
      [
        "d",
        -7.815700008749758
      ],
      [
        "▁ira",
        -7.816774519356053
      ],
      [
        "▁soi",
        -7.8186924080551305
      ],
      [
        "réer",
        -7.8187534710485584
      ],
      [
        "que",
        -7.819965570884449
      ],
      [
        "▁partira",
        -7.823286707739987
      ],
      [
        "▁Nou",
        -7.8235492538850915
      ],
      [
        "▁serai",
        -7.8239636401017645
      ],
      [
        "▁Bu",
        -7.823982371523715
      ],
      [
        "tes",
        -7.824342096164128
      ],
      [
        "▁lan",
        -7.837846453235587
      ],
      [
        "▁Sa",
        -7.838910505896733
      ],
      [
        "▁voir",
        -7.840125284087693
      ],
      [
        "▁ban",
        -7.841008912070921
      ],
      [
        "h",
        -7.841091804234813
      ],
      [
        "ait",
        -7.843412101933872
      ],
      [
        "as-",
        -7.84557788805133
      ],
      [
        "▁N",
        -7.845586445651255
      ],
      [
        "▁v",
        -7.8507340119227536
      ],
      [
        "▁Li",
        -7.851270941229762
      ],
      [
        "ces",
        -7.85912048573306
      ],
      [
        "b",
        -7.8656700399983865
      ],
      [
        "enn",
        -7.875395844155497
      ],
      [
        "▁M",
        -7.883078010146263
      ],
      [
        "atim",
        -7.885682940302509
      ],
      [
        "▁nee",
        -7.887648604166284
      ],
      [
        "▁dugg",
        -7.890760702678357
      ],
      [
        "▁subë",
        -7.890791094855062
      ],
      [
        "▁V",
        -7.891172725052636
      ],
      [
        "▁toog",
        -7.891180424876325
      ],
      [
        "▁Alors",
        -7.891191485823716
      ],
      [
        "▁Moussa",
        -7.891359941834747
      ],
      [
        "▁d'Europe",
        -7.8917056313216865
      ],
      [
        "▁Fatim",
        -7.891801792032337
      ],
      [
        "▁biti",
        -7.892611625224521
      ],
      [
        "▁plus",
        -7.892831628502076
      ],
      [
        "▁Xam",
        -7.895236978063699
      ],
      [
        "▁yeneen",
        -7.898897121066941
      ],
      [
        "▁ñëwul",
        -7.900826161418738
      ],
      [
        "▁sama",
        -7.902462053478227
      ],
      [
        "▁Koo",
        -7.903226590064323
      ],
      [
        "▁j'a",
        -7.9043393743086465
      ],
      [
        "k",
        -7.907056126424535
      ],
      [
        "▁par",
        -7.908138184200685
      ],
      [
        "▁aujourd'hui",
        -7.9116650817885095
      ],
      [
        "▁ici",
        -7.912310747533931
      ],
      [
        "an",
        -7.917482076454928
      ],
      [
        "▁Man",
        -7.920813381434883
      ],
      [
        "▁ja",
        -7.921847623806825
      ],
      [
        "▁Voil",
        -7.926129413293344
      ],
      [
        "▁partes",
        -7.9289231415842
      ],
      [
        "▁Comme",
        -7.932023540571773
      ],
      [
        "voir",
        -7.940862319046449
      ],
      [
        "▁ay",
        -7.940963896101348
      ],
      [
        "▁ou",
        -7.941312761518464
      ],
      [
        "▁Mon",
        -7.94294043140571
      ],
      [
        "mi",
        -7.946626818491863
      ],
      [
        "uma",
        -7.9489747269445985
      ],
      [
        "er",
        -7.949720787620144
      ],
      [
        "gii",
        -7.950200089399616
      ],
      [
        "fin",
        -7.952138088201275
      ],
      [
        "ons",
        -7.960909692835515
      ],
      [
        "▁am",
        -7.9629084160904515
      ],
      [
        "eux",
        -7.970917295292265
      ],
      [
        "vais",
        -7.973139876559822
      ],
      [
        "▁w",
        -7.98429544265113
      ],
      [
        "▁même",
        -7.985403999386062
      ],
      [
        "f",
        -7.985974857167804
      ],
      [
        "▁re",
        -7.986582155113954
      ],
      [
        "▁na.",
        -7.987778533421571
      ],
      [
        "▁Ñ",
        -7.9987598308681624
      ],
      [
        "een",
        -8.00102164621557
      ],
      [
        "▁dëkk",
        -8.001938313898727
      ],
      [
        "▁acheté",
        -8.001973859526718
      ],
      [
        "▁Sérère",
        -8.002015963140632
      ],
      [
        "▁néeg",
        -8.002266823382087
      ],
      [
        "▁jaŋg",
        -8.002611482680358
      ],
      [
        "▁ndaw",
        -8.003653365408393
      ],
      [
        "▁Tay",
        -8.003661382094197
      ],
      [
        "▁bépp",
        -8.003854847237598
      ],
      [
        "▁s'en",
        -8.007810805913516
      ],
      [
        "▁tay",
        -8.009947728378181
      ],
      [
        "▁ŋgoon",
        -8.01006438609821
      ],
      [
        "▁Woo",
        -8.010874769703214
      ],
      [
        "▁Là",
        -8.011078682540187
      ],
      [
        "est-ce",
        -8.012694594152736
      ],
      [
        "▁itam",
        -8.01311421429486
      ],
      [
        "▁seen",
        -8.01387082557797
      ],
      [
        "ŋga",
        -8.016887870274811
      ],
      [
        "'étai",
        -8.018154174261223
      ],
      [
        "e.",
        -8.01993294704946
      ],
      [
        "▁Ne",
        -8.024056203415546
      ],
      [
        "ee",
        -8.032874685512837
      ],
      [
        "▁viennes",
        -8.034788457707563
      ],
      [
        "z",
        -8.038809174056524
      ],
      [
        "▁may",
        -8.043688940526295
      ],
      [
        "▁don",
        -8.051565262077297
      ],
      [
        "ag",
        -8.054767221157904
      ],
      [
        "▁mo",
        -8.056172683422384
      ],
      [
        "▁au",
        -8.058200864947617
      ],
      [
        "▁enfant",
        -8.064567740541198
      ],
      [
        "▁eû",
        -8.074017015584474
      ],
      [
        "▁Doo",
        -8.078002591023989
      ],
      [
        "▁entre",
        -8.088608003802333
      ],
      [
        "▁avais",
        -8.089265849205297
      ],
      [
        "les",
        -8.089531424549772
      ],
      [
        "▁gu",
        -8.089862685735739
      ],
      [
        "..",
        -8.092579419428835
      ],
      [
        "leen",
        -8.09839138261102
      ],
      [
        "▁B",
        -8.100376834089275
      ],
      [
        "fois",
        -8.1031923084041
      ],
      [
        "▁no",
        -8.10640143357238
      ],
      [
        "elle",
        -8.106633888308705
      ],
      [
        "oom",
        -8.108130106453242
      ],
      [
        "▁arrivé",
        -8.109320586755468
      ],
      [
        "and",
        -8.1130669651651
      ],
      [
        "▁Noon",
        -8.114488068283638
      ],
      [
        "▁Par",
        -8.124534663689145
      ],
      [
        "gal",
        -8.124745329120042
      ],
      [
        "▁rafet",
        -8.124816657679462
      ],
      [
        "▁encore",
        -8.126408762793618
      ],
      [
        "▁entier",
        -8.126429758224923
      ],
      [
        "▁Waaye",
        -8.1264315445834
      ],
      [
        "▁Loolu",
        -8.126440236532225
      ],
      [
        "▁allé",
        -8.126513065837175
      ],
      [
        "▁chevaux",
        -8.12660293205618
      ],
      [
        "▁pourtant",
        -8.126978567658407
      ],
      [
        "▁Musaa",
        -8.128145036491029
      ],
      [
        "▁Toi",
        -8.130298382734123
      ],
      [
        "▁sortir",
        -8.130316829217879
      ],
      [
        "▁g",
        -8.13043371478928
      ],
      [
        "▁Kookule",
        -8.131523021227855
      ],
      [
        "▁sax",
        -8.134319944142938
      ],
      [
        "st-ce",
        -8.135987667986353
      ],
      [
        "t-il",
        -8.138966359075427
      ],
      [
        "▁Qu",
        -8.138992361432162
      ],
      [
        "▁cherche",
        -8.13997648922771
      ],
      [
        "ma",
        -8.14129163714464
      ],
      [
        "▁Noonu",
        -8.14201228264863
      ],
      [
        "▁mais",
        -8.143283940841883
      ],
      [
        "'habitude",
        -8.146180369738868
      ],
      [
        "iez",
        -8.147013628430996
      ],
      [
        "▁soir",
        -8.150176947454137
      ],
      [
        "▁May",
        -8.15183306824744
      ],
      [
        "▁connais",
        -8.154777123668378
      ],
      [
        "▁bëggée",
        -8.156444027082323
      ],
      [
        "▁Loo",
        -8.158246574622309
      ],
      [
        "ée",
        -8.162871703753629
      ],
      [
        "▁bu",
        -8.171161376980129
      ],
      [
        "▁gan",
        -8.173659534410692
      ],
      [
        "▁vient",
        -8.176437828242321
      ],
      [
        "ënd",
        -8.178287354877835
      ],
      [
        "-t",
        -8.182599039469723
      ],
      [
        "mbaa",
        -8.1846858589494
      ],
      [
        "nd",
        -8.19324736617635
      ],
      [
        "ien",
        -8.19478733349388
      ],
      [
        "ra",
        -8.195439650015816
      ],
      [
        "▁d'autre",
        -8.20798595369877
      ],
      [
        "▁t",
        -8.216282140782114
      ],
      [
        "▁n'ai",
        -8.218043858322725
      ],
      [
        "▁jii",
        -8.220053105527278
      ],
      [
        "▁ñ",
        -8.22529379737334
      ],
      [
        "kat",
        -8.233225583737246
      ],
      [
        "▁L'",
        -8.235976555621068
      ],
      [
        "as",
        -8.244595509323197
      ],
      [
        "▁Laob",
        -8.245291349910378
      ],
      [
        "▁av",
        -8.264456656814394
      ],
      [
        "ou",
        -8.264946067014145
      ],
      [
        "▁boeuf",
        -8.265080566551514
      ],
      [
        "▁yeksi",
        -8.265081214439196
      ],
      [
        "▁Ainsi",
        -8.265084090592158
      ],
      [
        "▁Deŋk",
        -8.265129458489378
      ],
      [
        "▁Mbaa",
        -8.265199463595422
      ],
      [
        "▁téer",
        -8.265410194299964
      ],
      [
        "▁dellusi",
        -8.26573784698736
      ],
      [
        "▁allai",
        -8.265821543471437
      ],
      [
        "près",
        -8.266219805534945
      ],
      [
        "▁tày",
        -8.266394938074452
      ],
      [
        "▁lequel",
        -8.266839406820793
      ],
      [
        "ppelle",
        -8.266987840578
      ],
      [
        "▁xam",
        -8.267151296706347
      ],
      [
        "▁êtes",
        -8.269429084001105
      ],
      [
        "▁l'enfant",
        -8.269951778826584
      ],
      [
        "▁mère",
        -8.270294839080192
      ],
      [
        "▁Ra",
        -8.271859434955033
      ],
      [
        "▁caus",
        -8.27312643571525
      ],
      [
        "▁Moom",
        -8.273851691063637
      ],
      [
        "▁Foofu",
        -8.274931391310766
      ],
      [
        "▁woo",
        -8.275421023564387
      ],
      [
        "▁Sur",
        -8.276104491599547
      ],
      [
        "▁Cela",
        -8.276837719512274
      ],
      [
        "individu",
        -8.281535239208138
      ],
      [
        "tte",
        -8.282964685789572
      ],
      [
        "óo",
        -8.286138441143086
      ],
      [
        "▁toute",
        -8.286451132779082
      ],
      [
        "▁arrivés",
        -8.287471924835053
      ],
      [
        "ieur",
        -8.291693613727745
      ],
      [
        "▁leneen",
        -8.292184648612103
      ],
      [
        "▁nak",
        -8.294201078707038
      ],
      [
        "▁ñooñu",
        -8.295300284354145
      ],
      [
        "▁wall",
        -8.296377351980189
      ],
      [
        "▁demande",
        -8.29830713297068
      ],
      [
        "▁Ben",
        -8.302460981288569
      ],
      [
        "▁fil",
        -8.302513109245295
      ],
      [
        "▁d'un",
        -8.304838054308089
      ],
      [
        "▁wa",
        -8.314636747048297
      ],
      [
        "▁comme",
        -8.320667433311918
      ],
      [
        "▁bir",
        -8.321127984952582
      ],
      [
        "ar",
        -8.333167197464514
      ],
      [
        "▁jooju",
        -8.333950324643073
      ],
      [
        "ore",
        -8.34099183609037
      ],
      [
        "▁ñooña",
        -8.347304788413997
      ],
      [
        "ale",
        -8.347358331040796
      ],
      [
        "▁Ou",
        -8.35438342681869
      ],
      [
        "pp",
        -8.36331285919903
      ],
      [
        "ka",
        -8.36408276773316
      ],
      [
        "▁p",
        -8.36900508639241
      ],
      [
        "▁m'a",
        -8.371996319248836
      ],
      [
        "▁travail",
        -8.376071065423474
      ],
      [
        "▁Moi",
        -8.377680819215477
      ],
      [
        "ëf",
        -8.401699986350685
      ],
      [
        "▁ju",
        -8.403156906362586
      ],
      [
        "quel",
        -8.407891627198348
      ],
      [
        "▁Men",
        -8.408796474931755
      ],
      [
        "▁W",
        -8.41184398428086
      ],
      [
        "▁nous",
        -8.424291875944032
      ],
      [
        "▁më",
        -8.425825920959749
      ],
      [
        "▁Aujourd'hui",
        -8.431746960797874
      ],
      [
        "▁d'esprit",
        -8.431746969670424
      ],
      [
        "▁Waxtaan",
        -8.431777994945866
      ],
      [
        "▁croyai",
        -8.431781233734537
      ],
      [
        "▁manière",
        -8.43184315169871
      ],
      [
        "▁Génn",
        -8.432085659943203
      ],
      [
        "▁Donne",
        -8.432363926486891
      ],
      [
        "▁noonu",
        -8.433011707631017
      ],
      [
        "▁doonkoon",
        -8.43351169218313
      ],
      [
        "▁Tugël",
        -8.433671575267192
      ],
      [
        "▁reste",
        -8.433684073131811
      ],
      [
        "▁L'un",
        -8.4339853440044
      ],
      [
        "▁fépp",
        -8.434127206223746
      ],
      [
        "▁Waaw",
        -8.43440020733193
      ],
      [
        "▁lëf",
        -8.435218836481399
      ],
      [
        "▁ànd",
        -8.435351876942095
      ],
      [
        "▁sain",
        -8.436522277564059
      ],
      [
        "▁amen",
        -8.437517732051472
      ],
      [
        "▁feneen",
        -8.437647165844467
      ],
      [
        "▁autre-là",
        -8.437895155339351
      ],
      [
        "▁n'étai",
        -8.438002407814308
      ],
      [
        "▁ñaan",
        -8.438413396910851
      ],
      [
        "▁ville",
        -8.438588831095805
      ],
      [
        "bër",
        -8.438617402056394
      ],
      [
        "moi",
        -8.439671251073026
      ],
      [
        "▁endroit",
        -8.441161224948122
      ],
      [
        "éel",
        -8.453537761418577
      ],
      [
        "▁boo",
        -8.454758793852985
      ],
      [
        "▁refuse",
        -8.45724757471578
      ],
      [
        "▁Ki",
        -8.457593477787755
      ],
      [
        "▁boobu",
        -8.458035389757796
      ],
      [
        "▁Waxa",
        -8.474269328389521
      ],
      [
        "▁Dana",
        -8.475515307268207
      ],
      [
        "▁tax",
        -8.479775399518752
      ],
      [
        "connais",
        -8.481531707858387
      ],
      [
        "▁Dan",
        -8.484598345302349
      ],
      [
        "▁f",
        -8.485245694503659
      ],
      [
        "▁pay",
        -8.486365547841887
      ],
      [
        "▁Wa",
        -8.488451919843438
      ],
      [
        "▁Ch",
        -8.489649530687203
      ],
      [
        "▁t'",
        -8.495477149832286
      ],
      [
        "ient",
        -8.49617401669163
      ],
      [
        "▁alal",
        -8.502763547064607
      ],
      [
        "▁wan",
        -8.50655951905528
      ],
      [
        "ñee",
        -8.508604329265134
      ],
      [
        "▁it",
        -8.510764137925904
      ],
      [
        "▁aurai",
        -8.51228920727398
      ],
      [
        "▁T",
        -8.513742672270778
      ],
      [
        "▁moomu",
        -8.520249840713333
      ],
      [
        "▁n'e",
        -8.521832108934426
      ],
      [
        "▁dé",
        -8.523312826634704
      ],
      [
        "▁yaa",
        -8.523742987626292
      ],
      [
        "je",
        -8.534575000740867
      ],
      [
        "▁mes",
        -8.535238848490433
      ],
      [
        "▁aller",
        -8.535577387358
      ],
      [
        "▁vo",
        -8.538474463102173
      ],
      [
        "▁n'avai",
        -8.538737950458817
      ],
      [
        "ir",
        -8.542373042390007
      ],
      [
        "▁jooj",
        -8.543584477923053
      ],
      [
        "p",
        -8.549004526564655
      ],
      [
        "▁doi",
        -8.553372369910534
      ],
      [
        "▁Daŋg",
        -8.554216917849422
      ],
      [
        "gi",
        -8.561249215081025
      ],
      [
        "▁Dis",
        -8.57168105825323
      ],
      [
        "▁ch",
        -8.576181053391668
      ],
      [
        "j",
        -8.578537177735837
      ],
      [
        "cc",
        -8.588921070790864
      ],
      [
        "▁veni",
        -8.590241157496635
      ],
      [
        "▁Am",
        -8.590474764145311
      ],
      [
        "▁Ñe",
        -8.593638744870319
      ],
      [
        "kk",
        -8.60276812252323
      ],
      [
        "▁leur",
        -8.606897834880503
      ],
      [
        "▁individu",
        -8.608493620023891
      ],
      [
        "▁livre",
        -8.609163372180856
      ],
      [
        "ce",
        -8.622642267942553
      ],
      [
        "▁lieu",
        -8.629695275528373
      ],
      [
        "▁bûcheron",
        -8.631746960771189
      ],
      [
        "▁auparavant",
        -8.631746962956857
      ],
      [
        "▁accepte",
        -8.631746966519326
      ],
      [
        "▁fortune",
        -8.631747003491537
      ],
      [
        "▁maître",
        -8.631747634793875
      ],
      [
        "▁Moontin",
        -8.631749083069955
      ],
      [
        "▁courage",
        -8.631749315445148
      ],
      [
        "▁gentil",
        -8.631765427398246
      ],
      [
        "▁xaalis",
        -8.631771974732029
      ],
      [
        "▁travailleurs",
        -8.631813922587101
      ],
      [
        "▁Ceux-là",
        -8.631907238568719
      ],
      [
        "▁parole",
        -8.631960747968177
      ],
      [
        "▁taxaw",
        -8.632064382957997
      ],
      [
        "▁dëgg",
        -8.632134905001495
      ],
      [
        "▁unique",
        -8.632335278246032
      ],
      [
        "▁kookee",
        -8.6327456295093
      ],
      [
        "▁Ñii",
        -8.632758665058534
      ],
      [
        "▁surtout",
        -8.632878769300563
      ],
      [
        "▁ŋgoogule",
        -8.633220507392114
      ],
      [
        "googule",
        -8.63417846571071
      ],
      [
        "▁nekk",
        -8.636244483317615
      ],
      [
        "▁wet",
        -8.637383305002352
      ],
      [
        "▁reconnu",
        -8.638189335103009
      ],
      [
        "▁Foo",
        -8.638223834942353
      ],
      [
        "▁revienne",
        -8.63955969345913
      ],
      [
        "ë",
        -8.642173379564893
      ],
      [
        "▁deey",
        -8.643504407487956
      ],
      [
        "vait",
        -8.645656687327659
      ],
      [
        "▁eusse",
        -8.645793597164243
      ],
      [
        "▁Dama",
        -8.646272932389229
      ],
      [
        "▁sorti",
        -8.646277338051577
      ],
      [
        "▁beau",
        -8.649743041385573
      ],
      [
        "▁pri",
        -8.655106125694179
      ],
      [
        "▁kee",
        -8.656363213797826
      ],
      [
        "▁mag",
        -8.657829310786349
      ],
      [
        "▁cela",
        -8.67107889842728
      ],
      [
        "r.",
        -8.672214532916572
      ],
      [
        "ton",
        -8.67229154847213
      ],
      [
        "▁ñibbi",
        -8.674506996913752
      ],
      [
        "-il",
        -8.676288235047457
      ],
      [
        "ral",
        -8.678958331967245
      ],
      [
        "rends",
        -8.681034927294219
      ],
      [
        "'esp",
        -8.681898615911884
      ],
      [
        "s-",
        -8.68698330743288
      ],
      [
        "▁Tou",
        -8.688073935734396
      ],
      [
        "egarde",
        -8.690939182795503
      ],
      [
        "aller",
        -8.691498792780106
      ],
      [
        "age",
        -8.691655537497073
      ],
      [
        "▁kookuu",
        -8.697635705082087
      ],
      [
        "▁souhaite",
        -8.699086160660785
      ],
      [
        "aar",
        -8.70152548510525
      ],
      [
        "▁bokk",
        -8.705161885890586
      ],
      [
        "rent",
        -8.70610309873358
      ],
      [
        "mu",
        -8.706389527458539
      ],
      [
        "▁Me",
        -8.707556325419485
      ],
      [
        "▁donne",
        -8.707799291035002
      ],
      [
        "esquel",
        -8.711221434059212
      ],
      [
        "▁d'a",
        -8.712859768115063
      ],
      [
        "▁n'as",
        -8.722716971367726
      ],
      [
        "▁në",
        -8.7228006901192
      ],
      [
        "jà",
        -8.725894658146773
      ],
      [
        "▁Ta",
        -8.730898188295544
      ],
      [
        "eur",
        -8.73599799807293
      ],
      [
        "▁be",
        -8.736888844187467
      ],
      [
        "▁Xo",
        -8.73735685065349
      ],
      [
        "▁enfant-",
        -8.738935035697608
      ],
      [
        "▁Lu",
        -8.741909353470836
      ],
      [
        "▁alla",
        -8.742355194418483
      ],
      [
        "▁set",
        -8.744772030343139
      ],
      [
        "▁Bul",
        -8.745070063592838
      ],
      [
        "▁me",
        -8.749736397288359
      ],
      [
        "▁mon",
        -8.75386411838566
      ],
      [
        "lal",
        -8.755304505945034
      ],
      [
        "di",
        -8.76039734310529
      ],
      [
        "obul",
        -8.762880120214337
      ],
      [
        "▁choses",
        -8.763168083567338
      ],
      [
        "ax",
        -8.76334822292423
      ],
      [
        "▁ye",
        -8.768156770911064
      ],
      [
        "▁ko",
        -8.773058332162375
      ],
      [
        "ii",
        -8.776910902735112
      ],
      [
        "mour",
        -8.77956624494519
      ],
      [
        "appartien",
        -8.781027383376058
      ],
      [
        "▁seet",
        -8.781742143893906
      ],
      [
        "kóon",
        -8.78366496839934
      ],
      [
        "▁li",
        -8.784783302988686
      ],
      [
        "ile",
        -8.78752835393483
      ],
      [
        "▁été.",
        -8.790623878014582
      ],
      [
        "ût",
        -8.79959347514454
      ],
      [
        "ri",
        -8.817570969393369
      ],
      [
        "▁ñooñ",
        -8.82233651328111
      ],
      [
        "▁Ŋg",
        -8.833630464144665
      ],
      [
        "wal",
        -8.839890218321496
      ],
      [
        "ŋgeen",
        -8.843667491944121
      ],
      [
        "▁lool",
        -8.844271619351348
      ],
      [
        "▁gisu",
        -8.845865630093302
      ],
      [
        "ti",
        -8.848348959314004
      ],
      [
        "me",
        -8.853889856667596
      ],
      [
        "ici",
        -8.863450942275634
      ],
      [
        "ab",
        -8.86955405235366
      ],
      [
        "our",
        -8.871246651102524
      ],
      [
        "q",
        -8.873463515062895
      ],
      [
        "▁naŋg",
        -8.875523725401047
      ],
      [
        "vous",
        -8.877473963541577
      ],
      [
        "▁habituellement",
        -8.881746960757924
      ],
      [
        "▁l'extérieur",
        -8.881746960757976
      ],
      [
        "«",
        -8.881746960797875
      ],
      [
        "»",
        -8.881746960797875
      ],
      [
        "▁chambre",
        -8.881747000739102
      ],
      [
        "▁garçon",
        -8.88174761608881
      ],
      [
        "▁dehors",
        -8.881747695843544
      ],
      [
        "▁Ñëw",
        -8.881747707792037
      ],
      [
        "▁Birayim",
        -8.881747970332052
      ],
      [
        "▁brave",
        -8.881750577895005
      ],
      [
        "▁veulent",
        -8.881758766335286
      ],
      [
        "▁ëlëk",
        -8.881782516844897
      ],
      [
        "▁haut",
        -8.881842733125936
      ],
      [
        "▁Alfa",
        -8.881848408551265
      ],
      [
        "▁champ",
        -8.881869985195728
      ],
      [
        "▁prêt",
        -8.882007917458354
      ],
      [
        "▁Gaynd",
        -8.882041302334367
      ],
      [
        "▁assis",
        -8.882120467972365
      ],
      [
        "▁Tann",
        -8.882127160722794
      ],
      [
        "▁Demuloo",
        -8.882483030572047
      ],
      [
        "▁NGo",
        -8.882620034035938
      ],
      [
        "▁vrai",
        -8.882844454778718
      ],
      [
        "▁alors",
        -8.883084392474196
      ],
      [
        "▁Ñooñu",
        -8.883557962983298
      ],
      [
        "▁Qu'",
        -8.883720296392148
      ],
      [
        "▁pro",
        -8.88375492252593
      ],
      [
        "▁Demuma",
        -8.88401360972027
      ],
      [
        "▁kookale",
        -8.884707143301643
      ],
      [
        "▁wépp",
        -8.885104536540336
      ],
      [
        "▁pai",
        -8.88597383844488
      ],
      [
        "▁d'habitude",
        -8.886699402785371
      ],
      [
        "▁Demkoon",
        -8.887998672970484
      ],
      [
        "▁donc",
        -8.888108647954994
      ],
      [
        "▁suba",
        -8.888726718784937
      ],
      [
        "▁gën",
        -8.888976837469144
      ],
      [
        "'agit",
        -8.889043025542092
      ],
      [
        "hoisi",
        -8.889602054584588
      ],
      [
        "▁fenn",
        -8.890017799856723
      ],
      [
        "▁t'en",
        -8.891963551064837
      ],
      [
        "au",
        -8.893678977710012
      ],
      [
        "rte",
        -8.893790573909774
      ],
      [
        "▁gaa",
        -8.894409848155275
      ],
      [
        "▁noppi",
        -8.894569157161396
      ],
      [
        "▁Ni",
        -8.894667854138273
      ],
      [
        "▁partent",
        -8.895466904688908
      ],
      [
        "ôt",
        -8.8957561134623
      ],
      [
        "▁Yee",
        -8.89628810904745
      ],
      [
        "ches",
        -8.896444891388532
      ],
      [
        "▁jamb",
        -8.898528929161694
      ],
      [
        "▁s'",
        -8.899307606891867
      ],
      [
        "▁viennent",
        -8.899421472014026
      ],
      [
        "▁Fo",
        -8.899896541206761
      ],
      [
        "ux",
        -8.900222208747907
      ],
      [
        "tout",
        -8.900287711070304
      ],
      [
        "▁serais",
        -8.900344283572775
      ],
      [
        "ule",
        -8.905440952638426
      ],
      [
        "el",
        -8.907046366249832
      ],
      [
        "nañu",
        -8.90961562670004
      ],
      [
        "▁kooka",
        -8.909975481892848
      ],
      [
        "▁Nil",
        -8.910492261333541
      ],
      [
        "▁aime",
        -8.910670472527503
      ],
      [
        "▁j'",
        -8.911015074582437
      ],
      [
        "▁fui",
        -8.912777772631165
      ],
      [
        "bon",
        -8.917938227934973
      ],
      [
        "ier",
        -8.9244032561834
      ],
      [
        "▁n'ira",
        -8.9263119832681
      ],
      [
        "▁pu",
        -8.92656981827827
      ],
      [
        "▁maa",
        -8.929056386515029
      ],
      [
        "▁daw",
        -8.929547560408855
      ],
      [
        "▁ap",
        -8.930588735075787
      ],
      [
        "lles",
        -8.932468086710598
      ],
      [
        "ses",
        -8.932924076774016
      ],
      [
        "▁demb",
        -8.933914084294086
      ],
      [
        "nde",
        -8.935316437589623
      ],
      [
        "▁demuñu",
        -8.935712332796722
      ],
      [
        "▁demain",
        -8.935923330723755
      ],
      [
        "▁doo",
        -8.940385827663274
      ],
      [
        "▁Sama",
        -8.940603616928234
      ],
      [
        "aay",
        -8.943604635459288
      ],
      [
        "▁Kan",
        -8.945509084422287
      ],
      [
        "ai",
        -8.94944818087599
      ],
      [
        "▁lanu",
        -8.950652419927673
      ],
      [
        "▁rë",
        -8.952811295268354
      ],
      [
        "û",
        -8.954277218033047
      ],
      [
        "aux",
        -8.963805604403747
      ],
      [
        "ion",
        -8.96523547030991
      ],
      [
        "▁bo",
        -8.971078321991847
      ],
      [
        "▁xa",
        -8.973527751882088
      ],
      [
        "wul",
        -8.973789408315445
      ],
      [
        "▁Ña",
        -8.974981560899453
      ],
      [
        "▁maye",
        -8.97555533108531
      ],
      [
        "▁s'i",
        -8.978460153164914
      ],
      [
        "▁Ñu",
        -8.985094120574871
      ],
      [
        "▁rée",
        -8.988211995287154
      ],
      [
        "waay",
        -9.00537750150852
      ],
      [
        "▁lawoon",
        -9.005454708982652
      ],
      [
        "fu",
        -9.015725540480297
      ],
      [
        "▁mêmes",
        -9.020110402863812
      ],
      [
        "nent",
        -9.021184625467315
      ],
      [
        "▁cla",
        -9.0254054822936
      ],
      [
        "si",
        -9.026071923138364
      ],
      [
        "▁connaiss",
        -9.027185607564135
      ],
      [
        "▁appelle",
        -9.029692351009624
      ],
      [
        "elui-ci",
        -9.030647250807128
      ],
      [
        "▁Ka",
        -9.036994115456519
      ],
      [
        "off",
        -9.038263728530731
      ],
      [
        "▁ven",
        -9.04969167763224
      ],
      [
        "▁con",
        -9.05195045203974
      ],
      [
        "▁dey",
        -9.055743671283418
      ],
      [
        "nit",
        -9.060055548778143
      ],
      [
        "iggéeykat",
        -9.066119396276065
      ],
      [
        "▁veu",
        -9.067793460068467
      ],
      [
        "▁Com",
        -9.076872502101107
      ],
      [
        "▁yar",
        -9.080823828172408
      ],
      [
        "ku",
        -9.089502610106464
      ],
      [
        "▁ser",
        -9.089899462741588
      ],
      [
        "▁ta",
        -9.089950957781467
      ],
      [
        "▁ñen",
        -9.091608246708207
      ],
      [
        "▁voul",
        -9.098876586486076
      ],
      [
        "war",
        -9.099085389438276
      ],
      [
        "qu",
        -9.101184870430735
      ],
      [
        "appelle",
        -9.127244754101186
      ],
      [
        "aw",
        -9.1288222181485
      ],
      [
        "fait",
        -9.132058848468096
      ],
      [
        "▁partie",
        -9.134609132883146
      ],
      [
        "▁ré",
        -9.141034541296726
      ],
      [
        "▁quelqu",
        -9.144024788158557
      ],
      [
        "ur",
        -9.151492486076963
      ],
      [
        "ñëw",
        -9.156706540299638
      ],
      [
        "amba",
        -9.158959568372145
      ],
      [
        "▁lekk",
        -9.16328611455211
      ],
      [
        "▁yu",
        -9.164983647349473
      ],
      [
        "▁voici",
        -9.170810757385947
      ],
      [
        "▁ver",
        -9.173670175493196
      ],
      [
        "vent",
        -9.174781573598231
      ],
      [
        "▁cha",
        -9.181328640305088
      ],
      [
        "heureu",
        -9.184051108792302
      ],
      [
        "▁too",
        -9.190719650443912
      ],
      [
        "▁J'",
        -9.193426171765593
      ],
      [
        "▁Yooy",
        -9.195789509966772
      ],
      [
        "▁Seeti",
        -9.197736412835637
      ],
      [
        "là",
        -9.198885107585994
      ],
      [
        "▁nëw",
        -9.206916252031865
      ],
      [
        "ache",
        -9.20748485253814
      ],
      [
        "▁po",
        -9.207951487245749
      ],
      [
        "kki",
        -9.20797672220474
      ],
      [
        "onfie",
        -9.211904679917188
      ],
      [
        "ant",
        -9.211916992073634
      ],
      [
        "▁ñaa",
        -9.21314897249096
      ],
      [
        "oow",
        -9.214037500629537
      ],
      [
        "'impo",
        -9.21507428522668
      ],
      [
        "▁Certaine",
        -9.215080346206916
      ],
      [
        "▁fâch",
        -9.21508041351348
      ],
      [
        "▁appelé",
        -9.215080516176435
      ],
      [
        "▁gëléem",
        -9.215080549005677
      ],
      [
        "▁meilleur",
        -9.21508077146716
      ],
      [
        "▁messager",
        -9.215080963162375
      ],
      [
        "▁lutteur",
        -9.2150810301029
      ],
      [
        "▁saŋx",
        -9.215081535773983
      ],
      [
        "▁ressemble",
        -9.21508164732305
      ],
      [
        "▁instant",
        -9.21508166626076
      ],
      [
        "▁cultive",
        -9.215081828673146
      ],
      [
        "▁ensemble",
        -9.215087725788965
      ],
      [
        "▁regard",
        -9.215090865203614
      ],
      [
        "▁chameau",
        -9.21509138137051
      ],
      [
        "échapp",
        -9.215101075591436
      ],
      [
        "▁Sëri",
        -9.215101352734893
      ],
      [
        "▁paresseu",
        -9.215122207297888
      ],
      [
        "▁Yaakaar",
        -9.21512829916263
      ],
      [
        "▁ainsi",
        -9.215169175110741
      ],
      [
        "▁form",
        -9.215211746381582
      ],
      [
        "▁Peul",
        -9.215255106910805
      ],
      [
        "▁Peut-",
        -9.21526672336512
      ],
      [
        "▁dikkul",
        -9.21534672440385
      ],
      [
        "▁Autre",
        -9.215447395163434
      ],
      [
        "▁parents",
        -9.21544927655229
      ],
      [
        "▁Qu'est-ce",
        -9.215537455793253
      ],
      [
        "▁d'entre",
        -9.21559610546716
      ],
      [
        "▁jabar",
        -9.215690487964686
      ],
      [
        "▁Ngo",
        -9.215763380418291
      ],
      [
        "▁l'argent",
        -9.215818837816961
      ],
      [
        "èvre",
        -9.215936297539448
      ],
      [
        "▁jox",
        -9.216053744306139
      ],
      [
        "▁jog",
        -9.216146066095648
      ],
      [
        "ëkk",
        -9.216246243156094
      ],
      [
        "▁ŋgoogu",
        -9.216565320164843
      ],
      [
        "▁Abal",
        -9.21667268513803
      ],
      [
        "▁crain",
        -9.21671980739378
      ],
      [
        "▁vérité",
        -9.216801692304125
      ],
      [
        "▁Pour",
        -9.216960445768866
      ],
      [
        "▁Ici",
        -9.217038128862308
      ],
      [
        "bout",
        -9.217574945738418
      ],
      [
        "▁ceux-ci",
        -9.217655579556515
      ],
      [
        "▁sopp",
        -9.217849920251613
      ],
      [
        "▁enfant-là",
        -9.218892082364178
      ],
      [
        "▁général",
        -9.219282390633333
      ],
      [
        "faire",
        -9.219308481656658
      ],
      [
        "▁beg",
        -9.219651374261586
      ],
      [
        "ous",
        -9.21967916955527
      ],
      [
        "▁bonul",
        -9.220025406400946
      ],
      [
        "llez",
        -9.220524944312826
      ],
      [
        "▁clé",
        -9.220558437900781
      ],
      [
        "▁debout",
        -9.220686124671985
      ],
      [
        "▁wóo",
        -9.221112474486182
      ],
      [
        "uille",
        -9.222654121442158
      ],
      [
        "ki",
        -9.222743449715123
      ],
      [
        "'enfant",
        -9.224794047698584
      ],
      [
        "▁buur",
        -9.225956305295567
      ],
      [
        "erë",
        -9.226966732412889
      ],
      [
        "▁ñuu",
        -9.22974332690407
      ],
      [
        "▁san",
        -9.230365418493655
      ],
      [
        "▁bà",
        -9.23231566287429
      ],
      [
        "▁yaru",
        -9.235875976324532
      ],
      [
        "aamu",
        -9.236172157587383
      ],
      [
        "veille",
        -9.237187367535867
      ],
      [
        "▁homme-ci",
        -9.23719595563314
      ],
      [
        "mmes",
        -9.238660172192844
      ],
      [
        "▁wu",
        -9.239236780087486
      ],
      [
        "▁Gisu",
        -9.240452799502847
      ],
      [
        "▁daawul",
        -9.242191791466484
      ],
      [
        "gël",
        -9.244333486813517
      ],
      [
        "▁booba",
        -9.244538308435237
      ],
      [
        "▁Go",
        -9.245261375614161
      ],
      [
        "use",
        -9.24567403267673
      ],
      [
        "▁Lui",
        -9.246083625601525
      ],
      [
        "ign",
        -9.249030336832408
      ],
      [
        "▁buu",
        -9.250897856718181
      ],
      [
        "▁daal",
        -9.25559371658241
      ],
      [
        "tion",
        -9.255765414533581
      ],
      [
        "▁roi",
        -9.258911007800045
      ],
      [
        "▁confie",
        -9.261165199085191
      ],
      [
        "▁pou",
        -9.262307801550971
      ],
      [
        "âl",
        -9.262746276345823
      ],
      [
        "▁heure",
        -9.264800849925441
      ],
      [
        "▁yooya",
        -9.26545549589024
      ],
      [
        "▁woowa",
        -9.267228817609409
      ],
      [
        "'un",
        -9.267582649628846
      ],
      [
        "▁Defa",
        -9.267814621386252
      ],
      [
        "▁ñj",
        -9.267815359715506
      ],
      [
        "▁bar",
        -9.268542771618787
      ],
      [
        "▁woowu",
        -9.269186607954163
      ],
      [
        "fi",
        -9.269598130547516
      ],
      [
        "▁Kook",
        -9.269922203747708
      ],
      [
        "int",
        -9.26999215279596
      ],
      [
        "▁xamul",
        -9.270785635623492
      ],
      [
        "eux-ci",
        -9.275330682880197
      ],
      [
        "▁Ho",
        -9.28587253846861
      ],
      [
        "▁Ŋgo",
        -9.286092859963333
      ],
      [
        "rage",
        -9.287197090445625
      ],
      [
        "▁juu",
        -9.287550598035718
      ],
      [
        "▁tel",
        -9.290031819375805
      ],
      [
        "▁parler",
        -9.293234885002326
      ],
      [
        "▁n'aur",
        -9.297031904948634
      ],
      [
        "▁Waxul",
        -9.2984518454352
      ],
      [
        "▁Waxu",
        -9.299390499058147
      ],
      [
        "▁X",
        -9.30205033014372
      ],
      [
        "▁mang",
        -9.303119143269736
      ],
      [
        "▁sout",
        -9.304136567252787
      ],
      [
        "▁mën",
        -9.308938570912181
      ],
      [
        "▁ñe",
        -9.312545630867115
      ],
      [
        "éeg",
        -9.312768302592547
      ],
      [
        "▁loolu",
        -9.315325853737457
      ],
      [
        "lé",
        -9.321625942440908
      ],
      [
        "eut",
        -9.325889927382628
      ],
      [
        "▁wi",
        -9.326413843635711
      ],
      [
        "▁Nee",
        -9.327917574683832
      ],
      [
        "lui",
        -9.328943559921179
      ],
      [
        "▁désire",
        -9.330614996708336
      ],
      [
        "▁fo",
        -9.337821958786503
      ],
      [
        "vant",
        -9.338124260917333
      ],
      [
        "ais-t",
        -9.342234168923204
      ],
      [
        "neen",
        -9.342708246394812
      ],
      [
        "róo",
        -9.347057332092897
      ],
      [
        "rain",
        -9.34738386624205
      ],
      [
        "dé",
        -9.349989105696316
      ],
      [
        "▁fr",
        -9.351814282814772
      ],
      [
        "avait",
        -9.351987182933618
      ],
      [
        "bi",
        -9.356559727210488
      ],
      [
        "autrefois",
        -9.36273947180146
      ],
      [
        "v",
        -9.363190944596612
      ],
      [
        "'aumône",
        -9.368243861287203
      ],
      [
        "▁jam",
        -9.382799510027356
      ],
      [
        "▁Jée",
        -9.387350024683625
      ],
      [
        "vers",
        -9.388305977726834
      ],
      [
        "▁gra",
        -9.393034506074937
      ],
      [
        "▁partai",
        -9.394392416398473
      ],
      [
        "mm",
        -9.39562961579069
      ],
      [
        "ffi",
        -9.400148935194789
      ],
      [
        "▁kook",
        -9.401680420655872
      ],
      [
        "e-le",
        -9.402485738681378
      ],
      [
        "ooñii",
        -9.40879731579652
      ],
      [
        "▁dam",
        -9.409479993303982
      ],
      [
        "▁dois",
        -9.417254825096315
      ],
      [
        "ages",
        -9.423796860610397
      ],
      [
        "irai",
        -9.432321488525787
      ],
      [
        "xaw",
        -9.452905683183523
      ],
      [
        "▁Celui",
        -9.453937933112204
      ],
      [
        "▁Nag",
        -9.453961686945874
      ],
      [
        "▁men",
        -9.45434418564647
      ],
      [
        "▁seri",
        -9.456628942904452
      ],
      [
        "agg",
        -9.460161663388316
      ],
      [
        "▁sou",
        -9.461824682711178
      ],
      [
        "apprécie",
        -9.466653967559722
      ],
      [
        "▁h",
        -9.47006367729927
      ],
      [
        "se",
        -9.471815006900053
      ],
      [
        "dem",
        -9.474191312794469
      ],
      [
        "▁Jë",
        -9.476637156060624
      ],
      [
        "▁ter",
        -9.47754115522998
      ],
      [
        "bien",
        -9.480788851242243
      ],
      [
        "▁Ñaa",
        -9.487309874174144
      ],
      [
        "▁Liggéey",
        -9.492870255183007
      ],
      [
        "ité",
        -9.499252834219892
      ],
      [
        "uis",
        -9.499809476305765
      ],
      [
        "ob",
        -9.500696505208811
      ],
      [
        "-même",
        -9.503791476335758
      ],
      [
        "▁entra",
        -9.50669998812031
      ],
      [
        "vient",
        -9.509783671156525
      ],
      [
        "▁nd",
        -9.511187106966235
      ],
      [
        "ày",
        -9.519465812244304
      ],
      [
        "wuñu",
        -9.520532237592375
      ],
      [
        "▁bavard",
        -9.525551774734534
      ],
      [
        "bokk",
        -9.529088510668254
      ],
      [
        "▁batt",
        -9.533898899721125
      ],
      [
        "oba",
        -9.534424678233744
      ],
      [
        "▁e",
        -9.534826387606484
      ],
      [
        "▁Ja",
        -9.536177117043625
      ],
      [
        "▁ŋg",
        -9.53888819530203
      ],
      [
        "▁ŋgoo",
        -9.540700126480026
      ],
      [
        "'en",
        -9.551175497410647
      ],
      [
        "▁Ko",
        -9.556595925858836
      ],
      [
        "ide",
        -9.563227068128644
      ],
      [
        "nu",
        -9.567883351429934
      ],
      [
        "â",
        -9.570248127383513
      ],
      [
        "▁To",
        -9.570390389511305
      ],
      [
        "▁pré",
        -9.571740812954626
      ],
      [
        "alal",
        -9.573365559822982
      ],
      [
        "entre",
        -9.577145233145188
      ],
      [
        "J",
        -9.582366157144163
      ],
      [
        "min",
        -9.591717585329842
      ],
      [
        "mar",
        -9.606591121691949
      ],
      [
        "dul",
        -9.607028945925816
      ],
      [
        "▁H",
        -9.609069147972182
      ],
      [
        "▁l'o",
        -9.609555366665768
      ],
      [
        "abal",
        -9.614823814926645
      ],
      [
        "gul",
        -9.61507208794611
      ],
      [
        "ful",
        -9.616716959085178
      ],
      [
        "▁Xa",
        -9.619727378402281
      ],
      [
        "nez",
        -9.624063873986554
      ],
      [
        "▁peu",
        -9.626230318431457
      ],
      [
        "▁all",
        -9.62639182262845
      ],
      [
        "▁nan",
        -9.636243434669666
      ],
      [
        "▁Die",
        -9.637106188748113
      ],
      [
        "▁Att",
        -9.645506821201874
      ],
      [
        "▁mba",
        -9.64578697472551
      ],
      [
        "▁confi",
        -9.649685817207002
      ],
      [
        "▁cherch",
        -9.650663791020202
      ],
      [
        "ence",
        -9.653825141599945
      ],
      [
        "illes",
        -9.654458946151399
      ],
      [
        "a.",
        -9.6549943121414
      ],
      [
        "in",
        -9.659356652250462
      ],
      [
        "ool",
        -9.660268941542192
      ],
      [
        "tant",
        -9.661495314469395
      ],
      [
        "kon",
        -9.661814962348146
      ],
      [
        "▁n'ir",
        -9.662388613982895
      ],
      [
        "▁trouve",
        -9.66673444872198
      ],
      [
        "▁cont",
        -9.667600122884906
      ],
      [
        "▁vou",
        -9.674156404836253
      ],
      [
        "▁foof",
        -9.676122252871597
      ],
      [
        "▁jour",
        -9.67703454695065
      ],
      [
        "▁Foof",
        -9.67722041885966
      ],
      [
        "ttends",
        -9.677275989996799
      ],
      [
        "▁bëggu",
        -9.677962646159218
      ],
      [
        "jóo",
        -9.680181430238347
      ],
      [
        "ets-t",
        -9.680670095221616
      ],
      [
        "▁viendr",
        -9.681935630261606
      ],
      [
        "onvers",
        -9.683411535164822
      ],
      [
        "▁See",
        -9.685600789874549
      ],
      [
        "▁gaynd",
        -9.687223864215861
      ],
      [
        "▁nopp",
        -9.68921846761167
      ],
      [
        "▁sot",
        -9.691781434973247
      ],
      [
        "▁vi",
        -9.69250259478276
      ],
      [
        "illeurs",
        -9.693321594955798
      ],
      [
        "▁vill",
        -9.69480460540879
      ],
      [
        "è",
        -9.695333935778775
      ],
      [
        "▁recon",
        -9.695906669804284
      ],
      [
        "▁parla",
        -9.696762643403966
      ],
      [
        "▁d'o",
        -9.697006815868868
      ],
      [
        "met",
        -9.702719483854144
      ],
      [
        "▁gë",
        -9.706383910684426
      ],
      [
        "▁génér",
        -9.708294192985878
      ],
      [
        "▁D'a",
        -9.70844120028189
      ],
      [
        "lors",
        -9.708684918117868
      ],
      [
        "góor",
        -9.709765855081605
      ],
      [
        "▁jaŋ",
        -9.711552009491356
      ],
      [
        "à-bas",
        -9.712241644385378
      ],
      [
        "▁yab",
        -9.714534362144057
      ],
      [
        "▁trou",
        -9.71478437807022
      ],
      [
        "É",
        -9.715080294091251
      ],
      [
        "(",
        -9.715080294091251
      ],
      [
        ")",
        -9.715080294131209
      ],
      [
        "▁impoli",
        -9.71508029416028
      ],
      [
        "▁Niominka.",
        -9.715080294176843
      ],
      [
        "▁certainement",
        -9.715080297494286
      ],
      [
        "▁totalité",
        -9.71508033154873
      ],
      [
        "▁tambour",
        -9.715080371374976
      ],
      [
        "▁yalwaan",
        -9.715080470219892
      ],
      [
        "▁Dites-l",
        -9.715084584892237
      ],
      [
        "▁bouge",
        -9.715090078965076
      ],
      [
        "politesse",
        -9.715090928722608
      ],
      [
        "▁moontin",
        -9.715093033699214
      ],
      [
        "▁petit",
        -9.715096112132233
      ],
      [
        "▁répét",
        -9.7150977924029
      ],
      [
        "▁L'endroit",
        -9.715144827734516
      ],
      [
        "▁gosse",
        -9.715202114932932
      ],
      [
        "▁propos",
        -9.715231194533358
      ],
      [
        "▁descendra",
        -9.715239398689004
      ],
      [
        "âche",
        -9.71526647133972
      ],
      [
        "▁Dellu",
        -9.715299479453611
      ],
      [
        "▁bënn",
        -9.715336169133568
      ],
      [
        "▁oreille",
        -9.715367874130838
      ],
      [
        "▁yeggee",
        -9.715369601561783
      ],
      [
        "awbe",
        -9.7153697812331
      ],
      [
        "▁Wutël",
        -9.715463174129125
      ],
      [
        "▁qu'e",
        -9.715553223364758
      ],
      [
        "▁j'apprécie",
        -9.715585876520159
      ],
      [
        "▁Lebou",
        -9.715618464716941
      ],
      [
        "▁cohabitent",
        -9.715627952586859
      ],
      [
        "affaire",
        -9.71578557541296
      ],
      [
        "▁Musta",
        -9.715839104478773
      ],
      [
        "▁prop",
        -9.71598463955946
      ],
      [
        "▁présen",
        -9.716129954485636
      ],
      [
        "▁suuf",
        -9.716176872656467
      ],
      [
        "ayim",
        -9.716218722887318
      ],
      [
        "▁toi-même",
        -9.716290074271278
      ],
      [
        "▁moi-même",
        -9.716315048364372
      ],
      [
        "▁vous-même",
        -9.716315792257301
      ],
      [
        "▁raison",
        -9.71652959911253
      ],
      [
        "▁genre",
        -9.716573612647807
      ],
      [
        "cert",
        -9.716718141102042
      ],
      [
        "spér",
        -9.71675286452206
      ],
      [
        "▁tayel",
        -9.716870753807317
      ],
      [
        "époque",
        -9.716946052404166
      ],
      [
        "▁L'autre",
        -9.717329924898268
      ],
      [
        "▁inter",
        -9.71734380067432
      ],
      [
        "▁t'aurai",
        -9.717763748130789
      ],
      [
        "▁ardo",
        -9.718237756268431
      ],
      [
        "▁Bira",
        -9.71842599923356
      ],
      [
        "▁reconn",
        -9.718861989224795
      ],
      [
        "▁vertu",
        -9.718911653453427
      ],
      [
        "▁doomam",
        -9.719182214585455
      ],
      [
        "▁dawul",
        -9.719751493644509
      ],
      [
        "▁conna",
        -9.719844650712009
      ],
      [
        "▁wenn",
        -9.719956643582698
      ],
      [
        "▁dents",
        -9.71997366672414
      ],
      [
        "▁Kaay",
        -9.720344749696253
      ],
      [
        "▁disc",
        -9.720391512740033
      ],
      [
        "ër",
        -9.720447962205895
      ],
      [
        "▁travaillait",
        -9.720449217231062
      ],
      [
        "▁noir",
        -9.72058241940226
      ],
      [
        "▁feeñ",
        -9.720798620404029
      ],
      [
        "nnée",
        -9.720936921788027
      ],
      [
        "▁voya",
        -9.721359358613556
      ],
      [
        "ît",
        -9.721444628917165
      ],
      [
        "èv",
        -9.721531262642094
      ],
      [
        "▁yëf",
        -9.721594775331734
      ],
      [
        "▁rafetul",
        -9.72165647508029
      ],
      [
        "▁àndal",
        -9.722131319663797
      ],
      [
        "▁yeg",
        -9.722500232371623
      ],
      [
        "▁connaisse",
        -9.722604755446012
      ],
      [
        "▁par-là",
        -9.723680149784345
      ],
      [
        "▁fen",
        -9.723832711909775
      ],
      [
        "▁lieux",
        -9.723946029077858
      ],
      [
        "ërëm",
        -9.724201499261103
      ],
      [
        "▁mort",
        -9.724479570250397
      ],
      [
        "▁Daawul",
        -9.724504776141245
      ],
      [
        "▁port",
        -9.724867877993887
      ],
      [
        "homme",
        -9.724963077277794
      ],
      [
        "▁bëtt",
        -9.725465960270474
      ],
      [
        "▁Leur",
        -9.725786590777913
      ],
      [
        "ersonne",
        -9.726213412122995
      ],
      [
        "▁n'allai",
        -9.726544850971361
      ],
      [
        "▁mor",
        -9.726873996310376
      ],
      [
        "▁vien",
        -9.727171334955916
      ],
      [
        "▁xaritam",
        -9.727178278026292
      ],
      [
        "drai",
        -9.727598357245611
      ],
      [
        "▁dég",
        -9.728419509764903
      ],
      [
        "▁Amin",
        -9.728954197397716
      ],
      [
        "aaw",
        -9.729106120495231
      ],
      [
        "trouvé",
        -9.729409928108277
      ],
      [
        "▁koo",
        -9.73042440088194
      ],
      [
        "▁lumi",
        -9.73045653022448
      ],
      [
        "▁doyu",
        -9.731099087678258
      ],
      [
        "▁jusqu'ici",
        -9.731296951572688
      ],
      [
        "séd",
        -9.73330996038698
      ],
      [
        "▁rentrer",
        -9.734942747442915
      ],
      [
        "▁gaal",
        -9.73536156131824
      ],
      [
        "oudr",
        -9.735456175869821
      ],
      [
        "ëlé",
        -9.737126506836871
      ],
      [
        "âg",
        -9.737690157253454
      ],
      [
        "▁wut",
        -9.738178176121686
      ],
      [
        "ailleurs",
        -9.739589961161919
      ],
      [
        "▁Don",
        -9.743216816255028
      ],
      [
        "▁Ai",
        -9.74369339849041
      ],
      [
        "▁pa",
        -9.743744343827863
      ],
      [
        "ourri",
        -9.744378833365447
      ],
      [
        "oyager",
        -9.745061562548038
      ],
      [
        "çon",
        -9.745506484027608
      ],
      [
        "cun",
        -9.745588462773073
      ],
      [
        "ré",
        -9.747553490794932
      ],
      [
        "sard",
        -9.747610940383693
      ],
      [
        "ers",
        -9.747628591205567
      ],
      [
        "lle",
        -9.747957974232143
      ],
      [
        "▁Yooyu",
        -9.74838898815095
      ],
      [
        "▁lionne",
        -9.74864344392089
      ],
      [
        "▁disp",
        -9.748673201413917
      ],
      [
        "pas",
        -9.749415489792565
      ],
      [
        "lig",
        -9.7496051626131
      ],
      [
        "▁kaw",
        -9.750508535909892
      ],
      [
        "aucun",
        -9.750718729987693
      ],
      [
        "▁ceux",
        -9.751454285328359
      ],
      [
        "▁foo",
        -9.753263871095406
      ],
      [
        "aille",
        -9.754673391597317
      ],
      [
        "▁bëggé",
        -9.754710683292474
      ],
      [
        "rdo",
        -9.755207117846503
      ],
      [
        "▁née",
        -9.756472044104157
      ],
      [
        "vé",
        -9.757455240915613
      ],
      [
        "▁Leb",
        -9.75832470044645
      ],
      [
        "eegu",
        -9.75851756098579
      ],
      [
        "▁jours",
        -9.759451030471382
      ],
      [
        "▁jar",
        -9.759808700169714
      ],
      [
        "▁voulez",
        -9.760691190803954
      ],
      [
        "▁to",
        -9.760809500017016
      ],
      [
        "qu'il",
        -9.761179085786653
      ],
      [
        "▁voit",
        -9.764036874861402
      ],
      [
        "▁allez",
        -9.766951838820622
      ],
      [
        "▁sort",
        -9.76747442812518
      ],
      [
        "▁trouver",
        -9.769567850390713
      ],
      [
        "▁desquel",
        -9.770352043802351
      ],
      [
        "▁morts",
        -9.770394579383055
      ],
      [
        "che",
        -9.77126716605176
      ],
      [
        "▁travaill",
        -9.773096644781258
      ],
      [
        "▁jë",
        -9.773605654863314
      ],
      [
        "toi",
        -9.780313720788303
      ],
      [
        "▁Sen",
        -9.781651674761815
      ],
      [
        "puisé",
        -9.782158167486779
      ],
      [
        "▁livres",
        -9.783883825273827
      ],
      [
        "▁jale",
        -9.78560255617859
      ],
      [
        "▁sur",
        -9.78639830997216
      ],
      [
        "▁Bon",
        -9.786823650514288
      ],
      [
        "▁cu",
        -9.787435192268163
      ],
      [
        "ŋk",
        -9.788245005711515
      ],
      [
        "▁fût",
        -9.788833413839159
      ],
      [
        "▁yaay",
        -9.789201944463604
      ],
      [
        "▁Ñen",
        -9.796582524194076
      ],
      [
        "▁voici.",
        -9.798883333910426
      ],
      [
        "▁meneen",
        -9.800676322988236
      ],
      [
        "▁Nu",
        -9.800820122518605
      ],
      [
        "▁xal",
        -9.804326158120883
      ],
      [
        "▁bul",
        -9.805584828303292
      ],
      [
        "▁t'e",
        -9.806654669712136
      ],
      [
        "▁ño",
        -9.813038871243277
      ],
      [
        "▁daaw",
        -9.813619694967342
      ],
      [
        "edress",
        -9.813638038939745
      ],
      [
        "bal",
        -9.814954818272925
      ],
      [
        "abar",
        -9.815748094410107
      ],
      [
        "▁waxtu",
        -9.81624088877427
      ],
      [
        "pir",
        -9.818673009109558
      ],
      [
        "outer",
        -9.819219897101243
      ],
      [
        "▁vie",
        -9.820664897894844
      ],
      [
        "▁Set",
        -9.82282151608074
      ],
      [
        "▁co",
        -9.825159647068364
      ],
      [
        "▁Wan",
        -9.82758295930505
      ],
      [
        "▁rag",
        -9.827998905133663
      ],
      [
        "lóo",
        -9.834464846703485
      ],
      [
        "▁puis",
        -9.835272931849358
      ],
      [
        "▁êt",
        -9.837511556648778
      ],
      [
        "dina",
        -9.838371695851846
      ],
      [
        "uloo",
        -9.844860897002517
      ],
      [
        "ends-",
        -9.846391965446392
      ],
      [
        "▁l'as",
        -9.84772712523957
      ],
      [
        "ffr",
        -9.84789006904294
      ],
      [
        "▁lama",
        -9.847953902445523
      ],
      [
        "ois",
        -9.849944039274904
      ],
      [
        "▁bant",
        -9.850034541596347
      ],
      [
        "▁Ca",
        -9.852954829581048
      ],
      [
        "ekk",
        -9.856299262990769
      ],
      [
        "▁pr",
        -9.859455916329683
      ],
      [
        "▁s'assi",
        -9.859551449218479
      ],
      [
        "able",
        -9.872638097330027
      ],
      [
        "accompagne",
        -9.874328146329658
      ],
      [
        "nversé",
        -9.876992319462524
      ],
      [
        "itu",
        -9.877325833943681
      ],
      [
        "▁Yen",
        -9.879133753042979
      ],
      [
        "▁donn",
        -9.88116773796258
      ],
      [
        "▁Té",
        -9.884273464651725
      ],
      [
        "étend",
        -9.885809157246111
      ],
      [
        "'étudiant",
        -9.888323105244666
      ],
      [
        "▁jee",
        -9.889609844574057
      ],
      [
        "▁lekku",
        -9.896822690652206
      ],
      [
        "▁Mets",
        -9.898580830011314
      ],
      [
        "▁yi.",
        -9.915808923223581
      ],
      [
        "▁mar",
        -9.917048452158228
      ],
      [
        "ver",
        -9.920036621847718
      ],
      [
        "aurai",
        -9.92372198113608
      ],
      [
        "▁reveni",
        -9.92538266057797
      ],
      [
        "lu",
        -9.931667682044944
      ],
      [
        "axtaan",
        -9.933937241016846
      ],
      [
        "▁voulai",
        -9.936728236261512
      ],
      [
        "▁él",
        -9.938858658351782
      ],
      [
        "▁rentr",
        -9.94112862894248
      ],
      [
        "nee",
        -9.94701982885152
      ],
      [
        "▁bavarda",
        -9.947528107346551
      ],
      [
        "▁lë",
        -9.948630704472976
      ],
      [
        "▁xe",
        -9.948757153958024
      ],
      [
        "qui",
        -9.950473725315343
      ],
      [
        "▁tawa",
        -9.951344896172035
      ],
      [
        "app",
        -9.95378804699071
      ],
      [
        "▁Ño",
        -9.955599239925135
      ],
      [
        "igne",
        -9.962569677758655
      ],
      [
        "▁Saa",
        -9.966826125448573
      ],
      [
        "▁war",
        -9.974102233411887
      ],
      [
        "▁éc",
        -9.974710992728863
      ],
      [
        "oy",
        -9.982269027893235
      ],
      [
        "▁né",
        -9.98301334355419
      ],
      [
        "▁arriv",
        -9.986255174186546
      ],
      [
        "ew",
        -9.986871896505125
      ],
      [
        "ros",
        -9.988705866594234
      ],
      [
        "ppartien",
        -9.989425404372563
      ],
      [
        "avant",
        -9.998214755621024
      ],
      [
        "▁l'e",
        -9.999579929800728
      ],
      [
        "ji",
        -10.00305176503415
      ],
      [
        "'euss",
        -10.006151775114137
      ],
      [
        "▁gr",
        -10.01127065973233
      ],
      [
        "▁voie",
        -10.017399019200134
      ],
      [
        "▁seeta",
        -10.020846735614127
      ],
      [
        "ttais",
        -10.023760771928593
      ],
      [
        "▁ho",
        -10.023884783391447
      ],
      [
        "biir",
        -10.024744127698158
      ],
      [
        "i.",
        -10.03357034772276
      ],
      [
        "euse",
        -10.038151328159422
      ],
      [
        "▁Bule",
        -10.0414436310542
      ],
      [
        "▁sor",
        -10.043531728849254
      ],
      [
        "ta",
        -10.04517647136747
      ],
      [
        "▁ex",
        -10.056663479498175
      ],
      [
        "▁daawu",
        -10.058541129457177
      ],
      [
        "▁Ve",
        -10.059681217627267
      ],
      [
        "▁ad",
        -10.07294881890805
      ],
      [
        "ndal",
        -10.075260312230931
      ],
      [
        "uff",
        -10.08012198947297
      ],
      [
        "▁Xan",
        -10.080586540346161
      ],
      [
        "quelle",
        -10.082027956343582
      ],
      [
        "eel",
        -10.084147471769917
      ],
      [
        "leurs",
        -10.088617287801812
      ],
      [
        "▁aille",
        -10.091567712629713
      ],
      [
        "ooy",
        -10.098526212346139
      ],
      [
        "tal",
        -10.100206942380538
      ],
      [
        "▁ŋgii.",
        -10.102160102090602
      ],
      [
        "elqu'un",
        -10.11034156633336
      ],
      [
        "fan",
        -10.114939437089788
      ],
      [
        "▁che",
        -10.128166352680676
      ],
      [
        "veux",
        -10.134269344990113
      ],
      [
        "attrap",
        -10.13711005044225
      ],
      [
        "▁seu",
        -10.14771247818173
      ],
      [
        "yi",
        -10.159943213506061
      ],
      [
        "dit",
        -10.162283351739164
      ],
      [
        "ande",
        -10.167840156606246
      ],
      [
        "éra",
        -10.172537799393146
      ],
      [
        "aî",
        -10.17723082122696
      ],
      [
        "▁goog",
        -10.177507561348822
      ],
      [
        "éen",
        -10.17767041860831
      ],
      [
        "cult",
        -10.18063736402239
      ],
      [
        "▁Mas",
        -10.182245443394184
      ],
      [
        "▁ge",
        -10.18533974731023
      ],
      [
        "rach",
        -10.185513181356294
      ],
      [
        "yul",
        -10.188222504590602
      ],
      [
        "nif",
        -10.197740738261766
      ],
      [
        "▁ri",
        -10.200169324542685
      ],
      [
        "▁Xarit",
        -10.206691499598367
      ],
      [
        "ut",
        -10.212348722531642
      ],
      [
        "▁arrive",
        -10.215245106703135
      ],
      [
        "▁Che",
        -10.224675343865137
      ],
      [
        "enu",
        -10.230789654833252
      ],
      [
        "▁lu",
        -10.236740985091464
      ],
      [
        "aumône",
        -10.241147197545114
      ],
      [
        "du",
        -10.244463891407634
      ],
      [
        "▁att",
        -10.244915259842202
      ],
      [
        "erai",
        -10.24994209829508
      ],
      [
        "▁Gan",
        -10.251161816056936
      ],
      [
        "daje",
        -10.25141585341272
      ],
      [
        "▁eux",
        -10.252023920337628
      ],
      [
        "▁comm",
        -10.253232280917011
      ],
      [
        "ba",
        -10.259661829664608
      ],
      [
        "▁passe",
        -10.273692187597137
      ],
      [
        "tif",
        -10.277636143858064
      ],
      [
        "▁Bëggu",
        -10.280043071318673
      ],
      [
        "▁rentre",
        -10.285088425553408
      ],
      [
        "axul",
        -10.285632643581327
      ],
      [
        "ser",
        -10.29319218295957
      ],
      [
        "sais",
        -10.29901885543559
      ],
      [
        "▁m'as",
        -10.300754347685185
      ],
      [
        "gis",
        -10.308271467135611
      ],
      [
        "enfant",
        -10.308868932102841
      ],
      [
        "ang",
        -10.30938911261801
      ],
      [
        "▁souhait",
        -10.313563469489395
      ],
      [
        "ar.",
        -10.315111630483178
      ],
      [
        "eex",
        -10.321442858093858
      ],
      [
        "été",
        -10.323905637138047
      ],
      [
        "où",
        -10.32556024170182
      ],
      [
        "irent",
        -10.326441094941721
      ],
      [
        "▁Voi",
        -10.32978536547302
      ],
      [
        "contr",
        -10.331929608493635
      ],
      [
        "▁gana",
        -10.33212487079889
      ],
      [
        "anc",
        -10.335152307837348
      ],
      [
        "▁désir",
        -10.335187188658914
      ],
      [
        "ñii",
        -10.337685931460554
      ],
      [
        "ec",
        -10.33860146099187
      ],
      [
        "aan",
        -10.344408136562539
      ],
      [
        "▁lee",
        -10.34518321815188
      ],
      [
        "▁bel",
        -10.350394051186658
      ],
      [
        "O",
        -10.367583788411787
      ],
      [
        "act",
        -10.368342543192467
      ],
      [
        "étudiant",
        -10.36906468399357
      ],
      [
        "autre",
        -10.3692905253139
      ],
      [
        "▁ni.",
        -10.3700446741077
      ],
      [
        "aujourd'hui",
        -10.377476848104525
      ],
      [
        "illi",
        -10.378133267434395
      ],
      [
        "▁Pr",
        -10.3844329075456
      ],
      [
        "uy",
        -10.386251960844408
      ],
      [
        "▁goo",
        -10.388870251143784
      ],
      [
        "▁accompagn",
        -10.390988235719139
      ],
      [
        "argent",
        -10.391869760703067
      ],
      [
        "▁Ñoo",
        -10.394968146217922
      ],
      [
        "hang",
        -10.396052194996686
      ],
      [
        "rs",
        -10.396569040969098
      ],
      [
        "mal",
        -10.397212063050329
      ],
      [
        "té",
        -10.398727726749808
      ],
      [
        "▁reven",
        -10.401641472038946
      ],
      [
        "us",
        -10.410243195909853
      ],
      [
        "jur",
        -10.410359630529419
      ],
      [
        "vin",
        -10.41561448880611
      ],
      [
        "ëy",
        -10.416279238358904
      ],
      [
        "viendra",
        -10.419471153028729
      ],
      [
        "ame",
        -10.420518495797332
      ],
      [
        "▁woow",
        -10.427050031877851
      ],
      [
        "▁fra",
        -10.429698134224399
      ],
      [
        "wax",
        -10.433830986310994
      ],
      [
        "eau",
        -10.434020921558579
      ],
      [
        "leur",
        -10.438920775351724
      ],
      [
        "ibbisi",
        -10.44106494909796
      ],
      [
        "ille",
        -10.442380739913999
      ],
      [
        "bëggée",
        -10.443050291001613
      ],
      [
        "▁bule",
        -10.450219137094372
      ],
      [
        "mes",
        -10.451907229861732
      ],
      [
        "heur",
        -10.457281967355826
      ],
      [
        "ç",
        -10.458993054172774
      ],
      [
        "▁sera",
        -10.461727218024306
      ],
      [
        "L'homme",
        -10.467386594700706
      ],
      [
        "demain",
        -10.468965509155975
      ],
      [
        "rais",
        -10.470637278830452
      ],
      [
        "da",
        -10.47081994140152
      ],
      [
        "▁s'ass",
        -10.471091033477908
      ],
      [
        "voie",
        -10.473657558619811
      ],
      [
        "▁yoo",
        -10.474973937698664
      ],
      [
        "aka",
        -10.479086373690537
      ],
      [
        "uru",
        -10.48094280219931
      ],
      [
        "▁voi",
        -10.482845878587478
      ],
      [
        "ll",
        -10.486754267802322
      ],
      [
        "xam",
        -10.49126773212535
      ],
      [
        "coute",
        -10.493607397463947
      ],
      [
        "▁mënk",
        -10.498400581122493
      ],
      [
        "▁refus",
        -10.50768621244549
      ],
      [
        "rai",
        -10.511204841387046
      ],
      [
        "ors",
        -10.511321678413811
      ],
      [
        "▁yaak",
        -10.511758832634927
      ],
      [
        "▁demand",
        -10.515491539202317
      ],
      [
        "aye",
        -10.524605598226534
      ],
      [
        "orsqu",
        -10.525839541967128
      ],
      [
        "ari",
        -10.532567448884015
      ],
      [
        "yóo",
        -10.537659008041171
      ],
      [
        "ŋ",
        -10.539239648420043
      ],
      [
        "▁fû",
        -10.556766289318215
      ],
      [
        "ez-",
        -10.557177107146899
      ],
      [
        "ur.",
        -10.562647762787918
      ],
      [
        "yent",
        -10.562935485593965
      ],
      [
        "ouv",
        -10.564871462594693
      ],
      [
        "sage",
        -10.566204451941736
      ],
      [
        "Gis",
        -10.56929523394899
      ],
      [
        "ŋgoo",
        -10.577359273391448
      ],
      [
        "nte",
        -10.579233774457588
      ],
      [
        "▁kaa",
        -10.580121200176368
      ],
      [
        "tend",
        -10.583402613733881
      ],
      [
        "▁personn",
        -10.584551747527565
      ],
      [
        "vu",
        -10.59157949668115
      ],
      [
        "▁wal",
        -10.598114138693044
      ],
      [
        "goo",
        -10.599372071141113
      ],
      [
        "acc",
        -10.611126550662773
      ],
      [
        "axkoon",
        -10.61125754488838
      ],
      [
        "▁Ag",
        -10.6131995683389
      ],
      [
        "con",
        -10.61361076753537
      ],
      [
        "▁go",
        -10.61776725505476
      ],
      [
        "▁Yo",
        -10.632303754132831
      ],
      [
        "ille-",
        -10.635738033814167
      ],
      [
        "ô",
        -10.637217121805458
      ],
      [
        "▁do",
        -10.638413362724563
      ],
      [
        "▁ab",
        -10.64011413951663
      ],
      [
        "lement",
        -10.640758007115442
      ],
      [
        "ogul",
        -10.6412931128933
      ],
      [
        "'il",
        -10.641730470802925
      ],
      [
        "aa",
        -10.642069393637291
      ],
      [
        "nn",
        -10.643253930710795
      ],
      [
        "jul",
        -10.657999461826842
      ],
      [
        "▁Ñé",
        -10.666089710098055
      ],
      [
        "lusi",
        -10.667354234564122
      ],
      [
        "▁Se",
        -10.670893515358921
      ],
      [
        "nda",
        -10.673000817914732
      ],
      [
        "▁sau",
        -10.676662498459109
      ],
      [
        "ogu",
        -10.678456767240217
      ],
      [
        "▁U",
        -10.683779458300593
      ],
      [
        "▁revien",
        -10.684967538639292
      ],
      [
        "▁Daawu",
        -10.691901903118797
      ],
      [
        "▁Yée",
        -10.693325259258081
      ],
      [
        "ddi",
        -10.696186937698549
      ],
      [
        "▁sub",
        -10.69678701217979
      ],
      [
        "▁s'e",
        -10.697682644413776
      ],
      [
        "▁Àn",
        -10.69865884152539
      ],
      [
        "ju",
        -10.700712069065343
      ],
      [
        "rès",
        -10.703414880117498
      ],
      [
        "▁Né",
        -10.703539523965658
      ],
      [
        "▁vérit",
        -10.70794471864509
      ],
      [
        "▁épo",
        -10.710996090346978
      ],
      [
        "▁Gisul",
        -10.711600913933683
      ],
      [
        "▁ŋgee",
        -10.712754046445777
      ],
      [
        "▁cohabite",
        -10.713832075185502
      ],
      [
        "usqu'ici",
        -10.713959438079922
      ],
      [
        "droit",
        -10.714605335565375
      ],
      [
        "▁descend",
        -10.7146941325241
      ],
      [
        "▁étudi",
        -10.714926583705553
      ],
      [
        "habite",
        -10.714933495214062
      ],
      [
        "ï",
        -10.715080294131207
      ],
      [
        "]",
        -10.715080294131207
      ],
      [
        "[",
        -10.715080294131207
      ],
      [
        "▁poli",
        -10.716026189415164
      ],
      [
        "mps",
        -10.716306066331526
      ],
      [
        "sembl",
        -10.716839851034024
      ],
      [
        "▁n'av",
        -10.71724987574679
      ],
      [
        "▁aim",
        -10.717774184476891
      ],
      [
        "▁Musa",
        -10.717962152467582
      ],
      [
        "▁indi",
        -10.71879271566678
      ],
      [
        "▁revi",
        -10.719213695707356
      ],
      [
        "▁Pou",
        -10.71933997942454
      ],
      [
        "vid",
        -10.720097181940062
      ],
      [
        "ard",
        -10.720803043801313
      ],
      [
        "▁dellu",
        -10.72090167593479
      ],
      [
        "oobu",
        -10.721156343005688
      ],
      [
        "omp",
        -10.722329401077275
      ],
      [
        "arab",
        -10.723016631832856
      ],
      [
        "▁plu",
        -10.723088598978737
      ],
      [
        "▁kë",
        -10.724322369722316
      ],
      [
        "▁l'h",
        -10.725652214776268
      ],
      [
        "googee",
        -10.72579860082387
      ],
      [
        "▁peut",
        -10.725814511574471
      ],
      [
        "▁appr",
        -10.727796318427208
      ],
      [
        "▁bët",
        -10.728057829646081
      ],
      [
        "▁waxa",
        -10.730518907554046
      ],
      [
        "▁Wut",
        -10.731273876003684
      ],
      [
        "gu",
        -10.733439080029504
      ],
      [
        "L",
        -10.735013591019644
      ],
      [
        "tëli",
        -10.736445306599657
      ],
      [
        "tient",
        -10.739601039000718
      ],
      [
        "ya",
        -10.740980349355699
      ],
      [
        "▁d'i",
        -10.741383344142992
      ],
      [
        "ëggu",
        -10.74155463551236
      ],
      [
        "tive",
        -10.741839577936279
      ],
      [
        "▁dikk",
        -10.742274325292888
      ],
      [
        "Il",
        -10.742573675358024
      ],
      [
        "Ma",
        -10.744824156178623
      ],
      [
        "▁pui",
        -10.745025430060634
      ],
      [
        "ha",
        -10.746353718452244
      ],
      [
        "▁conv",
        -10.746667878793698
      ],
      [
        "'autre",
        -10.749774501054585
      ],
      [
        "urtout",
        -10.7505897839416
      ],
      [
        "xal",
        -10.752487384677238
      ],
      [
        "oir",
        -10.756293393656582
      ],
      [
        "▁ense",
        -10.7579835204234
      ],
      [
        "▁Ceux-",
        -10.761787669604013
      ],
      [
        "▁googu",
        -10.761959726578208
      ],
      [
        "entré",
        -10.76226543075153
      ],
      [
        "ubë",
        -10.762683904282376
      ],
      [
        "▁fais",
        -10.762881113350037
      ],
      [
        "add",
        -10.765428453009626
      ],
      [
        "añu",
        -10.766306292934516
      ],
      [
        "▁fee",
        -10.76896354162517
      ],
      [
        "llusi",
        -10.777266447303214
      ],
      [
        "écha",
        -10.782773222111624
      ],
      [
        "▁Sér",
        -10.784352185013685
      ],
      [
        "ange",
        -10.786494275193835
      ],
      [
        "vert",
        -10.787407297014806
      ],
      [
        "ami",
        -10.787537676895923
      ],
      [
        "▁reg",
        -10.78911143847264
      ],
      [
        "ole",
        -10.793410911040159
      ],
      [
        "blan",
        -10.795820785826882
      ],
      [
        "'aurai",
        -10.80221684739196
      ],
      [
        "▁Atte",
        -10.802491248036727
      ],
      [
        "tudi",
        -10.805170108911195
      ],
      [
        "oogu",
        -10.80525826509627
      ],
      [
        "bir",
        -10.80597052261064
      ],
      [
        "jal",
        -10.807810394565955
      ],
      [
        "bre",
        -10.81107405467585
      ],
      [
        "▁Ji",
        -10.814280552755179
      ],
      [
        "▁mê",
        -10.816674306707702
      ],
      [
        "ata",
        -10.817811031702249
      ],
      [
        "baa",
        -10.819671180354009
      ],
      [
        "▁sortie",
        -10.821208000750717
      ],
      [
        "gay",
        -10.8256722758869
      ],
      [
        "edd",
        -10.825971200421053
      ],
      [
        "góon",
        -10.828412873738513
      ],
      [
        "pa",
        -10.829222524226207
      ],
      [
        "▁mange",
        -10.830288660305667
      ],
      [
        "jii",
        -10.83216706700122
      ],
      [
        "lum",
        -10.834711281357464
      ],
      [
        "▁Ar",
        -10.842741917220994
      ],
      [
        "▁travaillai",
        -10.842857720063531
      ],
      [
        "ici.",
        -10.843775825402183
      ],
      [
        "ous-même",
        -10.845556074148003
      ],
      [
        "tés",
        -10.850748631860238
      ],
      [
        "alis",
        -10.851047618655533
      ],
      [
        "Tu",
        -10.857754034722987
      ],
      [
        "mon",
        -10.859655743901994
      ],
      [
        "rëm",
        -10.861819061632747
      ],
      [
        "▁Laa",
        -10.862985131243905
      ],
      [
        "âc",
        -10.870542198196327
      ],
      [
        "ëgg",
        -10.872225654325911
      ],
      [
        "t-ce",
        -10.874365667371622
      ],
      [
        "ff",
        -10.876392201818017
      ],
      [
        "rère",
        -10.881010239065315
      ],
      [
        "▁ga",
        -10.886140084948476
      ],
      [
        "uleen",
        -10.88722891027929
      ],
      [
        "l'homme",
        -10.89143849638877
      ],
      [
        "▁Re",
        -10.891876797760121
      ],
      [
        "tali",
        -10.892127993188936
      ],
      [
        "ble",
        -10.893138436298763
      ],
      [
        "në",
        -10.900273593742774
      ],
      [
        "▁kat",
        -10.908270372601896
      ],
      [
        "▁sar",
        -10.911022816966167
      ],
      [
        "eeg",
        -10.918502976814535
      ],
      [
        "réci",
        -10.918611144102307
      ],
      [
        "▁xamu",
        -10.920897788168102
      ],
      [
        "alla",
        -10.922929353036306
      ],
      [
        "▁Tug",
        -10.928775968361478
      ],
      [
        "cor",
        -10.928935304471864
      ],
      [
        "ol",
        -10.932632478733082
      ],
      [
        "oppi",
        -10.935102471521917
      ],
      [
        "arac",
        -10.935269289747874
      ],
      [
        "oxoo",
        -10.938097374630676
      ],
      [
        "ose",
        -10.941844262353978
      ],
      [
        "alé",
        -10.945281211605714
      ],
      [
        "parti",
        -10.94758642152682
      ],
      [
        "llu",
        -10.948280157073501
      ],
      [
        "eff",
        -10.95202879335113
      ],
      [
        "ns",
        -10.953994015274432
      ],
      [
        "▁Av",
        -10.955861018820116
      ],
      [
        "ges",
        -10.959473989468421
      ],
      [
        "uwu",
        -10.967157631327495
      ],
      [
        "ours",
        -10.967424034696647
      ],
      [
        "ssent",
        -10.973573128876838
      ],
      [
        "cle",
        -10.979889206323449
      ],
      [
        "▁travaille",
        -10.985213172442139
      ],
      [
        "mine",
        -10.98632284017602
      ],
      [
        "'ai",
        -10.987016330326778
      ],
      [
        "e-",
        -10.98710351804918
      ],
      [
        "▁ét",
        -10.987223878648171
      ],
      [
        "ye",
        -10.995488505000404
      ],
      [
        "op",
        -10.997919191127476
      ],
      [
        "▁yo",
        -10.998935266419686
      ],
      [
        "▁l'é",
        -10.999476265508937
      ],
      [
        "rie",
        -10.999787293902541
      ],
      [
        "ox",
        -11.009755304458235
      ],
      [
        "▁deva",
        -11.013796998120657
      ],
      [
        "dre",
        -11.017112808003724
      ],
      [
        "yil",
        -11.033584432778312
      ],
      [
        "▁wé",
        -11.03458877474044
      ],
      [
        "ni",
        -11.044625735679457
      ],
      [
        "sse",
        -11.04545657881322
      ],
      [
        "bul",
        -11.050242592735897
      ],
      [
        "aakaar",
        -11.053760478960218
      ],
      [
        "oit",
        -11.059837935966694
      ],
      [
        "▁elle",
        -11.06519472372523
      ],
      [
        "aru",
        -11.069536374340561
      ],
      [
        "▁aff",
        -11.071219202647276
      ],
      [
        "▁sé",
        -11.072693001839106
      ],
      [
        "E",
        -11.084429664341238
      ],
      [
        "▁bë",
        -11.090324782230589
      ],
      [
        "ts.",
        -11.097047333995597
      ],
      [
        "rappe",
        -11.104428609824598
      ],
      [
        "▁es-",
        -11.113494177176396
      ],
      [
        "▁noo",
        -11.119580458050667
      ],
      [
        "▁Celui-",
        -11.122529849488398
      ],
      [
        "dd",
        -11.127796956926192
      ],
      [
        "ller",
        -11.128662584633421
      ],
      [
        "gé",
        -11.128797507056408
      ],
      [
        "▁jus",
        -11.132448213915621
      ],
      [
        "J'a",
        -11.132836750914258
      ],
      [
        "rée",
        -11.136890695332372
      ],
      [
        "'ici",
        -11.13987744009345
      ],
      [
        "▁qu'i",
        -11.149598735089363
      ],
      [
        "dab",
        -11.153985872198637
      ],
      [
        "auc",
        -11.159596696425542
      ],
      [
        "ert",
        -11.160548454249286
      ],
      [
        "'argent",
        -11.164861603729461
      ],
      [
        "óol",
        -11.169609719869719
      ],
      [
        "▁Wu",
        -11.172801667606542
      ],
      [
        "adi",
        -11.181111915324838
      ],
      [
        "▁ai",
        -11.184699635973745
      ],
      [
        "qu'un",
        -11.197471368380043
      ],
      [
        "▁ava",
        -11.209740225137846
      ],
      [
        "lor",
        -11.211701549519475
      ],
      [
        "▁Mus",
        -11.211989545094282
      ],
      [
        "dik",
        -11.214035708019157
      ],
      [
        "main",
        -11.232155028652123
      ],
      [
        "amoon",
        -11.2345547605969
      ],
      [
        "lqu'un",
        -11.234608921658138
      ],
      [
        "▁gen",
        -11.243783298294598
      ],
      [
        "▁ren",
        -11.245476736733721
      ],
      [
        "ents",
        -11.27249632508679
      ],
      [
        "moon",
        -11.276661867861897
      ],
      [
        "▁waxe",
        -11.280164757366476
      ],
      [
        "agit",
        -11.280993677476223
      ],
      [
        "ret",
        -11.284413540622696
      ],
      [
        "olul",
        -11.290273356319377
      ],
      [
        "▁yen",
        -11.295878502855183
      ],
      [
        "rons",
        -11.31456168986849
      ],
      [
        "ccu",
        -11.319315694891413
      ],
      [
        "uel",
        -11.342211897883988
      ],
      [
        "eill",
        -11.344833434805606
      ],
      [
        "itam",
        -11.358483451218401
      ],
      [
        "ch",
        -11.363185115274248
      ],
      [
        "▁ha",
        -11.3763312542786
      ],
      [
        "ête",
        -11.40379010072186
      ],
      [
        "oola",
        -11.405910005394565
      ],
      [
        "les-",
        -11.411343458860795
      ],
      [
        "Je",
        -11.423004020228719
      ],
      [
        "arit",
        -11.425645729730029
      ],
      [
        "gir",
        -11.44929074359411
      ],
      [
        "des",
        -11.464938514861405
      ],
      [
        "▁tus",
        -11.487363635680948
      ],
      [
        "tais",
        -11.49022391204022
      ],
      [
        "yy",
        -11.496401248058518
      ],
      [
        "▁tà",
        -11.50756471607961
      ],
      [
        "ve",
        -11.524043499615772
      ],
      [
        "dal",
        -11.525681667440171
      ],
      [
        "bo",
        -11.534511327963465
      ],
      [
        "bu",
        -11.55143926036525
      ],
      [
        "a-",
        -11.556783640649563
      ],
      [
        "cé",
        -11.558231817394507
      ],
      [
        "aat",
        -11.574768449238562
      ],
      [
        "st",
        -11.574994687506113
      ],
      [
        "tam",
        -11.577747976895957
      ],
      [
        "id",
        -11.581306498476138
      ],
      [
        "ond",
        -11.584361722110739
      ],
      [
        "lam",
        -11.585270156740235
      ],
      [
        "anaa",
        -11.597194538186493
      ],
      [
        "▁jig",
        -11.613166141555254
      ],
      [
        "Nit",
        -11.625141189672515
      ],
      [
        "pe",
        -11.63118301021378
      ],
      [
        "anu",
        -11.637535530264511
      ],
      [
        "boo",
        -11.64144580294714
      ],
      [
        "ët",
        -11.64959718918598
      ],
      [
        "ain",
        -11.65008573162745
      ],
      [
        "amin",
        -11.65704127455006
      ],
      [
        "▁ña",
        -11.692034716531856
      ],
      [
        "▁voil",
        -11.705078874912822
      ],
      [
        "î",
        -11.72231273058825
      ],
      [
        "▁Ke",
        -11.725081603658737
      ],
      [
        "A",
        -11.726847458212262
      ],
      [
        "lait",
        -11.738628590266057
      ],
      [
        "▁jen",
        -11.739145377499367
      ],
      [
        "eû",
        -11.749455366878475
      ],
      [
        "ave",
        -11.76325662302793
      ],
      [
        "'apprécie",
        -11.812536613019583
      ],
      [
        "squel",
        -11.82586483624363
      ],
      [
        "esse",
        -11.846638115036956
      ],
      [
        "fus",
        -11.85034606650949
      ],
      [
        "▁x",
        -11.853645416764715
      ],
      [
        "ëlë",
        -11.863503502246264
      ],
      [
        "▁Dema",
        -11.865837878000493
      ],
      [
        "wum",
        -11.9093453944031
      ],
      [
        "▁ŋgoog",
        -11.912106943343515
      ],
      [
        "étai",
        -11.913487723821756
      ],
      [
        "este",
        -11.91732182506994
      ],
      [
        "▁res",
        -11.924425403322314
      ],
      [
        "▁ret",
        -11.927927241885142
      ],
      [
        "uf",
        -11.943016516982446
      ],
      [
        "ées",
        -11.958493382517076
      ],
      [
        "▁wo",
        -11.970062885531789
      ],
      [
        "▁lé",
        -11.98570388793264
      ],
      [
        "ga",
        -12.014822631224153
      ],
      [
        "oi-même",
        -12.043468043648254
      ],
      [
        "may",
        -12.059461158777065
      ],
      [
        "ge",
        -12.086166545869293
      ],
      [
        "'",
        -12.088884127407525
      ],
      [
        "V",
        -12.088984127407524
      ],
      [
        "F",
        -12.089084127407524
      ],
      [
        "H",
        -12.089184127407526
      ],
      [
        "U",
        -12.089284127407526
      ],
      [
        "R",
        -12.089384127407525
      ],
      [
        "Q",
        -12.089484127407525
      ],
      [
        "X",
        -12.089584127407525
      ],
      [
        "N",
        -12.089684127407525
      ],
      [
        "À",
        -12.089784127407524
      ],
      [
        "I",
        -12.089884127407524
      ],
      [
        "Y",
        -12.089984127407526
      ],
      [
        "W",
        -12.090084127407525
      ],
      [
        "ó",
        -12.090184127407525
      ],
      [
        "M",
        -12.090284127407525
      ],
      [
        "Ŋ",
        -12.090384127407525
      ],
      [
        "K",
        -12.090484127407525
      ],
      [
        "P",
        -12.090584127407524
      ],
      [
        "B",
        -12.090684127407524
      ],
      [
        "S",
        -12.090784127407526
      ],
      [
        "T",
        -12.090884127407525
      ],
      [
        "Ñ",
        -12.090984127407525
      ],
      [
        "D",
        -12.091084127407525
      ],
      [
        "sont",
        -12.091084127407525
      ]
    ]
  }
}