<pad>	0
</s>	0
<unk>	0
<s>	0
.	-2.91125
,	-3.2084
'	-3.518
▁la	-4.17885
▁de	-4.22652
s	-4.2989
-	-4.53349
e	-4.63566
▁	-4.67029
▁!	-4.71806
y	-4.7369
▁a	-4.75623
▁ci	-4.76622
▁l	-4.8823
▁?	-5.02288
▁le	-5.0428
▁un	-5.09189
▁à	-5.13915
▁ko	-5.17829
est	-5.21348
▁ne	-5.23301
▁bi	-5.26087
▁les	-5.28664
▁qui	-5.31216
▁na	-5.33375
▁et	-5.33773
▁ma	-5.35713
▁des	-5.37697
▁est	-5.38286
▁pas	-5.38571
▁d	-5.38747
▁que	-5.4055
▁Il	-5.40592
i	-5.41822
▁mu	-5.42921
u	-5.44147
a	-5.49832
▁du	-5.5245
r	-5.54022
▁ba	-5.56818
▁qu	-5.61828
▁C	-5.6238
▁yi	-5.71227
▁n	-5.73329
▁il	-5.73974
▁ni	-5.74034
▁en	-5.74849
▁di	-5.7611
▁ak	-5.78848
il	-5.8349
▁bu	-5.84023
▁gi	-5.85415
▁dans	-5.91583
▁c	-5.94373
▁ñu	-5.94444
▁ngi	-5.95909
al	-5.99057
▁tu	-6.01229
▁dem	-6.04454
▁sa	-6.058
▁s	-6.06469
▁yu	-6.07707
▁pour	-6.08541
▁te	-6.0958
▁se	-6.12194
▁ay	-6.12418
▁nga	-6.13139
▁Je	-6.14309
▁ce	-6.1516
ai	-6.16017
▁au	-6.19281
▁am	-6.19569
▁naa	-6.21319
▁y	-6.23124
▁J	-6.26763
▁je	-6.31135
▁ca	-6.31142
▁lu	-6.32192
▁sur	-6.35208
▁L	-6.37096
▁dafa	-6.4029
▁sama	-6.42735
▁woon	-6.43858
▁seen	-6.44263
▁avec	-6.45868
▁Le	-6.48321
▁sont	-6.48883
é	-6.50476
▁fa	-6.51599
▁lui	-6.52719
▁mi	-6.54425
t	-6.55689
une	-6.58608
▁j	-6.61436
▁par	-6.64203
▁doon	-6.65413
▁:	-6.65897
;	-6.66334
▁daan	-6.67777
▁wax	-6.69353
▁xam	-6.69565
am	-6.69782
▁m	-6.70567
▁Dafa	-6.70812
▁son	-6.7093
▁Tu	-6.71318
▁La	-6.7132
homme	-6.7348
▁mon	-6.73616
▁gis	-6.74466
un	-6.75597
oon	-6.75748
▁si	-6.75853
▁plus	-6.76142
▁vu	-6.76671
▁leen	-6.76828
en	-6.79037
ent	-6.79496
tu	-6.8184
ette	-6.81913
▁moo	-6.82623
on	-6.83242
l	-6.84391
d	-6.84813
▁nag	-6.85022
le	-6.89174
▁nekk	-6.8935
er	-6.90089
là	-6.90118
▁père	-6.90575
nt	-6.90986
n	-6.91087
▁def	-6.92356
ait	-6.93494
▁t	-6.94224
▁Les	-6.94958
▁fait	-6.94976
▁nit	-6.95637
▁ŋga	-6.96227
▁me	-6.9792
▁benn	-6.99256
▁Góo	-7.00124
▁nous	-7.00438
▁moom	-7.00893
▁où	-7.01754
▁li	-7.03649
ee	-7.03748
▁mel	-7.04223
▁été	-7.04873
▁leur	-7.05388
▁tout	-7.06428
▁ku	-7.07072
▁ji	-7.07154
▁on	-7.07304
▁D	-7.09114
▁Baay	-7.09447
▁nu	-7.10236
▁sax	-7.10244
▁biir	-7.10727
▁Gis	-7.11114
▁ya	-7.11699
ant	-7.11992
es	-7.13449
▁rekk	-7.1356
▁fi	-7.1373
▁su	-7.14541
oo	-7.15436
▁may	-7.15629
▁homme	-7.15981
ul	-7.16338
▁Mu	-7.16609
▁gu	-7.18854
▁i	-7.19327
▁Ci	-7.21015
▁laa	-7.21775
▁Si	-7.221
▁Afrig	-7.22221
▁ab	-7.25053
▁avait	-7.25728
▁chose	-7.28185
«	-7.28676
ce	-7.29661
te	-7.30159
▁Un	-7.30322
▁là	-7.3067
▁A	-7.31243
▁mën	-7.31341
▁enfants	-7.31954
▁Omar	-7.32028
▁bii	-7.33178
▁kenn	-7.33716
b	-7.3433
▁Am	-7.34953
▁Bu	-7.35199
▁moi	-7.35271
▁celui	-7.36357
▁Ce	-7.37679
▁dal	-7.37868
▁comme	-7.38328
▁ñëw	-7.38349
▁bëgg	-7.38898
▁xale	-7.39017
ment	-7.39115
▁as	-7.39213
▁photo	-7.39473
▁wi	-7.39566
▁góor	-7.39986
▁Ku	-7.40206
▁Su	-7.40605
▁ju	-7.40728
and	-7.40766
▁kër	-7.40865
▁»	-7.41844
g	-7.42223
▁autre	-7.42857
▁ñi	-7.43584
▁dara	-7.43603
à	-7.442
▁dit	-7.44365
▁faire	-7.44608
▁peut	-7.44649
▁mère	-7.45844
▁maison	-7.46193
▁ñaar	-7.4694
▁Sa	-7.48006
▁ndax	-7.4852
▁sans	-7.5051
▁baax	-7.50981
▁ou	-7.51061
k	-7.51792
▁quelque	-7.52237
▁nataal	-7.5258
▁vous	-7.5271
▁dëkk	-7.53763
▁parti	-7.53906
▁ces	-7.54059
▁On	-7.54691
que	-7.55209
▁bien	-7.55432
di	-7.55658
▁était	-7.55677
▁toi	-7.55715
▁même	-7.56771
▁S	-7.57144
▁fu	-7.57368
▁B	-7.59485
▁pays	-7.59844
▁cet	-7.59899
▁aussi	-7.60068
▁Nit	-7.60132
as	-7.60633
▁xar	-7.60758
était	-7.61197
▁mais	-7.61506
▁va	-7.6216
ñ	-7.62326
▁Dama	-7.62354
▁lool	-7.63115
▁ga	-7.63247
▁it	-7.63251
▁Maa	-7.63335
re	-7.64446
▁jusqu	-7.64657
elle	-7.66156
aient	-7.66159
▁nañu	-7.66228
▁Qu	-7.66551
▁tax	-7.66694
▁teg	-7.67802
▁jigéen	-7.68243
▁ont	-7.6895
ci	-7.69309
eau	-7.70165
▁boo	-7.705
▁Lu	-7.70556
▁cela	-7.7072
▁yépp	-7.70756
▁deux	-7.71576
▁lañu	-7.71918
▁gën	-7.72378
▁man	-7.73435
▁dañu	-7.7345
▁Ma	-7.74246
▁elle	-7.74261
▁waay	-7.75079
▁ki	-7.75593
▁grand	-7.75849
▁Sur	-7.76324
▁Li	-7.76774
▁veux	-7.77085
▁temps	-7.77108
▁G	-7.77378
▁réew	-7.77638
▁yoon	-7.77649
▁Nous	-7.78408
▁Ba	-7.79076
▁ñoo	-7.79101
um	-7.79113
▁aux	-7.79215
▁À	-7.79819
▁ton	-7.80342
▁encore	-7.81129
▁Quan	-7.81239
▁–	-7.82517
▁P	-7.84491
▁enfant	-7.84814
▁vie	-7.8499
▁vois	-7.85359
▁parle	-7.85659
enn	-7.86074
▁tey	-7.86144
▁mbaa	-7.86554
▁Nataal	-7.86806
▁Elle	-7.86825
eneen	-7.87274
▁Soo	-7.8737
▁porte	-7.87895
▁ta	-7.88265
▁mag	-7.89123
ée	-7.89287
▁être	-7.89301
▁dina	-7.89335
hui	-7.89972
▁garab	-7.90344
▁bare	-7.90475
▁koo	-7.90784
▁gens	-7.91282
▁Sama	-7.91344
être	-7.91443
▁doom	-7.9189
▁yaay	-7.92075
m	-7.92145
▁maa	-7.92874
▁En	-7.93068
▁lépp	-7.93114
uma	-7.93148
▁sui	-7.94231
intérieur	-7.94384
▁loolu	-7.95063
▁war	-7.95744
▁bopp	-7.95843
▁sol	-7.95867
▁weex	-7.95958
x	-7.96007
▁sunu	-7.96096
▁dul	-7.96652
▁lii	-7.96682
▁demee	-7.96926
▁f	-7.97635
▁Ne	-7.97905
▁fekk	-7.97908
▁mouton	-7.97908
▁Qui	-7.98133
▁néeg	-7.98342
▁Du	-7.98913
ujour	-7.99066
▁très	-7.99222
▁walla	-7.99242
▁Ñu	-7.99315
▁monde	-7.9932
▁yaa	-7.99471
▁ici	-7.99548
it	-8.00053
▁Yàlla	-8.00914
▁femme	-8.01273
o	-8.01765
▁suuf	-8.02609
▁tous	-8.02619
▁ceux	-8.02929
▁personne	-8.03004
▁naan	-8.03091
▁ag	-8.03708
▁rafet	-8.04221
▁Celui	-8.04338
▁bés	-8.04394
▁bon	-8.04527
▁k	-8.04596
▁ñuul	-8.0491
▁rien	-8.05154
▁gone	-8.05444
▁partir	-8.0556
ante	-8.05738
▁lay	-8.05855
▁liggéey	-8.05906
▁Waaye	-8.06066
▁amul	-8.06445
moi	-8.06746
▁O	-8.068
ŋ	-8.07022
▁ŋgi	-8.07399
▁ka	-8.07857
▁yooyu	-8.07877
▁ñoom	-8.07929
▁Mon	-8.07951
▁Te	-8.08681
▁fas	-8.08803
▁F	-8.09002
▁es	-8.09242
eek	-8.09332
▁Dem	-8.09452
▁Ndax	-8.09828
an	-8.09873
▁voir	-8.09942
w	-8.10942
▁peu	-8.10948
autre	-8.11059
▁ciy	-8.11088
▁veut	-8.11518
▁guerre	-8.11609
▁jour	-8.12293
▁toog	-8.13088
▁yaram	-8.13505
▁ai	-8.13597
▁cha	-8.14666
▁Mais	-8.15404
▁soit	-8.15582
▁Waaw	-8.16025
▁venu	-8.16611
▁soo	-8.16883
▁(	-8.17289
▁ça	-8.17289
▁beaucoup	-8.17291
▁ndaw	-8.17351
▁yiy	-8.17451
eux	-8.17515
▁dee	-8.17701
▁couleur	-8.17958
enfant	-8.18886
▁neex	-8.19293
▁Xale	-8.19344
▁boobu	-8.19347
is	-8.19353
▁fois	-8.19433
▁avant	-8.19578
▁at	-8.19812
▁ja	-8.20159
ma	-8.20305
▁vo	-8.20362
▁xel	-8.21322
▁ànd	-8.21684
avoir	-8.21713
▁dont	-8.21726
▁mes	-8.21972
eurs	-8.21983
▁loxo	-8.21986
▁àll	-8.22023
lu	-8.22106
▁tes	-8.22124
▁Xam	-8.22541
▁part	-8.22589
bas	-8.22929
▁dëgg	-8.23094
▁dañ	-8.23197
ù	-8.23377
▁tamit	-8.23421
▁sous	-8.23701
▁waa	-8.23801
▁jëm	-8.24885
ation	-8.25393
▁Ogosaa	-8.2554
▁voilà	-8.25543
▁noppi	-8.26053
kat	-8.26229
▁bët	-8.26635
tre	-8.26702
▁kow	-8.27366
▁dugg	-8.27855
▁wu	-8.28832
▁daw	-8.28901
▁Moo	-8.28968
▁wër	-8.29108
▁taxaw	-8.29611
▁yëg	-8.29689
▁doŋŋ	-8.29958
...	-8.30199
aan	-8.30229
▁Cet	-8.30758
Afrique	-8.31135
▁Wax	-8.31141
▁dox	-8.31336
ils	-8.31345
▁say	-8.31527
▁jot	-8.31636
▁xarit	-8.32115
▁Dieu	-8.32212
▁cheval	-8.32218
▁ñépp	-8.32224
▁re	-8.32245
▁Tugal	-8.32246
▁doole	-8.32483
▁entre	-8.32504
▁nii	-8.32856
ale	-8.32858
▁saa	-8.33247
▁De	-8.33756
▁bee	-8.34254
▁fais	-8.34796
▁ngeen	-8.3493
▁bois	-8.35149
▁fii	-8.35216
ak	-8.35407
▁terre	-8.35418
▁Lii	-8.35576
▁nuit	-8.35596
▁Comment	-8.36939
▁ñax	-8.3696
▁dama	-8.3709
▁réer	-8.37188
▁N	-8.37723
▁semble	-8.3887
▁ndox	-8.38915
in	-8.39039
▁jamono	-8.39355
▁jamais	-8.39357
▁Y	-8.39499
▁quelqu	-8.40094
▁M	-8.40776
léeg	-8.40805
▁génn	-8.40896
▁ban	-8.4101
▁dex	-8.41557
▁ëpp	-8.41653
▁fo	-8.41728
▁nañ	-8.41847
oit	-8.41884
pendant	-8.41969
▁bokk	-8.41982
▁donné	-8.42078
▁daal	-8.42191
▁après	-8.42321
▁xare	-8.42499
és	-8.42785
▁Que	-8.43471
▁jóge	-8.43952
tte	-8.44051
▁mbir	-8.44264
▁corps	-8.44436
▁cause	-8.4473
ir	-8.44827
▁aller	-8.44908
▁b	-8.44912
▁passe	-8.45083
▁chambre	-8.45667
▁lekk	-8.45715
▁dégg	-8.46151
▁yàgg	-8.46983
▁Vous	-8.47052
▁loin	-8.47064
▁jox	-8.47201
▁vers	-8.47205
▁jaar	-8.47591
▁Na	-8.47629
▁bari	-8.47654
▁jaay	-8.47741
▁aw	-8.48121
épp	-8.48512
▁gii	-8.49377
▁Quel	-8.4938
▁Et	-8.49822
▁itam	-8.50076
▁fay	-8.50652
▁Bi	-8.50737
▁femmes	-8.51908
▁tànk	-8.51953
▁takk	-8.52377
▁jël	-8.52425
▁bañ	-8.52482
▁contre	-8.52528
▁xonq	-8.52531
▁milieu	-8.52542
▁Loolu	-8.52544
▁Xar	-8.52571
▁Ay	-8.52577
▁Ton	-8.5304
▁metti	-8.53176
de	-8.53189
ont	-8.53301
▁mis	-8.53869
▁Va	-8.54208
ug	-8.54672
▁kaw	-8.54781
▁Man	-8.54903
▁àddina	-8.54933
▁g	-8.55042
▁travail	-8.55143
▁faut	-8.55412
▁peux	-8.55471
▁tuuti	-8.55492
▁sorte	-8.5552
)	-8.55614
▁mer	-8.55641
wul	-8.5567
▁vas	-8.55682
▁devant	-8.55825
quelle	-8.55908
▁lañ	-8.55936
▁fan	-8.56464
autres	-8.5666
woon	-8.56871
Est	-8.57396
▁étai	-8.57431
f	-8.5772
uñu	-8.57915
▁demul	-8.58137
▁danga	-8.58342
▁topp	-8.58393
▁Dañu	-8.58447
▁noonu	-8.58512
▁yeux	-8.58747
▁Boo	-8.59188
▁eu	-8.59524
▁Tout	-8.5953
yeek	-8.59597
▁moment	-8.59834
▁xol	-8.60168
▁Yaa	-8.60544
▁nee	-8.60569
▁puis	-8.60937
▁baa	-8.60968
▁travers	-8.61157
▁tête	-8.6136
▁doute	-8.61362
▁trois	-8.61378
▁marché	-8.61425
▁Moom	-8.61431
▁ŋgeen	-8.61436
ñu	-8.61573
▁dóor	-8.61585
▁jeex	-8.61696
▁ans	-8.61846
▁bay	-8.62275
▁léeg	-8.62612
▁route	-8.63128
▁poisson	-8.63142
ux	-8.63169
▁sais	-8.63894
▁toute	-8.64345
▁bàyyi	-8.64447
▁dé	-8.64518
na	-8.64527
▁Cela	-8.64532
▁weer	-8.64551
▁bëgga	-8.6456
▁yeneen	-8.64933
leen	-8.65328
▁baay	-8.65715
▁p	-8.65808
▁mal	-8.65884
▁T	-8.65932
▁amis	-8.65994
▁pris	-8.66049
▁Ni	-8.66203
▁sera	-8.66364
ata	-8.66514
je	-8.66606
aa	-8.66749
▁dund	-8.66779
ez	-8.67002
avait	-8.67571
▁lan	-8.67694
▁Kamerun	-8.6771
▁foofu	-8.67727
▁trop	-8.67729
▁K	-8.67741
▁Tubaab	-8.67766
▁côté	-8.67773
▁passé	-8.68169
▁Au	-8.68383
▁waaw	-8.68503
▁bunt	-8.68849
▁coup	-8.68869
aat	-8.69194
▁non	-8.69908
dessus	-8.69948
▁case	-8.69995
▁lañuy	-8.70032
ions	-8.70236
▁fin	-8.7028
ons	-8.70607
▁yee	-8.70665
▁ginnaaw	-8.70907
▁togg	-8.71045
▁gaa	-8.71082
▁matin	-8.71089
▁seulement	-8.71089
▁crois	-8.71174
▁kooku	-8.71306
▁guddi	-8.71363
▁Demal	-8.71502
▁Ceux	-8.71751
▁ñ	-8.7223
el	-8.7237
▁haut	-8.72635
▁wet	-8.72813
ub	-8.72893
▁da	-8.73032
▁seul	-8.73089
▁jàpp	-8.7311
▁village	-8.73158
▁jours	-8.73424
▁Waa	-8.73738
▁day	-8.7395
▁gaaw	-8.74239
▁ville	-8.74525
▁boppam	-8.74765
▁yoo	-8.74919
▁fees	-8.75001
▁léegi	-8.75005
▁arbres	-8.75181
ées	-8.7535
▁allé	-8.75551
vaient	-8.76016
▁eux	-8.76463
▁blanc	-8.76611
et	-8.77099
▁moutons	-8.77341
ek	-8.77344
mère	-8.77721
▁Mi	-8.77724
▁Mën	-8.77886
▁forêt	-8.78063
▁Danga	-8.78072
▁pouvait	-8.78121
▁jooju	-8.78135
▁Ana	-8.78143
▁Dans	-8.78158
▁maam	-8.78284
▁petit	-8.78492
▁réy	-8.78498
▁kanam	-8.78575
▁wàn	-8.78827
▁mëna	-8.78936
▁gaal	-8.78975
▁laaj	-8.79167
ur	-8.7958
▁faj	-8.80213
▁rouge	-8.80363
▁trouve	-8.80668
▁Des	-8.80741
▁solo	-8.80782
▁bout	-8.8097
▁reste	-8.81253
▁acheté	-8.81768
▁soleil	-8.81774
▁debout	-8.81795
▁voit	-8.81837
▁manger	-8.81952
▁Ceci	-8.81976
▁kan	-8.82023
loo	-8.82158
▁xaw	-8.82285
▁années	-8.82346
▁way	-8.82408
▁r	-8.825
▁ňu	-8.82649
▁partie	-8.8328
▁point	-8.83289
▁Ta	-8.833
▁defar	-8.83354
▁Bul	-8.83594
▁Ken	-8.8374
▁Ca	-8.83784
▁so	-8.83797
▁voiture	-8.84216
avais	-8.84523
lui	-8.85139
ère	-8.85449
▁train	-8.85617
▁Naka	-8.85622
▁peau	-8.85672
▁Oui	-8.85779
▁xaar	-8.8581
▁aucun	-8.8582
▁doy	-8.85828
ati	-8.85978
▁Ogoja	-8.86057
▁doo	-8.861
▁daa	-8.86249
ook	-8.87307
▁Afrique	-8.87474
▁grande	-8.8764
▁voyage	-8.88255
▁autres	-8.88638
▁personnes	-8.8865
▁gar	-8.88889
▁hommes	-8.88891
▁mil	-8.89042
▁main	-8.89131
▁Alors	-8.89613
▁Cherche	-8.89613
▁riz	-8.89616
▁fàww	-8.89619
▁France	-8.89635
▁fàttaliku	-8.89657
▁chez	-8.89699
▁beau	-8.8971
▁daanaka	-8.89739
▁dellu	-8.89829
▁lequel	-8.89831
▁mieux	-8.89921
▁mat	-8.89953
▁doomu	-8.90781
té	-8.90859
▁mains	-8.91086
▁quelle	-8.91215
▁mort	-8.91232
▁parler	-8.91308
▁noir	-8.91408
▁Xan	-8.91474
▁Sée	-8.91593
ar	-8.92233
▁plu	-8.92385
▁blanche	-8.92399
avons	-8.92606
▁médecin	-8.92754
▁tudd	-8.92919
▁dàll	-8.92924
▁biti	-8.93122
▁lion	-8.93215
▁gëna	-8.93276
▁Ab	-8.93285
▁bind	-8.93401
mettre	-8.93583
▁Di	-8.93701
▁yére	-8.93768
▁lieu	-8.93772
▁maintenant	-8.9378
▁question	-8.93782
▁quoi	-8.93784
▁yaakaar	-8.93786
▁Cameroun	-8.93788
▁Attend	-8.93793
▁mujje	-8.93795
▁dénk	-8.9381
▁beneen	-8.93854
▁gaynde	-8.93968
h	-8.94041
▁parce	-8.94532
▁fer	-8.94762
aay	-8.95122
ais	-8.95173
▁leer	-8.95368
▁assis	-8.95394
▁jeune	-8.9541
▁xamul	-8.95569
age	-8.96107
▁wut	-8.96177
▁For	-8.96194
▁posé	-8.96338
▁Def	-8.96391
▁gee	-8.96437
argent	-8.96546
▁May	-8.96728
▁far	-8.96738
▁dire	-8.97207
▁Kooku	-8.98067
▁woto	-8.9812
▁fàtte	-8.98129
▁famille	-8.9813
▁mauvais	-8.98131
▁bëj	-8.98133
▁yow	-8.98139
▁xalaat	-8.98142
▁verre	-8.98212
▁bonne	-8.98222
▁Seen	-8.98232
▁vais	-8.98299
autour	-8.98303
▁soir	-8.98443
▁nuy	-8.9871
▁mot	-8.98983
oŋ	-8.99057
▁gàtt	-8.992
▁néegu	-8.99368
ne	-8.99372
▁doomi	-8.99456
▁nos	-8.99628
▁jii	-8.99734
▁lait	-9.00289
▁demoon	-9.00352
▁kii	-9.00443
ukaay	-9.00539
▁toutes	-9.00783
▁belle	-9.01073
▁tel	-9.01146
j	-9.01474
▁pu	-9.01581
▁ami	-9.01785
▁regard	-9.02332
▁dagg	-9.02636
at	-9.02666
aadama	-9.02673
▁paix	-9.02674
▁xaalis	-9.02674
▁tollu	-9.02675
▁ainsi	-9.02703
▁ressemble	-9.02737
▁bord	-9.02752
▁Fais	-9.02761
▁tali	-9.02765
▁manière	-9.02786
▁jénd	-9.02789
▁nettali	-9.02791
▁lal	-9.02812
▁co	-9.02841
▁Jox	-9.02891
▁long	-9.02896
▁dana	-9.02935
▁près	-9.03023
▁endroit	-9.03151
▁bar	-9.03152
▁Fa	-9.03223
▁habits	-9.03252
▁xeet	-9.03286
▁vient	-9.03572
▁suba	-9.03689
▁tudde	-9.0369
▁dis	-9.04234
nu	-9.04351
▁amoon	-9.04676
même	-9.04684
ement	-9.04718
▁mas	-9.05271
▁Seet	-9.05596
▁champ	-9.06075
ri	-9.06218
tôt	-9.06299
c	-9.06598
▁deme	-9.0662
eur	-9.06812
▁bala	-9.06924
▁viendra	-9.06959
▁juróom	-9.06966
▁Bëgg	-9.0713
▁garde	-9.07186
▁duma	-9.07291
igéen	-9.07301
▁ñów	-9.07331
▁daanu	-9.07382
▁Ñ	-9.07421
▁Ça	-9.07435
▁Wànte	-9.07436
▁Pour	-9.07465
▁wéy	-9.07469
▁coté	-9.07481
▁longtemps	-9.07494
▁tard	-9.07519
▁jëkk	-9.07631
▁fut	-9.07887
nga	-9.07999
jur	-9.08015
▁gudd	-9.08183
▁ña	-9.08221
▁bant	-9.08404
▁ñàkk	-9.08938
atul	-9.0921
▁jiit	-9.09213
z	-9.09333
ni	-9.09394
▁defe	-9.09413
ň	-9.09776
▁lanu	-9.10039
▁choses	-9.10425
aale	-9.10888
▁première	-9.11045
ël	-9.11903
si	-9.1195
▁X	-9.12315
▁Ak	-9.12321
▁Móris	-9.12435
▁Mets	-9.12438
habitude	-9.12438
▁frère	-9.12438
▁place	-9.12444
▁téere	-9.12451
▁vraiment	-9.12461
▁yónnee	-9.12468
▁séen	-9.1248
▁seet	-9.12489
▁Niseryaa	-9.12514
▁Bés	-9.12543
ng	-9.12614
▁ceeb	-9.12728
▁faral	-9.12783
▁Da	-9.12941
▁aurait	-9.12986
▁arrivé	-9.13106
▁W	-9.13114
▁murs	-9.13142
▁no	-9.13368
▁quel	-9.13521
▁door	-9.13568
▁bëggul	-9.13631
▁faa	-9.13869
▁Dis	-9.13879
▁Nang	-9.14514
li	-9.14724
▁lit	-9.1494
▁moomu	-9.14965
▁Tey	-9.14967
▁yem	-9.15072
▁leneen	-9.15192
▁montre	-9.15676
▁xool	-9.15801
▁prend	-9.16265
em	-9.16389
▁pied	-9.16401
▁sore	-9.1694
▁tool	-9.17091
▁arrive	-9.17344
hôpital	-9.17698
▁souviens	-9.17699
▁Nigeria	-9.17699
▁gunóor	-9.177
▁feuilles	-9.17703
▁Saint	-9.17719
▁dellusi	-9.17724
▁Bansoo	-9.17729
▁gannaaw	-9.17733
▁Keneen	-9.17772
▁romb	-9.17826
▁bras	-9.17849
ès	-9.17871
▁toit	-9.17889
▁serait	-9.17927
▁jooy	-9.18008
▁ñetti	-9.18109
▁lorsqu	-9.18149
▁Xaar	-9.18164
▁fond	-9.18251
▁buur	-9.18284
▁nun	-9.18314
▁wa	-9.18402
▁jél	-9.18448
les	-9.18615
▁in	-9.1903
▁pieds	-9.19046
▁miir	-9.19048
▁yóbbu	-9.19075
om	-9.19078
▁Fas	-9.19407
▁parte	-9.19452
▁égaré	-9.1967
▁donne	-9.19725
▁rey	-9.19776
▁dikk	-9.19796
ax	-9.19964
▁Ña	-9.20516
▁fini	-9.20584
▁cuisine	-9.21253
▁yii	-9.21558
▁dame	-9.21604
▁rivière	-9.21846
▁roi	-9.21857
ine	-9.21978
aller	-9.22147
▁Cha	-9.22165
noppi	-9.2221
▁portes	-9.22674
▁tàng	-9.22831
étais	-9.2293
▁somme	-9.22941
avez	-9.23028
▁jàng	-9.23084
▁sant	-9.23093
père	-9.23097
▁jabar	-9.23121
▁raison	-9.23255
▁tàmbalee	-9.23257
▁Kër	-9.23258
▁Gone	-9.23259
▁tabax	-9.23259
▁Laobe	-9.2326
▁Samba	-9.23261
▁couscous	-9.23263
▁Ñoom	-9.23284
▁alors	-9.23289
▁guy	-9.23292
▁doktoor	-9.23295
▁longue	-9.23296
▁njëkk	-9.23315
▁xeer	-9.23316
▁aperçu	-9.23331
▁couteau	-9.23355
▁nangu	-9.23363
▁fourmis	-9.23372
▁devait	-9.23384
▁feebar	-9.23433
▁dois	-9.2355
▁Dinaa	-9.2359
▁gént	-9.23823
▁yaatu	-9.23834
koon	-9.23895
▁buntu	-9.24027
▁Fu	-9.24157
▁Mbaa	-9.24392
▁baat	-9.24418
▁wara	-9.24653
la	-9.24893
iñ	-9.25065
▁petits	-9.25381
unu	-9.25447
▁ubbi	-9.25626
▁dëkki	-9.25734
Après	-9.25741
▁nom	-9.25771
▁Voi	-9.25943
ité	-9.25988
▁Loo	-9.26088
▁soi	-9.26264
▁daj	-9.26282
▁vent	-9.26398
▁bees	-9.26583
▁celle	-9.26609
arbre	-9.26625
▁béré	-9.26628
▁aura	-9.26884
▁Là	-9.27776
▁bol	-9.27977
▁mënul	-9.28336
▁dëkke	-9.28403
▁parles	-9.28795
▁nak	-9.29012
▁mii	-9.29012
▁Banso	-9.29103
▁wóor	-9.29108
▁weesoo	-9.29136
Ouest	-9.29137
▁Àngalteer	-9.29138
▁cinq	-9.2914
▁pars	-9.29145
▁Àngale	-9.29146
▁sowu	-9.29152
▁Garab	-9.29167
▁seetlu	-9.2917
▁sànni	-9.29179
▁chaussures	-9.29182
▁ngelaw	-9.29186
▁sedd	-9.29228
▁plaine	-9.2923
irai	-9.2925
▁propos	-9.29399
▁Fan	-9.29409
▁deret	-9.29465
▁Ndar	-9.29488
▁Wut	-9.29554
▁noo	-9.29665
▁saison	-9.29671
▁géej	-9.29682
der	-9.29821
▁teel	-9.29937
me	-9.30003
▁sàkk	-9.30023
▁Fii	-9.30052
▁savoir	-9.3011
▁mets	-9.30184
▁Yaw	-9.30217
▁E	-9.30593
▁wone	-9.30798
▁marche	-9.30852
▁peur	-9.30881
aire	-9.30901
▁duñu	-9.31032
▁blancs	-9.31401
elles	-9.31458
▁Re	-9.31826
▁Quelle	-9.3183
▁niroo	-9.31964
▁Nda	-9.33208
▁Kan	-9.3338
sse	-9.33765
vous	-9.34334
woo	-9.34398
▁yor	-9.34543
▁».	-9.34653
▁xaj	-9.34848
).	-9.34886
▁tekk	-9.35102
▁jéem	-9.35204
▁Foo	-9.35266
Louis	-9.35343
ourquoi	-9.35367
▁façon	-9.35386
▁violence	-9.35386
▁jardin	-9.35387
▁cheveux	-9.35389
▁paaka	-9.35392
exiler	-9.35398
▁dunyaa	-9.354
▁parlait	-9.35406
▁simplement	-9.35413
▁moroom	-9.35415
▁vécu	-9.35427
▁Donne	-9.35428
▁force	-9.35475
▁marse	-9.35478
▁googu	-9.35485
▁Noonu	-9.35491
▁vieille	-9.35509
▁jàmm	-9.35525
▁derrière	-9.35554
▁dàq	-9.35621
▁Kon	-9.35633
▁chien	-9.35658
▁diggu	-9.35661
▁marcher	-9.35684
▁ndey	-9.35694
▁boog	-9.3572
▁demande	-9.35858
▁portent	-9.35884
▁Nga	-9.35904
▁montagnes	-9.36044
▁wuti	-9.36093
▁Sénégal	-9.36186
▁dos	-9.36192
▁fils	-9.36215
▁pluies	-9.36237
▁alal	-9.36256
▁waral	-9.36535
▁neen	-9.36809
ay	-9.36967
▁car	-9.37035
▁Bamenda	-9.37091
▁ciel	-9.3717
▁seule	-9.37187
▁song	-9.37395
▁waaj	-9.37463
▁So	-9.37475
waat	-9.37708
mi	-9.37754
ti	-9.37755
▁villages	-9.37887
▁R	-9.37947
▁appelle	-9.38157
▁dinaa	-9.38237
▁dog	-9.38287
▁froid	-9.38335
▁Amul	-9.38463
▁kay	-9.38653
▁cour	-9.38938
ngeen	-9.39826
▁tire	-9.39994
▁ira	-9.40456
armée	-9.40585
▁fille	-9.40772
ire	-9.40803
▁V	-9.40806
ji	-9.40973
▁tëdd	-9.40976
▁plein	-9.41073
où	-9.41113
▁forme	-9.41159
kër	-9.41164
▁saf	-9.41232
▁affaire	-9.41236
pe	-9.41276
▁feu	-9.41632
aw	-9.41956
▁sac	-9.41979
▁Senegaal	-9.42053
▁xanaa	-9.42053
▁êtes	-9.42053
▁mémoire	-9.42053
▁ëe	-9.42054
▁tefes	-9.42054
▁puits	-9.42054
▁Aucun	-9.42055
▁House	-9.42055
▁ngoon	-9.42058
▁colère	-9.42064
▁sucre	-9.42068
▁noire	-9.42071
▁déglu	-9.42071
▁diiwaan	-9.42072
▁diggante	-9.42074
▁làrme	-9.42084
▁Dëkk	-9.421
▁ragal	-9.42104
▁prendre	-9.42128
▁mbedd	-9.42134
▁làmp	-9.42137
▁kese	-9.42147
▁viens	-9.42152
▁lakk	-9.42155
▁kàddu	-9.4216
▁café	-9.42168
▁mangé	-9.42173
▁salle	-9.42179
▁àgg	-9.42206
▁large	-9.42274
▁ñan	-9.42276
▁depuis	-9.42285
▁tëj	-9.42303
▁foo	-9.42326
▁faisait	-9.42343
▁ňaar	-9.42385
▁xelam	-9.42477
▁fey	-9.42821
▁comment	-9.42854
voir	-9.43197
▁jënd	-9.43214
▁nanu	-9.43239
pp	-9.43345
maa	-9.4364
▁cherche	-9.43685
▁x	-9.43792
▁avais	-9.44011
iez	-9.44017
▁con	-9.44186
▁jur	-9.44235
▁aay	-9.44578
▁table	-9.45019
▁sang	-9.45083
midi	-9.45501
▁wetu	-9.45565
▁ven	-9.45572
ient	-9.4568
portant	-9.45843
▁waxtaan	-9.46022
mu	-9.46216
herbe	-9.46318
▁tour	-9.46528
iers	-9.46564
▁set	-9.46842
▁yar	-9.47161
atum	-9.47273
àkk	-9.47366
▁fukk	-9.47554
▁souvenir	-9.47652
ru	-9.47653
esprit	-9.47709
añoo	-9.47749
▁per	-9.47798
▁garçon	-9.4784
▁fleuve	-9.47845
▁loo	-9.47857
▁chef	-9.47921
▁vienne	-9.47927
▁Par	-9.48077
▁jolie	-9.48096
▁daje	-9.48321
û	-9.48468
tax	-9.4865
▁bouche	-9.48699
▁Nu	-9.48741
▁feeñ	-9.48762
▁woo	-9.48866
▁gan	-9.49082
ku	-9.49156
▁nouveau	-9.49196
▁palais	-9.49196
▁dernier	-9.49196
▁théière	-9.49197
▁présent	-9.49197
▁pantalon	-9.49198
▁samp	-9.49201
▁Peut	-9.49213
▁surtout	-9.49217
▁région	-9.49218
▁voici	-9.49223
▁ëmb	-9.49239
▁toujours	-9.49241
▁màgget	-9.49247
▁appris	-9.49252
▁Yéen	-9.49257
▁nelaw	-9.49264
▁agsi	-9.49278
▁bépp	-9.49278
▁tàll	-9.49293
▁delloo	-9.49308
▁dëgër	-9.49311
▁ventre	-9.49325
▁cuir	-9.49335
▁pain	-9.49369
▁demain	-9.49379
▁feneen	-9.4939
▁Wall	-9.49401
▁tangor	-9.49451
▁Ñii	-9.49452
▁donc	-9.49456
herbes	-9.49466
entre	-9.49468
▁heures	-9.49546
▁gendarmes	-9.49549
▁mépp	-9.49555
▁tubaab	-9.49572
▁dinga	-9.49689
▁avions	-9.49782
▁taxoon	-9.49937
▁laisser	-9.50115
▁masu	-9.50747
bu	-9.50914
▁not	-9.51046
▁partis	-9.51267
wu	-9.5154
▁noirs	-9.51597
▁dessus	-9.51645
▁Tou	-9.51649
àddaay	-9.51706
▁taw	-9.5208
▁won	-9.52092
▁Ki	-9.52197
lo	-9.52233
nd	-9.52246
▁sori	-9.52313
▁jeu	-9.52378
▁vi	-9.5243
éjà	-9.52621
▁tas	-9.52673
▁petite	-9.53072
▁gor	-9.5338
▁Moi	-9.53625
au	-9.53822
▁couleurs	-9.54252
▁coupé	-9.54302
▁bleu	-9.54312
ry	-9.54385
▁séché	-9.54403
▁Bamendaa	-9.54862
▁tere	-9.5491
▁pres	-9.55027
▁connu	-9.55193
▁besoin	-9.55343
tt	-9.55424
▁corde	-9.55476
▁visage	-9.55479
▁chemin	-9.55545
kanam	-9.55755
amour	-9.55761
▁livre	-9.55766
▁ra	-9.55792
gal	-9.55812
▁Gor	-9.55813
urs	-9.55876
qu	-9.55917
toi	-9.55972
us	-9.56046
entré	-9.56124
ici	-9.56144
▁baxa	-9.56554
▁dëkku	-9.56701
▁bakkan	-9.56729
aux	-9.56742
▁gros	-9.56768
▁Aw	-9.56791
▁boubou	-9.56888
▁britannique	-9.56888
▁liberté	-9.56888
▁premier	-9.56888
▁sokolaa	-9.56888
▁wirgo	-9.56888
▁voix	-9.56889
▁reconnais	-9.56889
▁chevaux	-9.56891
▁yuuxu	-9.56891
gànnaar	-9.56892
▁Ndox	-9.56892
▁viande	-9.56895
▁soldaar	-9.56896
▁yit	-9.56899
▁passage	-9.569
▁moins	-9.56904
▁doxandéem	-9.5691
▁Ici	-9.56928
▁Maurice	-9.5693
▁Ibo	-9.56938
▁Frãs	-9.56939
▁côte	-9.56959
▁dugub	-9.56994
▁fanaan	-9.57002
▁travailler	-9.57009
▁dehors	-9.57022
▁tàkk	-9.57027
▁asamaan	-9.5707
▁rek	-9.5708
▁ñaan	-9.57102
▁yëngu	-9.57109
▁fenn	-9.57135
▁mange	-9.57141
▁demkoon	-9.57147
▁beek	-9.57196
▁Léegi	-9.57199
▁Fi	-9.57264
▁compte	-9.57292
▁font	-9.5734
▁Non	-9.57342
▁dents	-9.57374
▁tombé	-9.57479
▁yaw	-9.57507
▁parents	-9.57657
▁seeti	-9.57711
▁taal	-9.57805
▁sortir	-9.58005
fin	-9.58024
▁sonn	-9.5808
▁entré	-9.58084
ras	-9.5825
óor	-9.58492
▁passer	-9.58509
▁ñii	-9.58513
▁Defe	-9.58617
▁xew	-9.58732
▁mêmes	-9.58785
▁waxtu	-9.58956
tam	-9.58959
▁ŋgii	-9.58961
▁Woo	-9.59176
▁Ben	-9.59277
▁Son	-9.59371
▁wute	-9.59414
ique	-9.5955
▁Se	-9.59754
eel	-9.59959
q	-9.59999
▁boole	-9.60203
▁Teg	-9.60408
▁naaj	-9.60554
ewul	-9.60785
▁dalal	-9.61115
▁met	-9.6122
ou	-9.6124
ve	-9.61246
▁w	-9.61473
ure	-9.6149
▁nëbb	-9.61723
▁dayo	-9.61785
▁Saa	-9.61824
▁connais	-9.61826
▁jafe	-9.61906
▁bool	-9.62338
▁lim	-9.6274
▁dig	-9.63048
aime	-9.63058
▁fàttali	-9.63107
▁tan	-9.63347
▁jant	-9.63494
▁carte	-9.63856
▁vache	-9.63885
▁épouse	-9.63892
▁luy	-9.63927
▁vivre	-9.63944
abord	-9.63944
kk	-9.64029
Europe	-9.64043
2	-9.64068
âge	-9.64108
▁wàll	-9.64201
▁année	-9.64231
air	-9.64276
tiir	-9.64281
après	-9.64421
ance	-9.64466
vent	-9.64654
▁toogu	-9.64783
▁vend	-9.64825
een	-9.64863
▁sens	-9.65048
▁ciment	-9.65099
▁xëcc	-9.65113
▁propre	-9.65193
ersonne	-9.65204
▁Prends	-9.65221
▁Moussa	-9.65222
▁brousse	-9.65222
▁ensemble	-9.65222
▁mellentaan	-9.65222
▁pirogue	-9.65222
▁Jésus	-9.65222
▁complète	-9.65222
▁tiim	-9.65224
▁chaleur	-9.65226
saalum	-9.65227
▁borom	-9.65231
▁booba	-9.65238
▁Borom	-9.6524
▁Yéesu	-9.65243
▁gémmiñ	-9.65245
▁xeex	-9.6525
▁venir	-9.6525
▁jéggi	-9.65251
▁weñ	-9.65255
▁boroom	-9.65257
▁naqar	-9.65259
▁Lawbe	-9.6526
▁calebasse	-9.65275
▁Astou	-9.65275
▁puisse	-9.65282
▁Jaam	-9.65283
▁Astu	-9.65312
▁taabal	-9.65323
▁genn	-9.65335
▁fépp	-9.65343
▁bateau	-9.6539
▁lampe	-9.65397
jj	-9.65403
▁loxoom	-9.65405
▁grands	-9.65407
▁parlé	-9.6541
▁Daan	-9.65457
▁po	-9.65476
▁tukki	-9.65492
▁Buur	-9.65571
lli	-9.65582
▁envoyée	-9.65597
▁màggat	-9.65621
▁telle	-9.65969
▁miin	-9.66001
▁mesure	-9.66082
nde	-9.66178
▁Mes	-9.66192
or	-9.6632
▁këram	-9.66427
▁vaches	-9.66591
▁Puis	-9.66615
▁herbes	-9.66682
▁fleuves	-9.6683
▁buum	-9.67076
▁elles	-9.67171
▁wutal	-9.67249
llement	-9.67478
cc	-9.67617
able	-9.67886
▁jeunes	-9.68005
▁kaa	-9.6811
▁bett	-9.68165
▁porter	-9.68247
▁génne	-9.68569
▁San	-9.68911
▁cere	-9.69052
▁téye	-9.69587
tal	-9.69703
▁laisse	-9.69796
ju	-9.70282
▁fasse	-9.70286
gré	-9.70362
▁natte	-9.70424
agit	-9.70549
▁tund	-9.70613
▁Ri	-9.70856
▁égarée	-9.70933
▁fourn	-9.71092
▁chasse	-9.71231
▁tur	-9.71443
part	-9.71554
▁ex	-9.71638
▁commence	-9.7234
ba	-9.72563
▁chemise	-9.72601
▁singe	-9.72605
▁baobab	-9.72605
▁ru	-9.7261
ole	-9.72641
▁gise	-9.72648
euse	-9.72771
▁fort	-9.72807
kati	-9.72811
▁conçue	-9.72826
os	-9.72851
▁nopp	-9.72872
▁fee	-9.72943
vec	-9.72953
▁pot	-9.73093
ois	-9.73171
aurais	-9.73209
instant	-9.73219
▁jën	-9.73225
Ogoja	-9.73244
▁sorti	-9.73505
▁Koo	-9.73685
ch	-9.73707
▁Dina	-9.73733
▁fecc	-9.73785
▁pense	-9.73862
▁baaraam	-9.73864
▁goût	-9.73983
gis	-9.73989
▁ñett	-9.74021
▁woy	-9.74111
rait	-9.74137
▁palanteer	-9.74152
▁jén	-9.74163
▁partira	-9.7417
▁I	-9.74174
▁morceau	-9.74275
▁retour	-9.74293
▁Apporte	-9.74312
▁Guwiyaan	-9.74312
▁Homme	-9.74312
▁fête	-9.74312
▁prochain	-9.74312
▁yëkkati	-9.74312
▁élevé	-9.74312
▁lumière	-9.74312
▁apporté	-9.74313
▁visite	-9.74313
▁Guyane	-9.74313
▁peine	-9.74313
▁silence	-9.74313
▁Xammee	-9.74313
zone	-9.74314
▁vérité	-9.74314
▁màngo	-9.74315
▁pouvoir	-9.74316
▁cosaan	-9.74316
▁Moonte	-9.74317
▁ndab	-9.74318
▁rawati	-9.74319
étai	-9.74321
▁dekkali	-9.74322
▁sauce	-9.74325
▁simis	-9.74336
▁jëfandikoo	-9.74336
▁denc	-9.74337
▁yokk	-9.74337
▁dénd	-9.74339
▁wépp	-9.74344
▁damm	-9.74359
▁poste	-9.74367
▁journée	-9.74378
▁toogukaay	-9.7438
▁yéeg	-9.74388
▁sabar	-9.74427
▁coucher	-9.74428
▁kilifa	-9.74439
importe	-9.74451
▁soow	-9.74463
▁courant	-9.74465
▁ré	-9.74469
▁ràbb	-9.74471
▁bekk	-9.74479
▁démb	-9.74487
▁Sunu	-9.74545
▁dinañu	-9.74574
imagine	-9.74578
▁retraite	-9.74585
▁yenu	-9.74604
▁jege	-9.74613
▁metit	-9.74614
▁rëdd	-9.74647
▁jotee	-9.74725
▁manque	-9.74738
▁arbre	-9.74764
▁queue	-9.74782
▁ëllëg	-9.74787
▁mucc	-9.74788
▁dajale	-9.748
▁pourra	-9.75012
▁waroon	-9.75031
▁pierres	-9.75032
▁njiit	-9.75101
▁Ñaar	-9.75128
▁unique	-9.75194
▁fruits	-9.75293
arrête	-9.75295
▁sew	-9.75409
▁Sud	-9.75524
eelu	-9.75613
▁gisee	-9.75669
too	-9.75872
kki	-9.76015
▁garçons	-9.76082
▁meloon	-9.76153
▁devenu	-9.76248
▁nekkoon	-9.764
sin	-9.76639
▁diis	-9.76675
▁ñaa	-9.7696
▁kon	-9.76976
▁yàqu	-9.77346
ture	-9.7748
▁tóo	-9.77707
▁defee	-9.77831
▁Liggéey	-9.77873
▁jàll	-9.78072
▁xéy	-9.78269
▁cases	-9.78313
lon	-9.78361
anaam	-9.78476
ag	-9.78636
vient	-9.78643
▁yab	-9.78754
eer	-9.78861
▁bëre	-9.79005
▁sou	-9.79176
▁wii	-9.7928
▁tué	-9.79294
gaa	-9.79388
▁nan	-9.79472
ter	-9.79828
▁teen	-9.79961
▁toj	-9.80119
mbaar	-9.80148
▁Ya	-9.80629
▁tay	-9.80758
oom	-9.80762
▁noon	-9.80818
▁wan	-9.80909
ème	-9.80928
ngi	-9.81535
▁tam	-9.81564
▁jaam	-9.8158
▁coupe	-9.81616
▁for	-9.81752
▁cassé	-9.81818
urno	-9.81845
eŋ	-9.81866
▁habit	-9.8198
▁rend	-9.82057
▁mar	-9.82208
im	-9.82487
ka	-9.82578
▁sûr	-9.82604
aube	-9.82789
▁jékk	-9.82791
▁kook	-9.82809
▁maladie	-9.82838
▁scorpion	-9.82893
école	-9.83099
impression	-9.83139
endroit	-9.8324
aar	-9.83311
réer	-9.83359
▁aar	-9.83466
ànd	-9.83557
illes	-9.83764
▁rue	-9.83832
▁xob	-9.83912
fukk	-9.83913
▁Comme	-9.83963
▁instant	-9.84074
▁féex	-9.84123
▁indi	-9.8416
oivent	-9.84284
▁askan	-9.84295
▁yegg	-9.84303
▁Laisse	-9.84305
▁Wolof	-9.84312
▁commencé	-9.84312
▁xàmmee	-9.84312
▁Êt	-9.84312
▁Appelle	-9.84312
▁chacun	-9.84312
▁difficile	-9.84313
▁subë	-9.84313
▁comport	-9.84313
▁pañe	-9.84313
▁reconnu	-9.84313
▁Sérère	-9.84314
▁ñor	-9.84316
▁mbóot	-9.84319
▁Nord	-9.8432
▁parfois	-9.84321
▁janook	-9.84323
▁serpent	-9.84326
▁wow	-9.84328
▁mburu	-9.84334
▁Fatim	-9.84336
▁Musaa	-9.84341
▁màndi	-9.84341
▁partout	-9.84343
▁pourquoi	-9.84343
▁réunion	-9.84343
▁sentiment	-9.84344
▁xuus	-9.8435
▁ceinture	-9.84351
▁juste	-9.84353
▁gerte	-9.84356
▁wér	-9.84357
▁fût	-9.84361
▁fetal	-9.84371
▁séy	-9.84375
▁francs	-9.84397
▁sàmm	-9.84412
▁nawet	-9.84419
▁Danu	-9.84435
▁panier	-9.84456
▁assez	-9.84464
▁battu	-9.84501
▁Toi	-9.84506
▁yëf	-9.84509
▁pourtant	-9.84521
▁jouer	-9.84528
▁njaay	-9.84546
▁chaise	-9.84554
ta	-9.84728
▁viennent	-9.84757
▁ndànk	-9.84759
▁taille	-9.84799
▁dég	-9.84842
▁bëy	-9.84845
▁laver	-9.85029
▁chercher	-9.85117
entendre	-9.85165
▁cours	-9.85236
▁joor	-9.85256
▁taxul	-9.85291
▁dër	-9.85336
▁ras	-9.85385
use	-9.85454
▁mb	-9.85552
saŋ	-9.85556
▁hautes	-9.85583
▁br	-9.85588
▁bëggoon	-9.8571
▁natt	-9.86078
tés	-9.8627
▁ceci	-9.86293
▁bes	-9.86373
▁Doo	-9.86663
▁bo	-9.86707
▁neneen	-9.8678
▁tomber	-9.86886
▁liggéeye	-9.86888
bët	-9.8703
▁xamoon	-9.87125
▁bor	-9.87224
▁couper	-9.87231
óon	-9.87349
exe	-9.87466
▁garabi	-9.87605
▁partes	-9.8763
▁eû	-9.87716
▁plant	-9.87954
▁gas	-9.88228
no	-9.88262
xam	-9.88339
▁routes	-9.88945
▁trouver	-9.88949
▁alla	-9.89055
▁charge	-9.89238
▁suffi	-9.89341
▁Vas	-9.89482
agul	-9.895
▁jar	-9.89514
▁yax	-9.89707
▁Ou	-9.89714
▁sor	-9.89977
ok	-9.89986
quelles	-9.90081
taal	-9.90158
▁fall	-9.90257
ts	-9.90428
▁Bii	-9.90821
onne	-9.9084
▁doxe	-9.90917
p	-9.9102
▁jou	-9.91445
▁entier	-9.91539
▁gardé	-9.91564
▁cherch	-9.91907
▁ñëwul	-9.9221
▁booy	-9.92315
ëkk	-9.92406
▁yóbb	-9.92566
oor	-9.9263
góor	-9.92676
▁désert	-9.92741
ëf	-9.92884
▁bale	-9.93242
▁rêve	-9.93312
▁regarde	-9.93474
▁pouvai	-9.93628
▁tombe	-9.9366
▁poule	-9.93764
▁Xe	-9.94043
laay	-9.94103
▁pluie	-9.94113
▁droit	-9.94243
▁vaut	-9.94243
▁donner	-9.94293
vant	-9.9433
▁pënd	-9.94356
▁entendu	-9.94392
▁étranger	-9.94434
garde	-9.94456
▁fur	-9.94714
▁Ñoo	-9.94777
▁bànneex	-9.94863
▁soxla	-9.9493
▁nja	-9.94952
▁Bàyyil	-9.94989
ier	-9.95109
▁fit	-9.95142
dire	-9.95165
ande	-9.95238
▁arriva	-9.95259
▁jëkkër	-9.95284
Angleterre	-9.95424
alcool	-9.95424
▁Biyaafaraa	-9.95424
▁Casamance	-9.95424
▁Déedéet	-9.95424
▁Jamono	-9.95424
▁assurément	-9.95424
▁jamano	-9.95424
▁lëndëm	-9.95424
▁offert	-9.95424
▁société	-9.95424
▁tubéy	-9.95424
▁wëndéelu	-9.95424
▁toppatoo	-9.95424
▁Ainsi	-9.95424
▁juddoo	-9.95424
▁wolof	-9.95424
▁puissance	-9.95424
▁libre	-9.95425
▁mbokk	-9.95425
▁Dakar	-9.95426
▁varan	-9.95426
▁bomb	-9.95427
▁picc	-9.95427
▁Almaañ	-9.95427
▁Réew	-9.95428
▁Viens	-9.95428
▁banqaas	-9.95429
▁Monsieur	-9.95431
▁mariage	-9.95431
▁wanag	-9.95432
▁Pourtant	-9.95435
▁baraada	-9.95438
▁jaŋg	-9.95443
▁resté	-9.95444
▁frontière	-9.95446
▁bërëb	-9.95447
▁Dëgg	-9.95449
▁départ	-9.95449
▁ŋgoon	-9.95453
▁Xaw	-9.95455
▁bënn	-9.95464
▁bëñ	-9.95464
▁morceaux	-9.95469
▁savane	-9.95471
▁Teewul	-9.95472
▁ndigg	-9.95483
▁seetaan	-9.95485
▁féete	-9.95486
▁proche	-9.95489
▁woowe	-9.95496
▁sèche	-9.95497
▁xorom	-9.95498
▁malade	-9.95498
▁raxas	-9.95501
▁trouvé	-9.9551
▁étions	-9.95517
▁cercle	-9.95561
▁Niis	-9.95589
▁Noona	-9.95616
▁yàpp	-9.95631
▁Plu	-9.95667
▁objets	-9.95671
▁meubles	-9.95672
▁sëkk	-9.95695
▁waañ	-9.95709
▁rappelle	-9.95712
▁clé	-9.95718
mb	-9.95719
▁poudre	-9.95749
▁insectes	-9.95759
▁bouillie	-9.95759
liers	-9.95765
▁Dégg	-9.9577
▁déggoo	-9.95787
▁nature	-9.95798
▁relations	-9.95835
▁fleurs	-9.9584
▁dënnu	-9.95848
▁gisaat	-9.95882
▁enfance	-9.95888
▁ñooñu	-9.95897
▁dirait	-9.95902
▁boy	-9.9591
▁nul	-9.95934
▁ëtt	-9.95934
▁sable	-9.9594
▁rendu	-9.95941
▁allait	-9.95956
▁baree	-9.95975
▁rage	-9.96
▁monter	-9.96009
éeri	-9.96011
▁Léeg	-9.96048
▁lieux	-9.96109
▁kowam	-9.96125
▁jambes	-9.96158
▁tar	-9.96169
▁balle	-9.96186
▁époque	-9.96282
▁yéene	-9.96321
▁six	-9.96338
▁doomam	-9.9643
▁bâtons	-9.96485
▁médicaments	-9.96485
▁tontu	-9.96493
▁bula	-9.96515
▁sii	-9.96515
▁gënoon	-9.96558
▁juróomi	-9.96564
▁rab	-9.96703
▁Wu	-9.96708
ga	-9.96798
▁jaune	-9.96812
sait	-9.96817
▁accroché	-9.96868
▁muus	-9.96922
▁âge	-9.96951
▁digg	-9.97061
▁diir	-9.97093
▁souffle	-9.9731
▁defare	-9.97382
kom	-9.97413
▁viennes	-9.97641
▁woowu	-9.97744
fi	-9.97786
▁é	-9.98018
▁nez	-9.98023
▁Mari	-9.98058
▁mbub	-9.9816
▁naaw	-9.98287
▁Tay	-9.9829
▁ét	-9.98541
tant	-9.98541
▁biens	-9.98556
▁ferme	-9.98561
nie	-9.98741
▁Ces	-9.98783
rent	-9.98785
gé	-9.98967
▁Alma	-9.99197
▁sañ	-9.99279
▁amee	-10.0009
▁dure	-10.0013
tti	-10.0022
▁coups	-10.0034
ro	-10.0045
▁poissons	-10.0064
▁mois	-10.0073
▁chat	-10.0084
▁Dañ	-10.0129
dé	-10.0131
▁dab	-10.0138
▁sago	-10.0149
gue	-10.0157
▁vide	-10.0161
ool	-10.017
▁taat	-10.0178
quel	-10.0192
▁réewu	-10.0196
▁faite	-10.0206
▁rempli	-10.0213
▁donn	-10.0238
▁cat	-10.0253
▁ber	-10.0273
▁maanaa	-10.0273
▁sab	-10.0301
ulli	-10.0337
▁dë	-10.0352
▁fil	-10.0354
▁ati	-10.0366
▁yat	-10.037
▁venus	-10.0394
▁gris	-10.0397
▁boot	-10.0398
▁diw	-10.0399
▁court	-10.0403
▁kee	-10.0424
▁bas	-10.0462
▁pé	-10.0478
âne	-10.0495
uf	-10.0511
cation	-10.0528
▁teew	-10.0528
▁jóg	-10.0533
▁jàngal	-10.0558
ëpp	-10.0563
▁aime	-10.0581
àll	-10.0586
aak	-10.06
▁vrai	-10.0615
▁sopp	-10.0625
jaan	-10.0637
abri	-10.0641
▁maître	-10.0646
▁chèvre	-10.0651
géej	-10.0652
▁tant	-10.0652
▁fruit	-10.0657
▁branche	-10.066
ari	-10.0664
▁montagne	-10.0667
▁sel	-10.0669
▁africain	-10.0682
aventure	-10.0684
affaire	-10.0685
▁saak	-10.069
dëgg	-10.0693
réew	-10.0703
▁tiit	-10.0712
▁yeew	-10.0728
▁pos	-10.073
gisu	-10.0732
aura	-10.0737
▁dënn	-10.0739
ie	-10.0749
benn	-10.075
jant	-10.0752
▁Doom	-10.0764
▁trou	-10.0768
▁goog	-10.0769
wi	-10.077
▁cons	-10.0773
▁reer	-10.0775
▁yilif	-10.0777
▁më	-10.0782
▁rapide	-10.0785
▁légère	-10.0786
▁chocolat	-10.0788
▁Éta	-10.0792
odeur	-10.0792
▁boeuf	-10.0792
▁Laobé	-10.0792
▁Legoos	-10.0792
▁Victoria	-10.0792
▁adulte	-10.0792
▁chaussettes	-10.0792
▁cœur	-10.0792
▁ensuite	-10.0792
▁kéemaane	-10.0792
▁marmite	-10.0792
▁mourir	-10.0792
▁préparé	-10.0792
▁hutte	-10.0792
▁terrain	-10.0792
▁magasin	-10.0792
▁Arrête	-10.0792
▁wurus	-10.0792
▁sanc	-10.0792
▁trente	-10.0792
▁ndaje	-10.0793
▁gàncax	-10.0793
▁keroog	-10.0793
▁rëcc	-10.0793
▁njariñ	-10.0793
▁construction	-10.0793
▁également	-10.0793
▁Combi	-10.0793
▁janeer	-10.0793
▁campement	-10.0793
▁ganaar	-10.0793
▁yëngal	-10.0793
▁palaat	-10.0794
argile	-10.0794
▁Fekk	-10.0794
▁douceur	-10.0794
▁morom	-10.0794
▁servir	-10.0794
▁sotti	-10.0794
▁fitna	-10.0795
▁gazelle	-10.0795
▁Officer	-10.0795
▁foofa	-10.0795
▁appelé	-10.0796
▁dernière	-10.0796
▁coeur	-10.0796
hez	-10.0796
▁Rax	-10.0796
▁prière	-10.0797
▁jànq	-10.0797
▁cuit	-10.0799
▁soxna	-10.0799
▁essay	-10.0799
▁coow	-10.08
▁animaux	-10.0801
▁Mbir	-10.0802
▁fajkat	-10.0802
▁nuages	-10.0803
▁choisi	-10.0803
▁remis	-10.0803
▁jàppale	-10.0804
▁mise	-10.0806
▁riir	-10.0807
▁kukk	-10.0808
indépendance	-10.0812
▁mettra	-10.0813
▁grosse	-10.0814
▁éclat	-10.0815
▁soosu	-10.0816
▁néew	-10.0817
▁daaneel	-10.0817
▁serais	-10.0819
usqu	-10.082
▁Bala	-10.082
▁Nice	-10.0822
image	-10.0825
▁Bëy	-10.0826
▁Kookule	-10.0826
▁reçu	-10.0826
▁wor	-10.0829
▁naissance	-10.083
▁séq	-10.083
▁raconter	-10.0831
▁attenti	-10.0835
▁soppi	-10.0839
lé	-10.0841
▁histoire	-10.0845
▁Bët	-10.0845
▁fou	-10.0845
▁baayam	-10.0847
▁danu	-10.0847
▁jaa	-10.085
▁gejje	-10.0851
▁suite	-10.0851
▁sës	-10.0852
bi	-10.086
vez	-10.0864
tey	-10.0867
▁gàttal	-10.0868
▁kafe	-10.0868
istrict	-10.0869
▁dawal	-10.0873
▁dootul	-10.0874
▁regarder	-10.0874
▁sauvages	-10.0876
▁bëggée	-10.0878
▁Ñi	-10.0882
▁individu	-10.089
▁baaxul	-10.0894
▁biral	-10.0895
▁raay	-10.0897
▁darab	-10.0898
▁Mënuma	-10.0899
espère	-10.0904
▁troupeau	-10.0905
co	-10.0914
▁tàmm	-10.0926
▁taamu	-10.0931
▁bel	-10.0942
▁souri	-10.0951
sant	-10.0955
entend	-10.0957
aurait	-10.0962
▁Bunt	-10.0976
▁No	-10.0979
▁ŋ	-10.0984
▁dur	-10.0986
èrent	-10.0992
ooy	-10.0994
▁coono	-10.1032
▁naat	-10.1036
▁be	-10.1041
▁dexu	-10.1047
▁affaires	-10.1064
▁filles	-10.1071
▁forte	-10.1072
▁pa	-10.1073
ca	-10.1075
▁v	-10.1078
▁At	-10.1104
▁we	-10.1107
▁noms	-10.1108
▁Ka	-10.1142
▁të	-10.1143
▁conti	-10.1146
ét	-10.1147
▁dugal	-10.1149
▁yàq	-10.1155
▁waar	-10.1155
▁arrivés	-10.1156
▁waxoon	-10.1157
▁ñeme	-10.1172
▁bëtt	-10.1174
▁gale	-10.1176
be	-10.1198
▁march	-10.1204
▁boue	-10.1209
▁Jo	-10.121
▁max	-10.125
▁inter	-10.1259
▁As	-10.126
▁soog	-10.1281
▁siiw	-10.1281
▁fale	-10.1322
▁port	-10.1331
▁mbaar	-10.1344
▁kaas	-10.1363
▁pri	-10.137
▁kowe	-10.1394
app	-10.1395
▁Mas	-10.1395
près	-10.1415
▁photos	-10.1428
aayu	-10.1441
▁Mënul	-10.1458
▁fera	-10.1496
▁plan	-10.1506
▁connaît	-10.1521
óo	-10.1521
▁sub	-10.1535
▁Yo	-10.1548
▁Bon	-10.1549
▁cru	-10.1554
▁sonal	-10.1557
▁cee	-10.1567
nn	-10.1569
▁yég	-10.1573
▁Ren	-10.1583
ré	-10.1597
▁mës	-10.1612
ler	-10.1628
rément	-10.1666
ñeen	-10.1674
endant	-10.1696
aj	-10.1733
▁sain	-10.1735
waan	-10.1777
▁ser	-10.1777
▁pourrai	-10.1791
ule	-10.1832
▁coll	-10.1836
nce	-10.1847
▁exc	-10.1862
mam	-10.1869
kaay	-10.1874
▁jan	-10.1888
▁fume	-10.1892
écart	-10.1902
▁fekke	-10.1903
▁Gë	-10.1919
▁mala	-10.1941
àcc	-10.1987
appelle	-10.1987
▁buñ	-10.1996
▁français	-10.201
▁hui	-10.2025
ge	-10.2028
wuma	-10.2047
▁domaine	-10.205
▁drap	-10.2067
▁refuse	-10.2076
▁dessin	-10.2084
▁médicament	-10.2084
▁bâton	-10.2084
▁fenêtre	-10.2086
enti	-10.2089
autorité	-10.2093
▁pom	-10.2098
ard	-10.2105
individu	-10.2109
époque	-10.211
▁caaxaan	-10.2117
▁joli	-10.2117
▁ro	-10.2131
waar	-10.2134
▁fóot	-10.2137
▁tày	-10.2152
▁lesquel	-10.2155
ins	-10.2158
ňu	-10.2163
▁fen	-10.2172
▁profit	-10.2173
▁cor	-10.2181
béer	-10.2185
▁vit	-10.2199
▁gaañ	-10.2201
▁muur	-10.2207
▁léeb	-10.2207
▁lonk	-10.2208
▁jàkk	-10.2213
▁Xare	-10.2214
▁répond	-10.2214
▁simple	-10.2215
▁Indi	-10.2216
▁dirige	-10.2219
▁chapeau	-10.2219
▁wiy	-10.2219
▁Ho	-10.222
▁Ayijoo	-10.2221
▁Maintenant	-10.2221
▁Mecque	-10.2221
▁Prophète	-10.2221
▁bonheur	-10.2221
▁gouvernement	-10.2221
▁immense	-10.2221
▁jànj	-10.2221
▁loppitaan	-10.2221
▁màndarga	-10.2221
▁période	-10.2221
▁rêvé	-10.2221
▁sukkuraat	-10.2221
▁tôle	-10.2221
▁Óbudu	-10.2221
▁époux	-10.2221
▁Achète	-10.2221
▁meilleur	-10.2221
▁màrse	-10.2221
▁renversé	-10.2221
▁Deŋk	-10.2221
▁Waxtaan	-10.2221
▁excessive	-10.2221
▁talisman	-10.2221
extérieur	-10.2221
▁commun	-10.2221
▁bruit	-10.2221
▁contact	-10.2221
▁plaît	-10.2221
▁poussière	-10.2221
▁xibaar	-10.2221
▁rideau	-10.2221
▁suukër	-10.2221
▁compris	-10.2221
▁Tabaski	-10.2221
▁piège	-10.2221
▁Guddi	-10.2221
▁pagne	-10.2221
▁Yaakaar	-10.2221
▁caabi	-10.2221
▁docteur	-10.2221
▁bâtiment	-10.2221
▁gunge	-10.2221
▁réalité	-10.2221
▁dóomu	-10.2221
▁yànj	-10.2221
▁Palais	-10.2221
▁travailleurs	-10.2221
▁plage	-10.2222
▁peinture	-10.2222
▁plateaux	-10.2222
▁solitude	-10.2222
▁doj	-10.2222
▁simoŋ	-10.2222
▁écrit	-10.2222
▁comprendre	-10.2222
▁daŋar	-10.2222
▁Bokk	-10.2222
▁connaissais	-10.2223
▁images	-10.2223
▁Pose	-10.2223
▁yeksi	-10.2223
▁toilettes	-10.2223
▁tàgg	-10.2223
▁mbagg	-10.2224
▁gox	-10.2224
▁langue	-10.2225
▁Booba	-10.2225
▁goro	-10.2225
▁raglu	-10.2225
▁làq	-10.2225
▁début	-10.2225
▁courir	-10.2227
▁fatt	-10.2227
▁commerce	-10.2228
▁gëléem	-10.2228
▁rythme	-10.2229
▁dirigeant	-10.2229
▁000	-10.2231
▁vingt	-10.2231
▁vêtu	-10.2231
▁battre	-10.2231
▁tëgg	-10.2231
▁gàddaay	-10.2233
▁termites	-10.2233
▁Pël	-10.2233
▁thé	-10.2234
▁Ayaa	-10.2235
ndey	-10.2237
Meew	-10.2237
▁foyer	-10.2238
▁naqadi	-10.2239
▁retrouve	-10.2241
▁alkaati	-10.2243
▁voulu	-10.2243
▁moto	-10.2244
▁beaux	-10.2245
▁porteurs	-10.2246
▁taaru	-10.2246
▁jeeg	-10.2246
▁cacher	-10.2246
▁pay	-10.2249
▁Dagg	-10.225
▁ňuul	-10.2253
▁oreilles	-10.2254
▁arrêté	-10.2254
▁prêt	-10.2255
▁rencontrer	-10.2256
▁déet	-10.2263
▁raconte	-10.2265
▁Foofu	-10.2265
▁cëpp	-10.2266
▁julli	-10.2271
▁santé	-10.2273
▁Doomu	-10.2275
▁Nj	-10.2276
▁réunis	-10.2278
▁àngale	-10.2278
▁moy	-10.2278
▁wetam	-10.228
▁idée	-10.2281
▁arraché	-10.2285
▁neexul	-10.2285
▁xoolee	-10.2286
▁gëdd	-10.2286
▁daawu	-10.2289
▁mbaam	-10.229
▁tàngal	-10.229
▁dëj	-10.2291
▁xobi	-10.2291
▁vaste	-10.2292
▁seng	-10.2295
▁palmes	-10.2297
▁hier	-10.2303
▁anglaise	-10.2304
▁daawul	-10.2304
▁xat	-10.2304
ra	-10.2308
▁xaritam	-10.2309
▁Yoon	-10.231
▁district	-10.2311
▁sommet	-10.2313
▁mukk	-10.2313
▁provi	-10.2316
▁paroles	-10.2319
▁feeñu	-10.232
▁attends	-10.2324
▁soup	-10.233
▁autrement	-10.2331
▁lëf	-10.2332
▁vite	-10.2334
▁fuir	-10.234
▁chant	-10.234
àpp	-10.234
▁Dikk	-10.2345
ànk	-10.2345
▁yaayam	-10.2354
▁geen	-10.2356
▁yaak	-10.236
▁Parle	-10.236
lal	-10.236
▁fenêtres	-10.2362
ières	-10.2367
▁wane	-10.2371
▁Nag	-10.2372
▁rendi	-10.2374
▁croyai	-10.2382
▁branches	-10.2385
aanaka	-10.2395
▁agsee	-10.2396
▁Diw	-10.24
▁coloniale	-10.2404
▁crise	-10.2407
▁aurais	-10.2426
▁mbal	-10.243
▁française	-10.2436
▁al	-10.2437
▁Mag	-10.2445
▁regardes	-10.2447
▁col	-10.2453
▁certaine	-10.2453
▁tëb	-10.246
▁mënee	-10.2483
▁wàccee	-10.2484
▁Abal	-10.2484
▁tànki	-10.2486
▁haute	-10.2492
▁chemins	-10.2494
▁El	-10.2498
uwaay	-10.2508
mine	-10.2522
▁ha	-10.2527
▁Ñe	-10.2536
▁Ñàkku	-10.2542
▁suma	-10.2552
▁commencer	-10.2557
ica	-10.2567
▁tôt	-10.2585
▁trait	-10.2591
▁finir	-10.2594
▁Yan	-10.26
▁cu	-10.2603
aate	-10.2614
▁àtte	-10.2645
▁premières	-10.2649
▁champs	-10.2671
tique	-10.2689
niki	-10.2691
▁entrai	-10.2695
▁monte	-10.2695
▁abal	-10.2703
eñ	-10.2715
▁ub	-10.2715
▁Booy	-10.2728
▁masuma	-10.2778
lle	-10.2794
▁armé	-10.2806
ndi	-10.2808
▁Car	-10.2821
▁jógee	-10.2822
▁Lui	-10.2839
▁pis	-10.2857
aru	-10.2857
▁wuy	-10.2876
jeune	-10.2891
▁taax	-10.2903
▁ñooña	-10.2907
llions	-10.2921
▁cent	-10.2932
▁Leur	-10.295
wee	-10.2954
▁oui	-10.2966
▁ment	-10.2976
ans	-10.2976
aide	-10.2977
▁quitte	-10.3003
atim	-10.3009
tation	-10.3053
raas	-10.3058
ion	-10.3067
▁cré	-10.3067
▁Kor	-10.3098
▁kàttan	-10.3107
▁trans	-10.3108
▁faf	-10.312
▁lenn	-10.3124
▁dëppoo	-10.3139
▁bul	-10.3143
▁Ko	-10.3145
sa	-10.3146
▁clair	-10.3151
▁daaw	-10.3169
▁Ara	-10.318
avant	-10.3204
ngui	-10.321
▁ñaw	-10.322
▁Yé	-10.3239
ŋŋ	-10.3239
▁arrivée	-10.3241
▁bassin	-10.3241
été	-10.3242
▁Toute	-10.3243
▁bal	-10.3243
ttes	-10.3251
▁outil	-10.3267
▁gëm	-10.3315
▁Daaw	-10.3324
ëddu	-10.3337
▁nguur	-10.339
▁serv	-10.3403
▁cr	-10.3411
▁venue	-10.3417
tions	-10.3421
ab	-10.3431
▁Daŋg	-10.3442
jo	-10.345
▁entra	-10.3455
aatu	-10.3466
▁utilise	-10.3469
rie	-10.3471
naka	-10.3493
▁ñibbi	-10.3494
▁ch	-10.3501
▁baña	-10.3501
mmal	-10.351
▁faar	-10.3517
▁Mar	-10.355
ulwoon	-10.3566
boo	-10.3592
▁destin	-10.3598
▁différent	-10.3612
▁jë	-10.3617
▁nañoo	-10.3621
iques	-10.3648
▁Gan	-10.365
▁siy	-10.3652
▁aj	-10.3653
▁ressembl	-10.3655
▁sell	-10.366
▁dés	-10.3662
war	-10.3696
▁wàcc	-10.371
▁règle	-10.3717
lève	-10.3728
▁tambour	-10.3733
▁brave	-10.3734
▁chang	-10.3745
▁doigt	-10.3747
▁pareil	-10.3747
▁policier	-10.3747
oeil	-10.3748
oiseau	-10.3749
▁pierre	-10.3752
avion	-10.3755
attend	-10.3759
autrefois	-10.3761
dolli	-10.3761
heure	-10.3768
▁ger	-10.377
▁colonial	-10.377
jékk	-10.3774
▁ouvert	-10.3775
▁craint	-10.3778
ñax	-10.378
O	-10.3781
▁Port	-10.3783
ève	-10.3786
▁humain	-10.379
▁chaud	-10.379
▁anglais	-10.3791
kku	-10.3806
▁ren	-10.382
▁gànnaay	-10.3831
nk	-10.3833
▁calme	-10.3838
▁waxe	-10.3839
epuis	-10.3841
errière	-10.3841
▁reç	-10.3842
▁prépare	-10.3846
▁Baax	-10.385
▁mur	-10.3851
▁sér	-10.3852
▁ressenti	-10.3862
▁africaine	-10.3866
▁dakk	-10.387
og	-10.3871
oto	-10.388
çant	-10.3884
eaucoup	-10.3885
0	-10.3886
▁Certain	-10.3886
▁front	-10.3886
00	-10.3887
▁circoncis	-10.3887
8	-10.3887
▁douce	-10.3887
Abakaliki	-10.3888
▁Mellentaan	-10.3888
▁Wiktoryaa	-10.3888
▁accompagné	-10.3888
▁auparavant	-10.3888
▁baptême	-10.3888
▁dëggëntaan	-10.3888
▁enceinte	-10.3888
▁fonction	-10.3888
▁grâce	-10.3888
▁kàllaama	-10.3888
▁officer	-10.3888
▁petorool	-10.3888
▁ponkal	-10.3888
▁possible	-10.3888
▁proximité	-10.3888
▁présence	-10.3888
▁recherche	-10.3888
▁ressens	-10.3888
▁territoire	-10.3888
▁veulent	-10.3888
▁beurre	-10.3888
▁projet	-10.3888
▁tamarin	-10.3888
▁tronc	-10.3888
▁Lagos	-10.3888
▁allez	-10.3888
▁Moytul	-10.3888
▁xayma	-10.3888
▁Picc	-10.3888
▁décidé	-10.3888
▁mosquée	-10.3888
▁nàññ	-10.3888
▁manguier	-10.3888
▁ndeysaan	-10.3888
▁poitrine	-10.3888
▁Chacun	-10.3888
▁métier	-10.3888
▁nourriture	-10.3888
▁Quoi	-10.3888
arrière	-10.3888
▁Gannaaw	-10.3888
▁facile	-10.3888
▁vaisselle	-10.3888
▁compos	-10.3888
▁sec	-10.3888
▁Gaynd	-10.3888
▁fowukaay	-10.3888
▁dëll	-10.3888
▁condition	-10.3888
▁Africains	-10.3888
▁tubay	-10.3888
▁capable	-10.3888
▁golo	-10.3888
▁lièvre	-10.3889
▁revenir	-10.3889
▁paille	-10.3889
▁jaxasoo	-10.3889
▁ngëlén	-10.3889
▁boq	-10.3889
▁gauche	-10.3889
▁géew	-10.3889
▁caisse	-10.3889
▁werante	-10.3889
▁camp	-10.3889
▁rakk	-10.3889
▁wéet	-10.3889
▁semaine	-10.389
▁lonet	-10.389
▁interdit	-10.389
▁gumba	-10.3891
▁travaillé	-10.3891
▁dimbali	-10.3891
▁frais	-10.3891
▁jumtukaay	-10.3892
▁wex	-10.3892
▁Ndakaaru	-10.3892
▁serré	-10.3893
▁ayib	-10.3893
▁chocolatée	-10.3893
▁Tugël	-10.3894
▁doxantu	-10.3894
▁meňň	-10.3894
▁cofeel	-10.3896
▁njabootam	-10.3896
▁màtt	-10.3896
▁certainement	-10.3896
▁connaissent	-10.3897
udra	-10.3897
▁fuuf	-10.3898
▁Kaay	-10.3898
▁Obudu	-10.3899
▁gërëm	-10.39
▁Ganaar	-10.39
▁quatre	-10.3901
▁demandé	-10.3901
▁habitants	-10.3902
▁grains	-10.3902
▁portait	-10.3902
▁kayit	-10.3902
▁sauve	-10.3904
▁oncle	-10.3904
▁quitté	-10.3906
rez	-10.3907
▁Jënd	-10.3907
▁voisins	-10.3907
▁Coupe	-10.3908
aillé	-10.3909
▁voudrai	-10.3909
▁gàddu	-10.3909
▁gajj	-10.391
▁Ind	-10.3911
▁mariée	-10.3911
▁dof	-10.3911
▁Jàpp	-10.3912
uukar	-10.3914
▁yëre	-10.3915
▁foq	-10.3916
▁nijaay	-10.3916
ëg	-10.3917
▁yéemu	-10.3918
▁Force	-10.3918
▁dékku	-10.3919
▁honnête	-10.3919
▁xur	-10.392
▁sàcc	-10.3921
▁Vers	-10.3921
▁surga	-10.3922
▁pleurer	-10.3924
▁Dana	-10.3925
éej	-10.3927
▁kawas	-10.3928
▁tàngaay	-10.393
▁Noo	-10.3931
▁tient	-10.3933
▁existe	-10.3933
▁comprends	-10.3935
▁construi	-10.394
eket	-10.3941
▁tolloo	-10.3941
▁Bëgguma	-10.3945
▁courses	-10.3946
▁daŋ	-10.3946
▁ressentir	-10.3952
▁militaires	-10.3953
▁soldats	-10.3953
▁vagues	-10.3953
▁mangues	-10.3953
▁Aro	-10.3954
▁masques	-10.3955
▁ñee	-10.3956
▁tata	-10.3956
▁càkk	-10.3957
▁dijj	-10.3959
▁taq	-10.3959
▁juum	-10.396
▁demuloo	-10.3961
▁oublier	-10.3961
▁arachides	-10.3961
▁jag	-10.3963
▁junniy	-10.3965
▁fajar	-10.3966
▁neuf	-10.3968
▁xal	-10.3969
ndre	-10.3971
▁Ro	-10.3973
▁causé	-10.3979
▁neexee	-10.3981
▁créé	-10.3982
▁marque	-10.3983
▁humaine	-10.3987
▁chaude	-10.3987
▁ñaxtu	-10.3991
▁cesse	-10.3992
▁nus	-10.3992
▁prenne	-10.3992
▁lutte	-10.3994
▁warul	-10.4
▁diine	-10.4007
▁Woto	-10.4008
▁Naan	-10.4009
▁traverse	-10.4012
▁daagu	-10.402
▁Cere	-10.4021
▁doigts	-10.4031
▁policiers	-10.4031
▁dëpp	-10.4034
aana	-10.4034
▁dessiné	-10.4034
▁fum	-10.4035
▁pax	-10.4037
imaginer	-10.405
▁falu	-10.405
▁pince	-10.4058
▁Aka	-10.4059
▁wat	-10.4062
▁fett	-10.4062
atu	-10.4067
▁tekki	-10.4068
▁balaa	-10.4072
▁mille	-10.4073
▁auto	-10.4074
andoo	-10.4075
▁dar	-10.4079
▁chèvres	-10.4083
gu	-10.4084
▁confie	-10.4089
▁rester	-10.4091
▁ñam	-10.4103
▁caillou	-10.4106
▁dëkkoon	-10.4108
▁gat	-10.4111
▁h	-10.4113
▁yomb	-10.4113
▁defaru	-10.4121
▁2	-10.4133
▁rencontre	-10.4141
▁dun	-10.4144
▁pleine	-10.415
▁coiff	-10.4157
▁ñaaw	-10.416
▁envahi	-10.4166
▁amour	-10.417
▁fermée	-10.4171
▁Ban	-10.4182
▁arriver	-10.4182
▁Ngi	-10.4191
▁Jam	-10.4198
▁àpp	-10.4203
▁Afrigam	-10.4208
arbres	-10.4214
▁visages	-10.4215
▁os	-10.4246
▁tours	-10.4254
▁ri	-10.426
▁jo	-10.4275
▁tée	-10.4284
▁dix	-10.4286
▁monté	-10.4287
▁baŋ	-10.4316
▁aventure	-10.4322
▁content	-10.4338
ton	-10.4348
▁rivières	-10.4348
▁suñ	-10.4351
▁në	-10.4363
▁conten	-10.4375
▁prends	-10.4375
▁tante	-10.4385
ations	-10.4391
▁allée	-10.4398
▁jog	-10.4401
▁Quelque	-10.4402
appartien	-10.4404
▁mbind	-10.442
ral	-10.442
▁jekk	-10.4453
ñoo	-10.4508
achètera	-10.4508
▁blanches	-10.4511
▁Ber	-10.4513
int	-10.4517
▁vin	-10.4526
▁dunde	-10.4536
▁gëmm	-10.4537
▁mbë	-10.4542
▁laax	-10.455
▁tableau	-10.4556
ol	-10.4563
▁voitures	-10.4565
▁rouges	-10.4591
baar	-10.4598
▁sembl	-10.4615
▁Yara	-10.4629
▁Jii	-10.4631
rendre	-10.4631
dar	-10.4643
fu	-10.4656
▁touche	-10.4658
▁dée	-10.4661
▁fui	-10.4666
▁rus	-10.4697
▁sent	-10.4704
▁suivi	-10.4713
▁brûle	-10.4729
▁Mo	-10.4745
▁yare	-10.4746
▁sort	-10.4758
▁Jénda	-10.4765
▁sépar	-10.4767
▁laissé	-10.48
▁xa	-10.4832
▁souhaite	-10.4833
▁Lekk	-10.4849
▁bàkk	-10.4863
▁quelles	-10.4867
entiers	-10.4868
▁jam	-10.4883
alal	-10.4887
tee	-10.489
▁chambres	-10.4898
▁cim	-10.4931
▁gaar	-10.4946
nent	-10.495
▁Es	-10.4967
▁Bar	-10.4971
nq	-10.4971
▁accompagne	-10.499
▁saay	-10.4993
po	-10.4998
▁mett	-10.5005
▁Nja	-10.5007
vers	-10.503
▁Vo	-10.5037
▁niir	-10.5058
eeku	-10.5062
▁levé	-10.5068
▁fiir	-10.5072
occi	-10.5082
to	-10.5096
▁prise	-10.5108
geen	-10.5131
oir	-10.5152
garder	-10.5169
orage	-10.5169
▁vus	-10.5172
▁dàtt	-10.5181
▁étais	-10.5187
noo	-10.5188
▁Ŋg	-10.519
▁attaché	-10.5192
▁achète	-10.5195
ommé	-10.5197
▁guddee	-10.524
▁ñe	-10.5275
oof	-10.5282
A	-10.5283
▁ware	-10.5284
▁couvert	-10.5293
ën	-10.5305
écu	-10.5307
▁Ram	-10.5319
ivement	-10.5333
▁bë	-10.5337
▁Quelqu	-10.5345
asse	-10.5356
▁tee	-10.5374
akkal	-10.5377
ût	-10.5381
▁Me	-10.5382
▁gisul	-10.5382
▁Faat	-10.5388
issant	-10.5399
ris	-10.5403
▁ëf	-10.5407
▁doxal	-10.5408
▁descend	-10.5412
▁lance	-10.5418
dam	-10.5432
ards	-10.5433
▁ň	-10.5437
▁Ñàkk	-10.5447
uloo	-10.5452
▁doonkoon	-10.5464
▁Voil	-10.5465
▁Bien	-10.5472
▁pensé	-10.5473
▁perdu	-10.5479
▁vert	-10.548
jal	-10.5484
▁mari	-10.5489
tion	-10.5494
iens	-10.5502
▁souffl	-10.5506
ivre	-10.5516
añ	-10.5527
▁amaan	-10.5538
▁certain	-10.5551
▁Gu	-10.5562
▁découvert	-10.557
ément	-10.5576
installe	-10.5578
▁bindoo	-10.558
vé	-10.5584
af	-10.5585
▁don	-10.5632
man	-10.5644
occup	-10.5646
▁dàkk	-10.566
ñaa	-10.5662
elu	-10.5666
▁cas	-10.5668
▁chante	-10.5683
▁fat	-10.5695
lla	-10.5696
arrive	-10.5709
▁dan	-10.5716
▁dromadaire	-10.5717
▁peuple	-10.5717
ttali	-10.5719
▁fusil	-10.5726
des	-10.5734
▁wàcce	-10.5735
▁mba	-10.5739
arachide	-10.5741
▁fatigué	-10.5744
▁sauvage	-10.575
aveugle	-10.5767
▁Nko	-10.5772
ëllëg	-10.5778
tubaab	-10.5781
écouter	-10.5781
aucun	-10.5781
▁parole	-10.5781
▁conduit	-10.5782
Yàlla	-10.5783
bopp	-10.5784
▁juddu	-10.5785
▁xii	-10.5786
hier	-10.5787
jafe	-10.579
▁jambe	-10.5791
nekk	-10.5791
ndax	-10.5791
▁gejj	-10.5792
xew	-10.5796
ban	-10.5798
▁envoyé	-10.5799
ã	-10.5803
dëkk	-10.5805
▁mo	-10.5807
▁vue	-10.5817
omm	-10.5817
édu	-10.5819
▁plat	-10.582
▁Ala	-10.5823
▁épi	-10.5824
kow	-10.5825
▁partage	-10.5826
▁rëbb	-10.584
mbres	-10.5845
prit	-10.5845
▁tente	-10.5845
con	-10.5847
▁repas	-10.5862
evant	-10.5863
tin	-10.5865
▁roule	-10.5866
joor	-10.5867
▁pi	-10.5869
ême	-10.587
▁xet	-10.5875
▁creus	-10.5876
eef	-10.5876
éloigne	-10.5877
illage	-10.5877
▁revienne	-10.5878
▁jariñ	-10.588
oudre	-10.5883
llons	-10.5883
▁saxaar	-10.5884
▁xërëm	-10.5885
▁futt	-10.5885
▁junni	-10.5886
araada	-10.5886
essaie	-10.5888
apprécie	-10.5888
aumône	-10.5888
tekkaaral	-10.5888
”	-10.5888
▁Abaakaliki	-10.5888
▁Adekunle	-10.5888
▁Allez	-10.5888
▁Attache	-10.5888
▁Biafra	-10.5888
▁Georgetown	-10.5888
▁Génnéel	-10.5888
▁Kaolack	-10.5888
▁Kawlax	-10.5888
▁Sefiriis	-10.5888
▁Southampton	-10.5888
▁Tabax	-10.5888
▁alkol	-10.5888
▁allemande	-10.5888
▁biafrais	-10.5888
▁crochet	-10.5888
▁haricot	-10.5888
▁manifest	-10.5888
▁njàng	-10.5888
▁njàqare	-10.5888
▁perroquet	-10.5888
▁physique	-10.5888
▁probable	-10.5888
▁protège	-10.5888
▁ressuscité	-10.5888
▁récipient	-10.5888
▁traîne	-10.5888
▁tàmbali	-10.5888
▁zinc	-10.5888
angoisse	-10.5888
▁Anglais	-10.5888
▁Sorstaawun	-10.5888
▁camerounais	-10.5888
▁hasard	-10.5888
▁henné	-10.5888
▁photographi	-10.5888
▁radio	-10.5888
▁répandu	-10.5888
▁terrassé	-10.5888
▁Cross	-10.5888
▁fréquent	-10.5888
▁grenier	-10.5888
▁machine	-10.5888
▁Moontin	-10.5888
▁nombreuses	-10.5888
▁Yoruba	-10.5888
▁quartier	-10.5888
▁savon	-10.5888
▁terrible	-10.5888
▁bûcheron	-10.5888
▁service	-10.5888
▁sept	-10.5888
▁guyaab	-10.5888
▁kilomet	-10.5888
▁cabax	-10.5888
▁mbooloo	-10.5888
▁ndóol	-10.5888
▁situation	-10.5888
▁këll	-10.5888
▁brûlure	-10.5888
▁collines	-10.5888
▁fauve	-10.5888
▁préfère	-10.5888
▁Kaasamaas	-10.5888
▁fuddën	-10.5888
▁Salut	-10.5888
▁clef	-10.5888
▁golf	-10.5888
▁guró	-10.5888
▁kalaate	-10.5888
▁plaisir	-10.5888
▁Partout	-10.5888
▁lessive	-10.5888
▁réveillé	-10.5888
▁béjjén	-10.5888
▁bàmmeel	-10.5888
▁bref	-10.5888
▁noyyi	-10.5888
▁ondul	-10.5888
▁poing	-10.5888
▁oublié	-10.5888
▁continent	-10.5888
▁larmes	-10.5888
▁flamme	-10.5888
▁rares	-10.5888
▁tëral	-10.5889
▁xaaju	-10.5889
▁weesu	-10.5889
▁bóom	-10.5889
▁Toog	-10.5889
▁sàndarm	-10.5889
▁dëkkandoo	-10.5889
▁voulez	-10.5889
entourent	-10.5889
▁rajo	-10.5889
▁paternelle	-10.5889
▁soppiku	-10.5889
▁delsi	-10.5889
cture	-10.5889
▁karaw	-10.589
▁Màkka	-10.589
▁bàq	-10.589
▁làquji	-10.589
▁continu	-10.589
▁firndeel	-10.589
▁fomp	-10.589
▁tàggat	-10.589
▁xeeñ	-10.589
▁laxas	-10.589
▁courage	-10.589
▁fàq	-10.589
▁boire	-10.5891
▁complet	-10.5891
▁noces	-10.5891
▁Weer	-10.5891
▁soxor	-10.5891
▁souvent	-10.5891
▁meññ	-10.5891
▁njege	-10.5892
▁mbégte	-10.5892
▁Passe	-10.5893
▁yékk	-10.5893
▁ñeex	-10.5893
▁mélang	-10.5893
▁meew	-10.5893
pace	-10.5894
▁fexe	-10.5894
▁brûlant	-10.5894
▁tëri	-10.5894
▁Yóbbu	-10.5894
▁ŋgoogule	-10.5894
▁souche	-10.5894
▁nombreux	-10.5894
▁puj	-10.5894
▁élu	-10.5895
▁wóolu	-10.5895
▁tap	-10.5895
▁jàppukaay	-10.5896
▁seetsi	-10.5896
▁awsa	-10.5896
▁maternel	-10.5897
▁vivant	-10.5897
▁raconté	-10.5897
▁soudain	-10.5897
▁tiis	-10.5897
▁douche	-10.5898
▁rencontré	-10.5898
▁voulait	-10.5898
▁Xaj	-10.5899
▁paque	-10.59
▁nangoo	-10.59
▁rejoindre	-10.59
▁ràññee	-10.59
nore	-10.59
▁charme	-10.5901
▁cessé	-10.5901
▁soigner	-10.5902
▁éteint	-10.5902
▁njort	-10.5902
▁extrême	-10.5902
▁dessous	-10.5902
▁beg	-10.5902
▁yàlla	-10.5903
▁cuuj	-10.5903
▁sëgg	-10.5904
▁dërëm	-10.5904
▁bokkuñu	-10.5905
▁hamacs	-10.5906
▁ustensiles	-10.5906
▁rire	-10.5906
▁frapper	-10.5906
▁bàcc	-10.5906
▁tawat	-10.5906
▁avance	-10.5907
▁penku	-10.5907
▁volets	-10.5907
▁gàll	-10.5907
▁tank	-10.5907
▁éprouv	-10.5907
▁mbaxana	-10.5908
▁Ñooñu	-10.5909
▁fippu	-10.5909
▁Dund	-10.591
▁kookee	-10.591
▁gaz	-10.5911
▁Yeen	-10.5911
▁Doole	-10.5912
▁call	-10.5912
▁gentil	-10.5913
▁cornes	-10.5913
▁vertes	-10.5915
▁fekksi	-10.5915
▁matinée	-10.5916
▁rax	-10.5917
▁gës	-10.5918
▁Lequel	-10.5918
iiriir	-10.5918
▁naaxi	-10.5918
▁couvre	-10.5919
▁jouent	-10.592
▁revenu	-10.592
▁vari	-10.592
àŋŋ	-10.5921
▁mouches	-10.5922
▁galan	-10.5924
▁aada	-10.5925
▁nombre	-10.5926
▁dëng	-10.5927
▁Luga	-10.5927
▁Aiya	-10.5927
▁attache	-10.5927
▁jàngoro	-10.5927
▁googule	-10.5928
▁melax	-10.5928
▁sueur	-10.593
▁sensation	-10.5934
▁saxaaru	-10.5935
▁exemple	-10.5936
▁fortune	-10.5936
▁tuuru	-10.5937
▁kilomètres	-10.5937
▁termitières	-10.5937
▁gal	-10.5937
▁dott	-10.5938
▁armes	-10.5938
▁préparer	-10.594
▁ňi	-10.594
ures	-10.594
▁jabaram	-10.594
▁linge	-10.5943
▁habiter	-10.5944
▁tiens	-10.5945
▁marchent	-10.5947
▁jàkka	-10.595
nces	-10.5951
▁ekool	-10.5952
▁cër	-10.5953
▁salon	-10.5955
▁yàggul	-10.5955
▁casque	-10.5955
▁lonku	-10.5956
gorge	-10.5956
▁bukki	-10.5957
▁bokkul	-10.5958
▁Yàllaa	-10.596
▁Aa	-10.596
▁sombre	-10.5964
▁yéeme	-10.5966
▁Bàyyi	-10.597
▁état	-10.5971
▁raw	-10.5972
▁làqu	-10.5977
▁ailleurs	-10.598
▁dundam	-10.5981
▁semé	-10.5985
▁date	-10.5985
▁guide	-10.5986
▁ñeent	-10.5986
▁faax	-10.5989
aaka	-10.5992
échapper	-10.5993
▁Bërë	-10.5993
▁ër	-10.5993
▁Guy	-10.5994
era	-10.5996
▁animal	-10.5997
▁bleue	-10.5997
▁boppu	-10.6
▁bancs	-10.6001
▁nouvelles	-10.6001
▁pleure	-10.6004
▁joge	-10.6005
antu	-10.6005
lure	-10.6008
▁gaañu	-10.6011
▁jeté	-10.6011
▁lourd	-10.6014
▁joo	-10.6022
▁amené	-10.6023
uñ	-10.6028
▁plats	-10.6031
▁fatigués	-10.6033
▁tuur	-10.6039
▁tenue	-10.6039
let	-10.6042
▁bég	-10.6044
▁ti	-10.6046
▁étrange	-10.6047
▁Nun	-10.605
▁màgge	-10.6051
▁War	-10.6051
▁cultive	-10.6054
kóon	-10.606
▁bey	-10.6062
▁rive	-10.6072
▁dirai	-10.6072
▁rose	-10.6075
▁té	-10.6077
ah	-10.6077
▁ayant	-10.6079
▁tomb	-10.6083
▁teey	-10.6086
▁contes	-10.6093
▁xe	-10.6093
▁mënut	-10.6095
▁conduis	-10.6097
uvet	-10.6097
▁draps	-10.6098
▁yëgaat	-10.6102
▁pans	-10.6104
▁répu	-10.6108
rier	-10.6111
▁seetu	-10.6115
ignore	-10.6119
ise	-10.6125
▁defaree	-10.6138
▁kam	-10.6139
▁impression	-10.614
▁lève	-10.6142
▁verser	-10.6161
▁prête	-10.6162
▁mêl	-10.617
▁bris	-10.6173
▁dalle	-10.6185
▁Europe	-10.6194
▁scorpions	-10.6197
▁kookuu	-10.6199
▁Avan	-10.621
▁jeux	-10.6214
▁souffr	-10.6215
▁désir	-10.6216
▁devenus	-10.6234
▁kawar	-10.6238
dokk	-10.625
gi	-10.6251
▁cin	-10.6258
▁vivres	-10.6263
▁coy	-10.627
▁Doy	-10.628
▁xaraf	-10.6285
▁guyy	-10.6293
▁livres	-10.6296
ho	-10.63
▁bleus	-10.63
▁Gi	-10.6304
▁jéle	-10.631
▁giif	-10.6312
andis	-10.6314
▁Ru	-10.6315
maana	-10.6317
antee	-10.6338
▁kaay	-10.635
▁demand	-10.6351
habit	-10.6356
gorn	-10.6372
kkal	-10.6373
tait	-10.6374
▁fuur	-10.6387
▁lire	-10.6389
▁revien	-10.639
▁tés	-10.6392
▁Doon	-10.6393
▁wuu	-10.6403
▁jàngale	-10.6405
àmmiñ	-10.6405
seoir	-10.6424
▁añ	-10.6429
egg	-10.6431
▁jàppe	-10.6434
▁liggéeyu	-10.6437
añse	-10.6441
mment	-10.6443
▁cassée	-10.6455
appellent	-10.6457
son	-10.6465
▁Dém	-10.6467
▁...	-10.6479
vions	-10.6493
umaa	-10.6523
▁nguuru	-10.6531
▁tegu	-10.6531
▁face	-10.6534
▁kë	-10.6545
▁lits	-10.6545
ami	-10.6574
▁néegi	-10.6577
▁Màng	-10.6579
▁laine	-10.6583
sais	-10.6583
▁garabu	-10.6602
ëtt	-10.6609
▁séchée	-10.6624
▁Yaay	-10.6628
▁maye	-10.6663
ppu	-10.6663
▁vol	-10.6675
ëñ	-10.6676
▁grise	-10.6685
ssent	-10.6688
tendait	-10.6691
▁deñ	-10.6716
▁jette	-10.6733
▁gras	-10.6736
▁Leer	-10.6738
▁Sé	-10.6739
▁këru	-10.6741
roc	-10.6745
▁Mb	-10.6756
▁or	-10.6801
▁pur	-10.6802
▁four	-10.6804
▁connaiss	-10.6805
▁grandi	-10.6813
▁déeg	-10.6814
▁eusse	-10.6821
▁bàn	-10.6825
▁Mii	-10.6829
poser	-10.6832
ente	-10.684
obul	-10.6847
tul	-10.6848
▁seuls	-10.685
▁nax	-10.6851
▁Bo	-10.6881
▁Bum	-10.6891
▁ree	-10.6904
▁jaas	-10.6906
▁mënuma	-10.6916
he	-10.6919
▁tab	-10.6924
aider	-10.698
appelles	-10.699
ële	-10.6997
bëggee	-10.6997
▁xamant	-10.7019
▁jus	-10.7027
▁pli	-10.7049
▁Far	-10.7052
▁Ànd	-10.7085
▁jooja	-10.7098
leel	-10.7109
▁gétt	-10.7111
anam	-10.7112
éwén	-10.7113
▁an	-10.7117
▁Nd	-10.7122
bbam	-10.7134
▁Jénd	-10.7159
guloo	-10.7166
▁Fo	-10.7199
asi	-10.7215
▁parent	-10.7241
▁waxal	-10.7251
▁xas	-10.7282
▁Gisu	-10.729
▁pointe	-10.7317
▁posée	-10.7336
ër	-10.7345
▁duul	-10.735
ko	-10.7356
▁Wa	-10.7361
wal	-10.737
lée	-10.7382
gul	-10.7383
▁To	-10.74
enfants	-10.7427
▁com	-10.7442
▁lions	-10.7457
▁dawul	-10.746
eg	-10.7465
laire	-10.7508
▁kat	-10.7512
àbbe	-10.7515
▁devenue	-10.7541
▁tama	-10.7559
tuñu	-10.7579
abonde	-10.7586
▁confi	-10.7586
▁nëw	-10.7592
▁pratique	-10.7594
▁deey	-10.7603
▁écout	-10.7605
▁mënu	-10.7611
▁pouv	-10.7614
▁apporte	-10.7619
maŋ	-10.7622
aŋ	-10.7625
▁bax	-10.7628
get	-10.7666
▁sin	-10.7675
▁joi	-10.7677
▁ndugg	-10.7678
bare	-10.7681
▁charg	-10.7681
▁entouré	-10.7692
▁étalé	-10.7692
▁né	-10.7693
bes	-10.7695
▁Con	-10.7707
▁xamu	-10.771
▁tege	-10.7714
▁pose	-10.7735
▁commer	-10.7739
éeg	-10.7753
▁xu	-10.7775
▁njàmba	-10.7781
ënd	-10.7792
àggan	-10.7794
erai	-10.7795
▁noppal	-10.7811
waale	-10.7817
▁ame	-10.7819
rage	-10.7828
lin	-10.7841
ston	-10.7841
ible	-10.7844
ngóor	-10.7862
▁éta	-10.7864
▁enf	-10.7884
pa	-10.7911
bër	-10.7917
▁go	-10.7918
igne	-10.7936
▁permet	-10.7939
▁marie	-10.7973
▁can	-10.7978
▁att	-10.7984
▁armée	-10.7988
▁dàn	-10.8021
ction	-10.8027
rer	-10.8032
▁Gaa	-10.804
enez	-10.804
ŋga	-10.8041
teur	-10.8053
ox	-10.8053
rab	-10.806
seen	-10.8069
▁décor	-10.8069
ph	-10.8072
▁cultiv	-10.8082
▁goo	-10.8097
▁pren	-10.8123
naay	-10.813
▁baar	-10.8131
▁retourne	-10.8146
▁attend	-10.8157
mbo	-10.8168
cousu	-10.8171
ombre	-10.8181
▁Al	-10.8187
arrache	-10.8187
ï	-10.8189
orts	-10.8213
épi	-10.8217
▁président	-10.8218
▁retrouvé	-10.8218
▁mûr	-10.8218
▁chaîne	-10.8218
▁miroir	-10.822
taay	-10.8223
▁habite	-10.8223
▁lë	-10.8228
▁flèche	-10.8233
▁âgé	-10.8233
jjant	-10.8236
ngale	-10.824
▁seconde	-10.824
▁ouvr	-10.8241
▁yéem	-10.8242
▁Ra	-10.8246
▁fulla	-10.8248
▁palme	-10.8249
▁coton	-10.8249
▁nouvelle	-10.8249
àmm	-10.8253
▁gendarme	-10.8254
ňax	-10.8254
▁moyen	-10.8257
▁guerr	-10.8258
▁patte	-10.8258
▁assiette	-10.8259
▁banc	-10.8261
avenir	-10.8262
▁Dog	-10.8263
▁baag	-10.8265
art	-10.8265
lique	-10.8266
xaar	-10.8272
▁précédé	-10.8272
ailleurs	-10.8272
junni	-10.8272
ît	-10.8273
▁tasse	-10.8274
▁éclair	-10.8274
histoire	-10.8276
enfance	-10.8277
parents	-10.8279
▁général	-10.8282
F	-10.8282
ndànk	-10.8282
Omar	-10.8283
xare	-10.8287
tuut	-10.8292
naaw	-10.8292
▁jubal	-10.8293
aff	-10.8296
▁anim	-10.8303
inter	-10.8306
▁accepte	-10.8309
année	-10.831
▁ancien	-10.8312
hi	-10.8325
xel	-10.8329
▁Nan	-10.8329
éew	-10.8331
dog	-10.8332
ddina	-10.8332
uw	-10.8333
▁frapp	-10.8336
ène	-10.8337
▁Néeg	-10.834
▁Moka	-10.8342
▁kàdd	-10.8347
erig	-10.8352
arrêt	-10.8353
aumes	-10.8358
onnée	-10.8363
▁méng	-10.8363
▁dékk	-10.8364
▁plai	-10.8367
waay	-10.8372
arriver	-10.8372
▁dress	-10.8374
▁révolte	-10.8375
▁origin	-10.8376
rête	-10.8377
àdd	-10.8378
innaaw	-10.8378
▁failli	-10.8379
occupe	-10.838
habite	-10.8383
▁imp	-10.8383
▁bày	-10.8383
ów	-10.8384
àww	-10.8384
ňň	-10.8385
abandon	-10.8385
▁dank	-10.8386
▁fëgg	-10.8386
prè	-10.8386
▁Deg	-10.8386
▁dogal	-10.8386
oubli	-10.8387
3	-10.8387
▁surveill	-10.8388
▁kéwél	-10.8388
embouchure	-10.8388
enthousiasme	-10.8388
horreur	-10.8388
humanité	-10.8388
héberg	-10.8388
▁1928	-10.8388
▁1948	-10.8388
▁Ahidjo	-10.8388
▁Alxuraan	-10.8388
▁BBC	-10.8388
▁Bretagne	-10.8388
▁Bërëtaañ	-10.8388
▁Calabar	-10.8388
▁Chuku	-10.8388
▁Coumba	-10.8388
▁Jeffries	-10.8388
▁Kalabaar	-10.8388
▁Kipli	-10.8388
▁Louga	-10.8388
▁Mauritanie	-10.8388
▁Sahara	-10.8388
▁US	-10.8388
▁accompagnait	-10.8388
▁alentour	-10.8388
▁annonce	-10.8388
▁antilope	-10.8388
▁beignets	-10.8388
▁bouteille	-10.8388
▁combinaison	-10.8388
▁cravate	-10.8388
▁crépuscule	-10.8388
▁cuillère	-10.8388
▁diarrhée	-10.8388
▁démarche	-10.8388
▁fiancé	-10.8388
▁football	-10.8388
▁graisse	-10.8388
▁gëlëm	-10.8388
▁incapable	-10.8388
▁kaaraange	-10.8388
▁lorgnons	-10.8388
▁mensonge	-10.8388
▁ndanka	-10.8388
▁nécessaire	-10.8388
▁obsession	-10.8388
▁officier	-10.8388
▁palissade	-10.8388
▁privilèges	-10.8388
▁rajaxe	-10.8388
▁réponse	-10.8388
▁sorcellerie	-10.8388
▁tranquille	-10.8388
▁trapèze	-10.8388
▁travaux	-10.8388
▁trésor	-10.8388
▁trône	-10.8388
▁tâche	-10.8388
▁vieillard	-10.8388
▁viendront	-10.8388
▁végétation	-10.8388
▁véhicule	-10.8388
▁yëngatu	-10.8388
▁Ñëw	-10.8388
▁ŋàññ	-10.8388
Arkuur	-10.8388
enclos	-10.8388
▁Harcourt	-10.8388
▁bahut	-10.8388
▁berkelle	-10.8388
▁bébé	-10.8388
▁callweer	-10.8388
▁fatigue	-10.8388
▁foulard	-10.8388
▁légende	-10.8388
▁pénétr	-10.8388
▁remercie	-10.8388
▁réccu	-10.8388
▁tonnerre	-10.8388
▁tropicale	-10.8388
▁veille	-10.8388
▁Él	-10.8388
▁ëlëk	-10.8388
▁Téere	-10.8388
▁allumé	-10.8388
▁extraordinaire	-10.8388
▁naître	-10.8388
▁soixante	-10.8388
▁NGo	-10.8388
▁Voyage	-10.8388
▁bataaxal	-10.8388
▁sibbiru	-10.8388
▁Birayim	-10.8388
▁ceddo	-10.8388
▁ruisseau	-10.8388
▁séjour	-10.8388
▁enlevé	-10.8388
▁lëkkale	-10.8388
▁atteint	-10.8388
▁Juróom	-10.8388
▁protection	-10.8388
▁Jàng	-10.8388
▁fauteuil	-10.8388
▁geño	-10.8388
▁menace	-10.8388
▁règne	-10.8388
▁effect	-10.8388
▁moitié	-10.8388
llemands	-10.8388
▁accepté	-10.8388
▁yalwaan	-10.8388
▁échappé	-10.8388
▁Jabar	-10.8388
▁secoue	-10.8388
▁1968	-10.8388
▁honte	-10.8388
▁cliché	-10.8388
▁discipline	-10.8388
▁détrui	-10.8388
▁gàmmu	-10.8388
▁Macron	-10.8388
▁xamantane	-10.8388
▁ndënd	-10.8388
▁boîte	-10.8388
ulëer	-10.8388
▁ayubes	-10.8388
▁jërr	-10.8388
▁àdduna	-10.8388
fayda	-10.8388
▁firiku	-10.8388
▁classe	-10.8388
▁waxambaane	-10.8388
▁blesse	-10.8388
▁mbemb	-10.8388
▁mbindeef	-10.8388
▁dajaloo	-10.8388
▁jaaxal	-10.8388
▁péché	-10.8388
▁résolu	-10.8388
▁dépouill	-10.8388
▁hors	-10.8388
▁attitude	-10.8388
islam	-10.8388
▁jouets	-10.8388
▁Fiche	-10.8388
▁Actuellement	-10.8388
▁compagnie	-10.8388
▁Ragal	-10.8389
▁perdre	-10.8389
▁domestique	-10.8389
▁électrique	-10.8389
▁bãŋ	-10.8389
▁muraille	-10.8389
▁Golo	-10.8389
▁dormir	-10.8389
▁lentement	-10.8389
ède	-10.8389
▁semer	-10.8389
▁pardonne	-10.8389
▁ňàkk	-10.8389
▁doq	-10.8389
▁généreux	-10.8389
▁rompu	-10.8389
▁dankalikoo	-10.8389
▁Terre	-10.8389
▁fièvre	-10.8389
▁Tëgg	-10.8389
▁bóox	-10.8389
▁pension	-10.8389
▁feyyu	-10.8389
▁réchauffe	-10.8389
▁États	-10.8389
▁richesse	-10.8389
▁Topp	-10.8389
▁frappions	-10.8389
▁Dellu	-10.839
▁gedd	-10.839
▁heureux	-10.839
▁changement	-10.839
▁récit	-10.839
éléphant	-10.839
▁ropp	-10.839
▁Fomp	-10.839
▁aloom	-10.839
▁njaboot	-10.839
▁fanweer	-10.839
▁bów	-10.839
▁yendoo	-10.839
▁habituellement	-10.8391
▁aaytal	-10.8391
▁doux	-10.8391
▁fureur	-10.8391
▁wooye	-10.8391
▁fouett	-10.8391
▁banane	-10.8391
▁wacc	-10.8391
▁Rao	-10.8391
▁jëf	-10.8391
▁fëq	-10.8391
▁Kumba	-10.8391
▁Mbër	-10.8392
▁ràpp	-10.8392
▁maasaloo	-10.8392
▁couvrir	-10.8392
▁désherb	-10.8392
▁marchand	-10.8392
▁Prête	-10.8392
▁Demuloo	-10.8392
▁connaissance	-10.8392
▁njël	-10.8392
▁contraire	-10.8392
accord	-10.8392
▁doxalin	-10.8392
▁familier	-10.8393
▁foudre	-10.8393
▁recul	-10.8393
▁fàŋŋ	-10.8393
▁mystique	-10.8393
▁soxal	-10.8393
▁pegg	-10.8393
▁reins	-10.8393
▁meetar	-10.8393
▁Tool	-10.8394
aaxaan	-10.8394
▁ouverte	-10.8394
▁móobal	-10.8394
▁portale	-10.8394
▁guéri	-10.8394
lbéen	-10.8394
▁battant	-10.8394
▁cadeau	-10.8394
▁poussin	-10.8394
▁abandonné	-10.8395
▁wert	-10.8395
▁effort	-10.8395
▁colin	-10.8395
▁chapeaux	-10.8395
▁farine	-10.8395
▁Alfa	-10.8395
▁Bamako	-10.8395
▁wotoom	-10.8395
▁absent	-10.8395
▁descendre	-10.8395
▁disparu	-10.8396
source	-10.8396
▁Looloo	-10.8396
▁noix	-10.8396
▁woowa	-10.8396
▁coude	-10.8396
▁miirloo	-10.8396
▁Dinga	-10.8396
▁xélu	-10.8397
▁décrit	-10.8397
▁cér	-10.8397
gumbe	-10.8397
▁gosse	-10.8398
▁fameuse	-10.8398
▁dencukaay	-10.8398
▁rejet	-10.8398
▁Poor	-10.8398
▁simila	-10.8399
▁méchant	-10.84
▁sooke	-10.84
▁sàngara	-10.84
▁sóob	-10.8401
▁Tann	-10.8401
▁Soldaar	-10.8401
▁lëmm	-10.8402
▁dagan	-10.8402
auté	-10.8402
▁marqué	-10.8402
▁weg	-10.8402
▁daaj	-10.8402
▁rapidement	-10.8403
mbax	-10.8403
▁creuser	-10.8403
▁campagne	-10.8404
▁pétrole	-10.8404
▁Gorée	-10.8404
▁frappé	-10.8404
envie	-10.8404
▁yemale	-10.8404
▁fowu	-10.8405
▁Mbam	-10.8405
▁Demkoon	-10.8405
étt	-10.8405
▁bëggóon	-10.8405
maan	-10.8406
▁brûlé	-10.8407
▁ménage	-10.8407
▁recommand	-10.8407
▁apparaissent	-10.8407
▁plomb	-10.8407
▁genre	-10.8407
▁drapeau	-10.8407
▁vendre	-10.8407
▁respect	-10.8407
▁géey	-10.8408
▁butéel	-10.8408
▁Jél	-10.8408
▁xàll	-10.8409
▁inspiré	-10.8409
▁payer	-10.8409
▁petites	-10.841
▁kookale	-10.841
▁préfér	-10.841
▁meurt	-10.8411
épineux	-10.8411
▁fibres	-10.8411
▁sœurs	-10.8411
▁timis	-10.8411
▁braises	-10.8412
▁seraient	-10.8412
▁franco	-10.8412
▁exact	-10.8413
▁mettee	-10.8413
▁kaki	-10.8413
▁position	-10.8414
▁voudrait	-10.8414
▁Céy	-10.8414
▁fàcc	-10.8415
▁chance	-10.8415
▁méngale	-10.8415
▁canne	-10.8415
arité	-10.8415
▁soirée	-10.8416
▁tëwa	-10.8416
▁céet	-10.8416
▁yeggee	-10.8417
▁aiguille	-10.8417
▁tappal	-10.8417
▁cendre	-10.8417
▁melo	-10.8418
▁banaana	-10.8418
▁nappe	-10.8419
▁fudd	-10.8419
▁rapporté	-10.8419
▁foog	-10.842
▁In	-10.8421
ish	-10.8422
▁jaarale	-10.8423
▁paysage	-10.8425
▁waxi	-10.8425
▁aajo	-10.8427
▁direction	-10.8428
▁préc	-10.8428
ngalu	-10.8429
▁piler	-10.8431
▁rugi	-10.8431
▁sert	-10.8431
▁tooy	-10.8431
empire	-10.8432
▁installé	-10.8433
atteindr	-10.8434
▁nuru	-10.8435
▁Mokaa	-10.8435
▁boit	-10.8435
▁détest	-10.8436
▁turam	-10.8437
▁verra	-10.8438
▁détourn	-10.8439
▁fés	-10.8439
▁wala	-10.8439
gin	-10.8439
▁île	-10.844
▁boyet	-10.844
▁heure	-10.8441
▁saute	-10.8441
▁Dég	-10.8441
▁Joor	-10.8443
▁Demuma	-10.8445
▁Pari	-10.8446
stice	-10.8447
▁alalam	-10.8449
▁ñówee	-10.845
don	-10.8452
▁rëbbi	-10.8453
▁nirool	-10.8453
▁graines	-10.8454
▁cambar	-10.8456
▁terminé	-10.8457
▁lutter	-10.8457
▁xóot	-10.8457
▁perles	-10.8457
▁toucher	-10.8458
▁importan	-10.8459
▁poulet	-10.8459
dou	-10.8462
▁xamatul	-10.8462
arachides	-10.8462
▁dell	-10.8465
▁puur	-10.8465
▁retourner	-10.8466
juram	-10.8469
▁achete	-10.847
▁jéema	-10.847
▁conc	-10.8471
▁ràkkaaju	-10.8471
▁rassembler	-10.8472
▁Bateri	-10.8472
▁taxu	-10.8472
▁Cependant	-10.8473
▁restent	-10.8474
▁daamar	-10.8476
▁mor	-10.8478
▁Kanam	-10.8479
▁réservé	-10.848
▁manche	-10.848
▁aimer	-10.8481
▁tenir	-10.8482
▁bête	-10.8483
▁tendre	-10.8483
uléet	-10.8485
deux	-10.8487
▁dot	-10.8488
▁pâte	-10.8489
▁dallu	-10.8491
▁prenant	-10.8492
▁feeñal	-10.8492
▁navet	-10.8493
ché	-10.8493
▁indil	-10.8494
▁beru	-10.8495
▁Dugg	-10.8496
▁lutteurs	-10.8496
▁jàppoon	-10.8497
▁gent	-10.8497
exerce	-10.8501
▁traces	-10.8502
oindre	-10.8504
▁cure	-10.8506
▁waaxu	-10.8507
▁ramen	-10.8508
▁filet	-10.8508
▁ngoogu	-10.851
▁fattu	-10.8512
▁captur	-10.8512
stem	-10.8514
mes	-10.8514
àyyee	-10.8515
▁juges	-10.8515
▁partager	-10.8516
▁kooka	-10.8518
eras	-10.8521
▁ëpple	-10.8521
▁mbuus	-10.8522
▁Noon	-10.8525
▁lëg	-10.8527
▁faatu	-10.8533
▁féexal	-10.8533
▁baaraamu	-10.8534
▁assiettes	-10.8537
▁secondes	-10.8537
▁anciens	-10.8537
▁fullaal	-10.8537
énc	-10.8539
▁ho	-10.8542
▁travaille	-10.8544
▁partant	-10.8545
▁nég	-10.8548
▁vendu	-10.8548
▁Jaay	-10.8549
▁fâch	-10.8549
▁croi	-10.8549
▁dîner	-10.855
▁Paris	-10.8553
▁xer	-10.8554
▁boutique	-10.8555
▁partait	-10.8557
▁Mak	-10.8559
▁enlève	-10.8559
inka	-10.8559
▁gore	-10.856
▁joow	-10.8561
▁caract	-10.8562
▁pil	-10.857
▁bëtam	-10.8573
laires	-10.8577
ott	-10.8579
▁toogoon	-10.8584
▁disait	-10.8584
▁offr	-10.8589
▁litre	-10.8589
▁gàkk	-10.8589
bbi	-10.8594
▁Buy	-10.8595
ut	-10.8595
▁emp	-10.8596
▁aveugle	-10.8599
▁Tam	-10.86
▁accepter	-10.86
▁Banyo	-10.8602
▁jàppee	-10.8602
▁tentes	-10.8603
ëq	-10.8614
▁liggéeyam	-10.8614
▁luisant	-10.8617
appelait	-10.8621
▁exerc	-10.8621
▁bavard	-10.8622
▁partent	-10.8623
▁peinte	-10.8625
▁Fe	-10.863
▁biig	-10.8634
▁baň	-10.8634
▁demuñu	-10.8639
▁ker	-10.864
avions	-10.8647
▁toolu	-10.8648
alement	-10.8658
▁donnerai	-10.8658
àtt	-10.8659
ñii	-10.8661
▁refuser	-10.8662
hum	-10.8665
▁Njiit	-10.8666
entraîne	-10.8667
riste	-10.8676
▁gënn	-10.8678
attendre	-10.8679
▁art	-10.8683
▁viendrai	-10.8688
▁yoonam	-10.8691
▁Wóo	-10.87
uni	-10.8711
▁duus	-10.8716
ttu	-10.8718
▁Nekk	-10.8723
▁école	-10.8723
ottali	-10.8727
▁donnera	-10.8727
▁wal	-10.874
▁kilo	-10.874
▁partirai	-10.8741
▁feras	-10.8746
▁malheur	-10.8756
▁poules	-10.8757
ddi	-10.876
▁àndal	-10.8769
▁danser	-10.8772
▁aju	-10.8775
▁Daw	-10.8776
naan	-10.8781
▁instants	-10.8794
▁maladies	-10.8797
▁press	-10.8798
éri	-10.88
pas	-10.8801
▁toogal	-10.8801
▁Amin	-10.8806
▁constat	-10.8808
▁Fil	-10.881
▁découverte	-10.8811
▁dikke	-10.8812
ence	-10.8816
ast	-10.8822
▁Sopp	-10.8822
allaient	-10.8828
▁sib	-10.8829
▁rues	-10.8835
wuñu	-10.8839
ntes	-10.8844
▁yore	-10.8852
▁furi	-10.8853
gante	-10.8855
dd	-10.8855
about	-10.8857
ide	-10.8859
▁guis	-10.887
▁épouses	-10.8884
rass	-10.8885
▁Pai	-10.8886
▁cartes	-10.8889
▁dépasse	-10.889
▁takku	-10.8895
▁Dara	-10.8918
▁rapporte	-10.892
▁Baal	-10.8925
cé	-10.8925
▁daar	-10.8927
▁croir	-10.8928
▁cordes	-10.8929
▁Kakaa	-10.8935
vrait	-10.8936
▁leçon	-10.894
▁cax	-10.895
▁fab	-10.895
▁rentre	-10.8951
éjal	-10.8952
▁yiw	-10.8962
▁dikkal	-10.8963
▁yeb	-10.8981
▁tuutee	-10.8983
▁rayonn	-10.9005
▁móol	-10.9006
▁liggéeykat	-10.9016
▁daju	-10.9018
▁entrer	-10.9032
tim	-10.905
▁her	-10.9058
▁Co	-10.9063
▁Bool	-10.9065
lancé	-10.907
▁fowe	-10.9078
▁Wi	-10.9095
▁médecine	-10.9101
▁soos	-10.9106
diction	-10.9116
▁taxa	-10.9117
▁marches	-10.9118
▁Fab	-10.9121
tóor	-10.9135
kh	-10.9141
gént	-10.9146
▁combat	-10.9146
ekte	-10.9148
jot	-10.915
▁sipp	-10.9153
▁cache	-10.9154
rit	-10.9156
▁Fat	-10.9169
▁waxee	-10.9187
oroom	-10.9199
toon	-10.9202
▁couverte	-10.9207
car	-10.9209
▁yeewe	-10.921
▁giir	-10.9216
andiku	-10.9217
metti	-10.9245
▁gàjj	-10.9248
▁pratiqu	-10.9249
▁juge	-10.9255
▁taar	-10.9266
▁Tera	-10.9269
sons	-10.9271
▁direct	-10.9279
▁doonoon	-10.9281
▁jé	-10.929
▁awu	-10.9306
▁Xol	-10.934
àq	-10.9342
▁mokk	-10.9352
ck	-10.9371
▁ňa	-10.9374
▁Bay	-10.9381
▁déj	-10.9386
hasse	-10.9394
▁fine	-10.9396
▁Décou	-10.9397
ade	-10.9419
▁dégge	-10.9431
▁puso	-10.9434
▁morts	-10.9455
▁soeur	-10.9456
▁resta	-10.9456
▁cous	-10.9465
▁dag	-10.9473
▁bara	-10.9477
▁saisi	-10.95
▁suffir	-10.9505
▁rentrer	-10.9529
▁bir	-10.9549
▁sida	-10.9556
ànnal	-10.9558
jekkal	-10.9558
▁Géj	-10.9578
agiss	-10.9584
▁prie	-10.9587
arc	-10.9589
▁Yàgg	-10.9594
enferme	-10.9614
euses	-10.9625
▁Ye	-10.963
▁tir	-10.963
▁voul	-10.9636
▁noot	-10.9648
uuf	-10.9651
▁sortie	-10.9659
▁do	-10.9661
waaw	-10.968
▁bërë	-10.9685
▁maisons	-10.9699
géeju	-10.9706
▁waxtaane	-10.971
▁jafee	-10.9715
aille	-10.9726
ett	-10.9744
ort	-10.976
yeux	-10.9764
edd	-10.9765
▁Xamu	-10.9782
▁demb	-10.9783
uur	-10.9786
▁dikkul	-10.9797
ron	-10.9801
pit	-10.9818
etti	-10.982
ara	-10.9825
▁waxaale	-10.9846
▁jëme	-10.9863
engag	-10.9864
v	-10.9886
▁mou	-10.9893
▁mënoo	-10.9898
goom	-10.9918
▁souhait	-10.9925
▁rem	-10.9958
▁reten	-10.9969
issent	-10.9972
mar	-10.9973
▁jekku	-10.998
ëb	-10.9997
andal	-11.002
▁to	-11.0021
▁Ami	-11.0032
eut	-11.0052
▁Der	-11.006
▁wee	-11.0061
▁o	-11.0067
fal	-11.0077
ndigal	-11.0077
▁daas	-11.0081
▁souci	-11.0087
▁Be	-11.0092
ères	-11.0092
ersi	-11.0094
▁organis	-11.0122
▁Aj	-11.0126
éli	-11.0134
che	-11.0142
▁bër	-11.015
▁roo	-11.0161
▁pan	-11.0169
daas	-11.0183
▁chauff	-11.0211
▁baaw	-11.0218
▁naw	-11.0225
ises	-11.0234
▁foi	-11.0238
esse	-11.0241
mené	-11.0254
ac	-11.0262
▁ño	-11.0269
én	-11.0284
▁nuits	-11.0288
▁see	-11.0289
▁fourr	-11.0315
▁Ngo	-11.0322
▁entend	-11.0329
▁assise	-11.034
àqal	-11.0342
irais	-11.0346
ain	-11.0365
▁Xee	-11.0369
▁yatt	-11.0375
▁senti	-11.0388
tes	-11.0409
ola	-11.041
▁yooy	-11.0411
nes	-11.0439
▁parl	-11.0448
▁lawoon	-11.0453
ŋun	-11.0468
▁pousse	-11.0474
matu	-11.0474
xal	-11.0475
▁Gàdd	-11.0482
▁sale	-11.0501
▁Agsi	-11.052
▁yemu	-11.0523
imes	-11.0524
laam	-11.0526
▁dise	-11.053
▁reew	-11.0538
lions	-11.055
▁représente	-11.0552
▁ñun	-11.0558
hn	-11.0572
eti	-11.0583
▁dét	-11.0586
▁av	-11.0598
ute	-11.0612
endorm	-11.0625
ubb	-11.0645
jantu	-11.0645
▁dong	-11.0652
out	-11.0661
▁fri	-11.0663
▁xo	-11.0677
▁appart	-11.0679
porté	-11.068
faites	-11.0682
ends	-11.0694
▁Ndi	-11.0704
cle	-11.0715
ssait	-11.0723
▁Abo	-11.073
▁arrêt	-11.074
aimes	-11.0748
▁daga	-11.0757
ad	-11.0758
▁conte	-11.0774
axum	-11.0774
éen	-11.0781
habille	-11.0783
jou	-11.0786
▁teint	-11.0789
àttaay	-11.0793
éet	-11.0805
xe	-11.0824
▁teewu	-11.0824
▁gare	-11.0834
jaa	-11.0837
▁yaru	-11.0845
▁rob	-11.0866
▁cou	-11.0867
▁sut	-11.087
gël	-11.0873
▁Gëm	-11.0874
tenir	-11.0878
ës	-11.0892
▁boob	-11.0893
▁chameau	-11.0893
▁couche	-11.0917
▁rong	-11.0918
▁normal	-11.0921
aaya	-11.0938
ffrir	-11.0944
eeñ	-11.0945
▁rayon	-11.0954
ass	-11.0968
▁gé	-11.0975
méeri	-11.0981
undu	-11.0987
▁Sor	-11.1001
lan	-11.1002
▁rassembl	-11.1004
▁tourn	-11.1021
▁dispos	-11.1029
▁Sëri	-11.1031
▁isolé	-11.1031
▁repris	-11.1033
▁monta	-11.104
▁lekke	-11.1059
our	-11.1063
▁caché	-11.1066
ef	-11.1069
aaw	-11.1091
▁jëmm	-11.1101
▁poussé	-11.1106
▁biiri	-11.1119
▁gr	-11.1141
bb	-11.1154
▁joue	-11.1171
▁fla	-11.1177
▁lem	-11.1208
▁nourris	-11.1214
▁yaroo	-11.1222
▁një	-11.1238
▁verse	-11.1243
aag	-11.1246
▁màgg	-11.1247
stitué	-11.1254
▁Mac	-11.1265
ord	-11.1267
▁bri	-11.127
▁Ar	-11.1286
ifs	-11.129
rude	-11.1294
eeb	-11.13
▁arrach	-11.1314
▁dép	-11.1316
▁pleu	-11.1318
rop	-11.1319
▁fermé	-11.1324
▁Baat	-11.1326
ordre	-11.1327
inam	-11.1339
▁ob	-11.134
ose	-11.1345
sses	-11.1346
▁pro	-11.135
bee	-11.1354
▁bàyyee	-11.1369
ouvre	-11.137
rmis	-11.14
▁dëbb	-11.1405
▁saura	-11.1412
venu	-11.1413
ppati	-11.1416
ssante	-11.142
▁peint	-11.1425
xaw	-11.1427
anu	-11.1431
rgent	-11.1431
▁Waxu	-11.144
▁wuut	-11.1442
▁wë	-11.1444
▁ndi	-11.1453
▁esc	-11.1454
omp	-11.1458
▁conçu	-11.1459
▁gàdd	-11.1463
▁terrasse	-11.1473
▁racont	-11.148
▁prendra	-11.1482
óoli	-11.1482
ëj	-11.1485
teem	-11.1492
accompagne	-11.1496
▁parcour	-11.1496
isme	-11.1505
ienne	-11.1506
cre	-11.1515
imp	-11.1517
vi	-11.1518
▁joxe	-11.1525
oreille	-11.1533
▁coule	-11.1533
▁moomee	-11.1537
▁ngone	-11.1547
▁nd	-11.1548
▁mbe	-11.1549
▁Européen	-11.1549
▁distance	-11.1551
▁moustiquaire	-11.1551
▁musulman	-11.1551
▁secret	-11.1552
▁prospère	-11.1552
▁caravane	-11.1552
▁ngoog	-11.1554
▁kaf	-11.1556
▁rituel	-11.156
▁touch	-11.156
▁vautour	-11.156
▁perçoi	-11.1567
▁imagin	-11.1576
▁réuni	-11.1578
▁lutteur	-11.1579
▁soldat	-11.158
solu	-11.1581
Européens	-11.1582
espoir	-11.1582
émotion	-11.1582
▁Foof	-11.1582
ordures	-11.1583
percé	-11.1583
▁militaire	-11.1584
▁relation	-11.1585
pus	-11.1585
objet	-11.1585
▁waaja	-11.1585
▁couché	-11.1587
▁fleur	-11.1588
I	-11.159
étendue	-11.1591
▁ramass	-11.1593
hyène	-11.1596
échapp	-11.1596
▁promen	-11.1597
▁mangue	-11.1597
hôte	-11.1598
science	-11.1599
utilis	-11.16
vienne	-11.16
▁vague	-11.1601
▁étage	-11.1601
manche	-11.1601
E	-11.1601
ëgg	-11.1602
▁civil	-11.1602
daamar	-11.1602
arrivée	-11.1604
voie	-11.1604
Aro	-11.1608
naissance	-11.1609
état	-11.161
yëngu	-11.1613
feebar	-11.1614
yaram	-11.1619
viennent	-11.162
étranger	-11.1621
construi	-11.1623
ancien	-11.1625
loxo	-11.1627
ndale	-11.1628
bles	-11.1633
▁wóo	-11.1636
yaa	-11.1637
jaay	-11.1639
agir	-11.1639
ekool	-11.1639
doole	-11.1641
peur	-11.1641
▁enfoncé	-11.1641
daar	-11.1642
▁trace	-11.1643
donc	-11.1644
fara	-11.1646
assemble	-11.165
ñetti	-11.1652
insectes	-11.1656
▁wadd	-11.1658
samaan	-11.166
▁Gumb	-11.167
etul	-11.1672
jaar	-11.1673
▁naqad	-11.1673
▁tourbillon	-11.1673
▁réveille	-11.1674
ouille	-11.1674
▁hôte	-11.1674
▁Tan	-11.1681
allume	-11.1682
▁masque	-11.1683
off	-11.1683
▁Yooy	-11.1684
▁forox	-11.1691
▁rappel	-11.1691
hoisi	-11.1694
▁foye	-11.1694
▁remonte	-11.1695
tuuti	-11.1699
▁mere	-11.1701
▁gri	-11.1706
ajaa	-11.1707
▁résist	-11.1707
▁danger	-11.1708
▁tissé	-11.171
ançai	-11.1712
ables	-11.1712
ière	-11.1714
▁Confi	-11.1715
▁Babungo	-11.1717
humid	-11.1717
origine	-11.1717
térieur	-11.1717
▁gâteau	-11.1718
▁poli	-11.1718
envol	-11.1718
▁sàq	-11.1719
▁kepp	-11.1719
▁européen	-11.1719
nze	-11.1719
nesi	-11.1719
ctif	-11.172
▁myst	-11.172
▁firnde	-11.172
▁ŋgoogu	-11.172
▁porc	-11.1721
sultat	-11.1721
▁propriét	-11.1721
▁tradition	-11.1721
▁Radiyasi	-11.1721
▁recommenc	-11.1721
▁renvoy	-11.1721
4	-11.1721
Adamawa	-11.1721
Unis	-11.1721
calpel	-11.1721
enfonce	-11.1721
fraîch	-11.1721
incendie	-11.1721
obscur	-11.1721
rologique	-11.1721
splendi	-11.1721
urgence	-11.1721
xóll	-11.1721
Ô	-11.1721
ébénier	-11.1721
énergie	-11.1721
▁195	-11.1721
▁Algérie	-11.1721
▁Bénuwe	-11.1721
▁Cokkeer	-11.1721
▁Colonie	-11.1721
▁Fields	-11.1721
▁Français	-11.1721
▁Habi	-11.1721
▁Kàttan	-11.1721
▁Sapoŋ	-11.1721
▁Surveille	-11.1721
▁affluent	-11.1721
▁bandoulière	-11.1721
▁banlieue	-11.1721
▁benkeñenke	-11.1721
▁bànxaas	-11.1721
▁camarades	-11.1721
▁caricatural	-11.1721
▁chirurgi	-11.1721
▁chrétiens	-11.1721
▁climatiseurs	-11.1721
▁comparer	-11.1721
▁conversation	-11.1721
▁coutume	-11.1721
▁couvercle	-11.1721
▁craquelée	-11.1721
▁cérémonie	-11.1721
▁discussion	-11.1721
▁dispensaire	-11.1721
▁douleur	-11.1721
▁dysenterie	-11.1721
▁détermination	-11.1721
▁déçu	-11.1721
▁encerclé	-11.1721
▁excessif	-11.1721
▁gafaka	-11.1721
▁grillées	-11.1721
▁gàngiri	-11.1721
▁hanche	-11.1721
▁harceler	-11.1721
▁immeuble	-11.1721
▁indisciplin	-11.1721
▁invisible	-11.1721
▁jóolóoli	-11.1721
▁lépreux	-11.1721
▁lézard	-11.1721
▁margouillat	-11.1721
▁marigot	-11.1721
▁minuscule	-11.1721
▁médiocr	-11.1721
▁méprise	-11.1721
▁njoowaan	-11.1721
▁njég	-11.1721
▁oblige	-11.1721
▁occulte	-11.1721
▁particulier	-11.1721
▁pauvre	-11.1721
▁pelouse	-11.1721
▁pièce	-11.1721
▁plonge	-11.1721
▁preuve	-11.1721
▁ranc	-11.1721
▁reconnaître	-11.1721
▁recouvert	-11.1721
▁respire	-11.1721
▁ridicule	-11.1721
▁rompre	-11.1721
▁roppëlaan	-11.1721
▁récompense	-11.1721
▁résidence	-11.1721
▁résignation	-11.1721
▁sautille	-11.1721
▁sportive	-11.1721
▁syphilis	-11.1721
▁totaux	-11.1721
▁treize	-11.1721
▁tribales	-11.1721
▁écrivent	-11.1721
▁étouffante	-11.1721
▁ófise	-11.1721
apparition	-11.1721
inéluctable	-11.1721
▁Soxna	-11.1721
▁assailli	-11.1721
▁djinn	-11.1721
▁pikiir	-11.1721
▁retard	-11.1721
▁réclame	-11.1721
▁taariix	-11.1721
▁épargn	-11.1721
avancé	-11.1721
impossib	-11.1721
▁Faranse	-11.1721
▁biddanti	-11.1721
▁brindille	-11.1721
▁bëmëx	-11.1721
▁cafards	-11.1721
▁charbon	-11.1721
▁considérable	-11.1721
▁cordonnier	-11.1721
▁craquer	-11.1721
▁impeccable	-11.1721
▁mboq	-11.1721
▁mâle	-11.1721
▁noyyee	-11.1721
▁oeuf	-11.1721
▁protég	-11.1721
▁raciale	-11.1721
▁spéci	-11.1721
▁tremper	-11.1721
▁ténia	-11.1721
▁ñàng	-11.1721
mbrées	-11.1721
▁Génn	-11.1721
▁colonisation	-11.1721
▁critique	-11.1721
▁Autrefois	-11.1721
▁Lorsqu	-11.1721
▁blessure	-11.1721
▁certitude	-11.1721
▁dispañseer	-11.1721
▁ginnax	-11.1721
▁goyave	-11.1721
▁générosité	-11.1721
▁joxoñ	-11.1721
▁latérite	-11.1721
▁problème	-11.1721
▁brutale	-11.1721
▁cassure	-11.1721
▁défens	-11.1721
▁mbëggeel	-11.1721
▁naŋgu	-11.1721
▁parfaite	-11.1721
▁sinemaa	-11.1721
▁traditionnelle	-11.1721
▁blessé	-11.1721
▁dégoût	-11.1721
▁fluide	-11.1721
▁méthod	-11.1721
▁sébbi	-11.1721
▁tissu	-11.1721
▁carafe	-11.1721
▁iróko	-11.1721
▁mouillé	-11.1721
▁serviteurs	-11.1721
▁Saawusamton	-11.1721
▁moustiques	-11.1721
▁veuille	-11.1721
▁wodd	-11.1721
▁Coran	-11.1721
▁karwaat	-11.1721
▁màkkaan	-11.1721
▁recevoir	-11.1721
étude	-11.1721
▁Aïe	-11.1721
▁bienfait	-11.1721
▁cinquante	-11.1721
ligence	-11.1721
▁lislaam	-11.1721
▁popula	-11.1721
▁concern	-11.1721
▁allumette	-11.1721
▁torche	-11.1721
▁abattu	-11.1721
▁ëw	-11.1721
▁Jëkkër	-11.1721
▁Riwër	-11.1721
▁pneu	-11.1721
▁boulettes	-11.1721
▁indécent	-11.1721
▁visible	-11.1721
▁chanson	-11.1721
▁suppose	-11.1721
poussiér	-11.1721
▁Fàttewu	-11.1721
▁yëngoo	-11.1721
▁épuis	-11.1721
▁Japon	-11.1721
▁Kàddu	-11.1721
▁remède	-11.1721
▁initié	-11.1721
▁bataille	-11.1721
▁gallax	-11.1721
▁pénible	-11.1721
▁Fiild	-11.1721
emploi	-11.1721
▁Woy	-11.1721
▁Polisoŋ	-11.1721
▁fànn	-11.1721
▁ancêtres	-11.1721
▁inconnu	-11.1721
▁pacifi	-11.1721
▁Diop	-11.1721
▁coûte	-11.1721
▁fétich	-11.1721
▁placé	-11.1721
▁sujet	-11.1721
▁résonne	-11.1721
▁Alseri	-11.1721
▁plaintes	-11.1721
kumpa	-11.1721
▁batã	-11.1721
▁politique	-11.1721
▁galeries	-11.1721
▁soppikoo	-11.1721
▁ñebbe	-11.1721
▁totale	-11.1721
▁River	-11.1721
▁faxas	-11.1721
▁musiba	-11.1721
affût	-11.1721
▁proue	-11.1721
▁Saalum	-11.1721
▁jaawale	-11.1721
▁chute	-11.1722
▁sculptés	-11.1722
▁baadoolo	-11.1722
▁dedans	-11.1722
▁réduit	-11.1722
▁accé	-11.1722
▁wékk	-11.1722
▁xëm	-11.1722
▁déborda	-11.1722
âme	-11.1722
▁Wàññil	-11.1722
▁épais	-11.1722
▁garbo	-11.1722
▁genoux	-11.1722
▁aimait	-11.1722
▁faagaagal	-11.1722
▁vêtements	-11.1722
▁ferñent	-11.1722
▁Indiens	-11.1722
ourra	-11.1722
▁chéri	-11.1722
▁Bénoué	-11.1722
▁tàyyi	-11.1722
▁proie	-11.1722
▁Coono	-11.1722
▁promesse	-11.1722
▁Enduis	-11.1722
▁colonne	-11.1722
▁fourch	-11.1722
▁prétend	-11.1722
▁janool	-11.1722
▁ministre	-11.1722
▁descente	-11.1722
▁publique	-11.1722
▁dëgm	-11.1722
▁reviendra	-11.1722
▁pêche	-11.1722
▁geestu	-11.1723
▁vibr	-11.1723
▁refusai	-11.1723
▁devenir	-11.1723
▁Altine	-11.1723
▁Ndeg	-11.1723
▁mëdd	-11.1723
▁jaabante	-11.1723
▁Dëkkandoo	-11.1723
▁religieux	-11.1723
demba	-11.1723
▁rajoom	-11.1723
▁ruuj	-11.1723
▁karaaf	-11.1723
▁Abdou	-11.1723
▁sourd	-11.1723
▁yaxeet	-11.1723
▁xamadi	-11.1723
▁glacé	-11.1723
▁Ndem	-11.1723
▁reetaan	-11.1723
▁griot	-11.1723
vier	-11.1724
▁fëlë	-11.1724
▁Diggante	-11.1724
▁Fecc	-11.1724
▁cuq	-11.1724
▁tilim	-11.1724
▁dédd	-11.1724
▁Niseer	-11.1724
▁lettre	-11.1724
▁monument	-11.1724
▁sorcier	-11.1724
▁orages	-11.1724
▁këruus	-11.1724
▁fell	-11.1724
▁bagaas	-11.1724
▁butit	-11.1724
▁superposé	-11.1724
▁mbëtt	-11.1724
▁gorilles	-11.1724
▁haie	-11.1724
▁mètres	-11.1724
▁mébét	-11.1724
▁jaaxle	-11.1725
▁fexeel	-11.1725
▁religieuse	-11.1725
▁promis	-11.1725
▁assassiné	-11.1725
▁kéwël	-11.1725
▁Aadamawa	-11.1725
▁ňoom	-11.1725
▁brûlait	-11.1725
▁défait	-11.1725
▁Niger	-11.1726
▁poison	-11.1726
aigre	-11.1726
▁sagar	-11.1726
▁manies	-11.1726
ddiw	-11.1726
àbbal	-11.1726
paradis	-11.1726
aleekum	-11.1726
▁wisit	-11.1726
▁ruine	-11.1726
▁toux	-11.1726
▁colons	-11.1726
▁Ngom	-11.1726
▁Yeew	-11.1727
▁répara	-11.1727
kiis	-11.1727
▁mortier	-11.1727
utér	-11.1727
▁sages	-11.1727
taññ	-11.1727
▁voyait	-11.1727
▁vieillesse	-11.1727
▁tàbbi	-11.1728
▁conco	-11.1728
▁kaani	-11.1728
▁humide	-11.1728
▁Dites	-11.1728
écorch	-11.1728
▁tooñ	-11.1728
▁satisfait	-11.1728
Africain	-11.1728
▁papier	-11.1729
activ	-11.1729
mall	-11.1729
▁limite	-11.1729
▁consacré	-11.1729
▁wol	-11.1729
▁reposer	-11.1729
iront	-11.1729
elloo	-11.1729
▁siège	-11.1729
▁njool	-11.1729
▁yéjje	-11.1729
▁duuful	-11.173
awbe	-11.173
▁Sàmm	-11.173
▁béj	-11.173
▁généralement	-11.173
▁contrai	-11.1731
▁gubal	-11.1731
▁récolter	-11.1731
▁travaillait	-11.1731
▁jinne	-11.1731
▁Kari	-11.1732
▁relev	-11.1732
▁Wiyaa	-11.1732
▁Fàll	-11.1732
▁dammat	-11.1733
▁préven	-11.1733
▁pàkk	-11.1733
▁piment	-11.1733
▁dëmm	-11.1733
▁féexlu	-11.1734
▁supporter	-11.1734
▁cuub	-11.1734
▁karo	-11.1734
ension	-11.1734
▁Peul	-11.1734
escalier	-11.1734
▁poche	-11.1734
▁Dàq	-11.1734
▁Suukar	-11.1735
▁Garde	-11.1735
▁xott	-11.1735
▁Allons	-11.1735
▁Jóob	-11.1735
▁tache	-11.1735
▁Eux	-11.1735
onsieur	-11.1735
▁gerbe	-11.1735
▁rentré	-11.1735
▁vivaient	-11.1735
▁revoir	-11.1736
ouc	-11.1736
▁talent	-11.1736
piri	-11.1736
▁digaale	-11.1736
atement	-11.1736
rigé	-11.1736
▁venin	-11.1736
▁camion	-11.1736
▁jeunesse	-11.1737
▁bindu	-11.1737
▁fuuy	-11.1737
▁fendi	-11.1738
▁film	-11.1738
▁ancienne	-11.1738
▁beauté	-11.1738
étail	-11.1738
▁këf	-11.1738
▁Ijama	-11.1738
▁goroŋ	-11.1738
accorder	-11.1738
urine	-11.1738
▁miel	-11.1739
▁saabu	-11.1739
▁pleut	-11.1739
▁etaas	-11.1739
▁saŋx	-11.1739
opération	-11.1739
nous	-11.1739
▁ôte	-11.1739
▁Bë	-11.1739
▁sérieux	-11.174
▁Yokkal	-11.174
▁yombul	-11.174
▁Sàll	-11.174
aboure	-11.174
▁tenait	-11.174
▁tresser	-11.174
▁Sall	-11.1741
emmène	-11.1741
▁origines	-11.1741
▁livré	-11.1741
▁ndoorte	-11.1741
▁durée	-11.1742
▁soupir	-11.1742
▁veau	-11.1742
ampe	-11.1742
▁semblait	-11.1743
▁Dinañu	-11.1743
▁yéy	-11.1743
▁cachai	-11.1743
▁Bro	-11.1743
▁Fanaan	-11.1743
ttarñi	-11.1743
▁justifi	-11.1743
▁ganale	-11.1744
▁plaisante	-11.1744
▁moderne	-11.1744
▁sàpp	-11.1744
▁fóon	-11.1744
▁pet	-11.1744
▁Tàngaay	-11.1745
▁nàmp	-11.1745
▁Deret	-11.1745
▁apparue	-11.1745
▁revanche	-11.1745
▁équatoriale	-11.1745
▁Ferme	-11.1745
▁Riis	-11.1745
▁bóoy	-11.1746
▁Dugal	-11.1746
▁paas	-11.1746
▁feem	-11.1746
▁pipe	-11.1747
▁wenn	-11.1747
▁taillé	-11.1747
▁reyante	-11.1748
▁mësul	-11.1748
▁chap	-11.1748
▁messager	-11.1748
cité	-11.1748
▁apportai	-11.1749
▁instrument	-11.1749
▁ordinaire	-11.1749
▁siècle	-11.1749
▁trempé	-11.1749
▁entoure	-11.1749
▁jikko	-11.1749
▁niveau	-11.1749
▁lendemain	-11.1749
▁humeur	-11.1749
▁bouillir	-11.1749
▁niróo	-11.175
▁tënk	-11.175
▁yégee	-11.175
▁Jën	-11.175
zar	-11.175
▁xumb	-11.175
▁Nguur	-11.175
▁natale	-11.175
▁fàll	-11.1751
▁voler	-11.1751
▁dajeel	-11.1751
▁oiseaux	-11.1751
▁rôle	-11.1751
▁gaana	-11.1752
▁Damm	-11.1752
▁ŋaam	-11.1752
umeur	-11.1752
▁tukkee	-11.1752
▁pus	-11.1752
▁gëmoon	-11.1753
▁police	-11.1753
▁Suuf	-11.1753
▁fem	-11.1753
▁jadd	-11.1753
▁yegsi	-11.1753
▁ñorul	-11.1754
▁moqu	-11.1754
▁mortel	-11.1754
bari	-11.1754
▁dàmp	-11.1754
▁danañ	-11.1755
▁yewwu	-11.1755
▁bagages	-11.1756
▁vaccins	-11.1756
▁Fall	-11.1756
▁habillé	-11.1756
▁géant	-11.1758
▁Teggi	-11.1758
▁tanc	-11.1758
▁trouée	-11.1758
▁yewwi	-11.1758
▁pistes	-11.1758
▁dépend	-11.1758
▁bouché	-11.1759
▁forger	-11.1759
▁cherchait	-11.176
▁ramasser	-11.1761
▁arrivant	-11.1761
▁laisseras	-11.1761
▁aimé	-11.1761
usion	-11.1761
▁secours	-11.1761
▁Autre	-11.1761
▁Njaay	-11.1761
▁inventé	-11.1762
▁Suku	-11.1762
agaie	-11.1763
▁luxe	-11.1763
▁nóox	-11.1764
▁weexaay	-11.1764
▁demkoonul	-11.1764
▁qualité	-11.1764
▁millions	-11.1764
▁saakam	-11.1764
▁dënnam	-11.1764
▁rendait	-11.1765
ssage	-11.1765
▁contrebas	-11.1766
▁génnaan	-11.1766
▁suivant	-11.1767
▁foule	-11.1767
▁métall	-11.1767
▁maîtresse	-11.1767
▁aboie	-11.1768
osité	-11.1768
▁bàyyima	-11.1769
▁jëkkëram	-11.177
▁partez	-11.177
▁cher	-11.177
Louisien	-11.177
▁Foofa	-11.1771
▁sukkandik	-11.1771
▁écriture	-11.1771
▁paan	-11.1771
▁Yooyu	-11.1772
▁xëccee	-11.1772
▁étudie	-11.1773
▁croc	-11.1773
▁repasse	-11.1774
▁xotti	-11.1774
▁bientôt	-11.1775
▁sàqam	-11.1776
▁signe	-11.1776
▁gamb	-11.1777
▁relié	-11.1778
▁excité	-11.1779
▁Takkal	-11.1779
▁gàcce	-11.178
▁déq	-11.1781
▁daf	-11.1781
▁zé	-11.1782
▁sawar	-11.1784
▁xarat	-11.1784
▁yàcc	-11.1785
▁àggee	-11.1785
▁débarqu	-11.1786
▁dalukaay	-11.1786
▁Ngon	-11.1786
aliment	-11.1787
andaar	-11.1788
▁flanc	-11.179
éwël	-11.179
▁pén	-11.1791
▁laalee	-11.1792
▁segg	-11.1792
▁Wée	-11.1792
eff	-11.1793
▁Néegu	-11.1794
▁noue	-11.1794
▁Ah	-11.1794
▁léebal	-11.1794
▁étoile	-11.1797
▁bëccëg	-11.1797
▁approche	-11.1798
▁daara	-11.1798
▁gàñ	-11.1798
▁épaisse	-11.1799
▁appartement	-11.1799
▁attrape	-11.18
▁lever	-11.18
▁fuite	-11.1802
▁utilisé	-11.1803
▁tenu	-11.1803
aal	-11.1803
▁prostitu	-11.1803
▁mulet	-11.1804
▁gang	-11.1805
▁différente	-11.1805
pression	-11.1805
▁bark	-11.1806
▁esprits	-11.1806
ndeer	-11.1806
tuaire	-11.1807
▁kañ	-11.1808
▁pilon	-11.1809
▁pont	-11.181
▁fabriqu	-11.181
▁durant	-11.181
eesu	-11.1811
▁saisir	-11.1811
▁Fenn	-11.1812
▁culot	-11.1812
▁xàmb	-11.1813
augment	-11.1815
waas	-11.1815
▁lointains	-11.1815
▁tiroirs	-11.1815
▁palmiers	-11.1815
▁ganesi	-11.1815
▁semblables	-11.1816
▁lég	-11.1816
▁plumes	-11.1818
▁anecdote	-11.1818
▁doyul	-11.1818
▁dépe	-11.1818
▁Xarit	-11.1818
▁yaatal	-11.1819
▁raŋ	-11.1819
▁dieu	-11.1819
▁messie	-11.1821
▁Won	-11.1821
àrt	-11.1824
▁oreiller	-11.1824
▁dinañ	-11.1826
▁contenu	-11.1828
▁Commence	-11.1828
▁tendu	-11.1828
yëg	-11.1829
▁pen	-11.1832
▁téj	-11.1832
▁griffé	-11.1832
▁conservé	-11.1832
évalu	-11.1833
▁matière	-11.1833
▁Aie	-11.1835
dits	-11.1838
▁woyal	-11.184
▁dàgga	-11.184
nable	-11.1841
▁pile	-11.1843
▁emmen	-11.1845
▁exige	-11.1845
▁sànneek	-11.1846
▁caq	-11.1846
▁détail	-11.1847
ňeent	-11.1847
agrandi	-11.1847
▁science	-11.1847
▁hyène	-11.1848
▁fondé	-11.1849
mond	-11.185
▁échange	-11.1852
▁Bare	-11.1853
▁Seul	-11.1854
entrer	-11.1855
▁jawwu	-11.1855
oum	-11.1858
▁wure	-11.1861
istes	-11.1862
naires	-11.1864
ition	-11.1865
▁générale	-11.1865
amul	-11.1866
allait	-11.1868
ham	-11.1869
▁volé	-11.187
▁tàkkal	-11.187
▁regardent	-11.1876
ikk	-11.1877
▁noble	-11.1877
▁étages	-11.1877
▁perçois	-11.1877
xosi	-11.1878
▁couchés	-11.1879
▁conçus	-11.1879
ents	-11.1881
▁déwén	-11.1881
gelaw	-11.1882
▁Kee	-11.1883
▁sexe	-11.1883
▁égal	-11.1885
àññi	-11.1886
évent	-11.1888
particulièrement	-11.1888
▁ameel	-11.1888
▁soxlaa	-11.1889
▁form	-11.1891
toŋ	-11.1894
▁dibi	-11.1896
▁kare	-11.1897
▁avenir	-11.1899
raw	-11.19
▁Ño	-11.19
▁cho	-11.1901
▁différentes	-11.1904
▁soloo	-11.1905
▁gourde	-11.1909
daw	-11.1909
▁penser	-11.1911
▁xiir	-11.1914
xte	-11.1915
▁dundale	-11.1915
▁diras	-11.1915
▁Soppi	-11.1916
▁Ja	-11.1916
▁pann	-11.1916
▁Dogal	-11.1918
▁lunette	-11.1918
dée	-11.1919
▁bonul	-11.1919
▁tress	-11.192
▁rafetul	-11.192
▁sco	-11.1921
jënd	-11.1921
eetuñu	-11.1925
▁duuf	-11.1926
▁Jël	-11.1926
▁bat	-11.1927
▁yëge	-11.1929
▁jëw	-11.1932
▁Dajale	-11.1933
▁gëje	-11.1935
▁Séy	-11.1936
lave	-11.1938
▁moyens	-11.194
▁âgés	-11.194
▁flèches	-11.194
▁enfin	-11.1941
raal	-11.1941
▁déey	-11.1942
▁Daay	-11.1944
▁pattes	-11.1944
▁fecci	-11.1945
▁tasses	-11.1946
ànq	-11.1949
réy	-11.1949
▁prest	-11.195
▁guddal	-11.1951
▁dikkee	-11.1956
▁Porte	-11.1959
▁jépp	-11.196
▁dundal	-11.1964
▁Pom	-11.1964
▁prêter	-11.1965
▁tiré	-11.1965
ttait	-11.1965
▁écouter	-11.1966
▁réf	-11.1968
▁ouvertes	-11.1968
▁colonie	-11.197
▁dàqe	-11.197
pulsé	-11.197
▁tiital	-11.1974
▁transe	-11.1974
▁newu	-11.1979
▁Ras	-11.1979
yya	-11.1982
▁disp	-11.1982
jour	-11.1983
maam	-11.1983
▁Ñun	-11.1984
▁tag	-11.1984
isson	-11.1986
gonflé	-11.1986
▁médicale	-11.1986
▁cousine	-11.1986
▁ben	-11.199
▁neexoon	-11.1991
bartal	-11.1992
▁copp	-11.1995
ouï	-11.2003
▁fusils	-11.2004
▁autrefois	-11.2004
▁dolli	-11.2005
▁faat	-11.2007
sañ	-11.2009
▁nekkin	-11.2009
▁bos	-11.2012
▁hâte	-11.2013
▁voyageur	-11.2013
▁gén	-11.2017
▁Mer	-11.2019
uji	-11.2023
▁xadde	-11.2027
▁usé	-11.2029
▁marchera	-11.2034
samba	-11.2042
▁tournée	-11.2044
▁cuisiner	-11.2044
▁décoré	-11.2053
▁waxtoo	-11.2054
▁reere	-11.2058
side	-11.2062
▁bës	-11.2062
ooñii	-11.2064
▁pareils	-11.2066
▁braves	-11.2066
lettes	-11.2067
▁tambours	-11.2067
▁différents	-11.207
▁dëkkoo	-11.207
▁chantant	-11.2074
▁déem	-11.2084
▁caar	-11.2088
▁pënde	-11.2091
né	-11.2094
oyez	-11.2101
▁léppam	-11.2101
▁nuque	-11.2102
▁africaines	-11.2103
tif	-11.2107
▁venger	-11.2112
▁pè	-11.2116
▁bouff	-11.2123
▁diri	-11.2123
▁Foor	-11.2123
▁bac	-11.2125
fet	-11.2131
ueux	-11.2132
▁Gaal	-11.2132
▁meneen	-11.2138
trappe	-11.2141
èt	-11.2141
▁broy	-11.2142
▁risque	-11.2147
▁autorité	-11.2161
sensible	-11.2168
▁mënatu	-11.2172
▁Nil	-11.2175
▁mos	-11.2177
▁ëppal	-11.2178
▁brill	-11.2181
▁amen	-11.2183
oulé	-11.2188
alité	-11.2192
▁maîtres	-11.2192
▁gob	-11.2193
▁déplaisa	-11.2195
tais	-11.2196
▁dessine	-11.2196
▁lepp	-11.2202
▁gam	-11.2208
▁vertu	-11.2208
aali	-11.2212
▁nuyu	-11.2212
bin	-11.2215
▁crai	-11.2216
▁char	-11.2223
▁fra	-11.2234
▁Bal	-11.2236
sme	-11.2237
tëx	-11.2246
nou	-11.2248
▁courb	-11.2255
▁étrangers	-11.2258
isole	-11.226
▁rêves	-11.2261
▁gagne	-11.2264
▁caŋ	-11.2267
aane	-11.227
▁Gore	-11.227
▁cli	-11.2271
▁Dóo	-11.2273
▁defarkat	-11.2277
sement	-11.228
▁jub	-11.2282
deur	-11.2288
▁ferai	-11.229
▁cuu	-11.2297
euss	-11.2299
▁masse	-11.23
jurukaay	-11.2303
▁fete	-11.2306
▁nob	-11.2313
nne	-11.2315
▁opeereka	-11.2317
▁Bariwu	-11.2324
daa	-11.2324
ngé	-11.2327
arrêter	-11.2333
▁Daawu	-11.2336
dit	-11.2336
▁wërale	-11.234
▁confin	-11.2346
▁ava	-11.2354
▁nekkul	-11.236
▁nourriss	-11.2361
of	-11.2361
lir	-11.2362
▁fëll	-11.2367
▁abord	-11.2371
▁rassemblé	-11.2372
▁caw	-11.2377
ncer	-11.2381
ident	-11.2382
▁Kook	-11.2388
▁taxawaay	-11.2391
▁bouton	-11.2392
▁jà	-11.2399
▁retire	-11.2403
▁laisses	-11.2413
arrachait	-11.2414
▁plair	-11.2416
▁exa	-11.2421
▁mask	-11.2422
▁biiñ	-11.2422
▁dàkka	-11.2425
▁guette	-11.2427
▁lekkee	-11.2431
▁em	-11.2436
àgg	-11.2442
àmb	-11.2444
▁xoole	-11.2449
▁messe	-11.2465
dunq	-11.2473
▁Ga	-11.2478
▁destiné	-11.248
▁enseigne	-11.2484
▁provoque	-11.2485
▁Gara	-11.2485
jàmbaar	-11.2496
▁partit	-11.2499
▁perdue	-11.2505
▁pensée	-11.2506
▁répare	-11.2514
▁Ek	-11.252
▁jëli	-11.252
▁besoins	-11.2521
▁extrai	-11.2521
colis	-11.2532
▁compl	-11.2535
énorme	-11.2537
loué	-11.2538
▁lave	-11.2539
▁atam	-11.2546
ront	-11.2554
activer	-11.2567
ssine	-11.2572
ékkee	-11.2583
▁souvenirs	-11.2587
▁fam	-11.2587
kook	-11.2589
ipite	-11.2594
▁goor	-11.2605
▁digal	-11.2619
inet	-11.2622
▁jolies	-11.2622
achet	-11.2624
jus	-11.2626
▁normale	-11.263
▁voya	-11.2637
▁descendra	-11.2639
koonuñu	-11.2643
▁Dé	-11.2653
▁Laaj	-11.2653
▁jotu	-11.2658
kal	-11.2659
▁souten	-11.2662
▁Dée	-11.267
pho	-11.2672
▁dëdd	-11.2677
urant	-11.2684
arale	-11.2691
▁robe	-11.2701
issement	-11.2702
▁fàttalik	-11.2708
▁teqal	-11.2708
ientôt	-11.2713
▁Malheureu	-11.2715
éq	-11.2716
intéresse	-11.2716
▁wëri	-11.2716
▁defoon	-11.2718
▁hauteur	-11.2719
▁ñibbis	-11.2722
▁viv	-11.2723
trait	-11.2725
▁reven	-11.273
▁dëggu	-11.2732
▁utilis	-11.2742
▁Mal	-11.2745
▁booboo	-11.2754
▁supp	-11.2758
rés	-11.2762
aati	-11.2771
pon	-11.2777
▁gom	-11.2777
▁noires	-11.2785
▁morte	-11.2792
ige	-11.2794
pé	-11.2801
▁Daawul	-11.282
▁colli	-11.2824
mmi	-11.283
▁dëkkal	-11.2831
ugu	-11.2858
▁cuisines	-11.2863
▁Gil	-11.2865
▁indig	-11.2872
▁Daj	-11.2875
baana	-11.2876
▁guus	-11.2883
itions	-11.2886
gard	-11.2887
eri	-11.2888
▁rois	-11.289
▁defante	-11.2913
chi	-11.2919
aires	-11.293
ries	-11.2931
▁Ee	-11.2946
▁seau	-11.2967
▁parer	-11.2973
▁pou	-11.2974
▁Daa	-11.2977
▁wéeru	-11.298
▁Àll	-11.2999
sam	-11.3
▁rat	-11.3025
▁remplie	-11.3031
▁pouss	-11.3042
sique	-11.3045
▁tal	-11.3047
enfil	-11.3049
▁jal	-11.3053
existe	-11.3055
galu	-11.3057
ŋgeen	-11.3059
▁accroche	-11.3064
▁emport	-11.3064
▁noppalu	-11.3066
▁statue	-11.3067
▁circule	-11.3076
▁liggéeyi	-11.3082
▁Agsil	-11.3084
aye	-11.309
▁bé	-11.3096
▁née	-11.3102
▁paie	-11.3103
▁dispose	-11.3111
jëkk	-11.3124
emal	-11.3125
▁Dàll	-11.3132
▁courte	-11.3148
oll	-11.3158
▁Bëggul	-11.3171
▁argent	-11.3175
▁Mel	-11.3179
xa	-11.3179
▁faale	-11.3199
céd	-11.3203
venant	-11.3209
▁ruu	-11.3227
▁fokk	-11.323
▁gardée	-11.3233
ural	-11.3245
▁mien	-11.3252
ëm	-11.3254
▁lign	-11.328
▁basse	-11.3285
àttu	-11.329
ëfal	-11.3297
▁dim	-11.3316
iser	-11.332
ugub	-11.3329
▁wonn	-11.333
▁bou	-11.335
▁gên	-11.3361
▁Baxa	-11.3373
do	-11.3403
▁xul	-11.3407
▁waajal	-11.3411
▁nà	-11.3426
ëppu	-11.3431
▁demi	-11.3435
▁fet	-11.3438
écroul	-11.3439
oti	-11.3442
▁naam	-11.3448
ments	-11.3449
▁cé	-11.3479
▁toje	-11.3482
ewaan	-11.3489
▁excl	-11.3494
▁cal	-11.3498
▁jàlle	-11.3507
▁ndon	-11.3516
▁dépla	-11.3519
envers	-11.353
▁duñ	-11.3531
put	-11.3538
▁suffisa	-11.3538
reuse	-11.3538
oph	-11.3541
▁null	-11.3543
▁comb	-11.3544
adresse	-11.355
▁nëb	-11.3553
oppose	-11.3577
▁cul	-11.358
▁Dee	-11.3581
▁allés	-11.3583
▁laissée	-11.3587
▁dib	-11.3587
àppaa	-11.3599
▁claire	-11.3602
▁xolu	-11.3613
aaki	-11.3617
▁voie	-11.364
▁glisse	-11.3663
▁ñooñ	-11.3696
▁pl	-11.3719
▁fitt	-11.3737
▁pomm	-11.3745
▁kàttanu	-11.3748
accompagner	-11.3777
▁cél	-11.3779
▁connaître	-11.3782
ll	-11.3786
assé	-11.3791
▁Degg	-11.3792
▁Gàcce	-11.3795
▁baisse	-11.3802
eem	-11.3817
▁jubb	-11.3817
▁quitt	-11.3821
cal	-11.3833
▁dajee	-11.3853
▁saret	-11.3853
▁embr	-11.3869
▁Seeta	-11.3871
isser	-11.3882
▁remettr	-11.3889
yaam	-11.3897
mba	-11.3906
▁jooj	-11.3912
▁fl	-11.3933
▁moments	-11.3935
▁téyee	-11.3951
▁gaas	-11.3966
pérer	-11.3976
amène	-11.3984
aafu	-11.3985
▁bl	-11.4006
▁Suñ	-11.4036
▁Waxul	-11.4047
kor	-11.4049
elet	-11.4056
▁fuy	-11.4057
habitation	-11.4063
▁fir	-11.4068
▁séex	-11.4083
▁sépare	-11.4095
▁adopt	-11.41
ggi	-11.411
écoute	-11.4111
▁Jur	-11.4118
voûte	-11.4132
assi	-11.4135
ances	-11.4162
▁froide	-11.4162
▁amer	-11.4165
▁ndo	-11.4166
▁cultiver	-11.4169
▁Xo	-11.4171
▁cang	-11.4171
tiendra	-11.4173
lóox	-11.4177
▁gliss	-11.4179
dresse	-11.4186
iis	-11.419
changer	-11.4197
bul	-11.4217
▁safar	-11.4229
▁accroch	-11.4245
ttax	-11.4264
ada	-11.4272
▁oppos	-11.4279
▁coupée	-11.4287
▁consul	-11.4288
ane	-11.4288
rouler	-11.4294
▁eff	-11.4298
▁mode	-11.4318
ants	-11.4355
rient	-11.4355
rge	-11.4357
sung	-11.4357
mboo	-11.4359
▁comp	-11.436
gguma	-11.4369
▁paresseu	-11.4381
▁dootu	-11.4392
émi	-11.4396
osse	-11.4405
rewul	-11.4407
góorl	-11.4411
▁làmb	-11.4412
oie	-11.4435
engage	-11.4449
▁gra	-11.4466
gir	-11.4472
oxo	-11.4486
▁Ndaa	-11.4486
ég	-11.4486
▁ref	-11.4496
han	-11.4499
lets	-11.4504
gne	-11.4531
▁kak	-11.4534
▁aaye	-11.4534
▁vente	-11.4549
oŋŋ	-11.4554
vivre	-11.4569
koo	-11.4571
▁signifiai	-11.4577
iné	-11.458
mbi	-11.4588
▁ubb	-11.4589
▁race	-11.4594
▁dér	-11.4599
ades	-11.4606
bra	-11.4631
▁yooya	-11.4673
ànja	-11.4675
▁mod	-11.4696
ourn	-11.4696
▁terres	-11.4715
▁Sal	-11.473
ngu	-11.4756
▁regret	-11.4759
▁Want	-11.4785
nement	-11.4788
▁débouch	-11.4806
mis	-11.4818
▁Bam	-11.4818
alul	-11.4825
onde	-11.4829
▁cris	-11.4829
▁attribu	-11.4833
▁commémor	-11.4833
▁fal	-11.4837
▁procur	-11.4841
▁bag	-11.4845
▁taf	-11.485
masi	-11.4853
▁th	-11.4865
▁jéll	-11.4877
cul	-11.4886
▁dénu	-11.4898
▁enferm	-11.4913
▁bël	-11.4914
▁termin	-11.4916
oter	-11.492
▁Bat	-11.4924
▁ñàkke	-11.493
élé	-11.4939
lière	-11.4946
esses	-11.495
oque	-11.4966
▁Sooy	-11.4978
aarloo	-11.5006
iw	-11.5036
▁loxoo	-11.5042
▁dand	-11.5042
óol	-11.5075
▁redout	-11.5079
modes	-11.508
ôt	-11.5084
▁tase	-11.5091
bal	-11.5097
alante	-11.5103
▁piqu	-11.5114
gg	-11.5131
▁Pe	-11.5142
ppe	-11.5142
fant	-11.5147
▁bain	-11.515
▁écouta	-11.5169
▁combatt	-11.5174
▁actuelle	-11.5196
baat	-11.5203
▁dóo	-11.5207
▁aille	-11.521
àkkal	-11.5232
ajal	-11.5274
intéress	-11.5281
awle	-11.5286
usée	-11.529
▁tomba	-11.5292
res	-11.5301
▁teqale	-11.5311
ejje	-11.5323
rais	-11.5326
llu	-11.5328
lëpp	-11.533
oyd	-11.5342
ssé	-11.5349
ierge	-11.5374
▁pr	-11.538
▁coïncide	-11.5395
▁désire	-11.5407
jum	-11.5443
▁mët	-11.5447
▁active	-11.5493
▁gard	-11.5508
gan	-11.552
nni	-11.5526
rel	-11.5533
▁Dox	-11.5537
▁rapport	-11.5555
▁rev	-11.5563
gam	-11.5567
anq	-11.5578
è	-11.5579
▁Kaka	-11.558
▁provoqu	-11.5587
▁enseign	-11.5587
àngaan	-11.561
ces	-11.5645
▁traite	-11.5665
▁frit	-11.5675
vre	-11.5703
aines	-11.5705
▁pla	-11.5708
naire	-11.5715
stique	-11.5722
wut	-11.5723
aawlu	-11.5748
▁fër	-11.5749
▁permettr	-11.5753
ña	-11.5754
▁taaxu	-11.5754
▁Caa	-11.5755
▁fël	-11.5796
éegu	-11.5798
â	-11.58
▁Jaf	-11.5807
▁tasee	-11.581
▁dépass	-11.5815
roon	-11.5826
▁tuut	-11.5827
ô	-11.5842
▁réserv	-11.5843
room	-11.5853
nit	-11.5855
▁élan	-11.5879
bar	-11.5884
ooj	-11.5893
act	-11.5893
▁ramolli	-11.5895
kale	-11.5911
▁préci	-11.5913
▁lourde	-11.5922
égal	-11.5922
▁nemm	-11.5925
▁yomba	-11.5938
▁mêle	-11.594
▁trous	-11.5942
▁dàqee	-11.5943
▁xé	-11.5947
so	-11.5948
▁national	-11.5952
aanu	-11.5953
occidentale	-11.5955
boŋ	-11.5956
guma	-11.5969
ive	-11.597
roulée	-11.5975
▁Gene	-11.5977
abo	-11.598
▁devra	-11.5988
▁Tel	-11.6003
nçait	-11.6003
▁coloni	-11.6014
uré	-11.6028
▁brille	-11.603
▁im	-11.6046
▁feyu	-11.6057
▁Af	-11.606
▁survi	-11.6062
▁violent	-11.6068
gase	-11.6069
tère	-11.6072
ignor	-11.6074
▁Seeti	-11.6076
lace	-11.6077
aises	-11.6077
kaa	-11.6092
▁Bari	-11.61
▁achev	-11.6101
ggu	-11.6102
dë	-11.6105
Bri	-11.6118
apita	-11.6139
▁sun	-11.6145
ache	-11.6147
▁condui	-11.6149
▁pré	-11.6153
▁insoucian	-11.6153
▁inex	-11.6158
▁suivai	-11.6169
▁étrang	-11.619
▁bokkoo	-11.6195
▁aide	-11.6199
▁troupe	-11.6201
ndait	-11.6206
▁appel	-11.6222
éef	-11.6225
▁béni	-11.6229
dra	-11.6234
▁régn	-11.6238
▁xadd	-11.6245
rette	-11.6251
▁garden	-11.6255
▁soree	-11.6261
▁riv	-11.6267
orange	-11.6267
aral	-11.6279
aut	-11.6284
waa	-11.6291
▁perce	-11.6296
▁ind	-11.6297
▁médical	-11.6303
▁àttan	-11.6313
▁tourné	-11.6333
▁cousin	-11.6342
▁lors	-11.6344
▁ve	-11.6354
ibb	-11.6356
▁dégage	-11.637
mies	-11.6402
▁casser	-11.6404
▁vir	-11.6405
allai	-11.641
emmen	-11.6414
▁ém	-11.6414
▁Cam	-11.6419
▁heurt	-11.6423
▁làppto	-11.644
▁sta	-11.644
▁Waxat	-11.6445
ènes	-11.6448
▁tegoo	-11.6457
▁retien	-11.6457
Imi	-11.6461
met	-11.6464
jag	-11.6467
▁oublie	-11.6476
▁tàkku	-11.6476
foncée	-11.6479
abandonne	-11.6483
▁ép	-11.6486
▁doyu	-11.6489
umb	-11.649
ention	-11.6495
ngasin	-11.6499
▁jaww	-11.6512
enlèvera	-11.6515
▁daag	-11.6516
ngor	-11.6519
nté	-11.6519
éex	-11.652
▁exig	-11.6525
▁barke	-11.6526
bukun	-11.6528
àkkali	-11.6536
▁Ñooñ	-11.6536
▁Pou	-11.6537
exil	-11.6538
▁Sene	-11.6541
▁conserv	-11.6542
▁retrait	-11.6543
▁pata	-11.6545
▁griff	-11.6547
▁hérit	-11.6549
àmp	-11.655
▁pâ	-11.655
vin	-11.6551
ailler	-11.6552
▁bouclier	-11.6553
▁endurci	-11.6553
▁utile	-11.6553
▁touffe	-11.6553
▁ñag	-11.6559
nait	-11.656
▁congé	-11.6562
▁pardon	-11.6562
▁tango	-11.6564
▁geste	-11.6568
ccepte	-11.6568
▁palmier	-11.6569
▁lointain	-11.6569
▁semblable	-11.6571
▁nourri	-11.6571
faas	-11.6573
▁tiroir	-11.6574
▁kilomètre	-11.6579
▁termitière	-11.6579
▁fabrique	-11.6581
▁comprend	-11.6582
▁bouilli	-11.6582
jaratu	-11.6582
verser	-11.6582
▁sànnee	-11.6583
néeg	-11.6584
féex	-11.6584
étudiant	-11.6584
influence	-11.6584
étincelle	-11.6584
occasion	-11.6584
étroit	-11.6584
kersa	-11.6585
nouvel	-11.6585
ennemi	-11.6585
▁meuble	-11.6586
ŋgoo	-11.6587
considéra	-11.6588
▁Fara	-11.6588
▁plume	-11.6588
▁transport	-11.6589
sori	-11.6591
▁temp	-11.6591
fite	-11.6593
▁ressent	-11.6594
import	-11.6594
▁fourmi	-11.6595
hadi	-11.6595
▁prostitue	-11.6595
mag	-11.6595
▁Nett	-11.6596
approche	-11.6597
échange	-11.6597
épaisse	-11.6597
bëccëg	-11.6597
appartement	-11.6597
étoile	-11.6598
attache	-11.66
vert	-11.6601
ange	-11.6602
éclair	-11.6604
xóot	-11.6605
cambar	-11.6605
honnête	-11.6606
exemple	-11.6606
Aiya	-11.6606
jàngoro	-11.6606
animal	-11.6607
jambe	-11.6607
face	-11.6607
kàttan	-11.6608
▁conf	-11.6608
île	-11.6608
lancs	-11.6608
▁maîtr	-11.6609
cër	-11.6611
▁namm	-11.6611
éclat	-11.6612
ver	-11.6613
jaune	-11.6613
épouse	-11.6613
gëm	-11.6613
dehors	-11.6614
demain	-11.6614
café	-11.6614
pluies	-11.6615
exu	-11.6616
Tubaab	-11.6616
côté	-11.6617
C	-11.6617
ñëw	-11.6617
▁Tooy	-11.6618
▁flot	-11.6618
jàmm	-11.6618
bëgg	-11.6619
tout	-11.6619
▁graine	-11.662
▁gro	-11.6621
▁commis	-11.6622
▁sànn	-11.6622
▁dàgg	-11.6623
gaañu	-11.6623
xarit	-11.6624
▁Biram	-11.6626
échappe	-11.6626
▁environ	-11.6628
igna	-11.6629
eçon	-11.663
▁bouge	-11.663
lkaati	-11.663
resser	-11.663
wàll	-11.6632
▁coute	-11.6633
elaw	-11.6634
perçu	-11.6634
sang	-11.6634
féexal	-11.6635
inst	-11.6635
rrache	-11.6636
cla	-11.6637
▁affect	-11.6637
▁rec	-11.6637
wet	-11.6638
▁effray	-11.6639
▁Nopp	-11.6642
queue	-11.6643
▁pair	-11.6644
ongtemps	-11.6644
biir	-11.6645
oxoom	-11.6646
romb	-11.6647
siti	-11.6653
accepte	-11.6653
ssez	-11.6653
▁Takk	-11.6654
▁crain	-11.6657
dég	-11.6658
▁chev	-11.666
▁yàkkamt	-11.6662
ooleem	-11.6663
▁kókkal	-11.6664
liku	-11.667
▁Demerara	-11.6671
onnés	-11.6672
▁arme	-11.6672
indil	-11.6672
ganu	-11.6672
pain	-11.6674
gàkk	-11.6675
oktoor	-11.6675
▁And	-11.6676
▁mbaxan	-11.6676
vois	-11.6679
oreiller	-11.6679
▁rég	-11.6679
jub	-11.668
▁gaja	-11.6681
óob	-11.6681
▁métal	-11.6683
▁Tàng	-11.6684
▁occup	-11.6684
ession	-11.6685
▁soigne	-11.6686
▁bouscul	-11.6686
appren	-11.6687
jaboot	-11.6687
▁Ganaa	-11.6688
▁daggu	-11.6689
ultiver	-11.6689
▁deven	-11.669
démb	-11.669
▁ennemi	-11.6691
tànk	-11.6691
▁Solda	-11.6693
àngara	-11.6693
omprends	-11.6693
ñaar	-11.6693
avane	-11.6694
▁cont	-11.6694
ofeel	-11.6695
oudain	-11.6695
▁perle	-11.6695
ajouter	-11.6696
▁message	-11.6697
▁trac	-11.6697
itude	-11.6697
▁motte	-11.6699
érieux	-11.67
▁jëfandik	-11.67
▁envoy	-11.6701
ression	-11.6701
▁cap	-11.6702
aaxoñ	-11.6703
▁appare	-11.6703
ënfandikoo	-11.6704
dommag	-11.6705
struct	-11.6705
▁évi	-11.6705
▁daraja	-11.6706
ourte	-11.6706
▁tromp	-11.6707
umtukaay	-11.6707
baxana	-11.6707
écorc	-11.6708
▁passion	-11.6708
▁cuisini	-11.6708
bégte	-11.6708
▁papi	-11.6709
óg	-11.671
àgget	-11.6711
▁religi	-11.6712
▁càmm	-11.6712
▁Camero	-11.6712
blie	-11.6713
▁wecc	-11.6713
▁massa	-11.6713
▁entière	-11.6713
▁aigu	-11.6716
ébré	-11.6716
▁Ngu	-11.6717
▁sc	-11.6717
▁Bawo	-11.6717
▁réconcili	-11.6718
eegul	-11.6718
aobab	-11.6718
cëk	-11.6718
bawo	-11.6719
▁ngee	-11.6719
rûle	-11.6719
résidents	-11.6719
▁compagn	-11.6719
etourne	-11.6719
uló	-11.6719
rompt	-11.6719
▁carax	-11.6719
major	-11.672
▁ginnaa	-11.672
vêtement	-11.672
éléem	-11.672
▁19	-11.672
honneur	-11.672
▁196	-11.6721
▁vict	-11.6721
/	-11.6721
Ermeno	-11.6721
▁Albura	-11.6721
approuve	-11.6721
broussaille	-11.6721
harmoni	-11.6721
▁Ibada	-11.6721
▁Kamakusa	-11.6721
▁Memfo	-11.6721
▁Tartar	-11.6721
▁Vingt	-11.6721
▁bruyante	-11.6721
▁brèche	-11.6721
▁constipé	-11.6721
▁dégingandé	-11.6721
▁espion	-11.6721
▁goyavier	-11.6721
▁introdu	-11.6721
▁ndóbin	-11.6721
▁ngànnaay	-11.6721
▁ombrage	-11.6721
▁papaye	-11.6721
▁parisienne	-11.6721
▁pentuur	-11.6721
▁póliti	-11.6721
▁ràŋŋatik	-11.6721
▁régurgit	-11.6721
▁tàndarma	-11.6721
▁Éc	-11.6721
7	-11.6721
Allemagne	-11.6721
Christ	-11.6721
Laper	-11.6721
accommode	-11.6721
amertume	-11.6721
approchait	-11.6721
appuyer	-11.6721
autorisation	-11.6721
awanpoor	-11.6721
bourbouille	-11.6721
cohérent	-11.6721
cueillir	-11.6721
effaçait	-11.6721
emballe	-11.6721
ffirme	-11.6721
géwél	-11.6721
gëjjëx	-11.6721
hygiène	-11.6721
ibbutóon	-11.6721
infiltr	-11.6721
infirmière	-11.6721
ologie	-11.6721
ontemple	-11.6721
raisemblablement	-11.6721
stafirlaa	-11.6721
ègre	-11.6721
équilibr	-11.6721
▁10	-11.6721
▁1913	-11.6721
▁1914	-11.6721
▁1939	-11.6721
▁1940	-11.6721
▁Accra	-11.6721
▁Bëccëg	-11.6721
▁Cawnpore	-11.6721
▁Corporation	-11.6721
▁Dispañseer	-11.6721
▁Duwaalaa	-11.6721
▁Désormais	-11.6721
▁Foumban	-11.6721
▁Futbal	-11.6721
▁Gànnaa	-11.6721
▁Géwél	-11.6721
▁Hier	-11.6721
▁Hoggar	-11.6721
▁Javel	-11.6721
▁Kaburi	-11.6721
▁Kikuyu	-11.6721
▁Kishong	-11.6721
▁Kwaja	-11.6721
▁Kótónu	-11.6721
▁Londres	-11.6721
▁Mbembe	-11.6721
▁Mbembé	-11.6721
▁Mohamed	-11.6721
▁Normàndi	-11.6721
▁Pensées	-11.6721
▁Petroleum	-11.6721
▁Sadiola	-11.6721
▁Saxaraa	-11.6721
▁Touareg	-11.6721
▁Tàmbali	-11.6721
▁Yoroubas	-11.6721
▁absurde	-11.6721
▁accouru	-11.6721
▁affamé	-11.6721
▁alaateret	-11.6721
▁alfunni	-11.6721
▁annoncé	-11.6721
▁aperçoi	-11.6721
▁armiňoŋ	-11.6721
▁assimilé	-11.6721
▁aubergine	-11.6721
▁bagarre	-11.6721
▁bejjaaw	-11.6721
▁bilimbaane	-11.6721
▁biscuits	-11.6721
▁bloc	-11.6721
▁brutalité	-11.6721
▁bànqaas	-11.6721
▁bâtisse	-11.6721
▁béntéñe	-11.6721
▁cambré	-11.6721
▁cancrelats	-11.6721
▁capricieux	-11.6721
▁carapaces	-11.6721
▁carrelage	-11.6721
▁cavalier	-11.6721
▁châteaux	-11.6721
▁cimetière	-11.6721
▁circoncire	-11.6721
▁clampser	-11.6721
▁clitoris	-11.6721
▁cloche	-11.6721
▁cohorte	-11.6721
▁confronté	-11.6721
▁consanguin	-11.6721
▁constitution	-11.6721
▁cormoran	-11.6721
▁crapaud	-11.6721
▁cravache	-11.6721
▁càmmoñ	-11.6721
▁deppaas	-11.6721
▁difficulté	-11.6721
▁dipparñi	-11.6721
▁distendu	-11.6721
▁divorc	-11.6721
▁dortoirs	-11.6721
▁douloureuse	-11.6721
▁douloureux	-11.6721
▁débarrasser	-11.6721
▁débrouill	-11.6721
▁décédé	-11.6721
▁déedéet	-11.6721
▁défauts	-11.6721
▁délaissé	-11.6721
▁dévorant	-11.6721
▁embauché	-11.6721
▁emprunte	-11.6721
▁entorse	-11.6721
▁exploit	-11.6721
▁exquis	-11.6721
▁extralucide	-11.6721
▁extrémité	-11.6721
▁fagot	-11.6721
▁faraňse	-11.6721
▁favoris	-11.6721
▁fentaakon	-11.6721
▁fidèle	-11.6721
▁formidable	-11.6721
▁foufou	-11.6721
▁fromager	-11.6721
▁funérailles	-11.6721
▁grouill	-11.6721
▁gàllaaj	-11.6721
▁gâch	-11.6721
▁gëtën	-11.6721
▁horizon	-11.6721
▁hérissé	-11.6721
▁impoli	-11.6721
▁indésirable	-11.6721
▁inflexible	-11.6721
▁infranchissable	-11.6721
▁inject	-11.6721
▁inscription	-11.6721
▁insignifiante	-11.6721
▁interrompu	-11.6721
▁invulnérable	-11.6721
▁jàmbat	-11.6721
▁jàmmarloo	-11.6721
▁jànkoontee	-11.6721
▁kompale	-11.6721
▁lustral	-11.6721
▁légitimer	-11.6721
▁maasàllaa	-11.6721
▁magnifique	-11.6721
▁malingre	-11.6721
▁malléole	-11.6721
▁mandibules	-11.6721
▁manioc	-11.6721
▁marécages	-11.6721
▁matériel	-11.6721
▁mauricien	-11.6721
▁mbañeel	-11.6721
▁mbiskit	-11.6721
▁migraines	-11.6721
▁migrateurs	-11.6721
▁mourut	-11.6721
▁mouvement	-11.6721
▁navigu	-11.6721
▁njàmburam	-11.6721
▁nostalgie	-11.6721
▁oignons	-11.6721
▁ordisawel	-11.6721
▁palabres	-11.6721
▁paludisme	-11.6721
▁pastèque	-11.6721
▁paître	-11.6721
▁permanent	-11.6721
▁permangana	-11.6721
▁pharmacie	-11.6721
▁pidgin	-11.6721
▁pintade	-11.6721
▁placard	-11.6721
▁principes	-11.6721
▁prisonnier	-11.6721
▁promiscuité	-11.6721
▁préjudic	-11.6721
▁pustules	-11.6721
▁pàpaaya	-11.6721
▁pàttalik	-11.6721
▁ramadan	-11.6721
▁rapiécé	-11.6721
▁rapprochée	-11.6721
▁recoucher	-11.6721
▁rectiligne	-11.6721
▁refusé	-11.6721
▁repouss	-11.6721
▁rouillé	-11.6721
▁réaliser	-11.6721
▁réflexion	-11.6721
▁réfléchi	-11.6721
▁sarwiis	-11.6721
▁savate	-11.6721
▁scarifi	-11.6721
▁souffert	-11.6721
▁sourcils	-11.6721
▁souverain	-11.6721
▁soviétique	-11.6721
▁takkarnaase	-11.6721
▁talaabiir	-11.6721
▁tiitaange	-11.6721
▁tomates	-11.6721
▁toucouleur	-11.6721
▁trafic	-11.6721
▁tragique	-11.6721
▁tremblote	-11.6721
▁trébuche	-11.6721
▁têtu	-11.6721
▁vermoulu	-11.6721
▁verticale	-11.6721
▁violemment	-11.6721
▁xëyee	-11.6721
▁Ësen	-11.6721
▁éloigné	-11.6721
▁émissaire	-11.6721
▁évidemment	-11.6721
▁ótó	-11.6721
▁canapé	-11.6721
▁déferle	-11.6721
▁gàngune	-11.6721
▁micro	-11.6721
▁possession	-11.6721
▁rassurant	-11.6721
▁saillant	-11.6721
▁truc	-11.6721
congelé	-11.6721
domodaa	-11.6721
embarque	-11.6721
emboît	-11.6721
expliqu	-11.6721
hospitali	-11.6721
móoyu	-11.6721
oltron	-11.6721
plaça	-11.6721
èbre	-11.6721
égoïs	-11.6721
▁Bernadet	-11.6721
▁ablutions	-11.6721
▁admirable	-11.6721
▁bivoua	-11.6721
▁boulevers	-11.6721
▁climat	-11.6721
▁dignité	-11.6721
▁discut	-11.6721
▁double	-11.6721
▁déformée	-11.6721
▁employés	-11.6721
▁folklor	-11.6721
▁frigo	-11.6721
▁gapparu	-11.6721
▁héroï	-11.6721
▁invités	-11.6721
▁léthargi	-11.6721
▁maladroit	-11.6721
▁maturité	-11.6721
▁mbonaat	-11.6721
▁morsures	-11.6721
▁ndimbal	-11.6721
▁nécessit	-11.6721
▁panaris	-11.6721
▁prolonge	-11.6721
▁pólis	-11.6721
▁rëy	-11.6721
▁rósi	-11.6721
▁Àbbaa	-11.6721
autopsie	-11.6721
expéditi	-11.6721
tëñëx	-11.6721
ébène	-11.6721
éloge	-11.6721
▁altern	-11.6721
▁beerso	-11.6721
▁délicieuse	-11.6721
▁intimes	-11.6721
▁moket	-11.6721
▁principa	-11.6721
▁silencieuse	-11.6721
▁teerusi	-11.6721
▁xiibon	-11.6721
▁yërë	-11.6721
▁ëlëm	-11.6721
indefondi	-11.6721
▁Aawo	-11.6721
▁ballarñi	-11.6721
▁fentaakoon	-11.6721
▁froiss	-11.6721
▁gaanuwaay	-11.6721
▁intens	-11.6721
▁jaambur	-11.6721
▁luqati	-11.6721
▁posséd	-11.6721
▁préparatifs	-11.6721
▁responsabilité	-11.6721
admir	-11.6721
▁takkandeer	-11.6721
▁Agwu	-11.6721
▁bërki	-11.6721
▁commande	-11.6721
▁concert	-11.6721
▁contract	-11.6721
▁gymnas	-11.6721
▁hurle	-11.6721
▁indifférent	-11.6721
▁itinérant	-11.6721
▁journaux	-11.6721
▁pijin	-11.6721
▁racines	-11.6721
lacés	-11.6721
▁Tàggoo	-11.6721
▁alamaan	-11.6721
▁bundux	-11.6721
▁cawarte	-11.6721
▁contrôle	-11.6721
▁déclench	-11.6721
▁dépays	-11.6721
▁dérangé	-11.6721
▁emphase	-11.6721
▁jàkkarloo	-11.6721
▁littéra	-11.6721
▁personnalité	-11.6721
▁radier	-11.6721
accumul	-11.6721
égorgé	-11.6721
▁Bakalu	-11.6721
▁Bokas	-11.6721
▁Londar	-11.6721
▁Teraanga	-11.6721
▁barigo	-11.6721
▁côtière	-11.6721
▁décoché	-11.6721
▁défunt	-11.6721
▁gouttière	-11.6721
▁jaloore	-11.6721
▁manqué	-11.6721
▁parabole	-11.6721
▁produit	-11.6721
▁totalité	-11.6721
▁écume	-11.6721
oseille	-11.6721
politesse	-11.6721
▁Yàkkamtiwuñu	-11.6721
▁constituée	-11.6721
▁relief	-11.6721
▁yorouba	-11.6721
ecto	-11.6721
voque	-11.6721
▁Féetale	-11.6721
▁empêcha	-11.6721
▁herbeuses	-11.6721
▁kerewol	-11.6721
▁kuddu	-11.6721
▁occidentaux	-11.6721
▁raflé	-11.6721
entourant	-11.6721
▁Ogaar	-11.6721
▁cinéma	-11.6721
▁ficelle	-11.6721
▁rewle	-11.6721
▁victoire	-11.6721
▁acras	-11.6721
▁gousse	-11.6721
▁aggrav	-11.6721
▁démarr	-11.6721
▁trottoir	-11.6721
kàlla	-11.6721
▁1938	-11.6721
▁diamants	-11.6721
▁embouteillée	-11.6721
▁faucher	-11.6721
acharn	-11.6721
▁arbuste	-11.6721
▁brouiller	-11.6721
▁ressortissant	-11.6721
▁rogations	-11.6721
▁soble	-11.6721
▁toxu	-11.6721
▁diff	-11.6721
▁Toujours	-11.6721
▁Congo	-11.6721
▁Lebou	-11.6721
▁daxin	-11.6721
▁siyaare	-11.6721
ëŋŋ	-11.6721
▁Mësuma	-11.6721
▁accueill	-11.6721
▁insult	-11.6721
▁sondeel	-11.6721
▁vallée	-11.6721
▁décharge	-11.6721
céphal	-11.6721
obtien	-11.6721
▁Cayor	-11.6721
▁Kupuru	-11.6721
▁crinière	-11.6721
▁nurool	-11.6721
▁sigaret	-11.6721
▁cargo	-11.6721
▁compens	-11.6721
▁tàccu	-11.6721
▁collection	-11.6721
▁interruption	-11.6721
▁Donga	-11.6721
▁explication	-11.6721
▁mangions	-11.6721
▁évidence	-11.6721
élague	-11.6721
chaussée	-11.6721
▁agricole	-11.6721
▁cellule	-11.6721
▁trahi	-11.6721
▁carrossable	-11.6721
▁écrase	-11.6721
▁administrative	-11.6721
▁1932	-11.6721
▁pepp	-11.6721
▁préparati	-11.6721
▁Noirs	-11.6721
▁baguette	-11.6721
▁laaxira	-11.6721
▁peser	-11.6721
▁réguli	-11.6721
▁serrure	-11.6721
▁Panama	-11.6721
▁dénoue	-11.6721
▁marõ	-11.6721
▁véné	-11.6721
▁xàjj	-11.6721
axambaane	-11.6721
sting	-11.6721
▁feq	-11.6721
▁gangrène	-11.6721
▁Parfois	-11.6721
▁Tombe	-11.6721
▁orteil	-11.6721
▁raffiné	-11.6721
velopp	-11.6721
▁bourgeo	-11.6721
▁gësëm	-11.6721
▁walbatiku	-11.6721
▁1900	-11.6721
▁austère	-11.6721
▁short	-11.6721
▁antip	-11.6721
▁aérien	-11.6721
dëngaañ	-11.6721
escalad	-11.6721
▁excisée	-11.6721
▁karne	-11.6721
▁Répète	-11.6721
▁assommé	-11.6721
▁carreaux	-11.6721
▁echelle	-11.6721
▁berceau	-11.6721
▁déshonneur	-11.6721
▁battais	-11.6721
▁pessimisme	-11.6721
▁rivalis	-11.6721
▁poi	-11.6721
▁intégr	-11.6721
▁allongé	-11.6721
▁inaccessible	-11.6721
▁moontin	-11.6721
▁Xalam	-11.6721
▁anémi	-11.6721
acacia	-11.6721
latel	-11.6721
▁gueule	-11.6721
▁lottal	-11.6721
hell	-11.6721
▁imprim	-11.6721
▁public	-11.6721
aplati	-11.6722
▁porche	-11.6722
óli	-11.6722
attaqu	-11.6722
tërëf	-11.6722
▁Plie	-11.6722
▁cuuraay	-11.6722
▁disparaissait	-11.6722
llëg	-11.6722
▁fej	-11.6722
▁Fanweer	-11.6722
▁batañse	-11.6722
▁informations	-11.6722
▁irokos	-11.6722
▁préparai	-11.6722
▁œufs	-11.6722
▁Bawop	-11.6722
▁tourmente	-11.6722
▁ñefe	-11.6722
▁ñép	-11.6722
installaient	-11.6722
ègue	-11.6722
▁machette	-11.6722
▁dàkkental	-11.6722
▁komfi	-11.6722
▁provisions	-11.6722
▁reparti	-11.6722
▁réparti	-11.6722
haïs	-11.6722
▁Màr	-11.6722
▁sexuel	-11.6722
▁ubbeeku	-11.6722
▁ñaawtéef	-11.6722
▁débattons	-11.6722
▁calleuses	-11.6722
existence	-11.6722
▁Ogil	-11.6722
▁almet	-11.6722
▁broder	-11.6722
▁replié	-11.6722
▁insurgé	-11.6722
▁àntuwul	-11.6722
jaillir	-11.6722
▁coggal	-11.6722
▁rido	-11.6722
▁vélo	-11.6722
▁délicieux	-11.6722
▁inquiet	-11.6722
appât	-11.6722
▁dukkat	-11.6722
▁Gesam	-11.6722
▁Gént	-11.6722
fiévr	-11.6722
offens	-11.6722
▁Abdu	-11.6722
▁rangooñ	-11.6722
▁Premi	-11.6722
▁bougie	-11.6722
▁groupe	-11.6722
▁conception	-11.6722
▁désigne	-11.6722
▁mérou	-11.6722
▁découvre	-11.6722
▁gayet	-11.6722
▁ñambaan	-11.6722
▁Kawóo	-11.6722
cajou	-11.6722
turne	-11.6722
▁culture	-11.6722
▁Eend	-11.6722
▁carabine	-11.6722
▁précision	-11.6722
▁Dénk	-11.6722
▁scru	-11.6722
▁tigi	-11.6722
▁navire	-11.6722
▁ngunu	-11.6722
▁xeej	-11.6722
▁volontaire	-11.6722
▁brandiss	-11.6722
▁véritable	-11.6722
▁insur	-11.6722
▁veine	-11.6722
▁séddale	-11.6722
▁club	-11.6722
▁sarax	-11.6722
▁obst	-11.6722
▁salué	-11.6722
▁substan	-11.6722
▁mbott	-11.6722
écorchure	-11.6722
▁Griot	-11.6722
▁guerrières	-11.6722
▁keppaar	-11.6722
▁cafko	-11.6722
▁verb	-11.6722
▁cadre	-11.6723
▁rides	-11.6723
jóol	-11.6723
ordonne	-11.6723
suppo	-11.6723
▁fiftin	-11.6723
▁frôlé	-11.6723
▁heureuse	-11.6723
▁Wekki	-11.6723
▁gronde	-11.6723
identité	-11.6723
▁soppeeku	-11.6723
eignent	-11.6723
▁circoncision	-11.6723
▁dënk	-11.6723
▁féey	-11.6723
▁glori	-11.6723
▁tabaski	-11.6723
▁battent	-11.6723
▁pêcheurs	-11.6723
▁féewal	-11.6723
nuwaa	-11.6723
▁appui	-11.6723
▁naawantu	-11.6723
▁Chin	-11.6723
▁déclar	-11.6723
trices	-11.6723
kànkarla	-11.6723
▁discrète	-11.6723
▁flamb	-11.6723
▁indienne	-11.6723
▁xocc	-11.6723
▁Berbi	-11.6723
▁souffrance	-11.6723
▁woomal	-11.6723
▁neuve	-11.6723
▁marron	-11.6723
▁prompt	-11.6723
▁faneetar	-11.6723
▁malhonnête	-11.6723
▁bonbon	-11.6723
▁moytuwul	-11.6723
▁woyantu	-11.6723
▁Musta	-11.6723
▁Africaine	-11.6723
▁corrompre	-11.6723
ucu	-11.6723
chures	-11.6723
▁béné	-11.6723
▁santaane	-11.6723
▁confiance	-11.6723
▁apparaître	-11.6723
▁empesé	-11.6723
▁maritim	-11.6723
▁Paas	-11.6723
▁Change	-11.6723
▁indiens	-11.6723
▁entrailles	-11.6724
▁sécher	-11.6724
▁colport	-11.6724
▁tambaa	-11.6724
▁profondeur	-11.6724
cille	-11.6724
▁cigare	-11.6724
▁grange	-11.6724
▁pico	-11.6724
▁lumineuse	-11.6724
éthér	-11.6724
▁études	-11.6724
▁yombut	-11.6724
▁tembe	-11.6724
▁crâne	-11.6724
▁signal	-11.6724
▁enserr	-11.6724
▁tuumaal	-11.6724
ëtuñu	-11.6724
▁njëgg	-11.6724
aakiri	-11.6724
encens	-11.6724
▁recommençait	-11.6724
arrose	-11.6724
▁Born	-11.6724
▁agress	-11.6724
otiques	-11.6724
▁bombard	-11.6724
▁wéñ	-11.6724
▁fanane	-11.6724
▁turbulence	-11.6724
▁ñall	-11.6724
▁bëqët	-11.6724
▁dédai	-11.6724
▁maltrait	-11.6724
▁réconciliation	-11.6724
▁acca	-11.6724
▁jaxase	-11.6724
ëppaa	-11.6724
▁aadawoo	-11.6724
gramme	-11.6724
▁démonté	-11.6724
▁futbal	-11.6724
▁requi	-11.6724
▁sëqat	-11.6724
▁géléem	-11.6725
▁digaaleel	-11.6725
ception	-11.6725
▁bavardage	-11.6725
▁fëx	-11.6725
▁ràgg	-11.6725
▁boddi	-11.6725
▁Ndey	-11.6725
▁refaire	-11.6725
gracieux	-11.6725
▁parasit	-11.6725
▁Diminue	-11.6725
▁découvri	-11.6725
▁medaay	-11.6725
▁encadré	-11.6725
▁Guppa	-11.6725
▁courtois	-11.6725
auteur	-11.6725
▁examin	-11.6725
▁nacelle	-11.6725
▁verrouill	-11.6725
▁binage	-11.6725
▁ongle	-11.6725
▁Onits	-11.6725
▁libéré	-11.6725
▁John	-11.6725
iyeer	-11.6725
▁indiqué	-11.6725
▁jaloux	-11.6725
▁tirage	-11.6726
▁duggsee	-11.6726
▁weddi	-11.6726
▁Mouille	-11.6726
▁Pardonne	-11.6726
▁bronz	-11.6726
▁envolé	-11.6726
érité	-11.6726
▁néc	-11.6726
▁cadenc	-11.6726
franchi	-11.6726
▁pâtir	-11.6726
daaxër	-11.6726
▁distinguer	-11.6726
▁rachet	-11.6726
▁chiffon	-11.6726
ddeeku	-11.6726
éperon	-11.6726
▁Rappelle	-11.6726
▁carence	-11.6726
▁opprim	-11.6726
▁détri	-11.6726
▁défend	-11.6726
▁dëddale	-11.6726
sutura	-11.6726
▁zébr	-11.6726
▁grossesse	-11.6726
▁góob	-11.6727
▁voisinage	-11.6727
▁loca	-11.6727
▁haine	-11.6727
aanke	-11.6727
▁Yàq	-11.6727
▁agoni	-11.6727
▁vitesse	-11.6727
▁réjj	-11.6727
▁waaso	-11.6727
amitié	-11.6727
hiver	-11.6727
▁Certainement	-11.6727
▁haoussa	-11.6727
▁crépi	-11.6727
▁minut	-11.6727
▁bàjjan	-11.6727
▁jànkonteel	-11.6727
▁mbootaay	-11.6727
▁merveille	-11.6727
hili	-11.6727
▁dangereux	-11.6727
▁mbàjj	-11.6727
▁Wàcc	-11.6727
▁rattach	-11.6727
▁transmet	-11.6727
▁Tagg	-11.6727
▁Ital	-11.6727
▁beyaat	-11.6727
▁aboli	-11.6727
accus	-11.6727
▁accout	-11.6727
▁gorgé	-11.6728
▁architectur	-11.6728
▁courageux	-11.6728
▁grima	-11.6728
▁Liber	-11.6728
▁dégain	-11.6728
▁Babungoo	-11.6728
ngooñ	-11.6728
▁implora	-11.6728
▁dîné	-11.6728
▁germe	-11.6728
▁poutre	-11.6728
▁devinette	-11.6728
▁gâteaux	-11.6728
▁zi	-11.6729
esseur	-11.6729
▁Jaaykat	-11.6729
▁réveilla	-11.6729
jam	-11.6729
▁attrapé	-11.6729
▁entièrement	-11.6729
▁njatt	-11.6729
▁éru	-11.6729
▁bours	-11.6729
équat	-11.6729
▁keppukaay	-11.6729
▁salut	-11.6729
▁Bawob	-11.6729
▁conseil	-11.6729
▁gaññ	-11.6729
tribut	-11.6729
▁jujub	-11.6729
▁geg	-11.6729
▁Kenya	-11.6729
▁cahot	-11.6729
temporai	-11.6729
▁bec	-11.6729
▁odeurs	-11.6729
▁cirées	-11.673
▁solide	-11.673
▁janax	-11.673
▁ñow	-11.673
▁Nguu	-11.673
▁valets	-11.673
▁Tànk	-11.673
océ	-11.673
▁yegs	-11.673
Isra	-11.673
▁fouille	-11.6731
▁kulëer	-11.6731
▁xërëmkat	-11.6731
▁Bàmb	-11.6731
▁fëggës	-11.6731
âtre	-11.6731
▁naxantee	-11.6731
▁Fett	-11.6731
▁décol	-11.6731
▁cadeaux	-11.6731
▁cohabitent	-11.6732
▁batteur	-11.6732
ffronter	-11.6732
▁guérisse	-11.6732
lbati	-11.6732
▁plaisanterie	-11.6732
▁limaale	-11.6732
▁ňaw	-11.6732
grippe	-11.6732
▁figuier	-11.6732
▁titre	-11.6732
▁commentaire	-11.6732
▁Xadi	-11.6733
▁volont	-11.6733
▁mouss	-11.6733
▁rév	-11.6733
▁gàpp	-11.6733
▁como	-11.6733
▁weccee	-11.6733
▁cordon	-11.6733
▁parlaient	-11.6733
eeguñu	-11.6733
▁poign	-11.6733
▁taché	-11.6733
▁démo	-11.6733
▁gënaloon	-11.6733
▁luxu	-11.6734
étagère	-11.6734
▁défi	-11.6734
▁démon	-11.6734
méro	-11.6734
▁laabiir	-11.6734
▁Taxawa	-11.6734
▁lourdement	-11.6734
▁coxor	-11.6734
▁lekkool	-11.6734
▁chocra	-11.6734
absence	-11.6734
▁désor	-11.6734
▁plateau	-11.6734
▁cuisinier	-11.6735
▁Farm	-11.6735
▁brac	-11.6735
▁buddat	-11.6735
▁fën	-11.6735
▁rajoutes	-11.6735
▁laytaay	-11.6735
▁trompent	-11.6735
ratté	-11.6735
bienne	-11.6736
▁Laissez	-11.6736
▁Wutël	-11.6736
usure	-11.6736
ukwu	-11.6736
▁tayel	-11.6736
▁nettaliji	-11.6736
▁vanne	-11.6736
▁Maman	-11.6736
▁summi	-11.6736
▁dyna	-11.6737
▁sarcl	-11.6737
▁darajaam	-11.6737
▁caraxam	-11.6737
opin	-11.6737
▁pouce	-11.6737
quiner	-11.6737
▁crin	-11.6737
▁tisser	-11.6737
▁Dàgg	-11.6737
▁dangereuse	-11.6737
ommages	-11.6737
▁Yaasin	-11.6737
▁dëkkandoom	-11.6738
▁màggetloo	-11.6738
▁téyewul	-11.6738
rateur	-11.6738
▁bàyyeeku	-11.6738
▁jënfandikoo	-11.6738
konte	-11.6738
▁lucid	-11.6738
zia	-11.6739
▁péter	-11.6739
▁Baol	-11.6739
élever	-11.6739
assoupir	-11.6739
observer	-11.6739
ingue	-11.6739
ège	-11.6739
buru	-11.6739
▁Njoya	-11.6739
▁tuwaal	-11.674
▁plancher	-11.674
aŋx	-11.674
▁sottee	-11.674
blant	-11.674
cher	-11.674
clite	-11.674
▁rond	-11.674
▁fowal	-11.674
▁aisé	-11.6741
▁ministar	-11.6741
▁tige	-11.6741
▁xultu	-11.6741
▁boivent	-11.6741
ginaar	-11.6741
▁dégét	-11.6741
▁apparent	-11.6741
▁mordu	-11.6741
ndaw	-11.6741
▁fàddu	-11.6741
▁taafa	-11.6741
▁fulaaru	-11.6741
▁marchandise	-11.6741
▁prix	-11.6742
▁déeyante	-11.6742
▁tortu	-11.6742
▁pipi	-11.6742
▁faillite	-11.6742
▁famili	-11.6742
▁déjj	-11.6742
▁jalou	-11.6743
▁yéreem	-11.6743
▁daqaar	-11.6743
attraper	-11.6743
▁Coow	-11.6743
▁Gaaw	-11.6743
▁combattant	-11.6743
▁Puu	-11.6743
▁jullee	-11.6743
▁choqu	-11.6743
▁résister	-11.6743
kurti	-11.6744
▁répéter	-11.6744
▁galoper	-11.6744
▁cohabiter	-11.6744
▁tresses	-11.6744
▁bouc	-11.6744
▁Monro	-11.6744
▁tissées	-11.6744
▁guigne	-11.6745
▁étonné	-11.6745
▁Bind	-11.6745
▁évid	-11.6745
▁pente	-11.6745
▁yeeru	-11.6745
oppite	-11.6746
▁fufu	-11.6746
▁Tellement	-11.6746
▁Lundi	-11.6746
▁ëcc	-11.6746
encre	-11.6746
▁conform	-11.6746
▁sautant	-11.6746
▁traitement	-11.6746
▁Durba	-11.6746
▁gants	-11.6746
ttéen	-11.6747
▁siso	-11.6747
évita	-11.6747
▁citadin	-11.6747
▁ennuy	-11.6747
▁faatoo	-11.6747
▁industrielle	-11.6747
▁officielle	-11.6747
▁Ngonka	-11.6747
▁màngi	-11.6747
▁rajout	-11.6748
▁superf	-11.6748
▁consis	-11.6748
amina	-11.6749
▁Jén	-11.6749
▁ŋaa	-11.6749
exila	-11.6749
▁arrivait	-11.6749
▁Dàtt	-11.6749
kasaw	-11.6749
▁fajukaay	-11.6749
▁complic	-11.6749
▁fegu	-11.6749
▁essu	-11.6749
▁céeb	-11.6749
▁relative	-11.6749
▁répondre	-11.6749
▁frappait	-11.6749
▁naturelle	-11.675
▁coin	-11.675
mandat	-11.675
épaule	-11.675
crit	-11.675
▁yóot	-11.675
ayim	-11.675
▁révoltent	-11.675
▁jariñoo	-11.6751
▁Jëm	-11.6751
▁wallu	-11.6751
▁enterr	-11.6751
oyée	-11.6751
antenne	-11.6751
▁soutien	-11.6751
▁tor	-11.6752
grillage	-11.6752
▁dàjj	-11.6752
▁sëriñ	-11.6753
▁pey	-11.6753
▁safaan	-11.6753
▁déchir	-11.6754
xaam	-11.6754
itik	-11.6754
▁farata	-11.6754
onc	-11.6754
▁caaxoñ	-11.6754
▁guddaay	-11.6755
▁jàq	-11.6756
▁diigal	-11.6756
▁dram	-11.6757
iwo	-11.6757
▁Sauf	-11.6757
▁suspendu	-11.6757
▁flan	-11.6757
▁Yaali	-11.6757
▁statut	-11.6757
▁lèvre	-11.6758
▁gerce	-11.6758
quée	-11.6758
▁Enfin	-11.6759
inage	-11.6759
▁reelu	-11.6759
▁socc	-11.6759
▁mienne	-11.6759
▁rêverie	-11.6759
▁malles	-11.676
▁Nég	-11.676
▁tou	-11.676
▁sév	-11.676
▁Tamar	-11.6761
▁légèrement	-11.6761
▁tàqal	-11.6761
▁héritier	-11.6761
▁suffisant	-11.6762
▁fâché	-11.6762
▁autorit	-11.6762
▁Faj	-11.6762
▁cachette	-11.6763
ciller	-11.6763
avo	-11.6764
▁fàkk	-11.6764
▁baatin	-11.6764
raŋ	-11.6764
▁pilote	-11.6764
orpheline	-11.6764
▁gratuite	-11.6764
▁automobile	-11.6764
▁nonchalante	-11.6764
▁wujje	-11.6764
économie	-11.6764
découvrant	-11.6764
▁juumul	-11.6764
inclin	-11.6765
▁armeel	-11.6765
dex	-11.6765
▁dundaat	-11.6765
▁reviennent	-11.6765
▁habituelle	-11.6766
unique	-11.6766
wel	-11.6766
▁beñ	-11.6766
▁soin	-11.6767
▁suivent	-11.6767
▁ruum	-11.6767
▁capit	-11.6767
▁bàjj	-11.6767
▁oreille	-11.6768
▁deqi	-11.6768
▁piquet	-11.6768
óobal	-11.6768
▁amiin	-11.6768
raiment	-11.6769
▁salue	-11.6769
▁sëq	-11.6769
▁choir	-11.6769
▁transformé	-11.677
▁fusillé	-11.677
▁xelli	-11.677
▁recroquevillé	-11.677
▁attiré	-11.677
▁nuróo	-11.677
énètre	-11.6771
▁tegtal	-11.6771
▁ëlëb	-11.6771
▁justement	-11.6771
▁éduque	-11.6771
▁éloignement	-11.6771
▁exceptionnel	-11.6771
▁existait	-11.6771
▁obligation	-11.6771
▁confortable	-11.6771
▁douze	-11.6771
▁empêche	-11.6771
▁expérience	-11.6771
▁immensité	-11.6771
▁infirmiers	-11.6771
▁kóllëre	-11.6771
▁élevage	-11.6771
▁njàpp	-11.6771
▁écrire	-11.6771
▁opeeree	-11.6771
▁éteindr	-11.6771
▁illusion	-11.6772
▁parfum	-11.6772
▁sàrt	-11.6772
gnent	-11.6772
▁Bukki	-11.6774
▁foroxal	-11.6774
▁échelle	-11.6774
▁sevr	-11.6774
tilité	-11.6774
▁bugg	-11.6774
▁raide	-11.6774
▁rouille	-11.6774
▁chatouill	-11.6775
▁sànq	-11.6775
▁Demeraraa	-11.6775
▁européenne	-11.6775
▁brisé	-11.6775
Agade	-11.6775
▁patients	-11.6775
cycl	-11.6775
▁renverse	-11.6776
ndaŋ	-11.6776
▁sandale	-11.6776
▁mettiwul	-11.6776
éññ	-11.6776
▁kà	-11.6776
ignés	-11.6777
▁farlu	-11.6777
pëti	-11.6777
▁accouchement	-11.6777
▁mariera	-11.6777
▁siraas	-11.6777
▁accent	-11.6778
▁croisé	-11.6778
▁xalam	-11.6778
▁tàngaayam	-11.6778
▁mâcher	-11.6778
▁sukku	-11.6779
▁kókkali	-11.6779
▁querelle	-11.6779
▁délic	-11.6779
fique	-11.678
▁moytu	-11.678
▁lançant	-11.678
▁añaan	-11.678
utisme	-11.678
▁ibo	-11.678
▁yàkkamti	-11.678
▁étale	-11.6781
ŋat	-11.6781
▁àjj	-11.6781
▁emporté	-11.6781
▁yamb	-11.6781
▁proprement	-11.6782
érige	-11.6782
▁sienne	-11.6782
▁ruiné	-11.6782
▁mujju	-11.6782
▁étendue	-11.6782
▁événements	-11.6782
▁tra	-11.6783
équipe	-11.6783
▁Mills	-11.6783
▁portraits	-11.6783
▁administrateurs	-11.6783
▁bergers	-11.6783
▁ravins	-11.6783
oxoj	-11.6783
range	-11.6783
▁planches	-11.6783
igation	-11.6784
▁durci	-11.6784
▁castes	-11.6785
▁canal	-11.6785
▁féq	-11.6785
▁càq	-11.6785
▁bottes	-11.6786
▁Tekk	-11.6786
▁gépp	-11.6786
ppét	-11.6786
▁Gine	-11.6787
embarrass	-11.6787
▁travaillai	-11.6787
quetés	-11.6787
acide	-11.6787
▁ombre	-11.6787
▁vieillis	-11.6788
▁Tire	-11.6789
▁diisoo	-11.679
ndiŋ	-11.6791
▁dawsi	-11.6791
▁fripe	-11.6791
mage	-11.6792
▁màcc	-11.6792
uniform	-11.6792
▁ganesee	-11.6793
▁cubb	-11.6793
▁poson	-11.6793
▁yilifoon	-11.6794
crète	-11.6794
▁doyad	-11.6795
▁asperg	-11.6795
▁ànduñu	-11.6795
déwén	-11.6796
▁partons	-11.6797
▁ñoree	-11.6797
▁fowan	-11.6797
àqam	-11.6797
▁passionn	-11.6798
▁sécuri	-11.6798
▁Mfo	-11.6798
▁tourbillonnai	-11.6799
lusi	-11.6799
▁recouvr	-11.68
▁Faye	-11.68
▁Bira	-11.6801
▁soigné	-11.6801
allumer	-11.6802
▁gland	-11.6802
▁puissant	-11.6802
▁réveiller	-11.6803
bbanti	-11.6803
▁jafal	-11.6804
▁ardo	-11.6804
▁iron	-11.6804
▁affection	-11.6805
▁plantes	-11.6807
▁tenq	-11.6807
▁remonter	-11.6807
▁akara	-11.6807
▁verset	-11.6808
▁welo	-11.6808
▁cof	-11.6809
▁objet	-11.6809
▁bouillant	-11.6809
▁clous	-11.6809
▁obsédant	-11.6809
▁entretien	-11.6809
▁excise	-11.681
àmbara	-11.681
▁extermin	-11.681
lore	-11.681
abeilles	-11.681
▁montar	-11.681
ccul	-11.6811
audit	-11.6811
analete	-11.6811
bindaan	-11.6811
▁sank	-11.6811
▁Nes	-11.6812
▁accompagnent	-11.6812
▁dàmb	-11.6812
▁teggin	-11.6812
▁parcouru	-11.6813
▁Déjà	-11.6813
ëqët	-11.6814
riante	-11.6815
▁neige	-11.6815
▁goûter	-11.6815
▁noirci	-11.6815
▁sàppi	-11.6816
▁roche	-11.6816
▁xañ	-11.6817
▁gont	-11.6817
▁Miin	-11.6818
ives	-11.682
phil	-11.682
▁défonc	-11.6821
▁dooleem	-11.6821
iennent	-11.6821
▁lèp	-11.6821
▁saaf	-11.6821
▁noppee	-11.6822
▁liise	-11.6822
tip	-11.6823
▁wóorul	-11.6823
▁Suwee	-11.6823
▁yëddu	-11.6824
▁entendron	-11.6824
mal	-11.6824
▁endormie	-11.6825
▁perch	-11.6826
ndig	-11.6826
▁instinctive	-11.6826
▁relai	-11.6826
abun	-11.6827
▁digle	-11.6827
précise	-11.6827
▁duppati	-11.6827
ddulee	-11.6827
▁montr	-11.6827
▁àndandoo	-11.6828
balal	-11.6828
▁boobale	-11.6829
▁soufflet	-11.683
▁palanteeram	-11.683
▁capo	-11.6831
▁noonam	-11.6831
▁impé	-11.6832
▁ñaawal	-11.6832
▁déport	-11.6833
▁flotte	-11.6834
▁doxin	-11.6834
▁Baje	-11.6834
ambar	-11.6835
▁tri	-11.6836
▁gilets	-11.6836
▁waru	-11.6837
▁bitik	-11.6837
▁gaaf	-11.6838
▁commissa	-11.6838
ëri	-11.6838
▁ajag	-11.6839
▁dort	-11.6839
▁Birame	-11.684
▁courtis	-11.684
▁vaine	-11.6841
▁épines	-11.6842
▁fof	-11.6842
▁jumaa	-11.6842
▁Xë	-11.6842
▁wante	-11.6842
▁grossi	-11.6843
▁Tooyal	-11.6844
▁bla	-11.6844
▁ñawal	-11.6844
▁Gii	-11.6845
nivers	-11.6846
▁nouvel	-11.6846
milie	-11.6847
▁Mbi	-11.6847
kkaa	-11.6847
eeñeer	-11.6847
▁siens	-11.6848
pët	-11.6848
▁brûlera	-11.6848
▁lunk	-11.6849
oppaliku	-11.6851
▁ŋgoo	-11.6851
mili	-11.6852
▁bakkanam	-11.6852
▁exilé	-11.6852
▁faim	-11.6853
▁méchan	-11.6853
▁goûté	-11.6853
▁dresser	-11.6853
▁dóox	-11.6853
▁effrayé	-11.6854
▁alxa	-11.6855
▁transporté	-11.6855
▁hérité	-11.6856
èrement	-11.6856
▁meule	-11.6856
égré	-11.6857
égorge	-11.6857
ulcère	-11.6859
▁occasion	-11.6859
▁étincelle	-11.6859
▁étroit	-11.6859
▁Gisewu	-11.6861
▁Jëkk	-11.6861
▁fóo	-11.6861
kar	-11.6862
▁influence	-11.6863
▁bouger	-11.6863
àttalikuwu	-11.6863
▁Baali	-11.6864
▁tardera	-11.6864
▁magie	-11.6864
▁new	-11.6865
▁étudiant	-11.6866
▁gindi	-11.6866
maag	-11.6867
unóor	-11.6868
▁laabi	-11.6868
▁paire	-11.6871
▁ramasse	-11.6871
racle	-11.6871
▁brin	-11.6872
▁puni	-11.6875
érén	-11.6876
▁giiru	-11.6876
▁filé	-11.6877
efface	-11.6878
▁Tim	-11.6879
▁mokkal	-11.6879
▁seef	-11.6879
agin	-11.6881
▁Masur	-11.6881
▁kersa	-11.6883
▁fakk	-11.6883
▁tonne	-11.6883
▁sàng	-11.6885
game	-11.6885
▁élé	-11.6886
▁rëb	-11.6887
▁Anda	-11.6887
élic	-11.6887
urisé	-11.6887
▁étendues	-11.6889
tteel	-11.689
uments	-11.689
▁ennemis	-11.689
▁congés	-11.6891
▁Bali	-11.6891
▁endurcis	-11.6891
▁touffes	-11.6891
▁utiles	-11.6891
▁boucliers	-11.6892
▁gestes	-11.6893
▁occuper	-11.6894
▁boyal	-11.6894
aŋas	-11.6894
ññaar	-11.6895
▁cajj	-11.6896
▁Wau	-11.6897
▁mottes	-11.6897
▁Wer	-11.6897
nique	-11.6898
▁soins	-11.69
▁calmer	-11.69
▁askanam	-11.6902
▁ňoo	-11.6902
ëfinam	-11.6902
▁degg	-11.6902
▁Ngoy	-11.6904
entasse	-11.6905
▁salaam	-11.6907
goy	-11.6908
▁jàmbure	-11.6908
▁xëpp	-11.6909
gation	-11.6909
▁pleur	-11.6909
▁Pousse	-11.6911
▁désespérant	-11.6914
bëtu	-11.6914
▁toolam	-11.6916
▁Gumbe	-11.6916
▁dorm	-11.6916
étonne	-11.6917
Obukun	-11.6917
▁barkeel	-11.6918
▁gànnaayu	-11.6925
▁jàmbaar	-11.6926
abine	-11.6927
▁bootal	-11.6928
▁yà	-11.6928
▁profiter	-11.6928
eetar	-11.693
ienvenue	-11.6931
inv	-11.6932
▁civilis	-11.6933
▁ndeyam	-11.6933
▁voies	-11.6934
âcher	-11.6935
asseye	-11.6936
▁couler	-11.6936
nesil	-11.6937
▁Genn	-11.6938
àmbi	-11.6938
wlin	-11.694
▁mét	-11.6941
▁moue	-11.6941
▁lionne	-11.6942
▁apprena	-11.6943
diale	-11.6944
▁nkom	-11.6945
épic	-11.6946
ifiée	-11.6947
gori	-11.6949
▁Vis	-11.6949
▁fande	-11.695
▁ordures	-11.6951
▁espoir	-11.6951
▁émotion	-11.6951
bor	-11.6952
▁percé	-11.6953
▁abandonn	-11.6954
pin	-11.6955
▁entrait	-11.6955
▁paume	-11.6957
ñett	-11.6957
▁heurtant	-11.6957
▁Xay	-11.6958
kyst	-11.6959
▁ndékk	-11.6962
ëlé	-11.6962
▁fuñ	-11.6966
▁enco	-11.6966
▁koste	-11.6971
▁Kawa	-11.6972
▁remarque	-11.6973
▁meloy	-11.6973
▁différence	-11.6974
▁avala	-11.6974
▁profonde	-11.6974
appal	-11.6975
moire	-11.6976
adique	-11.6977
▁fédérale	-11.6977
▁firi	-11.6978
ndiir	-11.6981
▁Sors	-11.6981
▁fital	-11.6983
▁fuit	-11.6984
▁baram	-11.6986
avec	-11.6988
▁ës	-11.6988
omu	-11.699
issons	-11.6991
▁xaleel	-11.6991
▁boude	-11.6993
îte	-11.6995
▁Feya	-11.6995
▁précédée	-11.6996
▁décorés	-11.6997
▁confident	-11.6998
▁rêver	-11.6999
▁jubale	-11.7
▁outre	-11.7001
▁enfoncés	-11.7001
▁digne	-11.7002
▁rituels	-11.7003
▁vautours	-11.7004
▁caravanes	-11.7004
▁moustiquaires	-11.7004
▁musulmans	-11.7004
▁secrets	-11.7004
▁hôtes	-11.7004
▁prospères	-11.7004
ewuma	-11.7006
▁takkee	-11.701
▁parcours	-11.701
▁kanamam	-11.701
▁occupé	-11.701
▁xaritoo	-11.7011
▁trouble	-11.7012
▁téene	-11.7012
àpptoo	-11.7014
▁fermés	-11.7014
galaas	-11.7014
laawaal	-11.7015
▁marier	-11.7015
▁sentir	-11.7017
▁déch	-11.7017
▁distances	-11.7019
ooje	-11.702
▁jotul	-11.702
▁permettai	-11.702
▁pressé	-11.7021
ŋŋaaral	-11.7021
▁refer	-11.7027
▁dogale	-11.7028
wó	-11.7028
ots	-11.7029
▁njar	-11.703
▁càllala	-11.7032
▁ginnaawam	-11.7032
▁exil	-11.7032
▁bànneexu	-11.7034
▁occupe	-11.7035
udduwaale	-11.7036
née	-11.7036
▁siti	-11.7036
▁déc	-11.7036
▁Dada	-11.704
▁quitter	-11.7042
▁maamam	-11.7044
▁buntam	-11.7045
▁Mbe	-11.7046
▁arab	-11.7048
▁kili	-11.7049
▁maaj	-11.705
▁cotonn	-11.7051
▁cassera	-11.7052
▁rouler	-11.7053
▁wer	-11.7055
▁rom	-11.7056
▁coyy	-11.7056
oire	-11.706
▁ňax	-11.706
skan	-11.7063
beau	-11.7064
kin	-11.7066
▁sortent	-11.7066
arade	-11.7067
utour	-11.7067
▁vac	-11.7068
▁bavards	-11.7071
eew	-11.7071
▁bañoon	-11.7074
uuti	-11.7075
▁montré	-11.7076
nées	-11.7079
▁menti	-11.7079
▁yoot	-11.708
▁coo	-11.7082
▁abus	-11.7083
▁conduite	-11.7084
▁malheurs	-11.7085
▁caches	-11.7085
▁Way	-11.7088
▁kawam	-11.7088
▁duggee	-11.7089
leur	-11.7092
▁meram	-11.7093
ssement	-11.7094
▁bra	-11.7094
▁som	-11.7094
▁korn	-11.7097
▁Ré	-11.7099
▁tànkam	-11.7099
▁mesurer	-11.7099
idée	-11.71
▁biiw	-11.7101
apais	-11.7102
▁joues	-11.7103
▁nàkk	-11.7103
cteur	-11.7106
▁glo	-11.7108
▁emporter	-11.7109
▁voilé	-11.711
▁grume	-11.7111
▁éclairs	-11.7112
▁consta	-11.7113
▁centim	-11.7113
ilité	-11.7113
▁feeň	-11.7115
▁nuyoo	-11.7115
▁retrouvés	-11.7118
▁miroirs	-11.7118
▁mûrs	-11.7118
▁chaînes	-11.7118
▁présidents	-11.7121
▁retournes	-11.7123
▁lekkam	-11.7123
▁lor	-11.7123
goj	-11.7126
▁mbiram	-11.713
▁terrasserai	-11.7139
▁Akara	-11.7141
▁convainc	-11.7142
▁dégager	-11.7144
▁hy	-11.7145
▁Ax	-11.7148
ât	-11.7154
▁sommeil	-11.7157
▁sangu	-11.7157
▁Doxa	-11.716
▁portion	-11.7161
▁Dunu	-11.7161
ooñ	-11.7164
▁crainte	-11.7164
▁he	-11.7166
▁boucher	-11.7167
▁dàqal	-11.7168
▁dawalkat	-11.7169
▁baraa	-11.717
eex	-11.717
▁ivre	-11.7171
ttal	-11.7174
àttanul	-11.7175
▁Waxam	-11.7185
▁hant	-11.719
▁baaxoo	-11.7193
▁Bile	-11.7194
▁datte	-11.7197
▁niru	-11.7197
mise	-11.7199
pieux	-11.7204
▁fanq	-11.7205
▁prendrai	-11.7208
▁désirs	-11.7209
▁défil	-11.7214
▁kes	-11.7218
▁moomoo	-11.7221
▁reen	-11.7225
attends	-11.7226
échoue	-11.7227
▁lourds	-11.7229
ités	-11.7229
▁dromadaires	-11.7234
▁peuples	-11.7234
▁Digg	-11.7234
▁caaxaane	-11.7235
inju	-11.7236
▁oiseau	-11.7239
▁liw	-11.7241
▁fóote	-11.7242
▁oeil	-11.7244
▁Européens	-11.7246
▁bibe	-11.7246
alag	-11.7247
▁verts	-11.7248
▁wot	-11.7253
▁jiin	-11.7255
▁agir	-11.7256
abab	-11.7257
▁agg	-11.726
▁bénit	-11.7264
▁fenk	-11.7264
rendra	-11.7269
utt	-11.7271
▁amaat	-11.7277
▁Fiir	-11.7277
▁puu	-11.7284
▁yeww	-11.7287
▁rouss	-11.7287
ëbbin	-11.7288
hari	-11.729
▁tol	-11.7291
▁levés	-11.7292
▁consulte	-11.7294
ñoñ	-11.7295
▁defaral	-11.73
▁ron	-11.73
▁sël	-11.7302
▁xaju	-11.7304
guñu	-11.7306
▁gàcc	-11.7307
àbbi	-11.7309
▁colle	-11.7312
régnait	-11.7314
▁yeen	-11.7315
▁cala	-11.7316
▁reflétai	-11.7321
▁soppe	-11.7321
▁amulette	-11.7322
▁insouciant	-11.7323
juumte	-11.7324
▁laissés	-11.7324
neau	-11.7325
rifice	-11.7326
▁Firi	-11.7327
▁regrette	-11.733
ffer	-11.7331
▁fument	-11.7335
umes	-11.7335
▁course	-11.7336
pha	-11.7339
ration	-11.7343
▁perche	-11.7348
digg	-11.735
▁bleues	-11.7351
▁règles	-11.7352
teg	-11.7353
ilifa	-11.7357
▁jonn	-11.7358
▁atroc	-11.7363
▁vé	-11.7364
▁confies	-11.7366
▁décl	-11.7381
▁gajaf	-11.7383
achever	-11.7387
▁obéi	-11.7394
▁droite	-11.7399
▁entendue	-11.74
▁gisu	-11.74
ekk	-11.7416
▁préserve	-11.742
▁Maure	-11.7424
aine	-11.7429
▁caus	-11.7432
▁buru	-11.7433
▁yéex	-11.7434
nalité	-11.7437
▁violente	-11.744
▁faw	-11.7443
▁Gent	-11.7444
iiru	-11.7449
▁geree	-11.7454
▁abondan	-11.7456
uň	-11.7459
▁fent	-11.746
chaîn	-11.7462
▁domaines	-11.7471
▁mène	-11.7473
bën	-11.7476
▁ap	-11.7476
▁irrit	-11.7477
▁mont	-11.7478
▁réserve	-11.7484
▁ganu	-11.7486
▁erre	-11.7486
▁hi	-11.7486
kul	-11.7494
▁Giiru	-11.7497
▁ressembler	-11.7498
oué	-11.7498
saal	-11.7498
▁ndée	-11.7502
▁gaawa	-11.7502
▁désord	-11.7503
▁pét	-11.7505
commençait	-11.7506
comp	-11.7509
▁dëgë	-11.7514
▁Fou	-11.7514
▁réewam	-11.7514
patam	-11.7517
▁gisagum	-11.7518
▁dalul	-11.7522
▁magam	-11.7529
him	-11.7533
estom	-11.7539
▁choi	-11.7547
▁occidental	-11.7548
abit	-11.7562
▁Asee	-11.7565
▁Av	-11.7568
▁maandu	-11.7572
▁laaf	-11.7574
pour	-11.7576
ddaay	-11.7579
▁teer	-11.7581
aq	-11.7591
▁toile	-11.7591
▁vrais	-11.7593
▁calcule	-11.7595
▁multiplie	-11.7596
adapte	-11.7596
▁frotte	-11.7597
▁selle	-11.7609
yaar	-11.761
▁kees	-11.7618
▁ramollir	-11.7619
issait	-11.762
▁goree	-11.7636
kum	-11.7643
▁joueur	-11.7645
▁buub	-11.7647
▁rempliss	-11.7648
▁wàlle	-11.7652
ireeku	-11.7667
▁root	-11.7672
▁xoolin	-11.7673
veur	-11.7674
▁cub	-11.7675
▁Wute	-11.7681
vit	-11.7682
▁Wooy	-11.7689
▁dëñ	-11.7699
▁Tàmm	-11.77
nstruction	-11.7702
▁Maro	-11.7708
▁koň	-11.771
àngóor	-11.7715
ndoor	-11.7717
▁manee	-11.7721
parts	-11.7724
ññ	-11.7734
cier	-11.7736
ger	-11.7738
▁cla	-11.774
▁plants	-11.7742
▁endui	-11.7748
▁dëkkam	-11.7758
ëlu	-11.776
▁jibe	-11.7761
▁Cum	-11.7762
▁Xa	-11.7763
▁install	-11.7769
▁gane	-11.7784
▁Nuy	-11.7798
▁voil	-11.7803
▁coc	-11.7808
▁Yàkk	-11.7809
fit	-11.781
andu	-11.7811
▁range	-11.7813
afandu	-11.7816
neuse	-11.7816
▁Sang	-11.782
▁institu	-11.7825
ific	-11.7827
erre	-11.7827
▁valai	-11.7833
▁sûrs	-11.7837
▁séance	-11.7841
▁considéra	-11.7858
ennui	-11.7875
▁éme	-11.7894
mol	-11.7901
▁faju	-11.7908
▁tëdde	-11.7909
▁chi	-11.792
rdo	-11.7925
▁bière	-11.7926
taraa	-11.7927
▁àddinaa	-11.7941
▁Bir	-11.7941
▁reprise	-11.7956
doorte	-11.7961
▁ndoxu	-11.7962
▁baobabs	-11.7962
▁chemises	-11.7962
▁singes	-11.7963
▁suiv	-11.7964
▁isolée	-11.7964
▁roñ	-11.7971
▁digaloo	-11.7972
▁roulé	-11.7975
▁puisqu	-11.7975
▁détend	-11.7978
sii	-11.7986
▁conçues	-11.7989
guer	-11.799
ayu	-11.7996
tueuse	-11.8
isoŋ	-11.8
nions	-11.8003
▁fr	-11.8005
▁ful	-11.8008
▁esprit	-11.8009
▁wag	-11.8011
▁jale	-11.8016
▁Ver	-11.8024
▁abri	-11.8044
▁bëggé	-11.8053
amis	-11.8053
alo	-11.8057
amaale	-11.8057
▁cond	-11.8071
▁poussée	-11.8077
▁Bant	-11.8078
▁herbe	-11.8083
ow	-11.8093
jekk	-11.8107
▁couch	-11.8115
▁Sam	-11.8123
▁irréel	-11.8125
▁Gàng	-11.8144
nax	-11.8148
▁Sol	-11.8149
éeméer	-11.8162
▁jàllal	-11.8163
▁enten	-11.8173
▁mars	-11.8174
▁écar	-11.8184
▁rés	-11.8189
istique	-11.8208
rig	-11.8215
▁connus	-11.8217
▁sangl	-11.8222
▁servai	-11.8236
feutre	-11.8237
isée	-11.8262
yez	-11.8264
▁dieux	-11.8265
▁amaa	-11.8268
tiens	-11.8281
hameaux	-11.8281
▁paj	-11.8312
▁déta	-11.8312
▁déserté	-11.8333
amu	-11.8333
njom	-11.8337
▁chefs	-11.8337
▁Gej	-11.8346
tortill	-11.8353
▁Yu	-11.8369
▁cachée	-11.837
tivement	-11.8385
leb	-11.8392
▁ân	-11.8392
▁Naar	-11.8398
naissent	-11.8404
adeau	-11.8411
ukat	-11.8414
▁demin	-11.842
jee	-11.8421
▁loos	-11.8425
akh	-11.8434
uwuñu	-11.8443
▁senn	-11.8449
esqu	-11.845
poto	-11.8471
guru	-11.8479
▁habité	-11.8479
▁couru	-11.8486
▁entourée	-11.8504
▁balay	-11.8506
▁para	-11.8507
▁étalée	-11.8507
▁amu	-11.8509
adolescent	-11.8515
▁Jamm	-11.8517
▁gala	-11.8524
▁bëlu	-11.8538
▁ndugge	-11.8561
▁rongé	-11.8561
▁fég	-11.8582
▁tables	-11.8582
▁paysan	-11.8595
▁jagal	-11.8598
einture	-11.8608
▁mënuloo	-11.8615
▁vieil	-11.8616
▁pique	-11.8621
aaral	-11.8635
óoru	-11.8643
▁Gal	-11.8648
aalif	-11.8655
opp	-11.866
woŋ	-11.8667
rruption	-11.8671
▁redoute	-11.8675
vait	-11.8677
▁endormi	-11.8683
▁éc	-11.8696
▁naax	-11.8706
prend	-11.8707
▁yend	-11.8708
éter	-11.872
dés	-11.8721
▁bols	-11.8722
▁termina	-11.8723
▁Yi	-11.873
ëx	-11.8735
▁soq	-11.8743
vons	-11.8745
▁Aim	-11.8787
▁fà	-11.8792
▁mees	-11.8796
▁mince	-11.8796
resse	-11.8807
▁deq	-11.8816
▁gain	-11.8824
▁effe	-11.8846
tables	-11.8848
▁Defar	-11.8853
▁bëtu	-11.8855
▁Set	-11.8859
▁masc	-11.8865
sion	-11.8866
niques	-11.8877
oobar	-11.8883
▁Taal	-11.8907
inquiè	-11.891
▁dames	-11.8916
▁capp	-11.8928
ët	-11.8929
occ	-11.893
▁Dam	-11.8952
▁ball	-11.8954
▁dons	-11.8957
interroge	-11.8957
▁fissur	-11.896
▁représent	-11.8973
▁af	-11.8997
▁magi	-11.8999
ndombo	-11.9001
asal	-11.9003
énué	-11.9008
▁procure	-11.9023
▁attribue	-11.9034
▁commémore	-11.9035
▁immobil	-11.9035
Làbbe	-11.9049
▁coque	-11.9049
▁péri	-11.9054
accepterai	-11.9061
▁attachée	-11.9066
▁Ŋgo	-11.9075
aiment	-11.9082
ooke	-11.9092
▁voyager	-11.91
ékk	-11.9115
▁levée	-11.9125
▁rot	-11.9137
afara	-11.9143
kaan	-11.916
mêmes	-11.9186
explose	-11.925
▁Feg	-11.9258
paraître	-11.9261
ndandoo	-11.9267
▁doxale	-11.9271
▁revi	-11.9293
enivr	-11.9295
▁pure	-11.9308
outils	-11.9315
laa	-11.9318
bugël	-11.9336
bba	-11.9358
irland	-11.938
upière	-11.9393
▁Ti	-11.9427
viens	-11.9432
▁signifi	-11.9432
▁Angal	-11.9442
limité	-11.9442
ueil	-11.9446
yons	-11.9447
louche	-11.9483
▁solu	-11.9486
▁Puisqu	-11.9495
▁Gaan	-11.9502
▁Boy	-11.9518
▁Ngóo	-11.9522
▁Gann	-11.9524
rable	-11.9537
éances	-11.9565
ssés	-11.957
neux	-11.957
nati	-11.9574
rëb	-11.9575
▁gaay	-11.9583
▁chasser	-11.9584
ëgë	-11.9585
uwaale	-11.9601
▁belles	-11.9608
▁bëm	-11.9628
▁ingr	-11.9643
braa	-11.966
nationale	-11.9661
▁permettra	-11.9668
ànjar	-11.9683
galee	-11.9688
ecc	-11.9729
caaf	-11.9742
zin	-11.9766
▁déf	-11.9779
tiku	-11.9779
ullee	-11.9785
▁mé	-11.9787
▁xee	-11.9794
▁déy	-11.9799
okk	-11.9808
▁mënal	-11.9836
▁ins	-11.9841
▁fourni	-11.9844
chique	-11.9853
▁chauffe	-11.9866
▁Deñ	-11.9896
rions	-11.9899
goneem	-11.9908
▁maj	-11.9915
yéwén	-11.9923
ngali	-11.9951
▁déboucha	-11.9965
▁mouch	-11.9974
▁hé	-11.9974
▁paresse	-12.0025
óox	-12.0064
▁organisat	-12.0085
▁bér	-12.0114
ampoules	-12.0135
aloo	-12.0159
▁surviv	-12.018
▁Sere	-12.0205
enus	-12.0221
▁voût	-12.0232
adopti	-12.0244
▁soucie	-12.0289
mines	-12.0293
uróo	-12.0298
▁Cin	-12.0303
ërëm	-12.0308
▁xoo	-12.0349
jom	-12.0371
jab	-12.0384
ison	-12.0384
▁allai	-12.0407
▁Rid	-12.0408
▁able	-12.0409
këy	-12.0424
mm	-12.0429
▁trouv	-12.0441
▁Dan	-12.0454
ñoom	-12.0459
yyi	-12.0473
opér	-12.0474
▁cultivera	-12.0479
▁Mëne	-12.0482
▁saan	-12.0486
▁soosoo	-12.049
▁trouva	-12.0494
uuj	-12.0514
ome	-12.0516
▁géttu	-12.0544
▁safatu	-12.0546
julli	-12.0557
ites	-12.0592
aaxental	-12.0624
▁xasa	-12.0654
éebam	-12.0659
▁embras	-12.0676
▁vider	-12.0686
▁carré	-12.0691
▁ñañ	-12.071
uisse	-12.0721
igné	-12.0759
ask	-12.0789
▁Mba	-12.08
▁crue	-12.0814
▁brûl	-12.0819
chère	-12.0853
mouvant	-12.0853
▁Gàcc	-12.0862
▁Lekku	-12.0878
retam	-12.0879
éeru	-12.0896
ielle	-12.0913
mier	-12.0936
oro	-12.0936
▁Gol	-12.0986
▁paroi	-12.0988
oupe	-12.0995
▁Kil	-12.1012
▁final	-12.1035
geek	-12.1037
àkkaar	-12.1053
▁ampoule	-12.1053
yri	-12.1056
▁duuma	-12.1075
mmeel	-12.1082
▁gënal	-12.109
ammeel	-12.1109
▁raam	-12.1126
ngo	-12.1171
aree	-12.1173
ouons	-12.1184
faire	-12.1232
aupoudr	-12.1235
ëriñ	-12.1253
▁dogoo	-12.1333
alheureux	-12.1335
riture	-12.1366
ucé	-12.1422
noué	-12.1424
aajo	-12.1444
▁ling	-12.1465
auche	-12.1489
ause	-12.1564
▁Dën	-12.1589
▁exemp	-12.16
▁gà	-12.1631
▁xéye	-12.1636
atique	-12.1641
rite	-12.165
▁émou	-12.1679
cot	-12.168
éjje	-12.1682
▁tànn	-12.1695
▁dooñ	-12.1707
▁foto	-12.1721
gêne	-12.1733
▁gànj	-12.1739
▁xub	-12.174
▁futti	-12.1755
▁Masu	-12.1756
emporte	-12.1764
▁voulai	-12.1769
oko	-12.177
iggéeykat	-12.1787
▁Jul	-12.1801
▁nëg	-12.1806
bés	-12.1862
amatul	-12.1884
▁jumeau	-12.1886
▁Gaw	-12.1896
▁chiqu	-12.1907
▁rentrera	-12.1943
landaise	-12.1946
ngoo	-12.1963
▁Njo	-12.2018
ouche	-12.2052
Roug	-12.206
tale	-12.2068
▁soriwu	-12.2072
ira	-12.2075
▁paraîtr	-12.2097
▁muuroo	-12.211
isin	-12.2112
▁explos	-12.2119
▁mokku	-12.2135
ryaa	-12.2159
bayre	-12.2162
▁reewan	-12.2169
aleel	-12.2262
ewande	-12.2271
écc	-12.2272
éshabill	-12.2291
ailes	-12.2307
▁fëri	-12.2403
▁circul	-12.2404
afal	-12.241
óot	-12.2414
uche	-12.244
▁Bëgguloo	-12.2443
immobilis	-12.2446
ndar	-12.2451
agum	-12.2463
▁bro	-12.2502
▁taba	-12.2514
ssures	-12.2519
parenté	-12.2532
éro	-12.2543
endu	-12.2554
ndomb	-12.2602
▁interv	-12.2603
imité	-12.2605
habita	-12.2625
▁feel	-12.2629
▁Cola	-12.2638
coupe	-12.2661
▁wéer	-12.2661
imé	-12.2663
▁noc	-12.2664
chent	-12.2688
▁goŋ	-12.2698
oqi	-12.2704
accepter	-12.271
▁surpren	-12.2714
bii	-12.2738
qal	-12.2766
▁cuis	-12.2768
ieras	-12.2771
goter	-12.2778
▁Sen	-12.2806
issantes	-12.2843
▁ñemee	-12.2878
ruption	-12.2921
▁Fal	-12.2929
inqui	-12.2946
▁tëw	-12.3006
▁suff	-12.3032
obe	-12.3037
lig	-12.304
ép	-12.3041
aññ	-12.3043
oxaan	-12.309
ruus	-12.3109
▁wà	-12.3139
dànk	-12.3176
diku	-12.3196
llo	-12.3202
ération	-12.3221
▁Reti	-12.3235
▁adolescen	-12.3278
immi	-12.3304
raame	-12.331
▁feg	-12.3329
uwaal	-12.3332
të	-12.334
ñse	-12.3353
ippi	-12.3358
indre	-12.3366
▁jigu	-12.3366
▁terewu	-12.3377
▁rep	-12.3383
exist	-12.3385
àmmul	-12.3394
▁torti	-12.342
gati	-12.344
prouve	-12.345
▁génér	-12.3459
▁Emm	-12.3466
Arab	-12.35
▁Xola	-12.3544
oint	-12.3557
autant	-12.3601
dimmal	-12.3618
wax	-12.3635
ambou	-12.3645
entrait	-12.3648
▁rade	-12.3649
▁xaa	-12.3653
làmmiñ	-12.3661
old	-12.368
bo	-12.3685
mësu	-12.3696
ornes	-12.3706
▁folle	-12.3711
▁sikk	-12.3715
àjjan	-12.3716
▁wé	-12.3722
▁statu	-12.3774
▁ňaa	-12.3776
mée	-12.3782
▁autoc	-12.3792
▁espéra	-12.3808
▁irré	-12.3822
àbb	-12.3834
▁lâche	-12.3838
▁énorm	-12.3858
interrog	-12.3872
▁Ndo	-12.3873
▁portai	-12.3895
▁Soppu	-12.3896
semblé	-12.3917
▁cra	-12.3937
ànte	-12.3954
▁Denc	-12.4
lë	-12.4029
réparer	-12.4032
xcuse	-12.4058
lot	-12.4058
▁clou	-12.4073
▁xà	-12.4083
ërëx	-12.4156
kaasi	-12.4156
leçons	-12.416
nfant	-12.416
▁Fó	-12.4171
iki	-12.4173
llent	-12.4182
▁Doyl	-12.4184
▁paraissai	-12.4184
ouvant	-12.4192
njaay	-12.4196
virent	-12.4202
▁inc	-12.4266
▁retir	-12.4272
▁có	-12.435
▁Kanaa	-12.4365
iger	-12.4394
ë	-12.4411
▁gàn	-12.4416
bru	-12.4431
▁opeere	-12.4434
saň	-12.4449
ployer	-12.4453
▁nëwu	-12.4456
▁Dig	-12.4466
mbës	-12.4473
envahissai	-12.4473
ggal	-12.4484
▁gla	-12.4492
union	-12.4495
réelle	-12.45
oup	-12.4526
iffés	-12.4539
▁consid	-12.4545
aveur	-12.4576
▁sache	-12.4602
struction	-12.4606
oix	-12.4628
▁canc	-12.4642
▁aventur	-12.4664
▁rang	-12.468
▁bavarda	-12.4688
▁rép	-12.4712
position	-12.4718
lité	-12.473
▁gagn	-12.4738
ëbb	-12.4753
▁frott	-12.4763
adapt	-12.4763
▁multipli	-12.4763
▁calcul	-12.4766
gat	-12.477
▁Eko	-12.4793
interrogea	-12.4804
duis	-12.4809
▁gadd	-12.4814
isol	-12.485
énégalais	-12.4854
emul	-12.4854
mati	-12.4859
agg	-12.486
▁extra	-12.4878
kim	-12.4922
▁rencontra	-12.4926
▁caillo	-12.4932
astique	-12.4958
exerc	-12.4964
ëng	-12.4997
bouché	-12.5019
aînés	-12.503
fay	-12.5052
▁wo	-12.5054
lóo	-12.5056
aguma	-12.5058
rè	-12.5097
▁risqu	-12.5107
▁préserv	-12.5119
gub	-12.5136
▁Giir	-12.5146
▁yéexa	-12.5157
enferm	-12.5183
arrage	-12.5188
ouffant	-12.5191
▁insens	-12.5199
jafal	-12.5201
ky	-12.5204
action	-12.5208
saab	-12.5209
▁tac	-12.522
trict	-12.5223
▁yew	-12.5226
entraîn	-12.523
oyeur	-12.5232
▁réel	-12.5234
▁Njii	-12.5239
▁venge	-12.5246
▁bóo	-12.5247
fermées	-12.5302
andi	-12.5304
▁prin	-12.5313
pris	-12.5332
▁entr	-12.5335
▁màng	-12.5335
▁doxat	-12.5349
▁Déj	-12.5352
ouris	-12.5366
àlleñ	-12.5381
▁njuum	-12.5382
▁dépl	-12.5384
ó	-12.5398
▁ressort	-12.5448
▁Revi	-12.5462
▁Namm	-12.5464
▁repro	-12.5465
imagin	-12.5483
▁mesur	-12.5485
▁ferm	-12.5485
▁épine	-12.5493
▁attrap	-12.5493
▁jigé	-12.5514
plaisait	-12.5514
posées	-12.5515
▁yakk	-12.5516
oussette	-12.5521
mmee	-12.5521
ekum	-12.5528
▁irri	-12.5543
ewwi	-12.5545
posés	-12.5554
balka	-12.557
▁Massa	-12.558
▁hât	-12.5583
aves	-12.5586
ifice	-12.5595
▁pinc	-12.5607
▁patien	-12.5622
uinée	-12.5636
hone	-12.5638
▁croya	-12.564
ernité	-12.5643
▁saurai	-12.5645
▁auxquel	-12.5653
roces	-12.5674
▁càng	-12.5681
▁gonfl	-12.5683
▁njii	-12.5683
ernie	-12.5694
ñàdd	-12.5697
▁yéen	-12.5702
moom	-12.5707
ateur	-12.5714
vaincre	-12.5715
▁futur	-12.5716
▁conv	-12.5732
▁fâcha	-12.5735
expuls	-12.574
karaa	-12.5746
har	-12.5751
▁roul	-12.5754
traire	-12.5769
▁baara	-12.5786
rète	-12.5787
▁devr	-12.5794
▁carac	-12.58
jar	-12.5804
▁éch	-12.5821
umés	-12.583
mais	-12.5832
élanc	-12.5834
cade	-12.5841
oyant	-12.585
▁Diri	-12.586
▁léj	-12.5897
iig	-12.59
▁gëj	-12.5901
▁environn	-12.5903
ijji	-12.5904
éche	-12.5911
▁somm	-12.5918
▁Bàkk	-12.5924
omme	-12.5932
chées	-12.5951
sibir	-12.5956
▁marqu	-12.5969
▁càllal	-12.5969
▁rencontr	-12.597
urions	-12.5995
fañ	-12.5995
▁gourd	-12.6039
accept	-12.604
stituer	-12.6044
▁Bóo	-12.6047
▁particulière	-12.6052
▁dîne	-12.606
nesbu	-12.6066
ija	-12.608
▁confiden	-12.6084
nvironnement	-12.6086
réol	-12.6091
▁fédéral	-12.6093
yonn	-12.6094
tifié	-12.6094
▁profond	-12.6094
▁troubl	-12.6101
▁différenc	-12.6102
llóo	-12.6102
▁remarqu	-12.6102
▁prov	-12.611
caay	-12.6135
gh	-12.6137
ritable	-12.6143
▁verr	-12.6145
paré	-12.6145
alistes	-12.6147
pture	-12.6172
▁Boro	-12.6175
▁bêt	-12.6186
koom	-12.6196
bril	-12.6203
lever	-12.6208
finie	-12.6227
exi	-12.6231
▁débat	-12.6231
ouch	-12.6245
▁appl	-12.6248
▁ràkkaaj	-12.6249
▁gayn	-12.6252
▁tollo	-12.6259
G	-12.626
oritaire	-12.626
▁ngon	-12.6264
ayloo	-12.6266
▁jàmbu	-12.6266
▁déva	-12.6268
▁bouill	-12.6276
meri	-12.628
wunu	-12.6288
nañu	-12.6293
ññi	-12.6297
ëjj	-12.6303
table	-12.6306
▁corn	-12.631
▁plaisant	-12.6315
iigal	-12.6318
▁coor	-12.6321
fut	-12.6323
▁devrai	-12.6324
▁anecdot	-12.6326
▁fatal	-12.6337
hila	-12.6351
pir	-12.6361
▁Fàttali	-12.6361
oin	-12.6368
onnement	-12.6372
cho	-12.6381
rod	-12.6388
cères	-12.639
stic	-12.6394
ëddal	-12.6397
toppe	-12.6404
mbali	-12.6404
▁jàngee	-12.6407
médi	-12.641
ëtu	-12.6411
▁aveugl	-12.6415
▁téen	-12.6419
hanti	-12.642
▁voudra	-12.642
stricts	-12.6428
important	-12.6433
▁franc	-12.6438
oogu	-12.644
siwaat	-12.6443
ibbisi	-12.6451
lafon	-12.6453
▁dîn	-12.6454
idol	-12.6456
▁instinct	-12.6457
exprim	-12.6459
▁jeta	-12.6466
▁débar	-12.6468
▁Niserya	-12.647
óotal	-12.6473
échanc	-12.6476
chance	-12.6476
óok	-12.6477
aventur	-12.648
forme	-12.6484
▁arm	-12.6486
▁grain	-12.6486
rouss	-12.649
aliku	-12.6492
▁indépendan	-12.6492
amend	-12.6493
▁pend	-12.6493
▁pat	-12.6493
▁remp	-12.6496
extermine	-12.6498
▁obséd	-12.6499
▁recon	-12.6501
abuse	-12.6502
Africa	-12.6503
▁Gó	-12.6503
étache	-12.6504
▁détour	-12.6504
▁gaynd	-12.6504
pl	-12.6507
▁àngal	-12.6508
alaama	-12.6509
▁retrou	-12.6512
▁divis	-12.6516
bës	-12.6516
▁planche	-12.652
▁ŋg	-12.6522
endue	-12.6523
▁kilif	-12.6524
▁kó	-12.6525
oyer	-12.6526
qët	-12.6526
angle	-12.6527
▁sukkandi	-12.6529
▁séc	-12.6529
siira	-12.653
aabalu	-12.6533
▁remet	-12.6533
ndiku	-12.6533
grill	-12.6534
sperge	-12.6534
▁poursui	-12.6538
K	-12.654
ëmm	-12.6544
embre	-12.6544
nombr	-12.6545
administrati	-12.6545
événement	-12.6546
inspir	-12.6547
Mah	-12.6549
ttrape	-12.6549
ddat	-12.6549
▁tien	-12.6552
av	-12.6554
coor	-12.6554
▁plain	-12.6555
embarras	-12.6555
▁rela	-12.6555
odes	-12.6556
ission	-12.6559
adolescen	-12.6559
▁sàmba	-12.6559
▁galop	-12.656
▁support	-12.6562
▁cohabit	-12.6562
▁administrateur	-12.6564
abeille	-12.6564
ciné	-12.6565
chauff	-12.6566
▁berger	-12.6566
▁vieilli	-12.6567
▁ravin	-12.6567
eww	-12.6568
oya	-12.6572
bord	-12.6573
étrange	-12.6573
▁pip	-12.6573
▁waax	-12.6574
▁portrait	-12.6575
▁idé	-12.6577
▁pât	-12.6577
wël	-12.6578
▁vaccin	-12.6578
bàjj	-12.6578
insecte	-12.6579
▁acte	-12.658
▁Mill	-12.658
▁secour	-12.6581
répare	-12.6582
▁Tà	-12.6584
▁sœur	-12.6584
▁bagage	-12.6585
▁fibre	-12.6586
roog	-12.6586
▁braise	-12.6586
lumin	-12.6587
▁ustensile	-12.6588
▁hamac	-12.6588
dugg	-12.6589
▁forge	-12.659
achète	-12.659
avala	-12.6592
▁termite	-12.6592
njàpp	-12.6593
accouchement	-12.6594
européenne	-12.6594
exceptionnel	-12.6594
expérience	-12.6594
immensité	-12.6594
infirmiers	-12.6594
kóllëre	-12.6594
obligation	-12.6594
parfum	-12.6594
écrire	-12.6594
élevage	-12.6594
empêche	-12.6594
confortable	-12.6594
douze	-12.6594
habituelle	-12.6594
illusion	-12.6594
effray	-12.6594
accent	-12.6595
onné	-12.6595
ouent	-12.6596
épines	-12.6596
stè	-12.6596
apporte	-12.6596
entoure	-12.6596
jëmm	-12.6596
▁recroquevill	-12.6597
▁depui	-12.6597
ripes	-12.6597
▁chaussure	-12.6597
▁appri	-12.6597
écrit	-12.6598
cours	-12.6598
gob	-12.6598
déc	-12.6598
éteindr	-12.6599
Mal	-12.6601
▁donk	-12.6602
lançant	-12.6603
corde	-12.6604
taxawaay	-12.6604
agera	-12.6604
rrive	-12.6605
jaf	-12.6605
ordinaire	-12.6605
instrument	-12.6605
jikko	-12.6605
siècle	-12.6605
trempé	-12.6605
rôle	-12.6605
niróo	-12.6605
niveau	-12.6605
lendemain	-12.6605
▁étudi	-12.6606
tënk	-12.6606
fof	-12.6606
admet	-12.6607
étudie	-12.6607
appel	-12.6607
excité	-12.6607
apportai	-12.6608
dàqe	-12.6608
jadd	-12.6609
organis	-12.6609
féq	-12.6609
èvre	-12.661
ecommande	-12.6611
aboie	-12.6611
apparaissent	-12.6611
plomb	-12.6611
incée	-12.6611
exact	-12.6611
couvrant	-12.6611
aiguille	-12.6611
béré	-12.6611
orphelin	-12.6612
▁nonchalant	-12.6612
équip	-12.6612
▁automobil	-12.6612
économi	-12.6612
▁norma	-12.6612
existait	-12.6613
genre	-12.6613
monté	-12.6613
▁effa	-12.6613
fera	-12.6613
ménage	-12.6613
ŋaam	-12.6614
dessous	-12.6614
extrême	-12.6614
njort	-12.6614
waal	-12.6614
soeur	-12.6614
tawat	-12.6614
mouches	-12.6614
naaxi	-12.6614
content	-12.6614
banaana	-12.6614
avance	-12.6615
ccroche	-12.6615
exc	-12.6615
Obudu	-12.6616
▁gratuit	-12.6616
quatre	-12.6616
vingt	-12.6617
animaux	-12.6618
échelle	-12.6618
fokk	-12.6618
sèche	-12.6619
fippu	-12.6619
cercle	-12.6619
respect	-12.6619
couvre	-12.6619
aataang	-12.6619
panier	-12.6619
bëy	-12.6619
cache	-12.662
chaise	-12.662
propre	-12.662
calebasse	-12.662
Astou	-12.662
chemin	-12.662
Bamendaa	-12.6621
Frãs	-12.6621
butéel	-12.6621
Ibo	-12.6621
force	-12.6621
viendra	-12.6621
parlé	-12.6621
toujours	-12.6621
pied	-12.6621
▁revanch	-12.6622
▁équatorial	-12.6622
D	-12.6622
petits	-12.6622
champ	-12.6622
yàlla	-12.6622
lourd	-12.6622
temps	-12.6622
▁apparu	-12.6622
▁Ferm	-12.6622
gannaaw	-12.6623
▁leva	-12.6623
chambre	-12.6623
óom	-12.6623
▁branch	-12.6623
blanc	-12.6623
mbar	-12.6623
quitté	-12.6623
femmes	-12.6623
vécu	-12.6623
rmeel	-12.6624
Afrig	-12.6624
éteint	-12.6624
xorom	-12.6624
ncline	-12.6624
nijaay	-12.6624
ttan	-12.6624
trois	-12.6625
ville	-12.6625
cris	-12.6625
mpire	-12.6625
poisson	-12.6626
▁campagn	-12.6626
▁pétrol	-12.6626
humeur	-12.6626
attrape	-12.6627
000	-12.6627
comme	-12.6627
▁montagn	-12.6627
génne	-12.6627
▁personn	-12.6627
dessin	-12.6628
salaam	-12.6628
▁remont	-12.6628
solo	-12.6628
▁ràññe	-12.6629
▁rejoindr	-12.6629
▁botte	-12.6629
▁guid	-12.6629
Alma	-12.6629
dénk	-12.6629
▁reli	-12.6629
▁suspend	-12.663
écouta	-12.6631
roule	-12.6631
arñi	-12.6632
▁attir	-12.6632
marché	-12.6632
dund	-12.6632
▁rythm	-12.6632
gajj	-12.6633
enver	-12.6633
▁Yób	-12.6633
xeet	-12.6633
étage	-12.6633
lunk	-12.6634
érable	-12.6634
thé	-12.6635
alors	-12.6636
▁yónne	-12.6636
nóox	-12.6636
waxee	-12.6637
portion	-12.6637
▁Franc	-12.6637
▁invent	-12.6638
walla	-12.6638
▁volet	-12.6639
▁super	-12.664
écriture	-12.664
peut	-12.664
géey	-12.6641
ameaux	-12.6641
▁Mauric	-12.6641
chef	-12.6642
àjjee	-12.6642
▁coro	-12.6642
▁tàl	-12.6642
dagg	-12.6642
ainsi	-12.6643
nopp	-12.6643
faal	-12.6643
▁querell	-12.6644
cëpp	-12.6644
gëmm	-12.6644
▁tran	-12.6644
rëdd	-12.6644
▁Caax	-12.6645
▁pilot	-12.6645
oyau	-12.6645
passe	-12.6646
mange	-12.6646
tombe	-12.6647
▁cercl	-12.6647
fàcc	-12.6647
bëggée	-12.6648
xumb	-12.6648
▁gëlée	-12.6648
në	-12.6648
takk	-12.6649
vêt	-12.6649
taax	-12.665
óbbal	-12.665
▁polic	-12.665
nangu	-12.665
séché	-12.665
compte	-12.665
étour	-12.665
laaj	-12.6651
vertes	-12.6651
▁herb	-12.6652
dell	-12.6652
mobilisé	-12.6652
peint	-12.6653
connais	-12.6654
éper	-12.6654
gaaf	-12.6654
▁industriel	-12.6654
▁officiel	-12.6654
ordonné	-12.6655
oches	-12.6655
▁dégag	-12.6655
feu	-12.6656
wër	-12.6656
▁battr	-12.6657
gërëm	-12.6657
fois	-12.6657
▁patt	-12.6658
futt	-12.6659
▁transform	-12.6659
▁citad	-12.6659
assiette	-12.666
oiseaux	-12.6662
misme	-12.6663
dayo	-12.6663
góo	-12.6663
▁gó	-12.6664
▁racco	-12.6664
ëlëb	-12.6664
opérati	-12.6665
éduque	-12.6665
nsectes	-12.6666
▁minist	-12.6666
ootul	-12.6666
accompagnent	-12.6668
baab	-12.6668
dégg	-12.667
aqaar	-12.667
êté	-12.667
▁fulaar	-12.6672
invente	-12.6673
damm	-12.6674
▁Raj	-12.6674
pax	-12.6674
éloignement	-12.6675
dressa	-12.6675
observe	-12.6675
amulette	-12.6675
assoupi	-12.6675
fëj	-12.6676
ternel	-12.6676
op	-12.6676
efare	-12.6677
oxandéem	-12.6677
▁Ndakaar	-12.6678
▁Wiya	-12.6679
onstru	-12.6679
î	-12.6685
õ	-12.672
$	-12.6721
&	-12.6721
°	-12.6721
È	-12.6721
Ò	-12.6721
í	-12.6721
ā	-12.6721
ń	-12.6721
ò	-12.6721
̺	-12.6721
á	-14.018
Z	-14.0181
5	-14.0182
“	-14.0183
Ŋ	-14.0184
6	-14.0185
Ê	-14.0186
Ó	-14.0187
Ë	-14.0188
É	-14.0189
œ	-14.019
Ç	-14.0191
9	-14.0192
1	-14.0193
(	-14.0194
H	-14.0195
–	-14.0196
À	-14.0197
»	-14.0198
R	-14.0199
U	-14.02
V	-14.0201
Ñ	-14.0202
ç	-14.0203
:	-14.0204
X	-14.0205
P	-14.0206
Y	-14.0207
Q	-14.0208
W	-14.0209
ê	-14.021
T	-14.0211
N	-14.0212
J	-14.0213
B	-14.0214
M	-14.0215
S	-14.0216
?	-14.0217
L	-14.0218
!	-14.0219
