{
  "version": "1.0",
  "truncation": null,
  "padding": null,
  "added_tokens": [
    {
      "id": 0,
      "content": "<cls>",
      "single_word": false,
      "lstrip": false,
      "rstrip": false,
      "normalized": false,
      "special": true
    },
    {
      "id": 1,
      "content": "<sep>",
      "single_word": false,
      "lstrip": false,
      "rstrip": false,
      "normalized": false,
      "special": true
    },
    {
      "id": 2,
      "content": "<unk>",
      "single_word": false,
      "lstrip": false,
      "rstrip": false,
      "normalized": false,
      "special": true
    },
    {
      "id": 3,
      "content": "<pad>",
      "single_word": false,
      "lstrip": false,
      "rstrip": false,
      "normalized": false,
      "special": true
    },
    {
      "id": 4,
      "content": "<mask>",
      "single_word": false,
      "lstrip": false,
      "rstrip": false,
      "normalized": false,
      "special": true
    },
    {
      "id": 5,
      "content": "<s>",
      "single_word": false,
      "lstrip": false,
      "rstrip": false,
      "normalized": false,
      "special": true
    },
    {
      "id": 6,
      "content": "</s>",
      "single_word": false,
      "lstrip": false,
      "rstrip": false,
      "normalized": false,
      "special": true
    }
  ],
  "normalizer": null,
  "pre_tokenizer": {
    "type": "Metaspace",
    "replacement": "▁",
    "add_prefix_space": true
  },
  "post_processor": null,
  "decoder": {
    "type": "Metaspace",
    "replacement": "▁",
    "add_prefix_space": true
  },
  "model": {
    "type": "Unigram",
    "unk_id": 2,
    "vocab": [
      [
        "<cls>",
        0.0
      ],
      [
        "<sep>",
        0.0
      ],
      [
        "<unk>",
        0.0
      ],
      [
        "<pad>",
        0.0
      ],
      [
        "<mask>",
        0.0
      ],
      [
        "<s>",
        0.0
      ],
      [
        "</s>",
        0.0
      ],
      [
        ",",
        -2.852322297829989
      ],
      [
        "▁",
        -3.1399360348220684
      ],
      [
        ".",
        -3.3489670288726217
      ],
      [
        "▁ci",
        -3.887664444022458
      ],
      [
        "y",
        -3.8885888437471756
      ],
      [
        "i",
        -4.2208282560379855
      ],
      [
        "a",
        -4.280723946237172
      ],
      [
        "u",
        -4.503793828405633
      ],
      [
        "▁ni",
        -4.512059166648229
      ],
      [
        "▁mu",
        -4.549217215356523
      ],
      [
        "▁ko",
        -4.65971025576903
      ],
      [
        "▁ba",
        -4.692998785826639
      ],
      [
        "ak",
        -4.716455486891887
      ],
      [
        "▁ma",
        -4.793336913818638
      ],
      [
        "▁di",
        -4.795774981143071
      ],
      [
        "▁la",
        -4.865072944105835
      ],
      [
        "▁bi",
        -4.910914106446791
      ],
      [
        "▁a",
        -4.956007989071167
      ],
      [
        "▁yi",
        -4.984810066788613
      ],
      [
        "▁ñu",
        -5.012304102659562
      ],
      [
        "▁yu",
        -5.034673406942065
      ],
      [
        "e",
        -5.07184585251269
      ],
      [
        "▁bu",
        -5.146946278702824
      ],
      [
        "▁na",
        -5.164957157344168
      ],
      [
        "▁seen",
        -5.226383125478616
      ],
      [
        "▁sama",
        -5.231612671037897
      ],
      [
        "▁fa",
        -5.28252387798355
      ],
      [
        "▁daan",
        -5.306326582665882
      ],
      [
        "k",
        -5.363967719379017
      ],
      [
        "▁woon",
        -5.387485829501519
      ],
      [
        "oon",
        -5.465317162128968
      ],
      [
        "l",
        -5.495969729993714
      ],
      [
        "▁te",
        -5.5012697182756325
      ],
      [
        "▁ca",
        -5.506824984701125
      ],
      [
        "▁lu",
        -5.510344261410127
      ],
      [
        "▁doon",
        -5.514575215143655
      ],
      [
        "▁Baay",
        -5.528374230477779
      ],
      [
        "▁ngi",
        -5.560321551218833
      ],
      [
        "▁Afrig",
        -5.620369532882458
      ],
      [
        "▁leen",
        -5.62362909664073
      ],
      [
        "am",
        -5.656059730831704
      ],
      [
        "▁gi",
        -5.67510242239574
      ],
      [
        "n",
        -5.738040719407317
      ],
      [
        "ee",
        -5.789090779682425
      ],
      [
        "▁sax",
        -5.8000418442654915
      ],
      [
        "▁du",
        -5.831401126550172
      ],
      [
        "m",
        -5.836981906281121
      ],
      [
        ":",
        -5.860650480207264
      ],
      [
        "▁ya",
        -5.8970539022784205
      ],
      [
        "g",
        -5.928939861945608
      ],
      [
        "▁ne",
        -5.955692102703084
      ],
      [
        "▁nu",
        -5.987127945370408
      ],
      [
        "b",
        -5.997202880861096
      ],
      [
        "▁mel",
        -6.017370036571394
      ],
      [
        "▁ay",
        -6.0334756978877015
      ],
      [
        "al",
        -6.038415801220677
      ],
      [
        "▁li",
        -6.05290699963261
      ],
      [
        "▁mi",
        -6.0939694750412805
      ],
      [
        "▁moo",
        -6.097361439514774
      ],
      [
        "▁nga",
        -6.098610501976275
      ],
      [
        "ul",
        -6.12073447988634
      ],
      [
        "▁dem",
        -6.132964656124109
      ],
      [
        "▁su",
        -6.140907882530256
      ],
      [
        "▁naa",
        -6.172621278003248
      ],
      [
        "▁moom",
        -6.1815055564093
      ],
      [
        "▁benn",
        -6.202590345192283
      ],
      [
        "▁may",
        -6.261425753552184
      ],
      [
        "▁dal",
        -6.2798929010018645
      ],
      [
        "▁nekk",
        -6.295137184775398
      ],
      [
        "oo",
        -6.299196085168321
      ],
      [
        "▁am",
        -6.325601305300305
      ],
      [
        "▁mën",
        -6.330635053957105
      ],
      [
        "▁def",
        -6.3319872141793585
      ],
      [
        "▁ku",
        -6.345451284033966
      ],
      [
        "▁xam",
        -6.348964041096581
      ],
      [
        "▁gu",
        -6.35120926456741
      ],
      [
        "▁?",
        -6.355172868270826
      ],
      [
        "▁kenn",
        -6.363829683389239
      ],
      [
        "ñ",
        -6.374545957664902
      ],
      [
        "«",
        -6.37466414416123
      ],
      [
        "▁mbaa",
        -6.402447460232693
      ],
      [
        "▁gën",
        -6.409465200641909
      ],
      [
        "▁ju",
        -6.42574726286865
      ],
      [
        "▁it",
        -6.431630184809166
      ],
      [
        "▁»",
        -6.442860504569119
      ],
      [
        "di",
        -6.4568212488499
      ],
      [
        "▁rekk",
        -6.462642276122175
      ],
      [
        "▁dara",
        -6.463237602337598
      ],
      [
        "▁dëkk",
        -6.471615274829371
      ],
      [
        "▁nag",
        -6.477380091988424
      ],
      [
        "▁wax",
        -6.47807569368962
      ],
      [
        "▁gis",
        -6.479432325769514
      ],
      [
        "▁war",
        -6.479791817466455
      ],
      [
        "-",
        -6.490403512162396
      ],
      [
        "r",
        -6.509607706674153
      ],
      [
        "▁nit",
        -6.528103967986095
      ],
      [
        "ay",
        -6.548361552109661
      ],
      [
        "▁lépp",
        -6.554319149784001
      ],
      [
        "▁biir",
        -6.57635920261839
      ],
      [
        "t",
        -6.5936154635190185
      ],
      [
        "▁yaay",
        -6.610582676262474
      ],
      [
        "▁Ci",
        -6.6148743389137294
      ],
      [
        "▁fu",
        -6.617536103816077
      ],
      [
        "▁loolu",
        -6.630562152112979
      ],
      [
        "s",
        -6.63484853915879
      ],
      [
        "▁sunu",
        -6.64038613461109
      ],
      [
        "▁teg",
        -6.648621226668597
      ],
      [
        "▁sa",
        -6.650590078975107
      ],
      [
        "▁ñaar",
        -6.65156863158505
      ],
      [
        "▁bés",
        -6.654756249901714
      ],
      [
        "▁yi.",
        -6.655456223016855
      ],
      [
        "▁kër",
        -6.674976783270935
      ],
      [
        "▁Ogosaa",
        -6.675142137365388
      ],
      [
        "▁gone",
        -6.675202024770986
      ],
      [
        "▁walla",
        -6.6771945884582795
      ],
      [
        "▁Su",
        -6.683750424245108
      ],
      [
        "▁yiy",
        -6.697354777053743
      ],
      [
        "▁lool",
        -6.700035308886914
      ],
      [
        "▁yoon",
        -6.71827691618575
      ],
      [
        "▁Li",
        -6.734316538651292
      ],
      [
        "▁si",
        -6.740873673596088
      ],
      [
        "▁Waaye",
        -6.741630051226267
      ],
      [
        "▁xel",
        -6.741664385423199
      ],
      [
        "▁fekk",
        -6.762668292596438
      ],
      [
        "▁mag",
        -6.773275828390419
      ],
      [
        "▁n",
        -6.787040312125967
      ],
      [
        "▁Tugal",
        -6.788700952587854
      ],
      [
        "▁ñoom",
        -6.799196146368525
      ],
      [
        "▁ndax",
        -6.803712590918282
      ],
      [
        "▁b",
        -6.809660780200959
      ],
      [
        "▁doole",
        -6.816535151670939
      ],
      [
        "▁yaram",
        -6.816562531318716
      ],
      [
        "▁daf",
        -6.822665094512491
      ],
      [
        "▁Mu",
        -6.829955263175318
      ],
      [
        "▁bopp",
        -6.8341333025653315
      ],
      [
        "▁yëg",
        -6.843566038604621
      ],
      [
        "o",
        -6.85877902448768
      ],
      [
        "▁jigéen",
        -6.863791308059826
      ],
      [
        "▁réew",
        -6.879665600900915
      ],
      [
        "▁tey",
        -6.890056782785136
      ],
      [
        "▁nataal",
        -6.890059865294933
      ],
      [
        "ngir",
        -6.900163959459738
      ],
      [
        "▁jamono",
        -6.917019162212135
      ],
      [
        "ŋ",
        -6.918137527889388
      ],
      [
        "▁xare",
        -6.926882341131911
      ],
      [
        "▁tax",
        -6.929673838225344
      ],
      [
        "yeek",
        -6.930549970076546
      ],
      [
        "▁Tubaab",
        -6.930972641873441
      ],
      [
        "amul",
        -6.941751740924964
      ],
      [
        "▁saa",
        -6.9460595889432515
      ],
      [
        "▁baax",
        -6.949252245618823
      ],
      [
        "eek",
        -6.9561280507887995
      ],
      [
        "▁àddina",
        -6.957909564055736
      ],
      [
        "▁koo",
        -6.97499957816002
      ],
      [
        "▁yooyu",
        -6.975147542242009
      ],
      [
        "▁ànd",
        -6.996069601264832
      ],
      [
        "▁at",
        -7.010493947359408
      ],
      [
        "▁G",
        -7.014948278965996
      ],
      [
        "▁naan",
        -7.026598975375782
      ],
      [
        "▁d",
        -7.034038395153436
      ],
      [
        "▁wër",
        -7.0394243889259105
      ],
      [
        "▁Te",
        -7.0394761326832676
      ],
      [
        "▁dex",
        -7.044684590369306
      ],
      [
        "ma",
        -7.04506235408201
      ],
      [
        "▁w",
        -7.0490117023578645
      ],
      [
        "▁–",
        -7.053566642912768
      ],
      [
        "▁suuf",
        -7.063984872715121
      ],
      [
        "▁boobu",
        -7.065090020535365
      ],
      [
        "▁fi",
        -7.065204128378463
      ],
      [
        "▁ñi",
        -7.076141076253034
      ],
      [
        "▁da",
        -7.076595407699192
      ],
      [
        "▁ji",
        -7.08494286333465
      ],
      [
        "▁laa",
        -7.090355121517257
      ],
      [
        ";",
        -7.092069901073592
      ],
      [
        "▁Kamerun",
        -7.096492757954495
      ],
      [
        "▁léeg-léeg",
        -7.096655503295403
      ],
      [
        "▁dégg",
        -7.105713555349508
      ],
      [
        "▁àll",
        -7.105767092355344
      ],
      [
        "▁loxo",
        -7.1216467661349805
      ],
      [
        "▁mbir",
        -7.125693347211078
      ],
      [
        "▁jóge",
        -7.131379109475082
      ],
      [
        "▁bëgg",
        -7.135185572670886
      ],
      [
        "▁kow",
        -7.137365616137729
      ],
      [
        "▁ja",
        -7.140594715414115
      ],
      [
        "▁m",
        -7.1473360623731
      ],
      [
        "▁bët",
        -7.1475008646879505
      ],
      [
        "▁nañ",
        -7.156821903875247
      ],
      [
        "▁D",
        -7.166048931217087
      ],
      [
        "▁jot",
        -7.173577194906452
      ],
      [
        "▁mas",
        -7.175811946647327
      ],
      [
        "w",
        -7.176741400369316
      ],
      [
        "▁ga",
        -7.180475073471637
      ],
      [
        "at",
        -7.2016084834933665
      ],
      [
        "▁wu",
        -7.203295852221533
      ],
      [
        "ñu",
        -7.203374957273671
      ],
      [
        "▁boppam",
        -7.2038996180966235
      ],
      [
        "▁L",
        -7.2135212559217115
      ],
      [
        "▁wi",
        -7.226275237883758
      ],
      [
        "j",
        -7.22705409576832
      ],
      [
        "▁ndaw",
        -7.2323614715254045
      ],
      [
        "▁waay",
        -7.238530794405257
      ],
      [
        "lu",
        -7.252187769958704
      ],
      [
        "▁ňu",
        -7.252431046093092
      ],
      [
        "▁dund",
        -7.262696219663313
      ],
      [
        "▁jëm",
        -7.263345314643788
      ],
      [
        "▁N",
        -7.271159407902772
      ],
      [
        "▁Ma",
        -7.277620695194733
      ],
      [
        "▁Ñu",
        -7.278422936123542
      ],
      [
        "▁toog",
        -7.29483851769659
      ],
      [
        "▁man",
        -7.301484347043779
      ],
      [
        "▁de",
        -7.306940437846883
      ],
      [
        "▁tamit",
        -7.315038007972914
      ],
      [
        "▁dañ",
        -7.317063925043019
      ],
      [
        "▁solo",
        -7.332536496002815
      ],
      [
        "▁garab",
        -7.334589502116918
      ],
      [
        "▁l",
        -7.348255687220581
      ],
      [
        "▁y",
        -7.34901058989095
      ],
      [
        "▁jaar",
        -7.354585947915302
      ],
      [
        "▁fàww",
        -7.356467358406496
      ],
      [
        "▁doŋŋ",
        -7.35670882742707
      ],
      [
        "▁daanaka",
        -7.358964160654695
      ],
      [
        "▁yépp",
        -7.3596774995078125
      ],
      [
        "▁ginnaaw",
        -7.362577824577658
      ],
      [
        "▁liggéey",
        -7.3755040300273285
      ],
      [
        "kat",
        -7.375770371754816
      ],
      [
        "▁Am",
        -7.3773419780892375
      ],
      [
        "nu",
        -7.386582095026313
      ],
      [
        "tu",
        -7.389957808294932
      ],
      [
        "▁ñoo",
        -7.394776648705685
      ],
      [
        "▁dee",
        -7.39972080024605
      ],
      [
        "▁lañu",
        -7.40036085004673
      ],
      [
        "▁Du",
        -7.4052599009802105
      ],
      [
        "▁daw",
        -7.411017661426145
      ],
      [
        "um",
        -7.416282390830975
      ],
      [
        "▁jël",
        -7.421747486084641
      ],
      [
        "▁Moo",
        -7.443004623396819
      ],
      [
        "▁c",
        -7.452363390571691
      ],
      [
        "▁neex",
        -7.455118119921044
      ],
      [
        "▁fàttaliku",
        -7.465247483510111
      ],
      [
        "▁bare",
        -7.478992865252174
      ],
      [
        "▁nuy",
        -7.482525727685521
      ],
      [
        "▁Wànte",
        -7.493069831673774
      ],
      [
        "▁yaa",
        -7.493362002668898
      ],
      [
        "▁yaakaar",
        -7.493578105933726
      ],
      [
        "▁dëgg",
        -7.49582968890113
      ],
      [
        "▁metti",
        -7.496494512513511
      ],
      [
        "▁Niseryaa",
        -7.498013991117215
      ],
      [
        "▁Lu",
        -7.502098515930444
      ],
      [
        "▁noonu",
        -7.502559891014659
      ],
      [
        "épp",
        -7.5047256448803
      ],
      [
        "aan",
        -7.50731105253378
      ],
      [
        "ook",
        -7.507766363988297
      ],
      [
        "▁Ni",
        -7.510640748418058
      ],
      [
        "▁tànk",
        -7.51560004664098
      ],
      [
        "▁s",
        -7.518981579689838
      ],
      [
        "▁lañ",
        -7.52912182062934
      ],
      [
        "▁xol",
        -7.534136624145491
      ],
      [
        "▁ko.",
        -7.539624587405783
      ],
      [
        "▁Móris",
        -7.542764449568432
      ],
      [
        "▁xalaat",
        -7.543147749069657
      ],
      [
        "▁topp",
        -7.546966303195558
      ],
      [
        "▁yàgg",
        -7.548663039514722
      ],
      [
        "▁ñuul",
        -7.557318295541978
      ],
      [
        "▁k",
        -7.5605614483150045
      ],
      [
        "▁góor",
        -7.561726095450024
      ],
      [
        "f",
        -7.563106137345446
      ],
      [
        "▁dóor",
        -7.5633906290473245
      ],
      [
        "▁gaal",
        -7.564535505624942
      ],
      [
        "te",
        -7.568018234934911
      ],
      [
        "▁ñ",
        -7.572446777863494
      ],
      [
        "▁f",
        -7.574642627090215
      ],
      [
        "ànte",
        -7.576844881784837
      ],
      [
        "d",
        -7.583565547877859
      ],
      [
        "▁xale",
        -7.586139975677392
      ],
      [
        "ax",
        -7.588663066331913
      ],
      [
        "▁say",
        -7.591775269044053
      ],
      [
        "▁Bansoo",
        -7.595453813720946
      ],
      [
        "▁doom-aadama",
        -7.5958336768572625
      ],
      [
        "▁jeex",
        -7.597020674287434
      ],
      [
        "▁réy",
        -7.597891913650473
      ],
      [
        "▁wéy",
        -7.59797043487973
      ],
      [
        "▁xonq",
        -7.601181075831244
      ],
      [
        "▁Sama",
        -7.601553761191991
      ],
      [
        "▁xamul",
        -7.602261644722773
      ],
      [
        "▁génn",
        -7.602343806145882
      ],
      [
        "▁noppi",
        -7.602892757454588
      ],
      [
        "▁Da",
        -7.603192471814413
      ],
      [
        "▁jàpp",
        -7.603633539326864
      ],
      [
        "si",
        -7.609418947740933
      ],
      [
        "▁door",
        -7.6095703720402765
      ],
      [
        "▁Xam",
        -7.609833345279881
      ],
      [
        "▁maa",
        -7.610453698085936
      ],
      [
        "▁guddi",
        -7.611760629961594
      ],
      [
        "▁maam",
        -7.628150566451658
      ],
      [
        "▁g",
        -7.629708744787137
      ],
      [
        "▁néeg",
        -7.637632345192767
      ],
      [
        "▁Bu",
        -7.640417277517552
      ],
      [
        "▁jaay",
        -7.644976209220603
      ],
      [
        "▁faj",
        -7.6493370817030035
      ],
      [
        "▁Loolu",
        -7.650866331392072
      ],
      [
        "▁Àngale",
        -7.65101357672634
      ],
      [
        "▁Àngalteer",
        -7.651176687135008
      ],
      [
        "▁nettali",
        -7.651302104981093
      ],
      [
        "▁njëkk",
        -7.651410422732414
      ],
      [
        "àddaay",
        -7.651850809150299
      ],
      [
        "▁ñépp",
        -7.651866959621143
      ],
      [
        "▁t",
        -7.652549616052449
      ],
      [
        "▁jooju",
        -7.652919661696351
      ],
      [
        "▁dugg",
        -7.660127684715155
      ],
      [
        "▁W",
        -7.6649705044739385
      ],
      [
        "▁jiit",
        -7.665032325447145
      ],
      [
        "▁itam",
        -7.673291937511101
      ],
      [
        "▁ña",
        -7.673853039576242
      ],
      [
        "▁dellu",
        -7.677341055479742
      ],
      [
        "▁ab",
        -7.68018801469821
      ],
      [
        "▁gàtt",
        -7.68479144066318
      ],
      [
        "▁fan",
        -7.686433932859799
      ],
      [
        "▁jox",
        -7.696624462421278
      ],
      [
        "▁bàyyi",
        -7.706197674215567
      ],
      [
        "▁taxaw",
        -7.709300656577029
      ],
      [
        "▁tàmbal",
        -7.709598678659514
      ],
      [
        "▁gunóor",
        -7.709702531691129
      ],
      [
        "▁Ndax",
        -7.710069139293445
      ],
      [
        "x",
        -7.710488863768701
      ],
      [
        "aat",
        -7.71486163002499
      ],
      [
        "-na",
        -7.7232773672675865
      ],
      [
        "▁dëkki",
        -7.724909163819822
      ],
      [
        "▁boo",
        -7.727488390650086
      ],
      [
        "it",
        -7.728856424942126
      ],
      [
        "▁Ku",
        -7.731010609465905
      ],
      [
        "maa",
        -7.744477043503744
      ],
      [
        "▁lii",
        -7.749059223584727
      ],
      [
        "▁masu",
        -7.750995682999057
      ],
      [
        "▁ñàkk",
        -7.75344627985925
      ],
      [
        "▁doom",
        -7.75674175458524
      ],
      [
        "▁sol",
        -7.761260309505667
      ],
      [
        "▁nun",
        -7.76642296510915
      ],
      [
        "▁dox",
        -7.767238458137509
      ],
      [
        "▁tudd",
        -7.768090183059263
      ],
      [
        "▁way-jur",
        -7.768711375650522
      ],
      [
        "▁ñëw",
        -7.77136566449866
      ],
      [
        "▁dunyaa",
        -7.772124507234464
      ],
      [
        "▁dañu",
        -7.77450298308392
      ],
      [
        "▁bé",
        -7.780942510435344
      ],
      [
        "▁M",
        -7.780953072801029
      ],
      [
        "loo",
        -7.785198988466288
      ],
      [
        "▁weex",
        -7.786196817949076
      ],
      [
        "▁Y",
        -7.787158572854701
      ],
      [
        "▁daal",
        -7.790531221630081
      ],
      [
        "ale",
        -7.7924003425214625
      ],
      [
        "▁mujje",
        -7.792579594367706
      ],
      [
        "▁Ay",
        -7.79276241462635
      ],
      [
        "▁amoon",
        -7.794071784902968
      ],
      [
        "fa",
        -7.802943127678125
      ],
      [
        "▁wut",
        -7.811897601196327
      ],
      [
        "▁won",
        -7.815916209426542
      ],
      [
        "▁dina",
        -7.816340506584019
      ],
      [
        "▁A",
        -7.817301741237842
      ],
      [
        "▁soo",
        -7.820592428612665
      ],
      [
        "▁waaj",
        -7.822579509324609
      ],
      [
        "▁jéem",
        -7.838442241826261
      ],
      [
        "▁làrme",
        -7.838445547320452
      ],
      [
        "▁doktoor",
        -7.8387113324866
      ],
      [
        "▁gént",
        -7.838868890654457
      ],
      [
        "▁seetlu",
        -7.84036714498902
      ],
      [
        "▁mer",
        -7.841352198472279
      ],
      [
        "▁ňaar",
        -7.842098336146215
      ],
      [
        "ek",
        -7.842479864887186
      ],
      [
        "▁yaatu",
        -7.842946446105898
      ],
      [
        "▁niroo",
        -7.843715656718899
      ],
      [
        "▁Yàlla",
        -7.844659530315174
      ],
      [
        "▁lan",
        -7.8469245966990435
      ],
      [
        "▁leer",
        -7.847493848589355
      ],
      [
        "▁tudde",
        -7.848912144887806
      ],
      [
        "▁tur",
        -7.850849209635371
      ],
      [
        "▁Ca",
        -7.853552666198487
      ],
      [
        "dul",
        -7.854723162211176
      ],
      [
        "▁laaj",
        -7.856999003184811
      ],
      [
        "e.",
        -7.857342396572202
      ],
      [
        "▁feebar",
        -7.8600370616083755
      ],
      [
        "▁Ak",
        -7.870600476783073
      ],
      [
        "faral",
        -7.874580678583175
      ],
      [
        "▁F",
        -7.879657303524684
      ],
      [
        "▁ëpp",
        -7.8838545833714395
      ],
      [
        "naa",
        -7.889296072677903
      ],
      [
        "▁sore",
        -7.892601925762472
      ],
      [
        "▁nañu",
        -7.901280587440219
      ],
      [
        "!",
        -7.906923276860265
      ],
      [
        "▁romb",
        -7.909466621270637
      ],
      [
        "▁tangor",
        -7.909821845145942
      ],
      [
        "▁moroom",
        -7.909856062029083
      ],
      [
        "▁wóor",
        -7.910026739431912
      ],
      [
        "▁song",
        -7.910041652765086
      ],
      [
        "▁gaaw",
        -7.910726717089105
      ],
      [
        "▁neen",
        -7.912880023354845
      ],
      [
        "▁deret",
        -7.916848246015835
      ],
      [
        "▁taxoon",
        -7.917405031829371
      ],
      [
        "▁Bamendaa",
        -7.919157722732434
      ],
      [
        "▁mat",
        -7.920680929104348
      ],
      [
        "▁defar",
        -7.92197607084046
      ],
      [
        "atum",
        -7.924342145788802
      ],
      [
        "▁j",
        -7.92737379902206
      ],
      [
        "▁dëkke",
        -7.931725672036388
      ],
      [
        "aas",
        -7.932381160004672
      ],
      [
        "ré",
        -7.93352069657095
      ],
      [
        "mu",
        -7.935926937461379
      ],
      [
        "▁xar",
        -7.9409948972172115
      ],
      [
        "ň",
        -7.941407853471455
      ],
      [
        "eneen",
        -7.944482836747264
      ],
      [
        "▁bañ",
        -7.947865605437626
      ],
      [
        "kër",
        -7.9522251137009965
      ],
      [
        "▁we",
        -7.954292928505007
      ],
      [
        "▁fàtte",
        -7.954674607799032
      ],
      [
        "▁xaw",
        -7.957001507622718
      ],
      [
        "ante",
        -7.960288334017312
      ],
      [
        "▁fas",
        -7.960374218716511
      ],
      [
        "▁dama",
        -7.960810200987674
      ],
      [
        "wul",
        -7.961594588913133
      ],
      [
        "c",
        -7.962373444091737
      ],
      [
        "▁dexu",
        -7.963926514038595
      ],
      [
        "▁K",
        -7.965309903321177
      ],
      [
        "▁Bi",
        -7.967039258068727
      ],
      [
        "▁day",
        -7.975594339401472
      ],
      [
        "▁Maa",
        -7.97624083238532
      ],
      [
        "▁des",
        -7.97649000801014
      ],
      [
        "▁yee",
        -7.97723794840195
      ],
      [
        "▁faa",
        -7.978218905273411
      ],
      [
        "▁J",
        -7.9784215571401536
      ],
      [
        "▁tàng",
        -7.982845381927641
      ],
      [
        "▁Bés",
        -7.985832307698434
      ],
      [
        "▁weesoo",
        -7.9865187986687936
      ],
      [
        "▁gis-gis",
        -7.986673210891581
      ],
      [
        "▁asamaan",
        -7.986880806050783
      ],
      [
        "▁diiwaan",
        -7.986899889101721
      ],
      [
        "▁séen",
        -7.987078189503896
      ],
      [
        "▁tollu",
        -7.987133765498221
      ],
      [
        "▁ubbi",
        -7.987165955971409
      ],
      [
        "▁Kon",
        -7.98758497189543
      ],
      [
        "▁yeneen",
        -7.991045080851599
      ],
      [
        "▁bokk",
        -7.991482138291562
      ],
      [
        "▁xeet",
        -7.99474193823287
      ],
      [
        "▁Frãs",
        -7.996180131355406
      ],
      [
        "▁xelam",
        -7.996523794811846
      ],
      [
        "▁miir",
        -7.999244795975165
      ],
      [
        "▁ki",
        -8.004670349071196
      ],
      [
        "▁la.",
        -8.004776089738767
      ],
      [
        "▁jant",
        -8.005779035672912
      ],
      [
        "▁gaa",
        -8.006668381256024
      ],
      [
        "▁der",
        -8.012534456074413
      ],
      [
        "▁àgg",
        -8.012865592583186
      ],
      [
        "▁demee",
        -8.013068112865357
      ],
      [
        "▁tali",
        -8.017208027221862
      ],
      [
        "uy",
        -8.021214739574773
      ],
      [
        "▁seet",
        -8.021856981704483
      ],
      [
        "▁deme",
        -8.02643363918734
      ],
      [
        "▁nee",
        -8.027813615006872
      ],
      [
        "▁réewu",
        -8.028055497917023
      ],
      [
        "uñu",
        -8.030649806179397
      ],
      [
        "▁gudd",
        -8.031286498818016
      ],
      [
        "▁Xa",
        -8.033607361522485
      ],
      [
        "▁ndox",
        -8.04021548502868
      ],
      [
        "▁fàttali",
        -8.040275676190108
      ],
      [
        "ug",
        -8.04202100201496
      ],
      [
        "enn",
        -8.056932254277015
      ],
      [
        "▁sori",
        -8.057154679854019
      ],
      [
        "▁so",
        -8.057296546667025
      ],
      [
        "str",
        -8.058420558544503
      ],
      [
        "wu",
        -8.059661810790459
      ],
      [
        "▁bay",
        -8.063435125526501
      ],
      [
        "▁sedd",
        -8.069497621105429
      ],
      [
        "▁delloo",
        -8.069828509237045
      ],
      [
        "▁soldaar",
        -8.069828642037125
      ],
      [
        "▁xar-kanam",
        -8.069930846943432
      ],
      [
        "▁mellentaan",
        -8.069970611460516
      ],
      [
        "▁bëj-saalum",
        -8.069975153565128
      ],
      [
        "▁yuuxu",
        -8.0708007668296
      ],
      [
        "▁tëj",
        -8.072957443123137
      ],
      [
        "nga",
        -8.074220545361381
      ],
      [
        "▁kàddu",
        -8.077946105889115
      ],
      [
        "▁nangu",
        -8.07795883116764
      ],
      [
        "eŋ",
        -8.078356782608044
      ],
      [
        "▁géej",
        -8.079583173831946
      ],
      [
        "▁X",
        -8.08110858446748
      ],
      [
        "▁jëkk",
        -8.081747218263859
      ],
      [
        "▁baat",
        -8.087256158123326
      ],
      [
        "▁jàng",
        -8.088713162869169
      ],
      [
        "▁B",
        -8.089995787746384
      ],
      [
        "▁bari",
        -8.096832599381854
      ],
      [
        "▁Di",
        -8.099478417830893
      ],
      [
        "▁wone",
        -8.109402224141625
      ],
      [
        "▁mii",
        -8.119414494758852
      ],
      [
        "▁Daan",
        -8.119500028764401
      ],
      [
        "ni",
        -8.120154310465878
      ],
      [
        "▁ta",
        -8.123808659612571
      ],
      [
        "kki",
        -8.125978515052912
      ],
      [
        "▁yem",
        -8.13083896643943
      ],
      [
        "▁bant",
        -8.131064785218394
      ],
      [
        "▁Man",
        -8.13365907734715
      ],
      [
        "▁fo",
        -8.136885117078169
      ],
      [
        "▁dayo",
        -8.143689239982855
      ],
      [
        "▁ban",
        -8.148298980295486
      ],
      [
        "▁doy",
        -8.153062019245223
      ],
      [
        "▁të",
        -8.154602158597866
      ],
      [
        "▁waa",
        -8.157619577264837
      ],
      [
        "een",
        -8.159380803924634
      ],
      [
        "▁xéy",
        -8.15996993069501
      ],
      [
        "▁kese",
        -8.160068307694088
      ],
      [
        "▁Gone",
        -8.160082818157882
      ],
      [
        "▁rawati",
        -8.16036221626426
      ],
      [
        "▁xeer",
        -8.160462109588835
      ],
      [
        "▁yëkkati",
        -8.16047068856176
      ],
      [
        "▁Guwiyaan",
        -8.160552298707078
      ],
      [
        "▁réer",
        -8.16064416925017
      ],
      [
        "▁déglu",
        -8.160823198308776
      ],
      [
        "▁Moonte",
        -8.161055790300084
      ],
      [
        "▁tund",
        -8.162664246000267
      ],
      [
        "▁googu",
        -8.163617692865705
      ],
      [
        "▁jéggi",
        -8.16376459589397
      ],
      [
        "▁dàll",
        -8.165204803879767
      ],
      [
        "▁màgget",
        -8.165812608291805
      ],
      [
        "▁yóbbu",
        -8.166932824643446
      ],
      [
        "▁xaar",
        -8.168084194112183
      ],
      [
        "▁sàkk",
        -8.168399085527042
      ],
      [
        "▁fees",
        -8.169235028474096
      ],
      [
        "▁ngoon",
        -8.17058200471672
      ],
      [
        "▁tuuti",
        -8.172398555810464
      ],
      [
        "▁kilifa",
        -8.175029440301977
      ],
      [
        "▁miin",
        -8.178718106723492
      ],
      [
        "▁takk",
        -8.182996071217588
      ],
      [
        "kati",
        -8.187585462494749
      ],
      [
        "▁teel",
        -8.188422076658437
      ],
      [
        "ub",
        -8.188602227185276
      ],
      [
        "▁baay",
        -8.19345125165274
      ],
      [
        "▁yit",
        -8.19372452504006
      ],
      [
        "▁nanu",
        -8.203374383058199
      ],
      [
        "▁Boo",
        -8.206537401005155
      ],
      [
        "beek",
        -8.209245272327523
      ],
      [
        "▁Nga",
        -8.2099891274186
      ],
      [
        "ict",
        -8.211897619759046
      ],
      [
        "waat",
        -8.222689510728486
      ],
      [
        "ati",
        -8.22272455209741
      ],
      [
        "▁xool",
        -8.22350304138969
      ],
      [
        "▁doomi",
        -8.223847631262066
      ],
      [
        "▁doxandéem",
        -8.224536519001411
      ],
      [
        "q",
        -8.230061845691752
      ],
      [
        "▁baa",
        -8.230552647389777
      ],
      [
        "▁daj",
        -8.243162847272757
      ],
      [
        "em",
        -8.249121325466472
      ],
      [
        "p",
        -8.25122256078151
      ],
      [
        "▁noo",
        -8.25206973854229
      ],
      [
        "▁tii",
        -8.259338383282635
      ],
      [
        "▁yegg",
        -8.259570733725345
      ],
      [
        "▁jege",
        -8.259864348804514
      ],
      [
        "▁Ñàkk",
        -8.259963511072293
      ],
      [
        "▁metit",
        -8.260008157788766
      ],
      [
        "▁mbóot",
        -8.260146379179346
      ],
      [
        "▁téye",
        -8.260158440009679
      ],
      [
        "▁Officer",
        -8.260235848198764
      ],
      [
        "▁Almaañ",
        -8.260262906292017
      ],
      [
        "▁xuus",
        -8.26030471626002
      ],
      [
        "▁Niis",
        -8.260324882984547
      ],
      [
        "▁ngelaw",
        -8.26064145604155
      ],
      [
        "▁téere",
        -8.260643909887747
      ],
      [
        "▁joor",
        -8.265957718002415
      ],
      [
        "ewul",
        -8.272011724517757
      ],
      [
        "▁janoo",
        -8.273066954215253
      ],
      [
        "▁Ib",
        -8.273380010655597
      ],
      [
        "▁maanaa",
        -8.27344855658089
      ],
      [
        "▁wetu",
        -8.275057020580192
      ],
      [
        "la",
        -8.277744623385738
      ],
      [
        "li",
        -8.278580160203333
      ],
      [
        "▁ragal",
        -8.282384925723031
      ],
      [
        "▁Alma",
        -8.285095045043851
      ],
      [
        "▁gise",
        -8.286226806133175
      ],
      [
        "▁meloon",
        -8.288834469574633
      ],
      [
        "iy",
        -8.298426850915385
      ],
      [
        "▁weer",
        -8.299513991596296
      ],
      [
        "atul",
        -8.310562577309042
      ],
      [
        "▁wuti",
        -8.31369706119791
      ],
      [
        "ba",
        -8.314526459893388
      ],
      [
        "na",
        -8.315952693015793
      ],
      [
        "▁garabi",
        -8.316529280386606
      ],
      [
        "▁bee",
        -8.318077270185398
      ],
      [
        "▁tefes",
        -8.3248461884193
      ],
      [
        "kk",
        -8.330063196085842
      ],
      [
        "▁bind",
        -8.330742726875991
      ],
      [
        "ku",
        -8.349628954121412
      ],
      [
        "▁mënoo",
        -8.350064985847578
      ],
      [
        "kkali",
        -8.355995834096342
      ],
      [
        "▁lekk",
        -8.3591090454876
      ],
      [
        "▁dënn",
        -8.366043332935405
      ],
      [
        "ër",
        -8.369106682671166
      ],
      [
        "▁lëndëm",
        -8.369199896851155
      ],
      [
        "▁Jamono",
        -8.369199897554264
      ],
      [
        "▁Nataal",
        -8.369216092849914
      ],
      [
        "▁cosaan",
        -8.369234573655067
      ],
      [
        "▁boroom",
        -8.36937973071406
      ],
      [
        "▁Kër",
        -8.369546503879809
      ],
      [
        "▁Seen",
        -8.369899021886864
      ],
      [
        "▁Teewul",
        -8.369958169676151
      ],
      [
        "▁yow",
        -8.370193505741394
      ],
      [
        "▁foofu",
        -8.370676405175665
      ],
      [
        "▁bànneex",
        -8.371083284199896
      ],
      [
        "▁diggante",
        -8.371159731238917
      ],
      [
        "▁sowu-jant",
        -8.371206523990178
      ],
      [
        "▁Biyaafaraa",
        -8.371257680800788
      ],
      [
        "▁bëj-gànnaar",
        -8.371293297632109
      ],
      [
        "▁gisaat",
        -8.37147520312556
      ],
      [
        "▁Buur",
        -8.372103218159808
      ],
      [
        "▁leneen",
        -8.372765266932532
      ],
      [
        "▁jàll",
        -8.373360528768078
      ],
      [
        "▁yëngu",
        -8.373949769055068
      ],
      [
        "▁For",
        -8.374004287264194
      ],
      [
        "▁neneen",
        -8.376606194290057
      ],
      [
        "▁Ba",
        -8.379433973365284
      ],
      [
        "▁lakk",
        -8.382570394165981
      ],
      [
        "▁Saa",
        -8.383868019420607
      ],
      [
        "▁këram",
        -8.386219601045308
      ],
      [
        "▁Fi",
        -8.388565352707088
      ],
      [
        "▁kanam",
        -8.388975211916055
      ],
      [
        "▁rey",
        -8.391378518551946
      ],
      [
        "▁suba",
        -8.400990671840614
      ],
      [
        "tt",
        -8.401311235605384
      ],
      [
        "oŋ",
        -8.404974582885618
      ],
      [
        "▁En",
        -8.405229589183328
      ],
      [
        "▁mar",
        -8.407670723236237
      ],
      [
        "▁tàkk",
        -8.414625891371395
      ],
      [
        "leen",
        -8.415628759877235
      ],
      [
        "▁tere",
        -8.417246406329628
      ],
      [
        "▁Dañ",
        -8.419833301080622
      ],
      [
        "▁S",
        -8.422193259202814
      ],
      [
        "▁T",
        -8.428046391255705
      ],
      [
        "▁moomu",
        -8.431138558731496
      ],
      [
        "▁yére",
        -8.433241080904974
      ],
      [
        "re",
        -8.434914691934589
      ],
      [
        "afa",
        -8.437308819117366
      ],
      [
        "▁fii",
        -8.441590272311208
      ],
      [
        "▁p",
        -8.444072920544476
      ],
      [
        "woo",
        -8.444368443063645
      ],
      [
        "▁na.",
        -8.449065344298058
      ],
      [
        "▁wute",
        -8.449602713747831
      ],
      [
        "▁kook",
        -8.452658525759919
      ],
      [
        "▁Mën",
        -8.45592508953864
      ],
      [
        "▁Fa",
        -8.45732968881303
      ],
      [
        "▁doomi-",
        -8.458350742327625
      ],
      [
        "▁ng",
        -8.460771684627677
      ],
      [
        "▁bunt",
        -8.46341689647861
      ],
      [
        "▁luy",
        -8.463435165627171
      ],
      [
        "bar",
        -8.472295530738279
      ],
      [
        "▁lanu",
        -8.472928272608037
      ],
      [
        "▁tóo",
        -8.476327592275
      ],
      [
        "▁tekk",
        -8.478055446327618
      ],
      [
        "aay",
        -8.480153827997114
      ],
      [
        "▁feeñ",
        -8.484260831362917
      ],
      [
        "▁tar",
        -8.486822809229412
      ],
      [
        "▁sago",
        -8.486896901173624
      ],
      [
        "▁yilif",
        -8.490480843767408
      ],
      [
        "oom",
        -8.4923967253206
      ],
      [
        "bu",
        -8.492753500128552
      ],
      [
        ")",
        -8.494199889149645
      ],
      [
        "▁wëndéelu",
        -8.494199889169394
      ],
      [
        "▁Léeg-léeg",
        -8.494199889174856
      ],
      [
        "▁kéemaane",
        -8.494199891405332
      ],
      [
        "▁Legoos",
        -8.494199962019476
      ],
      [
        "▁House",
        -8.494200030292788
      ],
      [
        "▁xàmmee",
        -8.494200093109525
      ],
      [
        "▁làmp",
        -8.494205435734774
      ],
      [
        "▁Óbudu",
        -8.49420644334403
      ],
      [
        "▁janeer",
        -8.494232166433251
      ],
      [
        "▁dénd",
        -8.494252615599024
      ],
      [
        "▁keroog",
        -8.494329972706316
      ],
      [
        "▁yëngal",
        -8.494369373606983
      ],
      [
        "▁sonal",
        -8.4948585717151
      ],
      [
        "▁Waaw",
        -8.49487412359259
      ],
      [
        "▁samp",
        -8.494941646986554
      ],
      [
        "yu",
        -8.495089200061757
      ],
      [
        "▁sànni",
        -8.49517862747289
      ],
      [
        "▁fajkat",
        -8.495264227752525
      ],
      [
        "▁Xare",
        -8.495413605139808
      ],
      [
        "▁gémmiñ",
        -8.495543443551231
      ],
      [
        "▁tukki",
        -8.496021238000896
      ],
      [
        "▁loxoom",
        -8.49628352844823
      ],
      [
        "▁wow",
        -8.497291475299287
      ],
      [
        "▁Ñoom",
        -8.497998454464177
      ],
      [
        "▁Ayaa",
        -8.498107691615743
      ],
      [
        "▁bees",
        -8.498259191129781
      ],
      [
        "▁xanaa",
        -8.498827039824377
      ],
      [
        "▁sew",
        -8.499074602849578
      ],
      [
        "▁fanaan",
        -8.499317531049966
      ],
      [
        "▁diis",
        -8.500116546414194
      ],
      [
        "▁riir",
        -8.500400486166166
      ],
      [
        "▁sowu",
        -8.503155496882203
      ],
      [
        "▁tubaab",
        -8.50350003675696
      ],
      [
        "naka",
        -8.507586867174979
      ],
      [
        "▁Sunu",
        -8.5091222061974
      ],
      [
        "▁Dama",
        -8.510452619053675
      ],
      [
        "▁màggat",
        -8.511794571317912
      ],
      [
        "▁Wa",
        -8.516734264709934
      ],
      [
        "▁waar",
        -8.51753893884027
      ],
      [
        "woon",
        -8.522576021267891
      ],
      [
        "▁jënd",
        -8.522669433296887
      ],
      [
        "▁teew",
        -8.522694882936534
      ],
      [
        "?",
        -8.525324088045165
      ],
      [
        "-fu",
        -8.526313534738295
      ],
      [
        "▁doomu",
        -8.534209072335598
      ],
      [
        "▁nëbb",
        -8.536643338094429
      ],
      [
        "▁dalal",
        -8.55082823573749
      ],
      [
        "▁max",
        -8.551639968231605
      ],
      [
        "▁yab",
        -8.553796288672666
      ],
      [
        "▁cee",
        -8.555219490118358
      ],
      [
        "▁Ra",
        -8.556205375231672
      ],
      [
        "▁tas",
        -8.556639753471067
      ],
      [
        "▁kon",
        -8.562524211572967
      ],
      [
        "▁rëdd",
        -8.566091015556285
      ],
      [
        "▁Tey",
        -8.567767259738
      ],
      [
        "▁yenu",
        -8.568049777322893
      ],
      [
        "lla",
        -8.569005205767555
      ],
      [
        "àkk",
        -8.575402869449164
      ],
      [
        "i.",
        -8.583072653934751
      ],
      [
        "▁dëkku",
        -8.583275492701556
      ],
      [
        "▁yat",
        -8.584315675227161
      ],
      [
        "▁noon",
        -8.585483939156354
      ],
      [
        "▁new",
        -8.587258512166699
      ],
      [
        "uma",
        -8.589183960439359
      ],
      [
        "okk",
        -8.600306869216118
      ],
      [
        "▁lal",
        -8.601037707560945
      ],
      [
        "on",
        -8.61017878098568
      ],
      [
        "▁pënd",
        -8.610751974589993
      ],
      [
        "an",
        -8.617979100526146
      ],
      [
        "▁Soo",
        -8.622935536004052
      ],
      [
        "ko",
        -8.626414473471275
      ],
      [
        "▁wa",
        -8.628869602378117
      ],
      [
        "ngóor",
        -8.632391406110031
      ],
      [
        "▁dagg",
        -8.632670434909805
      ],
      [
        "▁palanteer",
        -8.633318815195146
      ],
      [
        "▁(",
        -8.634572278165635
      ],
      [
        "▁woow",
        -8.635099288732249
      ],
      [
        "▁doxe",
        -8.635717572695949
      ],
      [
        "8",
        -8.63703897457507
      ],
      [
        "▁sukkuraat",
        -8.637057035902103
      ],
      [
        "▁loppitaan",
        -8.637057102392642
      ],
      [
        "▁Ayijoo",
        -8.637058007571428
      ],
      [
        "▁rafet",
        -8.637059146944887
      ],
      [
        "▁Réew",
        -8.637085935082613
      ],
      [
        "▁Déedéet",
        -8.637117959580266
      ],
      [
        "▁tee",
        -8.637119105026189
      ],
      [
        "▁simoŋ",
        -8.637167118742894
      ],
      [
        "▁màrse",
        -8.637173433142896
      ],
      [
        "▁dëgër",
        -8.637179095869453
      ],
      [
        "▁xëcc",
        -8.637188731759938
      ],
      [
        "▁woto",
        -8.637208762401396
      ],
      [
        "▁bett",
        -8.637208776040252
      ],
      [
        "▁juddoo",
        -8.637260629387178
      ],
      [
        "▁seng",
        -8.637315786607122
      ],
      [
        "▁tëdd",
        -8.637781789449498
      ],
      [
        "▁nelaw",
        -8.637915253091439
      ],
      [
        "▁jàppale",
        -8.638196108978475
      ],
      [
        "▁lonk",
        -8.638925233501418
      ],
      [
        "▁Noonu",
        -8.639080519390808
      ],
      [
        "▁raglu",
        -8.639182903950909
      ],
      [
        "▁Kor",
        -8.6396568367653
      ],
      [
        "..",
        -8.639794213104288
      ],
      [
        "▁dellusi",
        -8.642650036365044
      ],
      [
        "▁àngale",
        -8.642736166478706
      ],
      [
        "▁ňuul",
        -8.643309921704262
      ],
      [
        "▁mucc",
        -8.643331118562143
      ],
      [
        "▁Fekk",
        -8.64355997773472
      ],
      [
        "le",
        -8.644302075454279
      ],
      [
        "aale",
        -8.646999123926392
      ],
      [
        "▁siiw",
        -8.652354991093219
      ],
      [
        "waan",
        -8.655272694787625
      ],
      [
        "▁jàn",
        -8.658779328175084
      ],
      [
        "▁dese",
        -8.65881349476742
      ],
      [
        "▁soppi",
        -8.660001010530722
      ],
      [
        "àll",
        -8.660098816817348
      ],
      [
        "▁mukk",
        -8.661728969078187
      ],
      [
        "▁raay",
        -8.6621068721747
      ],
      [
        "▁buur",
        -8.665104328269303
      ],
      [
        "▁jafe",
        -8.666250370836183
      ],
      [
        "▁màndi",
        -8.670978446214848
      ],
      [
        "▁togg",
        -8.672763003650772
      ],
      [
        "ukaay",
        -8.674898243195099
      ],
      [
        "▁kowe",
        -8.67841127961113
      ],
      [
        "▁masuma",
        -8.678982933603551
      ],
      [
        "▁nii",
        -8.679774245327621
      ],
      [
        "▁i",
        -8.68072537706165
      ],
      [
        "▁gii",
        -8.687798754596248
      ],
      [
        "▁jàngal",
        -8.691878528152454
      ],
      [
        "▁waral",
        -8.702198907196848
      ],
      [
        "▁Ar",
        -8.703082593730132
      ],
      [
        "aata",
        -8.703433878190468
      ],
      [
        "os",
        -8.704197100028283
      ],
      [
        "m.",
        -8.707219314650867
      ],
      [
        "▁dun",
        -8.711530863245423
      ],
      [
        "▁duma",
        -8.716263671987681
      ],
      [
        "▁x",
        -8.718667049447252
      ],
      [
        "▁nañoo",
        -8.719295696944716
      ],
      [
        "kkal",
        -8.721637154107476
      ],
      [
        "▁jii",
        -8.722910838988884
      ],
      [
        "▁neex.",
        -8.724046553537919
      ],
      [
        "ànd",
        -8.726913448593752
      ],
      [
        "ti",
        -8.728232661149217
      ],
      [
        "▁Tu",
        -8.731779091997758
      ],
      [
        "▁ñii",
        -8.733589637375019
      ],
      [
        "biy",
        -8.736926772931955
      ],
      [
        "▁Nu",
        -8.73805364210928
      ],
      [
        "▁aw",
        -8.738251218963466
      ],
      [
        "▁bii",
        -8.739124238175194
      ],
      [
        "▁jànq",
        -8.752465384540661
      ],
      [
        "▁Ben",
        -8.752921862059024
      ],
      [
        "▁doo",
        -8.756915441723436
      ],
      [
        "ukki",
        -8.757956438983427
      ],
      [
        "aa",
        -8.76076455096751
      ],
      [
        "▁fow",
        -8.76106089848011
      ],
      [
        "▁fee",
        -8.762275187258526
      ],
      [
        "▁kàttan",
        -8.764980914587158
      ],
      [
        "andoo",
        -8.770901506562419
      ],
      [
        "▁nopp",
        -8.77218103993642
      ],
      [
        "ar",
        -8.77392761040795
      ],
      [
        "▁Fu",
        -8.776514609587073
      ],
      [
        "▁waxtaan",
        -8.77813051405138
      ],
      [
        "▁nja",
        -8.77915296748721
      ],
      [
        "▁muur",
        -8.79671589996738
      ],
      [
        "rus",
        -8.803388790413333
      ],
      [
        "▁tàngaay",
        -8.80342372548921
      ],
      [
        "▁Wiktoryaa",
        -8.803723698674098
      ],
      [
        "▁Mellentaan",
        -8.803723698675423
      ],
      [
        "▁dëggëntaan",
        -8.803723699227598
      ],
      [
        "▁gàncax",
        -8.803723701061436
      ],
      [
        "▁petorool",
        -8.803723720052195
      ],
      [
        "▁Abaakaliki",
        -8.803723732686823
      ],
      [
        "▁jaxasoo",
        -8.803723755813248
      ],
      [
        "▁ponkal",
        -8.803724002967154
      ],
      [
        "▁dëgg-dëgg",
        -8.803724044486238
      ],
      [
        "▁xibaar",
        -8.803724383073796
      ],
      [
        "▁werante",
        -8.803726766222834
      ],
      [
        "▁kawas",
        -8.803726975544416
      ],
      [
        "▁ngëlén",
        -8.80372766640632
      ],
      [
        "▁féete",
        -8.803728012489774
      ],
      [
        "▁baaraam",
        -8.803790828736101
      ],
      [
        "▁jumtukaay",
        -8.8037981288619
      ],
      [
        "▁mbedd",
        -8.803803570138538
      ],
      [
        "▁jékkee-j",
        -8.803808917142586
      ],
      [
        "▁gunge",
        -8.803823455230175
      ],
      [
        "▁agsi",
        -8.80383660406796
      ],
      [
        "▁cofeel",
        -8.803851237780947
      ],
      [
        "▁lonet",
        -8.803863335956043
      ],
      [
        "▁surga",
        -8.803885854706689
      ],
      [
        "▁jàmm",
        -8.803988553619643
      ],
      [
        "▁njabootam",
        -8.804047444883086
      ],
      [
        "▁caaxaan",
        -8.80408314374532
      ],
      [
        "▁meňň",
        -8.804096986359058
      ],
      [
        "▁tàmm",
        -8.804098564929557
      ],
      [
        "▁wéet",
        -8.804145785528775
      ],
      [
        "▁sëkk",
        -8.804372825343325
      ],
      [
        "▁dajale",
        -8.804469131206858
      ],
      [
        "▁jëfandikoo",
        -8.8046456408735
      ],
      [
        "▁askan",
        -8.804810310015144
      ],
      [
        "▁jàkk",
        -8.804919676598564
      ],
      [
        "▁néew",
        -8.804976852106076
      ],
      [
        "▁seetaan",
        -8.805028271504176
      ],
      [
        "▁yéeg",
        -8.805489993024988
      ],
      [
        "▁reer",
        -8.806072667769108
      ],
      [
        "▁njël",
        -8.806248985434515
      ],
      [
        "▁tata",
        -8.807217119616483
      ],
      [
        "▁tolloo",
        -8.807891305515174
      ],
      [
        "▁gàddaay",
        -8.807957750441865
      ],
      [
        "▁juum",
        -8.808790061402954
      ],
      [
        "▁tontu",
        -8.80900788827058
      ],
      [
        "pp",
        -8.810618912138736
      ],
      [
        "▁màndarga",
        -8.810725857723583
      ],
      [
        "▁sës",
        -8.810843314322755
      ],
      [
        "▁danga",
        -8.811441999937028
      ],
      [
        "▁R",
        -8.811674349184413
      ],
      [
        "▁waxtu",
        -8.811880653450146
      ],
      [
        "▁per",
        -8.812019921712936
      ],
      [
        "▁soosu",
        -8.812351048240014
      ],
      [
        "▁déet",
        -8.812553350547342
      ],
      [
        "▁naqadi",
        -8.813412447306117
      ],
      [
        "▁I",
        -8.813584209795817
      ],
      [
        "▁fenn",
        -8.81468371973164
      ],
      [
        "óor",
        -8.815357928934466
      ],
      [
        "▁booba",
        -8.816169516704674
      ],
      [
        "▁yéemu",
        -8.81807052379341
      ],
      [
        "▁foo",
        -8.818576268369354
      ],
      [
        "ji",
        -8.820117078508098
      ],
      [
        "i-d",
        -8.820926663330585
      ],
      [
        "▁démb",
        -8.821796876026637
      ],
      [
        "x-",
        -8.822807937167816
      ],
      [
        "▁At",
        -8.823317644585927
      ],
      [
        "▁jotee",
        -8.826041646244917
      ],
      [
        "▁gor",
        -8.827324691338168
      ],
      [
        "▁ndey",
        -8.830139286350768
      ],
      [
        "ees",
        -8.83158416823253
      ],
      [
        "▁dawal",
        -8.832170297484343
      ],
      [
        "▁dakk",
        -8.832825727511315
      ],
      [
        "▁toogu",
        -8.833540345168995
      ],
      [
        "éy",
        -8.833543946070083
      ],
      [
        "▁alal",
        -8.833883644054518
      ],
      [
        "ékk",
        -8.834366464676268
      ],
      [
        "▁Fii",
        -8.836185098931562
      ],
      [
        "olli",
        -8.836477244283321
      ],
      [
        "▁bon",
        -8.843338250036474
      ],
      [
        "▁jag",
        -8.843616091834592
      ],
      [
        "▁coono",
        -8.846547507095584
      ],
      [
        "▁féex",
        -8.84672420968368
      ],
      [
        "▁mënu",
        -8.846814131637808
      ],
      [
        "▁danu",
        -8.851562413230763
      ],
      [
        "▁tekki",
        -8.85172142477236
      ],
      [
        "▁teewu",
        -8.855306180640717
      ],
      [
        "▁yax",
        -8.857419435323877
      ],
      [
        "▁nguuru",
        -8.861695292444907
      ],
      [
        "▁yeew",
        -8.863250954939048
      ],
      [
        "▁daawu",
        -8.86675154242463
      ],
      [
        "rt",
        -8.87162926189969
      ],
      [
        "▁xet",
        -8.877456040617144
      ],
      [
        "cc",
        -8.879355785779401
      ],
      [
        "▁Afrigam",
        -8.882835409513175
      ],
      [
        "ñoo",
        -8.88601490966499
      ],
      [
        "▁kay",
        -8.887255205429424
      ],
      [
        "▁far",
        -8.889690094077748
      ],
      [
        "▁woy",
        -8.890454633782296
      ],
      [
        "▁kan",
        -8.892452029438457
      ],
      [
        "ll",
        -8.89251967317797
      ],
      [
        "▁P",
        -8.893811854857557
      ],
      [
        "▁àpp",
        -8.898908056671788
      ],
      [
        "▁dikk",
        -8.904285551667169
      ],
      [
        "▁tan",
        -8.910776946589483
      ],
      [
        "▁tànki",
        -8.911249627472582
      ],
      [
        "noo",
        -8.914299389728527
      ],
      [
        "ri",
        -8.922022247223833
      ],
      [
        "▁mb",
        -8.923647743402114
      ],
      [
        "▁jur",
        -8.927032001400134
      ],
      [
        "▁yaak",
        -8.927895507438754
      ],
      [
        "▁Ken",
        -8.935463966560608
      ],
      [
        "▁nguur",
        -8.93769274819791
      ],
      [
        "▁La",
        -8.937967644574968
      ],
      [
        "▁Ñoo",
        -8.939789772592968
      ],
      [
        "bi",
        -8.945315176660355
      ],
      [
        "▁see",
        -8.948415235667083
      ],
      [
        "0",
        -8.948419379348191
      ],
      [
        "▁ñeme",
        -8.953697164978903
      ],
      [
        "▁Le",
        -8.954913146116517
      ],
      [
        "n.",
        -8.955233572203065
      ],
      [
        "leek",
        -8.958078192443569
      ],
      [
        "▁po",
        -8.960825525680699
      ],
      [
        "▁nan",
        -8.963232310815677
      ],
      [
        "ññ",
        -8.965240699860793
      ],
      [
        "kaay",
        -8.966440744485269
      ],
      [
        "antee",
        -8.96737000111494
      ],
      [
        "ci",
        -8.970385023989733
      ],
      [
        "▁Dëg",
        -8.972476245128567
      ],
      [
        "▁sopp",
        -8.972519991760599
      ],
      [
        "▁làq",
        -8.974500170079295
      ],
      [
        "▁naň",
        -8.975733831315386
      ],
      [
        "▁Foo",
        -8.98056869506246
      ],
      [
        "est",
        -8.985001415873883
      ],
      [
        "▁saf",
        -8.985533724572326
      ],
      [
        "aw",
        -8.98802275234756
      ],
      [
        "▁dinaa",
        -8.995098399007219
      ],
      [
        "▁dàq",
        -8.996457488285383
      ],
      [
        "▁fey",
        -8.996966838453128
      ],
      [
        "toon",
        -8.99769907357837
      ],
      [
        "▁siy",
        -8.999354958225238
      ],
      [
        "▁wet",
        -9.001079454570936
      ],
      [
        "▁dajee",
        -9.002421497397394
      ],
      [
        "▁Sefiriis",
        -9.003723698681949
      ],
      [
        "”",
        -9.003723698713415
      ],
      [
        "▁njàqare",
        -9.003723701126502
      ],
      [
        "▁Yoruba",
        -9.003723770986724
      ],
      [
        "▁“",
        -9.003723858239303
      ],
      [
        "▁Sorstaawun",
        -9.003727950947033
      ],
      [
        "▁kalaate",
        -9.003737844480275
      ],
      [
        "▁ndóol",
        -9.003740463504677
      ],
      [
        "▁noyyi",
        -9.003748833465433
      ],
      [
        "▁fetal",
        -9.003783478553512
      ],
      [
        "▁taabal",
        -9.003789336438421
      ],
      [
        "▁karaw",
        -9.003807849624412
      ],
      [
        "▁xaaju",
        -9.003841667208448
      ],
      [
        "▁gànnaay",
        -9.003853532833663
      ],
      [
        "▁doxantu",
        -9.003906625951632
      ],
      [
        "▁làquji",
        -9.003949126037483
      ],
      [
        "▁alkol",
        -9.003954953350878
      ],
      [
        "▁awsa",
        -9.004050020533764
      ],
      [
        "▁naqar",
        -9.004169507647234
      ],
      [
        "▁sell",
        -9.004208330398006
      ],
      [
        "-tiir",
        -9.004283587977646
      ],
      [
        "▁xeex",
        -9.004343029424753
      ],
      [
        "▁gox",
        -9.0043918131596
      ],
      [
        "▁mbind",
        -9.004679207754478
      ],
      [
        "▁simis",
        -9.004729272530913
      ],
      [
        "▁soppiku",
        -9.00485731180292
      ],
      [
        "▁mbégte",
        -9.004921898706225
      ],
      [
        "▁sàcc",
        -9.00501822562456
      ],
      [
        "▁Dëkk",
        -9.00510648680896
      ],
      [
        "erig",
        -9.005302013850281
      ],
      [
        "▁yéene",
        -9.005717559946818
      ],
      [
        "▁delsi",
        -9.005911200243826
      ],
      [
        "▁xur",
        -9.005919302609145
      ],
      [
        "▁yàlla",
        -9.006002851495133
      ],
      [
        "▁Ó",
        -9.006208167218418
      ],
      [
        "▁fitna",
        -9.006258257260534
      ],
      [
        "fippu",
        -9.006383372663585
      ],
      [
        "▁yëf",
        -9.006649166218104
      ],
      [
        "▁juddu",
        -9.006981339506368
      ],
      [
        "▁ger",
        -9.006992485821439
      ],
      [
        "▁dékku",
        -9.007251220936766
      ],
      [
        "eef",
        -9.007848085391013
      ],
      [
        "▁daaneel",
        -9.007848699055916
      ],
      [
        "▁feneen",
        -9.008001609162843
      ],
      [
        "▁yàpp",
        -9.008274370921258
      ],
      [
        "ta",
        -9.009320793522999
      ],
      [
        "▁fépp",
        -9.0097688631067
      ],
      [
        "▁kukk",
        -9.009837703028486
      ],
      [
        "daa",
        -9.010340128436969
      ],
      [
        "▁dàtt",
        -9.01106663409717
      ],
      [
        "▁taw",
        -9.01148693924412
      ],
      [
        "▁ëmb",
        -9.012490465943795
      ],
      [
        "▁tus",
        -9.012750727879913
      ],
      [
        "▁yëgaat",
        -9.01371781869703
      ],
      [
        "▁yéeme",
        -9.015821456393134
      ],
      [
        "▁melax",
        -9.016055848197087
      ],
      [
        "▁tiis",
        -9.016132793650145
      ],
      [
        "▁tiit",
        -9.018936670224509
      ],
      [
        "▁njort",
        -9.019364396215822
      ],
      [
        "ral",
        -9.020407175787852
      ],
      [
        "▁dugal",
        -9.020763725086276
      ],
      [
        "ati-",
        -9.02169936096165
      ],
      [
        "▁nijaay",
        -9.021758684022846
      ],
      [
        "▁néegu-",
        -9.024492917709878
      ],
      [
        "▁màgge",
        -9.024608186764622
      ],
      [
        "▁kowam",
        -9.025701043403572
      ],
      [
        "▁àtte",
        -9.025831658852814
      ],
      [
        "boole",
        -9.027119090821412
      ],
      [
        "▁buum",
        -9.029088071554114
      ],
      [
        "el",
        -9.030587249059845
      ],
      [
        "▁guyy",
        -9.030824556049621
      ],
      [
        "▁Kan",
        -9.032307423114458
      ],
      [
        "▁niir",
        -9.033772208598274
      ],
      [
        "▁Mag",
        -9.033942941068853
      ],
      [
        "▁làqu",
        -9.034930662815642
      ],
      [
        "▁wàcc",
        -9.035953029790637
      ],
      [
        "ët",
        -9.03661719749206
      ],
      [
        "▁léeb",
        -9.038185569737706
      ],
      [
        "▁naaxi",
        -9.03821238626589
      ],
      [
        "▁sant",
        -9.042055488685023
      ],
      [
        "▁mënuma",
        -9.04590610741625
      ],
      [
        "ke",
        -9.046708688107536
      ],
      [
        "▁dëkkoon",
        -9.048652442979387
      ],
      [
        "lle",
        -9.059512836774154
      ],
      [
        "su",
        -9.06538095023419
      ],
      [
        "▁natt",
        -9.06817252231462
      ],
      [
        "▁baxa",
        -9.068429524651258
      ],
      [
        "alla",
        -9.074416236889233
      ],
      [
        "▁duñu",
        -9.075827564823364
      ],
      [
        "maana",
        -9.076493409902533
      ],
      [
        "▁buntu",
        -9.077026748862735
      ],
      [
        "▁yen",
        -9.078247758310642
      ],
      [
        "▁gee",
        -9.078685446984249
      ],
      [
        "nte",
        -9.078923759984743
      ],
      [
        "▁taamu",
        -9.079871134550382
      ],
      [
        "Tubaab",
        -9.080049870837987
      ],
      [
        "▁Xe",
        -9.082164471777961
      ],
      [
        "▁sàn",
        -9.087428678715236
      ],
      [
        "▁mënut",
        -9.089364175546303
      ],
      [
        "ëgg",
        -9.095954900486673
      ],
      [
        "▁ňi",
        -9.096732999842597
      ],
      [
        "▁waxe",
        -9.09706120903278
      ],
      [
        "ŋŋ",
        -9.100296652322188
      ],
      [
        "suñ",
        -9.10088610077057
      ],
      [
        "àbbe",
        -9.104728881577802
      ],
      [
        "ne",
        -9.105189188680363
      ],
      [
        "▁wutal",
        -9.10813645884835
      ],
      [
        "waale",
        -9.112796452210414
      ],
      [
        "▁kii",
        -9.122819792142849
      ],
      [
        "▁ka",
        -9.123467904829269
      ],
      [
        "▁jaa",
        -9.126433835644656
      ],
      [
        "eer",
        -9.12708665009918
      ],
      [
        "tul",
        -9.12959131592713
      ],
      [
        "▁soxna",
        -9.129785670704816
      ],
      [
        "▁fit",
        -9.129937593452045
      ],
      [
        "oy",
        -9.131990879143135
      ],
      [
        "▁taxu",
        -9.132345590817666
      ],
      [
        "▁C",
        -9.141815146020031
      ],
      [
        "▁Mb",
        -9.141872564652463
      ],
      [
        "aayu",
        -9.145142050038869
      ],
      [
        "ekk",
        -9.147903457653898
      ],
      [
        "as",
        -9.15049791507751
      ],
      [
        "▁daanu",
        -9.151923682669207
      ],
      [
        "▁toj",
        -9.15721979027957
      ],
      [
        "ee.",
        -9.15727199564747
      ],
      [
        "tee",
        -9.157981129184043
      ],
      [
        "▁Na",
        -9.161567681054581
      ],
      [
        "om",
        -9.162468613575143
      ],
      [
        "▁Mba",
        -9.168227465793677
      ],
      [
        "▁tool",
        -9.17063598110589
      ],
      [
        "▁ň",
        -9.180560490838769
      ],
      [
        "see",
        -9.184292932969186
      ],
      [
        "ëpp",
        -9.184719557458443
      ],
      [
        "▁wor",
        -9.185679907875077
      ],
      [
        "koo",
        -9.187047757042487
      ],
      [
        "▁daa",
        -9.19336837608883
      ],
      [
        "▁Ngi",
        -9.195478733751878
      ],
      [
        "▁yàq",
        -9.203667546739766
      ],
      [
        "▁waru",
        -9.204266184934653
      ],
      [
        "ndax",
        -9.205547709866288
      ],
      [
        "▁rëbb",
        -9.206063551500877
      ],
      [
        "▁xa",
        -9.21249461740223
      ],
      [
        "▁amu",
        -9.214971857174161
      ],
      [
        "▁guy",
        -9.215102647679345
      ],
      [
        "▁wàcce",
        -9.215339798542278
      ],
      [
        "▁yar",
        -9.220149066535825
      ],
      [
        "»",
        -9.220152855852406
      ],
      [
        "jafe",
        -9.22122244580798
      ],
      [
        "▁yéem",
        -9.225255871941265
      ],
      [
        "▁kàdd",
        -9.228831265678327
      ],
      [
        "▁xii",
        -9.229810892184958
      ],
      [
        "mmeel",
        -9.231084058107674
      ],
      [
        "atu",
        -9.23305579213233
      ],
      [
        "nnee",
        -9.233388121242903
      ],
      [
        "▁kam",
        -9.236170056287524
      ],
      [
        "àcc",
        -9.237412853618347
      ],
      [
        "▁jé",
        -9.23805884415686
      ],
      [
        "▁taax",
        -9.240458279440032
      ],
      [
        "▁Leer",
        -9.240735020045037
      ],
      [
        "▁yemu",
        -9.24101445571214
      ],
      [
        "aar",
        -9.24170918328058
      ],
      [
        "▁gëm",
        -9.243705822698999
      ],
      [
        "▁xarit",
        -9.253230058251829
      ],
      [
        "▁tés-tés",
        -9.253723698673532
      ],
      [
        "▁dóomu-taal",
        -9.25372369867366
      ],
      [
        "▁ndànk-ndànk",
        -9.253723698678876
      ],
      [
        "▁Bërëtaañ",
        -9.253723698682077
      ],
      [
        "▁junniy-junni",
        -9.25372369868585
      ],
      [
        "▁béjjén",
        -9.253723699038293
      ],
      [
        "▁Kalabaar",
        -9.25372370887106
      ],
      [
        "▁rajaxe",
        -9.253723719020275
      ],
      [
        "▁tekk-tekkaaral",
        -9.253723733153027
      ],
      [
        "▁saxaaru-géej",
        -9.253723809369196
      ],
      [
        "▁kilomet",
        -9.25372382327767
      ],
      [
        "▁sibbiru",
        -9.253724464853043
      ],
      [
        "▁penku",
        -9.253730979619979
      ],
      [
        "▁Mokaa",
        -9.253737797269613
      ],
      [
        "▁jërr",
        -9.253738866510261
      ],
      [
        "▁Riwër",
        -9.25374904187183
      ],
      [
        "▁yëngatu",
        -9.253760865181228
      ],
      [
        "▁ràññe",
        -9.253762645453282
      ],
      [
        "▁ndànk",
        -9.25377206232764
      ],
      [
        "▁Guddi",
        -9.253779162409874
      ],
      [
        "▁Pël",
        -9.253792376322764
      ],
      [
        "▁daŋar",
        -9.253803332364393
      ],
      [
        "▁portale",
        -9.253806765354405
      ],
      [
        "▁guyaab",
        -9.253821538012557
      ],
      [
        "▁firndeel",
        -9.253828989143738
      ],
      [
        "▁mbindeef",
        -9.2538365713033
      ],
      [
        "▁pegg",
        -9.253856668388085
      ],
      [
        "▁rëcc",
        -9.253888991833374
      ],
      [
        "▁Looloo",
        -9.253891111025414
      ],
      [
        "▁dëppoo",
        -9.25391001186187
      ],
      [
        "▁dëll",
        -9.25392229896012
      ],
      [
        "▁weesu",
        -9.253990608406308
      ],
      [
        "▁maasaloo",
        -9.254091075947214
      ],
      [
        "▁soxal",
        -9.254101276343096
      ],
      [
        "▁ràpp",
        -9.254122716671136
      ],
      [
        "▁raxas",
        -9.254130021526352
      ],
      [
        "▁meetar",
        -9.254145684695136
      ],
      [
        "▁Kakaa",
        -9.254230109391669
      ],
      [
        "▁Suuf",
        -9.25426789531329
      ],
      [
        "▁móol",
        -9.254295067939859
      ],
      [
        "▁ňàkk",
        -9.254343834951193
      ],
      [
        "▁móobal",
        -9.254378322532647
      ],
      [
        "▁tubay",
        -9.254488199372021
      ],
      [
        "▁waxi",
        -9.254551504814676
      ],
      [
        "▁Mbir",
        -9.254580921951899
      ],
      [
        "▁bo",
        -9.254596728068485
      ],
      [
        "▁sooke",
        -9.254669419915437
      ],
      [
        "▁Ñaar",
        -9.254677233101035
      ],
      [
        "▁yemale",
        -9.254804411109795
      ],
      [
        "▁tabax",
        -9.254914491710391
      ],
      [
        "▁miirloo",
        -9.254989577782947
      ],
      [
        "▁Joor",
        -9.255039496865628
      ],
      [
        "▁dijj",
        -9.255113921822867
      ],
      [
        "▁nangoo",
        -9.255380709528318
      ],
      [
        "▁lëmm",
        -9.255916146519699
      ],
      [
        "▁ndab",
        -9.256156650371803
      ],
      [
        "▁jeeg",
        -9.257746604012862
      ],
      [
        "▁méngale",
        -9.258013238793456
      ],
      [
        "▁màtt",
        -9.258112625389662
      ],
      [
        "▁njiit",
        -9.25813733668637
      ],
      [
        "▁mbooloo",
        -9.25814333005403
      ],
      [
        "▁càkk",
        -9.25868574333483
      ],
      [
        "▁Xale",
        -9.259076326690325
      ],
      [
        "▁Xaw",
        -9.259186010017922
      ],
      [
        "▁ker",
        -9.25926655141867
      ],
      [
        "sàmm",
        -9.259606366238803
      ],
      [
        "▁way-",
        -9.260161339637332
      ],
      [
        "▁waaxu",
        -9.260484727257694
      ],
      [
        "▁diine",
        -9.260677439606617
      ],
      [
        "▁ràkkaaju",
        -9.261013279131692
      ],
      [
        "▁Far",
        -9.26108854241502
      ],
      [
        "▁diggu",
        -9.261277339845362
      ],
      [
        "▁xaj",
        -9.262185140903537
      ],
      [
        "▁sipp",
        -9.26324741253661
      ],
      [
        "▁këru",
        -9.263378855713055
      ],
      [
        "▁Daawu",
        -9.263425394097567
      ],
      [
        "▁ñaaw",
        -9.264427894717214
      ],
      [
        "▁joow",
        -9.265214305273869
      ],
      [
        "-tuut",
        -9.266452362692897
      ],
      [
        "▁jooy",
        -9.26732815604603
      ],
      [
        "▁Nun",
        -9.268311722444015
      ],
      [
        "▁193",
        -9.268337546304666
      ],
      [
        "▁way-juram",
        -9.268735002844675
      ],
      [
        "▁tawat",
        -9.269725977816666
      ],
      [
        "iis",
        -9.270008142349557
      ],
      [
        "▁ndeysaan.",
        -9.270122607025046
      ],
      [
        "▁Masu",
        -9.27042098006541
      ],
      [
        "ŋun",
        -9.27046631305448
      ],
      [
        "▁diir",
        -9.271181189383963
      ],
      [
        "jaa",
        -9.272207857684224
      ],
      [
        "▁jàppoon",
        -9.272828606175006
      ],
      [
        "▁kayit",
        -9.273235827989694
      ],
      [
        "ab",
        -9.273701099997329
      ],
      [
        "▁màng",
        -9.273935138166197
      ],
      [
        "▁set",
        -9.274169867829837
      ],
      [
        "▁lim",
        -9.277794349061786
      ],
      [
        "▁mba",
        -9.27820873289562
      ],
      [
        "▁tegu",
        -9.27822681276892
      ],
      [
        "▁gës",
        -9.278689337994795
      ],
      [
        "▁ňa",
        -9.281055690224722
      ],
      [
        "▁muus",
        -9.281929350211946
      ],
      [
        "▁baň",
        -9.28220968329691
      ],
      [
        "▁yóbb",
        -9.28240357295039
      ],
      [
        "▁wóolu",
        -9.283316154358218
      ],
      [
        "▁jafee",
        -9.284745457026009
      ],
      [
        "gu",
        -9.287144613638112
      ],
      [
        "▁yare",
        -9.288005221864061
      ],
      [
        "▁wér",
        -9.28827032672535
      ],
      [
        "▁julli",
        -9.288391109717551
      ],
      [
        "▁weg",
        -9.288765390625608
      ],
      [
        "▁Doon",
        -9.288905085828429
      ],
      [
        "▁dundam",
        -9.292049567395493
      ],
      [
        "▁Pe",
        -9.292552530353959
      ],
      [
        "▁pom",
        -9.293360696367737
      ],
      [
        "saa",
        -9.293781309850587
      ],
      [
        "▁dinañ",
        -9.294558680232344
      ],
      [
        "▁juróomi",
        -9.295125574486942
      ],
      [
        "▁jekk",
        -9.297027351890206
      ],
      [
        "▁dib",
        -9.298866386286413
      ],
      [
        "▁Aka",
        -9.299452915180947
      ],
      [
        "▁kas",
        -9.299822485332314
      ],
      [
        "añse",
        -9.302244497064278
      ],
      [
        "▁Ñ",
        -9.302440201727892
      ],
      [
        "àngi",
        -9.306483624357869
      ],
      [
        "àww",
        -9.306627664639837
      ],
      [
        "▁sib",
        -9.306853221990155
      ],
      [
        "▁wàll",
        -9.307295154492463
      ],
      [
        "▁feeñu",
        -9.309002373279622
      ],
      [
        "▁faax",
        -9.309173119786088
      ],
      [
        "▁xamoon",
        -9.309480305289245
      ],
      [
        "▁rëbbi",
        -9.309836654346254
      ],
      [
        "▁nekkin",
        -9.31121196458473
      ],
      [
        "lee",
        -9.314420225182834
      ],
      [
        "▁yatt",
        -9.316997708067792
      ],
      [
        "▁bég",
        -9.31956935854107
      ],
      [
        "bët",
        -9.320176909223116
      ],
      [
        "kom",
        -9.320349381729223
      ],
      [
        "▁Ta",
        -9.322776693917383
      ],
      [
        "oog",
        -9.323496350972018
      ],
      [
        "▁jógee",
        -9.325180557424702
      ],
      [
        "▁xóot",
        -9.325457517026372
      ],
      [
        "▁ñaw",
        -9.325985160213126
      ],
      [
        "àllaam",
        -9.332742465254375
      ],
      [
        "▁tëwa",
        -9.333660342332111
      ],
      [
        "éb",
        -9.337867631906583
      ],
      [
        "mb",
        -9.338482594011793
      ],
      [
        "▁sañ",
        -9.340057660325364
      ],
      [
        "ru",
        -9.343356664501218
      ],
      [
        "ooy",
        -9.347461700489356
      ],
      [
        "▁xobi",
        -9.350349863216112
      ],
      [
        "exe",
        -9.350795548644307
      ],
      [
        "ool",
        -9.352979318944882
      ],
      [
        "aanaka",
        -9.358923327465442
      ],
      [
        "▁Ki",
        -9.362922100055604
      ],
      [
        "▁Gar",
        -9.367911191696507
      ],
      [
        "▁dunde",
        -9.371501751627585
      ],
      [
        "nti",
        -9.371826337948416
      ],
      [
        "▁seetu",
        -9.371847219471361
      ],
      [
        "▁nd",
        -9.379847278520746
      ],
      [
        "▁ñetti",
        -9.381146296219683
      ],
      [
        "▁Ña",
        -9.386774021670261
      ],
      [
        "àtt",
        -9.387920840240483
      ],
      [
        "▁Mas",
        -9.388827162107768
      ],
      [
        "▁dootu",
        -9.397887968210078
      ],
      [
        "▁Jo",
        -9.402109779586066
      ],
      [
        "▁xame",
        -9.40495634375351
      ],
      [
        "ju",
        -9.405523534065933
      ],
      [
        "▁nju",
        -9.406586212800363
      ],
      [
        "xe",
        -9.409249814299294
      ],
      [
        "▁Sa",
        -9.410501083807844
      ],
      [
        "banaan",
        -9.411172465991685
      ],
      [
        "-kow",
        -9.416983078015228
      ],
      [
        "ata",
        -9.418091928800179
      ],
      [
        "▁faf",
        -9.419922680949814
      ],
      [
        "▁waroo",
        -9.42578993902662
      ],
      [
        "eñ",
        -9.43175217635207
      ],
      [
        "▁moomee",
        -9.432092279554132
      ],
      [
        "▁pé",
        -9.436749979285207
      ],
      [
        "▁yaroo",
        -9.442140496685598
      ],
      [
        "▁May",
        -9.445432469166091
      ],
      [
        "elu",
        -9.446407754488819
      ],
      [
        "▁njàmba",
        -9.447892443417143
      ],
      [
        "▁mënee",
        -9.44815809166905
      ],
      [
        "▁tama",
        -9.450193071127813
      ],
      [
        "▁doxal",
        -9.453138809765603
      ],
      [
        "i-",
        -9.456475947129631
      ],
      [
        "ww",
        -9.456523814828227
      ],
      [
        "tam",
        -9.460141712297304
      ],
      [
        "feebar",
        -9.463914934265278
      ],
      [
        "weer",
        -9.468389685506455
      ],
      [
        "eti",
        -9.468625517296248
      ],
      [
        "▁mujj",
        -9.469244023846652
      ],
      [
        "▁dan",
        -9.471082899394826
      ],
      [
        "▁xob",
        -9.471801263190764
      ],
      [
        "▁ñee",
        -9.472202005681284
      ],
      [
        "ry",
        -9.47249708722635
      ],
      [
        "laay",
        -9.472940280720945
      ],
      [
        "aram",
        -9.473113463453293
      ],
      [
        "añoo",
        -9.473402403474413
      ],
      [
        "éq",
        -9.474659445675455
      ],
      [
        "éeri",
        -9.476852720489386
      ],
      [
        "es",
        -9.477037088565307
      ],
      [
        "oole",
        -9.478443288526393
      ],
      [
        "sin",
        -9.479038432082174
      ],
      [
        "h",
        -9.479318774039458
      ],
      [
        "▁xat",
        -9.480823120156296
      ],
      [
        "etti",
        -9.481760199203476
      ],
      [
        "nd",
        -9.484468935534558
      ],
      [
        "boo",
        -9.487432757233435
      ],
      [
        "▁wi.",
        -9.487512274568154
      ],
      [
        "ňň",
        -9.488519755098135
      ],
      [
        "▁xolu",
        -9.48941059304278
      ],
      [
        "▁defe",
        -9.489918252199995
      ],
      [
        "▁newu",
        -9.495040614848973
      ],
      [
        "▁ñett",
        -9.496189535637395
      ],
      [
        "eem",
        -9.496519708617182
      ],
      [
        "pus",
        -9.49849343377215
      ],
      [
        "niki",
        -9.50213692281902
      ],
      [
        "▁bët.",
        -9.502707902651355
      ],
      [
        "▁fowe",
        -9.507008564494798
      ],
      [
        "▁jàppe",
        -9.507854930067618
      ],
      [
        "dar",
        -9.509356370364616
      ],
      [
        "aj",
        -9.512009585227123
      ],
      [
        "eelu",
        -9.512390150881622
      ],
      [
        "eeku",
        -9.526520368069555
      ],
      [
        "u-",
        -9.527166485595188
      ],
      [
        "▁xamu",
        -9.527804063799655
      ],
      [
        "tóor",
        -9.528235442505826
      ],
      [
        "-lu",
        -9.528304868957994
      ],
      [
        "ga",
        -9.532278447523641
      ],
      [
        "▁taal",
        -9.534329647378806
      ],
      [
        "▁kur",
        -9.53799065510021
      ],
      [
        "▁sàpp",
        -9.541885528017191
      ],
      [
        "▁bà",
        -9.543155570635433
      ],
      [
        "▁aar",
        -9.5453691709094
      ],
      [
        "war",
        -9.549093801040996
      ],
      [
        "fal",
        -9.550707085695636
      ],
      [
        "ňu",
        -9.55242773343577
      ],
      [
        "ya",
        -9.552894340646256
      ],
      [
        "▁Mar",
        -9.554516502570264
      ],
      [
        "▁jë",
        -9.557358504595788
      ],
      [
        "jënd",
        -9.557682540563624
      ],
      [
        "▁jaaxa",
        -9.559136623365111
      ],
      [
        "▁jubal",
        -9.56383007736456
      ],
      [
        "▁naqad",
        -9.566297185572134
      ],
      [
        "▁woo",
        -9.567521192555663
      ],
      [
        "▁fulla",
        -9.567910975626676
      ],
      [
        "▁kà",
        -9.568042852920229
      ],
      [
        "▁wà",
        -9.568543719435104
      ],
      [
        "leel",
        -9.57349475359368
      ],
      [
        "▁jo",
        -9.573863102499221
      ],
      [
        "▁mbal",
        -9.574311428186451
      ],
      [
        "Afrig",
        -9.575458889215605
      ],
      [
        "▁dég",
        -9.575514305844452
      ],
      [
        "▁xul",
        -9.575550840812758
      ],
      [
        "nn",
        -9.576428845614709
      ],
      [
        "▁melo",
        -9.578781980016998
      ],
      [
        "baŋ",
        -9.579233871818204
      ],
      [
        "▁méng",
        -9.581128326541481
      ],
      [
        "ñ.",
        -9.581291715996377
      ],
      [
        "▁yó",
        -9.583717153367838
      ],
      [
        "▁dig",
        -9.58464921263693
      ],
      [
        "aatu",
        -9.584985210064767
      ],
      [
        "▁xërëm",
        -9.586774720896917
      ],
      [
        "▁rajo",
        -9.586805314375757
      ],
      [
        "igéen",
        -9.587052701823188
      ],
      [
        "2",
        -9.587057022207297
      ],
      [
        "▁roppëlaan",
        -9.58705703200875
      ],
      [
        "▁Adekunle",
        -9.587057032009156
      ],
      [
        "▁mettee-metti",
        -9.587057032032138
      ],
      [
        "▁Normàndi",
        -9.58705703205467
      ],
      [
        "▁jekk-jekkal",
        -9.587057032076906
      ],
      [
        "▁Bénuwe",
        -9.587057032214128
      ],
      [
        "▁ëllëg",
        -9.587057032338375
      ],
      [
        "▁dispañseer",
        -9.587057032596453
      ],
      [
        "▁dankalikoo",
        -9.587057034145499
      ],
      [
        "▁Poor-Arkuur",
        -9.587057035590927
      ],
      [
        "▁Aadamawa",
        -9.587057071644853
      ],
      [
        "▁Polisoŋ",
        -9.587057074705644
      ],
      [
        "▁waxambaane",
        -9.58705708785003
      ],
      [
        "▁mébét",
        -9.587057098302056
      ],
      [
        "▁sukkandik",
        -9.587057104318696
      ],
      [
        "éwén",
        -9.587057159631216
      ],
      [
        "▁sañ-sañ",
        -9.587057166572015
      ],
      [
        "▁Bawob",
        -9.587057194999486
      ],
      [
        "▁dog-dog",
        -9.587057266415023
      ],
      [
        "▁bànxaas",
        -9.58705727935342
      ],
      [
        "▁bataaxal",
        -9.587057297363476
      ],
      [
        "▁Saawusamton",
        -9.587057313057716
      ],
      [
        "▁Tàngaay",
        -9.587057513594486
      ],
      [
        "▁njoowaan",
        -9.587057542587866
      ],
      [
        "▁Yéesu",
        -9.587057638980331
      ],
      [
        "▁pikiir",
        -9.587057859795205
      ],
      [
        "▁ófise",
        -9.58705787819888
      ],
      [
        "▁callweer",
        -9.587057965278085
      ],
      [
        "▁Baterig",
        -9.587059047915426
      ],
      [
        "▁biiru-ta",
        -9.587059333056791
      ],
      [
        "▁xam-xam",
        -9.587060751763149
      ],
      [
        "▁xélu",
        -9.587060942979855
      ],
      [
        "▁lëkkale",
        -9.587061529890066
      ],
      [
        "▁xaalis",
        -9.58706191524217
      ],
      [
        "▁jaar-jaar",
        -9.587062149906368
      ],
      [
        "▁gàngiri",
        -9.58706230065133
      ],
      [
        "▁reetaan",
        -9.587068818019823
      ],
      [
        "▁196",
        -9.587069245341064
      ],
      [
        "▁Fàttewu",
        -9.587078695518152
      ],
      [
        "▁000",
        -9.58708017353806
      ],
      [
        "▁njariñ",
        -9.587090093115181
      ],
      [
        "▁fés",
        -9.587090375730321
      ],
      [
        "▁rendi",
        -9.587094320859764
      ],
      [
        "▁Fiild",
        -9.587096945922118
      ],
      [
        "▁Niseer",
        -9.587097906254007
      ],
      [
        "▁ndaje",
        -9.587107298244375
      ],
      [
        "▁Wiyaa",
        -9.587113682908067
      ],
      [
        "▁jaabante",
        -9.587120542289892
      ],
      [
        "▁Alseri",
        -9.587127060261707
      ],
      [
        "▁laxas",
        -9.587130665598618
      ],
      [
        "▁wë",
        -9.587144574190923
      ],
      [
        "▁ŋàññ",
        -9.587153219825758
      ],
      [
        "▁ruqu-géeju",
        -9.58715754607277
      ],
      [
        "▁doomi-tubaab",
        -9.587176991503902
      ],
      [
        "▁yàkkamt",
        -9.587208492786017
      ],
      [
        "▁juróom-benn",
        -9.587234366516055
      ],
      [
        "▁yegsi",
        -9.587239999170292
      ],
      [
        "▁segg",
        -9.587262032117422
      ],
      [
        "▁xàmb",
        -9.587267706761276
      ],
      [
        "▁iróko",
        -9.587272721858993
      ],
      [
        "▁toppatoo",
        -9.58727333688078
      ],
      [
        "▁Jàng",
        -9.587285382548501
      ],
      [
        "▁Ndox",
        -9.587291249891384
      ],
      [
        "▁tukkee",
        -9.587304211406579
      ],
      [
        "▁fomp",
        -9.58732066939559
      ],
      [
        "▁ganesi",
        -9.587322137522387
      ],
      [
        "▁paaka",
        -9.587325162876962
      ],
      [
        "▁moytu",
        -9.587332307958253
      ],
      [
        "▁meññ",
        -9.587335173756161
      ],
      [
        "ňeent",
        -9.587380988898603
      ],
      [
        "▁Bariwu",
        -9.58738518129121
      ],
      [
        "▁ginnax",
        -9.587391445820963
      ],
      [
        "▁rajoom",
        -9.587430388929333
      ],
      [
        "▁mbagg",
        -9.587451156410223
      ],
      [
        "▁Pari",
        -9.587464359490612
      ],
      [
        "▁fecc",
        -9.587467651819685
      ],
      [
        "▁soxor",
        -9.58750131469465
      ],
      [
        "▁Toog",
        -9.58758283091598
      ],
      [
        "▁denc",
        -9.587592812905722
      ],
      [
        "▁kawar",
        -9.587617054126627
      ],
      [
        "▁Riis",
        -9.587634105934535
      ],
      [
        "▁tëral",
        -9.58763440063771
      ],
      [
        "▁yaxeet",
        -9.587717304544464
      ],
      [
        "▁tàgg",
        -9.587721988356268
      ],
      [
        "▁Kàttan",
        -9.587742721883068
      ],
      [
        "▁Tont",
        -9.587795118313496
      ],
      [
        "▁aada",
        -9.587819086399508
      ],
      [
        "▁këruus",
        -9.587841289411152
      ],
      [
        "▁reyante",
        -9.587890739494295
      ],
      [
        "àyyee",
        -9.587896090519465
      ],
      [
        "▁Kari",
        -9.587927951647181
      ],
      [
        "▁soppikoo",
        -9.588031514646927
      ],
      [
        "▁jadd",
        -9.588036521582676
      ],
      [
        "▁Ija",
        -9.588061303478005
      ],
      [
        "▁wecc",
        -9.58808239950696
      ],
      [
        "▁wotoom",
        -9.588140810732595
      ],
      [
        "▁gëdd",
        -9.588184020629663
      ],
      [
        "▁ñàng",
        -9.588219090515551
      ],
      [
        "▁dëj",
        -9.588252623666268
      ],
      [
        "▁sanc",
        -9.5883495731931
      ],
      [
        "▁yànj",
        -9.588394231626147
      ],
      [
        "▁Sopp",
        -9.588767232587104
      ],
      [
        "▁mëdd",
        -9.58879477904594
      ],
      [
        "▁màkkaan",
        -9.58886106693065
      ],
      [
        "▁fexe",
        -9.588988111309856
      ],
      [
        "▁Ganaa",
        -9.589117931367444
      ],
      [
        "▁ndoorte",
        -9.589147099927896
      ],
      [
        "▁ndigg",
        -9.589557104630241
      ],
      [
        "▁tëri",
        -9.589581409101502
      ],
      [
        "t.",
        -9.58970591202765
      ],
      [
        "▁nàññ",
        -9.589802193593876
      ],
      [
        "▁pàkk",
        -9.590009243654903
      ],
      [
        "▁tooñ",
        -9.590269501299604
      ],
      [
        "▁sóob",
        -9.590429294616037
      ],
      [
        "▁So",
        -9.59052409446613
      ],
      [
        "▁tàggat",
        -9.590634484393831
      ],
      [
        "▁dalukaay",
        -9.591096932758042
      ],
      [
        "▁génnaan",
        -9.591243186769256
      ],
      [
        "▁tanc",
        -9.591507693027541
      ],
      [
        "▁weexaay",
        -9.592376219289173
      ],
      [
        "éer",
        -9.592485073207088
      ],
      [
        "▁gëmoon",
        -9.592527621497448
      ],
      [
        "▁tënk",
        -9.592564736023737
      ],
      [
        "méeri",
        -9.592710502218376
      ],
      [
        "xosi",
        -9.59291636288463
      ],
      [
        "▁xaritam",
        -9.592989907668217
      ],
      [
        "aakaar",
        -9.593078783981461
      ],
      [
        "▁wékk",
        -9.593266614164682
      ],
      [
        "éen",
        -9.593927051167368
      ],
      [
        "▁daagu",
        -9.593938761871849
      ],
      [
        "▁Dina",
        -9.59406706976913
      ],
      [
        "▁làmb",
        -9.594133809339864
      ],
      [
        "▁puu",
        -9.594408948021346
      ],
      [
        "▁ŋaam",
        -9.596085177488627
      ],
      [
        "▁deseetu",
        -9.596227739172013
      ],
      [
        "▁sànneek",
        -9.596601497010605
      ],
      [
        "▁Dem",
        -9.59690551635051
      ],
      [
        "▁baraa",
        -9.597428185104095
      ],
      [
        "▁bokkul",
        -9.597629743879438
      ],
      [
        "▁Ji",
        -9.59782535397345
      ],
      [
        "▁wépp",
        -9.598035704011693
      ],
      [
        "àddu",
        -9.598239876667149
      ],
      [
        "▁tàngal",
        -9.598405585410447
      ],
      [
        "ilyaa",
        -9.598476544311591
      ],
      [
        "▁Gis",
        -9.59863472496452
      ],
      [
        "▁dog",
        -9.598675485229395
      ],
      [
        "▁dënnam",
        -9.599063643020061
      ],
      [
        "▁noppal",
        -9.599299564343912
      ],
      [
        "innaaw",
        -9.599505511976304
      ],
      [
        "saan",
        -9.59979449068105
      ],
      [
        "▁mes",
        -9.600235659273228
      ],
      [
        "▁lenn",
        -9.600334127755758
      ],
      [
        "▁Suku",
        -9.600684754281799
      ],
      [
        "▁yaatal",
        -9.60116196954322
      ],
      [
        "▁xarat",
        -9.60130506408515
      ],
      [
        "oolu-xare",
        -9.60131191009958
      ],
      [
        "▁jaawale",
        -9.605239513588725
      ],
      [
        "▁Garab",
        -9.605311505894344
      ],
      [
        "▁tëgg",
        -9.606585908530386
      ],
      [
        "aaral",
        -9.60781469228455
      ],
      [
        "▁tàkkal",
        -9.608282530817648
      ],
      [
        "▁sotti",
        -9.608889184807602
      ],
      [
        "▁Yoon",
        -9.609480077477707
      ],
      [
        "▁soos",
        -9.609837597773277
      ],
      [
        "▁fullaal",
        -9.610216996206944
      ],
      [
        "▁ňoom",
        -9.613254784795002
      ],
      [
        "▁Der",
        -9.613417520288449
      ],
      [
        "▁ñor",
        -9.613689188410778
      ],
      [
        "▁pax",
        -9.614054359610869
      ],
      [
        "▁Sor",
        -9.614340040052328
      ],
      [
        "▁xer",
        -9.615940843949689
      ],
      [
        "▁rax",
        -9.617920501919423
      ],
      [
        "▁defante",
        -9.618371016448492
      ],
      [
        "▁tepp",
        -9.618496713043282
      ],
      [
        "▁ra",
        -9.618635736952598
      ],
      [
        "▁yëge",
        -9.620125007156435
      ],
      [
        "▁géey",
        -9.620284160677377
      ],
      [
        "éet",
        -9.621658092386278
      ],
      [
        "▁toogoon",
        -9.62208400848533
      ],
      [
        "uru",
        -9.62285916640236
      ],
      [
        "▁nawet",
        -9.623120016306515
      ],
      [
        "▁tuutee",
        -9.6236525631067
      ],
      [
        "▁biti",
        -9.624891411679572
      ],
      [
        "▁yooy",
        -9.625721516984012
      ],
      [
        "▁bëtam",
        -9.625887325096201
      ],
      [
        "er",
        -9.62624324651386
      ],
      [
        "▁noppalu",
        -9.627633577672269
      ],
      [
        "▁xiir",
        -9.627729434022857
      ],
      [
        "▁gëj",
        -9.628714940951586
      ],
      [
        "alu",
        -9.628911328862879
      ],
      [
        "▁baree-bare",
        -9.629045903854799
      ],
      [
        "▁gan",
        -9.630357684396795
      ],
      [
        "seen",
        -9.631014681564395
      ],
      [
        "▁waxtoo",
        -9.631114805155528
      ],
      [
        "▁genn",
        -9.633086375557072
      ],
      [
        "edd",
        -9.633569092992108
      ],
      [
        "▁yëngoo",
        -9.63386452929529
      ],
      [
        "in",
        -9.634947864080493
      ],
      [
        "▁raŋ",
        -9.638291150036235
      ],
      [
        "▁demul",
        -9.63937774527026
      ],
      [
        "▁tàll",
        -9.64017011122391
      ],
      [
        "waa",
        -9.640992047024607
      ],
      [
        "▁Sooy",
        -9.641427019519467
      ],
      [
        "▁Sin",
        -9.643051202619283
      ],
      [
        "▁xoole",
        -9.64613064999349
      ],
      [
        "▁ñaan",
        -9.64629623470045
      ],
      [
        "▁yoonam",
        -9.64893514811964
      ],
      [
        "▁daju",
        -9.651056640907894
      ],
      [
        "▁woowu",
        -9.65320870972717
      ],
      [
        "▁dàqee",
        -9.653923289725597
      ],
      [
        "eeñ",
        -9.654128806914756
      ],
      [
        "▁r",
        -9.65420033899441
      ],
      [
        "▁kaf",
        -9.656377701403711
      ],
      [
        "▁Nj",
        -9.65817009271797
      ],
      [
        "▁teqal",
        -9.661414198884186
      ],
      [
        "▁làppto",
        -9.662274257576442
      ],
      [
        "▁waxoon",
        -9.66292493148329
      ],
      [
        "▁pënde",
        -9.663293358513071
      ],
      [
        "imis",
        -9.663667029286426
      ],
      [
        "▁lek",
        -9.663989654547356
      ],
      [
        "▁Ñi",
        -9.664976691237168
      ],
      [
        "jjant",
        -9.668143371587629
      ],
      [
        "anam",
        -9.66840625501517
      ],
      [
        "▁opeereka",
        -9.669781013227874
      ],
      [
        "▁njaay",
        -9.670714668106921
      ],
      [
        "ris",
        -9.671401884438131
      ],
      [
        "▁sos",
        -9.672213090706569
      ],
      [
        "aloon",
        -9.674477563960286
      ],
      [
        "▁kàttanu",
        -9.677189469042217
      ],
      [
        "galu",
        -9.678419588819946
      ],
      [
        "gi",
        -9.680378782802526
      ],
      [
        "▁ree",
        -9.68225071452627
      ],
      [
        "siye",
        -9.682270160996737
      ],
      [
        "uñ",
        -9.689976972537378
      ],
      [
        "▁co",
        -9.690111051318194
      ],
      [
        "saal",
        -9.69065210117103
      ],
      [
        "▁for",
        -9.692326475854108
      ],
      [
        "▁sonn",
        -9.692803359653801
      ],
      [
        "▁boy",
        -9.693887541597963
      ],
      [
        "sa",
        -9.693943595943088
      ],
      [
        "▁waajal",
        -9.696684983364804
      ],
      [
        "óo",
        -9.697465365970233
      ],
      [
        "alee",
        -9.69800987292311
      ],
      [
        "▁dëdd",
        -9.698507693807093
      ],
      [
        "▁toogal",
        -9.699028240354798
      ],
      [
        "▁saba",
        -9.699092138155299
      ],
      [
        "▁Nko",
        -9.699587326174615
      ],
      [
        "▁Waa",
        -9.699633819089401
      ],
      [
        "axum",
        -9.700349528244855
      ],
      [
        "▁goog",
        -9.701157729214797
      ],
      [
        "▁Sene",
        -9.704561111399142
      ],
      [
        "▁bale",
        -9.704838567298578
      ],
      [
        "▁nde",
        -9.709717983635105
      ],
      [
        "▁ñàkku",
        -9.709777694105252
      ],
      [
        "aka",
        -9.710701741440463
      ],
      [
        "▁sun",
        -9.714251994509619
      ],
      [
        "3",
        -9.715904765680664
      ],
      [
        "00",
        -9.71623610549785
      ],
      [
        "▁ras",
        -9.718543481029528
      ],
      [
        "awoo",
        -9.721160074698894
      ],
      [
        "▁ŋa",
        -9.723414169533802
      ],
      [
        "▁Ri",
        -9.723795197709933
      ],
      [
        "fu",
        -9.723838317536957
      ],
      [
        "u.",
        -9.723847496040891
      ],
      [
        "▁Mii",
        -9.724166459008968
      ],
      [
        "▁neexu",
        -9.724850268140965
      ],
      [
        "we",
        -9.726137950233978
      ],
      [
        "▁ast",
        -9.727597161215515
      ],
      [
        "▁noot",
        -9.7293767329549
      ],
      [
        "niróo",
        -9.730703455351497
      ],
      [
        "▁boot",
        -9.733274925356246
      ],
      [
        "▁Góo",
        -9.733395948043679
      ],
      [
        "▁jëmm",
        -9.735566676997141
      ],
      [
        "fara",
        -9.736867963728383
      ],
      [
        "▁nar",
        -9.738219011410196
      ],
      [
        "▁toje",
        -9.741292106468931
      ],
      [
        "aaj",
        -9.741817948475536
      ],
      [
        "▁fuñ",
        -9.742746472934456
      ],
      [
        "ë",
        -9.747008132564911
      ],
      [
        "▁Pa",
        -9.747585389204753
      ],
      [
        "▁moomoo",
        -9.748732398688096
      ],
      [
        "▁kee",
        -9.748983676784704
      ],
      [
        "▁Kana",
        -9.749517385826934
      ],
      [
        "▁té",
        -9.752967541009987
      ],
      [
        "▁njàng",
        -9.757293872657758
      ],
      [
        "▁ñam",
        -9.758669431669713
      ],
      [
        "▁pée",
        -9.76547041798717
      ],
      [
        "▁guddee",
        -9.766217600670592
      ],
      [
        "aana",
        -9.76872199777386
      ],
      [
        "tal",
        -9.775240496670978
      ],
      [
        "▁xe",
        -9.776330285773422
      ],
      [
        "▁Ka",
        -9.779303038500595
      ],
      [
        "ka",
        -9.779464529618195
      ],
      [
        "ok",
        -9.780878226761882
      ],
      [
        "▁soxnaa",
        -9.789737324632531
      ],
      [
        "▁Wute",
        -9.790709002522917
      ],
      [
        "▁taa",
        -9.791042200984224
      ],
      [
        "▁lem",
        -9.79267019821998
      ],
      [
        "▁191",
        -9.798401205964053
      ],
      [
        "tin",
        -9.800454460891704
      ],
      [
        "jàmbaar",
        -9.802295854102914
      ],
      [
        "ra",
        -9.803689998638522
      ],
      [
        "▁Amu",
        -9.807102824644854
      ],
      [
        "▁ndig",
        -9.808667237301304
      ],
      [
        "kook",
        -9.817851610585214
      ],
      [
        "rale",
        -9.821276578621259
      ],
      [
        "▁E",
        -9.829141899466123
      ],
      [
        "▁tegoo",
        -9.832498009356826
      ],
      [
        "ete",
        -9.83670086565763
      ],
      [
        "lay",
        -9.838489199104718
      ],
      [
        "mag",
        -9.841271327471304
      ],
      [
        "us",
        -9.842358626157633
      ],
      [
        "▁tàkku",
        -9.850484701788552
      ],
      [
        "kaa",
        -9.852078129834583
      ],
      [
        "àdd",
        -9.853392331348157
      ],
      [
        "▁tab",
        -9.853606642988641
      ],
      [
        "▁doyu",
        -9.857807627569908
      ],
      [
        "▁wuy",
        -9.85879546393344
      ],
      [
        "ersi",
        -9.860068989834105
      ],
      [
        "▁bindoo",
        -9.863699401812605
      ],
      [
        "gaar",
        -9.864884192283325
      ],
      [
        "▁juróom-ñ",
        -9.865609602380765
      ],
      [
        "ekki",
        -9.867605438309818
      ],
      [
        "oŋŋ",
        -9.869005924236872
      ],
      [
        "laa",
        -9.869534173235365
      ],
      [
        "▁Ye",
        -9.871105077628
      ],
      [
        "gg",
        -9.875836449742268
      ],
      [
        "ara",
        -9.883565965100287
      ],
      [
        "▁jëli",
        -9.893125917674222
      ],
      [
        "laat",
        -9.89494875078845
      ],
      [
        "-réew",
        -9.895752819953131
      ],
      [
        "▁lë",
        -9.896942509279896
      ],
      [
        "▁wii",
        -9.899441189921873
      ],
      [
        "àpp",
        -9.899485594714962
      ],
      [
        "taraa",
        -9.899685505716647
      ],
      [
        "▁Abo",
        -9.90105106992748
      ],
      [
        "uwaa",
        -9.904246277994254
      ],
      [
        "▁nëb",
        -9.905230069263155
      ],
      [
        "▁gas",
        -9.910641942052823
      ],
      [
        "▁ind",
        -9.912173276090456
      ],
      [
        "uur",
        -9.914572545220627
      ],
      [
        "ant",
        -9.919980570486574
      ],
      [
        "▁dë",
        -9.924829264571414
      ],
      [
        "gal",
        -9.926042645909378
      ],
      [
        "▁màgg",
        -9.926125903538816
      ],
      [
        "laam",
        -9.926903454611313
      ],
      [
        "▁yàcc",
        -9.927543252109274
      ],
      [
        "roo",
        -9.928953664616534
      ],
      [
        "▁De",
        -9.930839358411637
      ],
      [
        "▁sab",
        -9.932234997762224
      ],
      [
        "▁kar",
        -9.933869550819058
      ],
      [
        "kàlla",
        -9.935389559536981
      ],
      [
        "-ra",
        -9.940744313687844
      ],
      [
        "njal",
        -9.945827987506
      ],
      [
        "▁yii",
        -9.946770698977952
      ],
      [
        "▁jàngale",
        -9.946856497225442
      ],
      [
        "▁cat",
        -9.953907683576583
      ],
      [
        "ootul",
        -9.95439843902728
      ],
      [
        "▁Juróom",
        -9.955167026957422
      ],
      [
        "jàngoro",
        -9.956101458226122
      ],
      [
        "féex",
        -9.957376607128465
      ],
      [
        "▁daawul",
        -9.957923589994138
      ],
      [
        "ali",
        -9.961056136984253
      ],
      [
        "I",
        -9.96500294281702
      ],
      [
        "▁fë",
        -9.971092685645047
      ],
      [
        "▁Gu",
        -9.973007803003044
      ],
      [
        "xóot",
        -9.975077913856072
      ],
      [
        "yi",
        -9.97594574265464
      ],
      [
        "▁juróom-ň",
        -9.97598976938577
      ],
      [
        "▁Ng",
        -9.977112272646295
      ],
      [
        "▁teqale",
        -9.977994908868752
      ],
      [
        "▁teer",
        -9.980484597537952
      ],
      [
        "sam",
        -9.984140086906828
      ],
      [
        "▁Aw",
        -9.98557483195659
      ],
      [
        "ur",
        -9.985721968101526
      ],
      [
        "▁yóbba",
        -9.989768569875826
      ],
      [
        "aq",
        -9.993486407704365
      ],
      [
        "du",
        -9.993622443298358
      ],
      [
        "▁juróom",
        -9.997664663867987
      ],
      [
        "▁dana",
        -9.998209926876134
      ],
      [
        "▁bokkoo",
        -9.999236610237816
      ],
      [
        "▁dugge",
        -10.000964477859863
      ],
      [
        "benn",
        -10.001209691715415
      ],
      [
        "reŋ",
        -10.002141587093112
      ],
      [
        "ng",
        -10.003297647108894
      ],
      [
        "eel",
        -10.005886251943071
      ],
      [
        "▁jóg",
        -10.007066642944634
      ],
      [
        "ddi",
        -10.008039562529422
      ],
      [
        "x.",
        -10.009174491370485
      ],
      [
        "ngo",
        -10.010228950764773
      ],
      [
        "ëddu",
        -10.014089966489276
      ],
      [
        "naan",
        -10.0160176774455
      ],
      [
        "téen",
        -10.01603468552377
      ],
      [
        "bée",
        -10.018792863566034
      ],
      [
        "▁ŋ",
        -10.0189910811658
      ],
      [
        "réew",
        -10.020334244280807
      ],
      [
        "▁ngone",
        -10.020885664132457
      ],
      [
        "oñ",
        -10.021538815978744
      ],
      [
        "▁nes-nesi",
        -10.023040764764456
      ],
      [
        "óox",
        -10.02319044054903
      ],
      [
        "mi",
        -10.028427817153462
      ],
      [
        "-f",
        -10.031001522219304
      ],
      [
        "▁saaf",
        -10.036260158314619
      ],
      [
        "▁kókkal",
        -10.036904523942443
      ],
      [
        "jum",
        -10.038634925559892
      ],
      [
        "▁yée",
        -10.039653618696951
      ],
      [
        "▁Bo",
        -10.040252115422096
      ],
      [
        "sama",
        -10.040850827401549
      ],
      [
        "▁ñoom.",
        -10.041634509848777
      ],
      [
        "abax",
        -10.043191900627216
      ],
      [
        "▁Sam",
        -10.046589872578267
      ],
      [
        "he",
        -10.046665172674357
      ],
      [
        "eexul",
        -10.048836708609201
      ],
      [
        "wii",
        -10.050654116471382
      ],
      [
        "▁ndeysaan",
        -10.051012218032998
      ],
      [
        "▁Laaj",
        -10.052915164526263
      ],
      [
        "▁dalu",
        -10.053188517428428
      ],
      [
        "▁sañu",
        -10.054256628043845
      ],
      [
        "▁tuut",
        -10.054267545691875
      ],
      [
        "ca",
        -10.054675808131895
      ],
      [
        "▁xë",
        -10.058006129048833
      ],
      [
        "▁tam",
        -10.059528188377563
      ],
      [
        "▁daje",
        -10.06045178877233
      ],
      [
        "▁xott",
        -10.06392622106065
      ],
      [
        "omb",
        -10.06412427370839
      ],
      [
        "▁jooj",
        -10.067132169318809
      ],
      [
        "▁tàbb",
        -10.068637194086715
      ],
      [
        "ewuma",
        -10.068670876113213
      ],
      [
        "àng",
        -10.070164243453608
      ],
      [
        "ësu",
        -10.07212559058772
      ],
      [
        "▁rëb",
        -10.074734406857289
      ],
      [
        "▁yomb",
        -10.075433278173586
      ],
      [
        "▁xun",
        -10.078447664460887
      ],
      [
        "ili",
        -10.078519775751724
      ],
      [
        "▁Fo",
        -10.078934039782984
      ],
      [
        "▁fen",
        -10.07914622597421
      ],
      [
        "bégte",
        -10.083581411677697
      ],
      [
        "▁xoo",
        -10.083747692637832
      ],
      [
        "▁À",
        -10.084248747269367
      ],
      [
        "▁Nguu",
        -10.084344928078822
      ],
      [
        "'",
        -10.084573790771588
      ],
      [
        "▁sàq",
        -10.085209115925608
      ],
      [
        "▁O",
        -10.085828839520635
      ],
      [
        "àttalikuwu",
        -10.086128987614218
      ],
      [
        "bembe",
        -10.086535459640285
      ],
      [
        "▁firnde",
        -10.086869124752507
      ],
      [
        "4",
        -10.08697413749658
      ],
      [
        "oxor",
        -10.08697869413885
      ],
      [
        "taawun",
        -10.087052492870454
      ],
      [
        "▁Yàkkamtiwuñu",
        -10.087057032006832
      ],
      [
        "▁Monrowiyaa",
        -10.087057032006834
      ],
      [
        "▁Ësen",
        -10.087057032007237
      ],
      [
        "▁ràŋŋatik",
        -10.087057032007856
      ],
      [
        "▁pàpaaya",
        -10.087057032010357
      ],
      [
        "▁Kótónu",
        -10.087057032042331
      ],
      [
        "▁pët-pëti",
        -10.087057032046747
      ],
      [
        "▁jóolóoli",
        -10.087057032093702
      ],
      [
        "▁Ógurude",
        -10.087057032102564
      ],
      [
        "▁Ódubraa",
        -10.087057032126005
      ],
      [
        "▁wër-ndomb",
        -10.087057032164783
      ],
      [
        "▁195",
        -10.087057032256931
      ],
      [
        "▁takkarnaase",
        -10.087057032277855
      ],
      [
        "ëppaa-lëpp",
        -10.087057032417086
      ],
      [
        "▁Voyage",
        -10.08705703307864
      ],
      [
        "▁soree-sori",
        -10.087057035172133
      ],
      [
        "▁armiňoŋ",
        -10.087057035829087
      ],
      [
        "▁berkelle",
        -10.087057035936182
      ],
      [
        "▁biiri-taññ",
        -10.087057037202444
      ],
      [
        "▁Demeraraa",
        -10.087057038782588
      ],
      [
        "▁ótó",
        -10.087057041965647
      ],
      [
        "kànkarla",
        -10.087057043879964
      ],
      [
        "▁Dispañseer",
        -10.087057046005246
      ],
      [
        "▁1928",
        -10.087057048074776
      ],
      [
        "▁kerewol",
        -10.08705705135617
      ],
      [
        "▁Ogilwi",
        -10.087057053264063
      ],
      [
        "▁alaateret",
        -10.087057063056802
      ],
      [
        "awanpoor",
        -10.087057066753898
      ],
      [
        "▁yëngu-yëngu",
        -10.08705707279654
      ],
      [
        "▁BBC",
        -10.087057073669603
      ],
      [
        "▁faagaagal",
        -10.087057116486381
      ],
      [
        "▁pentuur",
        -10.087057127212958
      ],
      [
        "▁gàngune",
        -10.087057149240822
      ],
      [
        "▁faraňse",
        -10.087057162992835
      ],
      [
        "▁walbatiku",
        -10.087057178100167
      ],
      [
        "▁sarwiis",
        -10.087057212679987
      ],
      [
        "▁tombu-",
        -10.08705724003157
      ],
      [
        "▁Konaakiri",
        -10.087057307132767
      ],
      [
        "▁Jonson",
        -10.08705740407418
      ],
      [
        "▁bànqaas",
        -10.087057415437435
      ],
      [
        "▁rewle",
        -10.087057577066389
      ],
      [
        "▁pàttalik",
        -10.08705758982417
      ],
      [
        "▁Àbbaa",
        -10.087057594571261
      ],
      [
        "▁Duwaalaa",
        -10.087057596987565
      ],
      [
        "▁jàmbat",
        -10.087057643051386
      ],
      [
        "▁rangooñ",
        -10.087057705638285
      ],
      [
        "jonni-Yàlla-tey",
        -10.087057763390748
      ],
      [
        "▁pijin",
        -10.087058073138525
      ],
      [
        "▁jànkoontee",
        -10.087058105971002
      ],
      [
        "▁laaxira",
        -10.087058180442122
      ],
      [
        "▁Diggante",
        -10.087058202880828
      ],
      [
        "▁Liggéey",
        -10.08705835466547
      ],
      [
        "▁dëkkoo-dëkk",
        -10.087058379100098
      ],
      [
        "tëñëx",
        -10.087058382865619
      ],
      [
        "▁mbañeel",
        -10.087058421842954
      ],
      [
        "▁kompale",
        -10.087058614358353
      ],
      [
        "▁Gént",
        -10.087059343672964
      ],
      [
        "▁takkandeer",
        -10.08705964738499
      ],
      [
        "▁jàmbure",
        -10.0870608424487
      ],
      [
        "▁almet",
        -10.087060968850711
      ],
      [
        "▁Eend",
        -10.087061037127617
      ],
      [
        "▁xiibon",
        -10.08706216601846
      ],
      [
        "butéel",
        -10.0870623605276
      ],
      [
        "▁Londar",
        -10.087062610801878
      ],
      [
        "▁Téere",
        -10.08706349266745
      ],
      [
        "▁doomu-ndey",
        -10.087063619946468
      ],
      [
        "▁poson",
        -10.087063642863365
      ],
      [
        "▁tuumaal",
        -10.087063730241047
      ],
      [
        "▁réccu",
        -10.087064008723642
      ],
      [
        "▁xàjj",
        -10.087064501663031
      ],
      [
        "▁Saxaraa",
        -10.087065385388685
      ],
      [
        "▁mbëggeel",
        -10.087066953566643
      ],
      [
        "▁caraxam",
        -10.087067134219035
      ],
      [
        "▁xorom",
        -10.087067440420263
      ],
      [
        "▁lottal",
        -10.08706782937868
      ],
      [
        "▁njàmburam",
        -10.087068838173355
      ],
      [
        "▁jaxase",
        -10.087076489485959
      ],
      [
        "▁picc",
        -10.087078336454752
      ],
      [
        "▁tiitaange",
        -10.087079787977121
      ],
      [
        "▁Gesam",
        -10.087080385984452
      ],
      [
        "▁fàŋŋ",
        -10.08708341417603
      ],
      [
        "▁geestu",
        -10.087087190559428
      ],
      [
        "▁teerusi",
        -10.087087196862592
      ],
      [
        "▁siraas",
        -10.087093043210347
      ],
      [
        "▁tuwaal",
        -10.087094047680262
      ],
      [
        "▁garabu-tiir",
        -10.087094202878637
      ],
      [
        "tërëf",
        -10.087094885237217
      ],
      [
        "▁njaay-àll",
        -10.087106670925305
      ],
      [
        "▁naawantu",
        -10.087111359959156
      ],
      [
        "▁junniy",
        -10.087113293371237
      ],
      [
        "▁medaay",
        -10.087123529883904
      ],
      [
        "▁1948",
        -10.087132866008984
      ],
      [
        "▁Camero",
        -10.087138258179563
      ],
      [
        "▁Mariyaa",
        -10.087139121500195
      ],
      [
        "▁colin",
        -10.0871441981389
      ],
      [
        "▁keppaar",
        -10.087151021207337
      ],
      [
        "▁ganesee",
        -10.087153557440274
      ],
      [
        "▁soxla",
        -10.087155612339375
      ],
      [
        "▁dénk",
        -10.08715826039583
      ],
      [
        "▁cafko",
        -10.087162687562554
      ],
      [
        "▁toxu",
        -10.087165678224057
      ],
      [
        "▁àntuwul",
        -10.08718337230746
      ],
      [
        "▁agsee",
        -10.087184437285496
      ],
      [
        "▁Seetl",
        -10.087186816143918
      ],
      [
        "▁Ogaar",
        -10.08719589696508
      ],
      [
        "▁reewan",
        -10.087197526231444
      ],
      [
        "▁jaaxle",
        -10.087216138602058
      ],
      [
        "▁póliti",
        -10.087224201285062
      ],
      [
        "▁woyantu",
        -10.0872318306766
      ],
      [
        "àndarma",
        -10.087232126074513
      ],
      [
        "▁golf",
        -10.087232261788234
      ],
      [
        "▁xew-xew",
        -10.087242967719176
      ],
      [
        "▁néegu-ban",
        -10.087249057329132
      ],
      [
        "▁ñaawtéef",
        -10.087254789861692
      ],
      [
        "▁wujje",
        -10.087263876883343
      ],
      [
        "▁karwaat",
        -10.087274306504444
      ],
      [
        "▁Coono",
        -10.087283688179145
      ],
      [
        "▁Yàggu",
        -10.087285985143472
      ],
      [
        "▁musiba",
        -10.087307836100866
      ],
      [
        "▁aadawoo",
        -10.08734020009237
      ],
      [
        "▁noyyee",
        -10.087362581638342
      ],
      [
        "▁dëmm",
        -10.087382265781535
      ],
      [
        "▁jikko",
        -10.087388691188401
      ],
      [
        "▁déeyante",
        -10.087406373164148
      ],
      [
        "▁xocc",
        -10.087411925516228
      ],
      [
        "▁Yaali",
        -10.087412421191036
      ],
      [
        "▁ñibbi",
        -10.087426530155259
      ],
      [
        "▁ruuj",
        -10.087458460482399
      ],
      [
        "ston",
        -10.087512905053615
      ],
      [
        "éej",
        -10.08752399882244
      ],
      [
        "▁xó",
        -10.087600250416203
      ],
      [
        "▁dajaloo",
        -10.087603332057043
      ],
      [
        "▁ndée",
        -10.087679164887815
      ],
      [
        "▁njëgg",
        -10.087731005514996
      ],
      [
        "▁Mbembe",
        -10.087738891044172
      ],
      [
        "▁butit",
        -10.087762131787333
      ],
      [
        "▁xumb",
        -10.087780800059921
      ],
      [
        "▁Gëm",
        -10.087782269334133
      ],
      [
        "▁wisit",
        -10.087865153495997
      ],
      [
        "▁xeej",
        -10.087891701218455
      ],
      [
        "▁xultu",
        -10.087906714719043
      ],
      [
        "yaa",
        -10.087952184729833
      ],
      [
        "ti-maam",
        -10.08799058299579
      ],
      [
        "▁Jàpp",
        -10.087998287205533
      ],
      [
        "▁xërëmkat",
        -10.0880399237551
      ],
      [
        "▁siso",
        -10.088067236818082
      ],
      [
        "▁mbaxan",
        -10.08812305489854
      ],
      [
        "▁waaso",
        -10.088180938304818
      ],
      [
        "▁yendoo",
        -10.088181745433953
      ],
      [
        "-Ma",
        -10.088225582043268
      ],
      [
        "▁naxantee",
        -10.088264900803166
      ],
      [
        "▁digaalee",
        -10.088284076744735
      ],
      [
        "▁ñefe",
        -10.088319162151397
      ],
      [
        "▁ràgg",
        -10.08832463885647
      ],
      [
        "▁tigi",
        -10.08833093740909
      ],
      [
        "undu",
        -10.088393904702984
      ],
      [
        "▁Babungoo",
        -10.088396331630044
      ],
      [
        "▁léj",
        -10.088415956669136
      ],
      [
        "▁léeg",
        -10.08842573861445
      ],
      [
        "▁Àll",
        -10.088460137421455
      ],
      [
        "▁Ànd",
        -10.088467441480269
      ],
      [
        "▁ngunu",
        -10.088522124433391
      ],
      [
        "▁sànq",
        -10.088526933827474
      ],
      [
        "▁bëccëg",
        -10.088533419819075
      ],
      [
        "▁àndandoo",
        -10.088570528477522
      ],
      [
        "bootaay",
        -10.08858799265159
      ],
      [
        "▁jàq",
        -10.088611802177331
      ],
      [
        "▁liise",
        -10.088637163882938
      ],
      [
        "▁limaale",
        -10.08867039039951
      ],
      [
        "▁njatt",
        -10.088851673768323
      ],
      [
        "▁coyy",
        -10.089027698580601
      ],
      [
        "▁yëg-yëg",
        -10.089048315917417
      ],
      [
        "▁yewwi",
        -10.089100017826683
      ],
      [
        "▁Ko",
        -10.089170355165388
      ],
      [
        "▁rab",
        -10.08917562344525
      ],
      [
        "▁tegtal",
        -10.089233719113949
      ],
      [
        "▁mbàjj",
        -10.089308167588781
      ],
      [
        "▁fajukaay",
        -10.089315469459466
      ],
      [
        "'s",
        -10.089546278933039
      ],
      [
        "▁jafal",
        -10.089666680429868
      ],
      [
        "▁màggetloo",
        -10.089940678573763
      ],
      [
        "ërëm",
        -10.090013802858667
      ],
      [
        "▁Baali",
        -10.090058189199675
      ],
      [
        "▁jànkonteel",
        -10.090221480186887
      ],
      [
        "▁xeeñ",
        -10.090224511129486
      ],
      [
        "▁coll",
        -10.090375865886772
      ],
      [
        "▁Suwee",
        -10.090502419743995
      ],
      [
        "▁komfi",
        -10.090607438146074
      ],
      [
        "ginaar",
        -10.090660341931995
      ],
      [
        "▁fentaakon",
        -10.09086229940895
      ],
      [
        "▁rakk",
        -10.090884186453412
      ],
      [
        "▁sëqat",
        -10.090963934102376
      ],
      [
        "▁Jur",
        -10.090998944834881
      ],
      [
        "▁ñall",
        -10.091356791333249
      ],
      [
        "▁maandu",
        -10.091364969566273
      ],
      [
        "▁sàqam",
        -10.091384411818266
      ],
      [
        "▁Nguur",
        -10.091414339429848
      ],
      [
        "ddina",
        -10.091479038234239
      ],
      [
        "▁beru",
        -10.091626288556915
      ],
      [
        "▁Tàm",
        -10.091635694644525
      ],
      [
        "▁nemm",
        -10.091675747995591
      ],
      [
        "▁karne",
        -10.091891231428711
      ],
      [
        "-gal",
        -10.0919186201377
      ],
      [
        "▁gënaloon",
        -10.092015037501831
      ],
      [
        "▁safaan",
        -10.092144497453182
      ],
      [
        "▁reelu",
        -10.092225323187945
      ],
      [
        "unóor",
        -10.092273678760366
      ],
      [
        "▁faatoo",
        -10.092315594388
      ],
      [
        "▁fufu",
        -10.092432375172251
      ],
      [
        "▁Ngon",
        -10.092572976309144
      ],
      [
        "ilifa",
        -10.092613506098218
      ],
      [
        "▁xaritoo",
        -10.09262688959373
      ],
      [
        "wel",
        -10.092684019571442
      ],
      [
        "▁tàqal",
        -10.092840715454958
      ],
      [
        "ëfinam",
        -10.092890954738563
      ],
      [
        "itis",
        -10.092927555928336
      ],
      [
        "▁koste",
        -10.093021444503911
      ],
      [
        "▁yombul",
        -10.093174779226448
      ],
      [
        "▁Bokk",
        -10.0934344823437
      ],
      [
        "▁Dogal",
        -10.093526001998532
      ],
      [
        "▁fajar",
        -10.093706149973098
      ],
      [
        "▁ňax",
        -10.093718915950678
      ],
      [
        "▁waxaale",
        -10.093753023121332
      ],
      [
        "▁taxawaay",
        -10.093805809655665
      ],
      [
        "▁Bor",
        -10.094177795439656
      ],
      [
        "▁bóoy",
        -10.094553692652685
      ],
      [
        "àkkaan",
        -10.094667862787798
      ],
      [
        "▁bàq",
        -10.094671000194758
      ],
      [
        "bukun",
        -10.094742439657526
      ],
      [
        "▁daraja",
        -10.09481142516854
      ],
      [
        "woŋ",
        -10.09514820521143
      ],
      [
        "▁tuuru",
        -10.09516954759426
      ],
      [
        "▁keppukaay",
        -10.095488883685828
      ],
      [
        "▁dof",
        -10.0955490906148
      ],
      [
        "▁féexlu",
        -10.09564304087883
      ],
      [
        "▁tiital",
        -10.096003341608558
      ],
      [
        "ettali",
        -10.0965197185137
      ],
      [
        "▁esk",
        -10.09662340669747
      ],
      [
        "àq",
        -10.096874415716217
      ],
      [
        "▁sédd",
        -10.096899481910539
      ],
      [
        "to",
        -10.097035548508664
      ],
      [
        "▁Foor",
        -10.097060685009572
      ],
      [
        "▁dogal",
        -10.097350912117454
      ],
      [
        "▁ganale",
        -10.097360206384453
      ],
      [
        "▁kili",
        -10.097676740066479
      ],
      [
        "▁puur",
        -10.097684769871705
      ],
      [
        "▁këf",
        -10.097968350677183
      ],
      [
        "▁déeg",
        -10.098031238159917
      ],
      [
        "▁lell",
        -10.098232314459779
      ],
      [
        "poto",
        -10.098641670047801
      ],
      [
        "▁guus",
        -10.098810784342113
      ],
      [
        "▁Jaay",
        -10.09887402791034
      ],
      [
        "▁fàn",
        -10.099057545684918
      ],
      [
        "saŋ",
        -10.099180257487166
      ],
      [
        "▁wetam",
        -10.099560733966825
      ],
      [
        "▁sànga",
        -10.099712894937085
      ],
      [
        "▁ñé",
        -10.09978637598025
      ],
      [
        "▁tàngaayam",
        -10.10078618109848
      ],
      [
        "▁wéeru",
        -10.100965836732287
      ],
      [
        "▁askanam",
        -10.101174884852949
      ],
      [
        "▁tappal",
        -10.101249131862241
      ],
      [
        "▁bàyyeeku",
        -10.101385413781424
      ],
      [
        "▁Bamako",
        -10.101416609337655
      ],
      [
        "▁bidd",
        -10.101485939135841
      ],
      [
        "▁Miin",
        -10.10172660351921
      ],
      [
        "▁summi",
        -10.101976525184677
      ],
      [
        "▁yombut",
        -10.102331007732285
      ],
      [
        "▁feeň",
        -10.102748223128343
      ],
      [
        "▁palanteeram",
        -10.102909624585312
      ],
      [
        "umanda",
        -10.103230522753057
      ],
      [
        "▁waaw",
        -10.103445254744022
      ],
      [
        "▁Xaj",
        -10.103909473595813
      ],
      [
        "▁fer",
        -10.104120579600773
      ],
      [
        "▁Gan",
        -10.104543388956092
      ],
      [
        "iiru",
        -10.105013529422182
      ],
      [
        "▁juumul",
        -10.105582540465157
      ],
      [
        "▁ëf",
        -10.10562756575767
      ],
      [
        "▁foog",
        -10.10568231643773
      ],
      [
        "▁yilifoon",
        -10.106162528901255
      ],
      [
        "-L",
        -10.106488229678742
      ],
      [
        "▁fattu",
        -10.106619967985123
      ],
      [
        "rabi-",
        -10.107234788799135
      ],
      [
        "▁yell",
        -10.107316404208845
      ],
      [
        "ëf",
        -10.107416495445317
      ],
      [
        "▁dab",
        -10.10752560701096
      ],
      [
        "àjjan",
        -10.107812739918582
      ],
      [
        "bure",
        -10.107821206883132
      ],
      [
        "▁opeeree",
        -10.107918815932782
      ],
      [
        "▁géttu",
        -10.108015241152767
      ],
      [
        "▁tor",
        -10.10814089672891
      ],
      [
        "▁dundale",
        -10.108344071587085
      ],
      [
        "▁Dunu",
        -10.108657628331432
      ],
      [
        "▁Njo",
        -10.10884292061437
      ],
      [
        "▁Pom",
        -10.10884836607693
      ],
      [
        "▁teggin",
        -10.108873399993586
      ],
      [
        "▁El",
        -10.109175593248711
      ],
      [
        "-pas",
        -10.10948740904028
      ],
      [
        "▁ubbee",
        -10.110433623712515
      ],
      [
        "▁noonam",
        -10.110596680294755
      ],
      [
        "▁tàbbi",
        -10.110669836396042
      ],
      [
        "ortale",
        -10.110800654516543
      ],
      [
        "rtal",
        -10.113445825293695
      ],
      [
        "▁dawalkat",
        -10.113898916303475
      ],
      [
        "▁Dinañ",
        -10.114711867023274
      ],
      [
        "▁Cet",
        -10.115042608968295
      ],
      [
        "▁bëlu",
        -10.115987268282812
      ],
      [
        "doorte",
        -10.116194425577493
      ],
      [
        "▁Pen",
        -10.116550001514012
      ],
      [
        "▁xotti",
        -10.116767739370069
      ],
      [
        "▁Kab",
        -10.117335174927161
      ],
      [
        "eful",
        -10.118123961228347
      ],
      [
        "▁mënat",
        -10.118478368898405
      ],
      [
        "▁gàddu",
        -10.118515228846746
      ],
      [
        "or",
        -10.1185288152857
      ],
      [
        "▁Masur",
        -10.119292397934187
      ],
      [
        "▁desoon",
        -10.119413016193135
      ],
      [
        "▁ňoo",
        -10.119837236524086
      ],
      [
        "ëcc",
        -10.120376406955163
      ],
      [
        "▁bañoon",
        -10.121073282406691
      ],
      [
        "▁caq",
        -10.122061594863586
      ],
      [
        "▁Dóo",
        -10.122333742943683
      ],
      [
        "buur",
        -10.122642915364295
      ],
      [
        "▁bàyyima",
        -10.12294855714338
      ],
      [
        "▁laaf",
        -10.124051770502525
      ],
      [
        "atle",
        -10.124294765988408
      ],
      [
        "waay",
        -10.125894163673433
      ],
      [
        "gante",
        -10.126485559642054
      ],
      [
        "▁gëmm",
        -10.128590082805562
      ],
      [
        "▁faatu",
        -10.129018000391893
      ],
      [
        "is",
        -10.129253434351481
      ],
      [
        "▁booboo",
        -10.129745909443125
      ],
      [
        "▁dikkal",
        -10.13078197626767
      ],
      [
        "▁jubb",
        -10.130870742449673
      ],
      [
        "ndeel",
        -10.13117919735813
      ],
      [
        "▁jubale",
        -10.131411358641142
      ],
      [
        "▁safatu",
        -10.131666715603112
      ],
      [
        "nqam",
        -10.132262164537595
      ],
      [
        "▁neexoon",
        -10.132714342839689
      ],
      [
        "▁taaxu",
        -10.132826295723998
      ],
      [
        "▁Co",
        -10.132936803767441
      ],
      [
        "▁séy",
        -10.132994025476586
      ],
      [
        "otoom",
        -10.13379660872969
      ],
      [
        "▁në",
        -10.134601467017886
      ],
      [
        "▁kaas",
        -10.134733745646471
      ],
      [
        "laak",
        -10.13516994099796
      ],
      [
        "▁lunk",
        -10.136790210991492
      ],
      [
        "▁maaj",
        -10.136875698236498
      ],
      [
        "▁àggee",
        -10.137061721588003
      ],
      [
        "▁ginnaa",
        -10.137514830043791
      ],
      [
        "▁xasa",
        -10.137529964619226
      ],
      [
        "ewaan",
        -10.13758558352377
      ],
      [
        "▁bépp",
        -10.138013922842669
      ],
      [
        "▁tànkam",
        -10.13865400222743
      ],
      [
        "▁kókkali",
        -10.139928093559236
      ],
      [
        "▁Bar",
        -10.140278322029316
      ],
      [
        "jj",
        -10.141165147804308
      ],
      [
        "▁pey",
        -10.14301419512338
      ],
      [
        "▁kersa",
        -10.144722667123954
      ],
      [
        "▁ñooñu",
        -10.144763251821974
      ],
      [
        "▁nóox",
        -10.145655873237516
      ],
      [
        "▁naax",
        -10.146132176626077
      ],
      [
        "▁fuuy",
        -10.147467861895823
      ],
      [
        "kasaw",
        -10.148312417129308
      ],
      [
        "▁wallu",
        -10.148950613296185
      ],
      [
        "oor",
        -10.15008713591814
      ],
      [
        "▁yoo",
        -10.150424573140459
      ],
      [
        "▁jib",
        -10.15320484078841
      ],
      [
        "▁néegu-ňax",
        -10.153428188182351
      ],
      [
        "▁dam",
        -10.153549451523176
      ],
      [
        "▁xoolin",
        -10.154194123107462
      ],
      [
        "▁nes-nesil",
        -10.155320170168409
      ],
      [
        "▁jal",
        -10.156343373528337
      ],
      [
        "▁koň",
        -10.15638355266961
      ],
      [
        "jom",
        -10.157271905189521
      ],
      [
        "▁nob",
        -10.157446696695011
      ],
      [
        "▁àttan",
        -10.157935004132256
      ],
      [
        "▁abal",
        -10.158724999792428
      ],
      [
        "fit",
        -10.159189911033927
      ],
      [
        "▁wo",
        -10.159944192023799
      ],
      [
        "ram",
        -10.160608263753764
      ],
      [
        "▁liggéeyam",
        -10.161220091969886
      ],
      [
        "juumte",
        -10.161325498434447
      ],
      [
        "gin",
        -10.161695947274001
      ],
      [
        "ddu",
        -10.161841957195165
      ],
      [
        "▁mbiram",
        -10.163382793469243
      ],
      [
        "▁nirool",
        -10.16380620812936
      ],
      [
        "▁Ek",
        -10.167240649364553
      ],
      [
        "óot",
        -10.168719439232872
      ],
      [
        "den",
        -10.16928866161069
      ],
      [
        "▁Si",
        -10.169526405070004
      ],
      [
        "▁jotu",
        -10.170372719559591
      ],
      [
        "▁sàppi",
        -10.170380087072441
      ],
      [
        "ama",
        -10.171366741711772
      ],
      [
        "▁Ban",
        -10.171368796609965
      ],
      [
        "▁Nde",
        -10.173529493178705
      ],
      [
        "▁paj",
        -10.17412809095503
      ],
      [
        "▁liw",
        -10.174607688856627
      ],
      [
        "je",
        -10.174921237431143
      ],
      [
        "▁feyu",
        -10.175210753264075
      ],
      [
        "▁jub",
        -10.175484648571834
      ],
      [
        "▁Foof",
        -10.175499030060129
      ],
      [
        "▁tag",
        -10.176285397232855
      ],
      [
        "óor-",
        -10.176647834169849
      ],
      [
        "▁bëm",
        -10.177664193834872
      ],
      [
        "▁mënal",
        -10.178454344281285
      ],
      [
        "aal",
        -10.179084692152118
      ],
      [
        "▁jàmbaar",
        -10.179137291401393
      ],
      [
        "▁ñag",
        -10.181558737464627
      ],
      [
        "▁réewam",
        -10.18343748730236
      ],
      [
        "▁waxtaane",
        -10.18413691866451
      ],
      [
        "hi",
        -10.185981975902482
      ],
      [
        "▁féexal",
        -10.186032285131766
      ],
      [
        "njàpp",
        -10.18782624630749
      ],
      [
        "▁saxaar",
        -10.188149849910742
      ],
      [
        "▁Se",
        -10.191301049162421
      ],
      [
        "uus",
        -10.191588733056104
      ],
      [
        "eykat",
        -10.192878671478931
      ],
      [
        "▁ub",
        -10.192998474587611
      ],
      [
        "▁Tama",
        -10.193240810763482
      ],
      [
        "aaki",
        -10.195152463832965
      ],
      [
        "▁Mil",
        -10.195828391552338
      ],
      [
        "▁Dis",
        -10.197142871424296
      ],
      [
        "▁liggéeykat",
        -10.197438365757629
      ],
      [
        "▁maas",
        -10.199009475201596
      ],
      [
        "kuur",
        -10.199211254484563
      ],
      [
        "bax",
        -10.203261145356072
      ],
      [
        "gël",
        -10.203289136066681
      ],
      [
        "isoŋ",
        -10.203963023133673
      ],
      [
        "▁mbool",
        -10.206205521114132
      ],
      [
        "alaat",
        -10.207275787337299
      ],
      [
        "▁pala",
        -10.207670586214832
      ],
      [
        "rmeel",
        -10.208091717609456
      ],
      [
        "waar",
        -10.208494082368114
      ],
      [
        "▁sor",
        -10.210122097986437
      ],
      [
        "▁juróom-ňe",
        -10.212656074966524
      ],
      [
        "éew",
        -10.216167293180577
      ],
      [
        "▁ngonee",
        -10.216237537190464
      ],
      [
        "▁wëra",
        -10.217970677108719
      ],
      [
        "▁néegu",
        -10.21814107450166
      ],
      [
        "▁Koo",
        -10.219290197879761
      ],
      [
        "▁lee",
        -10.219432249340983
      ],
      [
        "▁terewu",
        -10.21977886662405
      ],
      [
        "moo",
        -10.220376504935865
      ],
      [
        "é",
        -10.221099958424416
      ],
      [
        "patam",
        -10.221290915316066
      ],
      [
        "▁muuroo",
        -10.222280819120963
      ],
      [
        "–",
        -10.222902972430745
      ],
      [
        "wó",
        -10.223620462404645
      ],
      [
        "▁be",
        -10.224594372619457
      ],
      [
        "▁jar",
        -10.225649234535043
      ],
      [
        "andu",
        -10.232138963060725
      ],
      [
        "▁bër",
        -10.23239299565936
      ],
      [
        "aare",
        -10.23315740090564
      ],
      [
        "▁defee",
        -10.234443756021173
      ],
      [
        "atoo",
        -10.235708189177446
      ],
      [
        "▁jàngoro",
        -10.237352656415506
      ],
      [
        "▁lekke",
        -10.238458328498655
      ],
      [
        "▁joxe",
        -10.239037158054025
      ],
      [
        "▁dand",
        -10.240966680885995
      ],
      [
        "▁defoon",
        -10.241306596542074
      ],
      [
        "bidaa",
        -10.242152829357359
      ],
      [
        "óoy",
        -10.242226430232467
      ],
      [
        "roon",
        -10.242857059867715
      ],
      [
        "▁sag",
        -10.244829659131028
      ],
      [
        "▁fir",
        -10.244904492504174
      ],
      [
        "uji",
        -10.245119995911688
      ],
      [
        "▁xañ",
        -10.246392897523686
      ],
      [
        "▁xu",
        -10.248349466865006
      ],
      [
        "▁ëppal",
        -10.24849691915797
      ],
      [
        "itam",
        -10.249786468848828
      ],
      [
        "▁ñemee",
        -10.252099865459643
      ],
      [
        "▁puso",
        -10.252758078949308
      ],
      [
        "▁Ro",
        -10.25393625920331
      ],
      [
        "▁too",
        -10.256368348089422
      ],
      [
        "▁soriwu",
        -10.256573271285626
      ],
      [
        "mbës",
        -10.256585821982895
      ],
      [
        "waas",
        -10.257198741848294
      ],
      [
        "▁téene",
        -10.257375379882385
      ],
      [
        "▁xama",
        -10.261204192735322
      ],
      [
        "▁loxoo",
        -10.264748687818441
      ],
      [
        "▁Loo",
        -10.265759798844066
      ],
      [
        "kurti",
        -10.266817239487683
      ],
      [
        "▁defaral",
        -10.267614066909868
      ],
      [
        "▁dëkkam",
        -10.269748836381039
      ],
      [
        "tip",
        -10.271028735400328
      ],
      [
        "mboo",
        -10.27181388411574
      ],
      [
        "pora",
        -10.271837128712324
      ],
      [
        "▁No",
        -10.271999286541442
      ],
      [
        "▁fat",
        -10.272584782155256
      ],
      [
        "▁xàll",
        -10.274837667241208
      ],
      [
        "▁xalee",
        -10.275783031702554
      ],
      [
        "▁bàn",
        -10.277477837642639
      ],
      [
        "▁he",
        -10.280003304867027
      ],
      [
        "▁naaw",
        -10.280245188028479
      ],
      [
        "▁nes",
        -10.283287169870329
      ],
      [
        "aŋ",
        -10.283908972448822
      ],
      [
        "ér",
        -10.285910582745597
      ],
      [
        "-ja",
        -10.287854075761354
      ],
      [
        "erin",
        -10.290295563252219
      ],
      [
        "▁wur",
        -10.290578218550005
      ],
      [
        "▁waxin",
        -10.291059473167993
      ],
      [
        "▁do",
        -10.291979149609562
      ],
      [
        "▁fàttalik",
        -10.294274917819902
      ],
      [
        "▁jànqu",
        -10.29512031328752
      ],
      [
        "-wa",
        -10.296407347217446
      ],
      [
        "▁Joo",
        -10.2972930820812
      ],
      [
        "▁mbaar",
        -10.302410751610633
      ],
      [
        "▁Ñooñ",
        -10.303240316561006
      ],
      [
        "▁là",
        -10.30474470735697
      ],
      [
        "axande",
        -10.305038383039598
      ],
      [
        "▁Ke",
        -10.306732302004098
      ],
      [
        "aalif",
        -10.314277121157744
      ],
      [
        "ngali",
        -10.316358969907794
      ],
      [
        "bou",
        -10.318881398473808
      ],
      [
        "▁kaar",
        -10.320735515697944
      ],
      [
        "▁tasee",
        -10.326537306754096
      ],
      [
        "jort",
        -10.328687645853563
      ],
      [
        "▁pe",
        -10.329296487988987
      ],
      [
        "àññ",
        -10.331249700289705
      ],
      [
        "góor",
        -10.336962359117127
      ],
      [
        "▁ndoxu",
        -10.337315019945253
      ],
      [
        "ëkk",
        -10.338189609630964
      ],
      [
        "▁doxandéem.",
        -10.339130473148932
      ],
      [
        "▁ndon",
        -10.340174255745174
      ],
      [
        "awale",
        -10.340731858673996
      ],
      [
        "wi",
        -10.341129103556016
      ],
      [
        "ñoom",
        -10.3458912569171
      ],
      [
        "▁sangu",
        -10.346934488502121
      ],
      [
        "ott",
        -10.348510634928104
      ],
      [
        "asin",
        -10.349133118311114
      ],
      [
        "▁jig",
        -10.351953740073736
      ],
      [
        "▁Yó",
        -10.352026729024253
      ],
      [
        "gelaw",
        -10.354227229203978
      ],
      [
        "ndiŋ",
        -10.354270016750002
      ],
      [
        "▁siir",
        -10.355334180047773
      ],
      [
        "b-x",
        -10.356794282956635
      ],
      [
        "▁ñaare",
        -10.357352527084034
      ],
      [
        "kow",
        -10.35937614638545
      ],
      [
        "▁jëw",
        -10.3596256381827
      ],
      [
        "xam",
        -10.361742420957778
      ],
      [
        "▁nj",
        -10.362324431861953
      ],
      [
        "àcc-",
        -10.362343146979999
      ],
      [
        "▁Mënu",
        -10.362728259893245
      ],
      [
        "too",
        -10.363642193809522
      ],
      [
        "▁digal",
        -10.366643780563424
      ],
      [
        "may",
        -10.367572341602042
      ],
      [
        "▁Br",
        -10.368428192906233
      ],
      [
        "ulli",
        -10.369217841620886
      ],
      [
        "▁tefesu",
        -10.371829785913336
      ],
      [
        "ënn",
        -10.372132969275091
      ],
      [
        "émb",
        -10.37303859188726
      ],
      [
        "rukaayam",
        -10.373108336913829
      ],
      [
        "àngóor",
        -10.37330091074858
      ],
      [
        "▁Mi",
        -10.373981907972581
      ],
      [
        "r-",
        -10.375227590445688
      ],
      [
        "ay-",
        -10.37895406992521
      ],
      [
        "iw",
        -10.38109752723332
      ],
      [
        "▁yàqu",
        -10.384890263399274
      ],
      [
        "enke",
        -10.385388024030075
      ],
      [
        "▁teey",
        -10.392493896566577
      ],
      [
        "▁defu",
        -10.3965698452924
      ],
      [
        "kuy",
        -10.397339508926178
      ],
      [
        "▁ňaw",
        -10.398574174725661
      ],
      [
        "amaa",
        -10.399382956321212
      ],
      [
        "▁wal",
        -10.400179582053578
      ],
      [
        "▁ŋaa",
        -10.403353602476566
      ],
      [
        "uuf",
        -10.408494221533893
      ],
      [
        "▁gëna",
        -10.40955799085163
      ],
      [
        "jaay",
        -10.416333336649764
      ],
      [
        "▁Ja",
        -10.416723668690777
      ],
      [
        "eñaa",
        -10.418159781069459
      ],
      [
        "▁bala",
        -10.420340987399944
      ],
      [
        "da",
        -10.422716549921683
      ],
      [
        "▁Dan",
        -10.436392277454583
      ],
      [
        "ric",
        -10.437808100427226
      ],
      [
        "▁sé",
        -10.438696844954242
      ],
      [
        "▁Faj",
        -10.43986390923622
      ],
      [
        "ekkoo",
        -10.44179357054233
      ],
      [
        "tëx",
        -10.448017863046882
      ],
      [
        "▁yéree",
        -10.448560664893487
      ],
      [
        "etam",
        -10.454651955524149
      ],
      [
        "eeru",
        -10.455985698649453
      ],
      [
        "▁bir",
        -10.456858821549561
      ],
      [
        "9",
        -10.457606530246839
      ],
      [
        "▁fiir",
        -10.458024900039572
      ],
      [
        "anti",
        -10.459028908478365
      ],
      [
        "uri",
        -10.46054463808263
      ],
      [
        "▁yor",
        -10.463176586273166
      ],
      [
        "▁doxale",
        -10.465421406159107
      ],
      [
        "▁Lé",
        -10.467235253009234
      ],
      [
        "▁kaa",
        -10.467568419348005
      ],
      [
        "▁jan",
        -10.468715121834448
      ],
      [
        "▁laam",
        -10.470364635404156
      ],
      [
        "▁sot",
        -10.472371744856991
      ],
      [
        "umaa",
        -10.47263141909946
      ],
      [
        "▁liggéeye",
        -10.47285885220386
      ],
      [
        "iir",
        -10.481617346668052
      ],
      [
        "-sa",
        -10.48218337456613
      ],
      [
        "▁fàttewu",
        -10.48234264169559
      ],
      [
        "▁Manu",
        -10.482779124238428
      ],
      [
        "▁xamat",
        -10.485272366067397
      ],
      [
        "▁19",
        -10.485788746224506
      ],
      [
        "▁nax",
        -10.48663454244775
      ],
      [
        "oroo",
        -10.493602222304943
      ],
      [
        "▁tëw",
        -10.494782442794506
      ],
      [
        "-a-",
        -10.496562963076343
      ],
      [
        "of",
        -10.497793521951339
      ],
      [
        "nke",
        -10.500106018219755
      ],
      [
        "▁ño",
        -10.503997626583617
      ],
      [
        "▁Wut",
        -10.505951387058992
      ],
      [
        "▁àddinaa",
        -10.50628258144481
      ],
      [
        "▁yër",
        -10.507654500647996
      ],
      [
        "▁xoll",
        -10.511361445356574
      ],
      [
        "▁sà",
        -10.514198373060099
      ],
      [
        "mbali",
        -10.514289890270856
      ],
      [
        "fant",
        -10.519693312346973
      ],
      [
        "ëri",
        -10.52017572015835
      ],
      [
        "▁dale",
        -10.522095755957874
      ],
      [
        "ki",
        -10.52519272830566
      ],
      [
        "mp",
        -10.52600821429209
      ],
      [
        "▁xal",
        -10.526160852681022
      ],
      [
        "▁Doo",
        -10.528941679070252
      ],
      [
        "afe",
        -10.529212529533673
      ],
      [
        "▁Lee",
        -10.532092341462246
      ],
      [
        "de",
        -10.533007308706297
      ],
      [
        "kees",
        -10.533239943209198
      ],
      [
        "karaa",
        -10.538646514017366
      ],
      [
        "▁daag",
        -10.54324711438484
      ],
      [
        "▁jote",
        -10.54798361433922
      ],
      [
        "amal",
        -10.550004662259422
      ],
      [
        "yoon",
        -10.550256987998736
      ],
      [
        "tiir",
        -10.55102567960408
      ],
      [
        "▁fe",
        -10.554295856498625
      ],
      [
        "▁Nda",
        -10.554781047092236
      ],
      [
        "raŋ",
        -10.55493879937223
      ],
      [
        "ngi",
        -10.561237341169326
      ],
      [
        "ngor",
        -10.561554518401426
      ],
      [
        "▁yà",
        -10.563119551685004
      ],
      [
        "▁màbb",
        -10.565016054675418
      ],
      [
        "▁Ara",
        -10.565062166005195
      ],
      [
        "▁yàkk",
        -10.567625655963758
      ],
      [
        "wiy",
        -10.568067908475951
      ],
      [
        "ñetti",
        -10.56884888740733
      ],
      [
        "en",
        -10.569247448261052
      ],
      [
        "▁Gara",
        -10.56958296286134
      ],
      [
        "saň",
        -10.57435398032077
      ],
      [
        "▁Gaa",
        -10.575454218138415
      ],
      [
        "▁coo",
        -10.579672954284614
      ],
      [
        "se",
        -10.581060212966854
      ],
      [
        "xare",
        -10.583530101252192
      ],
      [
        "aak",
        -10.588876446014021
      ],
      [
        "gul",
        -10.589843798190937
      ],
      [
        "iri",
        -10.590422123774175
      ],
      [
        "▁yitte",
        -10.59450484215627
      ],
      [
        "▁ati",
        -10.594556237927048
      ],
      [
        "▁seeti",
        -10.598038070040689
      ],
      [
        "elaw",
        -10.603381626404595
      ],
      [
        "▁së",
        -10.60427690910713
      ],
      [
        "dee",
        -10.605183589229235
      ],
      [
        "▁fàttalikuwu",
        -10.608532829991479
      ],
      [
        "▁no",
        -10.609196840918178
      ],
      [
        "▁mee",
        -10.611027404644593
      ],
      [
        "ana",
        -10.612133526935013
      ],
      [
        "tr",
        -10.618286085255116
      ],
      [
        "▁Luw",
        -10.620793396636799
      ],
      [
        "tti",
        -10.622018200025853
      ],
      [
        "▁Aga",
        -10.622984374099127
      ],
      [
        "▁Màr",
        -10.62322887699063
      ],
      [
        "añ",
        -10.6233228878158
      ],
      [
        "▁ñaa",
        -10.625301470758362
      ],
      [
        "▁gëne",
        -10.630603013728466
      ],
      [
        "▁gisee",
        -10.631458727852467
      ],
      [
        "▁gaar",
        -10.63629587212955
      ],
      [
        "et",
        -10.63661691468108
      ],
      [
        "▁Tal",
        -10.637804388412592
      ],
      [
        "▁alk",
        -10.647113557326419
      ],
      [
        "maŋ",
        -10.650247539184706
      ],
      [
        "àllal",
        -10.650876170128162
      ],
      [
        "moon",
        -10.653084881931722
      ],
      [
        "gaal",
        -10.65864411211317
      ],
      [
        "bés",
        -10.660077441321715
      ],
      [
        "dd",
        -10.662407278791491
      ],
      [
        "▁Wax",
        -10.662799964402428
      ],
      [
        "▁baree",
        -10.664131087105059
      ],
      [
        "▁ndo",
        -10.66450074783907
      ],
      [
        "unu",
        -10.666153306937023
      ],
      [
        "▁pat",
        -10.670666767968989
      ],
      [
        "▁ye",
        -10.672022269007083
      ],
      [
        "mal",
        -10.672060872426721
      ],
      [
        "▁wan",
        -10.67209129036738
      ],
      [
        "aroon",
        -10.680258343056693
      ],
      [
        "xu",
        -10.680809408200224
      ],
      [
        "▁yëgu",
        -10.682551324657064
      ],
      [
        "ir",
        -10.690097634235515
      ],
      [
        "wuma",
        -10.690456957128209
      ],
      [
        "aň",
        -10.690623373975043
      ],
      [
        "anaa",
        -10.696786860872221
      ],
      [
        "ñaa",
        -10.69869290373351
      ],
      [
        "▁gë",
        -10.700650372546262
      ],
      [
        "▁Laa",
        -10.700951455801643
      ],
      [
        "▁ñañ",
        -10.701326328461624
      ],
      [
        "eri",
        -10.706913394868243
      ],
      [
        "▁juróom-ñe",
        -10.70756037677991
      ],
      [
        "▁Lo",
        -10.708416476006974
      ],
      [
        "yaram",
        -10.708507552298368
      ],
      [
        "mbaa",
        -10.710232596466266
      ],
      [
        "doon",
        -10.710987497568174
      ],
      [
        "antu",
        -10.71143505258463
      ],
      [
        "eetul",
        -10.716552702816054
      ],
      [
        "enera",
        -10.724347282428525
      ],
      [
        "cee",
        -10.725697577097414
      ],
      [
        "nit",
        -10.728041527978242
      ],
      [
        "njaay",
        -10.730611892934645
      ],
      [
        "▁We",
        -10.733936544195576
      ],
      [
        "kaar",
        -10.738697234925239
      ],
      [
        "▁pa",
        -10.741375413250363
      ],
      [
        "em.",
        -10.741861572495077
      ],
      [
        "oyal",
        -10.74249233030476
      ],
      [
        "ó",
        -10.74283124695535
      ],
      [
        "aari",
        -10.742848750360146
      ],
      [
        "ël",
        -10.743583229647841
      ],
      [
        "wal",
        -10.744179667771725
      ],
      [
        "▁jam",
        -10.750436377179481
      ],
      [
        "▁ro",
        -10.7527944862521
      ],
      [
        "attu",
        -10.75745422278945
      ],
      [
        "▁opeere",
        -10.757653899386895
      ],
      [
        "▁deewa",
        -10.762514324517232
      ],
      [
        "▁ragale",
        -10.764349674323984
      ],
      [
        "oyd",
        -10.76459857383441
      ],
      [
        "▁siga",
        -10.765143089501024
      ],
      [
        "aññ",
        -10.768795307652473
      ],
      [
        "ginnaaw",
        -10.771216014024112
      ],
      [
        "aate",
        -10.772176146248071
      ],
      [
        "▁poo",
        -10.778192887218312
      ],
      [
        "wuñu",
        -10.780126564105565
      ],
      [
        "▁Nd",
        -10.781734745046386
      ],
      [
        "goom",
        -10.781903605128926
      ],
      [
        "dimbal",
        -10.782692737281966
      ],
      [
        "angoo",
        -10.784986101177244
      ],
      [
        "▁Tug",
        -10.786320928625877
      ],
      [
        "dund",
        -10.790380396532843
      ],
      [
        "àkku",
        -10.791705554847148
      ],
      [
        "ée",
        -10.795708377235503
      ],
      [
        "▁mënun",
        -10.798185625562528
      ],
      [
        "-benn",
        -10.802856828451333
      ],
      [
        "▁dégge",
        -10.80912096123141
      ],
      [
        "▁sang",
        -10.811861548297372
      ],
      [
        "ag",
        -10.816383705738273
      ],
      [
        "▁Tim",
        -10.817486505105592
      ],
      [
        "▁mo",
        -10.818434959501353
      ],
      [
        "▁Ker",
        -10.820025731511574
      ],
      [
        "àpptoo",
        -10.820491780527709
      ],
      [
        "▁An",
        -10.821061123110422
      ],
      [
        "▁taf",
        -10.821746159450797
      ],
      [
        "àppaa",
        -10.824050581150548
      ],
      [
        "eg",
        -10.82713705153904
      ],
      [
        "▁xo",
        -10.830167293262814
      ],
      [
        "▁kak",
        -10.830779148406881
      ],
      [
        "▁bindu",
        -10.83302093407626
      ],
      [
        "génn",
        -10.839763188434073
      ],
      [
        "Bamendaa",
        -10.845180880239493
      ],
      [
        "▁xew",
        -10.845230481120472
      ],
      [
        "jee",
        -10.848470441808626
      ],
      [
        "tum",
        -10.849224424777262
      ],
      [
        "aaxaan",
        -10.850545862270698
      ],
      [
        "ñse",
        -10.85256124048296
      ],
      [
        "def",
        -10.853324618892206
      ],
      [
        "▁teen",
        -10.85439350886271
      ],
      [
        "Frãs",
        -10.859990562448496
      ],
      [
        "▁léeba",
        -10.860108430029253
      ],
      [
        "▁gay",
        -10.861317102998504
      ],
      [
        "aru",
        -10.861324653062677
      ],
      [
        "▁kilif",
        -10.863285267133865
      ],
      [
        "ëm",
        -10.86435447192611
      ],
      [
        "tànk",
        -10.86465355653444
      ],
      [
        "teer",
        -10.864742332449971
      ],
      [
        "bis",
        -10.868452393122665
      ],
      [
        "▁Sung",
        -10.873114610499156
      ],
      [
        "inam",
        -10.873967777948529
      ],
      [
        "▁jànge",
        -10.875516086171121
      ],
      [
        "tudd",
        -10.879577726249199
      ],
      [
        "guma",
        -10.88469787275739
      ],
      [
        "laaj",
        -10.889706812883698
      ],
      [
        "▁daws",
        -10.890880713187823
      ],
      [
        "àmbu",
        -10.892403485871549
      ],
      [
        "stam",
        -10.893906120246433
      ],
      [
        "ànk",
        -10.894500432132881
      ],
      [
        "Alma",
        -10.894777802475707
      ],
      [
        "aloom",
        -10.896928566442773
      ],
      [
        "ànt",
        -10.897854423945876
      ],
      [
        "-t",
        -10.899458441930653
      ],
      [
        "▁kaay",
        -10.901040816665018
      ],
      [
        "àkkal",
        -10.906326575070896
      ],
      [
        "og",
        -10.906456079480037
      ],
      [
        "yàgg",
        -10.907082549425644
      ],
      [
        "took",
        -10.90742221183363
      ],
      [
        "Ni",
        -10.90838351868814
      ],
      [
        "-l",
        -10.913672904499776
      ],
      [
        "lli",
        -10.921307883365383
      ],
      [
        "▁loo",
        -10.923662118205304
      ],
      [
        "C",
        -10.923917067581604
      ],
      [
        "jag",
        -10.92553272372069
      ],
      [
        "▁baree-bar",
        -10.927675544456983
      ],
      [
        "▁nite",
        -10.929152016570841
      ],
      [
        "▁Niserya",
        -10.933225135825168
      ],
      [
        "▁ňaa",
        -10.93363285979391
      ],
      [
        "pe",
        -10.937357125946182
      ],
      [
        "démb",
        -10.9380391166249
      ],
      [
        "▁dooni",
        -10.938438239340185
      ],
      [
        "▁yo",
        -10.938747752188686
      ],
      [
        "rëdd",
        -10.93938702691183
      ],
      [
        "foo",
        -10.940242918794194
      ],
      [
        "daŋ",
        -10.940340382786154
      ],
      [
        "▁wé",
        -10.94087342612246
      ],
      [
        "▁xà",
        -10.941032303955716
      ],
      [
        "nc",
        -10.941647244131376
      ],
      [
        "e-",
        -10.944995156022994
      ],
      [
        "néegu-ňax",
        -10.946871102282703
      ],
      [
        "▁ware",
        -10.947612355273936
      ],
      [
        "gee",
        -10.951783439234587
      ],
      [
        "wóolu",
        -10.954011493407261
      ],
      [
        "kersa",
        -10.954183270582904
      ],
      [
        "deret",
        -10.95580999790456
      ],
      [
        "dex",
        -10.956763952016722
      ],
      [
        "orma",
        -10.956985300456957
      ],
      [
        "▁njuum",
        -10.957764144024951
      ],
      [
        "-góor",
        -10.958429536239437
      ],
      [
        "oto",
        -10.958463423667254
      ],
      [
        "tuut",
        -10.958635810159409
      ],
      [
        "néeg",
        -10.959234745390095
      ],
      [
        "▁jà",
        -10.959357109083506
      ],
      [
        "wér",
        -10.959358035774283
      ],
      [
        "▁Mëne",
        -10.960323340507555
      ],
      [
        "kkan",
        -10.961613983536814
      ],
      [
        "▁déggu",
        -10.964665276612937
      ],
      [
        "xet",
        -10.96788460946446
      ],
      [
        "rey",
        -10.968433235022939
      ],
      [
        "un",
        -10.971956399936369
      ],
      [
        "▁wee",
        -10.97566423261545
      ],
      [
        "ňe",
        -10.98262746625825
      ],
      [
        "▁foto",
        -10.98702025767757
      ],
      [
        "muur",
        -10.989094037890748
      ],
      [
        "mbaar",
        -10.991191991220887
      ],
      [
        "R",
        -10.992743588686823
      ],
      [
        "doole",
        -10.996195054586963
      ],
      [
        "reem",
        -10.996264836927768
      ],
      [
        "à",
        -10.996394872418701
      ],
      [
        "▁sam",
        -10.999057581052895
      ],
      [
        "wàll",
        -10.999241999195474
      ],
      [
        "dayo",
        -11.001286690340086
      ],
      [
        "bir",
        -11.001449464996416
      ],
      [
        "óotal",
        -11.003791370898723
      ],
      [
        "tawat",
        -11.006532222677805
      ],
      [
        "taa",
        -11.01216222100229
      ],
      [
        "nijaay",
        -11.014737511011859
      ],
      [
        "àmm",
        -11.016058566854959
      ],
      [
        "-der",
        -11.017917807436778
      ],
      [
        "njort",
        -11.018908915023498
      ],
      [
        "▁Ag",
        -11.019799105146703
      ],
      [
        "óotu",
        -11.01982750825326
      ],
      [
        "▁gàdd",
        -11.020072533288406
      ],
      [
        "nangu",
        -11.022236872777333
      ],
      [
        "▁yakk",
        -11.024102418937806
      ],
      [
        "▁màndargaa",
        -11.025477287218102
      ],
      [
        "ëdd",
        -11.028085358850447
      ],
      [
        "▁Ya",
        -11.030406046980943
      ],
      [
        "pasar",
        -11.031943163334109
      ],
      [
        "-j",
        -11.032077840816195
      ],
      [
        "▁toolu-",
        -11.032092180668506
      ],
      [
        "uwul",
        -11.03241980949593
      ],
      [
        "baab",
        -11.034875823328997
      ],
      [
        "mbi",
        -11.035162188453207
      ],
      [
        "▁caa",
        -11.037334417699434
      ],
      [
        "▁xuu",
        -11.039053177157491
      ],
      [
        "▁gé",
        -11.040116721421267
      ],
      [
        "Br",
        -11.0407707058776
      ],
      [
        "▁tont",
        -11.040796206033448
      ],
      [
        "▁téen",
        -11.041844504347578
      ],
      [
        "dë",
        -11.042361231688195
      ],
      [
        "▁gétt",
        -11.042952403553493
      ],
      [
        "▁Gó",
        -11.042989953803579
      ],
      [
        "▁àtta",
        -11.04423335818579
      ],
      [
        "ënd",
        -11.04452606811438
      ],
      [
        "▁Do",
        -11.0456899801111
      ],
      [
        "▁ràkkaaj",
        -11.045758184473998
      ],
      [
        "▁bë",
        -11.045904733526552
      ],
      [
        "oley",
        -11.046405600987603
      ],
      [
        "▁aj",
        -11.047149675360375
      ],
      [
        "▁sànnee",
        -11.049906694138329
      ],
      [
        "aw-",
        -11.049951231473477
      ],
      [
        "▁lox",
        -11.050664384528327
      ],
      [
        "a.",
        -11.051075653145466
      ],
      [
        "▁jégg",
        -11.052463533041454
      ],
      [
        "▁bàyyeek",
        -11.054184463891422
      ],
      [
        "▁àjj",
        -11.057128562151636
      ],
      [
        "ndey",
        -11.057525791596802
      ],
      [
        "bàjj",
        -11.059831876765514
      ],
      [
        "▁wéer",
        -11.061442837576932
      ],
      [
        "arloo",
        -11.062891335617888
      ],
      [
        "▁Gin",
        -11.062894604269065
      ],
      [
        "▁Jé",
        -11.063950629024648
      ],
      [
        "ro",
        -11.064244833216422
      ],
      [
        "▁ragl",
        -11.065027224598575
      ],
      [
        "àbb",
        -11.0659423430097
      ],
      [
        "▁jaawa",
        -11.066530233502451
      ],
      [
        "ànq",
        -11.06741704076575
      ],
      [
        "▁dekk",
        -11.068352939847252
      ],
      [
        "▁yuux",
        -11.07118261299918
      ],
      [
        "▁gémmi",
        -11.071482566367116
      ],
      [
        "▁tapp",
        -11.071610792297413
      ],
      [
        "▁Doga",
        -11.072164683645706
      ],
      [
        "ppukaayam",
        -11.072295404124805
      ],
      [
        "▁se",
        -11.072572829283658
      ],
      [
        "éegu-ňax",
        -11.072950015440652
      ],
      [
        "ewwi",
        -11.073387284067133
      ],
      [
        "▁jull",
        -11.07379575181833
      ],
      [
        "▁wóol",
        -11.074539188856779
      ],
      [
        "▁fur",
        -11.07500803209666
      ],
      [
        "▁Afri",
        -11.076201070395703
      ],
      [
        "▁fentaako",
        -11.078061445069123
      ],
      [
        "▁tàq",
        -11.078585206181327
      ],
      [
        "▁sëq",
        -11.078636190045701
      ],
      [
        "▁jëfandiko",
        -11.078728069820205
      ],
      [
        "▁tollo",
        -11.078766878286327
      ],
      [
        "▁jànkontee",
        -11.0790393533097
      ],
      [
        "daan",
        -11.081259529235107
      ],
      [
        "▁teggi",
        -11.081698219239325
      ],
      [
        "▁ge",
        -11.081970541057276
      ],
      [
        "ole",
        -11.081997117044688
      ],
      [
        "ëg-yëg",
        -11.082000924306035
      ],
      [
        "▁summ",
        -11.08212887963885
      ],
      [
        "ërë",
        -11.08287853612772
      ],
      [
        "oro",
        -11.082886604258514
      ],
      [
        "ëccëg",
        -11.083302767195622
      ],
      [
        "óobal",
        -11.083559769223978
      ],
      [
        "▁Babungo",
        -11.083649278791883
      ],
      [
        "▁njaboot",
        -11.084157827311367
      ],
      [
        "àyyi",
        -11.084331365202509
      ],
      [
        "oktoor",
        -11.08462316236615
      ],
      [
        "àrme",
        -11.085057291670589
      ],
      [
        "▁tuur",
        -11.0851823766847
      ],
      [
        "ddoo",
        -11.08522922134461
      ],
      [
        "dàqe",
        -11.085247435872313
      ],
      [
        "bàcc",
        -11.085564212898158
      ],
      [
        "ékkee-j",
        -11.086298334405255
      ],
      [
        "éexlu",
        -11.086376986692468
      ],
      [
        "umtukaay",
        -11.086416942380389
      ],
      [
        "aawtéef",
        -11.086552824393566
      ],
      [
        "ew-xew",
        -11.086582944179124
      ],
      [
        "uqu-géeju",
        -11.086638489375238
      ],
      [
        "▁póli",
        -11.086639000515628
      ],
      [
        "▁Néegu-",
        -11.086658441546863
      ],
      [
        "rãs",
        -11.086733259168547
      ],
      [
        "6",
        -11.087006163924473
      ],
      [
        "▁1",
        -11.087046338086676
      ],
      [
        "▁Ho",
        -11.087055378775299
      ],
      [
        "▁Saawusam",
        -11.087056621372327
      ],
      [
        "Ò",
        -11.087057032006793
      ],
      [
        "/",
        -11.0870570320068
      ],
      [
        "‘",
        -11.0870570320068
      ],
      [
        "U",
        -11.087057032046742
      ],
      [
        "7",
        -11.087057032046747
      ],
      [
        "è",
        -11.087057032046747
      ],
      [
        "gànnaar",
        -11.08705715687956
      ],
      [
        "▁V",
        -11.087058969500532
      ],
      [
        "▁194",
        -11.087075056043428
      ],
      [
        "-Yàlla-tey",
        -11.087076986305934
      ],
      [
        "tekkaaral",
        -11.08708765659695
      ],
      [
        "▁kepp",
        -11.087334446747207
      ],
      [
        "▁njabo",
        -11.087696457194303
      ],
      [
        "▁ndó",
        -11.087711886607952
      ],
      [
        "ókoo",
        -11.08787271241361
      ],
      [
        "▁Poor",
        -11.088033671690125
      ],
      [
        "oldaar",
        -11.088140931605817
      ],
      [
        "àmbaa",
        -11.088171065513903
      ],
      [
        "quji",
        -11.088324612554615
      ],
      [
        "-aadama",
        -11.088441371473298
      ],
      [
        "-tubaab",
        -11.08844406104236
      ],
      [
        "fise",
        -11.088552610946312
      ],
      [
        "▁tó",
        -11.088606922933245
      ],
      [
        "ànnaay",
        -11.08877127707833
      ],
      [
        "▁njii",
        -11.08878601703482
      ],
      [
        "ggatu",
        -11.089079547098756
      ],
      [
        "▁só",
        -11.089244950926792
      ],
      [
        "añseer",
        -11.089607470419152
      ],
      [
        "▁Léeg",
        -11.089820742237736
      ],
      [
        "▁Oga",
        -11.089842332208562
      ],
      [
        "gëlé",
        -11.089894694956486
      ],
      [
        "bbale",
        -11.090092243181155
      ],
      [
        "um-b",
        -11.09012677054524
      ],
      [
        "éedéet",
        -11.090296582066673
      ],
      [
        "▁Tool",
        -11.09030380309052
      ],
      [
        "▁àntu",
        -11.090718209348308
      ],
      [
        "▁jonn",
        -11.090729321410016
      ],
      [
        "oo-dë",
        -11.091118087181908
      ],
      [
        "▁kilo",
        -11.091207431361592
      ],
      [
        "▁yombu",
        -11.091220806803271
      ],
      [
        "bbe",
        -11.091270843692724
      ],
      [
        "-Yàlla",
        -11.091824527899034
      ],
      [
        "▁Abaak",
        -11.09200957695298
      ],
      [
        "xantu",
        -11.092023935939196
      ],
      [
        "aqar",
        -11.092062008741543
      ],
      [
        "Arkuur",
        -11.092107605666744
      ],
      [
        "raay",
        -11.092209168008608
      ],
      [
        "gu-",
        -11.092735513774231
      ],
      [
        "▁jëf",
        -11.094051963359059
      ],
      [
        "▁kë",
        -11.094165826316459
      ],
      [
        "njar",
        -11.094236574491386
      ],
      [
        "▁Nise",
        -11.09426624018995
      ],
      [
        "▁tàl",
        -11.095008250268421
      ],
      [
        "▁Kó",
        -11.095078053745755
      ],
      [
        "▁tée",
        -11.09513502853013
      ],
      [
        "i-ñ",
        -11.095368037788198
      ],
      [
        "▁kó",
        -11.095740898587655
      ],
      [
        "uurit",
        -11.095931882729992
      ],
      [
        "ofeel",
        -11.095993374616771
      ],
      [
        "▁bëj",
        -11.096056740781734
      ],
      [
        "▁Alse",
        -11.096096001644753
      ],
      [
        "-dëkk",
        -11.096776028170055
      ],
      [
        "-tey",
        -11.09707559714504
      ],
      [
        "lbati",
        -11.09799743644109
      ],
      [
        "▁waax",
        -11.098086693337446
      ],
      [
        "▁Sors",
        -11.098819044784504
      ],
      [
        "asi",
        -11.098947309741773
      ],
      [
        "jo",
        -11.09907985834463
      ],
      [
        "▁manoo",
        -11.100051736493183
      ],
      [
        "▁joo",
        -11.100490865945629
      ],
      [
        "-géej",
        -11.100690093468273
      ],
      [
        "aasaloo",
        -11.100908753409858
      ],
      [
        "▁waxee",
        -11.102751853303781
      ],
      [
        "ró",
        -11.103867109431498
      ],
      [
        "ewuñ",
        -11.103943690656676
      ],
      [
        "ndeer",
        -11.105070740486552
      ],
      [
        "nco",
        -11.106623943551531
      ],
      [
        "ñet",
        -11.107076177771297
      ],
      [
        "▁tà",
        -11.107171999167862
      ],
      [
        "ngalee",
        -11.108201516972382
      ],
      [
        "▁xub",
        -11.108985928837832
      ],
      [
        "aange",
        -11.110222944381887
      ],
      [
        "mmiñ",
        -11.110380493710803
      ],
      [
        "oxal",
        -11.111381087246604
      ],
      [
        "ayloo",
        -11.111586750648259
      ],
      [
        "▁doomu-",
        -11.113565580397953
      ],
      [
        "rme",
        -11.113704351687224
      ],
      [
        "ikk",
        -11.113768178459589
      ],
      [
        "▁(b",
        -11.114030813184321
      ],
      [
        "eji",
        -11.114108632693116
      ],
      [
        "-saal",
        -11.114591723616474
      ],
      [
        "▁ngoo",
        -11.116716372101905
      ],
      [
        "dëgg-",
        -11.118023138133854
      ],
      [
        "▁namm",
        -11.118146994083478
      ],
      [
        "nóox",
        -11.118931556162172
      ],
      [
        "▁bël",
        -11.119577953027795
      ],
      [
        "kkë",
        -11.119628916051328
      ],
      [
        "▁lëpp",
        -11.119805459549589
      ],
      [
        "ey",
        -11.120982161684406
      ],
      [
        "eryaa",
        -11.122901369759525
      ],
      [
        "yàcc",
        -11.12301722565776
      ],
      [
        "▁wóo",
        -11.123943873837023
      ],
      [
        "▁dell",
        -11.124658264950433
      ],
      [
        "fin",
        -11.124885053298385
      ],
      [
        "sée",
        -11.125221098494718
      ],
      [
        "m-",
        -11.126022984556514
      ],
      [
        "samaan",
        -11.126995133108622
      ],
      [
        "▁déey",
        -11.12720140648829
      ],
      [
        "▁simi",
        -11.12722006786353
      ],
      [
        "▁upp",
        -11.127523545619718
      ],
      [
        "ttu",
        -11.129566563153737
      ],
      [
        "▁yew",
        -11.130430477429888
      ],
      [
        "▁fatt",
        -11.135813964620993
      ],
      [
        "▁ruu",
        -11.135862114746196
      ],
      [
        "ost",
        -11.136159474094228
      ],
      [
        "kusaa",
        -11.136258380719838
      ],
      [
        "-àll",
        -11.136491131421655
      ],
      [
        "ajoom",
        -11.137078861907046
      ],
      [
        "▁ti",
        -11.137294271425281
      ],
      [
        "rabu-",
        -11.137429212977716
      ],
      [
        "skan",
        -11.137710593330278
      ],
      [
        "▁boppu",
        -11.139247946920417
      ],
      [
        "▁Tuba",
        -11.140189858532187
      ],
      [
        "peer",
        -11.14201598925892
      ],
      [
        "▁saay",
        -11.143171765375282
      ],
      [
        "▁dékk",
        -11.1433444997428
      ],
      [
        "▁góo",
        -11.14542201346267
      ],
      [
        "konte",
        -11.147357962435139
      ],
      [
        "ggatoon",
        -11.14879272371106
      ],
      [
        "r-k",
        -11.14895233277112
      ],
      [
        "qal",
        -11.15024819321355
      ],
      [
        "ëgge",
        -11.150494272226426
      ],
      [
        "-maa",
        -11.150862613831467
      ],
      [
        "▁bey",
        -11.15303717121009
      ],
      [
        "éggi",
        -11.153448255427826
      ],
      [
        "u-g",
        -11.153593496313427
      ],
      [
        "▁To",
        -11.15420245300622
      ],
      [
        "▁yeg",
        -11.155414818399148
      ],
      [
        "oroom",
        -11.158266277299589
      ],
      [
        "neen",
        -11.158798208882398
      ],
      [
        "▁mor",
        -11.159061646243858
      ],
      [
        "óol",
        -11.159142389830892
      ],
      [
        "oxnaa",
        -11.159890488063073
      ],
      [
        "▁jàppoo",
        -11.161809514096662
      ],
      [
        "▁gale",
        -11.162558718840117
      ],
      [
        "mba",
        -11.164122637145809
      ],
      [
        "lëm",
        -11.164296774598128
      ],
      [
        "maand",
        -11.164840385669546
      ],
      [
        "▁Yé",
        -11.168816450852438
      ],
      [
        "joor",
        -11.170145925908452
      ],
      [
        "▁Bok",
        -11.170794802949993
      ],
      [
        "Ki",
        -11.170898199550841
      ],
      [
        "nesi",
        -11.171303470751507
      ],
      [
        "▁Jon",
        -11.171678888720477
      ],
      [
        "▁lëm",
        -11.171973813619893
      ],
      [
        "▁aska",
        -11.172045282862923
      ],
      [
        "ent",
        -11.173482392615472
      ],
      [
        "diine",
        -11.175045575379686
      ],
      [
        "dde",
        -11.175836215169436
      ],
      [
        "▁jën",
        -11.175846129768109
      ],
      [
        "▁Al",
        -11.175979160425936
      ],
      [
        "eesal",
        -11.176002683211536
      ],
      [
        "▁kañ",
        -11.176897245468085
      ],
      [
        "mbax",
        -11.177298696289352
      ],
      [
        "olloo",
        -11.178111336159253
      ],
      [
        "aree",
        -11.178488513324947
      ],
      [
        "ukk",
        -11.180890438670854
      ],
      [
        "seg",
        -11.181518766167553
      ],
      [
        "▁yéen",
        -11.184544239070126
      ],
      [
        "ndal",
        -11.185670306160386
      ],
      [
        "ras",
        -11.186404818604956
      ],
      [
        "▁dundal",
        -11.187516688850152
      ],
      [
        "jji",
        -11.18780034180806
      ],
      [
        "aajuloo",
        -11.189915793692807
      ],
      [
        "anoo",
        -11.191662065691832
      ],
      [
        "▁Ño",
        -11.192473005402073
      ],
      [
        "-gis",
        -11.192784003054687
      ],
      [
        "oobar",
        -11.193843671200181
      ],
      [
        "▁tege",
        -11.195880921371861
      ],
      [
        "pee",
        -11.196324862517915
      ],
      [
        "ajaa",
        -11.197705921342697
      ],
      [
        "ëro",
        -11.199523864818644
      ],
      [
        "▁tëg",
        -11.199747284402465
      ],
      [
        "▁sott",
        -11.209514102209903
      ],
      [
        "bati",
        -11.210054054209765
      ],
      [
        "eraa",
        -11.212426069432244
      ],
      [
        "ons",
        -11.216291127246482
      ],
      [
        "ippi",
        -11.217114055221266
      ],
      [
        "▁wis",
        -11.218982516429875
      ],
      [
        "mam",
        -11.220707146451627
      ],
      [
        "uusu",
        -11.22186356701036
      ],
      [
        "ajoo",
        -11.227531051756486
      ],
      [
        "liki",
        -11.229016281909793
      ],
      [
        "nuy",
        -11.229294787055437
      ],
      [
        "set",
        -11.230070873780885
      ],
      [
        "▁Leera",
        -11.230729840072815
      ],
      [
        "▁gol",
        -11.232032788132997
      ],
      [
        "▁pet",
        -11.233931267507218
      ],
      [
        "goneem",
        -11.234429246124726
      ],
      [
        "dool",
        -11.237284042034936
      ],
      [
        "▁pot",
        -11.240471463143292
      ],
      [
        "▁Noon",
        -11.241291577143755
      ],
      [
        "▁to",
        -11.242205541250813
      ],
      [
        "▁bésu",
        -11.242814987817294
      ],
      [
        "▁Ama",
        -11.24838356793829
      ],
      [
        "aguma",
        -11.249274255099792
      ],
      [
        "ujj",
        -11.249872005186141
      ],
      [
        "ryaa",
        -11.251990644904472
      ],
      [
        "ammeel",
        -11.256461863481437
      ],
      [
        "▁Kawa",
        -11.256500537068398
      ],
      [
        "▁Mari",
        -11.2588662542374
      ],
      [
        "▁màn",
        -11.263448972904266
      ],
      [
        "▁xon",
        -11.264729347409077
      ],
      [
        "bokk",
        -11.26610955379934
      ],
      [
        "kare",
        -11.26816545016748
      ],
      [
        "▁mbaam",
        -11.268638033073307
      ],
      [
        "mul",
        -11.272804394511246
      ],
      [
        "ët.",
        -11.274098898240734
      ],
      [
        "meek",
        -11.275434223229666
      ],
      [
        "ét",
        -11.276006495643774
      ],
      [
        "qat",
        -11.2766125774937
      ],
      [
        "égg",
        -11.28006733462114
      ],
      [
        "eetar",
        -11.285734823169713
      ],
      [
        "▁gudde",
        -11.286284489554797
      ],
      [
        "ŋs",
        -11.287684535035122
      ],
      [
        "▁jab",
        -11.288617813687065
      ],
      [
        "entu",
        -11.290599313031763
      ],
      [
        "▁amoo",
        -11.291680109740652
      ],
      [
        "▁ňe",
        -11.298446848104907
      ],
      [
        "▁àgge",
        -11.298515736948627
      ],
      [
        "▁lo",
        -11.299140787373169
      ],
      [
        "iiru-",
        -11.299706222130382
      ],
      [
        "lekk",
        -11.301265291308326
      ],
      [
        "▁këri",
        -11.301910873354299
      ],
      [
        "noŋ",
        -11.305767114366366
      ],
      [
        "▁tub",
        -11.30724563430928
      ],
      [
        "ndaw",
        -11.308245177112628
      ],
      [
        "wa",
        -11.30928775681179
      ],
      [
        "▁caw",
        -11.309580954546343
      ],
      [
        "-s",
        -11.31059811136676
      ],
      [
        "▁cax",
        -11.310626848182764
      ],
      [
        "are",
        -11.311803880579008
      ],
      [
        "▁Fe",
        -11.311847361660986
      ],
      [
        "▁Ngo",
        -11.31210947904534
      ],
      [
        "be",
        -11.316600993726317
      ],
      [
        "ñaar",
        -11.316823465099576
      ],
      [
        "▁ñooñ",
        -11.318720518716212
      ],
      [
        "▁jaf",
        -11.321377507501001
      ],
      [
        "Góo",
        -11.322808547041076
      ],
      [
        "eewu",
        -11.326316130159196
      ],
      [
        "▁xas",
        -11.326633725262601
      ],
      [
        "▁Xamu",
        -11.339104852679052
      ],
      [
        "yoo",
        -11.340524033842314
      ],
      [
        "akkan",
        -11.341365837309514
      ],
      [
        "nag",
        -11.343899988244242
      ],
      [
        "taas",
        -11.344108488503025
      ],
      [
        "▁bokku",
        -11.348036179254192
      ],
      [
        "ori",
        -11.35440111540623
      ],
      [
        "amaŋ",
        -11.355003562767585
      ],
      [
        "g-",
        -11.355976061674184
      ],
      [
        "▁fekke",
        -11.355984523733845
      ],
      [
        "mbur",
        -11.35608575121869
      ],
      [
        "-sa-",
        -11.359278904304826
      ],
      [
        "▁lij",
        -11.361193116935736
      ],
      [
        "àlle",
        -11.362795008625719
      ],
      [
        "raa",
        -11.36641952130917
      ],
      [
        "bbi",
        -11.368472067468051
      ],
      [
        "nq",
        -11.370678075905168
      ],
      [
        "nyaa",
        -11.374080613637773
      ],
      [
        "▁xër",
        -11.374749492461172
      ],
      [
        "▁Mbe",
        -11.379737268861625
      ],
      [
        "▁yàkka",
        -11.382169204724251
      ],
      [
        "iñ",
        -11.382440521968508
      ],
      [
        "ttee",
        -11.387574125233737
      ],
      [
        "▁xooli",
        -11.391207134756229
      ],
      [
        "-d",
        -11.397546507295477
      ],
      [
        "suk",
        -11.404334999692491
      ],
      [
        "▁Ne",
        -11.40735305177948
      ],
      [
        "▁bar",
        -11.412624659240343
      ],
      [
        "aakoon",
        -11.414411235255962
      ],
      [
        "▁foof",
        -11.415736209274547
      ],
      [
        "gaa",
        -11.417175772141068
      ],
      [
        "iyee",
        -11.418652109849699
      ],
      [
        "▁suu",
        -11.42269129204015
      ],
      [
        "oppit",
        -11.427141338241542
      ],
      [
        "▁moy",
        -11.42749881142583
      ],
      [
        "mmi",
        -11.429754049469386
      ],
      [
        "go",
        -11.43926177829156
      ],
      [
        "teel",
        -11.442160426504579
      ],
      [
        "▁daŋ",
        -11.445998757449903
      ],
      [
        "ase",
        -11.449001273993893
      ],
      [
        "mo",
        -11.454208010468129
      ],
      [
        "bare",
        -11.460199946530924
      ],
      [
        "eww",
        -11.460656307820788
      ],
      [
        "ellu",
        -11.463060675499634
      ],
      [
        "mbar",
        -11.466937750277776
      ],
      [
        "▁nda",
        -11.467524339765639
      ],
      [
        "▁fañ",
        -11.468189409770398
      ],
      [
        "nañ",
        -11.471553321634882
      ],
      [
        "ppu",
        -11.471937828274962
      ],
      [
        "▁Dë",
        -11.472787520612142
      ],
      [
        "ëfe",
        -11.474363848655177
      ],
      [
        "ndoor",
        -11.477234099384143
      ],
      [
        "▁yaat",
        -11.47825012198711
      ],
      [
        "leer",
        -11.478846614105475
      ],
      [
        "▁yend",
        -11.479179897627553
      ],
      [
        "ilwi",
        -11.48113967810211
      ],
      [
        "▁fom",
        -11.482788538865623
      ],
      [
        "areŋ",
        -11.483299032984707
      ],
      [
        "lunk",
        -11.486958246260187
      ],
      [
        "emaa",
        -11.488470487620672
      ],
      [
        "ayaal",
        -11.489220270118429
      ],
      [
        "▁Mara",
        -11.49731219989233
      ],
      [
        "anteer",
        -11.49916111619965
      ],
      [
        "eroog",
        -11.499423269018628
      ],
      [
        "▁duñ",
        -11.501637121083277
      ],
      [
        "ree",
        -11.501700430232477
      ],
      [
        "me",
        -11.502895464598074
      ],
      [
        "▁le",
        -11.50891023691025
      ],
      [
        "kaani",
        -11.509142821647217
      ],
      [
        "uróom-benn",
        -11.516828818995892
      ],
      [
        "axoon",
        -11.521261523199653
      ],
      [
        "do",
        -11.52267359537341
      ],
      [
        "dell",
        -11.525864385224404
      ],
      [
        "▁mbë",
        -11.53110636372255
      ],
      [
        "seeti",
        -11.534666064906569
      ],
      [
        "▁gënal",
        -11.541872205348698
      ],
      [
        "naaxi",
        -11.550013770190741
      ],
      [
        "rga",
        -11.551105336800454
      ],
      [
        "▁waxam",
        -11.559085663610086
      ],
      [
        "soŋ",
        -11.561559099524349
      ],
      [
        "fi",
        -11.563943984242194
      ],
      [
        "utu",
        -11.565537774223568
      ],
      [
        "uux",
        -11.576321840509523
      ],
      [
        "qu",
        -11.578448082276667
      ],
      [
        "afara",
        -11.583739055865816
      ],
      [
        "▁Sind",
        -11.588226570513694
      ],
      [
        "▁masuñ",
        -11.589431721541578
      ],
      [
        "fe",
        -11.590293441834927
      ],
      [
        "▁mbe",
        -11.593121476085361
      ],
      [
        "▁nen",
        -11.595427440829162
      ],
      [
        "sim",
        -11.605877095597169
      ],
      [
        "nee",
        -11.621039641054999
      ],
      [
        "wantee",
        -11.628707554473758
      ],
      [
        "eňň",
        -11.631920110506083
      ],
      [
        "Baay",
        -11.638588196218127
      ],
      [
        "aral",
        -11.643015052677196
      ],
      [
        "lo",
        -11.648130631486259
      ],
      [
        "am-x",
        -11.651726394637084
      ],
      [
        "▁Yo",
        -11.652244459802148
      ],
      [
        "eetu",
        -11.666358756060847
      ],
      [
        "abal",
        -11.666371120732123
      ],
      [
        "▁ë",
        -11.666892806605626
      ],
      [
        "▁meru",
        -11.668327710426789
      ],
      [
        "miň",
        -11.670907795990699
      ],
      [
        "ňi",
        -11.675162000512898
      ],
      [
        "loos",
        -11.682193085172687
      ],
      [
        "ña",
        -11.68317253583218
      ],
      [
        "daw",
        -11.686077684913279
      ],
      [
        "▁ru",
        -11.699077073174752
      ],
      [
        "aasa",
        -11.704203695864699
      ],
      [
        "tati",
        -11.713030772567969
      ],
      [
        "ru-",
        -11.714315797141788
      ],
      [
        "mm",
        -11.717077905859043
      ],
      [
        "▁jaax",
        -11.729067099251909
      ],
      [
        "ell",
        -11.730512056426393
      ],
      [
        "uukar",
        -11.732572427225861
      ],
      [
        "▁nir",
        -11.739791736000377
      ],
      [
        "araa",
        -11.73994034288242
      ],
      [
        "▁muu",
        -11.756023138486823
      ],
      [
        "ak-s",
        -11.761521380804993
      ],
      [
        "kam",
        -11.762302321574388
      ],
      [
        "iiwaan",
        -11.770898911913811
      ],
      [
        "▁pata",
        -11.775700130058816
      ],
      [
        "ise",
        -11.789328728294452
      ],
      [
        "oontee",
        -11.789868009951185
      ],
      [
        "xla",
        -11.790887056328398
      ],
      [
        "▁bëggu",
        -11.794048410814252
      ],
      [
        "▁Xal",
        -11.795617477125987
      ],
      [
        "goon",
        -11.797493745455323
      ],
      [
        "▁Waxa",
        -11.797670867066932
      ],
      [
        "etul",
        -11.801171734203884
      ],
      [
        "▁rawa",
        -11.812682174623411
      ],
      [
        "lal",
        -11.813468005560626
      ],
      [
        "naaw",
        -11.816129177070087
      ],
      [
        "ntu",
        -11.819618880907287
      ],
      [
        "ge",
        -11.82056178576168
      ],
      [
        "gato",
        -11.829812389224342
      ],
      [
        "meel",
        -11.829980527767411
      ],
      [
        "bit",
        -11.83049870268151
      ],
      [
        "atam",
        -11.831372385834143
      ],
      [
        "inu",
        -11.83232196334582
      ],
      [
        "▁ré",
        -11.8382056423811
      ],
      [
        "àttu",
        -11.84693224123615
      ],
      [
        "ex",
        -11.84961926662653
      ],
      [
        "afal",
        -11.851448141599644
      ],
      [
        "▁toolu",
        -11.853460520268627
      ],
      [
        "-laa",
        -11.860291486301008
      ],
      [
        "anaka",
        -11.863332632907845
      ],
      [
        "suma",
        -11.865140980432965
      ],
      [
        "ndi",
        -11.865707263421857
      ],
      [
        "▁moome",
        -11.866625679955305
      ],
      [
        "yaar",
        -11.867051798644253
      ],
      [
        "jaloo",
        -11.867636711051619
      ],
      [
        "àrse",
        -11.879396475707647
      ],
      [
        "aloo",
        -11.889635112213506
      ],
      [
        "wandoo",
        -11.892320415138736
      ],
      [
        "▁rii",
        -11.89325971811619
      ],
      [
        "-bi",
        -11.896455782682576
      ],
      [
        "▁dé",
        -11.905523372275203
      ],
      [
        "▁Dii",
        -11.913180312646892
      ],
      [
        "▁sóo",
        -11.915539916611186
      ],
      [
        "àgg",
        -11.920869513940547
      ],
      [
        "▁naw",
        -11.92104834520176
      ],
      [
        "▁Me",
        -11.922215854201589
      ],
      [
        "▁añ",
        -11.923654153760186
      ],
      [
        "omp",
        -11.929777656213703
      ],
      [
        "▁lax",
        -11.940420916766893
      ],
      [
        "▁àtt",
        -11.942478319889329
      ],
      [
        "riy",
        -11.946892740618132
      ],
      [
        "sunu",
        -11.951985538548684
      ],
      [
        "anu",
        -11.958715132950594
      ],
      [
        "▁faju",
        -11.959906757047507
      ],
      [
        "▁ke",
        -11.961449460473942
      ],
      [
        "o.",
        -11.96578895529288
      ],
      [
        "aňoo",
        -11.967512471611974
      ],
      [
        "us-",
        -11.970802603389808
      ],
      [
        "lim",
        -11.980196534236592
      ],
      [
        "▁sid",
        -11.992552433050458
      ],
      [
        "▁Saxa",
        -11.993211963736474
      ],
      [
        "▁bor",
        -12.006433130349818
      ],
      [
        "kkat",
        -12.00813837979335
      ],
      [
        "asu",
        -12.009786405688201
      ],
      [
        "iit",
        -12.014374843221209
      ],
      [
        "nge",
        -12.018814729190982
      ],
      [
        "aayam",
        -12.020252347916175
      ],
      [
        "niy",
        -12.027246765466789
      ],
      [
        "ddo",
        -12.028887029593161
      ],
      [
        "bee",
        -12.03116863235854
      ],
      [
        "aam",
        -12.033613138686208
      ],
      [
        "dal",
        -12.035848587034614
      ],
      [
        "añe",
        -12.038608217199046
      ],
      [
        "nuñu",
        -12.05683761770655
      ],
      [
        "wi.",
        -12.058764471225281
      ],
[...]
